<?xml version="1.0"?>
<MethodSetup Method="BDT::BDT">
  <GeneralInfo>
    <Info name="TMVA Release" value="4.2.0 [262656]"/>
    <Info name="ROOT Release" value="5.34/25 [336409]"/>
    <Info name="Training events" value="68445"/>
    <Info name="Analysis type" value="Classification"/>
  </GeneralInfo>
  <Options>
    <Option name="V" modified="Yes">False</Option>
    <Option name="H" modified="Yes">False</Option>
    <Option name="NTrees" modified="Yes">400</Option>
    <Option name="MaxDepth" modified="Yes">4</Option>
    <Option name="MinNodeSize" modified="Yes">4.0%</Option>
    <Option name="nCuts" modified="Yes">40</Option>
    <Option name="BoostType" modified="Yes">Grad</Option>
    <Option name="UseBaggedBoost" modified="Yes">True</Option>
    <Option name="Shrinkage" modified="Yes">1.000000e-01</Option>
    <Option name="BaggedSampleFraction" modified="Yes">5.000000e-01</Option>
    <Option name="SeparationType" modified="Yes">giniindex</Option>
    <Option name="VerbosityLevel" modified="No">Default</Option>
    <Option name="VarTransform" modified="No">None</Option>
    <Option name="CreateMVAPdfs" modified="No">False</Option>
    <Option name="IgnoreNegWeightsInTraining" modified="No">False</Option>
    <Option name="AdaBoostR2Loss" modified="No">quadratic</Option>
    <Option name="AdaBoostBeta" modified="No">5.000000e-01</Option>
    <Option name="UseRandomisedTrees" modified="No">False</Option>
    <Option name="UseNvars" modified="No">3</Option>
    <Option name="UsePoissonNvars" modified="No">True</Option>
    <Option name="UseYesNoLeaf" modified="No">True</Option>
    <Option name="NegWeightTreatment" modified="No">ignorenegweightsintraining</Option>
    <Option name="Css" modified="No">1.000000e+00</Option>
    <Option name="Cts_sb" modified="No">1.000000e+00</Option>
    <Option name="Ctb_ss" modified="No">1.000000e+00</Option>
    <Option name="Cbb" modified="No">1.000000e+00</Option>
    <Option name="NodePurityLimit" modified="No">5.000000e-01</Option>
    <Option name="DoBoostMonitor" modified="No">False</Option>
    <Option name="UseFisherCuts" modified="No">False</Option>
    <Option name="MinLinCorrForFisher" modified="No">8.000000e-01</Option>
    <Option name="UseExclusiveVars" modified="No">False</Option>
    <Option name="DoPreselection" modified="No">False</Option>
    <Option name="SigToBkgFraction" modified="No">1.000000e+00</Option>
    <Option name="PruneMethod" modified="No">nopruning</Option>
    <Option name="PruneStrength" modified="No">0.000000e+00</Option>
    <Option name="PruningValFraction" modified="No">5.000000e-01</Option>
    <Option name="nEventsMin" modified="No">0</Option>
    <Option name="UseBaggedGrad" modified="No">False</Option>
    <Option name="GradBaggingFraction" modified="No">5.000000e-01</Option>
    <Option name="UseNTrainEvents" modified="No">0</Option>
    <Option name="NNodesMax" modified="No">0</Option>
  </Options>
  <Variables NVar="7">
    <Variable VarIndex="0" Expression="MET" Label="MET" Title="MET" Unit="" Internal="MET" Type="F" Min="100002.242188" Max="299991.65625"/>
    <Variable VarIndex="1" Expression="MT" Label="MT" Title="MT" Unit="" Internal="MT" Type="F" Min="90000.15625" Max="299991.4375"/>
    <Variable VarIndex="2" Expression="dMT200" Label="dMT200" Title="dMT200" Unit="" Internal="dMT200" Type="F" Min="-39994.0820312" Max="99242.5390625"/>
    <Variable VarIndex="3" Expression="m_tophad" Label="m_tophad" Title="m_tophad" Unit="" Internal="m_tophad" Type="F" Min="60378.7382812" Max="299866.25"/>
    <Variable VarIndex="4" Expression="m_toplep200" Label="m_toplep200" Title="m_toplep200" Unit="" Internal="m_toplep200" Type="F" Min="100040.046875" Max="499993.0625"/>
    <Variable VarIndex="5" Expression="dphi_lep_nu200" Label="dphi_lep_nu200" Title="dphi_lep_nu200" Unit="" Internal="dphi_lep_nu200" Type="F" Min="0.0115682585165" Max="3.14157509804"/>
    <Variable VarIndex="6" Expression="dphi_rjet_lep" Label="dphi_rjet_lep" Title="dphi_rjet_lep" Unit="" Internal="dphi_rjet_lep" Type="F" Min="4.13491361542e-05" Max="3.14156484604"/>
  </Variables>
  <Spectators NSpec="0"/>
  <Classes NClass="2">
    <Class Name="Signal" Index="0"/>
    <Class Name="Background" Index="1"/>
  </Classes>
  <Transformations NTransformations="0"/>
  <MVAPdfs/>
  <Weights NTrees="400" AnalysisType="1">
    <BinaryTree type="DecisionTree" boostWeight="1.0" itree="0">
      <Node pos="s" depth="0" NCoef="0" IVar="2" Cut="10544.8" cType="1" res="-0.0126521" purity="0.487348" nType="0">
        <Node pos="l" depth="1" NCoef="0" IVar="0" Cut="148775" cType="1" res="-0.0594575" purity="0.440542" nType="0">
          <Node pos="l" depth="2" NCoef="0" IVar="4" Cut="325019" cType="1" res="-0.0996509" purity="0.400349" nType="0">
            <Node pos="l" depth="3" NCoef="0" IVar="5" Cut="1.23582" cType="1" res="-0.0811141" purity="0.418886" nType="0">
              <Node pos="l" depth="4" NCoef="0" IVar="-1" Cut="0" cType="1" res="-0.00822245" purity="0.361105" nType="-99"/>
              <Node pos="r" depth="4" NCoef="0" IVar="-1" Cut="0" cType="1" res="-0.00327371" purity="0.437666" nType="-99"/>
            </Node>
            <Node pos="r" depth="3" NCoef="0" IVar="-1" Cut="0" cType="1" res="-0.0122598" purity="0.314364" nType="-99"/>
          </Node>
          <Node pos="r" depth="2" NCoef="0" IVar="4" Cut="315187" cType="1" res="0.00622804" purity="0.506228" nType="0">
            <Node pos="l" depth="3" NCoef="0" IVar="3" Cut="177826" cType="1" res="-0.0162825" purity="0.483718" nType="0">
              <Node pos="l" depth="4" NCoef="0" IVar="-1" Cut="0" cType="1" res="0.000482745" purity="0.510262" nType="-99"/>
              <Node pos="r" depth="4" NCoef="0" IVar="-1" Cut="0" cType="1" res="-0.00338297" purity="0.435551" nType="-99"/>
            </Node>
            <Node pos="r" depth="3" NCoef="0" IVar="3" Cut="175276" cType="1" res="0.0517812" purity="0.551781" nType="0">
              <Node pos="l" depth="4" NCoef="0" IVar="-1" Cut="0" cType="1" res="0.000658963" purity="0.51497" nType="-99"/>
              <Node pos="r" depth="4" NCoef="0" IVar="-1" Cut="0" cType="1" res="0.00345786" purity="0.590876" nType="-99"/>
            </Node>
          </Node>
        </Node>
        <Node pos="r" depth="1" NCoef="0" IVar="0" Cut="119520" cType="1" res="0.093628" purity="0.593628" nType="0">
          <Node pos="l" depth="2" NCoef="0" IVar="-1" Cut="0" cType="1" res="0.000321579" purity="0.506893" nType="-99"/>
          <Node pos="r" depth="2" NCoef="0" IVar="2" Cut="27370.2" cType="1" res="0.132314" purity="0.632314" nType="0">
            <Node pos="l" depth="3" NCoef="0" IVar="4" Cut="256383" cType="1" res="0.0981612" purity="0.598161" nType="0">
              <Node pos="l" depth="4" NCoef="0" IVar="-1" Cut="0" cType="1" res="0.00574901" purity="0.642737" nType="-99"/>
              <Node pos="r" depth="4" NCoef="0" IVar="-1" Cut="0" cType="1" res="0.000859611" purity="0.51964" nType="-99"/>
            </Node>
            <Node pos="r" depth="3" NCoef="0" IVar="-1" Cut="0" cType="1" res="0.00834644" purity="0.739667" nType="-99"/>
          </Node>
        </Node>
      </Node>
    </BinaryTree>
    <BinaryTree type="DecisionTree" boostWeight="1.0" itree="1">
      <Node pos="s" depth="0" NCoef="0" IVar="2" Cut="10495.7" cType="1" res="0.00104438" purity="0.500261" nType="0">
        <Node pos="l" depth="1" NCoef="0" IVar="0" Cut="119520" cType="1" res="-0.0448975" purity="0.453203" nType="0">
          <Node pos="l" depth="2" NCoef="0" IVar="4" Cut="304898" cType="1" res="-0.106897" purity="0.390347" nType="0">
            <Node pos="l" depth="3" NCoef="0" IVar="5" Cut="1.30576" cType="1" res="-0.0782501" purity="0.419649" nType="0">
              <Node pos="l" depth="4" NCoef="0" IVar="-1" Cut="0" cType="1" res="-0.0104503" purity="0.332418" nType="-99"/>
              <Node pos="r" depth="4" NCoef="0" IVar="-1" Cut="0" cType="1" res="-0.00276475" purity="0.444755" nType="-99"/>
            </Node>
            <Node pos="r" depth="3" NCoef="0" IVar="-1" Cut="0" cType="1" res="-0.015091" purity="0.279681" nType="-99"/>
          </Node>
          <Node pos="r" depth="2" NCoef="0" IVar="0" Cut="207555" cType="1" res="-0.0148925" purity="0.483622" nType="0">
            <Node pos="l" depth="3" NCoef="0" IVar="4" Cut="363809" cType="1" res="-0.0327327" purity="0.465482" nType="0">
              <Node pos="l" depth="4" NCoef="0" IVar="-1" Cut="0" cType="1" res="-0.00102228" purity="0.477209" nType="-99"/>
              <Node pos="r" depth="4" NCoef="0" IVar="-1" Cut="0" cType="1" res="-0.0057232" purity="0.392562" nType="-99"/>
            </Node>
            <Node pos="r" depth="3" NCoef="0" IVar="-1" Cut="0" cType="1" res="0.00311213" purity="0.572011" nType="-99"/>
          </Node>
        </Node>
        <Node pos="r" depth="1" NCoef="0" IVar="6" Cut="0.777293" cType="1" res="0.104248" purity="0.605973" nType="0">
          <Node pos="l" depth="2" NCoef="0" IVar="-1" Cut="0" cType="1" res="-0.00123886" purity="0.476262" nType="-99"/>
          <Node pos="r" depth="2" NCoef="0" IVar="2" Cut="27437.6" cType="1" res="0.148483" purity="0.650372" nType="0">
            <Node pos="l" depth="3" NCoef="0" IVar="1" Cut="105321" cType="1" res="0.110558" purity="0.612044" nType="0">
              <Node pos="l" depth="4" NCoef="0" IVar="-1" Cut="0" cType="1" res="0.00221586" purity="0.554007" nType="-99"/>
              <Node pos="r" depth="4" NCoef="0" IVar="-1" Cut="0" cType="1" res="0.00555292" purity="0.645393" nType="-99"/>
            </Node>
            <Node pos="r" depth="3" NCoef="0" IVar="-1" Cut="0" cType="1" res="0.00867603" purity="0.757048" nType="-99"/>
          </Node>
        </Node>
      </Node>
    </BinaryTree>
    <BinaryTree type="DecisionTree" boostWeight="1.0" itree="2">
      <Node pos="s" depth="0" NCoef="0" IVar="2" Cut="13926.4" cType="1" res="0.00865664" purity="0.507407" nType="0">
        <Node pos="l" depth="1" NCoef="0" IVar="0" Cut="119513" cType="1" res="-0.0238841" purity="0.473418" nType="0">
          <Node pos="l" depth="2" NCoef="0" IVar="4" Cut="314389" cType="1" res="-0.0918196" purity="0.402718" nType="0">
            <Node pos="l" depth="3" NCoef="0" IVar="2" Cut="2112.85" cType="1" res="-0.0630439" purity="0.433006" nType="0">
              <Node pos="l" depth="4" NCoef="0" IVar="-1" Cut="0" cType="1" res="-0.00653356" purity="0.382646" nType="-99"/>
              <Node pos="r" depth="4" NCoef="0" IVar="-1" Cut="0" cType="1" res="3.33046e-05" purity="0.497731" nType="-99"/>
            </Node>
            <Node pos="r" depth="3" NCoef="0" IVar="-1" Cut="0" cType="1" res="-0.0164556" purity="0.265288" nType="-99"/>
          </Node>
          <Node pos="r" depth="2" NCoef="0" IVar="1" Cut="105367" cType="1" res="0.00792357" purity="0.506519" nType="0">
            <Node pos="l" depth="3" NCoef="0" IVar="6" Cut="1.91651" cType="1" res="-0.0364191" purity="0.462036" nType="0">
              <Node pos="l" depth="4" NCoef="0" IVar="-1" Cut="0" cType="1" res="-0.00470637" purity="0.412539" nType="-99"/>
              <Node pos="r" depth="4" NCoef="0" IVar="-1" Cut="0" cType="1" res="-0.000522205" purity="0.487673" nType="-99"/>
            </Node>
            <Node pos="r" depth="3" NCoef="0" IVar="0" Cut="150314" cType="1" res="0.0402384" purity="0.538937" nType="0">
              <Node pos="l" depth="4" NCoef="0" IVar="-1" Cut="0" cType="1" res="-0.000271742" purity="0.491436" nType="-99"/>
              <Node pos="r" depth="4" NCoef="0" IVar="-1" Cut="0" cType="1" res="0.00333819" purity="0.582612" nType="-99"/>
            </Node>
          </Node>
        </Node>
        <Node pos="r" depth="1" NCoef="0" IVar="4" Cut="246368" cType="1" res="0.121463" purity="0.625235" nType="0">
          <Node pos="l" depth="2" NCoef="0" IVar="6" Cut="1.51624" cType="1" res="0.169112" purity="0.673259" nType="0">
            <Node pos="l" depth="3" NCoef="0" IVar="-1" Cut="0" cType="1" res="0.00531565" purity="0.63849" nType="-99"/>
            <Node pos="r" depth="3" NCoef="0" IVar="-1" Cut="0" cType="1" res="0.00772088" purity="0.723847" nType="-99"/>
          </Node>
          <Node pos="r" depth="2" NCoef="0" IVar="-1" Cut="0" cType="1" res="0.00123982" purity="0.530638" nType="-99"/>
        </Node>
      </Node>
    </BinaryTree>
    <BinaryTree type="DecisionTree" boostWeight="1.0" itree="3">
      <Node pos="s" depth="0" NCoef="0" IVar="2" Cut="7222.28" cType="1" res="0.00306386" purity="0.501692" nType="0">
        <Node pos="l" depth="1" NCoef="0" IVar="0" Cut="158541" cType="1" res="-0.0623245" purity="0.433202" nType="0">
          <Node pos="l" depth="2" NCoef="0" IVar="4" Cut="315551" cType="1" res="-0.103332" purity="0.390017" nType="0">
            <Node pos="l" depth="3" NCoef="0" IVar="5" Cut="1.15022" cType="1" res="-0.0832026" purity="0.411721" nType="0">
              <Node pos="l" depth="4" NCoef="0" IVar="-1" Cut="0" cType="1" res="-0.0098762" purity="0.337023" nType="-99"/>
              <Node pos="r" depth="4" NCoef="0" IVar="-1" Cut="0" cType="1" res="-0.00342326" purity="0.430789" nType="-99"/>
            </Node>
            <Node pos="r" depth="3" NCoef="0" IVar="0" Cut="124290" cType="1" res="-0.181465" purity="0.305774" nType="0">
              <Node pos="l" depth="4" NCoef="0" IVar="-1" Cut="0" cType="1" res="-0.0206097" purity="0.231161" nType="-99"/>
              <Node pos="r" depth="4" NCoef="0" IVar="-1" Cut="0" cType="1" res="-0.00652647" purity="0.380294" nType="-99"/>
            </Node>
          </Node>
          <Node pos="r" depth="2" NCoef="0" IVar="0" Cut="231001" cType="1" res="0.0273993" purity="0.527689" nType="0">
            <Node pos="l" depth="3" NCoef="0" IVar="2" Cut="-5347.11" cType="1" res="0.0126665" purity="0.51245" nType="0">
              <Node pos="l" depth="4" NCoef="0" IVar="-1" Cut="0" cType="1" res="0.00214017" purity="0.549308" nType="-99"/>
              <Node pos="r" depth="4" NCoef="0" IVar="-1" Cut="0" cType="1" res="-0.000178898" purity="0.495918" nType="-99"/>
            </Node>
            <Node pos="r" depth="3" NCoef="0" IVar="-1" Cut="0" cType="1" res="0.00333028" purity="0.581937" nType="-99"/>
          </Node>
        </Node>
        <Node pos="r" depth="1" NCoef="0" IVar="4" Cut="207369" cType="1" res="0.0955017" purity="0.598515" nType="0">
          <Node pos="l" depth="2" NCoef="0" IVar="1" Cut="103602" cType="1" res="0.150943" purity="0.654949" nType="0">
            <Node pos="l" depth="3" NCoef="0" IVar="-1" Cut="0" cType="1" res="0.00344022" purity="0.586792" nType="-99"/>
            <Node pos="r" depth="3" NCoef="0" IVar="-1" Cut="0" cType="1" res="0.00691068" purity="0.69805" nType="-99"/>
          </Node>
          <Node pos="r" depth="2" NCoef="0" IVar="0" Cut="124390" cType="1" res="0.042211" purity="0.54427" nType="0">
            <Node pos="l" depth="3" NCoef="0" IVar="-1" Cut="0" cType="1" res="-0.00179175" purity="0.46375" nType="-99"/>
            <Node pos="r" depth="3" NCoef="0" IVar="6" Cut="0.998583" cType="1" res="0.0809154" purity="0.584097" nType="0">
              <Node pos="l" depth="4" NCoef="0" IVar="-1" Cut="0" cType="1" res="0.000923085" purity="0.522241" nType="-99"/>
              <Node pos="r" depth="4" NCoef="0" IVar="-1" Cut="0" cType="1" res="0.00458125" purity="0.61971" nType="-99"/>
            </Node>
          </Node>
        </Node>
      </Node>
    </BinaryTree>
    <BinaryTree type="DecisionTree" boostWeight="1.0" itree="4">
      <Node pos="s" depth="0" NCoef="0" IVar="2" Cut="10495.7" cType="1" res="0.00198704" purity="0.499854" nType="0">
        <Node pos="l" depth="1" NCoef="0" IVar="0" Cut="119511" cType="1" res="-0.040212" purity="0.45369" nType="0">
          <Node pos="l" depth="2" NCoef="0" IVar="2" Cut="-10442" cType="1" res="-0.0810687" purity="0.406755" nType="0">
            <Node pos="l" depth="3" NCoef="0" IVar="-1" Cut="0" cType="1" res="-0.0108944" purity="0.313692" nType="-99"/>
            <Node pos="r" depth="3" NCoef="0" IVar="5" Cut="1.30402" cType="1" res="-0.0578034" purity="0.430942" nType="0">
              <Node pos="l" depth="4" NCoef="0" IVar="-1" Cut="0" cType="1" res="-0.00765933" purity="0.359739" nType="-99"/>
              <Node pos="r" depth="4" NCoef="0" IVar="-1" Cut="0" cType="1" res="-0.00198159" purity="0.451395" nType="-99"/>
            </Node>
          </Node>
          <Node pos="r" depth="2" NCoef="0" IVar="0" Cut="233948" cType="1" res="-0.019465" purity="0.477524" nType="0">
            <Node pos="l" depth="3" NCoef="0" IVar="4" Cut="353838" cType="1" res="-0.0272073" purity="0.469111" nType="0">
              <Node pos="l" depth="4" NCoef="0" IVar="-1" Cut="0" cType="1" res="-0.000781653" purity="0.480676" nType="-99"/>
              <Node pos="r" depth="4" NCoef="0" IVar="-1" Cut="0" cType="1" res="-0.00462384" purity="0.409682" nType="-99"/>
            </Node>
            <Node pos="r" depth="3" NCoef="0" IVar="-1" Cut="0" cType="1" res="0.00249376" purity="0.561179" nType="-99"/>
          </Node>
        </Node>
        <Node pos="r" depth="1" NCoef="0" IVar="6" Cut="0.571122" cType="1" res="0.0958348" purity="0.602519" nType="0">
          <Node pos="l" depth="2" NCoef="0" IVar="-1" Cut="0" cType="1" res="-0.00147478" purity="0.472365" nType="-99"/>
          <Node pos="r" depth="2" NCoef="0" IVar="4" Cut="314628" cType="1" res="0.12502" purity="0.632632" nType="0">
            <Node pos="l" depth="3" NCoef="0" IVar="2" Cut="24989.2" cType="1" res="0.146607" purity="0.654834" nType="0">
              <Node pos="l" depth="4" NCoef="0" IVar="-1" Cut="0" cType="1" res="0.00498055" purity="0.634884" nType="-99"/>
              <Node pos="r" depth="4" NCoef="0" IVar="-1" Cut="0" cType="1" res="0.0071008" purity="0.705362" nType="-99"/>
            </Node>
            <Node pos="r" depth="3" NCoef="0" IVar="-1" Cut="0" cType="1" res="0.000881273" purity="0.52411" nType="-99"/>
          </Node>
        </Node>
      </Node>
    </BinaryTree>
    <BinaryTree type="DecisionTree" boostWeight="1.0" itree="5">
      <Node pos="s" depth="0" NCoef="0" IVar="2" Cut="14112.2" cType="1" res="0.00138562" purity="0.498663" nType="0">
        <Node pos="l" depth="1" NCoef="0" IVar="0" Cut="168291" cType="1" res="-0.0281964" purity="0.465718" nType="0">
          <Node pos="l" depth="2" NCoef="0" IVar="4" Cut="344256" cType="1" res="-0.0428407" purity="0.448603" nType="0">
            <Node pos="l" depth="3" NCoef="0" IVar="5" Cut="1.77991" cType="1" res="-0.032083" purity="0.460982" nType="0">
              <Node pos="l" depth="4" NCoef="0" IVar="-1" Cut="0" cType="1" res="-0.0028902" purity="0.437233" nType="-99"/>
              <Node pos="r" depth="4" NCoef="0" IVar="-1" Cut="0" cType="1" res="0.000200277" purity="0.497937" nType="-99"/>
            </Node>
            <Node pos="r" depth="3" NCoef="0" IVar="0" Cut="129979" cType="1" res="-0.10621" purity="0.375682" nType="0">
              <Node pos="l" depth="4" NCoef="0" IVar="-1" Cut="0" cType="1" res="-0.0103022" purity="0.315253" nType="-99"/>
              <Node pos="r" depth="4" NCoef="0" IVar="-1" Cut="0" cType="1" res="-0.00245619" purity="0.440742" nType="-99"/>
            </Node>
          </Node>
          <Node pos="r" depth="2" NCoef="0" IVar="1" Cut="100241" cType="1" res="0.0185704" purity="0.520375" nType="0">
            <Node pos="l" depth="3" NCoef="0" IVar="-1" Cut="0" cType="1" res="-0.00364171" purity="0.433748" nType="-99"/>
            <Node pos="r" depth="3" NCoef="0" IVar="6" Cut="2.37506" cType="1" res="0.0590643" purity="0.561508" nType="0">
              <Node pos="l" depth="4" NCoef="0" IVar="-1" Cut="0" cType="1" res="0.00129072" purity="0.53166" nType="-99"/>
              <Node pos="r" depth="4" NCoef="0" IVar="-1" Cut="0" cType="1" res="0.00390905" purity="0.599798" nType="-99"/>
            </Node>
          </Node>
        </Node>
        <Node pos="r" depth="1" NCoef="0" IVar="0" Cut="129275" cType="1" res="0.108002" purity="0.617402" nType="0">
          <Node pos="l" depth="2" NCoef="0" IVar="-1" Cut="0" cType="1" res="0.00196869" purity="0.552817" nType="-99"/>
          <Node pos="r" depth="2" NCoef="0" IVar="2" Cut="24150" cType="1" res="0.156785" purity="0.667837" nType="0">
            <Node pos="l" depth="3" NCoef="0" IVar="-1" Cut="0" cType="1" res="0.00408515" purity="0.610501" nType="-99"/>
            <Node pos="r" depth="3" NCoef="0" IVar="-1" Cut="0" cType="1" res="0.00804327" purity="0.741757" nType="-99"/>
          </Node>
        </Node>
      </Node>
    </BinaryTree>
    <BinaryTree type="DecisionTree" boostWeight="1.0" itree="6">
      <Node pos="s" depth="0" NCoef="0" IVar="2" Cut="7550.13" cType="1" res="-0.00347313" purity="0.493712" nType="0">
        <Node pos="l" depth="1" NCoef="0" IVar="0" Cut="158541" cType="1" res="-0.0484121" purity="0.442728" nType="0">
          <Node pos="l" depth="2" NCoef="0" IVar="6" Cut="2.75841" cType="1" res="-0.0755645" purity="0.411557" nType="0">
            <Node pos="l" depth="3" NCoef="0" IVar="1" Cut="120735" cType="1" res="-0.0538691" purity="0.433675" nType="0">
              <Node pos="l" depth="4" NCoef="0" IVar="-1" Cut="0" cType="1" res="-0.00402122" purity="0.414521" nType="-99"/>
              <Node pos="r" depth="4" NCoef="0" IVar="-1" Cut="0" cType="1" res="-0.000947386" purity="0.467842" nType="-99"/>
            </Node>
            <Node pos="r" depth="3" NCoef="0" IVar="4" Cut="237124" cType="1" res="-0.158263" purity="0.327248" nType="0">
              <Node pos="l" depth="4" NCoef="0" IVar="-1" Cut="0" cType="1" res="-0.00804552" purity="0.361773" nType="-99"/>
              <Node pos="r" depth="4" NCoef="0" IVar="-1" Cut="0" cType="1" res="-0.0129116" purity="0.295628" nType="-99"/>
            </Node>
          </Node>
          <Node pos="r" depth="2" NCoef="0" IVar="1" Cut="105349" cType="1" res="0.0156786" purity="0.516303" nType="0">
            <Node pos="l" depth="3" NCoef="0" IVar="6" Cut="2.52825" cType="1" res="-0.0409315" purity="0.457313" nType="0">
              <Node pos="l" depth="4" NCoef="0" IVar="-1" Cut="0" cType="1" res="-0.00495522" purity="0.408016" nType="-99"/>
              <Node pos="r" depth="4" NCoef="0" IVar="-1" Cut="0" cType="1" res="0.000323914" purity="0.506045" nType="-99"/>
            </Node>
            <Node pos="r" depth="3" NCoef="0" IVar="4" Cut="248261" cType="1" res="0.063769" purity="0.566415" nType="0">
              <Node pos="l" depth="4" NCoef="0" IVar="-1" Cut="0" cType="1" res="0.00439556" purity="0.614201" nType="-99"/>
              <Node pos="r" depth="4" NCoef="0" IVar="-1" Cut="0" cType="1" res="0.00118589" purity="0.529568" nType="-99"/>
            </Node>
          </Node>
        </Node>
        <Node pos="r" depth="1" NCoef="0" IVar="4" Cut="265891" cType="1" res="0.0676461" purity="0.574398" nType="0">
          <Node pos="l" depth="2" NCoef="0" IVar="2" Cut="18311.5" cType="1" res="0.100277" purity="0.608539" nType="0">
            <Node pos="l" depth="3" NCoef="0" IVar="6" Cut="1.32186" cType="1" res="0.0579153" purity="0.562592" nType="0">
              <Node pos="l" depth="4" NCoef="0" IVar="-1" Cut="0" cType="1" res="0.000783757" purity="0.520642" nType="-99"/>
              <Node pos="r" depth="4" NCoef="0" IVar="-1" Cut="0" cType="1" res="0.00365326" purity="0.596959" nType="-99"/>
            </Node>
            <Node pos="r" depth="3" NCoef="0" IVar="-1" Cut="0" cType="1" res="0.0063297" purity="0.682644" nType="-99"/>
          </Node>
          <Node pos="r" depth="2" NCoef="0" IVar="6" Cut="1.06984" cType="1" res="-0.010554" purity="0.492578" nType="0">
            <Node pos="l" depth="3" NCoef="0" IVar="-1" Cut="0" cType="1" res="-0.00377456" purity="0.427637" nType="-99"/>
            <Node pos="r" depth="3" NCoef="0" IVar="-1" Cut="0" cType="1" res="0.00175694" purity="0.54581" nType="-99"/>
          </Node>
        </Node>
      </Node>
    </BinaryTree>
    <BinaryTree type="DecisionTree" boostWeight="1.0" itree="7">
      <Node pos="s" depth="0" NCoef="0" IVar="2" Cut="3805.21" cType="1" res="-0.00786346" purity="0.488775" nType="0">
        <Node pos="l" depth="1" NCoef="0" IVar="4" Cut="402632" cType="1" res="-0.0704774" purity="0.417841" nType="0">
          <Node pos="l" depth="2" NCoef="0" IVar="1" Cut="115583" cType="1" res="-0.0616604" purity="0.427293" nType="0">
            <Node pos="l" depth="3" NCoef="0" IVar="1" Cut="108719" cType="1" res="-0.0799241" purity="0.4086" nType="0">
              <Node pos="l" depth="4" NCoef="0" IVar="-1" Cut="0" cType="1" res="-0.00379792" purity="0.419731" nType="-99"/>
              <Node pos="r" depth="4" NCoef="0" IVar="-1" Cut="0" cType="1" res="-0.00915533" purity="0.347181" nType="-99"/>
            </Node>
            <Node pos="r" depth="3" NCoef="0" IVar="2" Cut="-7920.66" cType="1" res="-0.0325903" purity="0.457045" nType="0">
              <Node pos="l" depth="4" NCoef="0" IVar="-1" Cut="0" cType="1" res="-0.00443864" purity="0.406188" nType="-99"/>
              <Node pos="r" depth="4" NCoef="0" IVar="-1" Cut="0" cType="1" res="-0.000390185" purity="0.483975" nType="-99"/>
            </Node>
          </Node>
          <Node pos="r" depth="2" NCoef="0" IVar="-1" Cut="0" cType="1" res="-0.0104265" purity="0.319584" nType="-99"/>
        </Node>
        <Node pos="r" depth="1" NCoef="0" IVar="4" Cut="187871" cType="1" res="0.052197" purity="0.556817" nType="0">
          <Node pos="l" depth="2" NCoef="0" IVar="2" Cut="15210.4" cType="1" res="0.115521" purity="0.62363" nType="0">
            <Node pos="l" depth="3" NCoef="0" IVar="2" Cut="8533.96" cType="1" res="0.075142" purity="0.575642" nType="0">
              <Node pos="l" depth="4" NCoef="0" IVar="-1" Cut="0" cType="1" res="0.00189795" purity="0.53975" nType="-99"/>
              <Node pos="r" depth="4" NCoef="0" IVar="-1" Cut="0" cType="1" res="0.00405887" purity="0.605261" nType="-99"/>
            </Node>
            <Node pos="r" depth="3" NCoef="0" IVar="-1" Cut="0" cType="1" res="0.00612008" purity="0.684931" nType="-99"/>
          </Node>
          <Node pos="r" depth="2" NCoef="0" IVar="0" Cut="114642" cType="1" res="0.0153626" purity="0.517953" nType="0">
            <Node pos="l" depth="3" NCoef="0" IVar="-1" Cut="0" cType="1" res="-0.00377806" purity="0.427836" nType="-99"/>
            <Node pos="r" depth="3" NCoef="0" IVar="2" Cut="17200.5" cType="1" res="0.0390188" purity="0.543007" nType="0">
              <Node pos="l" depth="4" NCoef="0" IVar="-1" Cut="0" cType="1" res="1.18844e-05" purity="0.50047" nType="-99"/>
              <Node pos="r" depth="4" NCoef="0" IVar="-1" Cut="0" cType="1" res="0.00469273" purity="0.634141" nType="-99"/>
            </Node>
          </Node>
        </Node>
      </Node>
    </BinaryTree>
    <BinaryTree type="DecisionTree" boostWeight="1.0" itree="8">
      <Node pos="s" depth="0" NCoef="0" IVar="2" Cut="10779.6" cType="1" res="-0.00203393" purity="0.493801" nType="0">
        <Node pos="l" depth="1" NCoef="0" IVar="0" Cut="202436" cType="1" res="-0.0352422" purity="0.45393" nType="0">
          <Node pos="l" depth="2" NCoef="0" IVar="2" Cut="-1586.84" cType="1" res="-0.0483797" purity="0.438888" nType="0">
            <Node pos="l" depth="3" NCoef="0" IVar="0" Cut="114998" cType="1" res="-0.0822523" purity="0.400796" nType="0">
              <Node pos="l" depth="4" NCoef="0" IVar="-1" Cut="0" cType="1" res="-0.00825927" purity="0.339929" nType="-99"/>
              <Node pos="r" depth="4" NCoef="0" IVar="-1" Cut="0" cType="1" res="-0.00296284" purity="0.430263" nType="-99"/>
            </Node>
            <Node pos="r" depth="3" NCoef="0" IVar="4" Cut="343850" cType="1" res="-0.0193867" purity="0.471493" nType="0">
              <Node pos="l" depth="4" NCoef="0" IVar="-1" Cut="0" cType="1" res="-0.000268001" purity="0.486477" nType="-99"/>
              <Node pos="r" depth="4" NCoef="0" IVar="-1" Cut="0" cType="1" res="-0.00654995" purity="0.370522" nType="-99"/>
            </Node>
          </Node>
          <Node pos="r" depth="2" NCoef="0" IVar="6" Cut="2.45304" cType="1" res="0.0559342" purity="0.558324" nType="0">
            <Node pos="l" depth="3" NCoef="0" IVar="-1" Cut="0" cType="1" res="0.000966853" purity="0.523619" nType="-99"/>
            <Node pos="r" depth="3" NCoef="0" IVar="-1" Cut="0" cType="1" res="0.00372085" purity="0.596173" nType="-99"/>
          </Node>
        </Node>
        <Node pos="r" depth="1" NCoef="0" IVar="6" Cut="1.39592" cType="1" res="0.0798398" purity="0.592102" nType="0">
          <Node pos="l" depth="2" NCoef="0" IVar="4" Cut="275891" cType="1" res="0.0382287" purity="0.547365" nType="0">
            <Node pos="l" depth="3" NCoef="0" IVar="1" Cut="118368" cType="1" res="0.0735043" purity="0.585233" nType="0">
              <Node pos="l" depth="4" NCoef="0" IVar="-1" Cut="0" cType="1" res="0.00176459" purity="0.552433" nType="-99"/>
              <Node pos="r" depth="4" NCoef="0" IVar="-1" Cut="0" cType="1" res="0.00415762" purity="0.614717" nType="-99"/>
            </Node>
            <Node pos="r" depth="3" NCoef="0" IVar="-1" Cut="0" cType="1" res="-0.00205897" purity="0.460309" nType="-99"/>
          </Node>
          <Node pos="r" depth="2" NCoef="0" IVar="2" Cut="21029.1" cType="1" res="0.130614" purity="0.646691" nType="0">
            <Node pos="l" depth="3" NCoef="0" IVar="-1" Cut="0" cType="1" res="0.00366077" purity="0.600994" nType="-99"/>
            <Node pos="r" depth="3" NCoef="0" IVar="-1" Cut="0" cType="1" res="0.00684111" purity="0.713158" nType="-99"/>
          </Node>
        </Node>
      </Node>
    </BinaryTree>
    <BinaryTree type="DecisionTree" boostWeight="1.0" itree="9">
      <Node pos="s" depth="0" NCoef="0" IVar="2" Cut="7367.89" cType="1" res="-0.0116044" purity="0.484078" nType="0">
        <Node pos="l" depth="1" NCoef="0" IVar="0" Cut="129267" cType="1" res="-0.0581362" purity="0.428166" nType="0">
          <Node pos="l" depth="2" NCoef="0" IVar="6" Cut="2.83504" cType="1" res="-0.0931089" purity="0.384938" nType="0">
            <Node pos="l" depth="3" NCoef="0" IVar="6" Cut="2.14364" cType="1" res="-0.080529" purity="0.39922" nType="0">
              <Node pos="l" depth="4" NCoef="0" IVar="-1" Cut="0" cType="1" res="-0.00646088" purity="0.370411" nType="-99"/>
              <Node pos="r" depth="4" NCoef="0" IVar="-1" Cut="0" cType="1" res="-0.00251539" purity="0.429897" nType="-99"/>
            </Node>
            <Node pos="r" depth="3" NCoef="0" IVar="-1" Cut="0" cType="1" res="-0.0102581" purity="0.315782" nType="-99"/>
          </Node>
          <Node pos="r" depth="2" NCoef="0" IVar="0" Cut="229147" cType="1" res="-0.0287862" purity="0.464444" nType="0">
            <Node pos="l" depth="3" NCoef="0" IVar="3" Cut="172810" cType="1" res="-0.0420224" purity="0.449559" nType="0">
              <Node pos="l" depth="4" NCoef="0" IVar="-1" Cut="0" cType="1" res="-0.00431089" purity="0.412532" nType="-99"/>
              <Node pos="r" depth="4" NCoef="0" IVar="-1" Cut="0" cType="1" res="-0.000133023" purity="0.488498" nType="-99"/>
            </Node>
            <Node pos="r" depth="3" NCoef="0" IVar="-1" Cut="0" cType="1" res="0.00269219" purity="0.567638" nType="-99"/>
          </Node>
        </Node>
        <Node pos="r" depth="1" NCoef="0" IVar="6" Cut="0.929194" cType="1" res="0.0585848" purity="0.568416" nType="0">
          <Node pos="l" depth="2" NCoef="0" IVar="4" Cut="266320" cType="1" res="-0.0138456" purity="0.490594" nType="0">
            <Node pos="l" depth="3" NCoef="0" IVar="-1" Cut="0" cType="1" res="0.00177321" purity="0.547817" nType="-99"/>
            <Node pos="r" depth="3" NCoef="0" IVar="-1" Cut="0" cType="1" res="-0.00683068" purity="0.380098" nType="-99"/>
          </Node>
          <Node pos="r" depth="2" NCoef="0" IVar="2" Cut="27408" cType="1" res="0.0940218" purity="0.606492" nType="0">
            <Node pos="l" depth="3" NCoef="0" IVar="2" Cut="10302.5" cType="1" res="0.0703219" purity="0.579855" nType="0">
              <Node pos="l" depth="4" NCoef="0" IVar="-1" Cut="0" cType="1" res="0.00048537" purity="0.50905" nType="-99"/>
              <Node pos="r" depth="4" NCoef="0" IVar="-1" Cut="0" cType="1" res="0.00373131" purity="0.60713" nType="-99"/>
            </Node>
            <Node pos="r" depth="3" NCoef="0" IVar="-1" Cut="0" cType="1" res="0.00693109" purity="0.717149" nType="-99"/>
          </Node>
        </Node>
      </Node>
    </BinaryTree>
    <BinaryTree type="DecisionTree" boostWeight="1.0" itree="10">
      <Node pos="s" depth="0" NCoef="0" IVar="2" Cut="7569.1" cType="1" res="-0.00231562" purity="0.492505" nType="0">
        <Node pos="l" depth="1" NCoef="0" IVar="0" Cut="187807" cType="1" res="-0.0479467" purity="0.436615" nType="0">
          <Node pos="l" depth="2" NCoef="0" IVar="4" Cut="343978" cType="1" res="-0.0592134" purity="0.422261" nType="0">
            <Node pos="l" depth="3" NCoef="0" IVar="1" Cut="104512" cType="1" res="-0.0492855" purity="0.434607" nType="0">
              <Node pos="l" depth="4" NCoef="0" IVar="-1" Cut="0" cType="1" res="-0.0041748" purity="0.406692" nType="-99"/>
              <Node pos="r" depth="4" NCoef="0" IVar="-1" Cut="0" cType="1" res="-0.00144049" purity="0.455953" nType="-99"/>
            </Node>
            <Node pos="r" depth="3" NCoef="0" IVar="1" Cut="115610" cType="1" res="-0.109894" purity="0.359232" nType="0">
              <Node pos="l" depth="4" NCoef="0" IVar="-1" Cut="0" cType="1" res="-0.00233123" purity="0.41951" nType="-99"/>
              <Node pos="r" depth="4" NCoef="0" IVar="-1" Cut="0" cType="1" res="-0.0122461" purity="0.295766" nType="-99"/>
            </Node>
          </Node>
          <Node pos="r" depth="2" NCoef="0" IVar="1" Cut="105355" cType="1" res="0.0132735" purity="0.514616" nType="0">
            <Node pos="l" depth="3" NCoef="0" IVar="-1" Cut="0" cType="1" res="-0.00479583" purity="0.413752" nType="-99"/>
            <Node pos="r" depth="3" NCoef="0" IVar="-1" Cut="0" cType="1" res="0.00366116" purity="0.593912" nType="-99"/>
          </Node>
        </Node>
        <Node pos="r" depth="1" NCoef="0" IVar="2" Cut="27694.5" cType="1" res="0.0686721" purity="0.579452" nType="0">
          <Node pos="l" depth="2" NCoef="0" IVar="4" Cut="217128" cType="1" res="0.0500082" purity="0.558256" nType="0">
            <Node pos="l" depth="3" NCoef="0" IVar="0" Cut="134074" cType="1" res="0.0861945" purity="0.598958" nType="0">
              <Node pos="l" depth="4" NCoef="0" IVar="-1" Cut="0" cType="1" res="0.00124508" purity="0.539851" nType="-99"/>
              <Node pos="r" depth="4" NCoef="0" IVar="-1" Cut="0" cType="1" res="0.00580203" purity="0.665385" nType="-99"/>
            </Node>
            <Node pos="r" depth="3" NCoef="0" IVar="1" Cut="110470" cType="1" res="0.0108039" purity="0.514159" nType="0">
              <Node pos="l" depth="4" NCoef="0" IVar="-1" Cut="0" cType="1" res="-0.003267" purity="0.439436" nType="-99"/>
              <Node pos="r" depth="4" NCoef="0" IVar="-1" Cut="0" cType="1" res="0.00190935" purity="0.548204" nType="-99"/>
            </Node>
          </Node>
          <Node pos="r" depth="2" NCoef="0" IVar="-1" Cut="0" cType="1" res="0.00588251" purity="0.676587" nType="-99"/>
        </Node>
      </Node>
    </BinaryTree>
    <BinaryTree type="DecisionTree" boostWeight="1.0" itree="11">
      <Node pos="s" depth="0" NCoef="0" IVar="2" Cut="13822.9" cType="1" res="0.00446223" purity="0.499069" nType="0">
        <Node pos="l" depth="1" NCoef="0" IVar="0" Cut="197558" cType="1" res="-0.021208" purity="0.466264" nType="0">
          <Node pos="l" depth="2" NCoef="0" IVar="2" Cut="2024.63" cType="1" res="-0.0317742" purity="0.453143" nType="0">
            <Node pos="l" depth="3" NCoef="0" IVar="5" Cut="2.39235" cType="1" res="-0.0561947" purity="0.422215" nType="0">
              <Node pos="l" depth="4" NCoef="0" IVar="-1" Cut="0" cType="1" res="-0.00221698" purity="0.435497" nType="-99"/>
              <Node pos="r" depth="4" NCoef="0" IVar="-1" Cut="0" cType="1" res="-0.0090314" purity="0.336703" nType="-99"/>
            </Node>
            <Node pos="r" depth="3" NCoef="0" IVar="4" Cut="256201" cType="1" res="0.00176772" purity="0.495624" nType="0">
              <Node pos="l" depth="4" NCoef="0" IVar="-1" Cut="0" cType="1" res="0.00139902" purity="0.527961" nType="-99"/>
              <Node pos="r" depth="4" NCoef="0" IVar="-1" Cut="0" cType="1" res="-0.00323507" purity="0.426878" nType="-99"/>
            </Node>
          </Node>
          <Node pos="r" depth="2" NCoef="0" IVar="1" Cut="105348" cType="1" res="0.0468503" purity="0.550774" nType="0">
            <Node pos="l" depth="3" NCoef="0" IVar="-1" Cut="0" cType="1" res="-0.000181522" purity="0.49504" nType="-99"/>
            <Node pos="r" depth="3" NCoef="0" IVar="-1" Cut="0" cType="1" res="0.00362426" purity="0.595696" nType="-99"/>
          </Node>
        </Node>
        <Node pos="r" depth="1" NCoef="0" IVar="0" Cut="119516" cType="1" res="0.0925751" purity="0.611673" nType="0">
          <Node pos="l" depth="2" NCoef="0" IVar="-1" Cut="0" cType="1" res="0.000459083" purity="0.523597" nType="-99"/>
          <Node pos="r" depth="2" NCoef="0" IVar="6" Cut="0.916589" cType="1" res="0.129938" purity="0.651589" nType="0">
            <Node pos="l" depth="3" NCoef="0" IVar="-1" Cut="0" cType="1" res="0.00293569" purity="0.582334" nType="-99"/>
            <Node pos="r" depth="3" NCoef="0" IVar="4" Cut="217309" cType="1" res="0.154568" purity="0.680432" nType="0">
              <Node pos="l" depth="4" NCoef="0" IVar="-1" Cut="0" cType="1" res="0.00647862" purity="0.715069" nType="-99"/>
              <Node pos="r" depth="4" NCoef="0" IVar="-1" Cut="0" cType="1" res="0.00443673" purity="0.635635" nType="-99"/>
            </Node>
          </Node>
        </Node>
      </Node>
    </BinaryTree>
    <BinaryTree type="DecisionTree" boostWeight="1.0" itree="12">
      <Node pos="s" depth="0" NCoef="0" IVar="2" Cut="10974.3" cType="1" res="0.00197278" purity="0.496815" nType="0">
        <Node pos="l" depth="1" NCoef="0" IVar="0" Cut="158536" cType="1" res="-0.0390177" purity="0.445847" nType="0">
          <Node pos="l" depth="2" NCoef="0" IVar="6" Cut="2.52853" cType="1" res="-0.0557723" purity="0.423084" nType="0">
            <Node pos="l" depth="3" NCoef="0" IVar="6" Cut="0.740033" cType="1" res="-0.0367175" purity="0.445329" nType="0">
              <Node pos="l" depth="4" NCoef="0" IVar="-1" Cut="0" cType="1" res="-0.00590548" purity="0.376868" nType="-99"/>
              <Node pos="r" depth="4" NCoef="0" IVar="-1" Cut="0" cType="1" res="-0.00105758" purity="0.460609" nType="-99"/>
            </Node>
            <Node pos="r" depth="3" NCoef="0" IVar="0" Cut="111446" cType="1" res="-0.0995401" purity="0.371989" nType="0">
              <Node pos="l" depth="4" NCoef="0" IVar="-1" Cut="0" cType="1" res="-0.0104781" purity="0.307676" nType="-99"/>
              <Node pos="r" depth="4" NCoef="0" IVar="-1" Cut="0" cType="1" res="-0.00413159" purity="0.398503" nType="-99"/>
            </Node>
          </Node>
          <Node pos="r" depth="2" NCoef="0" IVar="1" Cut="105364" cType="1" res="-0.000194898" purity="0.498593" nType="0">
            <Node pos="l" depth="3" NCoef="0" IVar="1" Cut="96736.2" cType="1" res="-0.0533231" purity="0.440567" nType="0">
              <Node pos="l" depth="4" NCoef="0" IVar="-1" Cut="0" cType="1" res="-0.00116155" purity="0.470369" nType="-99"/>
              <Node pos="r" depth="4" NCoef="0" IVar="-1" Cut="0" cType="1" res="-0.00534917" purity="0.402074" nType="-99"/>
            </Node>
            <Node pos="r" depth="3" NCoef="0" IVar="5" Cut="1.54404" cType="1" res="0.0426404" purity="0.545377" nType="0">
              <Node pos="l" depth="4" NCoef="0" IVar="-1" Cut="0" cType="1" res="0.00315286" purity="0.580033" nType="-99"/>
              <Node pos="r" depth="4" NCoef="0" IVar="-1" Cut="0" cType="1" res="-0.000206357" purity="0.49606" nType="-99"/>
            </Node>
          </Node>
        </Node>
        <Node pos="r" depth="1" NCoef="0" IVar="4" Cut="246339" cType="1" res="0.0970434" purity="0.615026" nType="0">
          <Node pos="l" depth="2" NCoef="0" IVar="1" Cut="104632" cType="1" res="0.142126" purity="0.665439" nType="0">
            <Node pos="l" depth="3" NCoef="0" IVar="-1" Cut="0" cType="1" res="0.00343357" purity="0.603128" nType="-99"/>
            <Node pos="r" depth="3" NCoef="0" IVar="-1" Cut="0" cType="1" res="0.006213" purity="0.695604" nType="-99"/>
          </Node>
          <Node pos="r" depth="2" NCoef="0" IVar="2" Cut="21739" cType="1" res="0.0174208" purity="0.525987" nType="0">
            <Node pos="l" depth="3" NCoef="0" IVar="-1" Cut="0" cType="1" res="-0.00111545" purity="0.481569" nType="-99"/>
            <Node pos="r" depth="3" NCoef="0" IVar="-1" Cut="0" cType="1" res="0.00316825" purity="0.591437" nType="-99"/>
          </Node>
        </Node>
      </Node>
    </BinaryTree>
    <BinaryTree type="DecisionTree" boostWeight="1.0" itree="13">
      <Node pos="s" depth="0" NCoef="0" IVar="2" Cut="10603.1" cType="1" res="0.00278024" purity="0.497036" nType="0">
        <Node pos="l" depth="1" NCoef="0" IVar="4" Cut="188003" cType="1" res="-0.0342387" purity="0.448923" nType="0">
          <Node pos="l" depth="2" NCoef="0" IVar="1" Cut="98097.9" cType="1" res="0.00708941" purity="0.494635" nType="0">
            <Node pos="l" depth="3" NCoef="0" IVar="-1" Cut="0" cType="1" res="-0.00252127" purity="0.436463" nType="-99"/>
            <Node pos="r" depth="3" NCoef="0" IVar="5" Cut="1.26139" cType="1" res="0.0388733" purity="0.528419" nType="0">
              <Node pos="l" depth="4" NCoef="0" IVar="-1" Cut="0" cType="1" res="-0.000746798" purity="0.475528" nType="-99"/>
              <Node pos="r" depth="4" NCoef="0" IVar="-1" Cut="0" cType="1" res="0.00302446" purity="0.558449" nType="-99"/>
            </Node>
          </Node>
          <Node pos="r" depth="2" NCoef="0" IVar="0" Cut="129276" cType="1" res="-0.0488674" purity="0.432742" nType="0">
            <Node pos="l" depth="3" NCoef="0" IVar="1" Cut="119710" cType="1" res="-0.0796792" purity="0.391579" nType="0">
              <Node pos="l" depth="4" NCoef="0" IVar="-1" Cut="0" cType="1" res="-0.00725124" purity="0.352227" nType="-99"/>
              <Node pos="r" depth="4" NCoef="0" IVar="-1" Cut="0" cType="1" res="-0.00160192" purity="0.440583" nType="-99"/>
            </Node>
            <Node pos="r" depth="3" NCoef="0" IVar="5" Cut="2.08414" cType="1" res="-0.0226661" purity="0.467745" nType="0">
              <Node pos="l" depth="4" NCoef="0" IVar="-1" Cut="0" cType="1" res="-0.000221235" purity="0.486032" nType="-99"/>
              <Node pos="r" depth="4" NCoef="0" IVar="-1" Cut="0" cType="1" res="-0.00608656" purity="0.382873" nType="-99"/>
            </Node>
          </Node>
        </Node>
        <Node pos="r" depth="1" NCoef="0" IVar="4" Cut="256088" cType="1" res="0.0868532" purity="0.606306" nType="0">
          <Node pos="l" depth="2" NCoef="0" IVar="1" Cut="106359" cType="1" res="0.118005" purity="0.642798" nType="0">
            <Node pos="l" depth="3" NCoef="0" IVar="-1" Cut="0" cType="1" res="0.00214717" purity="0.571897" nType="-99"/>
            <Node pos="r" depth="3" NCoef="0" IVar="6" Cut="1.20052" cType="1" res="0.15475" purity="0.681092" nType="0">
              <Node pos="l" depth="4" NCoef="0" IVar="-1" Cut="0" cType="1" res="0.00372167" purity="0.611763" nType="-99"/>
              <Node pos="r" depth="4" NCoef="0" IVar="-1" Cut="0" cType="1" res="0.00744523" purity="0.74449" nType="-99"/>
            </Node>
          </Node>
          <Node pos="r" depth="2" NCoef="0" IVar="0" Cut="153629" cType="1" res="0.0262858" purity="0.535355" nType="0">
            <Node pos="l" depth="3" NCoef="0" IVar="-1" Cut="0" cType="1" res="-0.00117856" purity="0.479938" nType="-99"/>
            <Node pos="r" depth="3" NCoef="0" IVar="-1" Cut="0" cType="1" res="0.00375056" purity="0.608153" nType="-99"/>
          </Node>
        </Node>
      </Node>
    </BinaryTree>
    <BinaryTree type="DecisionTree" boostWeight="1.0" itree="14">
      <Node pos="s" depth="0" NCoef="0" IVar="2" Cut="7367.89" cType="1" res="-0.00227391" purity="0.491671" nType="0">
        <Node pos="l" depth="1" NCoef="0" IVar="0" Cut="212195" cType="1" res="-0.0439569" purity="0.435774" nType="0">
          <Node pos="l" depth="2" NCoef="0" IVar="0" Cut="105482" cType="1" res="-0.0556682" purity="0.421458" nType="0">
            <Node pos="l" depth="3" NCoef="0" IVar="-1" Cut="0" cType="1" res="-0.00874005" purity="0.333043" nType="-99"/>
            <Node pos="r" depth="3" NCoef="0" IVar="6" Cut="0.68963" cType="1" res="-0.045408" purity="0.433023" nType="0">
              <Node pos="l" depth="4" NCoef="0" IVar="-1" Cut="0" cType="1" res="-0.00772105" purity="0.352325" nType="-99"/>
              <Node pos="r" depth="4" NCoef="0" IVar="-1" Cut="0" cType="1" res="-0.00191023" purity="0.441507" nType="-99"/>
            </Node>
          </Node>
          <Node pos="r" depth="2" NCoef="0" IVar="-1" Cut="0" cType="1" res="0.00265817" purity="0.566189" nType="-99"/>
        </Node>
        <Node pos="r" depth="1" NCoef="0" IVar="4" Cut="217104" cType="1" res="0.0606049" purity="0.575993" nType="0">
          <Node pos="l" depth="2" NCoef="0" IVar="2" Cut="18500.6" cType="1" res="0.110663" purity="0.632318" nType="0">
            <Node pos="l" depth="3" NCoef="0" IVar="5" Cut="1.19889" cType="1" res="0.0773487" purity="0.591235" nType="0">
              <Node pos="l" depth="4" NCoef="0" IVar="-1" Cut="0" cType="1" res="0.00438136" purity="0.632306" nType="-99"/>
              <Node pos="r" depth="4" NCoef="0" IVar="-1" Cut="0" cType="1" res="0.00200452" purity="0.557649" nType="-99"/>
            </Node>
            <Node pos="r" depth="3" NCoef="0" IVar="-1" Cut="0" cType="1" res="0.00616493" purity="0.699895" nType="-99"/>
          </Node>
          <Node pos="r" depth="2" NCoef="0" IVar="2" Cut="20614.7" cType="1" res="0.00331807" purity="0.511533" nType="0">
            <Node pos="l" depth="3" NCoef="0" IVar="4" Cut="272205" cType="1" res="-0.0337042" purity="0.468517" nType="0">
              <Node pos="l" depth="4" NCoef="0" IVar="-1" Cut="0" cType="1" res="0.000297441" purity="0.515016" nType="-99"/>
              <Node pos="r" depth="4" NCoef="0" IVar="-1" Cut="0" cType="1" res="-0.00355082" purity="0.431363" nType="-99"/>
            </Node>
            <Node pos="r" depth="3" NCoef="0" IVar="-1" Cut="0" cType="1" res="0.00328482" purity="0.599764" nType="-99"/>
          </Node>
        </Node>
      </Node>
    </BinaryTree>
    <BinaryTree type="DecisionTree" boostWeight="1.0" itree="15">
      <Node pos="s" depth="0" NCoef="0" IVar="2" Cut="10946.1" cType="1" res="0.0152425" purity="0.508357" nType="0">
        <Node pos="l" depth="1" NCoef="0" IVar="0" Cut="158523" cType="1" res="-0.0133827" purity="0.467747" nType="0">
          <Node pos="l" depth="2" NCoef="0" IVar="4" Cut="285566" cType="1" res="-0.0350268" purity="0.439449" nType="0">
            <Node pos="l" depth="3" NCoef="0" IVar="1" Cut="133672" cType="1" res="-0.0153362" purity="0.463882" nType="0">
              <Node pos="l" depth="4" NCoef="0" IVar="-1" Cut="0" cType="1" res="-0.0015081" purity="0.44901" nType="-99"/>
              <Node pos="r" depth="4" NCoef="0" IVar="-1" Cut="0" cType="1" res="0.00244136" purity="0.539353" nType="-99"/>
            </Node>
            <Node pos="r" depth="3" NCoef="0" IVar="5" Cut="1.48903" cType="1" res="-0.0847356" purity="0.377769" nType="0">
              <Node pos="l" depth="4" NCoef="0" IVar="-1" Cut="0" cType="1" res="-0.00176991" purity="0.425376" nType="-99"/>
              <Node pos="r" depth="4" NCoef="0" IVar="-1" Cut="0" cType="1" res="-0.0073929" purity="0.34444" nType="-99"/>
            </Node>
          </Node>
          <Node pos="r" depth="2" NCoef="0" IVar="1" Cut="105354" cType="1" res="0.0379049" purity="0.534802" nType="0">
            <Node pos="l" depth="3" NCoef="0" IVar="2" Cut="1011.01" cType="1" res="-0.00536868" purity="0.485858" nType="0">
              <Node pos="l" depth="4" NCoef="0" IVar="-1" Cut="0" cType="1" res="0.00100479" purity="0.51146" nType="-99"/>
              <Node pos="r" depth="4" NCoef="0" IVar="-1" Cut="0" cType="1" res="-0.00204792" purity="0.454173" nType="-99"/>
            </Node>
            <Node pos="r" depth="3" NCoef="0" IVar="6" Cut="2.06902" cType="1" res="0.0747826" purity="0.576512" nType="0">
              <Node pos="l" depth="4" NCoef="0" IVar="-1" Cut="0" cType="1" res="0.00398237" purity="0.604387" nType="-99"/>
              <Node pos="r" depth="4" NCoef="0" IVar="-1" Cut="0" cType="1" res="0.00214726" purity="0.551115" nType="-99"/>
            </Node>
          </Node>
        </Node>
        <Node pos="r" depth="1" NCoef="0" IVar="6" Cut="0.779954" cType="1" res="0.083695" purity="0.605467" nType="0">
          <Node pos="l" depth="2" NCoef="0" IVar="-1" Cut="0" cType="1" res="0.00085814" purity="0.529162" nType="-99"/>
          <Node pos="r" depth="2" NCoef="0" IVar="1" Cut="100240" cType="1" res="0.110284" purity="0.636996" nType="0">
            <Node pos="l" depth="3" NCoef="0" IVar="-1" Cut="0" cType="1" res="0.000584489" purity="0.537013" nType="-99"/>
            <Node pos="r" depth="3" NCoef="0" IVar="2" Cut="23724.4" cType="1" res="0.142065" purity="0.669877" nType="0">
              <Node pos="l" depth="4" NCoef="0" IVar="-1" Cut="0" cType="1" res="0.00418154" purity="0.630493" nType="-99"/>
              <Node pos="r" depth="4" NCoef="0" IVar="-1" Cut="0" cType="1" res="0.00738423" purity="0.746373" nType="-99"/>
            </Node>
          </Node>
        </Node>
      </Node>
    </BinaryTree>
    <BinaryTree type="DecisionTree" boostWeight="1.0" itree="16">
      <Node pos="s" depth="0" NCoef="0" IVar="2" Cut="3997.59" cType="1" res="0.0117369" purity="0.504998" nType="0">
        <Node pos="l" depth="1" NCoef="0" IVar="4" Cut="178519" cType="1" res="-0.0381934" purity="0.438194" nType="0">
          <Node pos="l" depth="2" NCoef="0" IVar="6" Cut="2.45209" cType="1" res="0.0317309" purity="0.512945" nType="0">
            <Node pos="l" depth="3" NCoef="0" IVar="-1" Cut="0" cType="1" res="-0.000128141" purity="0.478849" nType="-99"/>
            <Node pos="r" depth="3" NCoef="0" IVar="-1" Cut="0" cType="1" res="0.00288861" purity="0.547404" nType="-99"/>
          </Node>
          <Node pos="r" depth="2" NCoef="0" IVar="5" Cut="2.2394" cType="1" res="-0.0543581" purity="0.420913" nType="0">
            <Node pos="l" depth="3" NCoef="0" IVar="1" Cut="136060" cType="1" res="-0.0387899" purity="0.43784" nType="0">
              <Node pos="l" depth="4" NCoef="0" IVar="-1" Cut="0" cType="1" res="-0.00352785" purity="0.410711" nType="-99"/>
              <Node pos="r" depth="4" NCoef="0" IVar="-1" Cut="0" cType="1" res="0.00295181" purity="0.551989" nType="-99"/>
            </Node>
            <Node pos="r" depth="3" NCoef="0" IVar="-1" Cut="0" cType="1" res="-0.00798237" purity="0.342908" nType="-99"/>
          </Node>
        </Node>
        <Node pos="r" depth="1" NCoef="0" IVar="6" Cut="0.787915" cType="1" res="0.0606733" purity="0.570473" nType="0">
          <Node pos="l" depth="2" NCoef="0" IVar="1" Cut="115583" cType="1" res="-0.0105596" purity="0.489731" nType="0">
            <Node pos="l" depth="3" NCoef="0" IVar="-1" Cut="0" cType="1" res="-0.00297531" purity="0.438369" nType="-99"/>
            <Node pos="r" depth="3" NCoef="0" IVar="-1" Cut="0" cType="1" res="0.000977556" purity="0.525418" nType="-99"/>
          </Node>
          <Node pos="r" depth="2" NCoef="0" IVar="2" Cut="10927" cType="1" res="0.0871314" purity="0.600463" nType="0">
            <Node pos="l" depth="3" NCoef="0" IVar="3" Cut="174033" cType="1" res="0.0399131" purity="0.532449" nType="0">
              <Node pos="l" depth="4" NCoef="0" IVar="-1" Cut="0" cType="1" res="0.00341651" purity="0.570715" nType="-99"/>
              <Node pos="r" depth="4" NCoef="0" IVar="-1" Cut="0" cType="1" res="-0.000926004" purity="0.474032" nType="-99"/>
            </Node>
            <Node pos="r" depth="3" NCoef="0" IVar="1" Cut="115369" cType="1" res="0.121578" purity="0.650082" nType="0">
              <Node pos="l" depth="4" NCoef="0" IVar="-1" Cut="0" cType="1" res="0.003094" purity="0.604308" nType="-99"/>
              <Node pos="r" depth="4" NCoef="0" IVar="-1" Cut="0" cType="1" res="0.00630587" purity="0.701342" nType="-99"/>
            </Node>
          </Node>
        </Node>
      </Node>
    </BinaryTree>
    <BinaryTree type="DecisionTree" boostWeight="1.0" itree="17">
      <Node pos="s" depth="0" NCoef="0" IVar="2" Cut="10584.8" cType="1" res="0.00332554" purity="0.496914" nType="0">
        <Node pos="l" depth="1" NCoef="0" IVar="0" Cut="226831" cType="1" res="-0.0283893" purity="0.451387" nType="0">
          <Node pos="l" depth="2" NCoef="0" IVar="0" Cut="118576" cType="1" res="-0.0389153" purity="0.43859" nType="0">
            <Node pos="l" depth="3" NCoef="0" IVar="4" Cut="295217" cType="1" res="-0.0796187" purity="0.38561" nType="0">
              <Node pos="l" depth="4" NCoef="0" IVar="-1" Cut="0" cType="1" res="-0.00290498" purity="0.418568" nType="-99"/>
              <Node pos="r" depth="4" NCoef="0" IVar="-1" Cut="0" cType="1" res="-0.0120225" purity="0.275344" nType="-99"/>
            </Node>
            <Node pos="r" depth="3" NCoef="0" IVar="1" Cut="115611" cType="1" res="-0.0179462" purity="0.465884" nType="0">
              <Node pos="l" depth="4" NCoef="0" IVar="-1" Cut="0" cType="1" res="-0.00211523" purity="0.44204" nType="-99"/>
              <Node pos="r" depth="4" NCoef="0" IVar="-1" Cut="0" cType="1" res="0.000666949" purity="0.500544" nType="-99"/>
            </Node>
          </Node>
          <Node pos="r" depth="2" NCoef="0" IVar="-1" Cut="0" cType="1" res="0.00388136" purity="0.602845" nType="-99"/>
        </Node>
        <Node pos="r" depth="1" NCoef="0" IVar="6" Cut="0.57078" cType="1" res="0.0760311" purity="0.601281" nType="0">
          <Node pos="l" depth="2" NCoef="0" IVar="-1" Cut="0" cType="1" res="-0.00202685" purity="0.469967" nType="-99"/>
          <Node pos="r" depth="2" NCoef="0" IVar="0" Cut="114632" cType="1" res="0.104901" purity="0.633839" nType="0">
            <Node pos="l" depth="3" NCoef="0" IVar="-1" Cut="0" cType="1" res="0.00106876" purity="0.545694" nType="-99"/>
            <Node pos="r" depth="3" NCoef="0" IVar="4" Cut="275594" cType="1" res="0.127575" purity="0.658682" nType="0">
              <Node pos="l" depth="4" NCoef="0" IVar="-1" Cut="0" cType="1" res="0.00586742" purity="0.692018" nType="-99"/>
              <Node pos="r" depth="4" NCoef="0" IVar="-1" Cut="0" cType="1" res="0.00212809" purity="0.568872" nType="-99"/>
            </Node>
          </Node>
        </Node>
      </Node>
    </BinaryTree>
    <BinaryTree type="DecisionTree" boostWeight="1.0" itree="18">
      <Node pos="s" depth="0" NCoef="0" IVar="2" Cut="10730.6" cType="1" res="0.0104373" purity="0.50349" nType="0">
        <Node pos="l" depth="1" NCoef="0" IVar="0" Cut="182914" cType="1" res="-0.0190313" purity="0.459624" nType="0">
          <Node pos="l" depth="2" NCoef="0" IVar="2" Cut="2070.23" cType="1" res="-0.033839" purity="0.439705" nType="0">
            <Node pos="l" depth="3" NCoef="0" IVar="3" Cut="189526" cType="1" res="-0.0569685" purity="0.410176" nType="0">
              <Node pos="l" depth="4" NCoef="0" IVar="-1" Cut="0" cType="1" res="-0.00403812" purity="0.394877" nType="-99"/>
              <Node pos="r" depth="4" NCoef="0" IVar="-1" Cut="0" cType="1" res="-0.0005148" purity="0.456121" nType="-99"/>
            </Node>
            <Node pos="r" depth="3" NCoef="0" IVar="4" Cut="256128" cType="1" res="0.00495457" purity="0.489231" nType="0">
              <Node pos="l" depth="4" NCoef="0" IVar="-1" Cut="0" cType="1" res="0.00135067" purity="0.518062" nType="-99"/>
              <Node pos="r" depth="4" NCoef="0" IVar="-1" Cut="0" cType="1" res="-0.00246475" purity="0.425202" nType="-99"/>
            </Node>
          </Node>
          <Node pos="r" depth="2" NCoef="0" IVar="4" Cut="305290" cType="1" res="0.0469457" purity="0.548376" nType="0">
            <Node pos="l" depth="3" NCoef="0" IVar="4" Cut="210534" cType="1" res="0.0760449" purity="0.578119" nType="0">
              <Node pos="l" depth="4" NCoef="0" IVar="-1" Cut="0" cType="1" res="0.00163302" purity="0.537541" nType="-99"/>
              <Node pos="r" depth="4" NCoef="0" IVar="-1" Cut="0" cType="1" res="0.00470032" purity="0.622164" nType="-99"/>
            </Node>
            <Node pos="r" depth="3" NCoef="0" IVar="-1" Cut="0" cType="1" res="-0.000844592" purity="0.482746" nType="-99"/>
          </Node>
        </Node>
        <Node pos="r" depth="1" NCoef="0" IVar="0" Cut="139050" cType="1" res="0.0778067" purity="0.603773" nType="0">
          <Node pos="l" depth="2" NCoef="0" IVar="2" Cut="21462.3" cType="1" res="0.0452791" purity="0.567086" nType="0">
            <Node pos="l" depth="3" NCoef="0" IVar="-1" Cut="0" cType="1" res="0.000570704" purity="0.529097" nType="-99"/>
            <Node pos="r" depth="3" NCoef="0" IVar="-1" Cut="0" cType="1" res="0.00388697" purity="0.626021" nType="-99"/>
          </Node>
          <Node pos="r" depth="2" NCoef="0" IVar="4" Cut="208064" cType="1" res="0.116879" purity="0.647841" nType="0">
            <Node pos="l" depth="3" NCoef="0" IVar="-1" Cut="0" cType="1" res="0.00600898" purity="0.706488" nType="-99"/>
            <Node pos="r" depth="3" NCoef="0" IVar="-1" Cut="0" cType="1" res="0.00323211" purity="0.6015" nType="-99"/>
          </Node>
        </Node>
      </Node>
    </BinaryTree>
    <BinaryTree type="DecisionTree" boostWeight="1.0" itree="19">
      <Node pos="s" depth="0" NCoef="0" IVar="2" Cut="7231.85" cType="1" res="-0.00385609" purity="0.489181" nType="0">
        <Node pos="l" depth="1" NCoef="0" IVar="0" Cut="182912" cType="1" res="-0.0372711" purity="0.437962" nType="0">
          <Node pos="l" depth="2" NCoef="0" IVar="6" Cut="2.83508" cType="1" res="-0.0567785" purity="0.412452" nType="0">
            <Node pos="l" depth="3" NCoef="0" IVar="3" Cut="132445" cType="1" res="-0.0457429" purity="0.425101" nType="0">
              <Node pos="l" depth="4" NCoef="0" IVar="-1" Cut="0" cType="1" res="-0.0057218" purity="0.370504" nType="-99"/>
              <Node pos="r" depth="4" NCoef="0" IVar="-1" Cut="0" cType="1" res="-0.00197584" purity="0.43336" nType="-99"/>
            </Node>
            <Node pos="r" depth="3" NCoef="0" IVar="2" Cut="-11505.3" cType="1" res="-0.109296" purity="0.352254" nType="0">
              <Node pos="l" depth="4" NCoef="0" IVar="-1" Cut="0" cType="1" res="-0.00313452" purity="0.4002" nType="-99"/>
              <Node pos="r" depth="4" NCoef="0" IVar="-1" Cut="0" cType="1" res="-0.0109679" purity="0.303723" nType="-99"/>
            </Node>
          </Node>
          <Node pos="r" depth="2" NCoef="0" IVar="1" Cut="105361" cType="1" res="0.0482372" purity="0.549782" nType="0">
            <Node pos="l" depth="3" NCoef="0" IVar="-1" Cut="0" cType="1" res="-0.000328421" purity="0.485706" nType="-99"/>
            <Node pos="r" depth="3" NCoef="0" IVar="-1" Cut="0" cType="1" res="0.00374636" purity="0.601563" nType="-99"/>
          </Node>
        </Node>
        <Node pos="r" depth="1" NCoef="0" IVar="4" Cut="207341" cType="1" res="0.0474127" purity="0.567766" nType="0">
          <Node pos="l" depth="2" NCoef="0" IVar="2" Cut="18333.6" cType="1" res="0.0946377" purity="0.624146" nType="0">
            <Node pos="l" depth="3" NCoef="0" IVar="6" Cut="1.47017" cType="1" res="0.0640789" purity="0.583815" nType="0">
              <Node pos="l" depth="4" NCoef="0" IVar="-1" Cut="0" cType="1" res="0.00134749" purity="0.546031" nType="-99"/>
              <Node pos="r" depth="4" NCoef="0" IVar="-1" Cut="0" cType="1" res="0.00377548" purity="0.617574" nType="-99"/>
            </Node>
            <Node pos="r" depth="3" NCoef="0" IVar="-1" Cut="0" cType="1" res="0.00536185" purity="0.689666" nType="-99"/>
          </Node>
          <Node pos="r" depth="2" NCoef="0" IVar="3" Cut="158887" cType="1" res="0.000843082" purity="0.512168" nType="0">
            <Node pos="l" depth="3" NCoef="0" IVar="-1" Cut="0" cType="1" res="0.002205" purity="0.565753" nType="-99"/>
            <Node pos="r" depth="3" NCoef="0" IVar="3" Cut="179269" cType="1" res="-0.0350086" purity="0.475061" nType="0">
              <Node pos="l" depth="4" NCoef="0" IVar="-1" Cut="0" cType="1" res="-0.00483889" purity="0.422442" nType="-99"/>
              <Node pos="r" depth="4" NCoef="0" IVar="-1" Cut="0" cType="1" res="0.000139681" purity="0.512879" nType="-99"/>
            </Node>
          </Node>
        </Node>
      </Node>
    </BinaryTree>
    <BinaryTree type="DecisionTree" boostWeight="1.0" itree="20">
      <Node pos="s" depth="0" NCoef="0" IVar="2" Cut="13994.6" cType="1" res="0.00745273" purity="0.500157" nType="0">
        <Node pos="l" depth="1" NCoef="0" IVar="0" Cut="109757" cType="1" res="-0.0200506" purity="0.460903" nType="0">
          <Node pos="l" depth="2" NCoef="0" IVar="6" Cut="2.37517" cType="1" res="-0.0953608" purity="0.368659" nType="0">
            <Node pos="l" depth="3" NCoef="0" IVar="-1" Cut="0" cType="1" res="-0.00320115" purity="0.412841" nType="-99"/>
            <Node pos="r" depth="3" NCoef="0" IVar="-1" Cut="0" cType="1" res="-0.012167" purity="0.281221" nType="-99"/>
          </Node>
          <Node pos="r" depth="2" NCoef="0" IVar="1" Cut="115611" cType="1" res="-0.00421345" purity="0.480301" nType="0">
            <Node pos="l" depth="3" NCoef="0" IVar="3" Cut="183678" cType="1" res="-0.024932" purity="0.45747" nType="0">
              <Node pos="l" depth="4" NCoef="0" IVar="-1" Cut="0" cType="1" res="-0.0006015" purity="0.470058" nType="-99"/>
              <Node pos="r" depth="4" NCoef="0" IVar="-1" Cut="0" cType="1" res="-0.00328535" purity="0.422317" nType="-99"/>
            </Node>
            <Node pos="r" depth="3" NCoef="0" IVar="4" Cut="271314" cType="1" res="0.0253566" purity="0.512886" nType="0">
              <Node pos="l" depth="4" NCoef="0" IVar="-1" Cut="0" cType="1" res="0.00270422" purity="0.560926" nType="-99"/>
              <Node pos="r" depth="4" NCoef="0" IVar="-1" Cut="0" cType="1" res="-0.000890536" purity="0.459913" nType="-99"/>
            </Node>
          </Node>
        </Node>
        <Node pos="r" depth="1" NCoef="0" IVar="6" Cut="0.908549" cType="1" res="0.101555" purity="0.634462" nType="0">
          <Node pos="l" depth="2" NCoef="0" IVar="-1" Cut="0" cType="1" res="0.00123877" purity="0.545352" nType="-99"/>
          <Node pos="r" depth="2" NCoef="0" IVar="2" Cut="20167.8" cType="1" res="0.138571" purity="0.679266" nType="0">
            <Node pos="l" depth="3" NCoef="0" IVar="-1" Cut="0" cType="1" res="0.00274211" purity="0.59834" nType="-99"/>
            <Node pos="r" depth="3" NCoef="0" IVar="-1" Cut="0" cType="1" res="0.00652393" purity="0.728826" nType="-99"/>
          </Node>
        </Node>
      </Node>
    </BinaryTree>
    <BinaryTree type="DecisionTree" boostWeight="1.0" itree="21">
      <Node pos="s" depth="0" NCoef="0" IVar="2" Cut="14129.8" cType="1" res="0.00635907" purity="0.499099" nType="0">
        <Node pos="l" depth="1" NCoef="0" IVar="0" Cut="158519" cType="1" res="-0.0153867" purity="0.465454" nType="0">
          <Node pos="l" depth="2" NCoef="0" IVar="4" Cut="256392" cType="1" res="-0.0353238" purity="0.437091" nType="0">
            <Node pos="l" depth="3" NCoef="0" IVar="5" Cut="1.71129" cType="1" res="-0.0135718" purity="0.466196" nType="0">
              <Node pos="l" depth="4" NCoef="0" IVar="-1" Cut="0" cType="1" res="-0.0018909" purity="0.441224" nType="-99"/>
              <Node pos="r" depth="4" NCoef="0" IVar="-1" Cut="0" cType="1" res="0.00108018" purity="0.505867" nType="-99"/>
            </Node>
            <Node pos="r" depth="3" NCoef="0" IVar="0" Cut="111418" cType="1" res="-0.0730028" purity="0.386675" nType="0">
              <Node pos="l" depth="4" NCoef="0" IVar="-1" Cut="0" cType="1" res="-0.0100515" purity="0.298701" nType="-99"/>
              <Node pos="r" depth="4" NCoef="0" IVar="-1" Cut="0" cType="1" res="-0.00246302" purity="0.41837" nType="-99"/>
            </Node>
          </Node>
          <Node pos="r" depth="2" NCoef="0" IVar="1" Cut="105277" cType="1" res="0.0302114" purity="0.530323" nType="0">
            <Node pos="l" depth="3" NCoef="0" IVar="0" Cut="206806" cType="1" res="-0.0144988" purity="0.477345" nType="0">
              <Node pos="l" depth="4" NCoef="0" IVar="-1" Cut="0" cType="1" res="-0.00310323" purity="0.427718" nType="-99"/>
              <Node pos="r" depth="4" NCoef="0" IVar="-1" Cut="0" cType="1" res="0.00218205" purity="0.548002" nType="-99"/>
            </Node>
            <Node pos="r" depth="3" NCoef="0" IVar="4" Cut="237910" cType="1" res="0.0641507" purity="0.570538" nType="0">
              <Node pos="l" depth="4" NCoef="0" IVar="-1" Cut="0" cType="1" res="0.00415692" purity="0.625497" nType="-99"/>
              <Node pos="r" depth="4" NCoef="0" IVar="-1" Cut="0" cType="1" res="0.00144202" purity="0.532521" nType="-99"/>
            </Node>
          </Node>
        </Node>
        <Node pos="r" depth="1" NCoef="0" IVar="6" Cut="0.7687" cType="1" res="0.0830575" purity="0.617768" nType="0">
          <Node pos="l" depth="2" NCoef="0" IVar="-1" Cut="0" cType="1" res="0.000666296" purity="0.530803" nType="-99"/>
          <Node pos="r" depth="2" NCoef="0" IVar="0" Cut="173184" cType="1" res="0.109723" purity="0.651756" nType="0">
            <Node pos="l" depth="3" NCoef="0" IVar="1" Cut="110005" cType="1" res="0.087911" purity="0.62828" nType="0">
              <Node pos="l" depth="4" NCoef="0" IVar="-1" Cut="0" cType="1" res="0.00224654" purity="0.591439" nType="-99"/>
              <Node pos="r" depth="4" NCoef="0" IVar="-1" Cut="0" cType="1" res="0.00436891" purity="0.656694" nType="-99"/>
            </Node>
            <Node pos="r" depth="3" NCoef="0" IVar="-1" Cut="0" cType="1" res="0.00630729" purity="0.716883" nType="-99"/>
          </Node>
        </Node>
      </Node>
    </BinaryTree>
    <BinaryTree type="DecisionTree" boostWeight="1.0" itree="22">
      <Node pos="s" depth="0" NCoef="0" IVar="2" Cut="10946.1" cType="1" res="-0.00424929" purity="0.488366" nType="0">
        <Node pos="l" depth="1" NCoef="0" IVar="0" Cut="119515" cType="1" res="-0.0340233" purity="0.441659" nType="0">
          <Node pos="l" depth="2" NCoef="0" IVar="2" Cut="1001.41" cType="1" res="-0.0682268" purity="0.389993" nType="0">
            <Node pos="l" depth="3" NCoef="0" IVar="3" Cut="173429" cType="1" res="-0.0967011" purity="0.350936" nType="0">
              <Node pos="l" depth="4" NCoef="0" IVar="-1" Cut="0" cType="1" res="-0.00409202" purity="0.37804" nType="-99"/>
              <Node pos="r" depth="4" NCoef="0" IVar="-1" Cut="0" cType="1" res="-0.00880063" purity="0.313926" nType="-99"/>
            </Node>
            <Node pos="r" depth="3" NCoef="0" IVar="-1" Cut="0" cType="1" res="-0.00136071" purity="0.447226" nType="-99"/>
          </Node>
          <Node pos="r" depth="2" NCoef="0" IVar="6" Cut="1.76249" cType="1" res="-0.0168592" purity="0.467586" nType="0">
            <Node pos="l" depth="3" NCoef="0" IVar="5" Cut="1.23819" cType="1" res="-0.0589555" purity="0.426597" nType="0">
              <Node pos="l" depth="4" NCoef="0" IVar="-1" Cut="0" cType="1" res="-0.00740918" purity="0.360569" nType="-99"/>
              <Node pos="r" depth="4" NCoef="0" IVar="-1" Cut="0" cType="1" res="-0.00110416" purity="0.466788" nType="-99"/>
            </Node>
            <Node pos="r" depth="3" NCoef="0" IVar="6" Cut="2.23354" cType="1" res="0.00293325" purity="0.486857" nType="0">
              <Node pos="l" depth="4" NCoef="0" IVar="-1" Cut="0" cType="1" res="0.00187049" purity="0.528382" nType="-99"/>
              <Node pos="r" depth="4" NCoef="0" IVar="-1" Cut="0" cType="1" res="-0.000544026" purity="0.471898" nType="-99"/>
            </Node>
          </Node>
        </Node>
        <Node pos="r" depth="1" NCoef="0" IVar="0" Cut="114643" cType="1" res="0.064119" purity="0.595617" nType="0">
          <Node pos="l" depth="2" NCoef="0" IVar="-1" Cut="0" cType="1" res="-0.0011843" purity="0.495625" nType="-99"/>
          <Node pos="r" depth="2" NCoef="0" IVar="4" Cut="187815" cType="1" res="0.0930013" purity="0.627694" nType="0">
            <Node pos="l" depth="3" NCoef="0" IVar="-1" Cut="0" cType="1" res="0.00514303" purity="0.683822" nType="-99"/>
            <Node pos="r" depth="3" NCoef="0" IVar="6" Cut="0.855472" cType="1" res="0.0682042" purity="0.59541" nType="0">
              <Node pos="l" depth="4" NCoef="0" IVar="-1" Cut="0" cType="1" res="0.00113335" purity="0.537558" nType="-99"/>
              <Node pos="r" depth="4" NCoef="0" IVar="-1" Cut="0" cType="1" res="0.00358775" purity="0.625876" nType="-99"/>
            </Node>
          </Node>
        </Node>
      </Node>
    </BinaryTree>
    <BinaryTree type="DecisionTree" boostWeight="1.0" itree="23">
      <Node pos="s" depth="0" NCoef="0" IVar="2" Cut="7202.99" cType="1" res="0.0121829" purity="0.503831" nType="0">
        <Node pos="l" depth="1" NCoef="0" IVar="1" Cut="105366" cType="1" res="-0.0177466" purity="0.453049" nType="0">
          <Node pos="l" depth="2" NCoef="0" IVar="4" Cut="168776" cType="1" res="-0.0485326" purity="0.419179" nType="0">
            <Node pos="l" depth="3" NCoef="0" IVar="-1" Cut="0" cType="1" res="-0.00726945" purity="0.361486" nType="-99"/>
            <Node pos="r" depth="3" NCoef="0" IVar="4" Cut="330338" cType="1" res="-0.0342742" purity="0.431608" nType="0">
              <Node pos="l" depth="4" NCoef="0" IVar="-1" Cut="0" cType="1" res="-0.00102483" purity="0.44816" nType="-99"/>
              <Node pos="r" depth="4" NCoef="0" IVar="-1" Cut="0" cType="1" res="-0.00590019" purity="0.360884" nType="-99"/>
            </Node>
          </Node>
          <Node pos="r" depth="2" NCoef="0" IVar="0" Cut="109767" cType="1" res="0.00496346" purity="0.478034" nType="0">
            <Node pos="l" depth="3" NCoef="0" IVar="-1" Cut="0" cType="1" res="-0.00549276" purity="0.357444" nType="-99"/>
            <Node pos="r" depth="3" NCoef="0" IVar="4" Cut="257949" cType="1" res="0.0262487" purity="0.505261" nType="0">
              <Node pos="l" depth="4" NCoef="0" IVar="-1" Cut="0" cType="1" res="0.00225348" purity="0.538063" nType="-99"/>
              <Node pos="r" depth="4" NCoef="0" IVar="-1" Cut="0" cType="1" res="7.26261e-05" purity="0.472987" nType="-99"/>
            </Node>
          </Node>
        </Node>
        <Node pos="r" depth="1" NCoef="0" IVar="6" Cut="0.568164" cType="1" res="0.05692" purity="0.579737" nType="0">
          <Node pos="l" depth="2" NCoef="0" IVar="-1" Cut="0" cType="1" res="-0.00061621" purity="0.490149" nType="-99"/>
          <Node pos="r" depth="2" NCoef="0" IVar="0" Cut="134166" cType="1" res="0.0744178" purity="0.602109" nType="0">
            <Node pos="l" depth="3" NCoef="0" IVar="1" Cut="104539" cType="1" res="0.0337985" purity="0.554593" nType="0">
              <Node pos="l" depth="4" NCoef="0" IVar="-1" Cut="0" cType="1" res="-0.00113451" purity="0.494143" nType="-99"/>
              <Node pos="r" depth="4" NCoef="0" IVar="-1" Cut="0" cType="1" res="0.00268761" purity="0.587841" nType="-99"/>
            </Node>
            <Node pos="r" depth="3" NCoef="0" IVar="4" Cut="266102" cType="1" res="0.107571" purity="0.64089" nType="0">
              <Node pos="l" depth="4" NCoef="0" IVar="-1" Cut="0" cType="1" res="0.00508458" purity="0.673592" nType="-99"/>
              <Node pos="r" depth="4" NCoef="0" IVar="-1" Cut="0" cType="1" res="0.00213306" purity="0.568462" nType="-99"/>
            </Node>
          </Node>
        </Node>
      </Node>
    </BinaryTree>
    <BinaryTree type="DecisionTree" boostWeight="1.0" itree="24">
      <Node pos="s" depth="0" NCoef="0" IVar="2" Cut="17345.5" cType="1" res="-0.00397863" purity="0.487729" nType="0">
        <Node pos="l" depth="1" NCoef="0" IVar="4" Cut="207874" cType="1" res="-0.0264599" purity="0.455126" nType="0">
          <Node pos="l" depth="2" NCoef="0" IVar="6" Cut="1.45646" cType="1" res="0.00812438" purity="0.498992" nType="0">
            <Node pos="l" depth="3" NCoef="0" IVar="2" Cut="6425.68" cType="1" res="-0.0633077" purity="0.431818" nType="0">
              <Node pos="l" depth="4" NCoef="0" IVar="-1" Cut="0" cType="1" res="-0.00842395" purity="0.340098" nType="-99"/>
              <Node pos="r" depth="4" NCoef="0" IVar="-1" Cut="0" cType="1" res="-0.000198852" purity="0.510273" nType="-99"/>
            </Node>
            <Node pos="r" depth="3" NCoef="0" IVar="2" Cut="-6238.97" cType="1" res="0.040358" purity="0.529304" nType="0">
              <Node pos="l" depth="4" NCoef="0" IVar="-1" Cut="0" cType="1" res="-0.00112808" purity="0.447917" nType="-99"/>
              <Node pos="r" depth="4" NCoef="0" IVar="-1" Cut="0" cType="1" res="0.00248052" purity="0.550331" nType="-99"/>
            </Node>
          </Node>
          <Node pos="r" depth="2" NCoef="0" IVar="0" Cut="139031" cType="1" res="-0.0489782" purity="0.426565" nType="0">
            <Node pos="l" depth="3" NCoef="0" IVar="1" Cut="105076" cType="1" res="-0.0795048" purity="0.381469" nType="0">
              <Node pos="l" depth="4" NCoef="0" IVar="-1" Cut="0" cType="1" res="-0.00979177" purity="0.312329" nType="-99"/>
              <Node pos="r" depth="4" NCoef="0" IVar="-1" Cut="0" cType="1" res="-0.00295445" purity="0.409269" nType="-99"/>
            </Node>
            <Node pos="r" depth="3" NCoef="0" IVar="6" Cut="1.83897" cType="1" res="-0.0129843" purity="0.479738" nType="0">
              <Node pos="l" depth="4" NCoef="0" IVar="-1" Cut="0" cType="1" res="-0.00302706" purity="0.438983" nType="-99"/>
              <Node pos="r" depth="4" NCoef="0" IVar="-1" Cut="0" cType="1" res="0.000654094" purity="0.504093" nType="-99"/>
            </Node>
          </Node>
        </Node>
        <Node pos="r" depth="1" NCoef="0" IVar="4" Cut="275620" cType="1" res="0.10919" purity="0.651848" nType="0">
          <Node pos="l" depth="2" NCoef="0" IVar="-1" Cut="0" cType="1" res="0.00546143" purity="0.696617" nType="-99"/>
          <Node pos="r" depth="2" NCoef="0" IVar="-1" Cut="0" cType="1" res="-0.000310614" purity="0.5168" nType="-99"/>
        </Node>
      </Node>
    </BinaryTree>
    <BinaryTree type="DecisionTree" boostWeight="1.0" itree="25">
      <Node pos="s" depth="0" NCoef="0" IVar="2" Cut="23975.1" cType="1" res="0.00926819" purity="0.499635" nType="0">
        <Node pos="l" depth="1" NCoef="0" IVar="0" Cut="178052" cType="1" res="-0.00109082" purity="0.48353" nType="0">
          <Node pos="l" depth="2" NCoef="0" IVar="4" Cut="344086" cType="1" res="-0.0147511" purity="0.463616" nType="0">
            <Node pos="l" depth="3" NCoef="0" IVar="1" Cut="151149" cType="1" res="-0.00336216" purity="0.479129" nType="0">
              <Node pos="l" depth="4" NCoef="0" IVar="-1" Cut="0" cType="1" res="0.000136114" purity="0.484956" nType="-99"/>
              <Node pos="r" depth="4" NCoef="0" IVar="-1" Cut="0" cType="1" res="-0.00298611" purity="0.429386" nType="-99"/>
            </Node>
            <Node pos="r" depth="3" NCoef="0" IVar="3" Cut="176014" cType="1" res="-0.0835446" purity="0.369915" nType="0">
              <Node pos="l" depth="4" NCoef="0" IVar="-1" Cut="0" cType="1" res="-0.00692428" purity="0.339808" nType="-99"/>
              <Node pos="r" depth="4" NCoef="0" IVar="-1" Cut="0" cType="1" res="-0.00254508" purity="0.407159" nType="-99"/>
            </Node>
          </Node>
          <Node pos="r" depth="2" NCoef="0" IVar="4" Cut="246822" cType="1" res="0.0511612" purity="0.5597" nType="0">
            <Node pos="l" depth="3" NCoef="0" IVar="1" Cut="106704" cType="1" res="0.0921896" purity="0.605379" nType="0">
              <Node pos="l" depth="4" NCoef="0" IVar="-1" Cut="0" cType="1" res="0.00215276" purity="0.551133" nType="-99"/>
              <Node pos="r" depth="4" NCoef="0" IVar="-1" Cut="0" cType="1" res="0.00517979" purity="0.670654" nType="-99"/>
            </Node>
            <Node pos="r" depth="3" NCoef="0" IVar="4" Cut="364140" cType="1" res="0.00663511" purity="0.510128" nType="0">
              <Node pos="l" depth="4" NCoef="0" IVar="-1" Cut="0" cType="1" res="-0.00168179" purity="0.472647" nType="-99"/>
              <Node pos="r" depth="4" NCoef="0" IVar="-1" Cut="0" cType="1" res="0.0024702" purity="0.556284" nType="-99"/>
            </Node>
          </Node>
        </Node>
        <Node pos="r" depth="1" NCoef="0" IVar="-1" Cut="0" cType="1" res="0.00432051" purity="0.660431" nType="-99"/>
      </Node>
    </BinaryTree>
    <BinaryTree type="DecisionTree" boostWeight="1.0" itree="26">
      <Node pos="s" depth="0" NCoef="0" IVar="2" Cut="7348.92" cType="1" res="0.00627782" purity="0.498179" nType="0">
        <Node pos="l" depth="1" NCoef="0" IVar="0" Cut="158513" cType="1" res="-0.0259896" purity="0.443748" nType="0">
          <Node pos="l" depth="2" NCoef="0" IVar="1" Cut="151348" cType="1" res="-0.0536517" purity="0.405334" nType="0">
            <Node pos="l" depth="3" NCoef="0" IVar="0" Cut="115705" cType="1" res="-0.0444997" purity="0.415343" nType="0">
              <Node pos="l" depth="4" NCoef="0" IVar="-1" Cut="0" cType="1" res="-0.00471422" purity="0.368468" nType="-99"/>
              <Node pos="r" depth="4" NCoef="0" IVar="-1" Cut="0" cType="1" res="-0.00119936" purity="0.445027" nType="-99"/>
            </Node>
            <Node pos="r" depth="3" NCoef="0" IVar="-1" Cut="0" cType="1" res="-0.00761037" purity="0.331868" nType="-99"/>
          </Node>
          <Node pos="r" depth="2" NCoef="0" IVar="1" Cut="100226" cType="1" res="0.0372648" purity="0.531591" nType="0">
            <Node pos="l" depth="3" NCoef="0" IVar="-1" Cut="0" cType="1" res="-0.000902593" purity="0.465781" nType="-99"/>
            <Node pos="r" depth="3" NCoef="0" IVar="1" Cut="109953" cType="1" res="0.0678651" purity="0.568085" nType="0">
              <Node pos="l" depth="4" NCoef="0" IVar="-1" Cut="0" cType="1" res="0.00469921" purity="0.613661" nType="-99"/>
              <Node pos="r" depth="4" NCoef="0" IVar="-1" Cut="0" cType="1" res="0.00176812" purity="0.544026" nType="-99"/>
            </Node>
          </Node>
        </Node>
        <Node pos="r" depth="1" NCoef="0" IVar="4" Cut="266021" cType="1" res="0.0551117" purity="0.580555" nType="0">
          <Node pos="l" depth="2" NCoef="0" IVar="6" Cut="0.70295" cType="1" res="0.0855739" purity="0.61856" nType="0">
            <Node pos="l" depth="3" NCoef="0" IVar="-1" Cut="0" cType="1" res="0.000468105" purity="0.52619" nType="-99"/>
            <Node pos="r" depth="3" NCoef="0" IVar="2" Cut="14032" cType="1" res="0.106791" purity="0.644706" nType="0">
              <Node pos="l" depth="4" NCoef="0" IVar="-1" Cut="0" cType="1" res="0.00282328" purity="0.583131" nType="-99"/>
              <Node pos="r" depth="4" NCoef="0" IVar="-1" Cut="0" cType="1" res="0.00513488" purity="0.694333" nType="-99"/>
            </Node>
          </Node>
          <Node pos="r" depth="2" NCoef="0" IVar="5" Cut="1.10592" cType="1" res="-0.0191206" purity="0.487941" nType="0">
            <Node pos="l" depth="3" NCoef="0" IVar="-1" Cut="0" cType="1" res="0.00118143" purity="0.542329" nType="-99"/>
            <Node pos="r" depth="3" NCoef="0" IVar="-1" Cut="0" cType="1" res="-0.00255225" purity="0.452321" nType="-99"/>
          </Node>
        </Node>
      </Node>
    </BinaryTree>
    <BinaryTree type="DecisionTree" boostWeight="1.0" itree="27">
      <Node pos="s" depth="0" NCoef="0" IVar="2" Cut="13629.3" cType="1" res="0.00249787" purity="0.493809" nType="0">
        <Node pos="l" depth="1" NCoef="0" IVar="0" Cut="182890" cType="1" res="-0.0201557" purity="0.456071" nType="0">
          <Node pos="l" depth="2" NCoef="0" IVar="1" Cut="115479" cType="1" res="-0.03525" purity="0.43396" nType="0">
            <Node pos="l" depth="3" NCoef="0" IVar="5" Cut="1.76348" cType="1" res="-0.0548997" purity="0.41277" nType="0">
              <Node pos="l" depth="4" NCoef="0" IVar="-1" Cut="0" cType="1" res="-0.004053" purity="0.394829" nType="-99"/>
              <Node pos="r" depth="4" NCoef="0" IVar="-1" Cut="0" cType="1" res="0.000710392" purity="0.478704" nType="-99"/>
            </Node>
            <Node pos="r" depth="3" NCoef="0" IVar="5" Cut="1.7486" cType="1" res="-0.00705384" purity="0.464367" nType="0">
              <Node pos="l" depth="4" NCoef="0" IVar="-1" Cut="0" cType="1" res="0.00181817" purity="0.517748" nType="-99"/>
              <Node pos="r" depth="4" NCoef="0" IVar="-1" Cut="0" cType="1" res="-0.0019621" purity="0.430859" nType="-99"/>
            </Node>
          </Node>
          <Node pos="r" depth="2" NCoef="0" IVar="0" Cut="239972" cType="1" res="0.044322" purity="0.550521" nType="0">
            <Node pos="l" depth="3" NCoef="0" IVar="0" Cut="198198" cType="1" res="0.0224185" purity="0.524707" nType="0">
              <Node pos="l" depth="4" NCoef="0" IVar="-1" Cut="0" cType="1" res="0.00300534" purity="0.569346" nType="-99"/>
              <Node pos="r" depth="4" NCoef="0" IVar="-1" Cut="0" cType="1" res="-0.000579852" purity="0.493808" nType="-99"/>
            </Node>
            <Node pos="r" depth="3" NCoef="0" IVar="-1" Cut="0" cType="1" res="0.00391926" purity="0.612152" nType="-99"/>
          </Node>
        </Node>
        <Node pos="r" depth="1" NCoef="0" IVar="0" Cut="114653" cType="1" res="0.0775313" purity="0.618804" nType="0">
          <Node pos="l" depth="2" NCoef="0" IVar="-1" Cut="0" cType="1" res="-0.000291308" purity="0.520423" nType="-99"/>
          <Node pos="r" depth="2" NCoef="0" IVar="1" Cut="110447" cType="1" res="0.105137" purity="0.651218" nType="0">
            <Node pos="l" depth="3" NCoef="0" IVar="-1" Cut="0" cType="1" res="0.001651" purity="0.586316" nType="-99"/>
            <Node pos="r" depth="3" NCoef="0" IVar="6" Cut="1.29435" cType="1" res="0.139692" purity="0.684756" nType="0">
              <Node pos="l" depth="4" NCoef="0" IVar="-1" Cut="0" cType="1" res="0.00383214" purity="0.62912" nType="-99"/>
              <Node pos="r" depth="4" NCoef="0" IVar="-1" Cut="0" cType="1" res="0.00639703" purity="0.744247" nType="-99"/>
            </Node>
          </Node>
        </Node>
      </Node>
    </BinaryTree>
    <BinaryTree type="DecisionTree" boostWeight="1.0" itree="28">
      <Node pos="s" depth="0" NCoef="0" IVar="2" Cut="14129.8" cType="1" res="-0.00421516" purity="0.486779" nType="0">
        <Node pos="l" depth="1" NCoef="0" IVar="0" Cut="231686" cType="1" res="-0.0240506" purity="0.452564" nType="0">
          <Node pos="l" depth="2" NCoef="0" IVar="1" Cut="156244" cType="1" res="-0.031229" purity="0.44239" nType="0">
            <Node pos="l" depth="3" NCoef="0" IVar="1" Cut="106157" cType="1" res="-0.021712" purity="0.452339" nType="0">
              <Node pos="l" depth="4" NCoef="0" IVar="-1" Cut="0" cType="1" res="-0.00270603" purity="0.418472" nType="-99"/>
              <Node pos="r" depth="4" NCoef="0" IVar="-1" Cut="0" cType="1" res="0.000288158" purity="0.484964" nType="-99"/>
            </Node>
            <Node pos="r" depth="3" NCoef="0" IVar="0" Cut="141775" cType="1" res="-0.104275" purity="0.366033" nType="0">
              <Node pos="l" depth="4" NCoef="0" IVar="-1" Cut="0" cType="1" res="-0.00890403" purity="0.315381" nType="-99"/>
              <Node pos="r" depth="4" NCoef="0" IVar="-1" Cut="0" cType="1" res="-0.00376139" purity="0.419554" nType="-99"/>
            </Node>
          </Node>
          <Node pos="r" depth="2" NCoef="0" IVar="-1" Cut="0" cType="1" res="0.00296496" purity="0.58938" nType="-99"/>
        </Node>
        <Node pos="r" depth="1" NCoef="0" IVar="6" Cut="1.39762" cType="1" res="0.0670599" purity="0.609727" nType="0">
          <Node pos="l" depth="2" NCoef="0" IVar="0" Cut="124413" cType="1" res="0.0325307" purity="0.565002" nType="0">
            <Node pos="l" depth="3" NCoef="0" IVar="-1" Cut="0" cType="1" res="-0.000921697" purity="0.504915" nType="-99"/>
            <Node pos="r" depth="3" NCoef="0" IVar="-1" Cut="0" cType="1" res="0.00304494" purity="0.614627" nType="-99"/>
          </Node>
          <Node pos="r" depth="2" NCoef="0" IVar="-1" Cut="0" cType="1" res="0.00438971" purity="0.671059" nType="-99"/>
        </Node>
      </Node>
    </BinaryTree>
    <BinaryTree type="DecisionTree" boostWeight="1.0" itree="29">
      <Node pos="s" depth="0" NCoef="0" IVar="2" Cut="355.501" cType="1" res="0.00253093" purity="0.49302" nType="0">
        <Node pos="l" depth="1" NCoef="0" IVar="0" Cut="178056" cType="1" res="-0.0389037" purity="0.423034" nType="0">
          <Node pos="l" depth="2" NCoef="0" IVar="4" Cut="220950" cType="1" res="-0.0541187" purity="0.399571" nType="0">
            <Node pos="l" depth="3" NCoef="0" IVar="0" Cut="130453" cType="1" res="-0.0188186" purity="0.442201" nType="0">
              <Node pos="l" depth="4" NCoef="0" IVar="-1" Cut="0" cType="1" res="-0.00228257" purity="0.413199" nType="-99"/>
              <Node pos="r" depth="4" NCoef="0" IVar="-1" Cut="0" cType="1" res="0.000638814" purity="0.485477" nType="-99"/>
            </Node>
            <Node pos="r" depth="3" NCoef="0" IVar="5" Cut="1.38243" cType="1" res="-0.078834" purity="0.369724" nType="0">
              <Node pos="l" depth="4" NCoef="0" IVar="-1" Cut="0" cType="1" res="-0.00205822" purity="0.412098" nType="-99"/>
              <Node pos="r" depth="4" NCoef="0" IVar="-1" Cut="0" cType="1" res="-0.00618011" purity="0.346805" nType="-99"/>
            </Node>
          </Node>
          <Node pos="r" depth="2" NCoef="0" IVar="-1" Cut="0" cType="1" res="0.00146633" purity="0.532876" nType="-99"/>
        </Node>
        <Node pos="r" depth="1" NCoef="0" IVar="2" Cut="24142" cType="1" res="0.0279554" purity="0.535963" nType="0">
          <Node pos="l" depth="2" NCoef="0" IVar="6" Cut="1.67274" cType="1" res="0.0143577" purity="0.514166" nType="0">
            <Node pos="l" depth="3" NCoef="0" IVar="3" Cut="182127" cType="1" res="-0.0128452" purity="0.485013" nType="0">
              <Node pos="l" depth="4" NCoef="0" IVar="-1" Cut="0" cType="1" res="0.000214844" purity="0.503659" nType="-99"/>
              <Node pos="r" depth="4" NCoef="0" IVar="-1" Cut="0" cType="1" res="-0.00286497" purity="0.440455" nType="-99"/>
            </Node>
            <Node pos="r" depth="3" NCoef="0" IVar="1" Cut="130509" cType="1" res="0.0480752" purity="0.5503" nType="0">
              <Node pos="l" depth="4" NCoef="0" IVar="-1" Cut="0" cType="1" res="0.000912554" purity="0.5203" nType="-99"/>
              <Node pos="r" depth="4" NCoef="0" IVar="-1" Cut="0" cType="1" res="0.00554145" purity="0.662332" nType="-99"/>
            </Node>
          </Node>
          <Node pos="r" depth="2" NCoef="0" IVar="-1" Cut="0" cType="1" res="0.00410031" purity="0.65941" nType="-99"/>
        </Node>
      </Node>
    </BinaryTree>
    <BinaryTree type="DecisionTree" boostWeight="1.0" itree="30">
      <Node pos="s" depth="0" NCoef="0" IVar="2" Cut="10260.5" cType="1" res="0.0129263" purity="0.503194" nType="0">
        <Node pos="l" depth="1" NCoef="0" IVar="0" Cut="202439" cType="1" res="-0.0118465" purity="0.457527" nType="0">
          <Node pos="l" depth="2" NCoef="0" IVar="4" Cut="158765" cType="1" res="-0.0247689" purity="0.438655" nType="0">
            <Node pos="l" depth="3" NCoef="0" IVar="-1" Cut="0" cType="1" res="-0.0057891" purity="0.374881" nType="-99"/>
            <Node pos="r" depth="3" NCoef="0" IVar="6" Cut="1.99224" cType="1" res="-0.019027" purity="0.443666" nType="0">
              <Node pos="l" depth="4" NCoef="0" IVar="-1" Cut="0" cType="1" res="0.000107987" purity="0.469098" nType="-99"/>
              <Node pos="r" depth="4" NCoef="0" IVar="-1" Cut="0" cType="1" res="-0.00189993" purity="0.423812" nType="-99"/>
            </Node>
          </Node>
          <Node pos="r" depth="2" NCoef="0" IVar="2" Cut="460.176" cType="1" res="0.0762394" purity="0.586166" nType="0">
            <Node pos="l" depth="3" NCoef="0" IVar="-1" Cut="0" cType="1" res="0.00399866" purity="0.610491" nType="-99"/>
            <Node pos="r" depth="3" NCoef="0" IVar="-1" Cut="0" cType="1" res="0.00222491" purity="0.561822" nType="-99"/>
          </Node>
        </Node>
        <Node pos="r" depth="1" NCoef="0" IVar="0" Cut="114629" cType="1" res="0.067528" purity="0.603848" nType="0">
          <Node pos="l" depth="2" NCoef="0" IVar="-1" Cut="0" cType="1" res="3.88531e-05" purity="0.523013" nType="-99"/>
          <Node pos="r" depth="2" NCoef="0" IVar="4" Cut="275831" cType="1" res="0.0900511" purity="0.63116" nType="0">
            <Node pos="l" depth="3" NCoef="0" IVar="1" Cut="103260" cType="1" res="0.111728" purity="0.661976" nType="0">
              <Node pos="l" depth="4" NCoef="0" IVar="-1" Cut="0" cType="1" res="0.00233509" purity="0.598748" nType="-99"/>
              <Node pos="r" depth="4" NCoef="0" IVar="-1" Cut="0" cType="1" res="0.00503273" purity="0.68838" nType="-99"/>
            </Node>
            <Node pos="r" depth="3" NCoef="0" IVar="-1" Cut="0" cType="1" res="0.00159994" purity="0.557032" nType="-99"/>
          </Node>
        </Node>
      </Node>
    </BinaryTree>
    <BinaryTree type="DecisionTree" boostWeight="1.0" itree="31">
      <Node pos="s" depth="0" NCoef="0" IVar="2" Cut="14112.2" cType="1" res="0.0120492" purity="0.502953" nType="0">
        <Node pos="l" depth="1" NCoef="0" IVar="2" Cut="914.665" cType="1" res="-0.0117907" purity="0.463015" nType="0">
          <Node pos="l" depth="2" NCoef="0" IVar="0" Cut="119521" cType="1" res="-0.0373833" purity="0.42214" nType="0">
            <Node pos="l" depth="3" NCoef="0" IVar="2" Cut="-4074.26" cType="1" res="-0.0801449" purity="0.353733" nType="0">
              <Node pos="l" depth="4" NCoef="0" IVar="-1" Cut="0" cType="1" res="-0.00347545" purity="0.370244" nType="-99"/>
              <Node pos="r" depth="4" NCoef="0" IVar="-1" Cut="0" cType="1" res="-0.00846687" purity="0.318465" nType="-99"/>
            </Node>
            <Node pos="r" depth="3" NCoef="0" IVar="3" Cut="131148" cType="1" res="-0.01462" purity="0.458555" nType="0">
              <Node pos="l" depth="4" NCoef="0" IVar="-1" Cut="0" cType="1" res="0.00206476" purity="0.518161" nType="-99"/>
              <Node pos="r" depth="4" NCoef="0" IVar="-1" Cut="0" cType="1" res="-0.00134569" purity="0.447325" nType="-99"/>
            </Node>
          </Node>
          <Node pos="r" depth="2" NCoef="0" IVar="2" Cut="5098.98" cType="1" res="0.0139729" purity="0.504164" nType="0">
            <Node pos="l" depth="3" NCoef="0" IVar="1" Cut="105249" cType="1" res="0.0438829" purity="0.518634" nType="0">
              <Node pos="l" depth="4" NCoef="0" IVar="-1" Cut="0" cType="1" res="-0.0005253" purity="0.458226" nType="-99"/>
              <Node pos="r" depth="4" NCoef="0" IVar="-1" Cut="0" cType="1" res="0.00356063" purity="0.566023" nType="-99"/>
            </Node>
            <Node pos="r" depth="3" NCoef="0" IVar="2" Cut="7956.51" cType="1" res="-0.00536311" purity="0.494809" nType="0">
              <Node pos="l" depth="4" NCoef="0" IVar="-1" Cut="0" cType="1" res="-0.00308945" purity="0.427555" nType="-99"/>
              <Node pos="r" depth="4" NCoef="0" IVar="-1" Cut="0" cType="1" res="0.000912563" purity="0.528354" nType="-99"/>
            </Node>
          </Node>
        </Node>
        <Node pos="r" depth="1" NCoef="0" IVar="0" Cut="119554" cType="1" res="0.0950264" purity="0.641962" nType="0">
          <Node pos="l" depth="2" NCoef="0" IVar="-1" Cut="0" cType="1" res="0.00123396" purity="0.560449" nType="-99"/>
          <Node pos="r" depth="2" NCoef="0" IVar="1" Cut="130737" cType="1" res="0.125996" purity="0.679976" nType="0">
            <Node pos="l" depth="3" NCoef="0" IVar="3" Cut="166830" cType="1" res="0.0937552" purity="0.65191" nType="0">
              <Node pos="l" depth="4" NCoef="0" IVar="-1" Cut="0" cType="1" res="0.00345572" purity="0.648079" nType="-99"/>
              <Node pos="r" depth="4" NCoef="0" IVar="-1" Cut="0" cType="1" res="0.00377451" purity="0.65571" nType="-99"/>
            </Node>
            <Node pos="r" depth="3" NCoef="0" IVar="-1" Cut="0" cType="1" res="0.00603669" purity="0.716905" nType="-99"/>
          </Node>
        </Node>
      </Node>
    </BinaryTree>
    <BinaryTree type="DecisionTree" boostWeight="1.0" itree="32">
      <Node pos="s" depth="0" NCoef="0" IVar="2" Cut="21177.6" cType="1" res="0.00647908" purity="0.497595" nType="0">
        <Node pos="l" depth="1" NCoef="0" IVar="2" Cut="1805.93" cType="1" res="-0.00964808" purity="0.472277" nType="0">
          <Node pos="l" depth="2" NCoef="0" IVar="4" Cut="207480" cType="1" res="-0.0426007" purity="0.417234" nType="0">
            <Node pos="l" depth="3" NCoef="0" IVar="6" Cut="2.14852" cType="1" res="-0.00925402" purity="0.457281" nType="0">
              <Node pos="l" depth="4" NCoef="0" IVar="-1" Cut="0" cType="1" res="-0.00580095" purity="0.369576" nType="-99"/>
              <Node pos="r" depth="4" NCoef="0" IVar="-1" Cut="0" cType="1" res="0.00140654" purity="0.497006" nType="-99"/>
            </Node>
            <Node pos="r" depth="3" NCoef="0" IVar="0" Cut="158539" cType="1" res="-0.0592173" purity="0.397279" nType="0">
              <Node pos="l" depth="4" NCoef="0" IVar="-1" Cut="0" cType="1" res="-0.00473529" purity="0.363314" nType="-99"/>
              <Node pos="r" depth="4" NCoef="0" IVar="-1" Cut="0" cType="1" res="-0.000256626" purity="0.48932" nType="-99"/>
            </Node>
          </Node>
          <Node pos="r" depth="2" NCoef="0" IVar="4" Cut="246394" cType="1" res="0.0202043" purity="0.522142" nType="0">
            <Node pos="l" depth="3" NCoef="0" IVar="1" Cut="100972" cType="1" res="0.0470211" purity="0.556958" nType="0">
              <Node pos="l" depth="4" NCoef="0" IVar="-1" Cut="0" cType="1" res="0.000196544" purity="0.501481" nType="-99"/>
              <Node pos="r" depth="4" NCoef="0" IVar="-1" Cut="0" cType="1" res="0.00285702" purity="0.586304" nType="-99"/>
            </Node>
            <Node pos="r" depth="3" NCoef="0" IVar="3" Cut="147300" cType="1" res="-0.0257428" purity="0.462488" nType="0">
              <Node pos="l" depth="4" NCoef="0" IVar="-1" Cut="0" cType="1" res="0.00206634" purity="0.537789" nType="-99"/>
              <Node pos="r" depth="4" NCoef="0" IVar="-1" Cut="0" cType="1" res="-0.00275918" purity="0.435513" nType="-99"/>
            </Node>
          </Node>
        </Node>
        <Node pos="r" depth="1" NCoef="0" IVar="1" Cut="125806" cType="1" res="0.120395" purity="0.676428" nType="0">
          <Node pos="l" depth="2" NCoef="0" IVar="-1" Cut="0" cType="1" res="0.0033796" purity="0.644779" nType="-99"/>
          <Node pos="r" depth="2" NCoef="0" IVar="-1" Cut="0" cType="1" res="0.00571341" purity="0.712045" nType="-99"/>
        </Node>
      </Node>
    </BinaryTree>
    <BinaryTree type="DecisionTree" boostWeight="1.0" itree="33">
      <Node pos="s" depth="0" NCoef="0" IVar="2" Cut="13608.9" cType="1" res="0.0174659" purity="0.507707" nType="0">
        <Node pos="l" depth="1" NCoef="0" IVar="0" Cut="134148" cType="1" res="0.00215386" purity="0.475017" nType="0">
          <Node pos="l" depth="2" NCoef="0" IVar="5" Cut="1.14875" cType="1" res="-0.0205193" purity="0.435925" nType="0">
            <Node pos="l" depth="3" NCoef="0" IVar="-1" Cut="0" cType="1" res="-0.00491648" purity="0.366476" nType="-99"/>
            <Node pos="r" depth="3" NCoef="0" IVar="2" Cut="7072.65" cType="1" res="-0.00731501" purity="0.450248" nType="0">
              <Node pos="l" depth="4" NCoef="0" IVar="-1" Cut="0" cType="1" res="-0.00107517" purity="0.42697" nType="-99"/>
              <Node pos="r" depth="4" NCoef="0" IVar="-1" Cut="0" cType="1" res="0.00172486" purity="0.533462" nType="-99"/>
            </Node>
          </Node>
          <Node pos="r" depth="2" NCoef="0" IVar="3" Cut="130472" cType="1" res="0.0244525" purity="0.513464" nType="0">
            <Node pos="l" depth="3" NCoef="0" IVar="-1" Cut="0" cType="1" res="0.00332599" purity="0.566269" nType="-99"/>
            <Node pos="r" depth="3" NCoef="0" IVar="0" Cut="146281" cType="1" res="0.0163462" purity="0.505571" nType="0">
              <Node pos="l" depth="4" NCoef="0" IVar="-1" Cut="0" cType="1" res="0.0022639" purity="0.524278" nType="-99"/>
              <Node pos="r" depth="4" NCoef="0" IVar="-1" Cut="0" cType="1" res="0.000249267" purity="0.499668" nType="-99"/>
            </Node>
          </Node>
        </Node>
        <Node pos="r" depth="1" NCoef="0" IVar="6" Cut="0.978329" cType="1" res="0.0688409" purity="0.617386" nType="0">
          <Node pos="l" depth="2" NCoef="0" IVar="-1" Cut="0" cType="1" res="0.000185693" purity="0.532767" nType="-99"/>
          <Node pos="r" depth="2" NCoef="0" IVar="1" Cut="110061" cType="1" res="0.107604" purity="0.668074" nType="0">
            <Node pos="l" depth="3" NCoef="0" IVar="-1" Cut="0" cType="1" res="0.00225814" purity="0.611334" nType="-99"/>
            <Node pos="r" depth="3" NCoef="0" IVar="-1" Cut="0" cType="1" res="0.00533991" purity="0.712586" nType="-99"/>
          </Node>
        </Node>
      </Node>
    </BinaryTree>
    <BinaryTree type="DecisionTree" boostWeight="1.0" itree="34">
      <Node pos="s" depth="0" NCoef="0" IVar="2" Cut="24272.6" cType="1" res="0.00885472" purity="0.4995" nType="0">
        <Node pos="l" depth="1" NCoef="0" IVar="2" Cut="7035" cType="1" res="-0.00169069" purity="0.481395" nType="0">
          <Node pos="l" depth="2" NCoef="0" IVar="0" Cut="119514" cType="1" res="-0.0184854" purity="0.445503" nType="0">
            <Node pos="l" depth="3" NCoef="0" IVar="1" Cut="100205" cType="1" res="-0.0542103" purity="0.383442" nType="0">
              <Node pos="l" depth="4" NCoef="0" IVar="-1" Cut="0" cType="1" res="-0.00682902" purity="0.329294" nType="-99"/>
              <Node pos="r" depth="4" NCoef="0" IVar="-1" Cut="0" cType="1" res="-0.00191553" purity="0.403934" nType="-99"/>
            </Node>
            <Node pos="r" depth="3" NCoef="0" IVar="1" Cut="105341" cType="1" res="-0.00127505" purity="0.475401" nType="0">
              <Node pos="l" depth="4" NCoef="0" IVar="-1" Cut="0" cType="1" res="-0.00150362" purity="0.440986" nType="-99"/>
              <Node pos="r" depth="4" NCoef="0" IVar="-1" Cut="0" cType="1" res="0.000968524" purity="0.503536" nType="-99"/>
            </Node>
          </Node>
          <Node pos="r" depth="2" NCoef="0" IVar="6" Cut="0.709803" cType="1" res="0.0305172" purity="0.550225" nType="0">
            <Node pos="l" depth="3" NCoef="0" IVar="-1" Cut="0" cType="1" res="-0.00244052" purity="0.454475" nType="-99"/>
            <Node pos="r" depth="3" NCoef="0" IVar="4" Cut="247123" cType="1" res="0.0580814" purity="0.58417" nType="0">
              <Node pos="l" depth="4" NCoef="0" IVar="-1" Cut="0" cType="1" res="0.00343394" purity="0.620196" nType="-99"/>
              <Node pos="r" depth="4" NCoef="0" IVar="-1" Cut="0" cType="1" res="0.000173111" purity="0.512494" nType="-99"/>
            </Node>
          </Node>
        </Node>
        <Node pos="r" depth="1" NCoef="0" IVar="-1" Cut="0" cType="1" res="0.00424048" purity="0.673373" nType="-99"/>
      </Node>
    </BinaryTree>
    <BinaryTree type="DecisionTree" boostWeight="1.0" itree="35">
      <Node pos="s" depth="0" NCoef="0" IVar="2" Cut="14342.2" cType="1" res="0.0107289" purity="0.502852" nType="0">
        <Node pos="l" depth="1" NCoef="0" IVar="2" Cut="3738.96" cType="1" res="-0.0118407" purity="0.462388" nType="0">
          <Node pos="l" depth="2" NCoef="0" IVar="5" Cut="2.37686" cType="1" res="-0.0331406" purity="0.426477" nType="0">
            <Node pos="l" depth="3" NCoef="0" IVar="5" Cut="1.30851" cType="1" res="-0.0241229" purity="0.43725" nType="0">
              <Node pos="l" depth="4" NCoef="0" IVar="-1" Cut="0" cType="1" res="-0.0027013" purity="0.416749" nType="-99"/>
              <Node pos="r" depth="4" NCoef="0" IVar="-1" Cut="0" cType="1" res="-8.70769e-05" purity="0.455431" nType="-99"/>
            </Node>
            <Node pos="r" depth="3" NCoef="0" IVar="-1" Cut="0" cType="1" res="-0.00596482" purity="0.351849" nType="-99"/>
          </Node>
          <Node pos="r" depth="2" NCoef="0" IVar="1" Cut="110453" cType="1" res="0.0230899" purity="0.52128" nType="0">
            <Node pos="l" depth="3" NCoef="0" IVar="0" Cut="168234" cType="1" res="-0.011055" purity="0.481924" nType="0">
              <Node pos="l" depth="4" NCoef="0" IVar="-1" Cut="0" cType="1" res="-0.00202853" purity="0.448835" nType="-99"/>
              <Node pos="r" depth="4" NCoef="0" IVar="-1" Cut="0" cType="1" res="0.00230455" purity="0.55926" nType="-99"/>
            </Node>
            <Node pos="r" depth="3" NCoef="0" IVar="4" Cut="220227" cType="1" res="0.0546701" purity="0.55768" nType="0">
              <Node pos="l" depth="4" NCoef="0" IVar="-1" Cut="0" cType="1" res="0.00389505" purity="0.615964" nType="-99"/>
              <Node pos="r" depth="4" NCoef="0" IVar="-1" Cut="0" cType="1" res="0.00100261" purity="0.514152" nType="-99"/>
            </Node>
          </Node>
        </Node>
        <Node pos="r" depth="1" NCoef="0" IVar="2" Cut="24698.5" cType="1" res="0.0879959" purity="0.641382" nType="0">
          <Node pos="l" depth="2" NCoef="0" IVar="3" Cut="170663" cType="1" res="0.0531913" purity="0.595685" nType="0">
            <Node pos="l" depth="3" NCoef="0" IVar="-1" Cut="0" cType="1" res="0.00305706" purity="0.622081" nType="-99"/>
            <Node pos="r" depth="3" NCoef="0" IVar="-1" Cut="0" cType="1" res="0.000521425" purity="0.554487" nType="-99"/>
          </Node>
          <Node pos="r" depth="2" NCoef="0" IVar="-1" Cut="0" cType="1" res="0.00499938" purity="0.700357" nType="-99"/>
        </Node>
      </Node>
    </BinaryTree>
    <BinaryTree type="DecisionTree" boostWeight="1.0" itree="36">
      <Node pos="s" depth="0" NCoef="0" IVar="2" Cut="3840.95" cType="1" res="0.00932098" purity="0.499779" nType="0">
        <Node pos="l" depth="1" NCoef="0" IVar="6" Cut="1.45589" cType="1" res="-0.0260126" purity="0.432749" nType="0">
          <Node pos="l" depth="2" NCoef="0" IVar="0" Cut="134042" cType="1" res="-0.0983321" purity="0.358096" nType="0">
            <Node pos="l" depth="3" NCoef="0" IVar="-1" Cut="0" cType="1" res="-0.00778404" purity="0.315689" nType="-99"/>
            <Node pos="r" depth="3" NCoef="0" IVar="-1" Cut="0" cType="1" res="-0.00383193" purity="0.403943" nType="-99"/>
          </Node>
          <Node pos="r" depth="2" NCoef="0" IVar="3" Cut="171644" cType="1" res="-0.0104693" purity="0.448794" nType="0">
            <Node pos="l" depth="3" NCoef="0" IVar="3" Cut="160984" cType="1" res="0.0224887" purity="0.481553" nType="0">
              <Node pos="l" depth="4" NCoef="0" IVar="-1" Cut="0" cType="1" res="-0.000159217" purity="0.455624" nType="-99"/>
              <Node pos="r" depth="4" NCoef="0" IVar="-1" Cut="0" cType="1" res="0.0034828" purity="0.537335" nType="-99"/>
            </Node>
            <Node pos="r" depth="3" NCoef="0" IVar="4" Cut="285389" cType="1" res="-0.0513535" purity="0.408156" nType="0">
              <Node pos="l" depth="4" NCoef="0" IVar="-1" Cut="0" cType="1" res="-0.000948177" purity="0.447179" nType="-99"/>
              <Node pos="r" depth="4" NCoef="0" IVar="-1" Cut="0" cType="1" res="-0.00738279" purity="0.330933" nType="-99"/>
            </Node>
          </Node>
        </Node>
        <Node pos="r" depth="1" NCoef="0" IVar="0" Cut="134153" cType="1" res="0.0440581" purity="0.565677" nType="0">
          <Node pos="l" depth="2" NCoef="0" IVar="5" Cut="1.01968" cType="1" res="0.0120965" purity="0.524169" nType="0">
            <Node pos="l" depth="3" NCoef="0" IVar="-1" Cut="0" cType="1" res="-0.00209596" purity="0.483142" nType="-99"/>
            <Node pos="r" depth="3" NCoef="0" IVar="0" Cut="116666" cType="1" res="0.0244975" purity="0.533341" nType="0">
              <Node pos="l" depth="4" NCoef="0" IVar="-1" Cut="0" cType="1" res="0.00195767" purity="0.550009" nType="-99"/>
              <Node pos="r" depth="4" NCoef="0" IVar="-1" Cut="0" cType="1" res="-0.000478332" purity="0.504834" nType="-99"/>
            </Node>
          </Node>
          <Node pos="r" depth="2" NCoef="0" IVar="2" Cut="12337.4" cType="1" res="0.0730145" purity="0.603282" nType="0">
            <Node pos="l" depth="3" NCoef="0" IVar="6" Cut="1.87936" cType="1" res="0.0437502" purity="0.546246" nType="0">
              <Node pos="l" depth="4" NCoef="0" IVar="-1" Cut="0" cType="1" res="0.000642973" purity="0.511388" nType="-99"/>
              <Node pos="r" depth="4" NCoef="0" IVar="-1" Cut="0" cType="1" res="0.00338516" purity="0.590263" nType="-99"/>
            </Node>
            <Node pos="r" depth="3" NCoef="0" IVar="1" Cut="110355" cType="1" res="0.103174" purity="0.662063" nType="0">
              <Node pos="l" depth="4" NCoef="0" IVar="-1" Cut="0" cType="1" res="0.00240547" purity="0.614325" nType="-99"/>
              <Node pos="r" depth="4" NCoef="0" IVar="-1" Cut="0" cType="1" res="0.0048257" purity="0.689033" nType="-99"/>
            </Node>
          </Node>
        </Node>
      </Node>
    </BinaryTree>
    <BinaryTree type="DecisionTree" boostWeight="1.0" itree="37">
      <Node pos="s" depth="0" NCoef="0" IVar="2" Cut="3748.28" cType="1" res="0.0103877" purity="0.501584" nType="0">
        <Node pos="l" depth="1" NCoef="0" IVar="6" Cut="1.60912" cType="1" res="-0.0263678" purity="0.431464" nType="0">
          <Node pos="l" depth="2" NCoef="0" IVar="1" Cut="105181" cType="1" res="-0.0818502" purity="0.373256" nType="0">
            <Node pos="l" depth="3" NCoef="0" IVar="-1" Cut="0" cType="1" res="-0.00906609" purity="0.312" nType="-99"/>
            <Node pos="r" depth="3" NCoef="0" IVar="-1" Cut="0" cType="1" res="-0.00185916" purity="0.426633" nType="-99"/>
          </Node>
          <Node pos="r" depth="2" NCoef="0" IVar="0" Cut="114642" cType="1" res="-0.012431" purity="0.446086" nType="0">
            <Node pos="l" depth="3" NCoef="0" IVar="2" Cut="-5848.97" cType="1" res="-0.0598727" purity="0.365945" nType="0">
              <Node pos="l" depth="4" NCoef="0" IVar="-1" Cut="0" cType="1" res="-0.00150028" purity="0.391854" nType="-99"/>
              <Node pos="r" depth="4" NCoef="0" IVar="-1" Cut="0" cType="1" res="-0.00729542" purity="0.329163" nType="-99"/>
            </Node>
            <Node pos="r" depth="3" NCoef="0" IVar="4" Cut="189638" cType="1" res="0.00472631" purity="0.475069" nType="0">
              <Node pos="l" depth="4" NCoef="0" IVar="-1" Cut="0" cType="1" res="0.0026336" purity="0.537043" nType="-99"/>
              <Node pos="r" depth="4" NCoef="0" IVar="-1" Cut="0" cType="1" res="-0.000579911" purity="0.4563" nType="-99"/>
            </Node>
          </Node>
        </Node>
        <Node pos="r" depth="1" NCoef="0" IVar="0" Cut="119512" cType="1" res="0.0447472" purity="0.567132" nType="0">
          <Node pos="l" depth="2" NCoef="0" IVar="6" Cut="1.01148" cType="1" res="-0.0142719" purity="0.495115" nType="0">
            <Node pos="l" depth="3" NCoef="0" IVar="-1" Cut="0" cType="1" res="-0.00470853" purity="0.415839" nType="-99"/>
            <Node pos="r" depth="3" NCoef="0" IVar="-1" Cut="0" cType="1" res="0.00181792" purity="0.557265" nType="-99"/>
          </Node>
          <Node pos="r" depth="2" NCoef="0" IVar="2" Cut="17361.6" cType="1" res="0.0693398" purity="0.597141" nType="0">
            <Node pos="l" depth="3" NCoef="0" IVar="1" Cut="136019" cType="1" res="0.0501647" purity="0.560338" nType="0">
              <Node pos="l" depth="4" NCoef="0" IVar="-1" Cut="0" cType="1" res="0.00294704" purity="0.58044" nType="-99"/>
              <Node pos="r" depth="4" NCoef="0" IVar="-1" Cut="0" cType="1" res="-0.000700427" purity="0.49479" nType="-99"/>
            </Node>
            <Node pos="r" depth="3" NCoef="0" IVar="6" Cut="1.39762" cType="1" res="0.112117" purity="0.679244" nType="0">
              <Node pos="l" depth="4" NCoef="0" IVar="-1" Cut="0" cType="1" res="0.00323637" purity="0.6378" nType="-99"/>
              <Node pos="r" depth="4" NCoef="0" IVar="-1" Cut="0" cType="1" res="0.00525577" purity="0.721979" nType="-99"/>
            </Node>
          </Node>
        </Node>
      </Node>
    </BinaryTree>
    <BinaryTree type="DecisionTree" boostWeight="1.0" itree="38">
      <Node pos="s" depth="0" NCoef="0" IVar="2" Cut="17738.2" cType="1" res="-0.00206722" purity="0.488055" nType="0">
        <Node pos="l" depth="1" NCoef="0" IVar="5" Cut="2.79386" cType="1" res="-0.0154198" purity="0.460513" nType="0">
          <Node pos="l" depth="2" NCoef="0" IVar="2" Cut="839.077" cType="1" res="-0.0104296" purity="0.466356" nType="0">
            <Node pos="l" depth="3" NCoef="0" IVar="2" Cut="-6133.66" cType="1" res="-0.0352087" purity="0.4189" nType="0">
              <Node pos="l" depth="4" NCoef="0" IVar="-1" Cut="0" cType="1" res="-0.00068374" purity="0.435812" nType="-99"/>
              <Node pos="r" depth="4" NCoef="0" IVar="-1" Cut="0" cType="1" res="-0.00342144" purity="0.399499" nType="-99"/>
            </Node>
            <Node pos="r" depth="3" NCoef="0" IVar="6" Cut="1.67443" cType="1" res="0.0114601" purity="0.508278" nType="0">
              <Node pos="l" depth="4" NCoef="0" IVar="-1" Cut="0" cType="1" res="-0.000684268" purity="0.478982" nType="-99"/>
              <Node pos="r" depth="4" NCoef="0" IVar="-1" Cut="0" cType="1" res="0.00175759" purity="0.539935" nType="-99"/>
            </Node>
          </Node>
          <Node pos="r" depth="2" NCoef="0" IVar="-1" Cut="0" cType="1" res="-0.0061181" purity="0.361105" nType="-99"/>
        </Node>
        <Node pos="r" depth="1" NCoef="0" IVar="6" Cut="1.38893" cType="1" res="0.0660332" purity="0.628528" nType="0">
          <Node pos="l" depth="2" NCoef="0" IVar="-1" Cut="0" cType="1" res="0.00069737" purity="0.56544" nType="-99"/>
          <Node pos="r" depth="2" NCoef="0" IVar="-1" Cut="0" cType="1" res="0.00470146" purity="0.709223" nType="-99"/>
        </Node>
      </Node>
    </BinaryTree>
    <BinaryTree type="DecisionTree" boostWeight="1.0" itree="39">
      <Node pos="s" depth="0" NCoef="0" IVar="2" Cut="10730.6" cType="1" res="0.018803" purity="0.509683" nType="0">
        <Node pos="l" depth="1" NCoef="0" IVar="4" Cut="412251" cType="1" res="-0.00653304" purity="0.459364" nType="0">
          <Node pos="l" depth="2" NCoef="0" IVar="0" Cut="168297" cType="1" res="-0.00075316" purity="0.466125" nType="0">
            <Node pos="l" depth="3" NCoef="0" IVar="5" Cut="1.29558" cType="1" res="-0.0133743" purity="0.443615" nType="0">
              <Node pos="l" depth="4" NCoef="0" IVar="-1" Cut="0" cType="1" res="-0.00291766" purity="0.40264" nType="-99"/>
              <Node pos="r" depth="4" NCoef="0" IVar="-1" Cut="0" cType="1" res="0.000230272" purity="0.462328" nType="-99"/>
            </Node>
            <Node pos="r" depth="3" NCoef="0" IVar="1" Cut="105362" cType="1" res="0.0419169" purity="0.542229" nType="0">
              <Node pos="l" depth="4" NCoef="0" IVar="-1" Cut="0" cType="1" res="0.000190077" purity="0.491803" nType="-99"/>
              <Node pos="r" depth="4" NCoef="0" IVar="-1" Cut="0" cType="1" res="0.00301863" purity="0.584237" nType="-99"/>
            </Node>
          </Node>
          <Node pos="r" depth="2" NCoef="0" IVar="-1" Cut="0" cType="1" res="-0.00496578" purity="0.368594" nType="-99"/>
        </Node>
        <Node pos="r" depth="1" NCoef="0" IVar="0" Cut="134153" cType="1" res="0.0762206" purity="0.62372" nType="0">
          <Node pos="l" depth="2" NCoef="0" IVar="4" Cut="207359" cType="1" res="0.0327287" purity="0.569448" nType="0">
            <Node pos="l" depth="3" NCoef="0" IVar="-1" Cut="0" cType="1" res="0.00316976" purity="0.630158" nType="-99"/>
            <Node pos="r" depth="3" NCoef="0" IVar="-1" Cut="0" cType="1" res="-0.00118096" purity="0.498538" nType="-99"/>
          </Node>
          <Node pos="r" depth="2" NCoef="0" IVar="0" Cut="170557" cType="1" res="0.115215" purity="0.672378" nType="0">
            <Node pos="l" depth="3" NCoef="0" IVar="-1" Cut="0" cType="1" res="0.00507623" purity="0.696441" nType="-99"/>
            <Node pos="r" depth="3" NCoef="0" IVar="-1" Cut="0" cType="1" res="0.00344298" purity="0.641499" nType="-99"/>
          </Node>
        </Node>
      </Node>
    </BinaryTree>
    <BinaryTree type="DecisionTree" boostWeight="1.0" itree="40">
      <Node pos="s" depth="0" NCoef="0" IVar="2" Cut="7348.92" cType="1" res="0.00958238" purity="0.500983" nType="0">
        <Node pos="l" depth="1" NCoef="0" IVar="2" Cut="-7662.71" cType="1" res="-0.020143" purity="0.439756" nType="0">
          <Node pos="l" depth="2" NCoef="0" IVar="0" Cut="148788" cType="1" res="-0.0702646" purity="0.376568" nType="0">
            <Node pos="l" depth="3" NCoef="0" IVar="5" Cut="1.74255" cType="1" res="-0.0945097" purity="0.338108" nType="0">
              <Node pos="l" depth="4" NCoef="0" IVar="-1" Cut="0" cType="1" res="-0.0100338" purity="0.294561" nType="-99"/>
              <Node pos="r" depth="4" NCoef="0" IVar="-1" Cut="0" cType="1" res="-0.00178562" purity="0.395929" nType="-99"/>
            </Node>
            <Node pos="r" depth="3" NCoef="0" IVar="-1" Cut="0" cType="1" res="-0.000429086" purity="0.474433" nType="-99"/>
          </Node>
          <Node pos="r" depth="2" NCoef="0" IVar="1" Cut="156468" cType="1" res="-0.00138297" purity="0.463407" nType="0">
            <Node pos="l" depth="3" NCoef="0" IVar="6" Cut="1.45566" cType="1" res="0.00726433" purity="0.471487" nType="0">
              <Node pos="l" depth="4" NCoef="0" IVar="-1" Cut="0" cType="1" res="-0.00159525" purity="0.424459" nType="-99"/>
              <Node pos="r" depth="4" NCoef="0" IVar="-1" Cut="0" cType="1" res="0.00107534" purity="0.490048" nType="-99"/>
            </Node>
            <Node pos="r" depth="3" NCoef="0" IVar="-1" Cut="0" cType="1" res="-0.00464599" purity="0.390642" nType="-99"/>
          </Node>
        </Node>
        <Node pos="r" depth="1" NCoef="0" IVar="4" Cut="197852" cType="1" res="0.053222" purity="0.590869" nType="0">
          <Node pos="l" depth="2" NCoef="0" IVar="1" Cut="99319.6" cType="1" res="0.0996779" purity="0.652207" nType="0">
            <Node pos="l" depth="3" NCoef="0" IVar="-1" Cut="0" cType="1" res="0.00121451" purity="0.566643" nType="-99"/>
            <Node pos="r" depth="3" NCoef="0" IVar="-1" Cut="0" cType="1" res="0.00475014" purity="0.68448" nType="-99"/>
          </Node>
          <Node pos="r" depth="2" NCoef="0" IVar="0" Cut="119523" cType="1" res="0.0153682" purity="0.540888" nType="0">
            <Node pos="l" depth="3" NCoef="0" IVar="-1" Cut="0" cType="1" res="-0.00367904" purity="0.436464" nType="-99"/>
            <Node pos="r" depth="3" NCoef="0" IVar="2" Cut="20434.3" cType="1" res="0.0470893" purity="0.580424" nType="0">
              <Node pos="l" depth="4" NCoef="0" IVar="-1" Cut="0" cType="1" res="0.000653622" purity="0.53439" nType="-99"/>
              <Node pos="r" depth="4" NCoef="0" IVar="-1" Cut="0" cType="1" res="0.00467752" purity="0.68781" nType="-99"/>
            </Node>
          </Node>
        </Node>
      </Node>
    </BinaryTree>
    <BinaryTree type="DecisionTree" boostWeight="1.0" itree="41">
      <Node pos="s" depth="0" NCoef="0" IVar="2" Cut="7550.13" cType="1" res="0.0150288" purity="0.505038" nType="0">
        <Node pos="l" depth="1" NCoef="0" IVar="1" Cut="115604" cType="1" res="-0.00836719" purity="0.4512" nType="0">
          <Node pos="l" depth="2" NCoef="0" IVar="0" Cut="207299" cType="1" res="-0.0281918" purity="0.428785" nType="0">
            <Node pos="l" depth="3" NCoef="0" IVar="1" Cut="93748.3" cType="1" res="-0.0401068" purity="0.410114" nType="0">
              <Node pos="l" depth="4" NCoef="0" IVar="-1" Cut="0" cType="1" res="-0.000224391" purity="0.443037" nType="-99"/>
              <Node pos="r" depth="4" NCoef="0" IVar="-1" Cut="0" cType="1" res="-0.00285515" purity="0.400387" nType="-99"/>
            </Node>
            <Node pos="r" depth="3" NCoef="0" IVar="-1" Cut="0" cType="1" res="0.00249629" purity="0.563072" nType="-99"/>
          </Node>
          <Node pos="r" depth="2" NCoef="0" IVar="4" Cut="317366" cType="1" res="0.0207238" purity="0.484093" nType="0">
            <Node pos="l" depth="3" NCoef="0" IVar="5" Cut="1.48658" cType="1" res="0.0487228" purity="0.520821" nType="0">
              <Node pos="l" depth="4" NCoef="0" IVar="-1" Cut="0" cType="1" res="-0.000367426" purity="0.476593" nType="-99"/>
              <Node pos="r" depth="4" NCoef="0" IVar="-1" Cut="0" cType="1" res="0.0030391" purity="0.537097" nType="-99"/>
            </Node>
            <Node pos="r" depth="3" NCoef="0" IVar="-1" Cut="0" cType="1" res="-0.00219451" purity="0.404151" nType="-99"/>
          </Node>
        </Node>
        <Node pos="r" depth="1" NCoef="0" IVar="4" Cut="246335" cType="1" res="0.0519418" purity="0.58998" nType="0">
          <Node pos="l" depth="2" NCoef="0" IVar="0" Cut="129268" cType="1" res="0.0772645" purity="0.626097" nType="0">
            <Node pos="l" depth="3" NCoef="0" IVar="-1" Cut="0" cType="1" res="0.00175158" purity="0.574957" nType="-99"/>
            <Node pos="r" depth="3" NCoef="0" IVar="2" Cut="15314.9" cType="1" res="0.108625" purity="0.669941" nType="0">
              <Node pos="l" depth="4" NCoef="0" IVar="-1" Cut="0" cType="1" res="0.00282205" purity="0.603751" nType="-99"/>
              <Node pos="r" depth="4" NCoef="0" IVar="-1" Cut="0" cType="1" res="0.00553148" purity="0.737035" nType="-99"/>
            </Node>
          </Node>
          <Node pos="r" depth="2" NCoef="0" IVar="0" Cut="134125" cType="1" res="0.00757933" purity="0.526709" nType="0">
            <Node pos="l" depth="3" NCoef="0" IVar="-1" Cut="0" cType="1" res="-0.00101835" purity="0.483002" nType="-99"/>
            <Node pos="r" depth="3" NCoef="0" IVar="5" Cut="1.44527" cType="1" res="0.0291454" purity="0.559001" nType="0">
              <Node pos="l" depth="4" NCoef="0" IVar="-1" Cut="0" cType="1" res="0.000834042" purity="0.554219" nType="-99"/>
              <Node pos="r" depth="4" NCoef="0" IVar="-1" Cut="0" cType="1" res="0.00166995" purity="0.563796" nType="-99"/>
            </Node>
          </Node>
        </Node>
      </Node>
    </BinaryTree>
    <BinaryTree type="DecisionTree" boostWeight="1.0" itree="42">
      <Node pos="s" depth="0" NCoef="0" IVar="2" Cut="14150.1" cType="1" res="0.00892236" purity="0.499966" nType="0">
        <Node pos="l" depth="1" NCoef="0" IVar="0" Cut="129265" cType="1" res="-0.00604905" purity="0.465616" nType="0">
          <Node pos="l" depth="2" NCoef="0" IVar="4" Cut="314679" cType="1" res="-0.0308156" purity="0.419684" nType="0">
            <Node pos="l" depth="3" NCoef="0" IVar="4" Cut="189363" cType="1" res="-0.0151413" purity="0.444018" nType="0">
              <Node pos="l" depth="4" NCoef="0" IVar="-1" Cut="0" cType="1" res="0.00051423" purity="0.481184" nType="-99"/>
              <Node pos="r" depth="4" NCoef="0" IVar="-1" Cut="0" cType="1" res="-0.0015594" purity="0.424386" nType="-99"/>
            </Node>
            <Node pos="r" depth="3" NCoef="0" IVar="-1" Cut="0" cType="1" res="-0.00713255" purity="0.306161" nType="-99"/>
          </Node>
          <Node pos="r" depth="2" NCoef="0" IVar="1" Cut="100241" cType="1" res="0.0133007" purity="0.501502" nType="0">
            <Node pos="l" depth="3" NCoef="0" IVar="1" Cut="94994.7" cType="1" res="-0.0488753" purity="0.428074" nType="0">
              <Node pos="l" depth="4" NCoef="0" IVar="-1" Cut="0" cType="1" res="-0.000960929" purity="0.458786" nType="-99"/>
              <Node pos="r" depth="4" NCoef="0" IVar="-1" Cut="0" cType="1" res="-0.00539267" purity="0.386725" nType="-99"/>
            </Node>
            <Node pos="r" depth="3" NCoef="0" IVar="0" Cut="158411" cType="1" res="0.0413569" purity="0.534636" nType="0">
              <Node pos="l" depth="4" NCoef="0" IVar="-1" Cut="0" cType="1" res="0.000753697" purity="0.492154" nType="-99"/>
              <Node pos="r" depth="4" NCoef="0" IVar="-1" Cut="0" cType="1" res="0.00258211" purity="0.569958" nType="-99"/>
            </Node>
          </Node>
        </Node>
        <Node pos="r" depth="1" NCoef="0" IVar="4" Cut="256114" cType="1" res="0.0619373" purity="0.621601" nType="0">
          <Node pos="l" depth="2" NCoef="0" IVar="5" Cut="0.937094" cType="1" res="0.0899958" purity="0.660283" nType="0">
            <Node pos="l" depth="3" NCoef="0" IVar="-1" Cut="0" cType="1" res="0.00150121" purity="0.618667" nType="-99"/>
            <Node pos="r" depth="3" NCoef="0" IVar="-1" Cut="0" cType="1" res="0.0042078" purity="0.67779" nType="-99"/>
          </Node>
          <Node pos="r" depth="2" NCoef="0" IVar="-1" Cut="0" cType="1" res="0.000103158" purity="0.539313" nType="-99"/>
        </Node>
      </Node>
    </BinaryTree>
    <BinaryTree type="DecisionTree" boostWeight="1.0" itree="43">
      <Node pos="s" depth="0" NCoef="0" IVar="2" Cut="17519.8" cType="1" res="0.0105444" purity="0.501181" nType="0">
        <Node pos="l" depth="1" NCoef="0" IVar="2" Cut="-2106.28" cType="1" res="-0.00337412" purity="0.472266" nType="0">
          <Node pos="l" depth="2" NCoef="0" IVar="4" Cut="343978" cType="1" res="-0.0388017" purity="0.408137" nType="0">
            <Node pos="l" depth="3" NCoef="0" IVar="6" Cut="2.79902" cType="1" res="-0.0236885" purity="0.427529" nType="0">
              <Node pos="l" depth="4" NCoef="0" IVar="-1" Cut="0" cType="1" res="9.82015e-05" purity="0.45281" nType="-99"/>
              <Node pos="r" depth="4" NCoef="0" IVar="-1" Cut="0" cType="1" res="-0.00385997" purity="0.384827" nType="-99"/>
            </Node>
            <Node pos="r" depth="3" NCoef="0" IVar="-1" Cut="0" cType="1" res="-0.00657174" purity="0.329796" nType="-99"/>
          </Node>
          <Node pos="r" depth="2" NCoef="0" IVar="6" Cut="1.53202" cType="1" res="0.0154137" purity="0.506275" nType="0">
            <Node pos="l" depth="3" NCoef="0" IVar="1" Cut="105288" cType="1" res="-0.0208356" purity="0.46406" nType="0">
              <Node pos="l" depth="4" NCoef="0" IVar="-1" Cut="0" cType="1" res="-0.00342953" purity="0.407654" nType="-99"/>
              <Node pos="r" depth="4" NCoef="0" IVar="-1" Cut="0" cType="1" res="6.4682e-05" purity="0.493455" nType="-99"/>
            </Node>
            <Node pos="r" depth="3" NCoef="0" IVar="4" Cut="236910" cType="1" res="0.0445968" purity="0.540261" nType="0">
              <Node pos="l" depth="4" NCoef="0" IVar="-1" Cut="0" cType="1" res="0.00311503" purity="0.576529" nType="-99"/>
              <Node pos="r" depth="4" NCoef="0" IVar="-1" Cut="0" cType="1" res="-0.00012458" purity="0.481597" nType="-99"/>
            </Node>
          </Node>
        </Node>
        <Node pos="r" depth="1" NCoef="0" IVar="4" Cut="246607" cType="1" res="0.0820086" purity="0.649645" nType="0">
          <Node pos="l" depth="2" NCoef="0" IVar="-1" Cut="0" cType="1" res="0.00466047" purity="0.703994" nType="-99"/>
          <Node pos="r" depth="2" NCoef="0" IVar="-1" Cut="0" cType="1" res="0.000399751" purity="0.554022" nType="-99"/>
        </Node>
      </Node>
    </BinaryTree>
    <BinaryTree type="DecisionTree" boostWeight="1.0" itree="44">
      <Node pos="s" depth="0" NCoef="0" IVar="2" Cut="10995.2" cType="1" res="0.00894138" purity="0.499861" nType="0">
        <Node pos="l" depth="1" NCoef="0" IVar="2" Cut="-181.871" cType="1" res="-0.0124138" purity="0.45218" nType="0">
          <Node pos="l" depth="2" NCoef="0" IVar="3" Cut="142511" cType="1" res="-0.0324334" purity="0.416205" nType="0">
            <Node pos="l" depth="3" NCoef="0" IVar="-1" Cut="0" cType="1" res="0.000989886" purity="0.471976" nType="-99"/>
            <Node pos="r" depth="3" NCoef="0" IVar="3" Cut="165535" cType="1" res="-0.0478657" purity="0.40003" nType="0">
              <Node pos="l" depth="4" NCoef="0" IVar="-1" Cut="0" cType="1" res="-0.00634172" purity="0.346068" nType="-99"/>
              <Node pos="r" depth="4" NCoef="0" IVar="-1" Cut="0" cType="1" res="-0.00151756" purity="0.420408" nType="-99"/>
            </Node>
          </Node>
          <Node pos="r" depth="2" NCoef="0" IVar="1" Cut="105354" cType="1" res="0.00749909" purity="0.487964" nType="0">
            <Node pos="l" depth="3" NCoef="0" IVar="6" Cut="1.64624" cType="1" res="-0.0220781" purity="0.449425" nType="0">
              <Node pos="l" depth="4" NCoef="0" IVar="-1" Cut="0" cType="1" res="-0.00306482" purity="0.403323" nType="-99"/>
              <Node pos="r" depth="4" NCoef="0" IVar="-1" Cut="0" cType="1" res="-0.000145123" purity="0.477755" nType="-99"/>
            </Node>
            <Node pos="r" depth="3" NCoef="0" IVar="1" Cut="129076" cType="1" res="0.0293858" purity="0.516482" nType="0">
              <Node pos="l" depth="4" NCoef="0" IVar="-1" Cut="0" cType="1" res="0.00298771" purity="0.55763" nType="-99"/>
              <Node pos="r" depth="4" NCoef="0" IVar="-1" Cut="0" cType="1" res="-0.00168046" purity="0.453939" nType="-99"/>
            </Node>
          </Node>
        </Node>
        <Node pos="r" depth="1" NCoef="0" IVar="4" Cut="314663" cType="1" res="0.0593255" purity="0.612357" nType="0">
          <Node pos="l" depth="2" NCoef="0" IVar="0" Cut="158390" cType="1" res="0.0781595" purity="0.637501" nType="0">
            <Node pos="l" depth="3" NCoef="0" IVar="6" Cut="0.871543" cType="1" res="0.0588152" purity="0.611434" nType="0">
              <Node pos="l" depth="4" NCoef="0" IVar="-1" Cut="0" cType="1" res="0.000606128" purity="0.543502" nType="-99"/>
              <Node pos="r" depth="4" NCoef="0" IVar="-1" Cut="0" cType="1" res="0.00319422" purity="0.647008" nType="-99"/>
            </Node>
            <Node pos="r" depth="3" NCoef="0" IVar="-1" Cut="0" cType="1" res="0.00472469" purity="0.700679" nType="-99"/>
          </Node>
          <Node pos="r" depth="2" NCoef="0" IVar="-1" Cut="0" cType="1" res="-0.00101553" purity="0.504006" nType="-99"/>
        </Node>
      </Node>
    </BinaryTree>
    <BinaryTree type="DecisionTree" boostWeight="1.0" itree="45">
      <Node pos="s" depth="0" NCoef="0" IVar="2" Cut="27661.5" cType="1" res="0.0107838" purity="0.50176" nType="0">
        <Node pos="l" depth="1" NCoef="0" IVar="0" Cut="129269" cType="1" res="0.00248937" purity="0.486314" nType="0">
          <Node pos="l" depth="2" NCoef="0" IVar="4" Cut="333872" cType="1" res="-0.0240828" purity="0.438309" nType="0">
            <Node pos="l" depth="3" NCoef="0" IVar="2" Cut="1272.85" cType="1" res="-0.0105758" purity="0.458992" nType="0">
              <Node pos="l" depth="4" NCoef="0" IVar="-1" Cut="0" cType="1" res="-0.00220109" purity="0.394318" nType="-99"/>
              <Node pos="r" depth="4" NCoef="0" IVar="-1" Cut="0" cType="1" res="0.000616504" purity="0.513545" nType="-99"/>
            </Node>
            <Node pos="r" depth="3" NCoef="0" IVar="-1" Cut="0" cType="1" res="-0.00801625" purity="0.300137" nType="-99"/>
          </Node>
          <Node pos="r" depth="2" NCoef="0" IVar="1" Cut="156480" cType="1" res="0.0238657" purity="0.524933" nType="0">
            <Node pos="l" depth="3" NCoef="0" IVar="2" Cut="4575.3" cType="1" res="0.0345764" purity="0.536232" nType="0">
              <Node pos="l" depth="4" NCoef="0" IVar="-1" Cut="0" cType="1" res="0.000269498" purity="0.480275" nType="-99"/>
              <Node pos="r" depth="4" NCoef="0" IVar="-1" Cut="0" cType="1" res="0.0028193" purity="0.602417" nType="-99"/>
            </Node>
            <Node pos="r" depth="3" NCoef="0" IVar="-1" Cut="0" cType="1" res="-0.00187848" purity="0.459758" nType="-99"/>
          </Node>
        </Node>
        <Node pos="r" depth="1" NCoef="0" IVar="-1" Cut="0" cType="1" res="0.00424476" purity="0.691991" nType="-99"/>
      </Node>
    </BinaryTree>
    <BinaryTree type="DecisionTree" boostWeight="1.0" itree="46">
      <Node pos="s" depth="0" NCoef="0" IVar="2" Cut="20891.7" cType="1" res="0.00397895" purity="0.494867" nType="0">
        <Node pos="l" depth="1" NCoef="0" IVar="6" Cut="2.75845" cType="1" res="-0.00772671" purity="0.470843" nType="0">
          <Node pos="l" depth="2" NCoef="0" IVar="5" Cut="2.50711" cType="1" res="0.00306154" purity="0.487191" nType="0">
            <Node pos="l" depth="3" NCoef="0" IVar="3" Cut="119071" cType="1" res="0.0108781" purity="0.496884" nType="0">
              <Node pos="l" depth="4" NCoef="0" IVar="-1" Cut="0" cType="1" res="0.00355805" purity="0.574259" nType="-99"/>
              <Node pos="r" depth="4" NCoef="0" IVar="-1" Cut="0" cType="1" res="0.000149564" purity="0.489364" nType="-99"/>
            </Node>
            <Node pos="r" depth="3" NCoef="0" IVar="6" Cut="1.27942" cType="1" res="-0.052954" purity="0.417726" nType="0">
              <Node pos="l" depth="4" NCoef="0" IVar="-1" Cut="0" cType="1" res="-0.00411332" purity="0.420571" nType="-99"/>
              <Node pos="r" depth="4" NCoef="0" IVar="-1" Cut="0" cType="1" res="-0.00183401" purity="0.415114" nType="-99"/>
            </Node>
          </Node>
          <Node pos="r" depth="2" NCoef="0" IVar="4" Cut="207512" cType="1" res="-0.0683085" purity="0.379041" nType="0">
            <Node pos="l" depth="3" NCoef="0" IVar="-1" Cut="0" cType="1" res="-0.000837902" purity="0.442584" nType="-99"/>
            <Node pos="r" depth="3" NCoef="0" IVar="0" Cut="134149" cType="1" res="-0.0942137" purity="0.347415" nType="0">
              <Node pos="l" depth="4" NCoef="0" IVar="-1" Cut="0" cType="1" res="-0.00949039" purity="0.283249" nType="-99"/>
              <Node pos="r" depth="4" NCoef="0" IVar="-1" Cut="0" cType="1" res="-0.00343934" purity="0.41123" nType="-99"/>
            </Node>
          </Node>
        </Node>
        <Node pos="r" depth="1" NCoef="0" IVar="1" Cut="125630" cType="1" res="0.0853946" purity="0.661963" nType="0">
          <Node pos="l" depth="2" NCoef="0" IVar="-1" Cut="0" cType="1" res="0.0019898" purity="0.62625" nType="-99"/>
          <Node pos="r" depth="2" NCoef="0" IVar="-1" Cut="0" cType="1" res="0.00478835" purity="0.702659" nType="-99"/>
        </Node>
      </Node>
    </BinaryTree>
    <BinaryTree type="DecisionTree" boostWeight="1.0" itree="47">
      <Node pos="s" depth="0" NCoef="0" IVar="4" Cut="256143" cType="1" res="0.0083212" purity="0.497611" nType="0">
        <Node pos="l" depth="1" NCoef="0" IVar="2" Cut="7416.85" cType="1" res="0.0231482" purity="0.524835" nType="0">
          <Node pos="l" depth="2" NCoef="0" IVar="6" Cut="0.996066" cType="1" res="0.00182101" purity="0.465773" nType="0">
            <Node pos="l" depth="3" NCoef="0" IVar="-1" Cut="0" cType="1" res="-0.00343084" purity="0.393008" nType="-99"/>
            <Node pos="r" depth="3" NCoef="0" IVar="3" Cut="180544" cType="1" res="0.0134909" purity="0.479435" nType="0">
              <Node pos="l" depth="4" NCoef="0" IVar="-1" Cut="0" cType="1" res="0.00147867" purity="0.496579" nType="-99"/>
              <Node pos="r" depth="4" NCoef="0" IVar="-1" Cut="0" cType="1" res="-0.0013073" purity="0.441061" nType="-99"/>
            </Node>
          </Node>
          <Node pos="r" depth="2" NCoef="0" IVar="0" Cut="119491" cType="1" res="0.0522834" purity="0.605522" nType="0">
            <Node pos="l" depth="3" NCoef="0" IVar="-1" Cut="0" cType="1" res="-0.000169872" purity="0.531482" nType="-99"/>
            <Node pos="r" depth="3" NCoef="0" IVar="2" Cut="18543.3" cType="1" res="0.0824115" purity="0.645217" nType="0">
              <Node pos="l" depth="4" NCoef="0" IVar="-1" Cut="0" cType="1" res="0.00235063" purity="0.59877" nType="-99"/>
              <Node pos="r" depth="4" NCoef="0" IVar="-1" Cut="0" cType="1" res="0.00481455" purity="0.72407" nType="-99"/>
            </Node>
          </Node>
        </Node>
        <Node pos="r" depth="1" NCoef="0" IVar="6" Cut="2.83507" cType="1" res="-0.015899" purity="0.45314" nType="0">
          <Node pos="l" depth="2" NCoef="0" IVar="6" Cut="1.93609" cType="1" res="-0.00553552" purity="0.469199" nType="0">
            <Node pos="l" depth="3" NCoef="0" IVar="5" Cut="2.10263" cType="1" res="-0.0316207" purity="0.453813" nType="0">
              <Node pos="l" depth="4" NCoef="0" IVar="-1" Cut="0" cType="1" res="-2.52146e-05" purity="0.487525" nType="-99"/>
              <Node pos="r" depth="4" NCoef="0" IVar="-1" Cut="0" cType="1" res="-0.00512725" purity="0.389663" nType="-99"/>
            </Node>
            <Node pos="r" depth="3" NCoef="0" IVar="1" Cut="141185" cType="1" res="0.0272338" purity="0.488526" nType="0">
              <Node pos="l" depth="4" NCoef="0" IVar="-1" Cut="0" cType="1" res="-0.00133568" purity="0.438947" nType="-99"/>
              <Node pos="r" depth="4" NCoef="0" IVar="-1" Cut="0" cType="1" res="0.00488442" purity="0.574386" nType="-99"/>
            </Node>
          </Node>
          <Node pos="r" depth="2" NCoef="0" IVar="-1" Cut="0" cType="1" res="-0.00543463" purity="0.343755" nType="-99"/>
        </Node>
      </Node>
    </BinaryTree>
    <BinaryTree type="DecisionTree" boostWeight="1.0" itree="48">
      <Node pos="s" depth="0" NCoef="0" IVar="2" Cut="27949" cType="1" res="0.0098913" purity="0.501597" nType="0">
        <Node pos="l" depth="1" NCoef="0" IVar="2" Cut="-1861.6" cType="1" res="0.00108633" purity="0.485432" nType="0">
          <Node pos="l" depth="2" NCoef="0" IVar="3" Cut="142511" cType="1" res="-0.0368334" purity="0.407017" nType="0">
            <Node pos="l" depth="3" NCoef="0" IVar="-1" Cut="0" cType="1" res="0.0011494" purity="0.471151" nType="-99"/>
            <Node pos="r" depth="3" NCoef="0" IVar="3" Cut="161718" cType="1" res="-0.0545612" purity="0.388199" nType="0">
              <Node pos="l" depth="4" NCoef="0" IVar="-1" Cut="0" cType="1" res="-0.0106361" purity="0.294643" nType="-99"/>
              <Node pos="r" depth="4" NCoef="0" IVar="-1" Cut="0" cType="1" res="-0.00167144" purity="0.412479" nType="-99"/>
            </Node>
          </Node>
          <Node pos="r" depth="2" NCoef="0" IVar="4" Cut="256332" cType="1" res="0.0184501" purity="0.521339" nType="0">
            <Node pos="l" depth="3" NCoef="0" IVar="1" Cut="100972" cType="1" res="0.038826" purity="0.551255" nType="0">
              <Node pos="l" depth="4" NCoef="0" IVar="-1" Cut="0" cType="1" res="-0.000891798" purity="0.47668" nType="-99"/>
              <Node pos="r" depth="4" NCoef="0" IVar="-1" Cut="0" cType="1" res="0.00282728" purity="0.588895" nType="-99"/>
            </Node>
            <Node pos="r" depth="3" NCoef="0" IVar="0" Cut="187775" cType="1" res="-0.0210209" purity="0.463386" nType="0">
              <Node pos="l" depth="4" NCoef="0" IVar="-1" Cut="0" cType="1" res="-0.00210883" purity="0.43193" nType="-99"/>
              <Node pos="r" depth="4" NCoef="0" IVar="-1" Cut="0" cType="1" res="0.00170906" purity="0.557939" nType="-99"/>
            </Node>
          </Node>
        </Node>
        <Node pos="r" depth="1" NCoef="0" IVar="-1" Cut="0" cType="1" res="0.00451575" purity="0.705717" nType="-99"/>
      </Node>
    </BinaryTree>
    <BinaryTree type="DecisionTree" boostWeight="1.0" itree="49">
      <Node pos="s" depth="0" NCoef="0" IVar="2" Cut="24530.2" cType="1" res="0.00779924" purity="0.498183" nType="0">
        <Node pos="l" depth="1" NCoef="0" IVar="3" Cut="119081" cType="1" res="-0.00191648" purity="0.478132" nType="0">
          <Node pos="l" depth="2" NCoef="0" IVar="-1" Cut="0" cType="1" res="0.00261343" purity="0.545245" nType="-99"/>
          <Node pos="r" depth="2" NCoef="0" IVar="2" Cut="8791.6" cType="1" res="-0.00798712" purity="0.471756" nType="0">
            <Node pos="l" depth="3" NCoef="0" IVar="0" Cut="202426" cType="1" res="-0.0213363" purity="0.436384" nType="0">
              <Node pos="l" depth="4" NCoef="0" IVar="-1" Cut="0" cType="1" res="-0.00153666" purity="0.422164" nType="-99"/>
              <Node pos="r" depth="4" NCoef="0" IVar="-1" Cut="0" cType="1" res="0.00133757" purity="0.537001" nType="-99"/>
            </Node>
            <Node pos="r" depth="3" NCoef="0" IVar="5" Cut="0.950478" cType="1" res="0.0250841" purity="0.559386" nType="0">
              <Node pos="l" depth="4" NCoef="0" IVar="-1" Cut="0" cType="1" res="-0.00155573" purity="0.508941" nType="-99"/>
              <Node pos="r" depth="4" NCoef="0" IVar="-1" Cut="0" cType="1" res="0.00178005" purity="0.573308" nType="-99"/>
            </Node>
          </Node>
        </Node>
        <Node pos="r" depth="1" NCoef="0" IVar="-1" Cut="0" cType="1" res="0.00369155" purity="0.681716" nType="-99"/>
      </Node>
    </BinaryTree>
    <BinaryTree type="DecisionTree" boostWeight="1.0" itree="50">
      <Node pos="s" depth="0" NCoef="0" IVar="2" Cut="7348.92" cType="1" res="0.00811093" purity="0.498287" nType="0">
        <Node pos="l" depth="1" NCoef="0" IVar="0" Cut="129275" cType="1" res="-0.0140188" purity="0.440903" nType="0">
          <Node pos="l" depth="2" NCoef="0" IVar="2" Cut="2729.51" cType="1" res="-0.041335" purity="0.388984" nType="0">
            <Node pos="l" depth="3" NCoef="0" IVar="3" Cut="148821" cType="1" res="-0.0534257" purity="0.369434" nType="0">
              <Node pos="l" depth="4" NCoef="0" IVar="-1" Cut="0" cType="1" res="5.71222e-05" purity="0.42872" nType="-99"/>
              <Node pos="r" depth="4" NCoef="0" IVar="-1" Cut="0" cType="1" res="-0.00463245" purity="0.347448" nType="-99"/>
            </Node>
            <Node pos="r" depth="3" NCoef="0" IVar="-1" Cut="0" cType="1" res="0.00010204" purity="0.459124" nType="-99"/>
          </Node>
          <Node pos="r" depth="2" NCoef="0" IVar="1" Cut="105341" cType="1" res="0.00896465" purity="0.484586" nType="0">
            <Node pos="l" depth="3" NCoef="0" IVar="5" Cut="1.08083" cType="1" res="-0.0403365" purity="0.425651" nType="0">
              <Node pos="l" depth="4" NCoef="0" IVar="-1" Cut="0" cType="1" res="-0.000409285" purity="0.46185" nType="-99"/>
              <Node pos="r" depth="4" NCoef="0" IVar="-1" Cut="0" cType="1" res="-0.00545048" purity="0.371291" nType="-99"/>
            </Node>
            <Node pos="r" depth="3" NCoef="0" IVar="5" Cut="2.11502" cType="1" res="0.0486481" purity="0.532025" nType="0">
              <Node pos="l" depth="4" NCoef="0" IVar="-1" Cut="0" cType="1" res="0.00306215" purity="0.560628" nType="-99"/>
              <Node pos="r" depth="4" NCoef="0" IVar="-1" Cut="0" cType="1" res="-0.00121836" purity="0.441384" nType="-99"/>
            </Node>
          </Node>
        </Node>
        <Node pos="r" depth="1" NCoef="0" IVar="6" Cut="0.929194" cType="1" res="0.0414459" purity="0.584726" nType="0">
          <Node pos="l" depth="2" NCoef="0" IVar="3" Cut="153090" cType="1" res="-0.0105016" purity="0.510216" nType="0">
            <Node pos="l" depth="3" NCoef="0" IVar="-1" Cut="0" cType="1" res="-0.00451255" purity="0.441397" nType="-99"/>
            <Node pos="r" depth="3" NCoef="0" IVar="-1" Cut="0" cType="1" res="0.00114564" purity="0.543109" nType="-99"/>
          </Node>
          <Node pos="r" depth="2" NCoef="0" IVar="1" Cut="110430" cType="1" res="0.0672214" purity="0.621697" nType="0">
            <Node pos="l" depth="3" NCoef="0" IVar="1" Cut="100953" cType="1" res="0.0245301" purity="0.569063" nType="0">
              <Node pos="l" depth="4" NCoef="0" IVar="-1" Cut="0" cType="1" res="0.000192159" purity="0.542755" nType="-99"/>
              <Node pos="r" depth="4" NCoef="0" IVar="-1" Cut="0" cType="1" res="0.0022992" purity="0.609354" nType="-99"/>
            </Node>
            <Node pos="r" depth="3" NCoef="0" IVar="4" Cut="257562" cType="1" res="0.106355" purity="0.669944" nType="0">
              <Node pos="l" depth="4" NCoef="0" IVar="-1" Cut="0" cType="1" res="0.00481883" purity="0.706104" nType="-99"/>
              <Node pos="r" depth="4" NCoef="0" IVar="-1" Cut="0" cType="1" res="0.00265917" purity="0.598095" nType="-99"/>
            </Node>
          </Node>
        </Node>
      </Node>
    </BinaryTree>
    <BinaryTree type="DecisionTree" boostWeight="1.0" itree="51">
      <Node pos="s" depth="0" NCoef="0" IVar="2" Cut="24545.7" cType="1" res="0.0173428" purity="0.507598" nType="0">
        <Node pos="l" depth="1" NCoef="0" IVar="0" Cut="119520" cType="1" res="0.00832072" purity="0.488473" nType="0">
          <Node pos="l" depth="2" NCoef="0" IVar="3" Cut="136438" cType="1" res="-0.0232286" purity="0.429034" nType="0">
            <Node pos="l" depth="3" NCoef="0" IVar="-1" Cut="0" cType="1" res="0.00210508" purity="0.501318" nType="-99"/>
            <Node pos="r" depth="3" NCoef="0" IVar="4" Cut="217211" cType="1" res="-0.0382355" purity="0.413272" nType="0">
              <Node pos="l" depth="4" NCoef="0" IVar="-1" Cut="0" cType="1" res="-3.46283e-05" purity="0.473921" nType="-99"/>
              <Node pos="r" depth="4" NCoef="0" IVar="-1" Cut="0" cType="1" res="-0.00482205" purity="0.35106" nType="-99"/>
            </Node>
          </Node>
          <Node pos="r" depth="2" NCoef="0" IVar="0" Cut="242769" cType="1" res="0.0238605" purity="0.51775" nType="0">
            <Node pos="l" depth="3" NCoef="0" IVar="1" Cut="115582" cType="1" res="0.0174958" purity="0.508608" nType="0">
              <Node pos="l" depth="4" NCoef="0" IVar="-1" Cut="0" cType="1" res="-0.00021204" purity="0.479706" nType="-99"/>
              <Node pos="r" depth="4" NCoef="0" IVar="-1" Cut="0" cType="1" res="0.00201608" purity="0.54622" nType="-99"/>
            </Node>
            <Node pos="r" depth="3" NCoef="0" IVar="-1" Cut="0" cType="1" res="0.00391849" purity="0.625247" nType="-99"/>
          </Node>
        </Node>
        <Node pos="r" depth="1" NCoef="0" IVar="-1" Cut="0" cType="1" res="0.00398249" purity="0.691699" nType="-99"/>
      </Node>
    </BinaryTree>
    <BinaryTree type="DecisionTree" boostWeight="1.0" itree="52">
      <Node pos="s" depth="0" NCoef="0" IVar="2" Cut="3967.27" cType="1" res="0.00557053" purity="0.496366" nType="0">
        <Node pos="l" depth="1" NCoef="0" IVar="5" Cut="0.916957" cType="1" res="-0.0284447" purity="0.420509" nType="0">
          <Node pos="l" depth="2" NCoef="0" IVar="-1" Cut="0" cType="1" res="-0.00494081" purity="0.382683" nType="-99"/>
          <Node pos="r" depth="2" NCoef="0" IVar="6" Cut="1.38051" cType="1" res="-0.0194392" purity="0.426507" nType="0">
            <Node pos="l" depth="3" NCoef="0" IVar="-1" Cut="0" cType="1" res="-0.00557645" purity="0.354089" nType="-99"/>
            <Node pos="r" depth="3" NCoef="0" IVar="2" Cut="-1390.81" cType="1" res="-0.00661478" purity="0.43969" nType="0">
              <Node pos="l" depth="4" NCoef="0" IVar="-1" Cut="0" cType="1" res="-0.00112038" purity="0.416741" nType="-99"/>
              <Node pos="r" depth="4" NCoef="0" IVar="-1" Cut="0" cType="1" res="0.00140307" purity="0.498548" nType="-99"/>
            </Node>
          </Node>
        </Node>
        <Node pos="r" depth="1" NCoef="0" IVar="0" Cut="197420" cType="1" res="0.0379673" purity="0.568613" nType="0">
          <Node pos="l" depth="2" NCoef="0" IVar="4" Cut="246339" cType="1" res="0.027825" purity="0.554508" nType="0">
            <Node pos="l" depth="3" NCoef="0" IVar="1" Cut="115733" cType="1" res="0.049192" purity="0.588494" nType="0">
              <Node pos="l" depth="4" NCoef="0" IVar="-1" Cut="0" cType="1" res="0.00130231" purity="0.559262" nType="-99"/>
              <Node pos="r" depth="4" NCoef="0" IVar="-1" Cut="0" cType="1" res="0.00317494" purity="0.635641" nType="-99"/>
            </Node>
            <Node pos="r" depth="3" NCoef="0" IVar="4" Cut="295819" cType="1" res="-0.0129156" purity="0.489706" nType="0">
              <Node pos="l" depth="4" NCoef="0" IVar="-1" Cut="0" cType="1" res="-0.00253323" purity="0.460967" nType="-99"/>
              <Node pos="r" depth="4" NCoef="0" IVar="-1" Cut="0" cType="1" res="0.000393306" purity="0.505322" nType="-99"/>
            </Node>
          </Node>
          <Node pos="r" depth="2" NCoef="0" IVar="2" Cut="11781.8" cType="1" res="0.0906194" purity="0.64184" nType="0">
            <Node pos="l" depth="3" NCoef="0" IVar="-1" Cut="0" cType="1" res="0.00316148" purity="0.600495" nType="-99"/>
            <Node pos="r" depth="3" NCoef="0" IVar="-1" Cut="0" cType="1" res="0.00421663" purity="0.681901" nType="-99"/>
          </Node>
        </Node>
      </Node>
    </BinaryTree>
    <BinaryTree type="DecisionTree" boostWeight="1.0" itree="53">
      <Node pos="s" depth="0" NCoef="0" IVar="2" Cut="24280.9" cType="1" res="0.010811" purity="0.501316" nType="0">
        <Node pos="l" depth="1" NCoef="0" IVar="0" Cut="168296" cType="1" res="0.00188903" purity="0.481774" nType="0">
          <Node pos="l" depth="2" NCoef="0" IVar="4" Cut="344069" cType="1" res="-0.0120067" purity="0.456535" nType="0">
            <Node pos="l" depth="3" NCoef="0" IVar="0" Cut="105006" cType="1" res="-0.00176695" purity="0.473135" nType="0">
              <Node pos="l" depth="4" NCoef="0" IVar="-1" Cut="0" cType="1" res="-0.00298095" purity="0.400289" nType="-99"/>
              <Node pos="r" depth="4" NCoef="0" IVar="-1" Cut="0" cType="1" res="0.000283552" purity="0.484014" nType="-99"/>
            </Node>
            <Node pos="r" depth="3" NCoef="0" IVar="0" Cut="128337" cType="1" res="-0.0779624" purity="0.349616" nType="0">
              <Node pos="l" depth="4" NCoef="0" IVar="-1" Cut="0" cType="1" res="-0.00840417" purity="0.278104" nType="-99"/>
              <Node pos="r" depth="4" NCoef="0" IVar="-1" Cut="0" cType="1" res="-0.00192262" purity="0.417407" nType="-99"/>
            </Node>
          </Node>
          <Node pos="r" depth="2" NCoef="0" IVar="1" Cut="100235" cType="1" res="0.0434063" purity="0.557182" nType="0">
            <Node pos="l" depth="3" NCoef="0" IVar="-1" Cut="0" cType="1" res="0.000156213" purity="0.496721" nType="-99"/>
            <Node pos="r" depth="3" NCoef="0" IVar="3" Cut="147972" cType="1" res="0.0621362" purity="0.585304" nType="0">
              <Node pos="l" depth="4" NCoef="0" IVar="-1" Cut="0" cType="1" res="0.00447828" purity="0.646379" nType="-99"/>
              <Node pos="r" depth="4" NCoef="0" IVar="-1" Cut="0" cType="1" res="0.00176538" purity="0.562534" nType="-99"/>
            </Node>
          </Node>
        </Node>
        <Node pos="r" depth="1" NCoef="0" IVar="-1" Cut="0" cType="1" res="0.00361615" purity="0.682073" nType="-99"/>
      </Node>
    </BinaryTree>
    <BinaryTree type="DecisionTree" boostWeight="1.0" itree="54">
      <Node pos="s" depth="0" NCoef="0" IVar="2" Cut="14342.2" cType="1" res="0.0040141" purity="0.492992" nType="0">
        <Node pos="l" depth="1" NCoef="0" IVar="5" Cut="0.955991" cType="1" res="-0.0108354" purity="0.456217" nType="0">
          <Node pos="l" depth="2" NCoef="0" IVar="4" Cut="306093" cType="1" res="-0.0595232" purity="0.418193" nType="0">
            <Node pos="l" depth="3" NCoef="0" IVar="0" Cut="173167" cType="1" res="-0.0884495" purity="0.397314" nType="0">
              <Node pos="l" depth="4" NCoef="0" IVar="-1" Cut="0" cType="1" res="-0.00884615" purity="0.328532" nType="-99"/>
              <Node pos="r" depth="4" NCoef="0" IVar="-1" Cut="0" cType="1" res="-0.00206864" purity="0.46641" nType="-99"/>
            </Node>
            <Node pos="r" depth="3" NCoef="0" IVar="-1" Cut="0" cType="1" res="0.000288797" purity="0.465569" nType="-99"/>
          </Node>
          <Node pos="r" depth="2" NCoef="0" IVar="4" Cut="353631" cType="1" res="-0.00071924" purity="0.464118" nType="0">
            <Node pos="l" depth="3" NCoef="0" IVar="6" Cut="1.37923" cType="1" res="0.0130534" purity="0.482624" nType="0">
              <Node pos="l" depth="4" NCoef="0" IVar="-1" Cut="0" cType="1" res="-0.0013561" purity="0.449804" nType="-99"/>
              <Node pos="r" depth="4" NCoef="0" IVar="-1" Cut="0" cType="1" res="0.00133023" purity="0.494634" nType="-99"/>
            </Node>
            <Node pos="r" depth="3" NCoef="0" IVar="5" Cut="1.80886" cType="1" res="-0.0907404" purity="0.343153" nType="0">
              <Node pos="l" depth="4" NCoef="0" IVar="-1" Cut="0" cType="1" res="-0.0101599" purity="0.291833" nType="-99"/>
              <Node pos="r" depth="4" NCoef="0" IVar="-1" Cut="0" cType="1" res="-0.00234645" purity="0.39227" nType="-99"/>
            </Node>
          </Node>
        </Node>
        <Node pos="r" depth="1" NCoef="0" IVar="0" Cut="114652" cType="1" res="0.0585959" purity="0.628164" nType="0">
          <Node pos="l" depth="2" NCoef="0" IVar="-1" Cut="0" cType="1" res="0.000202713" purity="0.547241" nType="-99"/>
          <Node pos="r" depth="2" NCoef="0" IVar="4" Cut="285557" cType="1" res="0.0771404" purity="0.65594" nType="0">
            <Node pos="l" depth="3" NCoef="0" IVar="6" Cut="1.43067" cType="1" res="0.0979784" purity="0.689488" nType="0">
              <Node pos="l" depth="4" NCoef="0" IVar="-1" Cut="0" cType="1" res="0.00308556" purity="0.656846" nType="-99"/>
              <Node pos="r" depth="4" NCoef="0" IVar="-1" Cut="0" cType="1" res="0.00456792" purity="0.724705" nType="-99"/>
            </Node>
            <Node pos="r" depth="3" NCoef="0" IVar="-1" Cut="0" cType="1" res="0.000957607" purity="0.567095" nType="-99"/>
          </Node>
        </Node>
      </Node>
    </BinaryTree>
    <BinaryTree type="DecisionTree" boostWeight="1.0" itree="55">
      <Node pos="s" depth="0" NCoef="0" IVar="4" Cut="178271" cType="1" res="0.0141196" purity="0.504104" nType="0">
        <Node pos="l" depth="1" NCoef="0" IVar="1" Cut="111508" cType="1" res="0.0540997" purity="0.573902" nType="0">
          <Node pos="l" depth="2" NCoef="0" IVar="2" Cut="9115.83" cType="1" res="0.0242755" purity="0.530422" nType="0">
            <Node pos="l" depth="3" NCoef="0" IVar="4" Cut="163051" cType="1" res="-0.0138382" purity="0.451125" nType="0">
              <Node pos="l" depth="4" NCoef="0" IVar="-1" Cut="0" cType="1" res="-0.00449063" purity="0.388623" nType="-99"/>
              <Node pos="r" depth="4" NCoef="0" IVar="-1" Cut="0" cType="1" res="0.00217913" purity="0.51497" nType="-99"/>
            </Node>
            <Node pos="r" depth="3" NCoef="0" IVar="-1" Cut="0" cType="1" res="0.00308012" purity="0.641995" nType="-99"/>
          </Node>
          <Node pos="r" depth="2" NCoef="0" IVar="-1" Cut="0" cType="1" res="0.00466153" purity="0.670089" nType="-99"/>
        </Node>
        <Node pos="r" depth="1" NCoef="0" IVar="0" Cut="139032" cType="1" res="0.00165598" purity="0.482345" nType="0">
          <Node pos="l" depth="2" NCoef="0" IVar="6" Cut="1.45587" cType="1" res="-0.0216816" purity="0.437633" nType="0">
            <Node pos="l" depth="3" NCoef="0" IVar="4" Cut="248898" cType="1" res="-0.0456743" purity="0.435119" nType="0">
              <Node pos="l" depth="4" NCoef="0" IVar="-1" Cut="0" cType="1" res="-0.00459012" purity="0.41173" nType="-99"/>
              <Node pos="r" depth="4" NCoef="0" IVar="-1" Cut="0" cType="1" res="-0.000551572" purity="0.457237" nType="-99"/>
            </Node>
            <Node pos="r" depth="3" NCoef="0" IVar="3" Cut="165506" cType="1" res="-0.00739025" purity="0.43913" nType="0">
              <Node pos="l" depth="4" NCoef="0" IVar="-1" Cut="0" cType="1" res="0.0017853" purity="0.485337" nType="-99"/>
              <Node pos="r" depth="4" NCoef="0" IVar="-1" Cut="0" cType="1" res="-0.00271125" purity="0.396959" nType="-99"/>
            </Node>
          </Node>
          <Node pos="r" depth="2" NCoef="0" IVar="2" Cut="18761.2" cType="1" res="0.0299609" purity="0.536575" nType="0">
            <Node pos="l" depth="3" NCoef="0" IVar="2" Cut="3023.32" cType="1" res="0.0200004" purity="0.514097" nType="0">
              <Node pos="l" depth="4" NCoef="0" IVar="-1" Cut="0" cType="1" res="0.00179425" purity="0.51354" nType="-99"/>
              <Node pos="r" depth="4" NCoef="0" IVar="-1" Cut="0" cType="1" res="-0.000237085" purity="0.514795" nType="-99"/>
            </Node>
            <Node pos="r" depth="3" NCoef="0" IVar="-1" Cut="0" cType="1" res="0.00370912" purity="0.687823" nType="-99"/>
          </Node>
        </Node>
      </Node>
    </BinaryTree>
    <BinaryTree type="DecisionTree" boostWeight="1.0" itree="56">
      <Node pos="s" depth="0" NCoef="0" IVar="2" Cut="24530.2" cType="1" res="0.00591923" purity="0.495779" nType="0">
        <Node pos="l" depth="1" NCoef="0" IVar="2" Cut="919.891" cType="1" res="-0.0014882" purity="0.477922" nType="0">
          <Node pos="l" depth="2" NCoef="0" IVar="5" Cut="0.943178" cType="1" res="-0.024742" purity="0.418676" nType="0">
            <Node pos="l" depth="3" NCoef="0" IVar="-1" Cut="0" cType="1" res="0.001931" purity="0.497004" nType="-99"/>
            <Node pos="r" depth="3" NCoef="0" IVar="1" Cut="141131" cType="1" res="-0.0386615" purity="0.402222" nType="0">
              <Node pos="l" depth="4" NCoef="0" IVar="-1" Cut="0" cType="1" res="-0.00321639" purity="0.385631" nType="-99"/>
              <Node pos="r" depth="4" NCoef="0" IVar="-1" Cut="0" cType="1" res="0.000439661" purity="0.452689" nType="-99"/>
            </Node>
          </Node>
          <Node pos="r" depth="2" NCoef="0" IVar="6" Cut="1.0921" cType="1" res="0.0162237" purity="0.523049" nType="0">
            <Node pos="l" depth="3" NCoef="0" IVar="0" Cut="114653" cType="1" res="-0.0279046" purity="0.46448" nType="0">
              <Node pos="l" depth="4" NCoef="0" IVar="-1" Cut="0" cType="1" res="-0.00459041" purity="0.398284" nType="-99"/>
              <Node pos="r" depth="4" NCoef="0" IVar="-1" Cut="0" cType="1" res="-0.000212173" purity="0.494328" nType="-99"/>
            </Node>
            <Node pos="r" depth="3" NCoef="0" IVar="1" Cut="100171" cType="1" res="0.04072" purity="0.555562" nType="0">
              <Node pos="l" depth="4" NCoef="0" IVar="-1" Cut="0" cType="1" res="-0.000329289" purity="0.49285" nType="-99"/>
              <Node pos="r" depth="4" NCoef="0" IVar="-1" Cut="0" cType="1" res="0.00260196" purity="0.583748" nType="-99"/>
            </Node>
          </Node>
        </Node>
        <Node pos="r" depth="1" NCoef="0" IVar="-1" Cut="0" cType="1" res="0.00314733" purity="0.671084" nType="-99"/>
      </Node>
    </BinaryTree>
    <BinaryTree type="DecisionTree" boostWeight="1.0" itree="57">
      <Node pos="s" depth="0" NCoef="0" IVar="0" Cut="119520" cType="1" res="0.0106695" purity="0.499944" nType="0">
        <Node pos="l" depth="1" NCoef="0" IVar="6" Cut="0.613096" cType="1" res="-0.0189645" purity="0.440015" nType="0">
          <Node pos="l" depth="2" NCoef="0" IVar="-1" Cut="0" cType="1" res="-0.00512373" purity="0.387614" nType="-99"/>
          <Node pos="r" depth="2" NCoef="0" IVar="2" Cut="3717.97" cType="1" res="-0.00720752" purity="0.449048" nType="0">
            <Node pos="l" depth="3" NCoef="0" IVar="2" Cut="-5881.07" cType="1" res="-0.0352163" purity="0.377507" nType="0">
              <Node pos="l" depth="4" NCoef="0" IVar="-1" Cut="0" cType="1" res="0.000608787" purity="0.411409" nType="-99"/>
              <Node pos="r" depth="4" NCoef="0" IVar="-1" Cut="0" cType="1" res="-0.00576802" purity="0.338337" nType="-99"/>
            </Node>
            <Node pos="r" depth="3" NCoef="0" IVar="5" Cut="1.48714" cType="1" res="0.0323278" purity="0.550032" nType="0">
              <Node pos="l" depth="4" NCoef="0" IVar="-1" Cut="0" cType="1" res="-0.000144162" purity="0.525397" nType="-99"/>
              <Node pos="r" depth="4" NCoef="0" IVar="-1" Cut="0" cType="1" res="0.00256384" purity="0.56847" nType="-99"/>
            </Node>
          </Node>
        </Node>
        <Node pos="r" depth="1" NCoef="0" IVar="2" Cut="14150.1" cType="1" res="0.0249208" purity="0.528764" nType="0">
          <Node pos="l" depth="2" NCoef="0" IVar="0" Cut="242769" cType="1" res="0.0146939" purity="0.496686" nType="0">
            <Node pos="l" depth="3" NCoef="0" IVar="1" Cut="105366" cType="1" res="0.00915909" purity="0.487597" nType="0">
              <Node pos="l" depth="4" NCoef="0" IVar="-1" Cut="0" cType="1" res="-0.000831971" purity="0.449496" nType="-99"/>
              <Node pos="r" depth="4" NCoef="0" IVar="-1" Cut="0" cType="1" res="0.00121748" purity="0.514862" nType="-99"/>
            </Node>
            <Node pos="r" depth="3" NCoef="0" IVar="-1" Cut="0" cType="1" res="0.00340667" purity="0.607928" nType="-99"/>
          </Node>
          <Node pos="r" depth="2" NCoef="0" IVar="4" Cut="275665" cType="1" res="0.0625057" purity="0.646655" nType="0">
            <Node pos="l" depth="3" NCoef="0" IVar="-1" Cut="0" cType="1" res="0.00332669" purity="0.68595" nType="-99"/>
            <Node pos="r" depth="3" NCoef="0" IVar="-1" Cut="0" cType="1" res="0.000174528" purity="0.552984" nType="-99"/>
          </Node>
        </Node>
      </Node>
    </BinaryTree>
    <BinaryTree type="DecisionTree" boostWeight="1.0" itree="58">
      <Node pos="s" depth="0" NCoef="0" IVar="6" Cut="2.68181" cType="1" res="0.00225274" purity="0.492402" nType="0">
        <Node pos="l" depth="1" NCoef="0" IVar="2" Cut="20744" cType="1" res="0.0141226" purity="0.513738" nType="0">
          <Node pos="l" depth="2" NCoef="0" IVar="6" Cut="0.588721" cType="1" res="0.00544932" purity="0.490029" nType="0">
            <Node pos="l" depth="3" NCoef="0" IVar="6" Cut="0.344507" cType="1" res="-0.0432452" purity="0.430637" nType="0">
              <Node pos="l" depth="4" NCoef="0" IVar="-1" Cut="0" cType="1" res="-0.000902097" purity="0.45652" nType="-99"/>
              <Node pos="r" depth="4" NCoef="0" IVar="-1" Cut="0" cType="1" res="-0.00451044" purity="0.389936" nType="-99"/>
            </Node>
            <Node pos="r" depth="3" NCoef="0" IVar="6" Cut="0.84398" cType="1" res="0.014095" purity="0.500574" nType="0">
              <Node pos="l" depth="4" NCoef="0" IVar="-1" Cut="0" cType="1" res="0.00355069" purity="0.574014" nType="-99"/>
              <Node pos="r" depth="4" NCoef="0" IVar="-1" Cut="0" cType="1" res="0.000295294" purity="0.49264" nType="-99"/>
            </Node>
          </Node>
          <Node pos="r" depth="2" NCoef="0" IVar="6" Cut="1.4357" cType="1" res="0.0651257" purity="0.653162" nType="0">
            <Node pos="l" depth="3" NCoef="0" IVar="-1" Cut="0" cType="1" res="0.00138728" purity="0.606957" nType="-99"/>
            <Node pos="r" depth="3" NCoef="0" IVar="-1" Cut="0" cType="1" res="0.00431119" purity="0.7205" nType="-99"/>
          </Node>
        </Node>
        <Node pos="r" depth="1" NCoef="0" IVar="0" Cut="143872" cType="1" res="-0.0561024" purity="0.387505" nType="0">
          <Node pos="l" depth="2" NCoef="0" IVar="5" Cut="1.42423" cType="1" res="-0.0862219" purity="0.327445" nType="0">
            <Node pos="l" depth="3" NCoef="0" IVar="-1" Cut="0" cType="1" res="-0.0109456" purity="0.271115" nType="-99"/>
            <Node pos="r" depth="3" NCoef="0" IVar="-1" Cut="0" cType="1" res="-0.00262424" purity="0.370883" nType="-99"/>
          </Node>
          <Node pos="r" depth="2" NCoef="0" IVar="-1" Cut="0" cType="1" res="-0.000913387" purity="0.463331" nType="-99"/>
        </Node>
      </Node>
    </BinaryTree>
    <BinaryTree type="DecisionTree" boostWeight="1.0" itree="59">
      <Node pos="s" depth="0" NCoef="0" IVar="4" Cut="353624" cType="1" res="0.0108537" purity="0.500102" nType="0">
        <Node pos="l" depth="1" NCoef="0" IVar="5" Cut="2.75973" cType="1" res="0.0226919" purity="0.516613" nType="0">
          <Node pos="l" depth="2" NCoef="0" IVar="2" Cut="7348.92" cType="1" res="0.0275354" purity="0.522257" nType="0">
            <Node pos="l" depth="3" NCoef="0" IVar="3" Cut="176928" cType="1" res="0.0122657" purity="0.46794" nType="0">
              <Node pos="l" depth="4" NCoef="0" IVar="-1" Cut="0" cType="1" res="0.00136227" purity="0.48464" nType="-99"/>
              <Node pos="r" depth="4" NCoef="0" IVar="-1" Cut="0" cType="1" res="-0.000791536" purity="0.439361" nType="-99"/>
            </Node>
            <Node pos="r" depth="3" NCoef="0" IVar="0" Cut="109748" cType="1" res="0.0499043" purity="0.601828" nType="0">
              <Node pos="l" depth="4" NCoef="0" IVar="-1" Cut="0" cType="1" res="-0.00082515" purity="0.510382" nType="-99"/>
              <Node pos="r" depth="4" NCoef="0" IVar="-1" Cut="0" cType="1" res="0.00260751" purity="0.62178" nType="-99"/>
            </Node>
          </Node>
          <Node pos="r" depth="2" NCoef="0" IVar="-1" Cut="0" cType="1" res="-0.00333966" purity="0.418664" nType="-99"/>
        </Node>
        <Node pos="r" depth="1" NCoef="0" IVar="2" Cut="5944.58" cType="1" res="-0.0658034" purity="0.393187" nType="0">
          <Node pos="l" depth="2" NCoef="0" IVar="-1" Cut="0" cType="1" res="-0.00639463" purity="0.32638" nType="-99"/>
          <Node pos="r" depth="2" NCoef="0" IVar="-1" Cut="0" cType="1" res="-0.0008398" purity="0.49137" nType="-99"/>
        </Node>
      </Node>
    </BinaryTree>
    <BinaryTree type="DecisionTree" boostWeight="1.0" itree="60">
      <Node pos="s" depth="0" NCoef="0" IVar="2" Cut="17538.1" cType="1" res="0.0197858" purity="0.510681" nType="0">
        <Node pos="l" depth="1" NCoef="0" IVar="3" Cut="212248" cType="1" res="0.00725463" purity="0.478403" nType="0">
          <Node pos="l" depth="2" NCoef="0" IVar="1" Cut="105365" cType="1" res="0.0129213" purity="0.484773" nType="0">
            <Node pos="l" depth="3" NCoef="0" IVar="4" Cut="246709" cType="1" res="-0.00930929" purity="0.451349" nType="0">
              <Node pos="l" depth="4" NCoef="0" IVar="-1" Cut="0" cType="1" res="0.000398288" purity="0.476761" nType="-99"/>
              <Node pos="r" depth="4" NCoef="0" IVar="-1" Cut="0" cType="1" res="-0.00293833" purity="0.39107" nType="-99"/>
            </Node>
            <Node pos="r" depth="3" NCoef="0" IVar="2" Cut="2122.62" cType="1" res="0.0287211" purity="0.508529" nType="0">
              <Node pos="l" depth="4" NCoef="0" IVar="-1" Cut="0" cType="1" res="0.000244258" purity="0.452792" nType="-99"/>
              <Node pos="r" depth="4" NCoef="0" IVar="-1" Cut="0" cType="1" res="0.00226902" purity="0.563815" nType="-99"/>
            </Node>
          </Node>
          <Node pos="r" depth="2" NCoef="0" IVar="-1" Cut="0" cType="1" res="-0.00246165" purity="0.416549" nType="-99"/>
        </Node>
        <Node pos="r" depth="1" NCoef="0" IVar="4" Cut="207341" cType="1" res="0.0797642" purity="0.66517" nType="0">
          <Node pos="l" depth="2" NCoef="0" IVar="-1" Cut="0" cType="1" res="0.00466915" purity="0.729741" nType="-99"/>
          <Node pos="r" depth="2" NCoef="0" IVar="0" Cut="143876" cType="1" res="0.0326935" purity="0.598591" nType="0">
            <Node pos="l" depth="3" NCoef="0" IVar="-1" Cut="0" cType="1" res="-0.000634014" purity="0.536406" nType="-99"/>
            <Node pos="r" depth="3" NCoef="0" IVar="-1" Cut="0" cType="1" res="0.00334264" purity="0.669671" nType="-99"/>
          </Node>
        </Node>
      </Node>
    </BinaryTree>
    <BinaryTree type="DecisionTree" boostWeight="1.0" itree="61">
      <Node pos="s" depth="0" NCoef="0" IVar="2" Cut="10260.5" cType="1" res="0.00712104" purity="0.497344" nType="0">
        <Node pos="l" depth="1" NCoef="0" IVar="5" Cut="0.90752" cType="1" res="-0.0115933" purity="0.446171" nType="0">
          <Node pos="l" depth="2" NCoef="0" IVar="2" Cut="-757.515" cType="1" res="-0.0642837" purity="0.404768" nType="0">
            <Node pos="l" depth="3" NCoef="0" IVar="-1" Cut="0" cType="1" res="-0.000827909" purity="0.438369" nType="-99"/>
            <Node pos="r" depth="3" NCoef="0" IVar="-1" Cut="0" cType="1" res="-0.00601556" purity="0.376671" nType="-99"/>
          </Node>
          <Node pos="r" depth="2" NCoef="0" IVar="2" Cut="-1989.78" cType="1" res="-0.00302763" purity="0.452902" nType="0">
            <Node pos="l" depth="3" NCoef="0" IVar="3" Cut="131886" cType="1" res="-0.030359" purity="0.403654" nType="0">
              <Node pos="l" depth="4" NCoef="0" IVar="-1" Cut="0" cType="1" res="0.00306813" purity="0.50666" nType="-99"/>
              <Node pos="r" depth="4" NCoef="0" IVar="-1" Cut="0" cType="1" res="-0.00300805" purity="0.380641" nType="-99"/>
            </Node>
            <Node pos="r" depth="3" NCoef="0" IVar="6" Cut="2.37206" cType="1" res="0.0191098" purity="0.492791" nType="0">
              <Node pos="l" depth="4" NCoef="0" IVar="-1" Cut="0" cType="1" res="8.85777e-05" purity="0.475617" nType="-99"/>
              <Node pos="r" depth="4" NCoef="0" IVar="-1" Cut="0" cType="1" res="0.00394541" purity="0.565024" nType="-99"/>
            </Node>
          </Node>
        </Node>
        <Node pos="r" depth="1" NCoef="0" IVar="3" Cut="141687" cType="1" res="0.0473316" purity="0.607296" nType="0">
          <Node pos="l" depth="2" NCoef="0" IVar="-1" Cut="0" cType="1" res="-0.00109562" purity="0.532939" nType="-99"/>
          <Node pos="r" depth="2" NCoef="0" IVar="3" Cut="187384" cType="1" res="0.0645161" purity="0.625117" nType="0">
            <Node pos="l" depth="3" NCoef="0" IVar="1" Cut="110463" cType="1" res="0.0848707" purity="0.646385" nType="0">
              <Node pos="l" depth="4" NCoef="0" IVar="-1" Cut="0" cType="1" res="0.00232593" purity="0.612387" nType="-99"/>
              <Node pos="r" depth="4" NCoef="0" IVar="-1" Cut="0" cType="1" res="0.00405608" purity="0.669636" nType="-99"/>
            </Node>
            <Node pos="r" depth="3" NCoef="0" IVar="-1" Cut="0" cType="1" res="1.18201e-05" purity="0.557986" nType="-99"/>
          </Node>
        </Node>
      </Node>
    </BinaryTree>
    <BinaryTree type="DecisionTree" boostWeight="1.0" itree="62">
      <Node pos="s" depth="0" NCoef="0" IVar="2" Cut="14158.3" cType="1" res="0.00837276" purity="0.49979" nType="0">
        <Node pos="l" depth="1" NCoef="0" IVar="6" Cut="1.83899" cType="1" res="-0.00485774" purity="0.461921" nType="0">
          <Node pos="l" depth="2" NCoef="0" IVar="1" Cut="135861" cType="1" res="-0.0291482" purity="0.443944" nType="0">
            <Node pos="l" depth="3" NCoef="0" IVar="3" Cut="148245" cType="1" res="-0.0132006" purity="0.457505" nType="0">
              <Node pos="l" depth="4" NCoef="0" IVar="-1" Cut="0" cType="1" res="-0.00466922" purity="0.386357" nType="-99"/>
              <Node pos="r" depth="4" NCoef="0" IVar="-1" Cut="0" cType="1" res="0.000331161" purity="0.478453" nType="-99"/>
            </Node>
            <Node pos="r" depth="3" NCoef="0" IVar="-1" Cut="0" cType="1" res="-0.00473501" purity="0.396427" nType="-99"/>
          </Node>
          <Node pos="r" depth="2" NCoef="0" IVar="0" Cut="202418" cType="1" res="0.0113215" purity="0.473896" nType="0">
            <Node pos="l" depth="3" NCoef="0" IVar="5" Cut="1.29167" cType="1" res="-0.00028592" purity="0.451343" nType="0">
              <Node pos="l" depth="4" NCoef="0" IVar="-1" Cut="0" cType="1" res="-0.00147468" purity="0.432271" nType="-99"/>
              <Node pos="r" depth="4" NCoef="0" IVar="-1" Cut="0" cType="1" res="0.000893803" purity="0.463506" nType="-99"/>
            </Node>
            <Node pos="r" depth="3" NCoef="0" IVar="-1" Cut="0" cType="1" res="0.00316701" purity="0.60008" nType="-99"/>
          </Node>
        </Node>
        <Node pos="r" depth="1" NCoef="0" IVar="0" Cut="139000" cType="1" res="0.0539508" purity="0.630247" nType="0">
          <Node pos="l" depth="2" NCoef="0" IVar="6" Cut="1.1043" cType="1" res="0.0210414" purity="0.581277" nType="0">
            <Node pos="l" depth="3" NCoef="0" IVar="-1" Cut="0" cType="1" res="-0.000692148" purity="0.5274" nType="-99"/>
            <Node pos="r" depth="3" NCoef="0" IVar="-1" Cut="0" cType="1" res="0.00241042" purity="0.638656" nType="-99"/>
          </Node>
          <Node pos="r" depth="2" NCoef="0" IVar="1" Cut="115578" cType="1" res="0.0922858" purity="0.687289" nType="0">
            <Node pos="l" depth="3" NCoef="0" IVar="-1" Cut="0" cType="1" res="0.00198534" purity="0.644381" nType="-99"/>
            <Node pos="r" depth="3" NCoef="0" IVar="-1" Cut="0" cType="1" res="0.00460306" purity="0.718459" nType="-99"/>
          </Node>
        </Node>
      </Node>
    </BinaryTree>
    <BinaryTree type="DecisionTree" boostWeight="1.0" itree="63">
      <Node pos="s" depth="0" NCoef="0" IVar="2" Cut="27926.2" cType="1" res="0.0115935" purity="0.50175" nType="0">
        <Node pos="l" depth="1" NCoef="0" IVar="3" Cut="171361" cType="1" res="0.00444102" purity="0.485213" nType="0">
          <Node pos="l" depth="2" NCoef="0" IVar="1" Cut="120724" cType="1" res="0.0199614" purity="0.503342" nType="0">
            <Node pos="l" depth="3" NCoef="0" IVar="3" Cut="144288" cType="1" res="0.00267338" purity="0.481743" nType="0">
              <Node pos="l" depth="4" NCoef="0" IVar="-1" Cut="0" cType="1" res="0.00134403" purity="0.502927" nType="-99"/>
              <Node pos="r" depth="4" NCoef="0" IVar="-1" Cut="0" cType="1" res="-0.000728813" purity="0.467581" nType="-99"/>
            </Node>
            <Node pos="r" depth="3" NCoef="0" IVar="5" Cut="1.85365" cType="1" res="0.0486434" purity="0.539176" nType="0">
              <Node pos="l" depth="4" NCoef="0" IVar="-1" Cut="0" cType="1" res="0.00369089" purity="0.59675" nType="-99"/>
              <Node pos="r" depth="4" NCoef="0" IVar="-1" Cut="0" cType="1" res="0.000632332" purity="0.491849" nType="-99"/>
            </Node>
          </Node>
          <Node pos="r" depth="2" NCoef="0" IVar="0" Cut="129268" cType="1" res="-0.014417" purity="0.463185" nType="0">
            <Node pos="l" depth="3" NCoef="0" IVar="4" Cut="285403" cType="1" res="-0.041555" purity="0.411271" nType="0">
              <Node pos="l" depth="4" NCoef="0" IVar="-1" Cut="0" cType="1" res="-0.00105638" purity="0.449542" nType="-99"/>
              <Node pos="r" depth="4" NCoef="0" IVar="-1" Cut="0" cType="1" res="-0.00750628" purity="0.300343" nType="-99"/>
            </Node>
            <Node pos="r" depth="3" NCoef="0" IVar="6" Cut="2.14547" cType="1" res="0.00665496" purity="0.503495" nType="0">
              <Node pos="l" depth="4" NCoef="0" IVar="-1" Cut="0" cType="1" res="0.00157452" purity="0.543514" nType="-99"/>
              <Node pos="r" depth="4" NCoef="0" IVar="-1" Cut="0" cType="1" res="-0.00161385" purity="0.450035" nType="-99"/>
            </Node>
          </Node>
        </Node>
        <Node pos="r" depth="1" NCoef="0" IVar="-1" Cut="0" cType="1" res="0.00365889" purity="0.698631" nType="-99"/>
      </Node>
    </BinaryTree>
    <BinaryTree type="DecisionTree" boostWeight="1.0" itree="64">
      <Node pos="s" depth="0" NCoef="0" IVar="2" Cut="24545.7" cType="1" res="0.00240013" purity="0.492482" nType="0">
        <Node pos="l" depth="1" NCoef="0" IVar="4" Cut="431787" cType="1" res="-0.00568686" purity="0.472764" nType="0">
          <Node pos="l" depth="2" NCoef="0" IVar="2" Cut="7236.54" cType="1" res="-0.00151512" purity="0.478471" nType="0">
            <Node pos="l" depth="3" NCoef="0" IVar="0" Cut="221950" cType="1" res="-0.0134183" purity="0.437908" nType="0">
              <Node pos="l" depth="4" NCoef="0" IVar="-1" Cut="0" cType="1" res="-0.00103407" purity="0.426231" nType="-99"/>
              <Node pos="r" depth="4" NCoef="0" IVar="-1" Cut="0" cType="1" res="0.00234099" purity="0.576047" nType="-99"/>
            </Node>
            <Node pos="r" depth="3" NCoef="0" IVar="3" Cut="187801" cType="1" res="0.0211605" purity="0.555744" nType="0">
              <Node pos="l" depth="4" NCoef="0" IVar="-1" Cut="0" cType="1" res="0.00141486" purity="0.568865" nType="-99"/>
              <Node pos="r" depth="4" NCoef="0" IVar="-1" Cut="0" cType="1" res="-0.0010818" purity="0.506822" nType="-99"/>
            </Node>
          </Node>
          <Node pos="r" depth="2" NCoef="0" IVar="-1" Cut="0" cType="1" res="-0.00566735" purity="0.354558" nType="-99"/>
        </Node>
        <Node pos="r" depth="1" NCoef="0" IVar="-1" Cut="0" cType="1" res="0.00317689" purity="0.682451" nType="-99"/>
      </Node>
    </BinaryTree>
    <BinaryTree type="DecisionTree" boostWeight="1.0" itree="65">
      <Node pos="s" depth="0" NCoef="0" IVar="2" Cut="16706.5" cType="1" res="0.00958372" purity="0.499754" nType="0">
        <Node pos="l" depth="1" NCoef="0" IVar="0" Cut="109754" cType="1" res="-0.000912502" purity="0.467682" nType="0">
          <Node pos="l" depth="2" NCoef="0" IVar="3" Cut="165312" cType="1" res="-0.037018" purity="0.395408" nType="0">
            <Node pos="l" depth="3" NCoef="0" IVar="-1" Cut="0" cType="1" res="0.00113809" purity="0.460316" nType="-99"/>
            <Node pos="r" depth="3" NCoef="0" IVar="-1" Cut="0" cType="1" res="-0.00571175" purity="0.335118" nType="-99"/>
          </Node>
          <Node pos="r" depth="2" NCoef="0" IVar="1" Cut="115547" cType="1" res="0.00704831" purity="0.483617" nType="0">
            <Node pos="l" depth="3" NCoef="0" IVar="1" Cut="110563" cType="1" res="-0.00889691" purity="0.461336" nType="0">
              <Node pos="l" depth="4" NCoef="0" IVar="-1" Cut="0" cType="1" res="1.1685e-06" purity="0.468453" nType="-99"/>
              <Node pos="r" depth="4" NCoef="0" IVar="-1" Cut="0" cType="1" res="-0.00458527" purity="0.403804" nType="-99"/>
            </Node>
            <Node pos="r" depth="3" NCoef="0" IVar="1" Cut="169375" cType="1" res="0.029012" purity="0.514308" nType="0">
              <Node pos="l" depth="4" NCoef="0" IVar="-1" Cut="0" cType="1" res="0.00204972" purity="0.53614" nType="-99"/>
              <Node pos="r" depth="4" NCoef="0" IVar="-1" Cut="0" cType="1" res="-0.00106032" purity="0.448848" nType="-99"/>
            </Node>
          </Node>
        </Node>
        <Node pos="r" depth="1" NCoef="0" IVar="0" Cut="119516" cType="1" res="0.0569483" purity="0.644483" nType="0">
          <Node pos="l" depth="2" NCoef="0" IVar="-1" Cut="0" cType="1" res="-0.00106223" purity="0.536574" nType="-99"/>
          <Node pos="r" depth="2" NCoef="0" IVar="0" Cut="154729" cType="1" res="0.0908304" purity="0.690417" nType="0">
            <Node pos="l" depth="3" NCoef="0" IVar="-1" Cut="0" cType="1" res="0.00244301" purity="0.655521" nType="-99"/>
            <Node pos="r" depth="3" NCoef="0" IVar="-1" Cut="0" cType="1" res="0.00460037" purity="0.72619" nType="-99"/>
          </Node>
        </Node>
      </Node>
    </BinaryTree>
    <BinaryTree type="DecisionTree" boostWeight="1.0" itree="66">
      <Node pos="s" depth="0" NCoef="0" IVar="4" Cut="178117" cType="1" res="0.00673358" purity="0.496545" nType="0">
        <Node pos="l" depth="1" NCoef="0" IVar="6" Cut="1.45622" cType="1" res="0.0439486" purity="0.562771" nType="0">
          <Node pos="l" depth="2" NCoef="0" IVar="-1" Cut="0" cType="1" res="-2.83869e-05" purity="0.525216" nType="-99"/>
          <Node pos="r" depth="2" NCoef="0" IVar="1" Cut="96606.8" cType="1" res="0.069254" purity="0.584092" nType="0">
            <Node pos="l" depth="3" NCoef="0" IVar="-1" Cut="0" cType="1" res="0.0043655" purity="0.59905" nType="-99"/>
            <Node pos="r" depth="3" NCoef="0" IVar="-1" Cut="0" cType="1" res="0.00216815" purity="0.57567" nType="-99"/>
          </Node>
        </Node>
        <Node pos="r" depth="1" NCoef="0" IVar="1" Cut="115610" cType="1" res="-0.00505214" purity="0.475571" nType="0">
          <Node pos="l" depth="2" NCoef="0" IVar="0" Cut="187718" cType="1" res="-0.034822" purity="0.431713" nType="0">
            <Node pos="l" depth="3" NCoef="0" IVar="4" Cut="201694" cType="1" res="-0.0475403" purity="0.408993" nType="0">
              <Node pos="l" depth="4" NCoef="0" IVar="-1" Cut="0" cType="1" res="-0.00599375" purity="0.377071" nType="-99"/>
              <Node pos="r" depth="4" NCoef="0" IVar="-1" Cut="0" cType="1" res="-0.0018413" purity="0.418117" nType="-99"/>
            </Node>
            <Node pos="r" depth="3" NCoef="0" IVar="-1" Cut="0" cType="1" res="0.00116564" purity="0.539817" nType="-99"/>
          </Node>
          <Node pos="r" depth="2" NCoef="0" IVar="5" Cut="1.40699" cType="1" res="0.0231492" purity="0.517118" nType="0">
            <Node pos="l" depth="3" NCoef="0" IVar="2" Cut="7222.56" cType="1" res="0.0835563" purity="0.60494" nType="0">
              <Node pos="l" depth="4" NCoef="0" IVar="-1" Cut="0" cType="1" res="0.00170537" purity="0.509819" nType="-99"/>
              <Node pos="r" depth="4" NCoef="0" IVar="-1" Cut="0" cType="1" res="0.00474009" purity="0.696201" nType="-99"/>
            </Node>
            <Node pos="r" depth="3" NCoef="0" IVar="6" Cut="2.52778" cType="1" res="0.000629304" purity="0.484378" nType="0">
              <Node pos="l" depth="4" NCoef="0" IVar="-1" Cut="0" cType="1" res="0.000525691" purity="0.50603" nType="-99"/>
              <Node pos="r" depth="4" NCoef="0" IVar="-1" Cut="0" cType="1" res="-0.00327264" purity="0.375772" nType="-99"/>
            </Node>
          </Node>
        </Node>
      </Node>
    </BinaryTree>
    <BinaryTree type="DecisionTree" boostWeight="1.0" itree="67">
      <Node pos="s" depth="0" NCoef="0" IVar="2" Cut="14359.7" cType="1" res="0.00935089" purity="0.498981" nType="0">
        <Node pos="l" depth="1" NCoef="0" IVar="5" Cut="0.776172" cType="1" res="-0.00237221" purity="0.461823" nType="0">
          <Node pos="l" depth="2" NCoef="0" IVar="-1" Cut="0" cType="1" res="-0.00410163" purity="0.409143" nType="-99"/>
          <Node pos="r" depth="2" NCoef="0" IVar="6" Cut="2.91164" cType="1" res="0.00323362" purity="0.465965" nType="0">
            <Node pos="l" depth="3" NCoef="0" IVar="2" Cut="-13467.6" cType="1" res="-0.00358831" purity="0.464109" nType="0">
              <Node pos="l" depth="4" NCoef="0" IVar="-1" Cut="0" cType="1" res="-0.00402758" purity="0.360691" nType="-99"/>
              <Node pos="r" depth="4" NCoef="0" IVar="-1" Cut="0" cType="1" res="0.000106459" purity="0.473715" nType="-99"/>
            </Node>
            <Node pos="r" depth="3" NCoef="0" IVar="4" Cut="256702" cType="1" res="0.0558488" purity="0.480285" nType="0">
              <Node pos="l" depth="4" NCoef="0" IVar="-1" Cut="0" cType="1" res="0.000204634" purity="0.440574" nType="-99"/>
              <Node pos="r" depth="4" NCoef="0" IVar="-1" Cut="0" cType="1" res="0.00498812" purity="0.520311" nType="-99"/>
            </Node>
          </Node>
        </Node>
        <Node pos="r" depth="1" NCoef="0" IVar="4" Cut="285213" cType="1" res="0.0511754" purity="0.631551" nType="0">
          <Node pos="l" depth="2" NCoef="0" IVar="1" Cut="104717" cType="1" res="0.0694974" purity="0.660954" nType="0">
            <Node pos="l" depth="3" NCoef="0" IVar="-1" Cut="0" cType="1" res="0.00108716" purity="0.611544" nType="-99"/>
            <Node pos="r" depth="3" NCoef="0" IVar="-1" Cut="0" cType="1" res="0.00349973" purity="0.68355" nType="-99"/>
          </Node>
          <Node pos="r" depth="2" NCoef="0" IVar="-1" Cut="0" cType="1" res="-0.000167842" purity="0.543273" nType="-99"/>
        </Node>
      </Node>
    </BinaryTree>
    <BinaryTree type="DecisionTree" boostWeight="1.0" itree="68">
      <Node pos="s" depth="0" NCoef="0" IVar="2" Cut="778.479" cType="1" res="0.000545713" purity="0.492063" nType="0">
        <Node pos="l" depth="1" NCoef="0" IVar="6" Cut="1.77239" cType="1" res="-0.0363955" purity="0.402555" nType="0">
          <Node pos="l" depth="2" NCoef="0" IVar="-1" Cut="0" cType="1" res="-0.00740582" purity="0.320186" nType="-99"/>
          <Node pos="r" depth="2" NCoef="0" IVar="6" Cut="2.94123" cType="1" res="-0.0195721" purity="0.420268" nType="0">
            <Node pos="l" depth="3" NCoef="0" IVar="3" Cut="176460" cType="1" res="-0.00630639" purity="0.43596" nType="0">
              <Node pos="l" depth="4" NCoef="0" IVar="-1" Cut="0" cType="1" res="0.000689763" purity="0.458077" nType="-99"/>
              <Node pos="r" depth="4" NCoef="0" IVar="-1" Cut="0" cType="1" res="-0.00228998" purity="0.399312" nType="-99"/>
            </Node>
            <Node pos="r" depth="3" NCoef="0" IVar="-1" Cut="0" cType="1" res="-0.00402669" purity="0.365587" nType="-99"/>
          </Node>
        </Node>
        <Node pos="r" depth="1" NCoef="0" IVar="2" Cut="24794.7" cType="1" res="0.0235144" purity="0.547715" nType="0">
          <Node pos="l" depth="2" NCoef="0" IVar="5" Cut="2.50549" cType="1" res="0.0117859" purity="0.521664" nType="0">
            <Node pos="l" depth="3" NCoef="0" IVar="1" Cut="100209" cType="1" res="0.0199076" purity="0.532191" nType="0">
              <Node pos="l" depth="4" NCoef="0" IVar="-1" Cut="0" cType="1" res="-0.00134164" purity="0.465282" nType="-99"/>
              <Node pos="r" depth="4" NCoef="0" IVar="-1" Cut="0" cType="1" res="0.00173097" purity="0.56258" nType="-99"/>
            </Node>
            <Node pos="r" depth="3" NCoef="0" IVar="-1" Cut="0" cType="1" res="-0.00255741" purity="0.444071" nType="-99"/>
          </Node>
          <Node pos="r" depth="2" NCoef="0" IVar="-1" Cut="0" cType="1" res="0.00335344" purity="0.690607" nType="-99"/>
        </Node>
      </Node>
    </BinaryTree>
    <BinaryTree type="DecisionTree" boostWeight="1.0" itree="69">
      <Node pos="s" depth="0" NCoef="0" IVar="0" Cut="119520" cType="1" res="0.00534161" purity="0.494522" nType="0">
        <Node pos="l" depth="1" NCoef="0" IVar="2" Cut="-9606.85" cType="1" res="-0.0249514" purity="0.43172" nType="0">
          <Node pos="l" depth="2" NCoef="0" IVar="-1" Cut="0" cType="1" res="-0.00567868" purity="0.307953" nType="-99"/>
          <Node pos="r" depth="2" NCoef="0" IVar="6" Cut="1.60906" cType="1" res="-0.0142148" purity="0.455082" nType="0">
            <Node pos="l" depth="3" NCoef="0" IVar="0" Cut="110953" cType="1" res="-0.0492122" purity="0.435634" nType="0">
              <Node pos="l" depth="4" NCoef="0" IVar="-1" Cut="0" cType="1" res="-0.000544227" purity="0.47267" nType="-99"/>
              <Node pos="r" depth="4" NCoef="0" IVar="-1" Cut="0" cType="1" res="-0.00722884" purity="0.367739" nType="-99"/>
            </Node>
            <Node pos="r" depth="3" NCoef="0" IVar="2" Cut="828.273" cType="1" res="0.0238598" purity="0.476238" nType="0">
              <Node pos="l" depth="4" NCoef="0" IVar="-1" Cut="0" cType="1" res="-0.00106535" purity="0.390662" nType="-99"/>
              <Node pos="r" depth="4" NCoef="0" IVar="-1" Cut="0" cType="1" res="0.00300655" purity="0.567055" nType="-99"/>
            </Node>
          </Node>
        </Node>
        <Node pos="r" depth="1" NCoef="0" IVar="2" Cut="14359.7" cType="1" res="0.0199864" purity="0.524882" nType="0">
          <Node pos="l" depth="2" NCoef="0" IVar="5" Cut="2.22513" cType="1" res="0.0111199" purity="0.490651" nType="0">
            <Node pos="l" depth="3" NCoef="0" IVar="4" Cut="158959" cType="1" res="0.0189737" purity="0.49984" nType="0">
              <Node pos="l" depth="4" NCoef="0" IVar="-1" Cut="0" cType="1" res="-0.00219882" purity="0.452874" nType="-99"/>
              <Node pos="r" depth="4" NCoef="0" IVar="-1" Cut="0" cType="1" res="0.0011923" purity="0.504883" nType="-99"/>
            </Node>
            <Node pos="r" depth="3" NCoef="0" IVar="-1" Cut="0" cType="1" res="-0.00203153" purity="0.432617" nType="-99"/>
          </Node>
          <Node pos="r" depth="2" NCoef="0" IVar="1" Cut="115588" cType="1" res="0.052497" purity="0.650396" nType="0">
            <Node pos="l" depth="3" NCoef="0" IVar="-1" Cut="0" cType="1" res="0.000524669" purity="0.612174" nType="-99"/>
            <Node pos="r" depth="3" NCoef="0" IVar="-1" Cut="0" cType="1" res="0.00327534" purity="0.679908" nType="-99"/>
          </Node>
        </Node>
      </Node>
    </BinaryTree>
    <BinaryTree type="DecisionTree" boostWeight="1.0" itree="70">
      <Node pos="s" depth="0" NCoef="0" IVar="2" Cut="7579.36" cType="1" res="0.00633922" purity="0.49643" nType="0">
        <Node pos="l" depth="1" NCoef="0" IVar="1" Cut="100244" cType="1" res="-0.009705" purity="0.439566" nType="0">
          <Node pos="l" depth="2" NCoef="0" IVar="5" Cut="1.12414" cType="1" res="-0.0405712" purity="0.397991" nType="0">
            <Node pos="l" depth="3" NCoef="0" IVar="1" Cut="94495.2" cType="1" res="-0.0677887" purity="0.375752" nType="0">
              <Node pos="l" depth="4" NCoef="0" IVar="-1" Cut="0" cType="1" res="-0.00640841" purity="0.346291" nType="-99"/>
              <Node pos="r" depth="4" NCoef="0" IVar="-1" Cut="0" cType="1" res="-0.00197574" purity="0.406121" nType="-99"/>
            </Node>
            <Node pos="r" depth="3" NCoef="0" IVar="3" Cut="169346" cType="1" res="-0.0169891" purity="0.417259" nType="0">
              <Node pos="l" depth="4" NCoef="0" IVar="-1" Cut="0" cType="1" res="-0.00271469" purity="0.390237" nType="-99"/>
              <Node pos="r" depth="4" NCoef="0" IVar="-1" Cut="0" cType="1" res="0.000611632" purity="0.443484" nType="-99"/>
            </Node>
          </Node>
          <Node pos="r" depth="2" NCoef="0" IVar="0" Cut="163418" cType="1" res="0.00465603" purity="0.458909" nType="0">
            <Node pos="l" depth="3" NCoef="0" IVar="4" Cut="306244" cType="1" res="-0.0129325" purity="0.424246" nType="0">
              <Node pos="l" depth="4" NCoef="0" IVar="-1" Cut="0" cType="1" res="0.000217" purity="0.454126" nType="-99"/>
              <Node pos="r" depth="4" NCoef="0" IVar="-1" Cut="0" cType="1" res="-0.00375401" purity="0.343424" nType="-99"/>
            </Node>
            <Node pos="r" depth="3" NCoef="0" IVar="1" Cut="124564" cType="1" res="0.0558487" purity="0.559799" nType="0">
              <Node pos="l" depth="4" NCoef="0" IVar="-1" Cut="0" cType="1" res="0.0034255" purity="0.584182" nType="-99"/>
              <Node pos="r" depth="4" NCoef="0" IVar="-1" Cut="0" cType="1" res="0.000902009" purity="0.527704" nType="-99"/>
            </Node>
          </Node>
        </Node>
        <Node pos="r" depth="1" NCoef="0" IVar="0" Cut="207220" cType="1" res="0.0308908" purity="0.583447" nType="0">
          <Node pos="l" depth="2" NCoef="0" IVar="4" Cut="324381" cType="1" res="0.0220553" purity="0.570622" nType="0">
            <Node pos="l" depth="3" NCoef="0" IVar="3" Cut="141751" cType="1" res="0.0320692" purity="0.587626" nType="0">
              <Node pos="l" depth="4" NCoef="0" IVar="-1" Cut="0" cType="1" res="-0.00100794" purity="0.538645" nType="-99"/>
              <Node pos="r" depth="4" NCoef="0" IVar="-1" Cut="0" cType="1" res="0.00189521" purity="0.599489" nType="-99"/>
            </Node>
            <Node pos="r" depth="3" NCoef="0" IVar="-1" Cut="0" cType="1" res="-0.00157528" purity="0.479533" nType="-99"/>
          </Node>
          <Node pos="r" depth="2" NCoef="0" IVar="-1" Cut="0" cType="1" res="0.00362837" purity="0.669129" nType="-99"/>
        </Node>
      </Node>
    </BinaryTree>
    <BinaryTree type="DecisionTree" boostWeight="1.0" itree="71">
      <Node pos="s" depth="0" NCoef="0" IVar="2" Cut="7569.1" cType="1" res="0.0130349" purity="0.505929" nType="0">
        <Node pos="l" depth="1" NCoef="0" IVar="6" Cut="2.37533" cType="1" res="-0.00937831" purity="0.440326" nType="0">
          <Node pos="l" depth="2" NCoef="0" IVar="2" Cut="-7503.29" cType="1" res="-0.0300251" purity="0.423598" nType="0">
            <Node pos="l" depth="3" NCoef="0" IVar="-1" Cut="0" cType="1" res="-0.0069125" purity="0.326829" nType="-99"/>
            <Node pos="r" depth="3" NCoef="0" IVar="5" Cut="1.28702" cType="1" res="-0.0176389" purity="0.439651" nType="0">
              <Node pos="l" depth="4" NCoef="0" IVar="-1" Cut="0" cType="1" res="-0.003138" purity="0.395602" nType="-99"/>
              <Node pos="r" depth="4" NCoef="0" IVar="-1" Cut="0" cType="1" res="-9.88815e-05" purity="0.457916" nType="-99"/>
            </Node>
          </Node>
          <Node pos="r" depth="2" NCoef="0" IVar="3" Cut="181933" cType="1" res="0.0134887" purity="0.458854" nType="0">
            <Node pos="l" depth="3" NCoef="0" IVar="1" Cut="115604" cType="1" res="-0.0144504" purity="0.431767" nType="0">
              <Node pos="l" depth="4" NCoef="0" IVar="-1" Cut="0" cType="1" res="-0.0030454" purity="0.390347" nType="-99"/>
              <Node pos="r" depth="4" NCoef="0" IVar="-1" Cut="0" cType="1" res="0.00232486" purity="0.500219" nType="-99"/>
            </Node>
            <Node pos="r" depth="3" NCoef="0" IVar="6" Cut="2.73035" cType="1" res="0.0644913" purity="0.508299" nType="0">
              <Node pos="l" depth="4" NCoef="0" IVar="-1" Cut="0" cType="1" res="0.00454455" purity="0.565704" nType="-99"/>
              <Node pos="r" depth="4" NCoef="0" IVar="-1" Cut="0" cType="1" res="0.0012688" purity="0.454699" nType="-99"/>
            </Node>
          </Node>
        </Node>
        <Node pos="r" depth="1" NCoef="0" IVar="5" Cut="2.53669" cType="1" res="0.0450583" purity="0.59966" nType="0">
          <Node pos="l" depth="2" NCoef="0" IVar="0" Cut="207234" cType="1" res="0.056947" purity="0.615605" nType="0">
            <Node pos="l" depth="3" NCoef="0" IVar="0" Cut="115703" cType="1" res="0.0430341" purity="0.598179" nType="0">
              <Node pos="l" depth="4" NCoef="0" IVar="-1" Cut="0" cType="1" res="6.35987e-05" purity="0.533307" nType="-99"/>
              <Node pos="r" depth="4" NCoef="0" IVar="-1" Cut="0" cType="1" res="0.00242908" purity="0.624138" nType="-99"/>
            </Node>
            <Node pos="r" depth="3" NCoef="0" IVar="-1" Cut="0" cType="1" res="0.00531577" purity="0.721581" nType="-99"/>
          </Node>
          <Node pos="r" depth="2" NCoef="0" IVar="-1" Cut="0" cType="1" res="-0.00317071" purity="0.458284" nType="-99"/>
        </Node>
      </Node>
    </BinaryTree>
    <BinaryTree type="DecisionTree" boostWeight="1.0" itree="72">
      <Node pos="s" depth="0" NCoef="0" IVar="2" Cut="27941" cType="1" res="0.0174194" purity="0.507538" nType="0">
        <Node pos="l" depth="1" NCoef="0" IVar="1" Cut="100236" cType="1" res="0.0110875" purity="0.491457" nType="0">
          <Node pos="l" depth="2" NCoef="0" IVar="6" Cut="0.766365" cType="1" res="-0.0217461" purity="0.442007" nType="0">
            <Node pos="l" depth="3" NCoef="0" IVar="-1" Cut="0" cType="1" res="0.00187945" purity="0.484871" nType="-99"/>
            <Node pos="r" depth="3" NCoef="0" IVar="4" Cut="158602" cType="1" res="-0.0339664" purity="0.433328" nType="0">
              <Node pos="l" depth="4" NCoef="0" IVar="-1" Cut="0" cType="1" res="0.00138554" purity="0.524753" nType="-99"/>
              <Node pos="r" depth="4" NCoef="0" IVar="-1" Cut="0" cType="1" res="-0.00273159" purity="0.412067" nType="-99"/>
            </Node>
          </Node>
          <Node pos="r" depth="2" NCoef="0" IVar="3" Cut="160213" cType="1" res="0.0246074" purity="0.511819" nType="0">
            <Node pos="l" depth="3" NCoef="0" IVar="6" Cut="0.766499" cType="1" res="0.000311098" purity="0.491137" nType="0">
              <Node pos="l" depth="4" NCoef="0" IVar="-1" Cut="0" cType="1" res="-0.00323636" purity="0.437482" nType="-99"/>
              <Node pos="r" depth="4" NCoef="0" IVar="-1" Cut="0" cType="1" res="0.000663162" purity="0.502907" nType="-99"/>
            </Node>
            <Node pos="r" depth="3" NCoef="0" IVar="2" Cut="8065.75" cType="1" res="0.0382353" purity="0.52342" nType="0">
              <Node pos="l" depth="4" NCoef="0" IVar="-1" Cut="0" cType="1" res="0.00124437" purity="0.477762" nType="-99"/>
              <Node pos="r" depth="4" NCoef="0" IVar="-1" Cut="0" cType="1" res="0.002565" purity="0.610072" nType="-99"/>
            </Node>
          </Node>
        </Node>
        <Node pos="r" depth="1" NCoef="0" IVar="-1" Cut="0" cType="1" res="0.00365272" purity="0.70758" nType="-99"/>
      </Node>
    </BinaryTree>
    <BinaryTree type="DecisionTree" boostWeight="1.0" itree="73">
      <Node pos="s" depth="0" NCoef="0" IVar="4" Cut="217127" cType="1" res="0.0050476" purity="0.494414" nType="0">
        <Node pos="l" depth="1" NCoef="0" IVar="0" Cut="202401" cType="1" res="0.0265441" purity="0.536823" nType="0">
          <Node pos="l" depth="2" NCoef="0" IVar="4" Cut="202831" cType="1" res="0.0159299" purity="0.520446" nType="0">
            <Node pos="l" depth="3" NCoef="0" IVar="4" Cut="185282" cType="1" res="0.00333765" purity="0.512714" nType="0">
              <Node pos="l" depth="4" NCoef="0" IVar="-1" Cut="0" cType="1" res="0.00116474" purity="0.543464" nType="-99"/>
              <Node pos="r" depth="4" NCoef="0" IVar="-1" Cut="0" cType="1" res="-0.00332045" purity="0.425211" nType="-99"/>
            </Node>
            <Node pos="r" depth="3" NCoef="0" IVar="-1" Cut="0" cType="1" res="0.00305672" purity="0.553447" nType="-99"/>
          </Node>
          <Node pos="r" depth="2" NCoef="0" IVar="-1" Cut="0" cType="1" res="0.00417713" purity="0.659254" nType="-99"/>
        </Node>
        <Node pos="r" depth="1" NCoef="0" IVar="2" Cut="-6295.67" cType="1" res="-0.0132408" purity="0.458333" nType="0">
          <Node pos="l" depth="2" NCoef="0" IVar="2" Cut="-12869" cType="1" res="0.0186108" purity="0.439298" nType="0">
            <Node pos="l" depth="3" NCoef="0" IVar="-1" Cut="0" cType="1" res="-0.00142811" purity="0.391153" nType="-99"/>
            <Node pos="r" depth="3" NCoef="0" IVar="-1" Cut="0" cType="1" res="0.00293302" purity="0.486737" nType="-99"/>
          </Node>
          <Node pos="r" depth="2" NCoef="0" IVar="2" Cut="1342.47" cType="1" res="-0.0248897" purity="0.465295" nType="0">
            <Node pos="l" depth="3" NCoef="0" IVar="3" Cut="177275" cType="1" res="-0.0863364" purity="0.351954" nType="0">
              <Node pos="l" depth="4" NCoef="0" IVar="-1" Cut="0" cType="1" res="-0.00321121" purity="0.385255" nType="-99"/>
              <Node pos="r" depth="4" NCoef="0" IVar="-1" Cut="0" cType="1" res="-0.00842401" purity="0.30193" nType="-99"/>
            </Node>
            <Node pos="r" depth="3" NCoef="0" IVar="4" Cut="396506" cType="1" res="-0.00154993" purity="0.508346" nType="0">
              <Node pos="l" depth="4" NCoef="0" IVar="-1" Cut="0" cType="1" res="0.000485703" purity="0.522459" nType="-99"/>
              <Node pos="r" depth="4" NCoef="0" IVar="-1" Cut="0" cType="1" res="-0.00357005" purity="0.428983" nType="-99"/>
            </Node>
          </Node>
        </Node>
      </Node>
    </BinaryTree>
    <BinaryTree type="DecisionTree" boostWeight="1.0" itree="74">
      <Node pos="s" depth="0" NCoef="0" IVar="2" Cut="24257.1" cType="1" res="0.0100923" purity="0.499194" nType="0">
        <Node pos="l" depth="1" NCoef="0" IVar="6" Cut="0.613035" cType="1" res="0.00415885" purity="0.480995" nType="0">
          <Node pos="l" depth="2" NCoef="0" IVar="6" Cut="0.343893" cType="1" res="-0.032639" purity="0.440613" nType="0">
            <Node pos="l" depth="3" NCoef="0" IVar="-1" Cut="0" cType="1" res="0.000950451" purity="0.496133" nType="-99"/>
            <Node pos="r" depth="3" NCoef="0" IVar="-1" Cut="0" cType="1" res="-0.0070811" purity="0.354929" nType="-99"/>
          </Node>
          <Node pos="r" depth="2" NCoef="0" IVar="1" Cut="100242" cType="1" res="0.00967204" purity="0.487045" nType="0">
            <Node pos="l" depth="3" NCoef="0" IVar="2" Cut="-10220" cType="1" res="-0.0153701" purity="0.445968" nType="0">
              <Node pos="l" depth="4" NCoef="0" IVar="-1" Cut="0" cType="1" res="0.00423066" purity="0.504746" nType="-99"/>
              <Node pos="r" depth="4" NCoef="0" IVar="-1" Cut="0" cType="1" res="-0.0021873" purity="0.432304" nType="-99"/>
            </Node>
            <Node pos="r" depth="3" NCoef="0" IVar="2" Cut="777.474" cType="1" res="0.0203871" purity="0.504621" nType="0">
              <Node pos="l" depth="4" NCoef="0" IVar="-1" Cut="0" cType="1" res="-0.000153502" purity="0.436814" nType="-99"/>
              <Node pos="r" depth="4" NCoef="0" IVar="-1" Cut="0" cType="1" res="0.0017841" purity="0.566011" nType="-99"/>
            </Node>
          </Node>
        </Node>
        <Node pos="r" depth="1" NCoef="0" IVar="-1" Cut="0" cType="1" res="0.00278927" purity="0.68001" nType="-99"/>
      </Node>
    </BinaryTree>
    <BinaryTree type="DecisionTree" boostWeight="1.0" itree="75">
      <Node pos="s" depth="0" NCoef="0" IVar="2" Cut="7408.06" cType="1" res="-0.000544767" purity="0.489062" nType="0">
        <Node pos="l" depth="1" NCoef="0" IVar="6" Cut="0.689659" cType="1" res="-0.0156925" purity="0.43186" nType="0">
          <Node pos="l" depth="2" NCoef="0" IVar="-1" Cut="0" cType="1" res="-0.00498994" purity="0.35207" nType="-99"/>
          <Node pos="r" depth="2" NCoef="0" IVar="3" Cut="159723" cType="1" res="-0.00907731" purity="0.439775" nType="0">
            <Node pos="l" depth="3" NCoef="0" IVar="4" Cut="296336" cType="1" res="0.0166801" purity="0.467126" nType="0">
              <Node pos="l" depth="4" NCoef="0" IVar="-1" Cut="0" cType="1" res="0.00165498" purity="0.492162" nType="-99"/>
              <Node pos="r" depth="4" NCoef="0" IVar="-1" Cut="0" cType="1" res="-0.0018008" purity="0.398671" nType="-99"/>
            </Node>
            <Node pos="r" depth="3" NCoef="0" IVar="3" Cut="207430" cType="1" res="-0.0243813" purity="0.423525" nType="0">
              <Node pos="l" depth="4" NCoef="0" IVar="-1" Cut="0" cType="1" res="-0.00205138" purity="0.412137" nType="-99"/>
              <Node pos="r" depth="4" NCoef="0" IVar="-1" Cut="0" cType="1" res="0.00118019" purity="0.469406" nType="-99"/>
            </Node>
          </Node>
        </Node>
        <Node pos="r" depth="1" NCoef="0" IVar="4" Cut="197570" cType="1" res="0.0225468" purity="0.576263" nType="0">
          <Node pos="l" depth="2" NCoef="0" IVar="1" Cut="103602" cType="1" res="0.0542043" purity="0.629296" nType="0">
            <Node pos="l" depth="3" NCoef="0" IVar="-1" Cut="0" cType="1" res="0.001054" purity="0.576369" nType="-99"/>
            <Node pos="r" depth="3" NCoef="0" IVar="-1" Cut="0" cType="1" res="0.00293272" purity="0.665055" nType="-99"/>
          </Node>
          <Node pos="r" depth="2" NCoef="0" IVar="1" Cut="105346" cType="1" res="-0.00215779" purity="0.534877" nType="0">
            <Node pos="l" depth="3" NCoef="0" IVar="-1" Cut="0" cType="1" res="-0.00381124" purity="0.444098" nType="-99"/>
            <Node pos="r" depth="3" NCoef="0" IVar="6" Cut="0.78797" cType="1" res="0.0196676" purity="0.563132" nType="0">
              <Node pos="l" depth="4" NCoef="0" IVar="-1" Cut="0" cType="1" res="-0.00228195" purity="0.46604" nType="-99"/>
              <Node pos="r" depth="4" NCoef="0" IVar="-1" Cut="0" cType="1" res="0.00236155" purity="0.61857" nType="-99"/>
            </Node>
          </Node>
        </Node>
      </Node>
    </BinaryTree>
    <BinaryTree type="DecisionTree" boostWeight="1.0" itree="76">
      <Node pos="s" depth="0" NCoef="0" IVar="2" Cut="10964.4" cType="1" res="0.0136584" purity="0.504027" nType="0">
        <Node pos="l" depth="1" NCoef="0" IVar="6" Cut="1.22602" cType="1" res="-0.00161414" purity="0.453429" nType="0">
          <Node pos="l" depth="2" NCoef="0" IVar="2" Cut="4970.98" cType="1" res="0.0288401" purity="0.480489" nType="0">
            <Node pos="l" depth="3" NCoef="0" IVar="0" Cut="143892" cType="1" res="0.0573012" purity="0.492302" nType="0">
              <Node pos="l" depth="4" NCoef="0" IVar="-1" Cut="0" cType="1" res="0.000975595" purity="0.437173" nType="-99"/>
              <Node pos="r" depth="4" NCoef="0" IVar="-1" Cut="0" cType="1" res="0.00434706" purity="0.565072" nType="-99"/>
            </Node>
            <Node pos="r" depth="3" NCoef="0" IVar="-1" Cut="0" cType="1" res="-0.000549406" purity="0.463889" nType="-99"/>
          </Node>
          <Node pos="r" depth="2" NCoef="0" IVar="0" Cut="226814" cType="1" res="-0.0108376" purity="0.445234" nType="0">
            <Node pos="l" depth="3" NCoef="0" IVar="4" Cut="287032" cType="1" res="-0.0162885" purity="0.43416" nType="0">
              <Node pos="l" depth="4" NCoef="0" IVar="-1" Cut="0" cType="1" res="-0.000299604" purity="0.456787" nType="-99"/>
              <Node pos="r" depth="4" NCoef="0" IVar="-1" Cut="0" cType="1" res="-0.00233774" purity="0.382605" nType="-99"/>
            </Node>
            <Node pos="r" depth="3" NCoef="0" IVar="-1" Cut="0" cType="1" res="0.00234047" purity="0.578209" nType="-99"/>
          </Node>
        </Node>
        <Node pos="r" depth="1" NCoef="0" IVar="4" Cut="265869" cType="1" res="0.0493734" purity="0.622352" nType="0">
          <Node pos="l" depth="2" NCoef="0" IVar="1" Cut="107131" cType="1" res="0.0743295" purity="0.661664" nType="0">
            <Node pos="l" depth="3" NCoef="0" IVar="-1" Cut="0" cType="1" res="0.00156414" purity="0.613201" nType="-99"/>
            <Node pos="r" depth="3" NCoef="0" IVar="0" Cut="139064" cType="1" res="0.0956722" purity="0.690102" nType="0">
              <Node pos="l" depth="4" NCoef="0" IVar="-1" Cut="0" cType="1" res="0.00280878" purity="0.64478" nType="-99"/>
              <Node pos="r" depth="4" NCoef="0" IVar="-1" Cut="0" cType="1" res="0.00480778" purity="0.748415" nType="-99"/>
            </Node>
          </Node>
          <Node pos="r" depth="2" NCoef="0" IVar="0" Cut="153636" cType="1" res="-0.00830827" purity="0.531489" nType="0">
            <Node pos="l" depth="3" NCoef="0" IVar="-1" Cut="0" cType="1" res="-0.00262562" purity="0.468592" nType="-99"/>
            <Node pos="r" depth="3" NCoef="0" IVar="-1" Cut="0" cType="1" res="0.0019078" purity="0.607735" nType="-99"/>
          </Node>
        </Node>
      </Node>
    </BinaryTree>
    <BinaryTree type="DecisionTree" boostWeight="1.0" itree="77">
      <Node pos="s" depth="0" NCoef="0" IVar="0" Cut="119521" cType="1" res="0.0169632" purity="0.508191" nType="0">
        <Node pos="l" depth="1" NCoef="0" IVar="0" Cut="110956" cType="1" res="-0.0153253" purity="0.44072" nType="0">
          <Node pos="l" depth="2" NCoef="0" IVar="4" Cut="207330" cType="1" res="0.00862974" purity="0.461003" nType="0">
            <Node pos="l" depth="3" NCoef="0" IVar="-1" Cut="0" cType="1" res="0.00180708" purity="0.525471" nType="-99"/>
            <Node pos="r" depth="3" NCoef="0" IVar="2" Cut="-3605.7" cType="1" res="-0.015152" purity="0.411144" nType="0">
              <Node pos="l" depth="4" NCoef="0" IVar="-1" Cut="0" cType="1" res="0.00203154" purity="0.416671" nType="-99"/>
              <Node pos="r" depth="4" NCoef="0" IVar="-1" Cut="0" cType="1" res="-0.00299789" purity="0.407055" nType="-99"/>
            </Node>
          </Node>
          <Node pos="r" depth="2" NCoef="0" IVar="1" Cut="115362" cType="1" res="-0.0587393" purity="0.403961" nType="0">
            <Node pos="l" depth="3" NCoef="0" IVar="-1" Cut="0" cType="1" res="-0.00573866" purity="0.360135" nType="-99"/>
            <Node pos="r" depth="3" NCoef="0" IVar="-1" Cut="0" cType="1" res="-0.00073077" purity="0.45798" nType="-99"/>
          </Node>
        </Node>
        <Node pos="r" depth="1" NCoef="0" IVar="2" Cut="13388.7" cType="1" res="0.0323594" purity="0.540364" nType="0">
          <Node pos="l" depth="2" NCoef="0" IVar="0" Cut="203162" cType="1" res="0.0185196" purity="0.498022" nType="0">
            <Node pos="l" depth="3" NCoef="0" IVar="5" Cut="0.868627" cType="1" res="0.00869023" purity="0.47801" nType="0">
              <Node pos="l" depth="4" NCoef="0" IVar="-1" Cut="0" cType="1" res="-0.00452627" purity="0.385467" nType="-99"/>
              <Node pos="r" depth="4" NCoef="0" IVar="-1" Cut="0" cType="1" res="0.00100879" purity="0.491062" nType="-99"/>
            </Node>
            <Node pos="r" depth="3" NCoef="0" IVar="4" Cut="218478" cType="1" res="0.0608686" purity="0.58424" nType="0">
              <Node pos="l" depth="4" NCoef="0" IVar="-1" Cut="0" cType="1" res="0.00387587" purity="0.630916" nType="-99"/>
              <Node pos="r" depth="4" NCoef="0" IVar="-1" Cut="0" cType="1" res="0.00138866" purity="0.548028" nType="-99"/>
            </Node>
          </Node>
          <Node pos="r" depth="2" NCoef="0" IVar="6" Cut="0.900189" cType="1" res="0.0764418" purity="0.675232" nType="0">
            <Node pos="l" depth="3" NCoef="0" IVar="-1" Cut="0" cType="1" res="0.000790668" purity="0.584044" nType="-99"/>
            <Node pos="r" depth="3" NCoef="0" IVar="4" Cut="236826" cType="1" res="0.098499" purity="0.710431" nType="0">
              <Node pos="l" depth="4" NCoef="0" IVar="-1" Cut="0" cType="1" res="0.00424431" purity="0.741075" nType="-99"/>
              <Node pos="r" depth="4" NCoef="0" IVar="-1" Cut="0" cType="1" res="0.00296257" purity="0.661135" nType="-99"/>
            </Node>
          </Node>
        </Node>
      </Node>
    </BinaryTree>
    <BinaryTree type="DecisionTree" boostWeight="1.0" itree="78">
      <Node pos="s" depth="0" NCoef="0" IVar="0" Cut="158534" cType="1" res="0.0138295" purity="0.503384" nType="0">
        <Node pos="l" depth="1" NCoef="0" IVar="6" Cut="1.45584" cType="1" res="0.00199658" purity="0.475769" nType="0">
          <Node pos="l" depth="2" NCoef="0" IVar="0" Cut="132811" cType="1" res="-0.0206859" purity="0.471482" nType="0">
            <Node pos="l" depth="3" NCoef="0" IVar="0" Cut="108002" cType="1" res="0.000843316" purity="0.487874" nType="0">
              <Node pos="l" depth="4" NCoef="0" IVar="-1" Cut="0" cType="1" res="0.00172831" purity="0.520164" nType="-99"/>
              <Node pos="r" depth="4" NCoef="0" IVar="-1" Cut="0" cType="1" res="-0.000945782" purity="0.470825" nType="-99"/>
            </Node>
            <Node pos="r" depth="3" NCoef="0" IVar="-1" Cut="0" cType="1" res="-0.00451534" purity="0.423563" nType="-99"/>
          </Node>
          <Node pos="r" depth="2" NCoef="0" IVar="4" Cut="207332" cType="1" res="0.0158593" purity="0.478389" nType="0">
            <Node pos="l" depth="3" NCoef="0" IVar="1" Cut="107760" cType="1" res="0.0425203" purity="0.536016" nType="0">
              <Node pos="l" depth="4" NCoef="0" IVar="-1" Cut="0" cType="1" res="0.00123473" purity="0.503298" nType="-99"/>
              <Node pos="r" depth="4" NCoef="0" IVar="-1" Cut="0" cType="1" res="0.00288776" purity="0.584663" nType="-99"/>
            </Node>
            <Node pos="r" depth="3" NCoef="0" IVar="1" Cut="130899" cType="1" res="-0.00176392" purity="0.440297" nType="0">
              <Node pos="l" depth="4" NCoef="0" IVar="-1" Cut="0" cType="1" res="-0.0012988" purity="0.414439" nType="-99"/>
              <Node pos="r" depth="4" NCoef="0" IVar="-1" Cut="0" cType="1" res="0.00180214" purity="0.48633" nType="-99"/>
            </Node>
          </Node>
        </Node>
        <Node pos="r" depth="1" NCoef="0" IVar="4" Cut="383138" cType="1" res="0.040827" purity="0.566388" nType="0">
          <Node pos="l" depth="2" NCoef="0" IVar="3" Cut="148100" cType="1" res="0.0521932" purity="0.581791" nType="0">
            <Node pos="l" depth="3" NCoef="0" IVar="-1" Cut="0" cType="1" res="0.00359125" purity="0.625309" nType="-99"/>
            <Node pos="r" depth="3" NCoef="0" IVar="1" Cut="136062" cType="1" res="0.0393269" purity="0.566815" nType="0">
              <Node pos="l" depth="4" NCoef="0" IVar="-1" Cut="0" cType="1" res="0.00237208" purity="0.577394" nType="-99"/>
              <Node pos="r" depth="4" NCoef="0" IVar="-1" Cut="0" cType="1" res="-0.00063928" purity="0.532682" nType="-99"/>
            </Node>
          </Node>
          <Node pos="r" depth="2" NCoef="0" IVar="-1" Cut="0" cType="1" res="-0.00146382" purity="0.46965" nType="-99"/>
        </Node>
      </Node>
    </BinaryTree>
    <BinaryTree type="DecisionTree" boostWeight="1.0" itree="79">
      <Node pos="s" depth="0" NCoef="0" IVar="2" Cut="24257.1" cType="1" res="0.00452637" purity="0.49484" nType="0">
        <Node pos="l" depth="1" NCoef="0" IVar="2" Cut="-19622.2" cType="1" res="-0.00149775" purity="0.476011" nType="0">
          <Node pos="l" depth="2" NCoef="0" IVar="-1" Cut="0" cType="1" res="-0.00527254" purity="0.335376" nType="-99"/>
          <Node pos="r" depth="2" NCoef="0" IVar="1" Cut="100244" cType="1" res="0.00229775" purity="0.482669" nType="0">
            <Node pos="l" depth="3" NCoef="0" IVar="1" Cut="96995.4" cType="1" res="-0.0199189" purity="0.44171" nType="0">
              <Node pos="l" depth="4" NCoef="0" IVar="-1" Cut="0" cType="1" res="-0.000246555" purity="0.45728" nType="-99"/>
              <Node pos="r" depth="4" NCoef="0" IVar="-1" Cut="0" cType="1" res="-0.00335423" purity="0.39786" nType="-99"/>
            </Node>
            <Node pos="r" depth="3" NCoef="0" IVar="5" Cut="1.8206" cType="1" res="0.0115361" purity="0.4997" nType="0">
              <Node pos="l" depth="4" NCoef="0" IVar="-1" Cut="0" cType="1" res="0.0014389" purity="0.530442" nType="-99"/>
              <Node pos="r" depth="4" NCoef="0" IVar="-1" Cut="0" cType="1" res="-0.000971661" purity="0.455857" nType="-99"/>
            </Node>
          </Node>
        </Node>
        <Node pos="r" depth="1" NCoef="0" IVar="-1" Cut="0" cType="1" res="0.00247482" purity="0.673525" nType="-99"/>
      </Node>
    </BinaryTree>
    <BinaryTree type="DecisionTree" boostWeight="1.0" itree="80">
      <Node pos="s" depth="0" NCoef="0" IVar="0" Cut="109758" cType="1" res="0.0116599" purity="0.501303" nType="0">
        <Node pos="l" depth="1" NCoef="0" IVar="4" Cut="207018" cType="1" res="-0.0320731" purity="0.419385" nType="0">
          <Node pos="l" depth="2" NCoef="0" IVar="-1" Cut="0" cType="1" res="0.000179128" purity="0.489983" nType="-99"/>
          <Node pos="r" depth="2" NCoef="0" IVar="0" Cut="104764" cType="1" res="-0.0591216" purity="0.365832" nType="0">
            <Node pos="l" depth="3" NCoef="0" IVar="-1" Cut="0" cType="1" res="-0.00143487" purity="0.400984" nType="-99"/>
            <Node pos="r" depth="3" NCoef="0" IVar="-1" Cut="0" cType="1" res="-0.00701198" purity="0.324727" nType="-99"/>
          </Node>
        </Node>
        <Node pos="r" depth="1" NCoef="0" IVar="2" Cut="27653.5" cType="1" res="0.0209007" purity="0.518613" nType="0">
          <Node pos="l" depth="2" NCoef="0" IVar="6" Cut="1.53254" cType="1" res="0.0163595" purity="0.50469" nType="0">
            <Node pos="l" depth="3" NCoef="0" IVar="1" Cut="161650" cType="1" res="-0.00746047" purity="0.488244" nType="0">
              <Node pos="l" depth="4" NCoef="0" IVar="-1" Cut="0" cType="1" res="0.000172955" purity="0.497353" nType="-99"/>
              <Node pos="r" depth="4" NCoef="0" IVar="-1" Cut="0" cType="1" res="-0.00322013" purity="0.443083" nType="-99"/>
            </Node>
            <Node pos="r" depth="3" NCoef="0" IVar="5" Cut="0.809743" cType="1" res="0.0289388" purity="0.513375" nType="0">
              <Node pos="l" depth="4" NCoef="0" IVar="-1" Cut="0" cType="1" res="-0.00141999" purity="0.47813" nType="-99"/>
              <Node pos="r" depth="4" NCoef="0" IVar="-1" Cut="0" cType="1" res="0.00173095" purity="0.518389" nType="-99"/>
            </Node>
          </Node>
          <Node pos="r" depth="2" NCoef="0" IVar="-1" Cut="0" cType="1" res="0.00314145" purity="0.704947" nType="-99"/>
        </Node>
      </Node>
    </BinaryTree>
    <BinaryTree type="DecisionTree" boostWeight="1.0" itree="81">
      <Node pos="s" depth="0" NCoef="0" IVar="4" Cut="178077" cType="1" res="0.00820597" purity="0.499131" nType="0">
        <Node pos="l" depth="1" NCoef="0" IVar="2" Cut="7378.15" cType="1" res="0.0386217" purity="0.567531" nType="0">
          <Node pos="l" depth="2" NCoef="0" IVar="2" Cut="447.888" cType="1" res="0.00501893" purity="0.471042" nType="0">
            <Node pos="l" depth="3" NCoef="0" IVar="-1" Cut="0" cType="1" res="0.00227184" purity="0.503422" nType="-99"/>
            <Node pos="r" depth="3" NCoef="0" IVar="-1" Cut="0" cType="1" res="-0.00308964" purity="0.425095" nType="-99"/>
          </Node>
          <Node pos="r" depth="2" NCoef="0" IVar="1" Cut="104519" cType="1" res="0.0678529" purity="0.651468" nType="0">
            <Node pos="l" depth="3" NCoef="0" IVar="-1" Cut="0" cType="1" res="0.00147027" purity="0.597879" nType="-99"/>
            <Node pos="r" depth="3" NCoef="0" IVar="-1" Cut="0" cType="1" res="0.00362684" purity="0.697016" nType="-99"/>
          </Node>
        </Node>
        <Node pos="r" depth="1" NCoef="0" IVar="5" Cut="2.23669" cType="1" res="-0.00130807" purity="0.477736" nType="0">
          <Node pos="l" depth="2" NCoef="0" IVar="1" Cut="140978" cType="1" res="0.00736889" purity="0.489931" nType="0">
            <Node pos="l" depth="3" NCoef="0" IVar="3" Cut="212411" cType="1" res="-0.00255924" purity="0.473757" nType="0">
              <Node pos="l" depth="4" NCoef="0" IVar="-1" Cut="0" cType="1" res="0.000191116" purity="0.480967" nType="-99"/>
              <Node pos="r" depth="4" NCoef="0" IVar="-1" Cut="0" cType="1" res="-0.00436549" purity="0.392682" nType="-99"/>
            </Node>
            <Node pos="r" depth="3" NCoef="0" IVar="6" Cut="1.91465" cType="1" res="0.0526656" purity="0.563721" nType="0">
              <Node pos="l" depth="4" NCoef="0" IVar="-1" Cut="0" cType="1" res="0.00046452" purity="0.547882" nType="-99"/>
              <Node pos="r" depth="4" NCoef="0" IVar="-1" Cut="0" cType="1" res="0.00405542" purity="0.579913" nType="-99"/>
            </Node>
          </Node>
          <Node pos="r" depth="2" NCoef="0" IVar="1" Cut="151833" cType="1" res="-0.0360799" purity="0.428866" nType="0">
            <Node pos="l" depth="3" NCoef="0" IVar="-1" Cut="0" cType="1" res="0.00052253" purity="0.473552" nType="-99"/>
            <Node pos="r" depth="3" NCoef="0" IVar="-1" Cut="0" cType="1" res="-0.00486034" purity="0.383623" nType="-99"/>
          </Node>
        </Node>
      </Node>
    </BinaryTree>
    <BinaryTree type="DecisionTree" boostWeight="1.0" itree="82">
      <Node pos="s" depth="0" NCoef="0" IVar="2" Cut="7153.2" cType="1" res="0.0176317" purity="0.508372" nType="0">
        <Node pos="l" depth="1" NCoef="0" IVar="4" Cut="236766" cType="1" res="0.000947409" purity="0.447493" nType="0">
          <Node pos="l" depth="2" NCoef="0" IVar="0" Cut="192615" cType="1" res="-0.0220475" purity="0.436628" nType="0">
            <Node pos="l" depth="3" NCoef="0" IVar="5" Cut="1.27589" cType="1" res="-0.0337655" purity="0.416275" nType="0">
              <Node pos="l" depth="4" NCoef="0" IVar="-1" Cut="0" cType="1" res="-0.00436879" purity="0.368923" nType="-99"/>
              <Node pos="r" depth="4" NCoef="0" IVar="-1" Cut="0" cType="1" res="-0.000448882" purity="0.447358" nType="-99"/>
            </Node>
            <Node pos="r" depth="3" NCoef="0" IVar="-1" Cut="0" cType="1" res="0.00212801" purity="0.559857" nType="-99"/>
          </Node>
          <Node pos="r" depth="2" NCoef="0" IVar="1" Cut="95122.5" cType="1" res="0.0222699" purity="0.457568" nType="0">
            <Node pos="l" depth="3" NCoef="0" IVar="-1" Cut="0" cType="1" res="0.00348739" purity="0.497545" nType="-99"/>
            <Node pos="r" depth="3" NCoef="0" IVar="1" Cut="105137" cType="1" res="0.0134664" purity="0.45112" nType="0">
              <Node pos="l" depth="4" NCoef="0" IVar="-1" Cut="0" cType="1" res="-0.00400785" purity="0.358243" nType="-99"/>
              <Node pos="r" depth="4" NCoef="0" IVar="-1" Cut="0" cType="1" res="0.00157873" purity="0.474096" nType="-99"/>
            </Node>
          </Node>
        </Node>
        <Node pos="r" depth="1" NCoef="0" IVar="1" Cut="146299" cType="1" res="0.0417425" purity="0.596349" nType="0">
          <Node pos="l" depth="2" NCoef="0" IVar="1" Cut="100988" cType="1" res="0.0561911" purity="0.611715" nType="0">
            <Node pos="l" depth="3" NCoef="0" IVar="1" Cut="95628.9" cType="1" res="0.0104842" purity="0.547294" nType="0">
              <Node pos="l" depth="4" NCoef="0" IVar="-1" Cut="0" cType="1" res="0.0019764" purity="0.581764" nType="-99"/>
              <Node pos="r" depth="4" NCoef="0" IVar="-1" Cut="0" cType="1" res="-0.00181344" purity="0.498997" nType="-99"/>
            </Node>
            <Node pos="r" depth="3" NCoef="0" IVar="0" Cut="134151" cType="1" res="0.0776668" purity="0.641984" nType="0">
              <Node pos="l" depth="4" NCoef="0" IVar="-1" Cut="0" cType="1" res="0.00193928" purity="0.589094" nType="-99"/>
              <Node pos="r" depth="4" NCoef="0" IVar="-1" Cut="0" cType="1" res="0.00412423" purity="0.698583" nType="-99"/>
            </Node>
          </Node>
          <Node pos="r" depth="2" NCoef="0" IVar="5" Cut="2.13751" cType="1" res="-0.0156225" purity="0.535342" nType="0">
            <Node pos="l" depth="3" NCoef="0" IVar="-1" Cut="0" cType="1" res="0.00172575" purity="0.621508" nType="-99"/>
            <Node pos="r" depth="3" NCoef="0" IVar="-1" Cut="0" cType="1" res="-0.00364434" purity="0.453834" nType="-99"/>
          </Node>
        </Node>
      </Node>
    </BinaryTree>
    <BinaryTree type="DecisionTree" boostWeight="1.0" itree="83">
      <Node pos="s" depth="0" NCoef="0" IVar="4" Cut="246374" cType="1" res="0.0113318" purity="0.503999" nType="0">
        <Node pos="l" depth="1" NCoef="0" IVar="6" Cut="0.613521" cType="1" res="0.030945" purity="0.540715" nType="0">
          <Node pos="l" depth="2" NCoef="0" IVar="-1" Cut="0" cType="1" res="-0.00146383" purity="0.466402" nType="-99"/>
          <Node pos="r" depth="2" NCoef="0" IVar="6" Cut="2.46319" cType="1" res="0.0400819" purity="0.551967" nType="0">
            <Node pos="l" depth="3" NCoef="0" IVar="4" Cut="221396" cType="1" res="0.0570762" purity="0.586631" nType="0">
              <Node pos="l" depth="4" NCoef="0" IVar="-1" Cut="0" cType="1" res="0.00194913" purity="0.578965" nType="-99"/>
              <Node pos="r" depth="4" NCoef="0" IVar="-1" Cut="0" cType="1" res="0.0044389" purity="0.619797" nType="-99"/>
            </Node>
            <Node pos="r" depth="3" NCoef="0" IVar="0" Cut="153644" cType="1" res="-0.00637146" purity="0.457214" nType="0">
              <Node pos="l" depth="4" NCoef="0" IVar="-1" Cut="0" cType="1" res="-0.0019993" purity="0.401276" nType="-99"/>
              <Node pos="r" depth="4" NCoef="0" IVar="-1" Cut="0" cType="1" res="0.00179961" purity="0.546431" nType="-99"/>
            </Node>
          </Node>
        </Node>
        <Node pos="r" depth="1" NCoef="0" IVar="1" Cut="141179" cType="1" res="-0.0169917" purity="0.450977" nType="0">
          <Node pos="l" depth="2" NCoef="0" IVar="6" Cut="2.75846" cType="1" res="-0.044045" purity="0.415672" nType="0">
            <Node pos="l" depth="3" NCoef="0" IVar="5" Cut="1.54942" cType="1" res="-0.0285466" purity="0.440182" nType="0">
              <Node pos="l" depth="4" NCoef="0" IVar="-1" Cut="0" cType="1" res="-0.000533871" purity="0.468267" nType="-99"/>
              <Node pos="r" depth="4" NCoef="0" IVar="-1" Cut="0" cType="1" res="-0.00411246" purity="0.377842" nType="-99"/>
            </Node>
            <Node pos="r" depth="3" NCoef="0" IVar="-1" Cut="0" cType="1" res="-0.00779075" purity="0.306128" nType="-99"/>
          </Node>
          <Node pos="r" depth="2" NCoef="0" IVar="1" Cut="164401" cType="1" res="0.024845" purity="0.505575" nType="0">
            <Node pos="l" depth="3" NCoef="0" IVar="-1" Cut="0" cType="1" res="0.00357805" purity="0.567807" nType="-99"/>
            <Node pos="r" depth="3" NCoef="0" IVar="3" Cut="155444" cType="1" res="-0.00854786" purity="0.470783" nType="0">
              <Node pos="l" depth="4" NCoef="0" IVar="-1" Cut="0" cType="1" res="0.00176231" purity="0.527867" nType="-99"/>
              <Node pos="r" depth="4" NCoef="0" IVar="-1" Cut="0" cType="1" res="-0.00219493" purity="0.433656" nType="-99"/>
            </Node>
          </Node>
        </Node>
      </Node>
    </BinaryTree>
    <BinaryTree type="DecisionTree" boostWeight="1.0" itree="84">
      <Node pos="s" depth="0" NCoef="0" IVar="2" Cut="24072.5" cType="1" res="0.00810785" purity="0.499188" nType="0">
        <Node pos="l" depth="1" NCoef="0" IVar="0" Cut="109756" cType="1" res="0.00225053" purity="0.479963" nType="0">
          <Node pos="l" depth="2" NCoef="0" IVar="0" Cut="105711" cType="1" res="-0.0367222" purity="0.400742" nType="0">
            <Node pos="l" depth="3" NCoef="0" IVar="4" Cut="228167" cType="1" res="-0.0122415" purity="0.427078" nType="0">
              <Node pos="l" depth="4" NCoef="0" IVar="-1" Cut="0" cType="1" res="0.000809772" purity="0.482006" nType="-99"/>
              <Node pos="r" depth="4" NCoef="0" IVar="-1" Cut="0" cType="1" res="-0.00307964" purity="0.355832" nType="-99"/>
            </Node>
            <Node pos="r" depth="3" NCoef="0" IVar="-1" Cut="0" cType="1" res="-0.00471999" purity="0.358401" nType="-99"/>
          </Node>
          <Node pos="r" depth="2" NCoef="0" IVar="4" Cut="392803" cType="1" res="0.010316" purity="0.496358" nType="0">
            <Node pos="l" depth="3" NCoef="0" IVar="4" Cut="328633" cType="1" res="0.015842" purity="0.505972" nType="0">
              <Node pos="l" depth="4" NCoef="0" IVar="-1" Cut="0" cType="1" res="0.000413444" purity="0.504131" nType="-99"/>
              <Node pos="r" depth="4" NCoef="0" IVar="-1" Cut="0" cType="1" res="0.00283625" purity="0.517621" nType="-99"/>
            </Node>
            <Node pos="r" depth="3" NCoef="0" IVar="-1" Cut="0" cType="1" res="-0.00218781" purity="0.408573" nType="-99"/>
          </Node>
        </Node>
        <Node pos="r" depth="1" NCoef="0" IVar="-1" Cut="0" cType="1" res="0.00251172" purity="0.680589" nType="-99"/>
      </Node>
    </BinaryTree>
    <BinaryTree type="DecisionTree" boostWeight="1.0" itree="85">
      <Node pos="s" depth="0" NCoef="0" IVar="2" Cut="24530.2" cType="1" res="-0.00534752" purity="0.485884" nType="0">
        <Node pos="l" depth="1" NCoef="0" IVar="1" Cut="105367" cType="1" res="-0.0128025" purity="0.465262" nType="0">
          <Node pos="l" depth="2" NCoef="0" IVar="0" Cut="207303" cType="1" res="-0.0367559" purity="0.424876" nType="0">
            <Node pos="l" depth="3" NCoef="0" IVar="2" Cut="-3800.95" cType="1" res="-0.0479563" purity="0.406484" nType="0">
              <Node pos="l" depth="4" NCoef="0" IVar="-1" Cut="0" cType="1" res="1.78393e-05" purity="0.412953" nType="-99"/>
              <Node pos="r" depth="4" NCoef="0" IVar="-1" Cut="0" cType="1" res="-0.00401052" purity="0.403601" nType="-99"/>
            </Node>
            <Node pos="r" depth="3" NCoef="0" IVar="-1" Cut="0" cType="1" res="0.0018704" purity="0.552208" nType="-99"/>
          </Node>
          <Node pos="r" depth="2" NCoef="0" IVar="5" Cut="2.09464" cType="1" res="0.00306288" purity="0.492011" nType="0">
            <Node pos="l" depth="3" NCoef="0" IVar="0" Cut="168299" cType="1" res="0.0230639" purity="0.52425" nType="0">
              <Node pos="l" depth="4" NCoef="0" IVar="-1" Cut="0" cType="1" res="0.000224598" purity="0.489307" nType="-99"/>
              <Node pos="r" depth="4" NCoef="0" IVar="-1" Cut="0" cType="1" res="0.0027714" purity="0.613017" nType="-99"/>
            </Node>
            <Node pos="r" depth="3" NCoef="0" IVar="4" Cut="339773" cType="1" res="-0.0372775" purity="0.426989" nType="0">
              <Node pos="l" depth="4" NCoef="0" IVar="-1" Cut="0" cType="1" res="-0.00104462" purity="0.456388" nType="-99"/>
              <Node pos="r" depth="4" NCoef="0" IVar="-1" Cut="0" cType="1" res="-0.00619119" purity="0.33259" nType="-99"/>
            </Node>
          </Node>
        </Node>
        <Node pos="r" depth="1" NCoef="0" IVar="-1" Cut="0" cType="1" res="0.00255673" purity="0.683478" nType="-99"/>
      </Node>
    </BinaryTree>
    <BinaryTree type="DecisionTree" boostWeight="1.0" itree="86">
      <Node pos="s" depth="0" NCoef="0" IVar="2" Cut="3837.17" cType="1" res="-0.00296477" purity="0.488888" nType="0">
        <Node pos="l" depth="1" NCoef="0" IVar="0" Cut="212149" cType="1" res="-0.0328121" purity="0.406863" nType="0">
          <Node pos="l" depth="2" NCoef="0" IVar="2" Cut="-12171.9" cType="1" res="-0.0397118" purity="0.392842" nType="0">
            <Node pos="l" depth="3" NCoef="0" IVar="5" Cut="1.44513" cType="1" res="-0.0854573" purity="0.33001" nType="0">
              <Node pos="l" depth="4" NCoef="0" IVar="-1" Cut="0" cType="1" res="-0.00239637" purity="0.378521" nType="-99"/>
              <Node pos="r" depth="4" NCoef="0" IVar="-1" Cut="0" cType="1" res="-0.00963424" purity="0.280696" nType="-99"/>
            </Node>
            <Node pos="r" depth="3" NCoef="0" IVar="3" Cut="188884" cType="1" res="-0.0278593" purity="0.409122" nType="0">
              <Node pos="l" depth="4" NCoef="0" IVar="-1" Cut="0" cType="1" res="-0.00244466" purity="0.395757" nType="-99"/>
              <Node pos="r" depth="4" NCoef="0" IVar="-1" Cut="0" cType="1" res="0.000737084" purity="0.446337" nType="-99"/>
            </Node>
          </Node>
          <Node pos="r" depth="2" NCoef="0" IVar="-1" Cut="0" cType="1" res="0.0016434" purity="0.548501" nType="-99"/>
        </Node>
        <Node pos="r" depth="1" NCoef="0" IVar="6" Cut="1.28647" cType="1" res="0.0247711" purity="0.56511" nType="0">
          <Node pos="l" depth="2" NCoef="0" IVar="0" Cut="109774" cType="1" res="-0.00498784" purity="0.517651" nType="0">
            <Node pos="l" depth="3" NCoef="0" IVar="-1" Cut="0" cType="1" res="-0.00266006" purity="0.453189" nType="-99"/>
            <Node pos="r" depth="3" NCoef="0" IVar="1" Cut="161594" cType="1" res="0.00801872" purity="0.535331" nType="0">
              <Node pos="l" depth="4" NCoef="0" IVar="-1" Cut="0" cType="1" res="0.00102849" purity="0.553545" nType="-99"/>
              <Node pos="r" depth="4" NCoef="0" IVar="-1" Cut="0" cType="1" res="-0.00222446" purity="0.47168" nType="-99"/>
            </Node>
          </Node>
          <Node pos="r" depth="2" NCoef="0" IVar="3" Cut="189747" cType="1" res="0.0493152" purity="0.604252" nType="0">
            <Node pos="l" depth="3" NCoef="0" IVar="2" Cut="13033.2" cType="1" res="0.0628617" purity="0.621317" nType="0">
              <Node pos="l" depth="4" NCoef="0" IVar="-1" Cut="0" cType="1" res="0.00178485" purity="0.552994" nType="-99"/>
              <Node pos="r" depth="4" NCoef="0" IVar="-1" Cut="0" cType="1" res="0.0034302" purity="0.700401" nType="-99"/>
            </Node>
            <Node pos="r" depth="3" NCoef="0" IVar="-1" Cut="0" cType="1" res="-0.000310287" purity="0.533426" nType="-99"/>
          </Node>
        </Node>
      </Node>
    </BinaryTree>
    <BinaryTree type="DecisionTree" boostWeight="1.0" itree="87">
      <Node pos="s" depth="0" NCoef="0" IVar="0" Cut="109765" cType="1" res="0.00287623" purity="0.493586" nType="0">
        <Node pos="l" depth="1" NCoef="0" IVar="0" Cut="106670" cType="1" res="-0.0539548" purity="0.396243" nType="0">
          <Node pos="l" depth="2" NCoef="0" IVar="0" Cut="103421" cType="1" res="-0.0284214" purity="0.424088" nType="0">
            <Node pos="l" depth="3" NCoef="0" IVar="-1" Cut="0" cType="1" res="-0.00440842" purity="0.379105" nType="-99"/>
            <Node pos="r" depth="3" NCoef="0" IVar="-1" Cut="0" cType="1" res="0.00083257" purity="0.46957" nType="-99"/>
          </Node>
          <Node pos="r" depth="2" NCoef="0" IVar="-1" Cut="0" cType="1" res="-0.00833726" purity="0.31985" nType="-99"/>
        </Node>
        <Node pos="r" depth="1" NCoef="0" IVar="0" Cut="207198" cType="1" res="0.0149278" purity="0.514228" nType="0">
          <Node pos="l" depth="2" NCoef="0" IVar="1" Cut="115484" cType="1" res="0.00781562" purity="0.499345" nType="0">
            <Node pos="l" depth="3" NCoef="0" IVar="1" Cut="101186" cType="1" res="-0.0130023" purity="0.464459" nType="0">
              <Node pos="l" depth="4" NCoef="0" IVar="-1" Cut="0" cType="1" res="0.000303214" purity="0.470524" nType="-99"/>
              <Node pos="r" depth="4" NCoef="0" IVar="-1" Cut="0" cType="1" res="-0.00203946" purity="0.456144" nType="-99"/>
            </Node>
            <Node pos="r" depth="3" NCoef="0" IVar="2" Cut="-5949.3" cType="1" res="0.0330129" purity="0.541569" nType="0">
              <Node pos="l" depth="4" NCoef="0" IVar="-1" Cut="0" cType="1" res="-0.00181595" purity="0.405873" nType="-99"/>
              <Node pos="r" depth="4" NCoef="0" IVar="-1" Cut="0" cType="1" res="0.00204589" purity="0.572332" nType="-99"/>
            </Node>
          </Node>
          <Node pos="r" depth="2" NCoef="0" IVar="5" Cut="1.03257" cType="1" res="0.0584434" purity="0.605294" nType="0">
            <Node pos="l" depth="3" NCoef="0" IVar="-1" Cut="0" cType="1" res="0.00399546" purity="0.647695" nType="-99"/>
            <Node pos="r" depth="3" NCoef="0" IVar="-1" Cut="0" cType="1" res="-0.000461382" purity="0.538733" nType="-99"/>
          </Node>
        </Node>
      </Node>
    </BinaryTree>
    <BinaryTree type="DecisionTree" boostWeight="1.0" itree="88">
      <Node pos="s" depth="0" NCoef="0" IVar="3" Cut="166206" cType="1" res="0.00602539" purity="0.494744" nType="0">
        <Node pos="l" depth="1" NCoef="0" IVar="1" Cut="130902" cType="1" res="-0.0185561" purity="0.473297" nType="0">
          <Node pos="l" depth="2" NCoef="0" IVar="4" Cut="217415" cType="1" res="-0.0353914" purity="0.451253" nType="0">
            <Node pos="l" depth="3" NCoef="0" IVar="0" Cut="119532" cType="1" res="-0.00538485" purity="0.503402" nType="0">
              <Node pos="l" depth="4" NCoef="0" IVar="-1" Cut="0" cType="1" res="0.00185109" purity="0.524355" nType="-99"/>
              <Node pos="r" depth="4" NCoef="0" IVar="-1" Cut="0" cType="1" res="-0.00184849" purity="0.489194" nType="-99"/>
            </Node>
            <Node pos="r" depth="3" NCoef="0" IVar="0" Cut="119511" cType="1" res="-0.0754595" purity="0.381617" nType="0">
              <Node pos="l" depth="4" NCoef="0" IVar="-1" Cut="0" cType="1" res="-0.0093141" purity="0.289523" nType="-99"/>
              <Node pos="r" depth="4" NCoef="0" IVar="-1" Cut="0" cType="1" res="-0.00260315" purity="0.430208" nType="-99"/>
            </Node>
          </Node>
          <Node pos="r" depth="2" NCoef="0" IVar="6" Cut="1.60924" cType="1" res="0.0198562" purity="0.523595" nType="0">
            <Node pos="l" depth="3" NCoef="0" IVar="-1" Cut="0" cType="1" res="-0.000355073" purity="0.520997" nType="-99"/>
            <Node pos="r" depth="3" NCoef="0" IVar="-1" Cut="0" cType="1" res="0.00206147" purity="0.526147" nType="-99"/>
          </Node>
        </Node>
        <Node pos="r" depth="1" NCoef="0" IVar="0" Cut="134149" cType="1" res="0.0251298" purity="0.511412" nType="0">
          <Node pos="l" depth="2" NCoef="0" IVar="4" Cut="285378" cType="1" res="0.00335924" purity="0.46155" nType="0">
            <Node pos="l" depth="3" NCoef="0" IVar="3" Cut="179208" cType="1" res="0.0192413" purity="0.492678" nType="0">
              <Node pos="l" depth="4" NCoef="0" IVar="-1" Cut="0" cType="1" res="0.00282323" purity="0.54397" nType="-99"/>
              <Node pos="r" depth="4" NCoef="0" IVar="-1" Cut="0" cType="1" res="-0.000618312" purity="0.455468" nType="-99"/>
            </Node>
            <Node pos="r" depth="3" NCoef="0" IVar="-1" Cut="0" cType="1" res="-0.00285897" purity="0.364231" nType="-99"/>
          </Node>
          <Node pos="r" depth="2" NCoef="0" IVar="4" Cut="168647" cType="1" res="0.0453699" purity="0.557769" nType="0">
            <Node pos="l" depth="3" NCoef="0" IVar="-1" Cut="0" cType="1" res="0.00365261" purity="0.634885" nType="-99"/>
            <Node pos="r" depth="3" NCoef="0" IVar="4" Cut="370692" cType="1" res="0.0362168" purity="0.541404" nType="0">
              <Node pos="l" depth="4" NCoef="0" IVar="-1" Cut="0" cType="1" res="0.000995623" purity="0.534348" nType="-99"/>
              <Node pos="r" depth="4" NCoef="0" IVar="-1" Cut="0" cType="1" res="0.00365307" purity="0.567536" nType="-99"/>
            </Node>
          </Node>
        </Node>
      </Node>
    </BinaryTree>
    <BinaryTree type="DecisionTree" boostWeight="1.0" itree="89">
      <Node pos="s" depth="0" NCoef="0" IVar="1" Cut="115605" cType="1" res="0.00412531" purity="0.495007" nType="0">
        <Node pos="l" depth="1" NCoef="0" IVar="0" Cut="192645" cType="1" res="-0.0150213" purity="0.463194" nType="0">
          <Node pos="l" depth="2" NCoef="0" IVar="1" Cut="91875.2" cType="1" res="-0.0279584" purity="0.440208" nType="0">
            <Node pos="l" depth="3" NCoef="0" IVar="-1" Cut="0" cType="1" res="-0.00561532" purity="0.363829" nType="-99"/>
            <Node pos="r" depth="3" NCoef="0" IVar="5" Cut="1.08015" cType="1" res="-0.0211683" purity="0.448384" nType="0">
              <Node pos="l" depth="4" NCoef="0" IVar="-1" Cut="0" cType="1" res="-0.00252757" purity="0.439479" nType="-99"/>
              <Node pos="r" depth="4" NCoef="0" IVar="-1" Cut="0" cType="1" res="-0.000367804" purity="0.453105" nType="-99"/>
            </Node>
          </Node>
          <Node pos="r" depth="2" NCoef="0" IVar="5" Cut="0.870376" cType="1" res="0.0496524" purity="0.578103" nType="0">
            <Node pos="l" depth="3" NCoef="0" IVar="-1" Cut="0" cType="1" res="0.000778956" purity="0.551183" nType="-99"/>
            <Node pos="r" depth="3" NCoef="0" IVar="-1" Cut="0" cType="1" res="0.00355767" purity="0.608939" nType="-99"/>
          </Node>
        </Node>
        <Node pos="r" depth="1" NCoef="0" IVar="5" Cut="2.10618" cType="1" res="0.0281448" purity="0.534915" nType="0">
          <Node pos="l" depth="2" NCoef="0" IVar="3" Cut="182749" cType="1" res="0.0551306" purity="0.579773" nType="0">
            <Node pos="l" depth="3" NCoef="0" IVar="1" Cut="138089" cType="1" res="0.067972" purity="0.598384" nType="0">
              <Node pos="l" depth="4" NCoef="0" IVar="-1" Cut="0" cType="1" res="0.00204159" purity="0.575941" nType="-99"/>
              <Node pos="r" depth="4" NCoef="0" IVar="-1" Cut="0" cType="1" res="0.00383686" purity="0.628433" nType="-99"/>
            </Node>
            <Node pos="r" depth="3" NCoef="0" IVar="-1" Cut="0" cType="1" res="0.000941607" purity="0.530369" nType="-99"/>
          </Node>
          <Node pos="r" depth="2" NCoef="0" IVar="1" Cut="156078" cType="1" res="-0.0143519" purity="0.464274" nType="0">
            <Node pos="l" depth="3" NCoef="0" IVar="-1" Cut="0" cType="1" res="0.00126809" purity="0.513999" nType="-99"/>
            <Node pos="r" depth="3" NCoef="0" IVar="4" Cut="326783" cType="1" res="-0.0556874" purity="0.413916" nType="0">
              <Node pos="l" depth="4" NCoef="0" IVar="-1" Cut="0" cType="1" res="-0.00462808" purity="0.412702" nType="-99"/>
              <Node pos="r" depth="4" NCoef="0" IVar="-1" Cut="0" cType="1" res="-0.00147523" purity="0.415197" nType="-99"/>
            </Node>
          </Node>
        </Node>
      </Node>
    </BinaryTree>
    <BinaryTree type="DecisionTree" boostWeight="1.0" itree="90">
      <Node pos="s" depth="0" NCoef="0" IVar="4" Cut="421952" cType="1" res="0.0102587" purity="0.500691" nType="0">
        <Node pos="l" depth="1" NCoef="0" IVar="3" Cut="171360" cType="1" res="0.0144466" purity="0.507514" nType="0">
          <Node pos="l" depth="2" NCoef="0" IVar="2" Cut="3840.95" cType="1" res="0.029488" purity="0.528816" nType="0">
            <Node pos="l" depth="3" NCoef="0" IVar="4" Cut="196002" cType="1" res="0.00340255" purity="0.446302" nType="0">
              <Node pos="l" depth="4" NCoef="0" IVar="-1" Cut="0" cType="1" res="-0.00216254" purity="0.418857" nType="-99"/>
              <Node pos="r" depth="4" NCoef="0" IVar="-1" Cut="0" cType="1" res="0.00101937" purity="0.456976" nType="-99"/>
            </Node>
            <Node pos="r" depth="3" NCoef="0" IVar="6" Cut="1.80712" cType="1" res="0.0515086" purity="0.598472" nType="0">
              <Node pos="l" depth="4" NCoef="0" IVar="-1" Cut="0" cType="1" res="0.000985514" purity="0.566778" nType="-99"/>
              <Node pos="r" depth="4" NCoef="0" IVar="-1" Cut="0" cType="1" res="0.00448827" purity="0.667065" nType="-99"/>
            </Node>
          </Node>
          <Node pos="r" depth="2" NCoef="0" IVar="4" Cut="225655" cType="1" res="-0.00403344" purity="0.481342" nType="0">
            <Node pos="l" depth="3" NCoef="0" IVar="5" Cut="1.22954" cType="1" res="0.0290425" purity="0.532769" nType="0">
              <Node pos="l" depth="4" NCoef="0" IVar="-1" Cut="0" cType="1" res="-0.000251123" purity="0.508902" nType="-99"/>
              <Node pos="r" depth="4" NCoef="0" IVar="-1" Cut="0" cType="1" res="0.0025171" purity="0.551787" nType="-99"/>
            </Node>
            <Node pos="r" depth="3" NCoef="0" IVar="0" Cut="114645" cType="1" res="-0.0409403" purity="0.423959" nType="0">
              <Node pos="l" depth="4" NCoef="0" IVar="-1" Cut="0" cType="1" res="-0.00738476" purity="0.300191" nType="-99"/>
              <Node pos="r" depth="4" NCoef="0" IVar="-1" Cut="0" cType="1" res="-0.00113157" purity="0.460236" nType="-99"/>
            </Node>
          </Node>
        </Node>
        <Node pos="r" depth="1" NCoef="0" IVar="-1" Cut="0" cType="1" res="-0.00359066" purity="0.384261" nType="-99"/>
      </Node>
    </BinaryTree>
    <BinaryTree type="DecisionTree" boostWeight="1.0" itree="91">
      <Node pos="s" depth="0" NCoef="0" IVar="4" Cut="207345" cType="1" res="0.0176298" purity="0.507951" nType="0">
        <Node pos="l" depth="1" NCoef="0" IVar="6" Cut="1.45572" cType="1" res="0.043852" purity="0.559977" nType="0">
          <Node pos="l" depth="2" NCoef="0" IVar="5" Cut="1.47179" cType="1" res="0.00492307" purity="0.522696" nType="0">
            <Node pos="l" depth="3" NCoef="0" IVar="-1" Cut="0" cType="1" res="-0.00123699" purity="0.485425" nType="-99"/>
            <Node pos="r" depth="3" NCoef="0" IVar="-1" Cut="0" cType="1" res="0.00173523" purity="0.564402" nType="-99"/>
          </Node>
          <Node pos="r" depth="2" NCoef="0" IVar="4" Cut="149759" cType="1" res="0.0658124" purity="0.581007" nType="0">
            <Node pos="l" depth="3" NCoef="0" IVar="-1" Cut="0" cType="1" res="0.000413554" purity="0.54653" nType="-99"/>
            <Node pos="r" depth="3" NCoef="0" IVar="0" Cut="119530" cType="1" res="0.0775217" purity="0.588071" nType="0">
              <Node pos="l" depth="4" NCoef="0" IVar="-1" Cut="0" cType="1" res="0.00195438" purity="0.509567" nType="-99"/>
              <Node pos="r" depth="4" NCoef="0" IVar="-1" Cut="0" cType="1" res="0.00372377" purity="0.619349" nType="-99"/>
            </Node>
          </Node>
        </Node>
        <Node pos="r" depth="1" NCoef="0" IVar="3" Cut="148124" cType="1" res="-0.00090804" purity="0.471171" nType="0">
          <Node pos="l" depth="2" NCoef="0" IVar="6" Cut="1.07319" cType="1" res="0.0324839" purity="0.510681" nType="0">
            <Node pos="l" depth="3" NCoef="0" IVar="-1" Cut="0" cType="1" res="-0.000984147" purity="0.468007" nType="-99"/>
            <Node pos="r" depth="3" NCoef="0" IVar="5" Cut="1.63848" cType="1" res="0.0509458" purity="0.525638" nType="0">
              <Node pos="l" depth="4" NCoef="0" IVar="-1" Cut="0" cType="1" res="0.00110895" purity="0.514256" nType="-99"/>
              <Node pos="r" depth="4" NCoef="0" IVar="-1" Cut="0" cType="1" res="0.00346659" purity="0.537566" nType="-99"/>
            </Node>
          </Node>
          <Node pos="r" depth="2" NCoef="0" IVar="6" Cut="2.75853" cType="1" res="-0.0133117" purity="0.456494" nType="0">
            <Node pos="l" depth="3" NCoef="0" IVar="1" Cut="156586" cType="1" res="-0.00237256" purity="0.47748" nType="0">
              <Node pos="l" depth="4" NCoef="0" IVar="-1" Cut="0" cType="1" res="0.000571692" purity="0.489695" nType="-99"/>
              <Node pos="r" depth="4" NCoef="0" IVar="-1" Cut="0" cType="1" res="-0.00286716" purity="0.433852" nType="-99"/>
            </Node>
            <Node pos="r" depth="3" NCoef="0" IVar="-1" Cut="0" cType="1" res="-0.00457188" purity="0.343825" nType="-99"/>
          </Node>
        </Node>
      </Node>
    </BinaryTree>
    <BinaryTree type="DecisionTree" boostWeight="1.0" itree="92">
      <Node pos="s" depth="0" NCoef="0" IVar="2" Cut="-19618" cType="1" res="0.00758121" purity="0.495942" nType="0">
        <Node pos="l" depth="1" NCoef="0" IVar="-1" Cut="0" cType="1" res="-0.00539282" purity="0.326769" nType="-99"/>
        <Node pos="r" depth="1" NCoef="0" IVar="5" Cut="0.927668" cType="1" res="0.0114313" purity="0.503264" nType="0">
          <Node pos="l" depth="2" NCoef="0" IVar="6" Cut="2.22212" cType="1" res="-0.0219276" purity="0.499384" nType="0">
            <Node pos="l" depth="3" NCoef="0" IVar="0" Cut="163449" cType="1" res="0.0177418" purity="0.555113" nType="0">
              <Node pos="l" depth="4" NCoef="0" IVar="-1" Cut="0" cType="1" res="-0.000607145" purity="0.510025" nType="-99"/>
              <Node pos="r" depth="4" NCoef="0" IVar="-1" Cut="0" cType="1" res="0.00231787" purity="0.609576" nType="-99"/>
            </Node>
            <Node pos="r" depth="3" NCoef="0" IVar="-1" Cut="0" cType="1" res="-0.0046372" purity="0.41291" nType="-99"/>
          </Node>
          <Node pos="r" depth="2" NCoef="0" IVar="0" Cut="119520" cType="1" res="0.0194163" purity="0.504192" nType="0">
            <Node pos="l" depth="3" NCoef="0" IVar="6" Cut="0.996192" cType="1" res="-0.00322651" purity="0.448364" nType="0">
              <Node pos="l" depth="4" NCoef="0" IVar="-1" Cut="0" cType="1" res="-0.00325127" purity="0.410263" nType="-99"/>
              <Node pos="r" depth="4" NCoef="0" IVar="-1" Cut="0" cType="1" res="0.000825325" purity="0.461937" nType="-99"/>
            </Node>
            <Node pos="r" depth="3" NCoef="0" IVar="3" Cut="153135" cType="1" res="0.0320949" purity="0.535453" nType="0">
              <Node pos="l" depth="4" NCoef="0" IVar="-1" Cut="0" cType="1" res="2.04043e-05" purity="0.509326" nType="-99"/>
              <Node pos="r" depth="4" NCoef="0" IVar="-1" Cut="0" cType="1" res="0.00198859" purity="0.545285" nType="-99"/>
            </Node>
          </Node>
        </Node>
      </Node>
    </BinaryTree>
    <BinaryTree type="DecisionTree" boostWeight="1.0" itree="93">
      <Node pos="s" depth="0" NCoef="0" IVar="1" Cut="156532" cType="1" res="0.00661762" purity="0.496936" nType="0">
        <Node pos="l" depth="1" NCoef="0" IVar="0" Cut="129265" cType="1" res="0.0152517" purity="0.505629" nType="0">
          <Node pos="l" depth="2" NCoef="0" IVar="4" Cut="324205" cType="1" res="-0.00905556" purity="0.452901" nType="0">
            <Node pos="l" depth="3" NCoef="0" IVar="6" Cut="1.99171" cType="1" res="0.00187299" purity="0.47352" nType="0">
              <Node pos="l" depth="4" NCoef="0" IVar="-1" Cut="0" cType="1" res="0.00110806" purity="0.520614" nType="-99"/>
              <Node pos="r" depth="4" NCoef="0" IVar="-1" Cut="0" cType="1" res="-0.00190802" purity="0.399032" nType="-99"/>
            </Node>
            <Node pos="r" depth="3" NCoef="0" IVar="-1" Cut="0" cType="1" res="-0.00619903" purity="0.308936" nType="-99"/>
          </Node>
          <Node pos="r" depth="2" NCoef="0" IVar="1" Cut="106226" cType="1" res="0.0360134" purity="0.550666" nType="0">
            <Node pos="l" depth="3" NCoef="0" IVar="6" Cut="1.60913" cType="1" res="0.0124023" purity="0.503565" nType="0">
              <Node pos="l" depth="4" NCoef="0" IVar="-1" Cut="0" cType="1" res="-0.00266969" purity="0.43191" nType="-99"/>
              <Node pos="r" depth="4" NCoef="0" IVar="-1" Cut="0" cType="1" res="0.00170327" purity="0.5317" nType="-99"/>
            </Node>
            <Node pos="r" depth="3" NCoef="0" IVar="6" Cut="2.29989" cType="1" res="0.0606244" purity="0.599762" nType="0">
              <Node pos="l" depth="4" NCoef="0" IVar="-1" Cut="0" cType="1" res="0.00322874" purity="0.638235" nType="-99"/>
              <Node pos="r" depth="4" NCoef="0" IVar="-1" Cut="0" cType="1" res="0.000443724" purity="0.508106" nType="-99"/>
            </Node>
          </Node>
        </Node>
        <Node pos="r" depth="1" NCoef="0" IVar="3" Cut="172459" cType="1" res="-0.0486261" purity="0.441314" nType="0">
          <Node pos="l" depth="2" NCoef="0" IVar="-1" Cut="0" cType="1" res="-0.000717229" purity="0.483241" nType="-99"/>
          <Node pos="r" depth="2" NCoef="0" IVar="-1" Cut="0" cType="1" res="-0.00550738" purity="0.384204" nType="-99"/>
        </Node>
      </Node>
    </BinaryTree>
    <BinaryTree type="DecisionTree" boostWeight="1.0" itree="94">
      <Node pos="s" depth="0" NCoef="0" IVar="4" Cut="431708" cType="1" res="0.00724768" purity="0.496259" nType="0">
        <Node pos="l" depth="1" NCoef="0" IVar="2" Cut="-12790.2" cType="1" res="0.0101136" purity="0.500976" nType="0">
          <Node pos="l" depth="2" NCoef="0" IVar="4" Cut="255035" cType="1" res="-0.0313182" purity="0.384525" nType="0">
            <Node pos="l" depth="3" NCoef="0" IVar="-1" Cut="0" cType="1" res="-0.000524534" purity="0.422" nType="-99"/>
            <Node pos="r" depth="3" NCoef="0" IVar="-1" Cut="0" cType="1" res="-0.0034922" purity="0.346181" nType="-99"/>
          </Node>
          <Node pos="r" depth="2" NCoef="0" IVar="6" Cut="2.14545" cType="1" res="0.0143279" purity="0.512821" nType="0">
            <Node pos="l" depth="3" NCoef="0" IVar="5" Cut="1.08019" cType="1" res="0.00207581" purity="0.516473" nType="0">
              <Node pos="l" depth="4" NCoef="0" IVar="-1" Cut="0" cType="1" res="0.00153032" purity="0.569761" nType="-99"/>
              <Node pos="r" depth="4" NCoef="0" IVar="-1" Cut="0" cType="1" res="-0.000508008" purity="0.496137" nType="-99"/>
            </Node>
            <Node pos="r" depth="3" NCoef="0" IVar="6" Cut="2.80145" cType="1" res="0.0367907" purity="0.506127" nType="0">
              <Node pos="l" depth="4" NCoef="0" IVar="-1" Cut="0" cType="1" res="0.00264095" purity="0.539093" nType="-99"/>
              <Node pos="r" depth="4" NCoef="0" IVar="-1" Cut="0" cType="1" res="-0.00196326" purity="0.398322" nType="-99"/>
            </Node>
          </Node>
        </Node>
        <Node pos="r" depth="1" NCoef="0" IVar="-1" Cut="0" cType="1" res="-0.003199" purity="0.393784" nType="-99"/>
      </Node>
    </BinaryTree>
    <BinaryTree type="DecisionTree" boostWeight="1.0" itree="95">
      <Node pos="s" depth="0" NCoef="0" IVar="2" Cut="7398.71" cType="1" res="-0.0019561" purity="0.488581" nType="0">
        <Node pos="l" depth="1" NCoef="0" IVar="4" Cut="158772" cType="1" res="-0.0150848" purity="0.430337" nType="0">
          <Node pos="l" depth="2" NCoef="0" IVar="-1" Cut="0" cType="1" res="-0.00513888" purity="0.372693" nType="-99"/>
          <Node pos="r" depth="2" NCoef="0" IVar="4" Cut="408448" cType="1" res="-0.00963981" purity="0.434877" nType="0">
            <Node pos="l" depth="3" NCoef="0" IVar="0" Cut="187779" cType="1" res="-0.00357092" purity="0.443518" nType="0">
              <Node pos="l" depth="4" NCoef="0" IVar="-1" Cut="0" cType="1" res="-0.000632614" purity="0.423609" nType="-99"/>
              <Node pos="r" depth="4" NCoef="0" IVar="-1" Cut="0" cType="1" res="0.00177017" purity="0.552037" nType="-99"/>
            </Node>
            <Node pos="r" depth="3" NCoef="0" IVar="-1" Cut="0" cType="1" res="-0.00499044" purity="0.334835" nType="-99"/>
          </Node>
        </Node>
        <Node pos="r" depth="1" NCoef="0" IVar="3" Cut="141687" cType="1" res="0.0175786" purity="0.575243" nType="0">
          <Node pos="l" depth="2" NCoef="0" IVar="-1" Cut="0" cType="1" res="-0.00211778" purity="0.518369" nType="-99"/>
          <Node pos="r" depth="2" NCoef="0" IVar="3" Cut="191180" cType="1" res="0.0320199" purity="0.588641" nType="0">
            <Node pos="l" depth="3" NCoef="0" IVar="4" Cut="314928" cType="1" res="0.0456832" purity="0.604437" nType="0">
              <Node pos="l" depth="4" NCoef="0" IVar="-1" Cut="0" cType="1" res="0.00143228" purity="0.602534" nType="-99"/>
              <Node pos="r" depth="4" NCoef="0" IVar="-1" Cut="0" cType="1" res="0.00383767" purity="0.612636" nType="-99"/>
            </Node>
            <Node pos="r" depth="3" NCoef="0" IVar="-1" Cut="0" cType="1" res="-0.000761991" purity="0.532205" nType="-99"/>
          </Node>
        </Node>
      </Node>
    </BinaryTree>
    <BinaryTree type="DecisionTree" boostWeight="1.0" itree="96">
      <Node pos="s" depth="0" NCoef="0" IVar="0" Cut="119512" cType="1" res="0.0178956" purity="0.508471" nType="0">
        <Node pos="l" depth="1" NCoef="0" IVar="0" Cut="111893" cType="1" res="-0.00456222" purity="0.44739" nType="0">
          <Node pos="l" depth="2" NCoef="0" IVar="3" Cut="165537" cType="1" res="0.0174673" purity="0.466152" nType="0">
            <Node pos="l" depth="3" NCoef="0" IVar="0" Cut="105515" cType="1" res="0.0398657" purity="0.49746" nType="0">
              <Node pos="l" depth="4" NCoef="0" IVar="-1" Cut="0" cType="1" res="0.000515533" purity="0.462398" nType="-99"/>
              <Node pos="r" depth="4" NCoef="0" IVar="-1" Cut="0" cType="1" res="0.00290718" purity="0.5263" nType="-99"/>
            </Node>
            <Node pos="r" depth="3" NCoef="0" IVar="0" Cut="106670" cType="1" res="-0.00378151" purity="0.436451" nType="0">
              <Node pos="l" depth="4" NCoef="0" IVar="-1" Cut="0" cType="1" res="0.00103562" purity="0.45715" nType="-99"/>
              <Node pos="r" depth="4" NCoef="0" IVar="-1" Cut="0" cType="1" res="-0.00219053" purity="0.405529" nType="-99"/>
            </Node>
          </Node>
          <Node pos="r" depth="2" NCoef="0" IVar="6" Cut="1.6073" cType="1" res="-0.0519744" purity="0.407012" nType="0">
            <Node pos="l" depth="3" NCoef="0" IVar="-1" Cut="0" cType="1" res="-0.00565126" purity="0.381225" nType="-99"/>
            <Node pos="r" depth="3" NCoef="0" IVar="-1" Cut="0" cType="1" res="-0.000897257" purity="0.426674" nType="-99"/>
          </Node>
        </Node>
        <Node pos="r" depth="1" NCoef="0" IVar="2" Cut="24290.5" cType="1" res="0.0287561" purity="0.538009" nType="0">
          <Node pos="l" depth="2" NCoef="0" IVar="1" Cut="105364" cType="1" res="0.020983" purity="0.515368" nType="0">
            <Node pos="l" depth="3" NCoef="0" IVar="1" Cut="96371.5" cType="1" res="0.00307289" purity="0.475889" nType="0">
              <Node pos="l" depth="4" NCoef="0" IVar="-1" Cut="0" cType="1" res="0.00139931" purity="0.501937" nType="-99"/>
              <Node pos="r" depth="4" NCoef="0" IVar="-1" Cut="0" cType="1" res="-0.00137326" purity="0.446911" nType="-99"/>
            </Node>
            <Node pos="r" depth="3" NCoef="0" IVar="1" Cut="110114" cType="1" res="0.0331258" purity="0.542134" nType="0">
              <Node pos="l" depth="4" NCoef="0" IVar="-1" Cut="0" cType="1" res="0.00367246" purity="0.596857" nType="-99"/>
              <Node pos="r" depth="4" NCoef="0" IVar="-1" Cut="0" cType="1" res="0.00099903" purity="0.531291" nType="-99"/>
            </Node>
          </Node>
          <Node pos="r" depth="2" NCoef="0" IVar="-1" Cut="0" cType="1" res="0.00376222" purity="0.737047" nType="-99"/>
        </Node>
      </Node>
    </BinaryTree>
    <BinaryTree type="DecisionTree" boostWeight="1.0" itree="97">
      <Node pos="s" depth="0" NCoef="0" IVar="4" Cut="412243" cType="1" res="0.00519574" purity="0.496292" nType="0">
        <Node pos="l" depth="1" NCoef="0" IVar="5" Cut="2.83619" cType="1" res="0.00987213" purity="0.503982" nType="0">
          <Node pos="l" depth="2" NCoef="0" IVar="6" Cut="1.0732" cType="1" res="0.0134494" purity="0.509045" nType="0">
            <Node pos="l" depth="3" NCoef="0" IVar="4" Cut="222180" cType="1" res="-0.0138169" purity="0.481719" nType="0">
              <Node pos="l" depth="4" NCoef="0" IVar="-1" Cut="0" cType="1" res="-0.00199289" purity="0.467373" nType="-99"/>
              <Node pos="r" depth="4" NCoef="0" IVar="-1" Cut="0" cType="1" res="0.000690728" purity="0.497694" nType="-99"/>
            </Node>
            <Node pos="r" depth="3" NCoef="0" IVar="6" Cut="2.78843" cType="1" res="0.0220957" purity="0.517711" nType="0">
              <Node pos="l" depth="4" NCoef="0" IVar="-1" Cut="0" cType="1" res="0.001443" purity="0.540759" nType="-99"/>
              <Node pos="r" depth="4" NCoef="0" IVar="-1" Cut="0" cType="1" res="-0.0013011" purity="0.408173" nType="-99"/>
            </Node>
          </Node>
          <Node pos="r" depth="2" NCoef="0" IVar="-1" Cut="0" cType="1" res="-0.00372306" purity="0.399112" nType="-99"/>
        </Node>
        <Node pos="r" depth="1" NCoef="0" IVar="-1" Cut="0" cType="1" res="-0.00367254" purity="0.383939" nType="-99"/>
      </Node>
    </BinaryTree>
    <BinaryTree type="DecisionTree" boostWeight="1.0" itree="98">
      <Node pos="s" depth="0" NCoef="0" IVar="2" Cut="31322.2" cType="1" res="0.00180904" purity="0.490957" nType="0">
        <Node pos="l" depth="1" NCoef="0" IVar="5" Cut="2.64361" cType="1" res="-0.00319933" purity="0.478054" nType="0">
          <Node pos="l" depth="2" NCoef="0" IVar="4" Cut="266013" cType="1" res="-0.00959229" purity="0.474575" nType="0">
            <Node pos="l" depth="3" NCoef="0" IVar="6" Cut="1.5325" cType="1" res="0.00618249" purity="0.504298" nType="0">
              <Node pos="l" depth="4" NCoef="0" IVar="-1" Cut="0" cType="1" res="-0.00123861" purity="0.48036" nType="-99"/>
              <Node pos="r" depth="4" NCoef="0" IVar="-1" Cut="0" cType="1" res="0.00106674" purity="0.516787" nType="-99"/>
            </Node>
            <Node pos="r" depth="3" NCoef="0" IVar="5" Cut="1.41181" cType="1" res="-0.0425313" purity="0.41251" nType="0">
              <Node pos="l" depth="4" NCoef="0" IVar="-1" Cut="0" cType="1" res="-0.00365237" purity="0.396089" nType="-99"/>
              <Node pos="r" depth="4" NCoef="0" IVar="-1" Cut="0" cType="1" res="-0.00113142" purity="0.427964" nType="-99"/>
            </Node>
          </Node>
          <Node pos="r" depth="2" NCoef="0" IVar="-1" Cut="0" cType="1" res="0.002638" purity="0.509655" nType="-99"/>
        </Node>
        <Node pos="r" depth="1" NCoef="0" IVar="-1" Cut="0" cType="1" res="0.00337809" purity="0.711467" nType="-99"/>
      </Node>
    </BinaryTree>
    <BinaryTree type="DecisionTree" boostWeight="1.0" itree="99">
      <Node pos="s" depth="0" NCoef="0" IVar="2" Cut="17328.7" cType="1" res="-0.000519959" purity="0.489591" nType="0">
        <Node pos="l" depth="1" NCoef="0" IVar="4" Cut="334351" cType="1" res="-0.00824351" purity="0.45921" nType="0">
          <Node pos="l" depth="2" NCoef="0" IVar="5" Cut="0.925925" cType="1" res="-0.0158246" purity="0.461004" nType="0">
            <Node pos="l" depth="3" NCoef="0" IVar="2" Cut="1944.49" cType="1" res="-0.0648975" purity="0.421065" nType="0">
              <Node pos="l" depth="4" NCoef="0" IVar="-1" Cut="0" cType="1" res="-0.00157107" purity="0.427386" nType="-99"/>
              <Node pos="r" depth="4" NCoef="0" IVar="-1" Cut="0" cType="1" res="-0.00549657" purity="0.415079" nType="-99"/>
            </Node>
            <Node pos="r" depth="3" NCoef="0" IVar="6" Cut="2.37505" cType="1" res="-0.00722609" purity="0.468002" nType="0">
              <Node pos="l" depth="4" NCoef="0" IVar="-1" Cut="0" cType="1" res="-0.000984423" purity="0.470391" nType="-99"/>
              <Node pos="r" depth="4" NCoef="0" IVar="-1" Cut="0" cType="1" res="0.000860668" purity="0.463286" nType="-99"/>
            </Node>
          </Node>
          <Node pos="r" depth="2" NCoef="0" IVar="3" Cut="147339" cType="1" res="0.0215475" purity="0.452162" nType="0">
            <Node pos="l" depth="3" NCoef="0" IVar="-1" Cut="0" cType="1" res="0.00416122" purity="0.536624" nType="-99"/>
            <Node pos="r" depth="3" NCoef="0" IVar="1" Cut="115609" cType="1" res="-0.00557417" purity="0.42186" nType="0">
              <Node pos="l" depth="4" NCoef="0" IVar="-1" Cut="0" cType="1" res="-0.00273444" purity="0.370044" nType="-99"/>
              <Node pos="r" depth="4" NCoef="0" IVar="-1" Cut="0" cType="1" res="0.00134655" purity="0.463282" nType="-99"/>
            </Node>
          </Node>
        </Node>
        <Node pos="r" depth="1" NCoef="0" IVar="3" Cut="155139" cType="1" res="0.0377428" purity="0.640101" nType="0">
          <Node pos="l" depth="2" NCoef="0" IVar="-1" Cut="0" cType="1" res="-0.000677963" purity="0.590325" nType="-99"/>
          <Node pos="r" depth="2" NCoef="0" IVar="1" Cut="115592" cType="1" res="0.0665835" purity="0.666947" nType="0">
            <Node pos="l" depth="3" NCoef="0" IVar="-1" Cut="0" cType="1" res="0.00143936" purity="0.630906" nType="-99"/>
            <Node pos="r" depth="3" NCoef="0" IVar="-1" Cut="0" cType="1" res="0.00351135" purity="0.695728" nType="-99"/>
          </Node>
        </Node>
      </Node>
    </BinaryTree>
    <BinaryTree type="DecisionTree" boostWeight="1.0" itree="100">
      <Node pos="s" depth="0" NCoef="0" IVar="0" Cut="221923" cType="1" res="0.0162311" purity="0.506365" nType="0">
        <Node pos="l" depth="1" NCoef="0" IVar="3" Cut="159509" cType="1" res="0.00966534" purity="0.492769" nType="0">
          <Node pos="l" depth="2" NCoef="0" IVar="4" Cut="344033" cType="1" res="-0.0104247" purity="0.47883" nType="0">
            <Node pos="l" depth="3" NCoef="0" IVar="1" Cut="110290" cType="1" res="0.00136937" purity="0.499722" nType="0">
              <Node pos="l" depth="4" NCoef="0" IVar="-1" Cut="0" cType="1" res="-0.00148578" purity="0.453614" nType="-99"/>
              <Node pos="r" depth="4" NCoef="0" IVar="-1" Cut="0" cType="1" res="0.00135149" purity="0.544289" nType="-99"/>
            </Node>
            <Node pos="r" depth="3" NCoef="0" IVar="-1" Cut="0" cType="1" res="-0.00497431" purity="0.354272" nType="-99"/>
          </Node>
          <Node pos="r" depth="2" NCoef="0" IVar="2" Cut="3997.59" cType="1" res="0.0208544" purity="0.500532" nType="0">
            <Node pos="l" depth="3" NCoef="0" IVar="5" Cut="2.02493" cType="1" res="0.00385451" purity="0.433885" nType="0">
              <Node pos="l" depth="4" NCoef="0" IVar="-1" Cut="0" cType="1" res="-0.000502074" purity="0.423317" nType="-99"/>
              <Node pos="r" depth="4" NCoef="0" IVar="-1" Cut="0" cType="1" res="0.0022499" purity="0.465645" nType="-99"/>
            </Node>
            <Node pos="r" depth="3" NCoef="0" IVar="0" Cut="111895" cType="1" res="0.0386026" purity="0.570113" nType="0">
              <Node pos="l" depth="4" NCoef="0" IVar="-1" Cut="0" cType="1" res="-0.000667923" purity="0.487502" nType="-99"/>
              <Node pos="r" depth="4" NCoef="0" IVar="-1" Cut="0" cType="1" res="0.00222763" purity="0.591435" nType="-99"/>
            </Node>
          </Node>
        </Node>
        <Node pos="r" depth="1" NCoef="0" IVar="6" Cut="2.29924" cType="1" res="0.0796802" purity="0.637751" nType="0">
          <Node pos="l" depth="2" NCoef="0" IVar="-1" Cut="0" cType="1" res="0.0020899" purity="0.623184" nType="-99"/>
          <Node pos="r" depth="2" NCoef="0" IVar="-1" Cut="0" cType="1" res="0.00453251" purity="0.655251" nType="-99"/>
        </Node>
      </Node>
    </BinaryTree>
    <BinaryTree type="DecisionTree" boostWeight="1.0" itree="101">
      <Node pos="s" depth="0" NCoef="0" IVar="1" Cut="156531" cType="1" res="0.00219219" purity="0.493665" nType="0">
        <Node pos="l" depth="1" NCoef="0" IVar="0" Cut="207264" cType="1" res="0.0103237" purity="0.502322" nType="0">
          <Node pos="l" depth="2" NCoef="0" IVar="4" Cut="343883" cType="1" res="0.00229422" purity="0.486359" nType="0">
            <Node pos="l" depth="3" NCoef="0" IVar="1" Cut="130533" cType="1" res="0.010225" purity="0.501246" nType="0">
              <Node pos="l" depth="4" NCoef="0" IVar="-1" Cut="0" cType="1" res="1.97405e-05" purity="0.485985" nType="-99"/>
              <Node pos="r" depth="4" NCoef="0" IVar="-1" Cut="0" cType="1" res="0.00263685" purity="0.580933" nType="-99"/>
            </Node>
            <Node pos="r" depth="3" NCoef="0" IVar="0" Cut="134012" cType="1" res="-0.0590001" purity="0.371306" nType="0">
              <Node pos="l" depth="4" NCoef="0" IVar="-1" Cut="0" cType="1" res="-0.00724702" purity="0.299349" nType="-99"/>
              <Node pos="r" depth="4" NCoef="0" IVar="-1" Cut="0" cType="1" res="-0.00124545" purity="0.437025" nType="-99"/>
            </Node>
          </Node>
          <Node pos="r" depth="2" NCoef="0" IVar="1" Cut="104606" cType="1" res="0.0753961" purity="0.631684" nType="0">
            <Node pos="l" depth="3" NCoef="0" IVar="-1" Cut="0" cType="1" res="0.0021928" purity="0.579951" nType="-99"/>
            <Node pos="r" depth="3" NCoef="0" IVar="-1" Cut="0" cType="1" res="0.00383746" purity="0.687202" nType="-99"/>
          </Node>
        </Node>
        <Node pos="r" depth="1" NCoef="0" IVar="0" Cut="163350" cType="1" res="-0.0497732" purity="0.438345" nType="0">
          <Node pos="l" depth="2" NCoef="0" IVar="-1" Cut="0" cType="1" res="-0.00123632" purity="0.442725" nType="-99"/>
          <Node pos="r" depth="2" NCoef="0" IVar="-1" Cut="0" cType="1" res="-0.00558234" purity="0.42974" nType="-99"/>
        </Node>
      </Node>
    </BinaryTree>
    <BinaryTree type="DecisionTree" boostWeight="1.0" itree="102">
      <Node pos="s" depth="0" NCoef="0" IVar="2" Cut="24272.6" cType="1" res="0.0186155" purity="0.509053" nType="0">
        <Node pos="l" depth="1" NCoef="0" IVar="0" Cut="134156" cType="1" res="0.0126299" purity="0.489167" nType="0">
          <Node pos="l" depth="2" NCoef="0" IVar="5" Cut="1.51777" cType="1" res="-0.0021028" purity="0.447102" nType="0">
            <Node pos="l" depth="3" NCoef="0" IVar="3" Cut="146577" cType="1" res="-0.0330766" purity="0.411383" nType="0">
              <Node pos="l" depth="4" NCoef="0" IVar="-1" Cut="0" cType="1" res="0.000975907" purity="0.47166" nType="-99"/>
              <Node pos="r" depth="4" NCoef="0" IVar="-1" Cut="0" cType="1" res="-0.00276991" purity="0.393051" nType="-99"/>
            </Node>
            <Node pos="r" depth="3" NCoef="0" IVar="1" Cut="110460" cType="1" res="0.0191078" purity="0.471561" nType="0">
              <Node pos="l" depth="4" NCoef="0" IVar="-1" Cut="0" cType="1" res="0.0025663" purity="0.49776" nType="-99"/>
              <Node pos="r" depth="4" NCoef="0" IVar="-1" Cut="0" cType="1" res="-4.34592e-05" purity="0.456197" nType="-99"/>
            </Node>
          </Node>
          <Node pos="r" depth="2" NCoef="0" IVar="4" Cut="324743" cType="1" res="0.0273763" purity="0.531271" nType="0">
            <Node pos="l" depth="3" NCoef="0" IVar="1" Cut="145432" cType="1" res="0.0152606" purity="0.530859" nType="0">
              <Node pos="l" depth="4" NCoef="0" IVar="-1" Cut="0" cType="1" res="0.00127799" purity="0.541906" nType="-99"/>
              <Node pos="r" depth="4" NCoef="0" IVar="-1" Cut="0" cType="1" res="-0.00322726" purity="0.463275" nType="-99"/>
            </Node>
            <Node pos="r" depth="3" NCoef="0" IVar="0" Cut="182616" cType="1" res="0.0603841" purity="0.532393" nType="0">
              <Node pos="l" depth="4" NCoef="0" IVar="-1" Cut="0" cType="1" res="0.00396441" purity="0.548032" nType="-99"/>
              <Node pos="r" depth="4" NCoef="0" IVar="-1" Cut="0" cType="1" res="0.000183735" purity="0.507175" nType="-99"/>
            </Node>
          </Node>
        </Node>
        <Node pos="r" depth="1" NCoef="0" IVar="-1" Cut="0" cType="1" res="0.00285696" purity="0.696338" nType="-99"/>
      </Node>
    </BinaryTree>
    <BinaryTree type="DecisionTree" boostWeight="1.0" itree="103">
      <Node pos="s" depth="0" NCoef="0" IVar="0" Cut="178054" cType="1" res="-0.0004696" purity="0.491731" nType="0">
        <Node pos="l" depth="1" NCoef="0" IVar="2" Cut="10495.7" cType="1" res="-0.0109365" purity="0.468562" nType="0">
          <Node pos="l" depth="2" NCoef="0" IVar="1" Cut="125713" cType="1" res="-0.0253719" purity="0.41236" nType="0">
            <Node pos="l" depth="3" NCoef="0" IVar="1" Cut="106549" cType="1" res="-0.0117017" purity="0.424211" nType="0">
              <Node pos="l" depth="4" NCoef="0" IVar="-1" Cut="0" cType="1" res="-0.00189258" purity="0.393918" nType="-99"/>
              <Node pos="r" depth="4" NCoef="0" IVar="-1" Cut="0" cType="1" res="0.00107899" purity="0.471842" nType="-99"/>
            </Node>
            <Node pos="r" depth="3" NCoef="0" IVar="3" Cut="166292" cType="1" res="-0.0633795" purity="0.37941" nType="0">
              <Node pos="l" depth="4" NCoef="0" IVar="-1" Cut="0" cType="1" res="-0.00819036" purity="0.32451" nType="-99"/>
              <Node pos="r" depth="4" NCoef="0" IVar="-1" Cut="0" cType="1" res="-0.00105678" purity="0.419993" nType="-99"/>
            </Node>
          </Node>
          <Node pos="r" depth="2" NCoef="0" IVar="4" Cut="265891" cType="1" res="0.0201921" purity="0.589757" nType="0">
            <Node pos="l" depth="3" NCoef="0" IVar="5" Cut="1.53817" cType="1" res="0.0421424" purity="0.626658" nType="0">
              <Node pos="l" depth="4" NCoef="0" IVar="-1" Cut="0" cType="1" res="0.000919731" purity="0.61975" nType="-99"/>
              <Node pos="r" depth="4" NCoef="0" IVar="-1" Cut="0" cType="1" res="0.00286577" purity="0.636076" nType="-99"/>
            </Node>
            <Node pos="r" depth="3" NCoef="0" IVar="-1" Cut="0" cType="1" res="-0.00196905" purity="0.486458" nType="-99"/>
          </Node>
        </Node>
        <Node pos="r" depth="1" NCoef="0" IVar="3" Cut="152895" cType="1" res="0.0391733" purity="0.579482" nType="0">
          <Node pos="l" depth="2" NCoef="0" IVar="-1" Cut="0" cType="1" res="0.00383134" purity="0.63999" nType="-99"/>
          <Node pos="r" depth="2" NCoef="0" IVar="5" Cut="1.26144" cType="1" res="0.0128221" purity="0.551705" nType="0">
            <Node pos="l" depth="3" NCoef="0" IVar="5" Cut="0.821164" cType="1" res="-0.00973377" purity="0.528006" nType="0">
              <Node pos="l" depth="4" NCoef="0" IVar="-1" Cut="0" cType="1" res="-0.00208846" purity="0.502664" nType="-99"/>
              <Node pos="r" depth="4" NCoef="0" IVar="-1" Cut="0" cType="1" res="0.000700874" purity="0.549011" nType="-99"/>
            </Node>
            <Node pos="r" depth="3" NCoef="0" IVar="-1" Cut="0" cType="1" res="0.00218306" purity="0.592665" nType="-99"/>
          </Node>
        </Node>
      </Node>
    </BinaryTree>
    <BinaryTree type="DecisionTree" boostWeight="1.0" itree="104">
      <Node pos="s" depth="0" NCoef="0" IVar="2" Cut="13879.3" cType="1" res="0.00668231" purity="0.496787" nType="0">
        <Node pos="l" depth="1" NCoef="0" IVar="1" Cut="115611" cType="1" res="-0.00655378" purity="0.453269" nType="0">
          <Node pos="l" depth="2" NCoef="0" IVar="0" Cut="202426" cType="1" res="-0.0255734" purity="0.427588" nType="0">
            <Node pos="l" depth="3" NCoef="0" IVar="6" Cut="1.99265" cType="1" res="-0.033142" purity="0.409924" nType="0">
              <Node pos="l" depth="4" NCoef="0" IVar="-1" Cut="0" cType="1" res="-0.00334659" purity="0.393596" nType="-99"/>
              <Node pos="r" depth="4" NCoef="0" IVar="-1" Cut="0" cType="1" res="-0.000744482" purity="0.423148" nType="-99"/>
            </Node>
            <Node pos="r" depth="3" NCoef="0" IVar="-1" Cut="0" cType="1" res="0.00112267" purity="0.544048" nType="-99"/>
          </Node>
          <Node pos="r" depth="2" NCoef="0" IVar="5" Cut="1.96965" cType="1" res="0.020253" purity="0.489464" nType="0">
            <Node pos="l" depth="3" NCoef="0" IVar="5" Cut="1.28368" cType="1" res="0.0441482" purity="0.530008" nType="0">
              <Node pos="l" depth="4" NCoef="0" IVar="-1" Cut="0" cType="1" res="0.000170793" purity="0.497383" nType="-99"/>
              <Node pos="r" depth="4" NCoef="0" IVar="-1" Cut="0" cType="1" res="0.00282518" purity="0.546742" nType="-99"/>
            </Node>
            <Node pos="r" depth="3" NCoef="0" IVar="4" Cut="255125" cType="1" res="-0.00619428" purity="0.444589" nType="0">
              <Node pos="l" depth="4" NCoef="0" IVar="-1" Cut="0" cType="1" res="-0.00326626" purity="0.431405" nType="-99"/>
              <Node pos="r" depth="4" NCoef="0" IVar="-1" Cut="0" cType="1" res="0.00105585" purity="0.451253" nType="-99"/>
            </Node>
          </Node>
        </Node>
        <Node pos="r" depth="1" NCoef="0" IVar="2" Cut="28244" cType="1" res="0.050983" purity="0.642442" nType="0">
          <Node pos="l" depth="2" NCoef="0" IVar="3" Cut="171371" cType="1" res="0.0339456" purity="0.606476" nType="0">
            <Node pos="l" depth="3" NCoef="0" IVar="-1" Cut="0" cType="1" res="0.00222169" purity="0.625368" nType="-99"/>
            <Node pos="r" depth="3" NCoef="0" IVar="-1" Cut="0" cType="1" res="0.000123559" purity="0.579024" nType="-99"/>
          </Node>
          <Node pos="r" depth="2" NCoef="0" IVar="-1" Cut="0" cType="1" res="0.0034219" purity="0.719529" nType="-99"/>
        </Node>
      </Node>
    </BinaryTree>
    <BinaryTree type="DecisionTree" boostWeight="1.0" itree="105">
      <Node pos="s" depth="0" NCoef="0" IVar="1" Cut="105353" cType="1" res="0.0101849" purity="0.500437" nType="0">
        <Node pos="l" depth="1" NCoef="0" IVar="3" Cut="177399" cType="1" res="-0.0138291" purity="0.453758" nType="0">
          <Node pos="l" depth="2" NCoef="0" IVar="0" Cut="148762" cType="1" res="-0.0340058" purity="0.436819" nType="0">
            <Node pos="l" depth="3" NCoef="0" IVar="4" Cut="178412" cType="1" res="-0.0589106" purity="0.393899" nType="0">
              <Node pos="l" depth="4" NCoef="0" IVar="-1" Cut="0" cType="1" res="-0.00637395" purity="0.388996" nType="-99"/>
              <Node pos="r" depth="4" NCoef="0" IVar="-1" Cut="0" cType="1" res="-0.00209465" purity="0.39623" nType="-99"/>
            </Node>
            <Node pos="r" depth="3" NCoef="0" IVar="5" Cut="0.930973" cType="1" res="0.00340454" purity="0.501289" nType="0">
              <Node pos="l" depth="4" NCoef="0" IVar="-1" Cut="0" cType="1" res="-0.00263544" purity="0.459606" nType="-99"/>
              <Node pos="r" depth="4" NCoef="0" IVar="-1" Cut="0" cType="1" res="0.00233316" purity="0.540055" nType="-99"/>
            </Node>
          </Node>
          <Node pos="r" depth="2" NCoef="0" IVar="3" Cut="195329" cType="1" res="0.0193565" purity="0.48162" nType="0">
            <Node pos="l" depth="3" NCoef="0" IVar="3" Cut="184835" cType="1" res="0.0525384" purity="0.516477" nType="0">
              <Node pos="l" depth="4" NCoef="0" IVar="-1" Cut="0" cType="1" res="0.00303351" purity="0.540185" nType="-99"/>
              <Node pos="r" depth="4" NCoef="0" IVar="-1" Cut="0" cType="1" res="0.0017042" purity="0.490637" nType="-99"/>
            </Node>
            <Node pos="r" depth="3" NCoef="0" IVar="-1" Cut="0" cType="1" res="-0.00133542" purity="0.43519" nType="-99"/>
          </Node>
        </Node>
        <Node pos="r" depth="1" NCoef="0" IVar="5" Cut="2.02842" cType="1" res="0.025469" purity="0.530146" nType="0">
          <Node pos="l" depth="2" NCoef="0" IVar="6" Cut="2.68137" cType="1" res="0.0415643" purity="0.563733" nType="0">
            <Node pos="l" depth="3" NCoef="0" IVar="5" Cut="1.08727" cType="1" res="0.0550459" purity="0.591288" nType="0">
              <Node pos="l" depth="4" NCoef="0" IVar="-1" Cut="0" cType="1" res="0.00337569" purity="0.647843" nType="-99"/>
              <Node pos="r" depth="4" NCoef="0" IVar="-1" Cut="0" cType="1" res="0.00174744" purity="0.565913" nType="-99"/>
            </Node>
            <Node pos="r" depth="3" NCoef="0" IVar="-1" Cut="0" cType="1" res="-0.0017375" purity="0.41452" nType="-99"/>
          </Node>
          <Node pos="r" depth="2" NCoef="0" IVar="4" Cut="257881" cType="1" res="-0.00592428" purity="0.464636" nType="0">
            <Node pos="l" depth="3" NCoef="0" IVar="-1" Cut="0" cType="1" res="0.000832083" purity="0.52121" nType="-99"/>
            <Node pos="r" depth="3" NCoef="0" IVar="1" Cut="171764" cType="1" res="-0.0246132" purity="0.419006" nType="0">
              <Node pos="l" depth="4" NCoef="0" IVar="-1" Cut="0" cType="1" res="-0.00554752" purity="0.342865" nType="-99"/>
              <Node pos="r" depth="4" NCoef="0" IVar="-1" Cut="0" cType="1" res="0.000985602" purity="0.478784" nType="-99"/>
            </Node>
          </Node>
        </Node>
      </Node>
    </BinaryTree>
    <BinaryTree type="DecisionTree" boostWeight="1.0" itree="106">
      <Node pos="s" depth="0" NCoef="0" IVar="1" Cut="105366" cType="1" res="0.0154889" purity="0.506331" nType="0">
        <Node pos="l" depth="1" NCoef="0" IVar="5" Cut="1.66475" cType="1" res="-0.00547385" purity="0.463199" nType="0">
          <Node pos="l" depth="2" NCoef="0" IVar="4" Cut="246355" cType="1" res="-0.0162563" purity="0.455802" nType="0">
            <Node pos="l" depth="3" NCoef="0" IVar="3" Cut="188637" cType="1" res="-0.0338249" purity="0.451889" nType="0">
              <Node pos="l" depth="4" NCoef="0" IVar="-1" Cut="0" cType="1" res="-0.000591757" purity="0.476295" nType="-99"/>
              <Node pos="r" depth="4" NCoef="0" IVar="-1" Cut="0" cType="1" res="-0.00834523" purity="0.345471" nType="-99"/>
            </Node>
            <Node pos="r" depth="3" NCoef="0" IVar="6" Cut="2.29885" cType="1" res="0.0173023" purity="0.463277" nType="0">
              <Node pos="l" depth="4" NCoef="0" IVar="-1" Cut="0" cType="1" res="-0.00166735" purity="0.432738" nType="-99"/>
              <Node pos="r" depth="4" NCoef="0" IVar="-1" Cut="0" cType="1" res="0.00326884" purity="0.495698" nType="-99"/>
            </Node>
          </Node>
          <Node pos="r" depth="2" NCoef="0" IVar="-1" Cut="0" cType="1" res="0.00278531" purity="0.505167" nType="-99"/>
        </Node>
        <Node pos="r" depth="1" NCoef="0" IVar="1" Cut="190812" cType="1" res="0.029105" purity="0.534348" nType="0">
          <Node pos="l" depth="2" NCoef="0" IVar="4" Cut="402422" cType="1" res="0.0366422" purity="0.543949" nType="0">
            <Node pos="l" depth="3" NCoef="0" IVar="4" Cut="336053" cType="1" res="0.031202" purity="0.543624" nType="0">
              <Node pos="l" depth="4" NCoef="0" IVar="-1" Cut="0" cType="1" res="0.00176476" purity="0.55751" nType="-99"/>
              <Node pos="r" depth="4" NCoef="0" IVar="-1" Cut="0" cType="1" res="-0.00329908" purity="0.400712" nType="-99"/>
            </Node>
            <Node pos="r" depth="3" NCoef="0" IVar="-1" Cut="0" cType="1" res="0.00414605" purity="0.547814" nType="-99"/>
          </Node>
          <Node pos="r" depth="2" NCoef="0" IVar="-1" Cut="0" cType="1" res="-0.00172644" purity="0.453811" nType="-99"/>
        </Node>
      </Node>
    </BinaryTree>
    <BinaryTree type="DecisionTree" boostWeight="1.0" itree="107">
      <Node pos="s" depth="0" NCoef="0" IVar="2" Cut="20546.5" cType="1" res="0.0016685" purity="0.492752" nType="0">
        <Node pos="l" depth="1" NCoef="0" IVar="6" Cut="1.07282" cType="1" res="-0.0062679" purity="0.465844" nType="0">
          <Node pos="l" depth="2" NCoef="0" IVar="4" Cut="197898" cType="1" res="-0.0376979" purity="0.430232" nType="0">
            <Node pos="l" depth="3" NCoef="0" IVar="-1" Cut="0" cType="1" res="-0.00425701" purity="0.407385" nType="-99"/>
            <Node pos="r" depth="3" NCoef="0" IVar="1" Cut="120707" cType="1" res="-0.0185429" purity="0.44207" nType="0">
              <Node pos="l" depth="4" NCoef="0" IVar="-1" Cut="0" cType="1" res="0.000891261" purity="0.456703" nType="-99"/>
              <Node pos="r" depth="4" NCoef="0" IVar="-1" Cut="0" cType="1" res="-0.00289401" purity="0.426828" nType="-99"/>
            </Node>
          </Node>
          <Node pos="r" depth="2" NCoef="0" IVar="6" Cut="2.13243" cType="1" res="0.00287779" purity="0.476207" nType="0">
            <Node pos="l" depth="3" NCoef="0" IVar="0" Cut="114649" cType="1" res="0.0262247" purity="0.52462" nType="0">
              <Node pos="l" depth="4" NCoef="0" IVar="-1" Cut="0" cType="1" res="0.00308051" purity="0.530175" nType="-99"/>
              <Node pos="r" depth="4" NCoef="0" IVar="-1" Cut="0" cType="1" res="0.00043173" purity="0.522404" nType="-99"/>
            </Node>
            <Node pos="r" depth="3" NCoef="0" IVar="0" Cut="187811" cType="1" res="-0.0148275" purity="0.439494" nType="0">
              <Node pos="l" depth="4" NCoef="0" IVar="-1" Cut="0" cType="1" res="-0.00137547" purity="0.412881" nType="-99"/>
              <Node pos="r" depth="4" NCoef="0" IVar="-1" Cut="0" cType="1" res="0.00115706" purity="0.549513" nType="-99"/>
            </Node>
          </Node>
        </Node>
        <Node pos="r" depth="1" NCoef="0" IVar="1" Cut="115604" cType="1" res="0.0535476" purity="0.668645" nType="0">
          <Node pos="l" depth="2" NCoef="0" IVar="-1" Cut="0" cType="1" res="-0.000939143" purity="0.595102" nType="-99"/>
          <Node pos="r" depth="2" NCoef="0" IVar="-1" Cut="0" cType="1" res="0.00389011" purity="0.717036" nType="-99"/>
        </Node>
      </Node>
    </BinaryTree>
    <BinaryTree type="DecisionTree" boostWeight="1.0" itree="108">
      <Node pos="s" depth="0" NCoef="0" IVar="2" Cut="10442.9" cType="1" res="0.0103929" purity="0.502485" nType="0">
        <Node pos="l" depth="1" NCoef="0" IVar="2" Cut="-6780.75" cType="1" res="-0.00131094" purity="0.450461" nType="0">
          <Node pos="l" depth="2" NCoef="0" IVar="5" Cut="1.6829" cType="1" res="0.0249951" purity="0.44711" nType="0">
            <Node pos="l" depth="3" NCoef="0" IVar="5" Cut="1.00522" cType="1" res="0.000308218" purity="0.427025" nType="0">
              <Node pos="l" depth="4" NCoef="0" IVar="-1" Cut="0" cType="1" res="0.00364241" purity="0.52474" nType="-99"/>
              <Node pos="r" depth="4" NCoef="0" IVar="-1" Cut="0" cType="1" res="-0.00246776" purity="0.37703" nType="-99"/>
            </Node>
            <Node pos="r" depth="3" NCoef="0" IVar="-1" Cut="0" cType="1" res="0.0031756" purity="0.477758" nType="-99"/>
          </Node>
          <Node pos="r" depth="2" NCoef="0" IVar="2" Cut="-58.4216" cType="1" res="-0.0118777" purity="0.451807" nType="0">
            <Node pos="l" depth="3" NCoef="0" IVar="2" Cut="-3828.14" cType="1" res="-0.044211" purity="0.393751" nType="0">
              <Node pos="l" depth="4" NCoef="0" IVar="-1" Cut="0" cType="1" res="0.00052861" purity="0.442664" nType="-99"/>
              <Node pos="r" depth="4" NCoef="0" IVar="-1" Cut="0" cType="1" res="-0.00476246" purity="0.362814" nType="-99"/>
            </Node>
            <Node pos="r" depth="3" NCoef="0" IVar="1" Cut="100227" cType="1" res="0.00461755" purity="0.481425" nType="0">
              <Node pos="l" depth="4" NCoef="0" IVar="-1" Cut="0" cType="1" res="-0.00209905" purity="0.418132" nType="-99"/>
              <Node pos="r" depth="4" NCoef="0" IVar="-1" Cut="0" cType="1" res="0.00111581" purity="0.510339" nType="-99"/>
            </Node>
          </Node>
        </Node>
        <Node pos="r" depth="1" NCoef="0" IVar="4" Cut="256138" cType="1" res="0.0357651" purity="0.615265" nType="0">
          <Node pos="l" depth="2" NCoef="0" IVar="0" Cut="119502" cType="1" res="0.0557694" purity="0.655822" nType="0">
            <Node pos="l" depth="3" NCoef="0" IVar="-1" Cut="0" cType="1" res="0.000722136" purity="0.577815" nType="-99"/>
            <Node pos="r" depth="3" NCoef="0" IVar="5" Cut="1.1802" cType="1" res="0.0742896" purity="0.692757" nType="0">
              <Node pos="l" depth="4" NCoef="0" IVar="-1" Cut="0" cType="1" res="0.0036107" purity="0.721585" nType="-99"/>
              <Node pos="r" depth="4" NCoef="0" IVar="-1" Cut="0" cType="1" res="0.00179616" purity="0.65339" nType="-99"/>
            </Node>
          </Node>
          <Node pos="r" depth="2" NCoef="0" IVar="3" Cut="162760" cType="1" res="-0.0055748" purity="0.531452" nType="0">
            <Node pos="l" depth="3" NCoef="0" IVar="-1" Cut="0" cType="1" res="0.00142452" purity="0.575562" nType="-99"/>
            <Node pos="r" depth="3" NCoef="0" IVar="-1" Cut="0" cType="1" res="-0.00192912" purity="0.493945" nType="-99"/>
          </Node>
        </Node>
      </Node>
    </BinaryTree>
    <BinaryTree type="DecisionTree" boostWeight="1.0" itree="109">
      <Node pos="s" depth="0" NCoef="0" IVar="1" Cut="177050" cType="1" res="0.0043243" purity="0.495869" nType="0">
        <Node pos="l" depth="1" NCoef="0" IVar="2" Cut="13629.3" cType="1" res="0.0105984" purity="0.50288" nType="0">
          <Node pos="l" depth="2" NCoef="0" IVar="3" Cut="199551" cType="1" res="-0.00175258" purity="0.457711" nType="0">
            <Node pos="l" depth="3" NCoef="0" IVar="2" Cut="-4660.7" cType="1" res="0.00479138" purity="0.46571" nType="0">
              <Node pos="l" depth="4" NCoef="0" IVar="-1" Cut="0" cType="1" res="0.00143992" purity="0.451289" nType="-99"/>
              <Node pos="r" depth="4" NCoef="0" IVar="-1" Cut="0" cType="1" res="-0.000299569" purity="0.472453" nType="-99"/>
            </Node>
            <Node pos="r" depth="3" NCoef="0" IVar="1" Cut="109075" cType="1" res="-0.0415106" purity="0.409117" nType="0">
              <Node pos="l" depth="4" NCoef="0" IVar="-1" Cut="0" cType="1" res="-0.000508978" purity="0.429379" nType="-99"/>
              <Node pos="r" depth="4" NCoef="0" IVar="-1" Cut="0" cType="1" res="-0.00470006" purity="0.384752" nType="-99"/>
            </Node>
          </Node>
          <Node pos="r" depth="2" NCoef="0" IVar="3" Cut="182215" cType="1" res="0.0504348" purity="0.648564" nType="0">
            <Node pos="l" depth="3" NCoef="0" IVar="0" Cut="143874" cType="1" res="0.0690101" purity="0.66939" nType="0">
              <Node pos="l" depth="4" NCoef="0" IVar="-1" Cut="0" cType="1" res="0.00177696" purity="0.626593" nType="-99"/>
              <Node pos="r" depth="4" NCoef="0" IVar="-1" Cut="0" cType="1" res="0.00402583" purity="0.735306" nType="-99"/>
            </Node>
            <Node pos="r" depth="3" NCoef="0" IVar="-1" Cut="0" cType="1" res="-0.000485483" purity="0.579837" nType="-99"/>
          </Node>
        </Node>
        <Node pos="r" depth="1" NCoef="0" IVar="6" Cut="1.45689" cType="1" res="-0.0650106" purity="0.418396" nType="0">
          <Node pos="l" depth="2" NCoef="0" IVar="-1" Cut="0" cType="1" res="-0.0018118" purity="0.472485" nType="-99"/>
          <Node pos="r" depth="2" NCoef="0" IVar="-1" Cut="0" cType="1" res="-0.00598049" purity="0.361373" nType="-99"/>
        </Node>
      </Node>
    </BinaryTree>
    <BinaryTree type="DecisionTree" boostWeight="1.0" itree="110">
      <Node pos="s" depth="0" NCoef="0" IVar="2" Cut="27670.6" cType="1" res="0.0146109" purity="0.505925" nType="0">
        <Node pos="l" depth="1" NCoef="0" IVar="6" Cut="0.766267" cType="1" res="0.00905398" purity="0.488874" nType="0">
          <Node pos="l" depth="2" NCoef="0" IVar="3" Cut="155711" cType="1" res="-0.0301893" purity="0.442961" nType="0">
            <Node pos="l" depth="3" NCoef="0" IVar="-1" Cut="0" cType="1" res="-0.00478036" purity="0.392045" nType="-99"/>
            <Node pos="r" depth="3" NCoef="0" IVar="5" Cut="1.39608" cType="1" res="-0.00533409" purity="0.467028" nType="0">
              <Node pos="l" depth="4" NCoef="0" IVar="-1" Cut="0" cType="1" res="-0.00149205" purity="0.424025" nType="-99"/>
              <Node pos="r" depth="4" NCoef="0" IVar="-1" Cut="0" cType="1" res="0.000591881" purity="0.499976" nType="-99"/>
            </Node>
          </Node>
          <Node pos="r" depth="2" NCoef="0" IVar="1" Cut="192320" cType="1" res="0.0167257" purity="0.49785" nType="0">
            <Node pos="l" depth="3" NCoef="0" IVar="4" Cut="207340" cType="1" res="0.0114365" purity="0.493436" nType="0">
              <Node pos="l" depth="4" NCoef="0" IVar="-1" Cut="0" cType="1" res="0.0015666" purity="0.54408" nType="-99"/>
              <Node pos="r" depth="4" NCoef="0" IVar="-1" Cut="0" cType="1" res="-0.000300696" purity="0.456112" nType="-99"/>
            </Node>
            <Node pos="r" depth="3" NCoef="0" IVar="-1" Cut="0" cType="1" res="0.00383128" purity="0.558225" nType="-99"/>
          </Node>
        </Node>
        <Node pos="r" depth="1" NCoef="0" IVar="-1" Cut="0" cType="1" res="0.0031747" purity="0.715992" nType="-99"/>
      </Node>
    </BinaryTree>
    <BinaryTree type="DecisionTree" boostWeight="1.0" itree="111">
      <Node pos="s" depth="0" NCoef="0" IVar="6" Cut="2.83501" cType="1" res="0.00909276" purity="0.499144" nType="0">
        <Node pos="l" depth="1" NCoef="0" IVar="1" Cut="105366" cType="1" res="0.0155649" purity="0.513442" nType="0">
          <Node pos="l" depth="2" NCoef="0" IVar="6" Cut="0.484612" cType="1" res="-0.00715939" purity="0.469531" nType="0">
            <Node pos="l" depth="3" NCoef="0" IVar="-1" Cut="0" cType="1" res="0.00268151" purity="0.497638" nType="-99"/>
            <Node pos="r" depth="3" NCoef="0" IVar="4" Cut="304881" cType="1" res="-0.0161623" purity="0.465617" nType="0">
              <Node pos="l" depth="4" NCoef="0" IVar="-1" Cut="0" cType="1" res="-9.04268e-05" purity="0.488057" nType="-99"/>
              <Node pos="r" depth="4" NCoef="0" IVar="-1" Cut="0" cType="1" res="-0.00552998" purity="0.354222" nType="-99"/>
            </Node>
          </Node>
          <Node pos="r" depth="2" NCoef="0" IVar="6" Cut="0.691338" cType="1" res="0.0295455" purity="0.540457" nType="0">
            <Node pos="l" depth="3" NCoef="0" IVar="5" Cut="2.12951" cType="1" res="-0.022485" purity="0.480782" nType="0">
              <Node pos="l" depth="4" NCoef="0" IVar="-1" Cut="0" cType="1" res="0.000628012" purity="0.518255" nType="-99"/>
              <Node pos="r" depth="4" NCoef="0" IVar="-1" Cut="0" cType="1" res="-0.00408453" purity="0.428063" nType="-99"/>
            </Node>
            <Node pos="r" depth="3" NCoef="0" IVar="0" Cut="109762" cType="1" res="0.0410895" purity="0.553697" nType="0">
              <Node pos="l" depth="4" NCoef="0" IVar="-1" Cut="0" cType="1" res="-0.000283914" purity="0.446947" nType="-99"/>
              <Node pos="r" depth="4" NCoef="0" IVar="-1" Cut="0" cType="1" res="0.0021925" purity="0.575585" nType="-99"/>
            </Node>
          </Node>
        </Node>
        <Node pos="r" depth="1" NCoef="0" IVar="4" Cut="236749" cType="1" res="-0.0466832" purity="0.375929" nType="0">
          <Node pos="l" depth="2" NCoef="0" IVar="-1" Cut="0" cType="1" res="-0.000475251" purity="0.425544" nType="-99"/>
          <Node pos="r" depth="2" NCoef="0" IVar="-1" Cut="0" cType="1" res="-0.00577996" purity="0.32435" nType="-99"/>
        </Node>
      </Node>
    </BinaryTree>
    <BinaryTree type="DecisionTree" boostWeight="1.0" itree="112">
      <Node pos="s" depth="0" NCoef="0" IVar="3" Cut="107418" cType="1" res="0.0106338" purity="0.501065" nType="0">
        <Node pos="l" depth="1" NCoef="0" IVar="-1" Cut="0" cType="1" res="-0.00315204" purity="0.441334" nType="-99"/>
        <Node pos="r" depth="1" NCoef="0" IVar="1" Cut="100234" cType="1" res="0.0136415" purity="0.503646" nType="0">
          <Node pos="l" depth="2" NCoef="0" IVar="1" Cut="96739.1" cType="1" res="-0.00833953" purity="0.457773" nType="0">
            <Node pos="l" depth="3" NCoef="0" IVar="2" Cut="9377.59" cType="1" res="0.00991275" purity="0.475687" nType="0">
              <Node pos="l" depth="4" NCoef="0" IVar="-1" Cut="0" cType="1" res="-0.000382818" purity="0.424679" nType="-99"/>
              <Node pos="r" depth="4" NCoef="0" IVar="-1" Cut="0" cType="1" res="0.00228271" purity="0.606291" nType="-99"/>
            </Node>
            <Node pos="r" depth="3" NCoef="0" IVar="-1" Cut="0" cType="1" res="-0.00297082" purity="0.413056" nType="-99"/>
          </Node>
          <Node pos="r" depth="2" NCoef="0" IVar="0" Cut="182929" cType="1" res="0.0225739" purity="0.522288" nType="0">
            <Node pos="l" depth="3" NCoef="0" IVar="1" Cut="148873" cType="1" res="0.0137214" purity="0.499987" nType="0">
              <Node pos="l" depth="4" NCoef="0" IVar="-1" Cut="0" cType="1" res="0.00111273" purity="0.51325" nType="-99"/>
              <Node pos="r" depth="4" NCoef="0" IVar="-1" Cut="0" cType="1" res="-0.00116912" purity="0.449447" nType="-99"/>
            </Node>
            <Node pos="r" depth="3" NCoef="0" IVar="1" Cut="139174" cType="1" res="0.0615047" purity="0.620361" nType="0">
              <Node pos="l" depth="4" NCoef="0" IVar="-1" Cut="0" cType="1" res="0.00356281" purity="0.65337" nType="-99"/>
              <Node pos="r" depth="4" NCoef="0" IVar="-1" Cut="0" cType="1" res="0.000586344" purity="0.562754" nType="-99"/>
            </Node>
          </Node>
        </Node>
      </Node>
    </BinaryTree>
    <BinaryTree type="DecisionTree" boostWeight="1.0" itree="113">
      <Node pos="s" depth="0" NCoef="0" IVar="0" Cut="241414" cType="1" res="0.010398" purity="0.500152" nType="0">
        <Node pos="l" depth="1" NCoef="0" IVar="1" Cut="130975" cType="1" res="0.0048834" purity="0.490064" nType="0">
          <Node pos="l" depth="2" NCoef="0" IVar="5" Cut="0.941543" cType="1" res="-0.00471136" purity="0.476014" nType="0">
            <Node pos="l" depth="3" NCoef="0" IVar="0" Cut="186224" cType="1" res="-0.0351923" purity="0.469246" nType="0">
              <Node pos="l" depth="4" NCoef="0" IVar="-1" Cut="0" cType="1" res="-0.000590595" purity="0.48198" nType="-99"/>
              <Node pos="r" depth="4" NCoef="0" IVar="-1" Cut="0" cType="1" res="-0.0059637" purity="0.430769" nType="-99"/>
            </Node>
            <Node pos="r" depth="3" NCoef="0" IVar="4" Cut="343975" cType="1" res="0.00498863" purity="0.478168" nType="0">
              <Node pos="l" depth="4" NCoef="0" IVar="-1" Cut="0" cType="1" res="0.000599157" purity="0.492686" nType="-99"/>
              <Node pos="r" depth="4" NCoef="0" IVar="-1" Cut="0" cType="1" res="-0.00412865" purity="0.341652" nType="-99"/>
            </Node>
          </Node>
          <Node pos="r" depth="2" NCoef="0" IVar="5" Cut="2.13106" cType="1" res="0.0293483" purity="0.52589" nType="0">
            <Node pos="l" depth="3" NCoef="0" IVar="4" Cut="289065" cType="1" res="0.0651431" purity="0.589023" nType="0">
              <Node pos="l" depth="4" NCoef="0" IVar="-1" Cut="0" cType="1" res="0.00343756" purity="0.631536" nType="-99"/>
              <Node pos="r" depth="4" NCoef="0" IVar="-1" Cut="0" cType="1" res="0.00134104" purity="0.520365" nType="-99"/>
            </Node>
            <Node pos="r" depth="3" NCoef="0" IVar="5" Cut="2.77184" cType="1" res="-0.0114702" purity="0.453896" nType="0">
              <Node pos="l" depth="4" NCoef="0" IVar="-1" Cut="0" cType="1" res="-0.00217059" purity="0.430608" nType="-99"/>
              <Node pos="r" depth="4" NCoef="0" IVar="-1" Cut="0" cType="1" res="0.00165726" purity="0.489576" nType="-99"/>
            </Node>
          </Node>
        </Node>
        <Node pos="r" depth="1" NCoef="0" IVar="-1" Cut="0" cType="1" res="0.00384115" purity="0.664193" nType="-99"/>
      </Node>
    </BinaryTree>
    <BinaryTree type="DecisionTree" boostWeight="1.0" itree="114">
      <Node pos="s" depth="0" NCoef="0" IVar="6" Cut="2.22208" cType="1" res="0.00779537" purity="0.498099" nType="0">
        <Node pos="l" depth="1" NCoef="0" IVar="6" Cut="0.542" cType="1" res="0.018825" purity="0.530249" nType="0">
          <Node pos="l" depth="2" NCoef="0" IVar="4" Cut="207362" cType="1" res="-0.028339" purity="0.45454" nType="0">
            <Node pos="l" depth="3" NCoef="0" IVar="-1" Cut="0" cType="1" res="-0.00418414" purity="0.417867" nType="-99"/>
            <Node pos="r" depth="3" NCoef="0" IVar="-1" Cut="0" cType="1" res="6.63643e-05" purity="0.475918" nType="-99"/>
          </Node>
          <Node pos="r" depth="2" NCoef="0" IVar="6" Cut="1.15667" cType="1" res="0.0292592" purity="0.546999" nType="0">
            <Node pos="l" depth="3" NCoef="0" IVar="2" Cut="4496.15" cType="1" res="0.054398" purity="0.555528" nType="0">
              <Node pos="l" depth="4" NCoef="0" IVar="-1" Cut="0" cType="1" res="0.00423004" purity="0.519651" nType="-99"/>
              <Node pos="r" depth="4" NCoef="0" IVar="-1" Cut="0" cType="1" res="0.00144967" purity="0.573896" nType="-99"/>
            </Node>
            <Node pos="r" depth="3" NCoef="0" IVar="6" Cut="1.36457" cType="1" res="0.0173338" purity="0.542952" nType="0">
              <Node pos="l" depth="4" NCoef="0" IVar="-1" Cut="0" cType="1" res="-0.00203645" purity="0.484594" nType="-99"/>
              <Node pos="r" depth="4" NCoef="0" IVar="-1" Cut="0" cType="1" res="0.0012264" purity="0.552634" nType="-99"/>
            </Node>
          </Node>
        </Node>
        <Node pos="r" depth="1" NCoef="0" IVar="3" Cut="200528" cType="1" res="-0.012368" purity="0.439326" nType="0">
          <Node pos="l" depth="2" NCoef="0" IVar="5" Cut="0.962238" cType="1" res="-0.0258812" purity="0.427971" nType="0">
            <Node pos="l" depth="3" NCoef="0" IVar="-1" Cut="0" cType="1" res="-0.0036173" purity="0.424306" nType="-99"/>
            <Node pos="r" depth="3" NCoef="0" IVar="2" Cut="-655.278" cType="1" res="-0.01249" purity="0.429211" nType="0">
              <Node pos="l" depth="4" NCoef="0" IVar="-1" Cut="0" cType="1" res="-0.00166027" purity="0.397107" nType="-99"/>
              <Node pos="r" depth="4" NCoef="0" IVar="-1" Cut="0" cType="1" res="0.00192193" purity="0.534614" nType="-99"/>
            </Node>
          </Node>
          <Node pos="r" depth="2" NCoef="0" IVar="-1" Cut="0" cType="1" res="0.0025965" purity="0.496162" nType="-99"/>
        </Node>
      </Node>
    </BinaryTree>
    <BinaryTree type="DecisionTree" boostWeight="1.0" itree="115">
      <Node pos="s" depth="0" NCoef="0" IVar="1" Cut="156587" cType="1" res="0.00779913" purity="0.498558" nType="0">
        <Node pos="l" depth="1" NCoef="0" IVar="1" Cut="119235" cType="1" res="0.014117" purity="0.505103" nType="0">
          <Node pos="l" depth="2" NCoef="0" IVar="6" Cut="0.306565" cType="1" res="0.00131754" purity="0.480317" nType="0">
            <Node pos="l" depth="3" NCoef="0" IVar="-1" Cut="0" cType="1" res="0.00293995" purity="0.524803" nType="-99"/>
            <Node pos="r" depth="3" NCoef="0" IVar="2" Cut="17256.2" cType="1" res="-0.00372705" purity="0.476793" nType="0">
              <Node pos="l" depth="4" NCoef="0" IVar="-1" Cut="0" cType="1" res="-0.000531956" purity="0.44998" nType="-99"/>
              <Node pos="r" depth="4" NCoef="0" IVar="-1" Cut="0" cType="1" res="0.00153824" purity="0.644414" nType="-99"/>
            </Node>
          </Node>
          <Node pos="r" depth="2" NCoef="0" IVar="3" Cut="144130" cType="1" res="0.0447139" purity="0.564355" nType="0">
            <Node pos="l" depth="3" NCoef="0" IVar="-1" Cut="0" cType="1" res="-0.00145182" purity="0.49572" nType="-99"/>
            <Node pos="r" depth="3" NCoef="0" IVar="3" Cut="185925" cType="1" res="0.0633776" purity="0.581676" nType="0">
              <Node pos="l" depth="4" NCoef="0" IVar="-1" Cut="0" cType="1" res="0.00201312" purity="0.5696" nType="-99"/>
              <Node pos="r" depth="4" NCoef="0" IVar="-1" Cut="0" cType="1" res="0.00385917" purity="0.603955" nType="-99"/>
            </Node>
          </Node>
        </Node>
        <Node pos="r" depth="1" NCoef="0" IVar="3" Cut="178158" cType="1" res="-0.0322808" purity="0.457038" nType="0">
          <Node pos="l" depth="2" NCoef="0" IVar="4" Cut="325073" cType="1" res="0.00870099" purity="0.505231" nType="0">
            <Node pos="l" depth="3" NCoef="0" IVar="-1" Cut="0" cType="1" res="-0.00131105" purity="0.501097" nType="-99"/>
            <Node pos="r" depth="3" NCoef="0" IVar="-1" Cut="0" cType="1" res="0.00236819" purity="0.51003" nType="-99"/>
          </Node>
          <Node pos="r" depth="2" NCoef="0" IVar="-1" Cut="0" cType="1" res="-0.00729267" purity="0.361809" nType="-99"/>
        </Node>
      </Node>
    </BinaryTree>
    <BinaryTree type="DecisionTree" boostWeight="1.0" itree="116">
      <Node pos="s" depth="0" NCoef="0" IVar="1" Cut="130974" cType="1" res="0.0132991" purity="0.503148" nType="0">
        <Node pos="l" depth="1" NCoef="0" IVar="6" Cut="2.98832" cType="1" res="0.000639408" purity="0.485096" nType="0">
          <Node pos="l" depth="2" NCoef="0" IVar="2" Cut="3840.95" cType="1" res="-0.00364273" purity="0.485357" nType="0">
            <Node pos="l" depth="3" NCoef="0" IVar="4" Cut="168497" cType="1" res="-0.0256366" purity="0.409" nType="0">
              <Node pos="l" depth="4" NCoef="0" IVar="-1" Cut="0" cType="1" res="-0.006955" purity="0.343885" nType="-99"/>
              <Node pos="r" depth="4" NCoef="0" IVar="-1" Cut="0" cType="1" res="-0.000714009" purity="0.418946" nType="-99"/>
            </Node>
            <Node pos="r" depth="3" NCoef="0" IVar="0" Cut="168266" cType="1" res="0.0161785" purity="0.55417" nType="0">
              <Node pos="l" depth="4" NCoef="0" IVar="-1" Cut="0" cType="1" res="0.000117781" purity="0.531153" nType="-99"/>
              <Node pos="r" depth="4" NCoef="0" IVar="-1" Cut="0" cType="1" res="0.00234559" purity="0.62305" nType="-99"/>
            </Node>
          </Node>
          <Node pos="r" depth="2" NCoef="0" IVar="-1" Cut="0" cType="1" res="0.00300969" purity="0.481453" nType="-99"/>
        </Node>
        <Node pos="r" depth="1" NCoef="0" IVar="5" Cut="2.56418" cType="1" res="0.0447423" purity="0.547985" nType="0">
          <Node pos="l" depth="2" NCoef="0" IVar="3" Cut="189838" cType="1" res="0.0597963" purity="0.577334" nType="0">
            <Node pos="l" depth="3" NCoef="0" IVar="2" Cut="10995.2" cType="1" res="0.0403033" purity="0.56661" nType="0">
              <Node pos="l" depth="4" NCoef="0" IVar="-1" Cut="0" cType="1" res="0.00107449" purity="0.494081" nType="-99"/>
              <Node pos="r" depth="4" NCoef="0" IVar="-1" Cut="0" cType="1" res="0.00251785" purity="0.666112" nType="-99"/>
            </Node>
            <Node pos="r" depth="3" NCoef="0" IVar="-1" Cut="0" cType="1" res="0.00475951" purity="0.609457" nType="-99"/>
          </Node>
          <Node pos="r" depth="2" NCoef="0" IVar="-1" Cut="0" cType="1" res="0.000166211" purity="0.467166" nType="-99"/>
        </Node>
      </Node>
    </BinaryTree>
    <BinaryTree type="DecisionTree" boostWeight="1.0" itree="117">
      <Node pos="s" depth="0" NCoef="0" IVar="6" Cut="0.68964" cType="1" res="0.00272362" purity="0.494279" nType="0">
        <Node pos="l" depth="1" NCoef="0" IVar="5" Cut="1.77364" cType="1" res="-0.0414976" purity="0.440953" nType="0">
          <Node pos="l" depth="2" NCoef="0" IVar="6" Cut="0.369581" cType="1" res="-0.00850385" purity="0.460664" nType="0">
            <Node pos="l" depth="3" NCoef="0" IVar="-1" Cut="0" cType="1" res="0.00122063" purity="0.49605" nType="-99"/>
            <Node pos="r" depth="3" NCoef="0" IVar="-1" Cut="0" cType="1" res="-0.00287432" purity="0.414305" nType="-99"/>
          </Node>
          <Node pos="r" depth="2" NCoef="0" IVar="-1" Cut="0" cType="1" res="-0.00570058" purity="0.408346" nType="-99"/>
        </Node>
        <Node pos="r" depth="1" NCoef="0" IVar="2" Cut="4009.73" cType="1" res="0.0104379" purity="0.503582" nType="0">
          <Node pos="l" depth="2" NCoef="0" IVar="0" Cut="187783" cType="1" res="-0.00547716" purity="0.432963" nType="0">
            <Node pos="l" depth="3" NCoef="0" IVar="5" Cut="1.09205" cType="1" res="-0.01515" purity="0.4095" nType="0">
              <Node pos="l" depth="4" NCoef="0" IVar="-1" Cut="0" cType="1" res="-0.0043186" purity="0.347882" nType="-99"/>
              <Node pos="r" depth="4" NCoef="0" IVar="-1" Cut="0" cType="1" res="-0.000180745" purity="0.423075" nType="-99"/>
            </Node>
            <Node pos="r" depth="3" NCoef="0" IVar="-1" Cut="0" cType="1" res="0.00199186" purity="0.554309" nType="-99"/>
          </Node>
          <Node pos="r" depth="2" NCoef="0" IVar="4" Cut="246612" cType="1" res="0.0294035" purity="0.587736" nType="0">
            <Node pos="l" depth="3" NCoef="0" IVar="1" Cut="100309" cType="1" res="0.0463586" purity="0.623224" nType="0">
              <Node pos="l" depth="4" NCoef="0" IVar="-1" Cut="0" cType="1" res="0.000290212" purity="0.547544" nType="-99"/>
              <Node pos="r" depth="4" NCoef="0" IVar="-1" Cut="0" cType="1" res="0.00252373" purity="0.656417" nType="-99"/>
            </Node>
            <Node pos="r" depth="3" NCoef="0" IVar="3" Cut="164626" cType="1" res="-0.00346467" purity="0.518942" nType="0">
              <Node pos="l" depth="4" NCoef="0" IVar="-1" Cut="0" cType="1" res="0.00127507" purity="0.553137" nType="-99"/>
              <Node pos="r" depth="4" NCoef="0" IVar="-1" Cut="0" cType="1" res="-0.0013266" purity="0.493615" nType="-99"/>
            </Node>
          </Node>
        </Node>
      </Node>
    </BinaryTree>
    <BinaryTree type="DecisionTree" boostWeight="1.0" itree="118">
      <Node pos="s" depth="0" NCoef="0" IVar="1" Cut="100236" cType="1" res="0.0183717" purity="0.509081" nType="0">
        <Node pos="l" depth="1" NCoef="0" IVar="1" Cut="97240.6" cType="1" res="-0.00315003" purity="0.460221" nType="0">
          <Node pos="l" depth="2" NCoef="0" IVar="2" Cut="10267.4" cType="1" res="0.0123044" purity="0.477414" nType="0">
            <Node pos="l" depth="3" NCoef="0" IVar="6" Cut="1.60918" cType="1" res="-0.00551375" purity="0.427166" nType="0">
              <Node pos="l" depth="4" NCoef="0" IVar="-1" Cut="0" cType="1" res="-0.00306401" purity="0.364675" nType="-99"/>
              <Node pos="r" depth="4" NCoef="0" IVar="-1" Cut="0" cType="1" res="0.00061892" purity="0.451357" nType="-99"/>
            </Node>
            <Node pos="r" depth="3" NCoef="0" IVar="-1" Cut="0" cType="1" res="0.00268879" purity="0.625769" nType="-99"/>
          </Node>
          <Node pos="r" depth="2" NCoef="0" IVar="-1" Cut="0" cType="1" res="-0.00303914" purity="0.40297" nType="-99"/>
        </Node>
        <Node pos="r" depth="1" NCoef="0" IVar="5" Cut="1.71654" cType="1" res="0.0269654" purity="0.528591" nType="0">
          <Node pos="l" depth="2" NCoef="0" IVar="5" Cut="1.35432" cType="1" res="0.0419342" purity="0.560386" nType="0">
            <Node pos="l" depth="3" NCoef="0" IVar="0" Cut="134165" cType="1" res="0.025677" purity="0.55323" nType="0">
              <Node pos="l" depth="4" NCoef="0" IVar="-1" Cut="0" cType="1" res="-0.00143449" purity="0.464224" nType="-99"/>
              <Node pos="r" depth="4" NCoef="0" IVar="-1" Cut="0" cType="1" res="0.00227478" purity="0.602051" nType="-99"/>
            </Node>
            <Node pos="r" depth="3" NCoef="0" IVar="3" Cut="170587" cType="1" res="0.0738289" purity="0.574425" nType="0">
              <Node pos="l" depth="4" NCoef="0" IVar="-1" Cut="0" cType="1" res="0.00429017" purity="0.614339" nType="-99"/>
              <Node pos="r" depth="4" NCoef="0" IVar="-1" Cut="0" cType="1" res="0.00141974" purity="0.522976" nType="-99"/>
            </Node>
          </Node>
          <Node pos="r" depth="2" NCoef="0" IVar="6" Cut="0.536394" cType="1" res="0.00749235" purity="0.487228" nType="0">
            <Node pos="l" depth="3" NCoef="0" IVar="-1" Cut="0" cType="1" res="-0.00165944" purity="0.471033" nType="-99"/>
            <Node pos="r" depth="3" NCoef="0" IVar="2" Cut="2213.93" cType="1" res="0.0147665" purity="0.490163" nType="0">
              <Node pos="l" depth="4" NCoef="0" IVar="-1" Cut="0" cType="1" res="-0.000562883" purity="0.416387" nType="-99"/>
              <Node pos="r" depth="4" NCoef="0" IVar="-1" Cut="0" cType="1" res="0.00181501" purity="0.568015" nType="-99"/>
            </Node>
          </Node>
        </Node>
      </Node>
    </BinaryTree>
    <BinaryTree type="DecisionTree" boostWeight="1.0" itree="119">
      <Node pos="s" depth="0" NCoef="0" IVar="0" Cut="158534" cType="1" res="0.0103532" purity="0.501" nType="0">
        <Node pos="l" depth="1" NCoef="0" IVar="0" Cut="147097" cType="1" res="-0.00104032" purity="0.470219" nType="0">
          <Node pos="l" depth="2" NCoef="0" IVar="0" Cut="110344" cType="1" res="0.00641601" purity="0.473524" nType="0">
            <Node pos="l" depth="3" NCoef="0" IVar="2" Cut="-6537.96" cType="1" res="-0.0250752" purity="0.418261" nType="0">
              <Node pos="l" depth="4" NCoef="0" IVar="-1" Cut="0" cType="1" res="0.00213801" purity="0.411612" nType="-99"/>
              <Node pos="r" depth="4" NCoef="0" IVar="-1" Cut="0" cType="1" res="-0.0026149" purity="0.420566" nType="-99"/>
            </Node>
            <Node pos="r" depth="3" NCoef="0" IVar="0" Cut="113931" cType="1" res="0.0198479" purity="0.497095" nType="0">
              <Node pos="l" depth="4" NCoef="0" IVar="-1" Cut="0" cType="1" res="0.00331714" purity="0.521972" nType="-99"/>
              <Node pos="r" depth="4" NCoef="0" IVar="-1" Cut="0" cType="1" res="0.000545677" purity="0.492973" nType="-99"/>
            </Node>
          </Node>
          <Node pos="r" depth="2" NCoef="0" IVar="-1" Cut="0" cType="1" res="-0.00352036" purity="0.442067" nType="-99"/>
        </Node>
        <Node pos="r" depth="1" NCoef="0" IVar="1" Cut="115589" cType="1" res="0.036126" purity="0.57063" nType="0">
          <Node pos="l" depth="2" NCoef="0" IVar="1" Cut="103102" cType="1" res="0.0195647" purity="0.539057" nType="0">
            <Node pos="l" depth="3" NCoef="0" IVar="0" Cut="210286" cType="1" res="0.0376395" purity="0.541095" nType="0">
              <Node pos="l" depth="4" NCoef="0" IVar="-1" Cut="0" cType="1" res="0.000667277" purity="0.499322" nType="-99"/>
              <Node pos="r" depth="4" NCoef="0" IVar="-1" Cut="0" cType="1" res="0.0033198" purity="0.612038" nType="-99"/>
            </Node>
            <Node pos="r" depth="3" NCoef="0" IVar="-1" Cut="0" cType="1" res="-0.00106555" purity="0.534306" nType="-99"/>
          </Node>
          <Node pos="r" depth="2" NCoef="0" IVar="3" Cut="155728" cType="1" res="0.0577288" purity="0.611814" nType="0">
            <Node pos="l" depth="3" NCoef="0" IVar="-1" Cut="0" cType="1" res="0.00405802" purity="0.657044" nType="-99"/>
            <Node pos="r" depth="3" NCoef="0" IVar="1" Cut="147047" cType="1" res="0.0291747" purity="0.585887" nType="0">
              <Node pos="l" depth="4" NCoef="0" IVar="-1" Cut="0" cType="1" res="0.00351039" purity="0.664333" nType="-99"/>
              <Node pos="r" depth="4" NCoef="0" IVar="-1" Cut="0" cType="1" res="-0.0015158" purity="0.507019" nType="-99"/>
            </Node>
          </Node>
        </Node>
      </Node>
    </BinaryTree>
    <BinaryTree type="DecisionTree" boostWeight="1.0" itree="120">
      <Node pos="s" depth="0" NCoef="0" IVar="2" Cut="10730.6" cType="1" res="0.00815617" purity="0.499074" nType="0">
        <Node pos="l" depth="1" NCoef="0" IVar="4" Cut="275889" cType="1" res="-0.00144439" purity="0.449968" nType="0">
          <Node pos="l" depth="2" NCoef="0" IVar="4" Cut="254464" cType="1" res="-0.0155675" purity="0.449151" nType="0">
            <Node pos="l" depth="3" NCoef="0" IVar="0" Cut="192651" cType="1" res="-0.00797286" purity="0.458847" nType="0">
              <Node pos="l" depth="4" NCoef="0" IVar="-1" Cut="0" cType="1" res="-0.000765312" purity="0.44157" nType="-99"/>
              <Node pos="r" depth="4" NCoef="0" IVar="-1" Cut="0" cType="1" res="0.00141273" purity="0.566766" nType="-99"/>
            </Node>
            <Node pos="r" depth="3" NCoef="0" IVar="-1" Cut="0" cType="1" res="-0.00542364" purity="0.356822" nType="-99"/>
          </Node>
          <Node pos="r" depth="2" NCoef="0" IVar="0" Cut="187807" cType="1" res="0.024005" purity="0.451441" nType="0">
            <Node pos="l" depth="3" NCoef="0" IVar="0" Cut="142828" cType="1" res="0.0337678" purity="0.445159" nType="0">
              <Node pos="l" depth="4" NCoef="0" IVar="-1" Cut="0" cType="1" res="0.000659309" purity="0.403247" nType="-99"/>
              <Node pos="r" depth="4" NCoef="0" IVar="-1" Cut="0" cType="1" res="0.00331672" purity="0.522996" nType="-99"/>
            </Node>
            <Node pos="r" depth="3" NCoef="0" IVar="-1" Cut="0" cType="1" res="-0.00102785" purity="0.480039" nType="-99"/>
          </Node>
        </Node>
        <Node pos="r" depth="1" NCoef="0" IVar="6" Cut="0.768814" cType="1" res="0.0301747" purity="0.611697" nType="0">
          <Node pos="l" depth="2" NCoef="0" IVar="-1" Cut="0" cType="1" res="-0.000586623" purity="0.516" nType="-99"/>
          <Node pos="r" depth="2" NCoef="0" IVar="6" Cut="1.89377" cType="1" res="0.0465981" purity="0.648569" nType="0">
            <Node pos="l" depth="3" NCoef="0" IVar="4" Cut="226602" cType="1" res="0.0636588" purity="0.661778" nType="0">
              <Node pos="l" depth="4" NCoef="0" IVar="-1" Cut="0" cType="1" res="0.00153627" purity="0.656309" nType="-99"/>
              <Node pos="r" depth="4" NCoef="0" IVar="-1" Cut="0" cType="1" res="0.00363259" purity="0.668898" nType="-99"/>
            </Node>
            <Node pos="r" depth="3" NCoef="0" IVar="-1" Cut="0" cType="1" res="-0.000268848" purity="0.607773" nType="-99"/>
          </Node>
        </Node>
      </Node>
    </BinaryTree>
    <BinaryTree type="DecisionTree" boostWeight="1.0" itree="121">
      <Node pos="s" depth="0" NCoef="0" IVar="0" Cut="129269" cType="1" res="0.00318446" purity="0.493629" nType="0">
        <Node pos="l" depth="1" NCoef="0" IVar="1" Cut="125787" cType="1" res="-0.0165838" purity="0.441014" nType="0">
          <Node pos="l" depth="2" NCoef="0" IVar="0" Cut="120692" cType="1" res="-0.0016416" purity="0.45292" nType="0">
            <Node pos="l" depth="3" NCoef="0" IVar="3" Cut="189683" cType="1" res="0.0120205" purity="0.460396" nType="0">
              <Node pos="l" depth="4" NCoef="0" IVar="-1" Cut="0" cType="1" res="-0.000100891" purity="0.450519" nType="-99"/>
              <Node pos="r" depth="4" NCoef="0" IVar="-1" Cut="0" cType="1" res="0.00295014" purity="0.494848" nType="-99"/>
            </Node>
            <Node pos="r" depth="3" NCoef="0" IVar="-1" Cut="0" cType="1" res="-0.00282571" purity="0.425499" nType="-99"/>
          </Node>
          <Node pos="r" depth="2" NCoef="0" IVar="6" Cut="1.68598" cType="1" res="-0.054332" purity="0.410935" nType="0">
            <Node pos="l" depth="3" NCoef="0" IVar="-1" Cut="0" cType="1" res="-0.00442002" purity="0.415788" nType="-99"/>
            <Node pos="r" depth="3" NCoef="0" IVar="-1" Cut="0" cType="1" res="-0.00128077" purity="0.405941" nType="-99"/>
          </Node>
        </Node>
        <Node pos="r" depth="1" NCoef="0" IVar="6" Cut="2.3754" cType="1" res="0.0186944" purity="0.53491" nType="0">
          <Node pos="l" depth="2" NCoef="0" IVar="2" Cut="23250.5" cType="1" res="0.0063804" purity="0.540025" nType="0">
            <Node pos="l" depth="3" NCoef="0" IVar="3" Cut="136327" cType="1" res="-0.00288437" purity="0.511457" nType="0">
              <Node pos="l" depth="4" NCoef="0" IVar="-1" Cut="0" cType="1" res="-0.00251747" purity="0.460691" nType="-99"/>
              <Node pos="r" depth="4" NCoef="0" IVar="-1" Cut="0" cType="1" res="0.000247645" purity="0.520339" nType="-99"/>
            </Node>
            <Node pos="r" depth="3" NCoef="0" IVar="-1" Cut="0" cType="1" res="0.00247943" purity="0.714583" nType="-99"/>
          </Node>
          <Node pos="r" depth="2" NCoef="0" IVar="0" Cut="212557" cType="1" res="0.0427394" purity="0.524924" nType="0">
            <Node pos="l" depth="3" NCoef="0" IVar="3" Cut="186680" cType="1" res="0.0221644" purity="0.48493" nType="0">
              <Node pos="l" depth="4" NCoef="0" IVar="-1" Cut="0" cType="1" res="-0.000263236" purity="0.459459" nType="-99"/>
              <Node pos="r" depth="4" NCoef="0" IVar="-1" Cut="0" cType="1" res="0.00361322" purity="0.54205" nType="-99"/>
            </Node>
            <Node pos="r" depth="3" NCoef="0" IVar="-1" Cut="0" cType="1" res="0.00410096" purity="0.650673" nType="-99"/>
          </Node>
        </Node>
      </Node>
    </BinaryTree>
    <BinaryTree type="DecisionTree" boostWeight="1.0" itree="122">
      <Node pos="s" depth="0" NCoef="0" IVar="5" Cut="1.0176" cType="1" res="0.0123132" purity="0.503034" nType="0">
        <Node pos="l" depth="1" NCoef="0" IVar="4" Cut="324404" cType="1" res="0.0416844" purity="0.557008" nType="0">
          <Node pos="l" depth="2" NCoef="0" IVar="4" Cut="231330" cType="1" res="0.0254057" purity="0.553514" nType="0">
            <Node pos="l" depth="3" NCoef="0" IVar="3" Cut="175781" cType="1" res="0.045073" purity="0.574876" nType="0">
              <Node pos="l" depth="4" NCoef="0" IVar="-1" Cut="0" cType="1" res="0.00111826" purity="0.564911" nType="-99"/>
              <Node pos="r" depth="4" NCoef="0" IVar="-1" Cut="0" cType="1" res="0.00329796" purity="0.590091" nType="-99"/>
            </Node>
            <Node pos="r" depth="3" NCoef="0" IVar="-1" Cut="0" cType="1" res="-0.00211133" purity="0.482253" nType="-99"/>
          </Node>
          <Node pos="r" depth="2" NCoef="0" IVar="-1" Cut="0" cType="1" res="0.00380682" purity="0.567688" nType="-99"/>
        </Node>
        <Node pos="r" depth="1" NCoef="0" IVar="4" Cut="411967" cType="1" res="0.0011374" purity="0.482497" nType="0">
          <Node pos="l" depth="2" NCoef="0" IVar="6" Cut="2.7584" cType="1" res="0.00580212" purity="0.490597" nType="0">
            <Node pos="l" depth="3" NCoef="0" IVar="6" Cut="1.34543" cType="1" res="0.0119667" purity="0.506593" nType="0">
              <Node pos="l" depth="4" NCoef="0" IVar="-1" Cut="0" cType="1" res="-0.000757592" purity="0.488306" nType="-99"/>
              <Node pos="r" depth="4" NCoef="0" IVar="-1" Cut="0" cType="1" res="0.00138004" purity="0.518077" nType="-99"/>
            </Node>
            <Node pos="r" depth="3" NCoef="0" IVar="3" Cut="169062" cType="1" res="-0.0394532" purity="0.373169" nType="0">
              <Node pos="l" depth="4" NCoef="0" IVar="-1" Cut="0" cType="1" res="-0.000617736" purity="0.406049" nType="-99"/>
              <Node pos="r" depth="4" NCoef="0" IVar="-1" Cut="0" cType="1" res="-0.00471335" purity="0.339026" nType="-99"/>
            </Node>
          </Node>
          <Node pos="r" depth="2" NCoef="0" IVar="-1" Cut="0" cType="1" res="-0.00485477" purity="0.348844" nType="-99"/>
        </Node>
      </Node>
    </BinaryTree>
    <BinaryTree type="DecisionTree" boostWeight="1.0" itree="123">
      <Node pos="s" depth="0" NCoef="0" IVar="1" Cut="100244" cType="1" res="0.0182294" purity="0.511258" nType="0">
        <Node pos="l" depth="1" NCoef="0" IVar="3" Cut="171230" cType="1" res="-0.0107006" purity="0.454927" nType="0">
          <Node pos="l" depth="2" NCoef="0" IVar="0" Cut="119556" cType="1" res="0.0142589" purity="0.484095" nType="0">
            <Node pos="l" depth="3" NCoef="0" IVar="-1" Cut="0" cType="1" res="-0.00264666" purity="0.392767" nType="-99"/>
            <Node pos="r" depth="3" NCoef="0" IVar="6" Cut="2.22426" cType="1" res="0.0389859" purity="0.521273" nType="0">
              <Node pos="l" depth="4" NCoef="0" IVar="-1" Cut="0" cType="1" res="0.00302295" purity="0.564456" nType="-99"/>
              <Node pos="r" depth="4" NCoef="0" IVar="-1" Cut="0" cType="1" res="-3.83985e-05" purity="0.46112" nType="-99"/>
            </Node>
          </Node>
          <Node pos="r" depth="2" NCoef="0" IVar="2" Cut="6567.06" cType="1" res="-0.0417039" purity="0.418696" nType="0">
            <Node pos="l" depth="3" NCoef="0" IVar="5" Cut="1.13688" cType="1" res="-0.0626367" purity="0.359792" nType="0">
              <Node pos="l" depth="4" NCoef="0" IVar="-1" Cut="0" cType="1" res="-0.00535626" purity="0.344271" nType="-99"/>
              <Node pos="r" depth="4" NCoef="0" IVar="-1" Cut="0" cType="1" res="-0.00276597" purity="0.374702" nType="-99"/>
            </Node>
            <Node pos="r" depth="3" NCoef="0" IVar="-1" Cut="0" cType="1" res="-0.000104505" purity="0.529884" nType="-99"/>
          </Node>
        </Node>
        <Node pos="r" depth="1" NCoef="0" IVar="2" Cut="811.58" cType="1" res="0.0295163" purity="0.533235" nType="0">
          <Node pos="l" depth="2" NCoef="0" IVar="6" Cut="2.29906" cType="1" res="0.00444984" purity="0.441794" nType="0">
            <Node pos="l" depth="3" NCoef="0" IVar="1" Cut="124469" cType="1" res="-0.0492251" purity="0.383391" nType="0">
              <Node pos="l" depth="4" NCoef="0" IVar="-1" Cut="0" cType="1" res="-0.00422376" purity="0.361994" nType="-99"/>
              <Node pos="r" depth="4" NCoef="0" IVar="-1" Cut="0" cType="1" res="-0.00159764" purity="0.406404" nType="-99"/>
            </Node>
            <Node pos="r" depth="3" NCoef="0" IVar="4" Cut="211333" cType="1" res="0.0308763" purity="0.470547" nType="0">
              <Node pos="l" depth="4" NCoef="0" IVar="-1" Cut="0" cType="1" res="0.00407187" purity="0.560596" nType="-99"/>
              <Node pos="r" depth="4" NCoef="0" IVar="-1" Cut="0" cType="1" res="0.000290973" purity="0.434185" nType="-99"/>
            </Node>
          </Node>
          <Node pos="r" depth="2" NCoef="0" IVar="3" Cut="205782" cType="1" res="0.0439865" purity="0.586022" nType="0">
            <Node pos="l" depth="3" NCoef="0" IVar="6" Cut="0.58243" cType="1" res="0.0353993" purity="0.580139" nType="0">
              <Node pos="l" depth="4" NCoef="0" IVar="-1" Cut="0" cType="1" res="-0.000994528" purity="0.477819" nType="-99"/>
              <Node pos="r" depth="4" NCoef="0" IVar="-1" Cut="0" cType="1" res="0.00207742" purity="0.605493" nType="-99"/>
            </Node>
            <Node pos="r" depth="3" NCoef="0" IVar="-1" Cut="0" cType="1" res="0.00410697" purity="0.627643" nType="-99"/>
          </Node>
        </Node>
      </Node>
    </BinaryTree>
    <BinaryTree type="DecisionTree" boostWeight="1.0" itree="124">
      <Node pos="s" depth="0" NCoef="0" IVar="4" Cut="431698" cType="1" res="0.00880912" purity="0.499641" nType="0">
        <Node pos="l" depth="1" NCoef="0" IVar="5" Cut="2.2254" cType="1" res="0.0121867" purity="0.505546" nType="0">
          <Node pos="l" depth="2" NCoef="0" IVar="1" Cut="125816" cType="1" res="0.0174228" purity="0.515599" nType="0">
            <Node pos="l" depth="3" NCoef="0" IVar="1" Cut="92625.2" cType="1" res="0.00733545" purity="0.493918" nType="0">
              <Node pos="l" depth="4" NCoef="0" IVar="-1" Cut="0" cType="1" res="-0.00253734" purity="0.418967" nType="-99"/>
              <Node pos="r" depth="4" NCoef="0" IVar="-1" Cut="0" cType="1" res="0.000693137" purity="0.504245" nType="-99"/>
            </Node>
            <Node pos="r" depth="3" NCoef="0" IVar="3" Cut="165564" cType="1" res="0.0496821" purity="0.584932" nType="0">
              <Node pos="l" depth="4" NCoef="0" IVar="-1" Cut="0" cType="1" res="0.000972076" purity="0.564249" nType="-99"/>
              <Node pos="r" depth="4" NCoef="0" IVar="-1" Cut="0" cType="1" res="0.00288566" purity="0.599987" nType="-99"/>
            </Node>
          </Node>
          <Node pos="r" depth="2" NCoef="0" IVar="3" Cut="166844" cType="1" res="-0.012963" purity="0.457262" nType="0">
            <Node pos="l" depth="3" NCoef="0" IVar="-1" Cut="0" cType="1" res="0.00055837" purity="0.487093" nType="-99"/>
            <Node pos="r" depth="3" NCoef="0" IVar="-1" Cut="0" cType="1" res="-0.00204864" purity="0.428368" nType="-99"/>
          </Node>
        </Node>
        <Node pos="r" depth="1" NCoef="0" IVar="-1" Cut="0" cType="1" res="-0.003877" purity="0.371786" nType="-99"/>
      </Node>
    </BinaryTree>
    <BinaryTree type="DecisionTree" boostWeight="1.0" itree="125">
      <Node pos="s" depth="0" NCoef="0" IVar="1" Cut="115590" cType="1" res="0.0110471" purity="0.503666" nType="0">
        <Node pos="l" depth="1" NCoef="0" IVar="3" Cut="200575" cType="1" res="-0.00301051" purity="0.473819" nType="0">
          <Node pos="l" depth="2" NCoef="0" IVar="2" Cut="-6317.45" cType="1" res="0.00297096" purity="0.48153" nType="0">
            <Node pos="l" depth="3" NCoef="0" IVar="4" Cut="227043" cType="1" res="0.0372158" purity="0.452152" nType="0">
              <Node pos="l" depth="4" NCoef="0" IVar="-1" Cut="0" cType="1" res="-5.80879e-05" purity="0.428381" nType="-99"/>
              <Node pos="r" depth="4" NCoef="0" IVar="-1" Cut="0" cType="1" res="0.00371591" purity="0.474553" nType="-99"/>
            </Node>
            <Node pos="r" depth="3" NCoef="0" IVar="1" Cut="94369.5" cType="1" res="-0.00600571" purity="0.489231" nType="0">
              <Node pos="l" depth="4" NCoef="0" IVar="-1" Cut="0" cType="1" res="-0.00281102" purity="0.426385" nType="-99"/>
              <Node pos="r" depth="4" NCoef="0" IVar="-1" Cut="0" cType="1" res="0.000330213" purity="0.5072" nType="-99"/>
            </Node>
          </Node>
          <Node pos="r" depth="2" NCoef="0" IVar="-1" Cut="0" cType="1" res="-0.00254542" purity="0.419006" nType="-99"/>
        </Node>
        <Node pos="r" depth="1" NCoef="0" IVar="0" Cut="109748" cType="1" res="0.0288812" purity="0.541532" nType="0">
          <Node pos="l" depth="2" NCoef="0" IVar="-1" Cut="0" cType="1" res="-0.00214176" purity="0.417912" nType="-99"/>
          <Node pos="r" depth="2" NCoef="0" IVar="2" Cut="6491.62" cType="1" res="0.0415571" purity="0.564987" nType="0">
            <Node pos="l" depth="3" NCoef="0" IVar="4" Cut="311982" cType="1" res="0.0170671" purity="0.485516" nType="0">
              <Node pos="l" depth="4" NCoef="0" IVar="-1" Cut="0" cType="1" res="0.00175484" purity="0.524779" nType="-99"/>
              <Node pos="r" depth="4" NCoef="0" IVar="-1" Cut="0" cType="1" res="-0.00127043" purity="0.41144" nType="-99"/>
            </Node>
            <Node pos="r" depth="3" NCoef="0" IVar="3" Cut="187261" cType="1" res="0.0654009" purity="0.642363" nType="0">
              <Node pos="l" depth="4" NCoef="0" IVar="-1" Cut="0" cType="1" res="0.00190278" purity="0.62431" nType="-99"/>
              <Node pos="r" depth="4" NCoef="0" IVar="-1" Cut="0" cType="1" res="0.00473098" purity="0.691387" nType="-99"/>
            </Node>
          </Node>
        </Node>
      </Node>
    </BinaryTree>
    <BinaryTree type="DecisionTree" boostWeight="1.0" itree="126">
      <Node pos="s" depth="0" NCoef="0" IVar="5" Cut="2.38295" cType="1" res="0.0083096" purity="0.49869" nType="0">
        <Node pos="l" depth="1" NCoef="0" IVar="4" Cut="178271" cType="1" res="0.00191415" purity="0.496873" nType="0">
          <Node pos="l" depth="2" NCoef="0" IVar="4" Cut="168758" cType="1" res="0.0280238" purity="0.558518" nType="0">
            <Node pos="l" depth="3" NCoef="0" IVar="6" Cut="1.68602" cType="1" res="0.0162742" purity="0.549564" nType="0">
              <Node pos="l" depth="4" NCoef="0" IVar="-1" Cut="0" cType="1" res="-0.000674986" purity="0.529905" nType="-99"/>
              <Node pos="r" depth="4" NCoef="0" IVar="-1" Cut="0" cType="1" res="0.00176345" purity="0.56447" nType="-99"/>
            </Node>
            <Node pos="r" depth="3" NCoef="0" IVar="-1" Cut="0" cType="1" res="0.00247608" purity="0.5824" nType="-99"/>
          </Node>
          <Node pos="r" depth="2" NCoef="0" IVar="3" Cut="188849" cType="1" res="-0.00737003" purity="0.474953" nType="0">
            <Node pos="l" depth="3" NCoef="0" IVar="3" Cut="173177" cType="1" res="-0.0167804" purity="0.469998" nType="0">
              <Node pos="l" depth="4" NCoef="0" IVar="-1" Cut="0" cType="1" res="-0.000336307" purity="0.482319" nType="-99"/>
              <Node pos="r" depth="4" NCoef="0" IVar="-1" Cut="0" cType="1" res="-0.00255652" purity="0.433344" nType="-99"/>
            </Node>
            <Node pos="r" depth="3" NCoef="0" IVar="3" Cut="196968" cType="1" res="0.0200447" purity="0.489386" nType="0">
              <Node pos="l" depth="4" NCoef="0" IVar="-1" Cut="0" cType="1" res="0.00301812" purity="0.540012" nType="-99"/>
              <Node pos="r" depth="4" NCoef="0" IVar="-1" Cut="0" cType="1" res="-0.000117717" purity="0.466123" nType="-99"/>
            </Node>
          </Node>
        </Node>
        <Node pos="r" depth="1" NCoef="0" IVar="3" Cut="178155" cType="1" res="0.0441903" purity="0.508886" nType="0">
          <Node pos="l" depth="2" NCoef="0" IVar="-1" Cut="0" cType="1" res="0.00315852" purity="0.53804" nType="-99"/>
          <Node pos="r" depth="2" NCoef="0" IVar="-1" Cut="0" cType="1" res="-0.000437072" purity="0.449005" nType="-99"/>
        </Node>
      </Node>
    </BinaryTree>
    <BinaryTree type="DecisionTree" boostWeight="1.0" itree="127">
      <Node pos="s" depth="0" NCoef="0" IVar="0" Cut="104888" cType="1" res="-0.0013324" purity="0.489721" nType="0">
        <Node pos="l" depth="1" NCoef="0" IVar="5" Cut="1.71527" cType="1" res="-0.0449464" purity="0.399556" nType="0">
          <Node pos="l" depth="2" NCoef="0" IVar="-1" Cut="0" cType="1" res="-0.00136866" purity="0.427203" nType="-99"/>
          <Node pos="r" depth="2" NCoef="0" IVar="-1" Cut="0" cType="1" res="-0.00392967" purity="0.373515" nType="-99"/>
        </Node>
        <Node pos="r" depth="1" NCoef="0" IVar="5" Cut="0.786026" cType="1" res="0.00299276" purity="0.498662" nType="0">
          <Node pos="l" depth="2" NCoef="0" IVar="1" Cut="99916.8" cType="1" res="-0.0352963" purity="0.504448" nType="0">
            <Node pos="l" depth="3" NCoef="0" IVar="-1" Cut="0" cType="1" res="-0.0043545" purity="0.426176" nType="-99"/>
            <Node pos="r" depth="3" NCoef="0" IVar="-1" Cut="0" cType="1" res="0.00020498" purity="0.583552" nType="-99"/>
          </Node>
          <Node pos="r" depth="2" NCoef="0" IVar="5" Cut="2.45209" cType="1" res="0.00789078" purity="0.497922" nType="0">
            <Node pos="l" depth="3" NCoef="0" IVar="0" Cut="185790" cType="1" res="0.014091" purity="0.507461" nType="0">
              <Node pos="l" depth="4" NCoef="0" IVar="-1" Cut="0" cType="1" res="0.000403861" purity="0.49043" nType="-99"/>
              <Node pos="r" depth="4" NCoef="0" IVar="-1" Cut="0" cType="1" res="0.00188938" purity="0.5957" nType="-99"/>
            </Node>
            <Node pos="r" depth="3" NCoef="0" IVar="5" Cut="2.82217" cType="1" res="-0.0346164" purity="0.432526" nType="0">
              <Node pos="l" depth="4" NCoef="0" IVar="-1" Cut="0" cType="1" res="-0.00477617" purity="0.385778" nType="-99"/>
              <Node pos="r" depth="4" NCoef="0" IVar="-1" Cut="0" cType="1" res="0.000858367" purity="0.481938" nType="-99"/>
            </Node>
          </Node>
        </Node>
      </Node>
    </BinaryTree>
    <BinaryTree type="DecisionTree" boostWeight="1.0" itree="128">
      <Node pos="s" depth="0" NCoef="0" IVar="4" Cut="207369" cType="1" res="0.00627283" purity="0.497771" nType="0">
        <Node pos="l" depth="1" NCoef="0" IVar="0" Cut="182907" cType="1" res="0.0241039" purity="0.54579" nType="0">
          <Node pos="l" depth="2" NCoef="0" IVar="4" Cut="189038" cType="1" res="0.012867" purity="0.524064" nType="0">
            <Node pos="l" depth="3" NCoef="0" IVar="2" Cut="8315.56" cType="1" res="-0.00450841" purity="0.51434" nType="0">
              <Node pos="l" depth="4" NCoef="0" IVar="-1" Cut="0" cType="1" res="-0.00239531" purity="0.410517" nType="-99"/>
              <Node pos="r" depth="4" NCoef="0" IVar="-1" Cut="0" cType="1" res="0.0015101" purity="0.625463" nType="-99"/>
            </Node>
            <Node pos="r" depth="3" NCoef="0" IVar="-1" Cut="0" cType="1" res="0.00251406" purity="0.547688" nType="-99"/>
          </Node>
          <Node pos="r" depth="2" NCoef="0" IVar="-1" Cut="0" cType="1" res="0.00305938" purity="0.643559" nType="-99"/>
        </Node>
        <Node pos="r" depth="1" NCoef="0" IVar="2" Cut="-5975.41" cType="1" res="-0.0060197" purity="0.464668" nType="0">
          <Node pos="l" depth="2" NCoef="0" IVar="3" Cut="149121" cType="1" res="0.0308946" purity="0.445239" nType="0">
            <Node pos="l" depth="3" NCoef="0" IVar="-1" Cut="0" cType="1" res="0.0036301" purity="0.510718" nType="-99"/>
            <Node pos="r" depth="3" NCoef="0" IVar="4" Cut="307241" cType="1" res="0.0084974" purity="0.416037" nType="0">
              <Node pos="l" depth="4" NCoef="0" IVar="-1" Cut="0" cType="1" res="-0.00213925" purity="0.388303" nType="-99"/>
              <Node pos="r" depth="4" NCoef="0" IVar="-1" Cut="0" cType="1" res="0.00309739" purity="0.446491" nType="-99"/>
            </Node>
          </Node>
          <Node pos="r" depth="2" NCoef="0" IVar="0" Cut="114636" cType="1" res="-0.0197292" purity="0.471884" nType="0">
            <Node pos="l" depth="3" NCoef="0" IVar="3" Cut="168793" cType="1" res="-0.0672671" purity="0.376463" nType="0">
              <Node pos="l" depth="4" NCoef="0" IVar="-1" Cut="0" cType="1" res="-0.000632897" purity="0.44437" nType="-99"/>
              <Node pos="r" depth="4" NCoef="0" IVar="-1" Cut="0" cType="1" res="-0.00985874" purity="0.289662" nType="-99"/>
            </Node>
            <Node pos="r" depth="3" NCoef="0" IVar="0" Cut="123674" cType="1" res="-0.00686056" purity="0.497714" nType="0">
              <Node pos="l" depth="4" NCoef="0" IVar="-1" Cut="0" cType="1" res="0.00259129" purity="0.52553" nType="-99"/>
              <Node pos="r" depth="4" NCoef="0" IVar="-1" Cut="0" cType="1" res="-0.000997962" purity="0.492009" nType="-99"/>
            </Node>
          </Node>
        </Node>
      </Node>
    </BinaryTree>
    <BinaryTree type="DecisionTree" boostWeight="1.0" itree="129">
      <Node pos="s" depth="0" NCoef="0" IVar="3" Cut="218090" cType="1" res="0.0132334" purity="0.504989" nType="0">
        <Node pos="l" depth="1" NCoef="0" IVar="5" Cut="1.84377" cType="1" res="0.0177756" purity="0.510833" nType="0">
          <Node pos="l" depth="2" NCoef="0" IVar="1" Cut="141160" cType="1" res="0.0252583" purity="0.524351" nType="0">
            <Node pos="l" depth="3" NCoef="0" IVar="3" Cut="160367" cType="1" res="0.0182903" purity="0.511892" nType="0">
              <Node pos="l" depth="4" NCoef="0" IVar="-1" Cut="0" cType="1" res="-0.000264323" purity="0.492267" nType="-99"/>
              <Node pos="r" depth="4" NCoef="0" IVar="-1" Cut="0" cType="1" res="0.00151636" purity="0.523875" nType="-99"/>
            </Node>
            <Node pos="r" depth="3" NCoef="0" IVar="-1" Cut="0" cType="1" res="0.00326781" purity="0.628588" nType="-99"/>
          </Node>
          <Node pos="r" depth="2" NCoef="0" IVar="2" Cut="9606.67" cType="1" res="-0.000838584" purity="0.477204" nType="0">
            <Node pos="l" depth="3" NCoef="0" IVar="5" Cut="2.19204" cType="1" res="-0.0204162" purity="0.422656" nType="0">
              <Node pos="l" depth="4" NCoef="0" IVar="-1" Cut="0" cType="1" res="0.000614584" purity="0.464293" nType="-99"/>
              <Node pos="r" depth="4" NCoef="0" IVar="-1" Cut="0" cType="1" res="-0.00250283" purity="0.393711" nType="-99"/>
            </Node>
            <Node pos="r" depth="3" NCoef="0" IVar="-1" Cut="0" cType="1" res="0.00155947" purity="0.577283" nType="-99"/>
          </Node>
        </Node>
        <Node pos="r" depth="1" NCoef="0" IVar="-1" Cut="0" cType="1" res="-0.00282111" purity="0.421779" nType="-99"/>
      </Node>
    </BinaryTree>
    <BinaryTree type="DecisionTree" boostWeight="1.0" itree="130">
      <Node pos="s" depth="0" NCoef="0" IVar="0" Cut="168299" cType="1" res="0.0169852" purity="0.507981" nType="0">
        <Node pos="l" depth="1" NCoef="0" IVar="1" Cut="120731" cType="1" res="0.0234594" purity="0.499607" nType="0">
          <Node pos="l" depth="2" NCoef="0" IVar="1" Cut="97495" cType="1" res="0.0130931" purity="0.478661" nType="0">
            <Node pos="l" depth="3" NCoef="0" IVar="1" Cut="93471.4" cType="1" res="0.0363325" purity="0.486403" nType="0">
              <Node pos="l" depth="4" NCoef="0" IVar="-1" Cut="0" cType="1" res="0.000216917" purity="0.448938" nType="-99"/>
              <Node pos="r" depth="4" NCoef="0" IVar="-1" Cut="0" cType="1" res="0.00299401" purity="0.518475" nType="-99"/>
            </Node>
            <Node pos="r" depth="3" NCoef="0" IVar="5" Cut="1.31706" cType="1" res="0.000453187" purity="0.47445" nType="0">
              <Node pos="l" depth="4" NCoef="0" IVar="-1" Cut="0" cType="1" res="-0.00108471" purity="0.459509" nType="-99"/>
              <Node pos="r" depth="4" NCoef="0" IVar="-1" Cut="0" cType="1" res="0.000854475" purity="0.485959" nType="-99"/>
            </Node>
          </Node>
          <Node pos="r" depth="2" NCoef="0" IVar="5" Cut="1.83955" cType="1" res="0.0406573" purity="0.534358" nType="0">
            <Node pos="l" depth="3" NCoef="0" IVar="1" Cut="138189" cType="1" res="0.0768293" purity="0.602861" nType="0">
              <Node pos="l" depth="4" NCoef="0" IVar="-1" Cut="0" cType="1" res="0.00179318" purity="0.564829" nType="-99"/>
              <Node pos="r" depth="4" NCoef="0" IVar="-1" Cut="0" cType="1" res="0.00458215" purity="0.647912" nType="-99"/>
            </Node>
            <Node pos="r" depth="3" NCoef="0" IVar="3" Cut="166036" cType="1" res="0.013675" purity="0.483258" nType="0">
              <Node pos="l" depth="4" NCoef="0" IVar="-1" Cut="0" cType="1" res="-0.00117238" purity="0.452804" nType="-99"/>
              <Node pos="r" depth="4" NCoef="0" IVar="-1" Cut="0" cType="1" res="0.00213171" purity="0.509053" nType="-99"/>
            </Node>
          </Node>
        </Node>
        <Node pos="r" depth="1" NCoef="0" IVar="0" Cut="242178" cType="1" res="-0.00468375" purity="0.536009" nType="0">
          <Node pos="l" depth="2" NCoef="0" IVar="2" Cut="1789.34" cType="1" res="-0.0178342" purity="0.517268" nType="0">
            <Node pos="l" depth="3" NCoef="0" IVar="-1" Cut="0" cType="1" res="-0.00288795" purity="0.430411" nType="-99"/>
            <Node pos="r" depth="3" NCoef="0" IVar="1" Cut="105304" cType="1" res="0.00261485" purity="0.566932" nType="0">
              <Node pos="l" depth="4" NCoef="0" IVar="-1" Cut="0" cType="1" res="-0.00194797" purity="0.492596" nType="-99"/>
              <Node pos="r" depth="4" NCoef="0" IVar="-1" Cut="0" cType="1" res="0.00116849" purity="0.610875" nType="-99"/>
            </Node>
          </Node>
          <Node pos="r" depth="2" NCoef="0" IVar="-1" Cut="0" cType="1" res="0.00176089" purity="0.603535" nType="-99"/>
        </Node>
      </Node>
    </BinaryTree>
    <BinaryTree type="DecisionTree" boostWeight="1.0" itree="131">
      <Node pos="s" depth="0" NCoef="0" IVar="2" Cut="10964.4" cType="1" res="0.00461744" purity="0.499292" nType="0">
        <Node pos="l" depth="1" NCoef="0" IVar="0" Cut="202436" cType="1" res="-0.00705596" purity="0.447536" nType="0">
          <Node pos="l" depth="2" NCoef="0" IVar="3" Cut="125014" cType="1" res="-0.0130016" purity="0.430092" nType="0">
            <Node pos="l" depth="3" NCoef="0" IVar="-1" Cut="0" cType="1" res="0.00166461" purity="0.482851" nType="-99"/>
            <Node pos="r" depth="3" NCoef="0" IVar="5" Cut="0.838602" cType="1" res="-0.0191584" purity="0.423354" nType="0">
              <Node pos="l" depth="4" NCoef="0" IVar="-1" Cut="0" cType="1" res="0.00184293" purity="0.467729" nType="-99"/>
              <Node pos="r" depth="4" NCoef="0" IVar="-1" Cut="0" cType="1" res="-0.00133794" purity="0.419334" nType="-99"/>
            </Node>
          </Node>
          <Node pos="r" depth="2" NCoef="0" IVar="6" Cut="2.37535" cType="1" res="0.0335938" purity="0.566796" nType="0">
            <Node pos="l" depth="3" NCoef="0" IVar="-1" Cut="0" cType="1" res="-0.000124236" purity="0.529127" nType="-99"/>
            <Node pos="r" depth="3" NCoef="0" IVar="-1" Cut="0" cType="1" res="0.00282598" purity="0.602062" nType="-99"/>
          </Node>
        </Node>
        <Node pos="r" depth="1" NCoef="0" IVar="3" Cut="148713" cType="1" res="0.0319532" purity="0.62049" nType="0">
          <Node pos="l" depth="2" NCoef="0" IVar="-1" Cut="0" cType="1" res="-0.000626518" purity="0.573637" nType="-99"/>
          <Node pos="r" depth="2" NCoef="0" IVar="3" Cut="181476" cType="1" res="0.0482225" purity="0.636992" nType="0">
            <Node pos="l" depth="3" NCoef="0" IVar="4" Cut="246861" cType="1" res="0.0740426" purity="0.66909" nType="0">
              <Node pos="l" depth="4" NCoef="0" IVar="-1" Cut="0" cType="1" res="0.00366136" purity="0.712101" nType="-99"/>
              <Node pos="r" depth="4" NCoef="0" IVar="-1" Cut="0" cType="1" res="0.00135435" purity="0.579056" nType="-99"/>
            </Node>
            <Node pos="r" depth="3" NCoef="0" IVar="-1" Cut="0" cType="1" res="-2.69731e-05" purity="0.576269" nType="-99"/>
          </Node>
        </Node>
      </Node>
    </BinaryTree>
    <BinaryTree type="DecisionTree" boostWeight="1.0" itree="132">
      <Node pos="s" depth="0" NCoef="0" IVar="6" Cut="0.383172" cType="1" res="0.0161374" purity="0.507336" nType="0">
        <Node pos="l" depth="1" NCoef="0" IVar="1" Cut="115501" cType="1" res="0.0637666" purity="0.545384" nType="0">
          <Node pos="l" depth="2" NCoef="0" IVar="-1" Cut="0" cType="1" res="0.00396422" purity="0.553746" nType="-99"/>
          <Node pos="r" depth="2" NCoef="0" IVar="-1" Cut="0" cType="1" res="0.00125855" purity="0.536413" nType="-99"/>
        </Node>
        <Node pos="r" depth="1" NCoef="0" IVar="2" Cut="10035.8" cType="1" res="0.0110424" purity="0.503266" nType="0">
          <Node pos="l" depth="2" NCoef="0" IVar="0" Cut="114642" cType="1" res="2.81494e-05" purity="0.450574" nType="0">
            <Node pos="l" depth="3" NCoef="0" IVar="6" Cut="2.3344" cType="1" res="0.0223569" purity="0.426356" nType="0">
              <Node pos="l" depth="4" NCoef="0" IVar="-1" Cut="0" cType="1" res="0.00252328" purity="0.471239" nType="-99"/>
              <Node pos="r" depth="4" NCoef="0" IVar="-1" Cut="0" cType="1" res="-0.00103969" purity="0.366634" nType="-99"/>
            </Node>
            <Node pos="r" depth="3" NCoef="0" IVar="6" Cut="2.33419" cType="1" res="-0.00833847" purity="0.459649" nType="0">
              <Node pos="l" depth="4" NCoef="0" IVar="-1" Cut="0" cType="1" res="-0.00172531" purity="0.440814" nType="-99"/>
              <Node pos="r" depth="4" NCoef="0" IVar="-1" Cut="0" cType="1" res="0.000783359" purity="0.478326" nType="-99"/>
            </Node>
          </Node>
          <Node pos="r" depth="2" NCoef="0" IVar="3" Cut="187854" cType="1" res="0.036561" purity="0.625345" nType="0">
            <Node pos="l" depth="3" NCoef="0" IVar="6" Cut="1.37973" cType="1" res="0.0478626" purity="0.639707" nType="0">
              <Node pos="l" depth="4" NCoef="0" IVar="-1" Cut="0" cType="1" res="0.000449608" purity="0.577899" nType="-99"/>
              <Node pos="r" depth="4" NCoef="0" IVar="-1" Cut="0" cType="1" res="0.00309293" purity="0.690212" nType="-99"/>
            </Node>
            <Node pos="r" depth="3" NCoef="0" IVar="-1" Cut="0" cType="1" res="-0.000603831" purity="0.56208" nType="-99"/>
          </Node>
        </Node>
      </Node>
    </BinaryTree>
    <BinaryTree type="DecisionTree" boostWeight="1.0" itree="133">
      <Node pos="s" depth="0" NCoef="0" IVar="5" Cut="2.75977" cType="1" res="0.0066212" purity="0.497723" nType="0">
        <Node pos="l" depth="1" NCoef="0" IVar="1" Cut="105355" cType="1" res="0.0107155" purity="0.504159" nType="0">
          <Node pos="l" depth="2" NCoef="0" IVar="5" Cut="0.680354" cType="1" res="-0.0065002" purity="0.459311" nType="0">
            <Node pos="l" depth="3" NCoef="0" IVar="-1" Cut="0" cType="1" res="-0.00302838" purity="0.474444" nType="-99"/>
            <Node pos="r" depth="3" NCoef="0" IVar="1" Cut="96367.4" cType="1" res="-0.000396349" purity="0.457536" nType="0">
              <Node pos="l" depth="4" NCoef="0" IVar="-1" Cut="0" cType="1" res="0.00111701" purity="0.475889" nType="-99"/>
              <Node pos="r" depth="4" NCoef="0" IVar="-1" Cut="0" cType="1" res="-0.00125303" purity="0.439175" nType="-99"/>
            </Node>
          </Node>
          <Node pos="r" depth="2" NCoef="0" IVar="1" Cut="167017" cType="1" res="0.0230386" purity="0.536261" nType="0">
            <Node pos="l" depth="3" NCoef="0" IVar="3" Cut="183099" cType="1" res="0.0305514" purity="0.546893" nType="0">
              <Node pos="l" depth="4" NCoef="0" IVar="-1" Cut="0" cType="1" res="0.000947923" purity="0.542061" nType="-99"/>
              <Node pos="r" depth="4" NCoef="0" IVar="-1" Cut="0" cType="1" res="0.00223634" purity="0.557569" nType="-99"/>
            </Node>
            <Node pos="r" depth="3" NCoef="0" IVar="-1" Cut="0" cType="1" res="-0.00105806" purity="0.474265" nType="-99"/>
          </Node>
        </Node>
        <Node pos="r" depth="1" NCoef="0" IVar="-1" Cut="0" cType="1" res="-0.00309502" purity="0.404284" nType="-99"/>
      </Node>
    </BinaryTree>
    <BinaryTree type="DecisionTree" boostWeight="1.0" itree="134">
      <Node pos="s" depth="0" NCoef="0" IVar="5" Cut="2.45889" cType="1" res="0.00321136" purity="0.494642" nType="0">
        <Node pos="l" depth="1" NCoef="0" IVar="2" Cut="24015.3" cType="1" res="-0.00184718" purity="0.493876" nType="0">
          <Node pos="l" depth="2" NCoef="0" IVar="6" Cut="0.306566" cType="1" res="-0.00678194" purity="0.473025" nType="0">
            <Node pos="l" depth="3" NCoef="0" IVar="-1" Cut="0" cType="1" res="0.00234459" purity="0.517172" nType="-99"/>
            <Node pos="r" depth="3" NCoef="0" IVar="6" Cut="2.86492" cType="1" res="-0.0110904" purity="0.469754" nType="0">
              <Node pos="l" depth="4" NCoef="0" IVar="-1" Cut="0" cType="1" res="-0.00100155" purity="0.470124" nType="-99"/>
              <Node pos="r" depth="4" NCoef="0" IVar="-1" Cut="0" cType="1" res="0.00201587" purity="0.467532" nType="-99"/>
            </Node>
          </Node>
          <Node pos="r" depth="2" NCoef="0" IVar="-1" Cut="0" cType="1" res="0.00168302" purity="0.675166" nType="-99"/>
        </Node>
        <Node pos="r" depth="1" NCoef="0" IVar="3" Cut="171464" cType="1" res="0.036254" purity="0.499646" nType="0">
          <Node pos="l" depth="2" NCoef="0" IVar="-1" Cut="0" cType="1" res="0.00294623" purity="0.535631" nType="-99"/>
          <Node pos="r" depth="2" NCoef="0" IVar="-1" Cut="0" cType="1" res="-0.000232003" purity="0.448899" nType="-99"/>
        </Node>
      </Node>
    </BinaryTree>
    <BinaryTree type="DecisionTree" boostWeight="1.0" itree="135">
      <Node pos="s" depth="0" NCoef="0" IVar="3" Cut="112964" cType="1" res="-0.000346036" purity="0.490954" nType="0">
        <Node pos="l" depth="1" NCoef="0" IVar="-1" Cut="0" cType="1" res="-0.00420458" purity="0.427164" nType="-99"/>
        <Node pos="r" depth="1" NCoef="0" IVar="2" Cut="27941" cType="1" res="0.00393284" purity="0.494523" nType="0">
          <Node pos="l" depth="2" NCoef="0" IVar="1" Cut="197474" cType="1" res="-0.00173046" purity="0.4764" nType="0">
            <Node pos="l" depth="3" NCoef="0" IVar="3" Cut="208698" cType="1" res="0.00145339" purity="0.480274" nType="0">
              <Node pos="l" depth="4" NCoef="0" IVar="-1" Cut="0" cType="1" res="-0.000149334" purity="0.477797" nType="-99"/>
              <Node pos="r" depth="4" NCoef="0" IVar="-1" Cut="0" cType="1" res="0.00164466" purity="0.499205" nType="-99"/>
            </Node>
            <Node pos="r" depth="3" NCoef="0" IVar="-1" Cut="0" cType="1" res="-0.00394282" purity="0.396992" nType="-99"/>
          </Node>
          <Node pos="r" depth="2" NCoef="0" IVar="-1" Cut="0" cType="1" res="0.00302631" purity="0.723263" nType="-99"/>
        </Node>
      </Node>
    </BinaryTree>
    <BinaryTree type="DecisionTree" boostWeight="1.0" itree="136">
      <Node pos="s" depth="0" NCoef="0" IVar="2" Cut="27373.9" cType="1" res="0.011413" purity="0.504258" nType="0">
        <Node pos="l" depth="1" NCoef="0" IVar="3" Cut="148009" cType="1" res="0.00560648" purity="0.485858" nType="0">
          <Node pos="l" depth="2" NCoef="0" IVar="4" Cut="246783" cType="1" res="0.0298038" purity="0.513433" nType="0">
            <Node pos="l" depth="3" NCoef="0" IVar="2" Cut="-141.629" cType="1" res="0.0640572" purity="0.564312" nType="0">
              <Node pos="l" depth="4" NCoef="0" IVar="-1" Cut="0" cType="1" res="0.00483573" purity="0.558091" nType="-99"/>
              <Node pos="r" depth="4" NCoef="0" IVar="-1" Cut="0" cType="1" res="0.00150444" purity="0.568495" nType="-99"/>
            </Node>
            <Node pos="r" depth="3" NCoef="0" IVar="0" Cut="143904" cType="1" res="-0.0198878" purity="0.439621" nType="0">
              <Node pos="l" depth="4" NCoef="0" IVar="-1" Cut="0" cType="1" res="-0.00417176" purity="0.360437" nType="-99"/>
              <Node pos="r" depth="4" NCoef="0" IVar="-1" Cut="0" cType="1" res="0.00163046" purity="0.534673" nType="-99"/>
            </Node>
          </Node>
          <Node pos="r" depth="2" NCoef="0" IVar="6" Cut="2.68184" cType="1" res="-0.00232104" purity="0.476825" nType="0">
            <Node pos="l" depth="3" NCoef="0" IVar="0" Cut="139016" cType="1" res="0.00746144" purity="0.499401" nType="0">
              <Node pos="l" depth="4" NCoef="0" IVar="-1" Cut="0" cType="1" res="0.000976869" purity="0.487994" nType="-99"/>
              <Node pos="r" depth="4" NCoef="0" IVar="-1" Cut="0" cType="1" res="-0.000425737" purity="0.51411" nType="-99"/>
            </Node>
            <Node pos="r" depth="3" NCoef="0" IVar="6" Cut="2.95096" cType="1" res="-0.0454876" purity="0.377202" nType="0">
              <Node pos="l" depth="4" NCoef="0" IVar="-1" Cut="0" cType="1" res="-0.00523559" purity="0.347873" nType="-99"/>
              <Node pos="r" depth="4" NCoef="0" IVar="-1" Cut="0" cType="1" res="6.06443e-05" purity="0.416426" nType="-99"/>
            </Node>
          </Node>
        </Node>
        <Node pos="r" depth="1" NCoef="0" IVar="-1" Cut="0" cType="1" res="0.00320188" purity="0.723089" nType="-99"/>
      </Node>
    </BinaryTree>
    <BinaryTree type="DecisionTree" boostWeight="1.0" itree="137">
      <Node pos="s" depth="0" NCoef="0" IVar="0" Cut="158534" cType="1" res="0.0117541" purity="0.505445" nType="0">
        <Node pos="l" depth="1" NCoef="0" IVar="6" Cut="2.91168" cType="1" res="0.00166772" purity="0.477038" nType="0">
          <Node pos="l" depth="2" NCoef="0" IVar="4" Cut="373165" cType="1" res="0.00660998" purity="0.488762" nType="0">
            <Node pos="l" depth="3" NCoef="0" IVar="6" Cut="0.7813" cType="1" res="0.0124649" purity="0.501828" nType="0">
              <Node pos="l" depth="4" NCoef="0" IVar="-1" Cut="0" cType="1" res="-0.0010843" purity="0.463265" nType="-99"/>
              <Node pos="r" depth="4" NCoef="0" IVar="-1" Cut="0" cType="1" res="0.00100739" purity="0.511706" nType="-99"/>
            </Node>
            <Node pos="r" depth="3" NCoef="0" IVar="-1" Cut="0" cType="1" res="-0.00321924" purity="0.356884" nType="-99"/>
          </Node>
          <Node pos="r" depth="2" NCoef="0" IVar="-1" Cut="0" cType="1" res="-0.00374257" purity="0.335543" nType="-99"/>
        </Node>
        <Node pos="r" depth="1" NCoef="0" IVar="0" Cut="175783" cType="1" res="0.0349992" purity="0.570911" nType="0">
          <Node pos="l" depth="2" NCoef="0" IVar="-1" Cut="0" cType="1" res="0.00288326" purity="0.579289" nType="-99"/>
          <Node pos="r" depth="2" NCoef="0" IVar="6" Cut="1.61062" cType="1" res="0.0195896" purity="0.567077" nType="0">
            <Node pos="l" depth="3" NCoef="0" IVar="-1" Cut="0" cType="1" res="-0.00197347" purity="0.503577" nType="-99"/>
            <Node pos="r" depth="3" NCoef="0" IVar="4" Cut="236766" cType="1" res="0.0435018" purity="0.592526" nType="0">
              <Node pos="l" depth="4" NCoef="0" IVar="-1" Cut="0" cType="1" res="0.00339371" purity="0.65368" nType="-99"/>
              <Node pos="r" depth="4" NCoef="0" IVar="-1" Cut="0" cType="1" res="-0.000173561" purity="0.520393" nType="-99"/>
            </Node>
          </Node>
        </Node>
      </Node>
    </BinaryTree>
    <BinaryTree type="DecisionTree" boostWeight="1.0" itree="138">
      <Node pos="s" depth="0" NCoef="0" IVar="0" Cut="251216" cType="1" res="0.0117542" purity="0.504649" nType="0">
        <Node pos="l" depth="1" NCoef="0" IVar="5" Cut="1.61514" cType="1" res="0.00869433" purity="0.498263" nType="0">
          <Node pos="l" depth="2" NCoef="0" IVar="0" Cut="111082" cType="1" res="-0.0030152" purity="0.493751" nType="0">
            <Node pos="l" depth="3" NCoef="0" IVar="4" Cut="226776" cType="1" res="0.0364611" purity="0.486598" nType="0">
              <Node pos="l" depth="4" NCoef="0" IVar="-1" Cut="0" cType="1" res="0.00063258" purity="0.487228" nType="-99"/>
              <Node pos="r" depth="4" NCoef="0" IVar="-1" Cut="0" cType="1" res="0.00331802" purity="0.485764" nType="-99"/>
            </Node>
            <Node pos="r" depth="3" NCoef="0" IVar="2" Cut="2700.92" cType="1" res="-0.0110599" purity="0.495208" nType="0">
              <Node pos="l" depth="4" NCoef="0" IVar="-1" Cut="0" cType="1" res="-0.00229338" purity="0.401602" nType="-99"/>
              <Node pos="r" depth="4" NCoef="0" IVar="-1" Cut="0" cType="1" res="0.000541763" purity="0.569303" nType="-99"/>
            </Node>
          </Node>
          <Node pos="r" depth="2" NCoef="0" IVar="3" Cut="201255" cType="1" res="0.0252677" purity="0.504651" nType="0">
            <Node pos="l" depth="3" NCoef="0" IVar="3" Cut="184347" cType="1" res="0.0183754" purity="0.500508" nType="0">
              <Node pos="l" depth="4" NCoef="0" IVar="-1" Cut="0" cType="1" res="0.00130908" purity="0.510872" nType="-99"/>
              <Node pos="r" depth="4" NCoef="0" IVar="-1" Cut="0" cType="1" res="-0.001681" purity="0.441538" nType="-99"/>
            </Node>
            <Node pos="r" depth="3" NCoef="0" IVar="-1" Cut="0" cType="1" res="0.0029242" purity="0.527558" nType="-99"/>
          </Node>
        </Node>
        <Node pos="r" depth="1" NCoef="0" IVar="-1" Cut="0" cType="1" res="0.00331613" purity="0.653805" nType="-99"/>
      </Node>
    </BinaryTree>
    <BinaryTree type="DecisionTree" boostWeight="1.0" itree="139">
      <Node pos="s" depth="0" NCoef="0" IVar="4" Cut="421952" cType="1" res="0.00058652" purity="0.493181" nType="0">
        <Node pos="l" depth="1" NCoef="0" IVar="6" Cut="2.68182" cType="1" res="0.0043406" purity="0.49984" nType="0">
          <Node pos="l" depth="2" NCoef="0" IVar="2" Cut="24407.8" cType="1" res="-0.00164568" purity="0.50836" nType="0">
            <Node pos="l" depth="3" NCoef="0" IVar="5" Cut="1.72904" cType="1" res="-0.00801436" purity="0.484655" nType="0">
              <Node pos="l" depth="4" NCoef="0" IVar="-1" Cut="0" cType="1" res="-0.000979234" purity="0.480163" nType="-99"/>
              <Node pos="r" depth="4" NCoef="0" IVar="-1" Cut="0" cType="1" res="0.000525717" purity="0.491809" nType="-99"/>
            </Node>
            <Node pos="r" depth="3" NCoef="0" IVar="-1" Cut="0" cType="1" res="0.00189868" purity="0.687704" nType="-99"/>
          </Node>
          <Node pos="r" depth="2" NCoef="0" IVar="3" Cut="164890" cType="1" res="0.032131" purity="0.460289" nType="0">
            <Node pos="l" depth="3" NCoef="0" IVar="-1" Cut="0" cType="1" res="-0.000424976" purity="0.424471" nType="-99"/>
            <Node pos="r" depth="3" NCoef="0" IVar="4" Cut="257134" cType="1" res="0.0584655" purity="0.483982" nType="0">
              <Node pos="l" depth="4" NCoef="0" IVar="-1" Cut="0" cType="1" res="0.00190186" purity="0.47551" nType="-99"/>
              <Node pos="r" depth="4" NCoef="0" IVar="-1" Cut="0" cType="1" res="0.00412677" purity="0.495198" nType="-99"/>
            </Node>
          </Node>
        </Node>
        <Node pos="r" depth="1" NCoef="0" IVar="-1" Cut="0" cType="1" res="-0.00359226" purity="0.382326" nType="-99"/>
      </Node>
    </BinaryTree>
    <BinaryTree type="DecisionTree" boostWeight="1.0" itree="140">
      <Node pos="s" depth="0" NCoef="0" IVar="5" Cut="2.75987" cType="1" res="0.0103336" purity="0.504005" nType="0">
        <Node pos="l" depth="1" NCoef="0" IVar="1" Cut="115501" cType="1" res="0.0144477" purity="0.510241" nType="0">
          <Node pos="l" depth="2" NCoef="0" IVar="6" Cut="2.91165" cType="1" res="0.00254456" purity="0.480331" nType="0">
            <Node pos="l" depth="3" NCoef="0" IVar="0" Cut="104900" cType="1" res="-0.00409152" purity="0.480603" nType="0">
              <Node pos="l" depth="4" NCoef="0" IVar="-1" Cut="0" cType="1" res="-0.00434135" purity="0.374964" nType="-99"/>
              <Node pos="r" depth="4" NCoef="0" IVar="-1" Cut="0" cType="1" res="0.000123341" purity="0.490975" nType="-99"/>
            </Node>
            <Node pos="r" depth="3" NCoef="0" IVar="-1" Cut="0" cType="1" res="0.0028149" purity="0.478143" nType="-99"/>
          </Node>
          <Node pos="r" depth="2" NCoef="0" IVar="6" Cut="2.29842" cType="1" res="0.0318046" purity="0.553854" nType="0">
            <Node pos="l" depth="3" NCoef="0" IVar="1" Cut="173726" cType="1" res="0.0521483" purity="0.595667" nType="0">
              <Node pos="l" depth="4" NCoef="0" IVar="-1" Cut="0" cType="1" res="0.00281623" purity="0.617101" nType="-99"/>
              <Node pos="r" depth="4" NCoef="0" IVar="-1" Cut="0" cType="1" res="-0.000943547" purity="0.499483" nType="-99"/>
            </Node>
            <Node pos="r" depth="3" NCoef="0" IVar="6" Cut="2.70995" cType="1" res="-0.0267258" purity="0.433555" nType="0">
              <Node pos="l" depth="4" NCoef="0" IVar="-1" Cut="0" cType="1" res="-0.00438952" purity="0.408887" nType="-99"/>
              <Node pos="r" depth="4" NCoef="0" IVar="-1" Cut="0" cType="1" res="0.000903146" purity="0.455604" nType="-99"/>
            </Node>
          </Node>
        </Node>
        <Node pos="r" depth="1" NCoef="0" IVar="-1" Cut="0" cType="1" res="-0.00296125" purity="0.409876" nType="-99"/>
      </Node>
    </BinaryTree>
    <BinaryTree type="DecisionTree" boostWeight="1.0" itree="141">
      <Node pos="s" depth="0" NCoef="0" IVar="5" Cut="2.83619" cType="1" res="0.0036888" purity="0.495844" nType="0">
        <Node pos="l" depth="1" NCoef="0" IVar="2" Cut="31336.3" cType="1" res="0.00705425" purity="0.501288" nType="0">
          <Node pos="l" depth="2" NCoef="0" IVar="6" Cut="0.689663" cType="1" res="0.00337206" purity="0.488346" nType="0">
            <Node pos="l" depth="3" NCoef="0" IVar="2" Cut="12067.3" cType="1" res="-0.0207714" purity="0.451248" nType="0">
              <Node pos="l" depth="4" NCoef="0" IVar="-1" Cut="0" cType="1" res="0.000664998" purity="0.455716" nType="-99"/>
              <Node pos="r" depth="4" NCoef="0" IVar="-1" Cut="0" cType="1" res="-0.00447613" purity="0.4424" nType="-99"/>
            </Node>
            <Node pos="r" depth="3" NCoef="0" IVar="3" Cut="218096" cType="1" res="0.00756662" purity="0.494792" nType="0">
              <Node pos="l" depth="4" NCoef="0" IVar="-1" Cut="0" cType="1" res="0.00055896" purity="0.499905" nType="-99"/>
              <Node pos="r" depth="4" NCoef="0" IVar="-1" Cut="0" cType="1" res="-0.00265275" purity="0.422532" nType="-99"/>
            </Node>
          </Node>
          <Node pos="r" depth="2" NCoef="0" IVar="-1" Cut="0" cType="1" res="0.00264673" purity="0.712759" nType="-99"/>
        </Node>
        <Node pos="r" depth="1" NCoef="0" IVar="-1" Cut="0" cType="1" res="-0.00387585" purity="0.387042" nType="-99"/>
      </Node>
    </BinaryTree>
    <BinaryTree type="DecisionTree" boostWeight="1.0" itree="142">
      <Node pos="s" depth="0" NCoef="0" IVar="1" Cut="130975" cType="1" res="0.0112219" purity="0.5042" nType="0">
        <Node pos="l" depth="1" NCoef="0" IVar="5" Cut="1.84865" cType="1" res="0.00116368" purity="0.489004" nType="0">
          <Node pos="l" depth="2" NCoef="0" IVar="0" Cut="178042" cType="1" res="-0.0126816" purity="0.479098" nType="0">
            <Node pos="l" depth="3" NCoef="0" IVar="2" Cut="7378.15" cType="1" res="-0.0240074" purity="0.452525" nType="0">
              <Node pos="l" depth="4" NCoef="0" IVar="-1" Cut="0" cType="1" res="-0.00223452" purity="0.384218" nType="-99"/>
              <Node pos="r" depth="4" NCoef="0" IVar="-1" Cut="0" cType="1" res="-8.05239e-05" purity="0.55861" nType="-99"/>
            </Node>
            <Node pos="r" depth="3" NCoef="0" IVar="4" Cut="207631" cType="1" res="0.0236644" purity="0.564373" nType="0">
              <Node pos="l" depth="4" NCoef="0" IVar="-1" Cut="0" cType="1" res="0.00286354" purity="0.63136" nType="-99"/>
              <Node pos="r" depth="4" NCoef="0" IVar="-1" Cut="0" cType="1" res="-0.00144265" purity="0.488421" nType="-99"/>
            </Node>
          </Node>
          <Node pos="r" depth="2" NCoef="0" IVar="1" Cut="111989" cType="1" res="0.0619334" purity="0.532483" nType="0">
            <Node pos="l" depth="3" NCoef="0" IVar="-1" Cut="0" cType="1" res="0.00424978" purity="0.545447" nType="-99"/>
            <Node pos="r" depth="3" NCoef="0" IVar="-1" Cut="0" cType="1" res="0.001801" purity="0.521272" nType="-99"/>
          </Node>
        </Node>
        <Node pos="r" depth="1" NCoef="0" IVar="5" Cut="1.84234" cType="1" res="0.0372147" purity="0.54347" nType="0">
          <Node pos="l" depth="2" NCoef="0" IVar="6" Cut="2.14579" cType="1" res="0.07938" purity="0.627493" nType="0">
            <Node pos="l" depth="3" NCoef="0" IVar="-1" Cut="0" cType="1" res="0.00151024" purity="0.617876" nType="-99"/>
            <Node pos="r" depth="3" NCoef="0" IVar="-1" Cut="0" cType="1" res="0.00526297" purity="0.641043" nType="-99"/>
          </Node>
          <Node pos="r" depth="2" NCoef="0" IVar="0" Cut="153666" cType="1" res="0.00800267" purity="0.485259" nType="0">
            <Node pos="l" depth="3" NCoef="0" IVar="4" Cut="290937" cType="1" res="0.036295" purity="0.498984" nType="0">
              <Node pos="l" depth="4" NCoef="0" IVar="-1" Cut="0" cType="1" res="0.0026762" purity="0.563582" nType="-99"/>
              <Node pos="r" depth="4" NCoef="0" IVar="-1" Cut="0" cType="1" res="0.000316343" purity="0.419346" nType="-99"/>
            </Node>
            <Node pos="r" depth="3" NCoef="0" IVar="-1" Cut="0" cType="1" res="-0.00316765" purity="0.452932" nType="-99"/>
          </Node>
        </Node>
      </Node>
    </BinaryTree>
    <BinaryTree type="DecisionTree" boostWeight="1.0" itree="143">
      <Node pos="s" depth="0" NCoef="0" IVar="2" Cut="4173.79" cType="1" res="0.00388899" purity="0.498087" nType="0">
        <Node pos="l" depth="1" NCoef="0" IVar="5" Cut="1.75011" cType="1" res="-0.0118606" purity="0.424878" nType="0">
          <Node pos="l" depth="2" NCoef="0" IVar="5" Cut="1.46489" cType="1" res="-0.0289014" purity="0.412553" nType="0">
            <Node pos="l" depth="3" NCoef="0" IVar="0" Cut="134143" cType="1" res="-0.0117473" purity="0.429803" nType="0">
              <Node pos="l" depth="4" NCoef="0" IVar="-1" Cut="0" cType="1" res="-0.0032235" purity="0.341975" nType="-99"/>
              <Node pos="r" depth="4" NCoef="0" IVar="-1" Cut="0" cType="1" res="0.000576302" purity="0.482324" nType="-99"/>
            </Node>
            <Node pos="r" depth="3" NCoef="0" IVar="-1" Cut="0" cType="1" res="-0.00626459" purity="0.345476" nType="-99"/>
          </Node>
          <Node pos="r" depth="2" NCoef="0" IVar="5" Cut="2.25933" cType="1" res="0.0190351" purity="0.447224" nType="0">
            <Node pos="l" depth="3" NCoef="0" IVar="-1" Cut="0" cType="1" res="0.00227355" purity="0.485223" nType="-99"/>
            <Node pos="r" depth="3" NCoef="0" IVar="-1" Cut="0" cType="1" res="-0.000575888" purity="0.405592" nType="-99"/>
          </Node>
        </Node>
        <Node pos="r" depth="1" NCoef="0" IVar="0" Cut="192664" cType="1" res="0.019533" purity="0.570806" nType="0">
          <Node pos="l" depth="2" NCoef="0" IVar="0" Cut="106786" cType="1" res="0.0111041" purity="0.553437" nType="0">
            <Node pos="l" depth="3" NCoef="0" IVar="-1" Cut="0" cType="1" res="0.0034581" purity="0.600932" nType="-99"/>
            <Node pos="r" depth="3" NCoef="0" IVar="3" Cut="153849" cType="1" res="-0.0035544" purity="0.544183" nType="0">
              <Node pos="l" depth="4" NCoef="0" IVar="-1" Cut="0" cType="1" res="-0.00219692" purity="0.504734" nType="-99"/>
              <Node pos="r" depth="4" NCoef="0" IVar="-1" Cut="0" cType="1" res="0.000587754" purity="0.559653" nType="-99"/>
            </Node>
          </Node>
          <Node pos="r" depth="2" NCoef="0" IVar="0" Cut="224079" cType="1" res="0.0582676" purity="0.650626" nType="0">
            <Node pos="l" depth="3" NCoef="0" IVar="-1" Cut="0" cType="1" res="0.00322962" purity="0.659195" nType="-99"/>
            <Node pos="r" depth="3" NCoef="0" IVar="-1" Cut="0" cType="1" res="0.00161427" purity="0.642941" nType="-99"/>
          </Node>
        </Node>
      </Node>
    </BinaryTree>
    <BinaryTree type="DecisionTree" boostWeight="1.0" itree="144">
      <Node pos="s" depth="0" NCoef="0" IVar="0" Cut="104887" cType="1" res="0.0117839" purity="0.503481" nType="0">
        <Node pos="l" depth="1" NCoef="0" IVar="-1" Cut="0" cType="1" res="-0.00232657" purity="0.40356" nType="-99"/>
        <Node pos="r" depth="1" NCoef="0" IVar="5" Cut="2.53091" cType="1" res="0.0167649" purity="0.513157" nType="0">
          <Node pos="l" depth="2" NCoef="0" IVar="6" Cut="0.383289" cType="1" res="0.0204848" purity="0.520963" nType="0">
            <Node pos="l" depth="3" NCoef="0" IVar="-1" Cut="0" cType="1" res="0.00304478" purity="0.554736" nType="-99"/>
            <Node pos="r" depth="3" NCoef="0" IVar="1" Cut="182088" cType="1" res="0.0155906" purity="0.51762" nType="0">
              <Node pos="l" depth="4" NCoef="0" IVar="-1" Cut="0" cType="1" res="0.000555412" purity="0.51368" nType="-99"/>
              <Node pos="r" depth="4" NCoef="0" IVar="-1" Cut="0" cType="1" res="0.0033131" purity="0.584079" nType="-99"/>
            </Node>
          </Node>
          <Node pos="r" depth="2" NCoef="0" IVar="4" Cut="304667" cType="1" res="-0.0162597" purity="0.443861" nType="0">
            <Node pos="l" depth="3" NCoef="0" IVar="-1" Cut="0" cType="1" res="-0.00316531" purity="0.43169" nType="-99"/>
            <Node pos="r" depth="3" NCoef="0" IVar="-1" Cut="0" cType="1" res="0.00159898" purity="0.458038" nType="-99"/>
          </Node>
        </Node>
      </Node>
    </BinaryTree>
    <BinaryTree type="DecisionTree" boostWeight="1.0" itree="145">
      <Node pos="s" depth="0" NCoef="0" IVar="2" Cut="-16136.4" cType="1" res="0.00256471" purity="0.495856" nType="0">
        <Node pos="l" depth="1" NCoef="0" IVar="-1" Cut="0" cType="1" res="-0.00334883" purity="0.358827" nType="-99"/>
        <Node pos="r" depth="1" NCoef="0" IVar="5" Cut="1.38572" cType="1" res="0.00628708" purity="0.505087" nType="0">
          <Node pos="l" depth="2" NCoef="0" IVar="4" Cut="207341" cType="1" res="0.0204908" purity="0.530909" nType="0">
            <Node pos="l" depth="3" NCoef="0" IVar="2" Cut="8282.4" cType="1" res="-0.00621581" purity="0.5291" nType="0">
              <Node pos="l" depth="4" NCoef="0" IVar="-1" Cut="0" cType="1" res="-0.00246663" purity="0.417654" nType="-99"/>
              <Node pos="r" depth="4" NCoef="0" IVar="-1" Cut="0" cType="1" res="0.00136816" purity="0.646917" nType="-99"/>
            </Node>
            <Node pos="r" depth="3" NCoef="0" IVar="0" Cut="153649" cType="1" res="0.0440003" purity="0.532502" nType="0">
              <Node pos="l" depth="4" NCoef="0" IVar="-1" Cut="0" cType="1" res="0.00127948" purity="0.482723" nType="-99"/>
              <Node pos="r" depth="4" NCoef="0" IVar="-1" Cut="0" cType="1" res="0.00261603" purity="0.587879" nType="-99"/>
            </Node>
          </Node>
          <Node pos="r" depth="2" NCoef="0" IVar="5" Cut="1.51425" cType="1" res="-0.00847972" purity="0.47824" nType="0">
            <Node pos="l" depth="3" NCoef="0" IVar="-1" Cut="0" cType="1" res="-0.00328846" purity="0.431057" nType="-99"/>
            <Node pos="r" depth="3" NCoef="0" IVar="6" Cut="0.612908" cType="1" res="-0.000740627" purity="0.484852" nType="0">
              <Node pos="l" depth="4" NCoef="0" IVar="-1" Cut="0" cType="1" res="-0.00230919" purity="0.453225" nType="-99"/>
              <Node pos="r" depth="4" NCoef="0" IVar="-1" Cut="0" cType="1" res="0.000366345" purity="0.491024" nType="-99"/>
            </Node>
          </Node>
        </Node>
      </Node>
    </BinaryTree>
    <BinaryTree type="DecisionTree" boostWeight="1.0" itree="146">
      <Node pos="s" depth="0" NCoef="0" IVar="1" Cut="115565" cType="1" res="0.00939284" purity="0.501479" nType="0">
        <Node pos="l" depth="1" NCoef="0" IVar="1" Cut="111191" cType="1" res="-0.00196354" purity="0.474408" nType="0">
          <Node pos="l" depth="2" NCoef="0" IVar="6" Cut="0.38376" cType="1" res="0.00566635" purity="0.47903" nType="0">
            <Node pos="l" depth="3" NCoef="0" IVar="-1" Cut="0" cType="1" res="0.00265939" purity="0.507988" nType="-99"/>
            <Node pos="r" depth="3" NCoef="0" IVar="1" Cut="104989" cType="1" res="0.000815905" purity="0.476226" nType="0">
              <Node pos="l" depth="4" NCoef="0" IVar="-1" Cut="0" cType="1" res="-0.00044947" purity="0.458295" nType="-99"/>
              <Node pos="r" depth="4" NCoef="0" IVar="-1" Cut="0" cType="1" res="0.00146888" purity="0.535268" nType="-99"/>
            </Node>
          </Node>
          <Node pos="r" depth="2" NCoef="0" IVar="-1" Cut="0" cType="1" res="-0.00394543" purity="0.43222" nType="-99"/>
        </Node>
        <Node pos="r" depth="1" NCoef="0" IVar="5" Cut="1.58848" cType="1" res="0.0234935" purity="0.535092" nType="0">
          <Node pos="l" depth="2" NCoef="0" IVar="2" Cut="13677.3" cType="1" res="0.0532754" purity="0.606413" nType="0">
            <Node pos="l" depth="3" NCoef="0" IVar="5" Cut="1.27782" cType="1" res="0.0343853" purity="0.531961" nType="0">
              <Node pos="l" depth="4" NCoef="0" IVar="-1" Cut="0" cType="1" res="0.000393693" purity="0.513482" nType="-99"/>
              <Node pos="r" depth="4" NCoef="0" IVar="-1" Cut="0" cType="1" res="0.00278507" purity="0.554235" nType="-99"/>
            </Node>
            <Node pos="r" depth="3" NCoef="0" IVar="-1" Cut="0" cType="1" res="0.00332706" purity="0.733712" nType="-99"/>
          </Node>
          <Node pos="r" depth="2" NCoef="0" IVar="6" Cut="0.76604" cType="1" res="0.00556854" purity="0.492165" nType="0">
            <Node pos="l" depth="3" NCoef="0" IVar="-1" Cut="0" cType="1" res="-0.00222197" purity="0.463769" nType="-99"/>
            <Node pos="r" depth="3" NCoef="0" IVar="1" Cut="138012" cType="1" res="0.0204522" purity="0.500632" nType="0">
              <Node pos="l" depth="4" NCoef="0" IVar="-1" Cut="0" cType="1" res="0.00260933" purity="0.552177" nType="-99"/>
              <Node pos="r" depth="4" NCoef="0" IVar="-1" Cut="0" cType="1" res="-0.000238547" purity="0.466831" nType="-99"/>
            </Node>
          </Node>
        </Node>
      </Node>
    </BinaryTree>
    <BinaryTree type="DecisionTree" boostWeight="1.0" itree="147">
      <Node pos="s" depth="0" NCoef="0" IVar="4" Cut="217113" cType="1" res="0.00180889" purity="0.493165" nType="0">
        <Node pos="l" depth="1" NCoef="0" IVar="3" Cut="136577" cType="1" res="0.0188773" purity="0.537171" nType="0">
          <Node pos="l" depth="2" NCoef="0" IVar="-1" Cut="0" cType="1" res="-0.00336657" purity="0.458471" nType="-99"/>
          <Node pos="r" depth="2" NCoef="0" IVar="3" Cut="204302" cType="1" res="0.0317786" purity="0.549553" nType="0">
            <Node pos="l" depth="3" NCoef="0" IVar="6" Cut="0.997322" cType="1" res="0.0384713" purity="0.558248" nType="0">
              <Node pos="l" depth="4" NCoef="0" IVar="-1" Cut="0" cType="1" res="0.000675296" purity="0.517154" nType="-99"/>
              <Node pos="r" depth="4" NCoef="0" IVar="-1" Cut="0" cType="1" res="0.0020155" purity="0.570346" nType="-99"/>
            </Node>
            <Node pos="r" depth="3" NCoef="0" IVar="-1" Cut="0" cType="1" res="-0.00108553" purity="0.478903" nType="-99"/>
          </Node>
        </Node>
        <Node pos="r" depth="1" NCoef="0" IVar="3" Cut="148304" cType="1" res="-0.0127565" purity="0.455612" nType="0">
          <Node pos="l" depth="2" NCoef="0" IVar="6" Cut="2.22153" cType="1" res="0.0100876" purity="0.485304" nType="0">
            <Node pos="l" depth="3" NCoef="0" IVar="0" Cut="139038" cType="1" res="0.0290863" purity="0.520326" nType="0">
              <Node pos="l" depth="4" NCoef="0" IVar="-1" Cut="0" cType="1" res="-0.000197729" purity="0.459118" nType="-99"/>
              <Node pos="r" depth="4" NCoef="0" IVar="-1" Cut="0" cType="1" res="0.00305054" purity="0.598476" nType="-99"/>
            </Node>
            <Node pos="r" depth="3" NCoef="0" IVar="-1" Cut="0" cType="1" res="-0.00152758" purity="0.416219" nType="-99"/>
          </Node>
          <Node pos="r" depth="2" NCoef="0" IVar="2" Cut="-13482.6" cType="1" res="-0.0208115" purity="0.445142" nType="0">
            <Node pos="l" depth="3" NCoef="0" IVar="-1" Cut="0" cType="1" res="0.00208054" purity="0.433604" nType="-99"/>
            <Node pos="r" depth="3" NCoef="0" IVar="4" Cut="306800" cType="1" res="-0.0297456" purity="0.446892" nType="0">
              <Node pos="l" depth="4" NCoef="0" IVar="-1" Cut="0" cType="1" res="-0.00272049" purity="0.442203" nType="-99"/>
              <Node pos="r" depth="4" NCoef="0" IVar="-1" Cut="0" cType="1" res="-0.000268394" purity="0.452233" nType="-99"/>
            </Node>
          </Node>
        </Node>
      </Node>
    </BinaryTree>
    <BinaryTree type="DecisionTree" boostWeight="1.0" itree="148">
      <Node pos="s" depth="0" NCoef="0" IVar="0" Cut="119505" cType="1" res="0.0108516" purity="0.504122" nType="0">
        <Node pos="l" depth="1" NCoef="0" IVar="2" Cut="10305.9" cType="1" res="-0.00952402" purity="0.444672" nType="0">
          <Node pos="l" depth="2" NCoef="0" IVar="5" Cut="1.98404" cType="1" res="-0.0307627" purity="0.377491" nType="0">
            <Node pos="l" depth="3" NCoef="0" IVar="2" Cut="-5615.03" cType="1" res="-0.0587536" purity="0.344308" nType="0">
              <Node pos="l" depth="4" NCoef="0" IVar="-1" Cut="0" cType="1" res="-9.20309e-05" purity="0.374703" nType="-99"/>
              <Node pos="r" depth="4" NCoef="0" IVar="-1" Cut="0" cType="1" res="-0.00632022" purity="0.324237" nType="-99"/>
            </Node>
            <Node pos="r" depth="3" NCoef="0" IVar="-1" Cut="0" cType="1" res="0.000643111" purity="0.427826" nType="-99"/>
          </Node>
          <Node pos="r" depth="2" NCoef="0" IVar="-1" Cut="0" cType="1" res="0.00140787" purity="0.580529" nType="-99"/>
        </Node>
        <Node pos="r" depth="1" NCoef="0" IVar="0" Cut="123911" cType="1" res="0.0208637" purity="0.533334" nType="0">
          <Node pos="l" depth="2" NCoef="0" IVar="-1" Cut="0" cType="1" res="0.00324932" purity="0.560892" nType="-99"/>
          <Node pos="r" depth="2" NCoef="0" IVar="6" Cut="0.459877" cType="1" res="0.0153677" purity="0.530461" nType="0">
            <Node pos="l" depth="3" NCoef="0" IVar="-1" Cut="0" cType="1" res="-0.001884" purity="0.452097" nType="-99"/>
            <Node pos="r" depth="3" NCoef="0" IVar="6" Cut="0.91776" cType="1" res="0.0207848" purity="0.538571" nType="0">
              <Node pos="l" depth="4" NCoef="0" IVar="-1" Cut="0" cType="1" res="0.00325435" purity="0.583976" nType="-99"/>
              <Node pos="r" depth="4" NCoef="0" IVar="-1" Cut="0" cType="1" res="0.000600888" purity="0.532223" nType="-99"/>
            </Node>
          </Node>
        </Node>
      </Node>
    </BinaryTree>
    <BinaryTree type="DecisionTree" boostWeight="1.0" itree="149">
      <Node pos="s" depth="0" NCoef="0" IVar="0" Cut="158523" cType="1" res="-0.00123037" purity="0.492192" nType="0">
        <Node pos="l" depth="1" NCoef="0" IVar="0" Cut="107145" cType="1" res="-0.00952088" purity="0.465287" nType="0">
          <Node pos="l" depth="2" NCoef="0" IVar="0" Cut="102620" cType="1" res="0.0310133" purity="0.47791" nType="0">
            <Node pos="l" depth="3" NCoef="0" IVar="-1" Cut="0" cType="1" res="-0.0014425" purity="0.418356" nType="-99"/>
            <Node pos="r" depth="3" NCoef="0" IVar="-1" Cut="0" cType="1" res="0.00294433" purity="0.511066" nType="-99"/>
          </Node>
          <Node pos="r" depth="2" NCoef="0" IVar="1" Cut="156438" cType="1" res="-0.020227" purity="0.461953" nType="0">
            <Node pos="l" depth="3" NCoef="0" IVar="5" Cut="2.14906" cType="1" res="-0.0119134" purity="0.471568" nType="0">
              <Node pos="l" depth="4" NCoef="0" IVar="-1" Cut="0" cType="1" res="-0.00114934" purity="0.460713" nType="-99"/>
              <Node pos="r" depth="4" NCoef="0" IVar="-1" Cut="0" cType="1" res="0.00211302" purity="0.527769" nType="-99"/>
            </Node>
            <Node pos="r" depth="3" NCoef="0" IVar="-1" Cut="0" cType="1" res="-0.00478238" purity="0.389605" nType="-99"/>
          </Node>
        </Node>
        <Node pos="r" depth="1" NCoef="0" IVar="5" Cut="0.729565" cType="1" res="0.0182644" purity="0.555459" nType="0">
          <Node pos="l" depth="2" NCoef="0" IVar="-1" Cut="0" cType="1" res="-0.00167143" purity="0.523278" nType="-99"/>
          <Node pos="r" depth="2" NCoef="0" IVar="5" Cut="0.964973" cType="1" res="0.028942" purity="0.562069" nType="0">
            <Node pos="l" depth="3" NCoef="0" IVar="-1" Cut="0" cType="1" res="0.0030185" purity="0.601026" nType="-99"/>
            <Node pos="r" depth="3" NCoef="0" IVar="1" Cut="115606" cType="1" res="0.0110187" purity="0.545954" nType="0">
              <Node pos="l" depth="4" NCoef="0" IVar="-1" Cut="0" cType="1" res="-0.00124622" purity="0.484745" nType="-99"/>
              <Node pos="r" depth="4" NCoef="0" IVar="-1" Cut="0" cType="1" res="0.00144301" purity="0.584312" nType="-99"/>
            </Node>
          </Node>
        </Node>
      </Node>
    </BinaryTree>
    <BinaryTree type="DecisionTree" boostWeight="1.0" itree="150">
      <Node pos="s" depth="0" NCoef="0" IVar="5" Cut="1.38612" cType="1" res="0.0182739" purity="0.510479" nType="0">
        <Node pos="l" depth="1" NCoef="0" IVar="6" Cut="1.992" cType="1" res="0.037136" purity="0.542628" nType="0">
          <Node pos="l" depth="2" NCoef="0" IVar="0" Cut="114646" cType="1" res="0.0605943" purity="0.580943" nType="0">
            <Node pos="l" depth="3" NCoef="0" IVar="-1" Cut="0" cType="1" res="0.000385738" purity="0.496454" nType="-99"/>
            <Node pos="r" depth="3" NCoef="0" IVar="2" Cut="4400.49" cType="1" res="0.0734628" purity="0.601829" nType="0">
              <Node pos="l" depth="4" NCoef="0" IVar="-1" Cut="0" cType="1" res="0.00488905" purity="0.543303" nType="-99"/>
              <Node pos="r" depth="4" NCoef="0" IVar="-1" Cut="0" cType="1" res="0.00220397" purity="0.631719" nType="-99"/>
            </Node>
          </Node>
          <Node pos="r" depth="2" NCoef="0" IVar="3" Cut="142229" cType="1" res="0.0131015" purity="0.503372" nType="0">
            <Node pos="l" depth="3" NCoef="0" IVar="-1" Cut="0" cType="1" res="0.00295468" purity="0.565342" nType="-99"/>
            <Node pos="r" depth="3" NCoef="0" IVar="5" Cut="1.19056" cType="1" res="0.000837622" purity="0.489556" nType="0">
              <Node pos="l" depth="4" NCoef="0" IVar="-1" Cut="0" cType="1" res="-0.00107174" purity="0.476541" nType="-99"/>
              <Node pos="r" depth="4" NCoef="0" IVar="-1" Cut="0" cType="1" res="0.00302579" purity="0.528302" nType="-99"/>
            </Node>
          </Node>
        </Node>
        <Node pos="r" depth="1" NCoef="0" IVar="6" Cut="0.459708" cType="1" res="-0.00147287" purity="0.476821" nType="0">
          <Node pos="l" depth="2" NCoef="0" IVar="-1" Cut="0" cType="1" res="-0.00285105" purity="0.440078" nType="-99"/>
          <Node pos="r" depth="2" NCoef="0" IVar="3" Cut="126075" cType="1" res="0.00496451" purity="0.481402" nType="0">
            <Node pos="l" depth="3" NCoef="0" IVar="-1" Cut="0" cType="1" res="0.00283781" purity="0.547516" nType="-99"/>
            <Node pos="r" depth="3" NCoef="0" IVar="3" Cut="197959" cType="1" res="-0.00419162" purity="0.471426" nType="0">
              <Node pos="l" depth="4" NCoef="0" IVar="-1" Cut="0" cType="1" res="-0.000906933" purity="0.462809" nType="-99"/>
              <Node pos="r" depth="4" NCoef="0" IVar="-1" Cut="0" cType="1" res="0.00224741" purity="0.505922" nType="-99"/>
            </Node>
          </Node>
        </Node>
      </Node>
    </BinaryTree>
    <BinaryTree type="DecisionTree" boostWeight="1.0" itree="151">
      <Node pos="s" depth="0" NCoef="0" IVar="4" Cut="178066" cType="1" res="0.0101236" purity="0.501137" nType="0">
        <Node pos="l" depth="1" NCoef="0" IVar="5" Cut="0.940918" cType="1" res="0.0394374" purity="0.57453" nType="0">
          <Node pos="l" depth="2" NCoef="0" IVar="-1" Cut="0" cType="1" res="-0.000220905" purity="0.557438" nType="-99"/>
          <Node pos="r" depth="2" NCoef="0" IVar="6" Cut="1.37924" cType="1" res="0.0548358" purity="0.580491" nType="0">
            <Node pos="l" depth="3" NCoef="0" IVar="-1" Cut="0" cType="1" res="0.000410154" purity="0.53969" nType="-99"/>
            <Node pos="r" depth="3" NCoef="0" IVar="-1" Cut="0" cType="1" res="0.00328138" purity="0.602082" nType="-99"/>
          </Node>
        </Node>
        <Node pos="r" depth="1" NCoef="0" IVar="2" Cut="10964.4" cType="1" res="0.000682549" purity="0.477499" nType="0">
          <Node pos="l" depth="2" NCoef="0" IVar="0" Cut="202396" cType="1" res="0.010376" purity="0.456075" nType="0">
            <Node pos="l" depth="3" NCoef="0" IVar="0" Cut="107501" cType="1" res="0.0193509" purity="0.455271" nType="0">
              <Node pos="l" depth="4" NCoef="0" IVar="-1" Cut="0" cType="1" res="0.0029252" purity="0.449198" nType="-99"/>
              <Node pos="r" depth="4" NCoef="0" IVar="-1" Cut="0" cType="1" res="0.000608292" purity="0.456548" nType="-99"/>
            </Node>
            <Node pos="r" depth="3" NCoef="0" IVar="-1" Cut="0" cType="1" res="-0.00358484" purity="0.463042" nType="-99"/>
          </Node>
          <Node pos="r" depth="2" NCoef="0" IVar="1" Cut="105350" cType="1" res="-0.0292854" purity="0.543734" nType="0">
            <Node pos="l" depth="3" NCoef="0" IVar="-1" Cut="0" cType="1" res="-0.00532648" purity="0.453821" nType="-99"/>
            <Node pos="r" depth="3" NCoef="0" IVar="4" Cut="256563" cType="1" res="-0.00718285" purity="0.572314" nType="0">
              <Node pos="l" depth="4" NCoef="0" IVar="-1" Cut="0" cType="1" res="0.000735969" purity="0.628281" nType="-99"/>
              <Node pos="r" depth="4" NCoef="0" IVar="-1" Cut="0" cType="1" res="-0.0015617" purity="0.51183" nType="-99"/>
            </Node>
          </Node>
        </Node>
      </Node>
    </BinaryTree>
    <BinaryTree type="DecisionTree" boostWeight="1.0" itree="152">
      <Node pos="s" depth="0" NCoef="0" IVar="2" Cut="7228.17" cType="1" res="0.00701839" purity="0.501856" nType="0">
        <Node pos="l" depth="1" NCoef="0" IVar="3" Cut="171360" cType="1" res="-0.00818268" purity="0.434289" nType="0">
          <Node pos="l" depth="2" NCoef="0" IVar="6" Cut="0.996311" cType="1" res="0.00959576" purity="0.454" nType="0">
            <Node pos="l" depth="3" NCoef="0" IVar="-1" Cut="0" cType="1" res="-0.00361007" purity="0.363379" nType="-99"/>
            <Node pos="r" depth="3" NCoef="0" IVar="6" Cut="2.20033" cType="1" res="0.0210705" purity="0.4684" nType="0">
              <Node pos="l" depth="4" NCoef="0" IVar="-1" Cut="0" cType="1" res="0.00238319" purity="0.506675" nType="-99"/>
              <Node pos="r" depth="4" NCoef="0" IVar="-1" Cut="0" cType="1" res="0.000148613" purity="0.445554" nType="-99"/>
            </Node>
          </Node>
          <Node pos="r" depth="2" NCoef="0" IVar="6" Cut="1.99227" cType="1" res="-0.0283181" purity="0.411964" nType="0">
            <Node pos="l" depth="3" NCoef="0" IVar="6" Cut="0.923058" cType="1" res="-0.0503265" purity="0.388834" nType="0">
              <Node pos="l" depth="4" NCoef="0" IVar="-1" Cut="0" cType="1" res="0.000198223" purity="0.429057" nType="-99"/>
              <Node pos="r" depth="4" NCoef="0" IVar="-1" Cut="0" cType="1" res="-0.00500905" purity="0.362336" nType="-99"/>
            </Node>
            <Node pos="r" depth="3" NCoef="0" IVar="6" Cut="2.80543" cType="1" res="-0.015279" purity="0.425668" nType="0">
              <Node pos="l" depth="4" NCoef="0" IVar="-1" Cut="0" cType="1" res="0.000236328" purity="0.454506" nType="-99"/>
              <Node pos="r" depth="4" NCoef="0" IVar="-1" Cut="0" cType="1" res="-0.00379056" purity="0.361558" nType="-99"/>
            </Node>
          </Node>
        </Node>
        <Node pos="r" depth="1" NCoef="0" IVar="4" Cut="363372" cType="1" res="0.0283756" purity="0.596787" nType="0">
          <Node pos="l" depth="2" NCoef="0" IVar="6" Cut="0.772845" cType="1" res="0.0367495" purity="0.61124" nType="0">
            <Node pos="l" depth="3" NCoef="0" IVar="0" Cut="124405" cType="1" res="-0.00576242" purity="0.515105" nType="0">
              <Node pos="l" depth="4" NCoef="0" IVar="-1" Cut="0" cType="1" res="-0.00315424" purity="0.440247" nType="-99"/>
              <Node pos="r" depth="4" NCoef="0" IVar="-1" Cut="0" cType="1" res="0.00192592" purity="0.587674" nType="-99"/>
            </Node>
            <Node pos="r" depth="3" NCoef="0" IVar="5" Cut="1.70026" cType="1" res="0.0521803" purity="0.646135" nType="0">
              <Node pos="l" depth="4" NCoef="0" IVar="-1" Cut="0" cType="1" res="0.00171891" purity="0.645345" nType="-99"/>
              <Node pos="r" depth="4" NCoef="0" IVar="-1" Cut="0" cType="1" res="0.00318023" purity="0.648231" nType="-99"/>
            </Node>
          </Node>
          <Node pos="r" depth="2" NCoef="0" IVar="-1" Cut="0" cType="1" res="-0.00221863" purity="0.472672" nType="-99"/>
        </Node>
      </Node>
    </BinaryTree>
    <BinaryTree type="DecisionTree" boostWeight="1.0" itree="153">
      <Node pos="s" depth="0" NCoef="0" IVar="1" Cut="105366" cType="1" res="0.00470842" purity="0.497694" nType="0">
        <Node pos="l" depth="1" NCoef="0" IVar="4" Cut="343874" cType="1" res="-0.0201059" purity="0.447058" nType="0">
          <Node pos="l" depth="2" NCoef="0" IVar="0" Cut="109764" cType="1" res="-0.0106667" purity="0.462505" nType="0">
            <Node pos="l" depth="3" NCoef="0" IVar="-1" Cut="0" cType="1" res="0.00224963" purity="0.480651" nType="-99"/>
            <Node pos="r" depth="3" NCoef="0" IVar="6" Cut="1.99274" cType="1" res="-0.0244939" purity="0.458003" nType="0">
              <Node pos="l" depth="4" NCoef="0" IVar="-1" Cut="0" cType="1" res="0.000100938" purity="0.498388" nType="-99"/>
              <Node pos="r" depth="4" NCoef="0" IVar="-1" Cut="0" cType="1" res="-0.00292299" purity="0.416958" nType="-99"/>
            </Node>
          </Node>
          <Node pos="r" depth="2" NCoef="0" IVar="-1" Cut="0" cType="1" res="-0.00608928" purity="0.332645" nType="-99"/>
        </Node>
        <Node pos="r" depth="1" NCoef="0" IVar="5" Cut="1.16003" cType="1" res="0.0200996" purity="0.529102" nType="0">
          <Node pos="l" depth="2" NCoef="0" IVar="0" Cut="158524" cType="1" res="0.0648244" purity="0.621546" nType="0">
            <Node pos="l" depth="3" NCoef="0" IVar="-1" Cut="0" cType="1" res="0.00132219" purity="0.557792" nType="-99"/>
            <Node pos="r" depth="3" NCoef="0" IVar="-1" Cut="0" cType="1" res="0.00372892" purity="0.685707" nType="-99"/>
          </Node>
          <Node pos="r" depth="2" NCoef="0" IVar="3" Cut="207021" cType="1" res="0.00539663" purity="0.498712" nType="0">
            <Node pos="l" depth="3" NCoef="0" IVar="1" Cut="162331" cType="1" res="-0.000444232" purity="0.49556" nType="0">
              <Node pos="l" depth="4" NCoef="0" IVar="-1" Cut="0" cType="1" res="0.000683278" purity="0.515136" nType="-99"/>
              <Node pos="r" depth="4" NCoef="0" IVar="-1" Cut="0" cType="1" res="-0.00252294" purity="0.434875" nType="-99"/>
            </Node>
            <Node pos="r" depth="3" NCoef="0" IVar="-1" Cut="0" cType="1" res="0.00207928" purity="0.520229" nType="-99"/>
          </Node>
        </Node>
      </Node>
    </BinaryTree>
    <BinaryTree type="DecisionTree" boostWeight="1.0" itree="154">
      <Node pos="s" depth="0" NCoef="0" IVar="6" Cut="2.83502" cType="1" res="0.00735442" purity="0.499444" nType="0">
        <Node pos="l" depth="1" NCoef="0" IVar="4" Cut="421942" cType="1" res="0.0136926" purity="0.514805" nType="0">
          <Node pos="l" depth="2" NCoef="0" IVar="0" Cut="143907" cType="1" res="0.0172711" purity="0.52145" nType="0">
            <Node pos="l" depth="3" NCoef="0" IVar="6" Cut="1.72867" cType="1" res="0.026425" purity="0.507239" nType="0">
              <Node pos="l" depth="4" NCoef="0" IVar="-1" Cut="0" cType="1" res="0.00041269" purity="0.508079" nType="-99"/>
              <Node pos="r" depth="4" NCoef="0" IVar="-1" Cut="0" cType="1" res="0.00224996" purity="0.506259" nType="-99"/>
            </Node>
            <Node pos="r" depth="3" NCoef="0" IVar="0" Cut="155338" cType="1" res="0.0017695" purity="0.545517" nType="0">
              <Node pos="l" depth="4" NCoef="0" IVar="-1" Cut="0" cType="1" res="-0.00264591" purity="0.470012" nType="-99"/>
              <Node pos="r" depth="4" NCoef="0" IVar="-1" Cut="0" cType="1" res="0.000690897" purity="0.564542" nType="-99"/>
            </Node>
          </Node>
          <Node pos="r" depth="2" NCoef="0" IVar="-1" Cut="0" cType="1" res="-0.00317434" purity="0.38975" nType="-99"/>
        </Node>
        <Node pos="r" depth="1" NCoef="0" IVar="6" Cut="2.98456" cType="1" res="-0.0451173" purity="0.37227" nType="0">
          <Node pos="l" depth="2" NCoef="0" IVar="-1" Cut="0" cType="1" res="-0.0041847" purity="0.353498" nType="-99"/>
          <Node pos="r" depth="2" NCoef="0" IVar="-1" Cut="0" cType="1" res="-0.00155816" purity="0.389434" nType="-99"/>
        </Node>
      </Node>
    </BinaryTree>
    <BinaryTree type="DecisionTree" boostWeight="1.0" itree="155">
      <Node pos="s" depth="0" NCoef="0" IVar="0" Cut="221950" cType="1" res="0.0087398" purity="0.502693" nType="0">
        <Node pos="l" depth="1" NCoef="0" IVar="3" Cut="159937" cType="1" res="0.00282497" purity="0.488935" nType="0">
          <Node pos="l" depth="2" NCoef="0" IVar="5" Cut="1.30909" cType="1" res="-0.0144574" purity="0.474815" nType="0">
            <Node pos="l" depth="3" NCoef="0" IVar="2" Cut="7373.65" cType="1" res="-0.0380077" purity="0.468511" nType="0">
              <Node pos="l" depth="4" NCoef="0" IVar="-1" Cut="0" cType="1" res="-0.00506429" purity="0.350323" nType="-99"/>
              <Node pos="r" depth="4" NCoef="0" IVar="-1" Cut="0" cType="1" res="0.000291075" purity="0.591896" nType="-99"/>
            </Node>
            <Node pos="r" depth="3" NCoef="0" IVar="3" Cut="145685" cType="1" res="0.000807451" purity="0.478901" nType="0">
              <Node pos="l" depth="4" NCoef="0" IVar="-1" Cut="0" cType="1" res="0.000987804" purity="0.498093" nType="-99"/>
              <Node pos="r" depth="4" NCoef="0" IVar="-1" Cut="0" cType="1" res="-0.0019115" purity="0.44417" nType="-99"/>
            </Node>
          </Node>
          <Node pos="r" depth="2" NCoef="0" IVar="5" Cut="2.53299" cType="1" res="0.0125824" purity="0.496906" nType="0">
            <Node pos="l" depth="3" NCoef="0" IVar="4" Cut="295147" cType="1" res="0.0178869" purity="0.505665" nType="0">
              <Node pos="l" depth="4" NCoef="0" IVar="-1" Cut="0" cType="1" res="0.000274323" purity="0.510435" nType="-99"/>
              <Node pos="r" depth="4" NCoef="0" IVar="-1" Cut="0" cType="1" res="0.00245567" purity="0.49281" nType="-99"/>
            </Node>
            <Node pos="r" depth="3" NCoef="0" IVar="-1" Cut="0" cType="1" res="-0.00190057" purity="0.420986" nType="-99"/>
          </Node>
        </Node>
        <Node pos="r" depth="1" NCoef="0" IVar="1" Cut="110483" cType="1" res="0.0680052" purity="0.640544" nType="0">
          <Node pos="l" depth="2" NCoef="0" IVar="-1" Cut="0" cType="1" res="0.00386329" purity="0.656917" nType="-99"/>
          <Node pos="r" depth="2" NCoef="0" IVar="-1" Cut="0" cType="1" res="0.00122678" purity="0.619786" nType="-99"/>
        </Node>
      </Node>
    </BinaryTree>
    <BinaryTree type="DecisionTree" boostWeight="1.0" itree="156">
      <Node pos="s" depth="0" NCoef="0" IVar="3" Cut="165736" cType="1" res="0.0114195" purity="0.505251" nType="0">
        <Node pos="l" depth="1" NCoef="0" IVar="0" Cut="163413" cType="1" res="-0.00280217" purity="0.49655" nType="0">
          <Node pos="l" depth="2" NCoef="0" IVar="5" Cut="1.30924" cType="1" res="-0.0187451" purity="0.46235" nType="0">
            <Node pos="l" depth="3" NCoef="0" IVar="2" Cut="7198.83" cType="1" res="-0.0517473" purity="0.442177" nType="0">
              <Node pos="l" depth="4" NCoef="0" IVar="-1" Cut="0" cType="1" res="-0.00675614" purity="0.310893" nType="-99"/>
              <Node pos="r" depth="4" NCoef="0" IVar="-1" Cut="0" cType="1" res="-0.000505809" purity="0.564354" nType="-99"/>
            </Node>
            <Node pos="r" depth="3" NCoef="0" IVar="4" Cut="217245" cType="1" res="-0.000449921" purity="0.473533" nType="0">
              <Node pos="l" depth="4" NCoef="0" IVar="-1" Cut="0" cType="1" res="-0.00171429" purity="0.47497" nType="-99"/>
              <Node pos="r" depth="4" NCoef="0" IVar="-1" Cut="0" cType="1" res="0.00107352" purity="0.472567" nType="-99"/>
            </Node>
          </Node>
          <Node pos="r" depth="2" NCoef="0" IVar="4" Cut="217780" cType="1" res="0.0398852" purity="0.588121" nType="0">
            <Node pos="l" depth="3" NCoef="0" IVar="-1" Cut="0" cType="1" res="0.00414927" purity="0.671342" nType="-99"/>
            <Node pos="r" depth="3" NCoef="0" IVar="-1" Cut="0" cType="1" res="-0.00102484" purity="0.509652" nType="-99"/>
          </Node>
        </Node>
        <Node pos="r" depth="1" NCoef="0" IVar="3" Cut="175553" cType="1" res="0.0230273" purity="0.512354" nType="0">
          <Node pos="l" depth="2" NCoef="0" IVar="4" Cut="198664" cType="1" res="0.0497026" purity="0.551425" nType="0">
            <Node pos="l" depth="3" NCoef="0" IVar="-1" Cut="0" cType="1" res="0.000574742" purity="0.548622" nType="-99"/>
            <Node pos="r" depth="3" NCoef="0" IVar="4" Cut="279512" cType="1" res="0.070676" purity="0.552981" nType="0">
              <Node pos="l" depth="4" NCoef="0" IVar="-1" Cut="0" cType="1" res="0.00472743" purity="0.610565" nType="-99"/>
              <Node pos="r" depth="4" NCoef="0" IVar="-1" Cut="0" cType="1" res="0.000793796" purity="0.478722" nType="-99"/>
            </Node>
          </Node>
          <Node pos="r" depth="2" NCoef="0" IVar="1" Cut="95125" cType="1" res="0.012008" purity="0.496213" nType="0">
            <Node pos="l" depth="3" NCoef="0" IVar="-1" Cut="0" cType="1" res="-0.00351883" purity="0.392237" nType="-99"/>
            <Node pos="r" depth="3" NCoef="0" IVar="4" Cut="392532" cType="1" res="0.0244534" purity="0.514153" nType="0">
              <Node pos="l" depth="4" NCoef="0" IVar="-1" Cut="0" cType="1" res="0.000745261" purity="0.51217" nType="-99"/>
              <Node pos="r" depth="4" NCoef="0" IVar="-1" Cut="0" cType="1" res="0.00381208" purity="0.528729" nType="-99"/>
            </Node>
          </Node>
        </Node>
      </Node>
    </BinaryTree>
    <BinaryTree type="DecisionTree" boostWeight="1.0" itree="157">
      <Node pos="s" depth="0" NCoef="0" IVar="4" Cut="343914" cType="1" res="0.00379518" purity="0.498079" nType="0">
        <Node pos="l" depth="1" NCoef="0" IVar="3" Cut="130617" cType="1" res="0.0126726" purity="0.516188" nType="0">
          <Node pos="l" depth="2" NCoef="0" IVar="5" Cut="1.38393" cType="1" res="0.0443448" purity="0.548476" nType="0">
            <Node pos="l" depth="3" NCoef="0" IVar="-1" Cut="0" cType="1" res="-0.000720753" purity="0.501761" nType="-99"/>
            <Node pos="r" depth="3" NCoef="0" IVar="-1" Cut="0" cType="1" res="0.00366818" purity="0.582916" nType="-99"/>
          </Node>
          <Node pos="r" depth="2" NCoef="0" IVar="2" Cut="17006" cType="1" res="0.00729609" purity="0.510707" nType="0">
            <Node pos="l" depth="3" NCoef="0" IVar="6" Cut="0.459776" cType="1" res="-0.000694267" purity="0.476458" nType="0">
              <Node pos="l" depth="4" NCoef="0" IVar="-1" Cut="0" cType="1" res="0.0019954" purity="0.507503" nType="-99"/>
              <Node pos="r" depth="4" NCoef="0" IVar="-1" Cut="0" cType="1" res="-0.000282633" purity="0.472968" nType="-99"/>
            </Node>
            <Node pos="r" depth="3" NCoef="0" IVar="1" Cut="115595" cType="1" res="0.0448539" purity="0.671692" nType="0">
              <Node pos="l" depth="4" NCoef="0" IVar="-1" Cut="0" cType="1" res="0.000519605" purity="0.632616" nType="-99"/>
              <Node pos="r" depth="4" NCoef="0" IVar="-1" Cut="0" cType="1" res="0.00304181" purity="0.70718" nType="-99"/>
            </Node>
          </Node>
        </Node>
        <Node pos="r" depth="1" NCoef="0" IVar="1" Cut="166829" cType="1" res="-0.0454975" purity="0.397531" nType="0">
          <Node pos="l" depth="2" NCoef="0" IVar="2" Cut="-1546.59" cType="1" res="-0.069259" purity="0.36849" nType="0">
            <Node pos="l" depth="3" NCoef="0" IVar="-1" Cut="0" cType="1" res="-0.00189339" purity="0.354585" nType="-99"/>
            <Node pos="r" depth="3" NCoef="0" IVar="-1" Cut="0" cType="1" res="-0.0057815" purity="0.378141" nType="-99"/>
          </Node>
          <Node pos="r" depth="2" NCoef="0" IVar="-1" Cut="0" cType="1" res="0.000801219" purity="0.472874" nType="-99"/>
        </Node>
      </Node>
    </BinaryTree>
    <BinaryTree type="DecisionTree" boostWeight="1.0" itree="158">
      <Node pos="s" depth="0" NCoef="0" IVar="2" Cut="7569.1" cType="1" res="-0.00887871" purity="0.485584" nType="0">
        <Node pos="l" depth="1" NCoef="0" IVar="4" Cut="159405" cType="1" res="-0.0291312" purity="0.411284" nType="0">
          <Node pos="l" depth="2" NCoef="0" IVar="-1" Cut="0" cType="1" res="-0.0067726" purity="0.352679" nType="-99"/>
          <Node pos="r" depth="2" NCoef="0" IVar="6" Cut="0.842884" cType="1" res="-0.0231532" purity="0.416062" nType="0">
            <Node pos="l" depth="3" NCoef="0" IVar="-1" Cut="0" cType="1" res="0.00158244" purity="0.458239" nType="-99"/>
            <Node pos="r" depth="3" NCoef="0" IVar="1" Cut="95122.7" cType="1" res="-0.0314091" purity="0.409704" nType="0">
              <Node pos="l" depth="4" NCoef="0" IVar="-1" Cut="0" cType="1" res="0.000807934" purity="0.438966" nType="-99"/>
              <Node pos="r" depth="4" NCoef="0" IVar="-1" Cut="0" cType="1" res="-0.00234499" purity="0.403422" nType="-99"/>
            </Node>
          </Node>
        </Node>
        <Node pos="r" depth="1" NCoef="0" IVar="4" Cut="207318" cType="1" res="0.020427" purity="0.593097" nType="0">
          <Node pos="l" depth="2" NCoef="0" IVar="0" Cut="134105" cType="1" res="0.0483705" purity="0.650503" nType="0">
            <Node pos="l" depth="3" NCoef="0" IVar="-1" Cut="0" cType="1" res="0.000784579" purity="0.593291" nType="-99"/>
            <Node pos="r" depth="3" NCoef="0" IVar="-1" Cut="0" cType="1" res="0.00304743" purity="0.705424" nType="-99"/>
          </Node>
          <Node pos="r" depth="2" NCoef="0" IVar="2" Cut="14278" cType="1" res="-0.00571578" purity="0.53939" nType="0">
            <Node pos="l" depth="3" NCoef="0" IVar="6" Cut="1.14669" cType="1" res="-0.0352083" purity="0.467789" nType="0">
              <Node pos="l" depth="4" NCoef="0" IVar="-1" Cut="0" cType="1" res="0.00191083" purity="0.523647" nType="-99"/>
              <Node pos="r" depth="4" NCoef="0" IVar="-1" Cut="0" cType="1" res="-0.00708454" purity="0.405765" nType="-99"/>
            </Node>
            <Node pos="r" depth="3" NCoef="0" IVar="6" Cut="0.978184" cType="1" res="0.0166692" purity="0.593736" nType="0">
              <Node pos="l" depth="4" NCoef="0" IVar="-1" Cut="0" cType="1" res="-0.00170915" purity="0.498276" nType="-99"/>
              <Node pos="r" depth="4" NCoef="0" IVar="-1" Cut="0" cType="1" res="0.00225807" purity="0.666215" nType="-99"/>
            </Node>
          </Node>
        </Node>
      </Node>
    </BinaryTree>
    <BinaryTree type="DecisionTree" boostWeight="1.0" itree="159">
      <Node pos="s" depth="0" NCoef="0" IVar="6" Cut="0.766297" cType="1" res="0.0169506" purity="0.510175" nType="0">
        <Node pos="l" depth="1" NCoef="0" IVar="5" Cut="1.11737" cType="1" res="-0.0115835" purity="0.472461" nType="0">
          <Node pos="l" depth="2" NCoef="0" IVar="-1" Cut="0" cType="1" res="0.00250615" purity="0.519633" nType="-99"/>
          <Node pos="r" depth="2" NCoef="0" IVar="5" Cut="2.25251" cType="1" res="-0.0454046" purity="0.448892" nType="0">
            <Node pos="l" depth="3" NCoef="0" IVar="-1" Cut="0" cType="1" res="-0.00359515" purity="0.428352" nType="-99"/>
            <Node pos="r" depth="3" NCoef="0" IVar="-1" Cut="0" cType="1" res="-0.000785052" purity="0.47804" nType="-99"/>
          </Node>
        </Node>
        <Node pos="r" depth="1" NCoef="0" IVar="2" Cut="24113.1" cType="1" res="0.0228821" purity="0.518015" nType="0">
          <Node pos="l" depth="2" NCoef="0" IVar="1" Cut="182118" cType="1" res="0.0177397" purity="0.495833" nType="0">
            <Node pos="l" depth="3" NCoef="0" IVar="6" Cut="2.38843" cType="1" res="0.0139789" purity="0.493562" nType="0">
              <Node pos="l" depth="4" NCoef="0" IVar="-1" Cut="0" cType="1" res="5.98146e-05" purity="0.506012" nType="-99"/>
              <Node pos="r" depth="4" NCoef="0" IVar="-1" Cut="0" cType="1" res="0.00162056" purity="0.475631" nType="-99"/>
            </Node>
            <Node pos="r" depth="3" NCoef="0" IVar="-1" Cut="0" cType="1" res="0.00273205" purity="0.522277" nType="-99"/>
          </Node>
          <Node pos="r" depth="2" NCoef="0" IVar="-1" Cut="0" cType="1" res="0.00300469" purity="0.737125" nType="-99"/>
        </Node>
      </Node>
    </BinaryTree>
    <BinaryTree type="DecisionTree" boostWeight="1.0" itree="160">
      <Node pos="s" depth="0" NCoef="0" IVar="2" Cut="-6119.14" cType="1" res="0.0113053" purity="0.504696" nType="0">
        <Node pos="l" depth="1" NCoef="0" IVar="1" Cut="110497" cType="1" res="0.0434445" purity="0.462446" nType="0">
          <Node pos="l" depth="2" NCoef="0" IVar="3" Cut="170349" cType="1" res="0.0743988" purity="0.48447" nType="0">
            <Node pos="l" depth="3" NCoef="0" IVar="-1" Cut="0" cType="1" res="0.00213087" purity="0.456576" nType="-99"/>
            <Node pos="r" depth="3" NCoef="0" IVar="-1" Cut="0" cType="1" res="0.00524574" purity="0.511587" nType="-99"/>
          </Node>
          <Node pos="r" depth="2" NCoef="0" IVar="5" Cut="1.95238" cType="1" res="0.0106715" purity="0.439127" nType="0">
            <Node pos="l" depth="3" NCoef="0" IVar="-1" Cut="0" cType="1" res="0.00233068" purity="0.492562" nType="-99"/>
            <Node pos="r" depth="3" NCoef="0" IVar="-1" Cut="0" cType="1" res="-0.00255503" purity="0.366008" nType="-99"/>
          </Node>
        </Node>
        <Node pos="r" depth="1" NCoef="0" IVar="2" Cut="9213.59" cType="1" res="0.00240927" purity="0.516391" nType="0">
          <Node pos="l" depth="2" NCoef="0" IVar="6" Cut="2.22183" cType="1" res="-0.0136787" purity="0.445597" nType="0">
            <Node pos="l" depth="3" NCoef="0" IVar="2" Cut="3229.72" cType="1" res="-0.033203" purity="0.42317" nType="0">
              <Node pos="l" depth="4" NCoef="0" IVar="-1" Cut="0" cType="1" res="-0.000244151" purity="0.429306" nType="-99"/>
              <Node pos="r" depth="4" NCoef="0" IVar="-1" Cut="0" cType="1" res="-0.00342675" purity="0.417012" nType="-99"/>
            </Node>
            <Node pos="r" depth="3" NCoef="0" IVar="6" Cut="2.73767" cType="1" res="0.0141411" purity="0.477552" nType="0">
              <Node pos="l" depth="4" NCoef="0" IVar="-1" Cut="0" cType="1" res="0.00179864" purity="0.512305" nType="-99"/>
              <Node pos="r" depth="4" NCoef="0" IVar="-1" Cut="0" cType="1" res="-0.00318137" purity="0.381172" nType="-99"/>
            </Node>
          </Node>
          <Node pos="r" depth="2" NCoef="0" IVar="3" Cut="136327" cType="1" res="0.0226984" purity="0.605672" nType="0">
            <Node pos="l" depth="3" NCoef="0" IVar="-1" Cut="0" cType="1" res="-0.00132118" purity="0.544303" nType="-99"/>
            <Node pos="r" depth="3" NCoef="0" IVar="4" Cut="246350" cType="1" res="0.0322803" purity="0.617262" nType="0">
              <Node pos="l" depth="4" NCoef="0" IVar="-1" Cut="0" cType="1" res="0.00195402" purity="0.653273" nType="-99"/>
              <Node pos="r" depth="4" NCoef="0" IVar="-1" Cut="0" cType="1" res="0.000125678" purity="0.547795" nType="-99"/>
            </Node>
          </Node>
        </Node>
      </Node>
    </BinaryTree>
    <BinaryTree type="DecisionTree" boostWeight="1.0" itree="161">
      <Node pos="s" depth="0" NCoef="0" IVar="4" Cut="343905" cType="1" res="0.00610559" purity="0.499867" nType="0">
        <Node pos="l" depth="1" NCoef="0" IVar="1" Cut="105301" cType="1" res="0.0130552" purity="0.516498" nType="0">
          <Node pos="l" depth="2" NCoef="0" IVar="1" Cut="94850.2" cType="1" res="-0.0103274" purity="0.464034" nType="0">
            <Node pos="l" depth="3" NCoef="0" IVar="1" Cut="93310.5" cType="1" res="0.0149528" purity="0.486679" nType="0">
              <Node pos="l" depth="4" NCoef="0" IVar="-1" Cut="0" cType="1" res="-0.000732175" purity="0.454847" nType="-99"/>
              <Node pos="r" depth="4" NCoef="0" IVar="-1" Cut="0" cType="1" res="0.00316254" purity="0.548802" nType="-99"/>
            </Node>
            <Node pos="r" depth="3" NCoef="0" IVar="0" Cut="158513" cType="1" res="-0.0277282" purity="0.448448" nType="0">
              <Node pos="l" depth="4" NCoef="0" IVar="-1" Cut="0" cType="1" res="-0.002799" purity="0.409436" nType="-99"/>
              <Node pos="r" depth="4" NCoef="0" IVar="-1" Cut="0" cType="1" res="0.000947237" purity="0.533747" nType="-99"/>
            </Node>
          </Node>
          <Node pos="r" depth="2" NCoef="0" IVar="6" Cut="2.75843" cType="1" res="0.0284408" purity="0.551019" nType="0">
            <Node pos="l" depth="3" NCoef="0" IVar="6" Cut="1.88356" cType="1" res="0.0355394" purity="0.567816" nType="0">
              <Node pos="l" depth="4" NCoef="0" IVar="-1" Cut="0" cType="1" res="0.000910903" purity="0.561061" nType="-99"/>
              <Node pos="r" depth="4" NCoef="0" IVar="-1" Cut="0" cType="1" res="0.00261857" purity="0.578964" nType="-99"/>
            </Node>
            <Node pos="r" depth="3" NCoef="0" IVar="-1" Cut="0" cType="1" res="-0.00156795" purity="0.414079" nType="-99"/>
          </Node>
        </Node>
        <Node pos="r" depth="1" NCoef="0" IVar="0" Cut="139036" cType="1" res="-0.0314533" purity="0.409984" nType="0">
          <Node pos="l" depth="2" NCoef="0" IVar="-1" Cut="0" cType="1" res="-0.00513139" purity="0.316061" nType="-99"/>
          <Node pos="r" depth="2" NCoef="0" IVar="1" Cut="125848" cType="1" res="-9.28639e-05" purity="0.481738" nType="0">
            <Node pos="l" depth="3" NCoef="0" IVar="-1" Cut="0" cType="1" res="-0.00221769" purity="0.427558" nType="-99"/>
            <Node pos="r" depth="3" NCoef="0" IVar="-1" Cut="0" cType="1" res="0.00189205" purity="0.537586" nType="-99"/>
          </Node>
        </Node>
      </Node>
    </BinaryTree>
    <BinaryTree type="DecisionTree" boostWeight="1.0" itree="162">
      <Node pos="s" depth="0" NCoef="0" IVar="2" Cut="7253.82" cType="1" res="0.00748165" purity="0.501947" nType="0">
        <Node pos="l" depth="1" NCoef="0" IVar="6" Cut="2.98833" cType="1" res="-0.00315305" purity="0.43677" nType="0">
          <Node pos="l" depth="2" NCoef="0" IVar="3" Cut="119066" cType="1" res="-0.00878468" purity="0.434192" nType="0">
            <Node pos="l" depth="3" NCoef="0" IVar="-1" Cut="0" cType="1" res="0.00223272" purity="0.499017" nType="-99"/>
            <Node pos="r" depth="3" NCoef="0" IVar="4" Cut="168995" cType="1" res="-0.0142097" purity="0.428034" nType="0">
              <Node pos="l" depth="4" NCoef="0" IVar="-1" Cut="0" cType="1" res="-0.00320216" purity="0.400476" nType="-99"/>
              <Node pos="r" depth="4" NCoef="0" IVar="-1" Cut="0" cType="1" res="-0.000476737" purity="0.431826" nType="-99"/>
            </Node>
          </Node>
          <Node pos="r" depth="2" NCoef="0" IVar="-1" Cut="0" cType="1" res="0.00227012" purity="0.458242" nType="-99"/>
        </Node>
        <Node pos="r" depth="1" NCoef="0" IVar="6" Cut="0.429979" cType="1" res="0.022559" purity="0.594352" nType="0">
          <Node pos="l" depth="2" NCoef="0" IVar="-1" Cut="0" cType="1" res="-0.00155893" purity="0.476286" nType="-99"/>
          <Node pos="r" depth="2" NCoef="0" IVar="1" Cut="100240" cType="1" res="0.032053" purity="0.615259" nType="0">
            <Node pos="l" depth="3" NCoef="0" IVar="3" Cut="164274" cType="1" res="-0.00644887" purity="0.546206" nType="0">
              <Node pos="l" depth="4" NCoef="0" IVar="-1" Cut="0" cType="1" res="0.00165894" purity="0.597385" nType="-99"/>
              <Node pos="r" depth="4" NCoef="0" IVar="-1" Cut="0" cType="1" res="-0.00247722" purity="0.497974" nType="-99"/>
            </Node>
            <Node pos="r" depth="3" NCoef="0" IVar="6" Cut="1.34807" cType="1" res="0.0447047" purity="0.63795" nType="0">
              <Node pos="l" depth="4" NCoef="0" IVar="-1" Cut="0" cType="1" res="0.00103053" purity="0.591386" nType="-99"/>
              <Node pos="r" depth="4" NCoef="0" IVar="-1" Cut="0" cType="1" res="0.0025143" purity="0.676846" nType="-99"/>
            </Node>
          </Node>
        </Node>
      </Node>
    </BinaryTree>
    <BinaryTree type="DecisionTree" boostWeight="1.0" itree="163">
      <Node pos="s" depth="0" NCoef="0" IVar="4" Cut="402444" cType="1" res="0.0162914" purity="0.50995" nType="0">
        <Node pos="l" depth="1" NCoef="0" IVar="2" Cut="17546.4" cType="1" res="0.0198485" purity="0.518298" nType="0">
          <Node pos="l" depth="2" NCoef="0" IVar="4" Cut="336109" cType="1" res="0.0146678" purity="0.48624" nType="0">
            <Node pos="l" depth="3" NCoef="0" IVar="3" Cut="136615" cType="1" res="0.00872414" purity="0.486019" nType="0">
              <Node pos="l" depth="4" NCoef="0" IVar="-1" Cut="0" cType="1" res="-0.00119894" purity="0.451933" nType="-99"/>
              <Node pos="r" depth="4" NCoef="0" IVar="-1" Cut="0" cType="1" res="0.000707534" purity="0.492197" nType="-99"/>
            </Node>
            <Node pos="r" depth="3" NCoef="0" IVar="6" Cut="2.06992" cType="1" res="0.0602732" purity="0.487943" nType="0">
              <Node pos="l" depth="4" NCoef="0" IVar="-1" Cut="0" cType="1" res="0.00406215" purity="0.533543" nType="-99"/>
              <Node pos="r" depth="4" NCoef="0" IVar="-1" Cut="0" cType="1" res="0.00142717" purity="0.437615" nType="-99"/>
            </Node>
          </Node>
          <Node pos="r" depth="2" NCoef="0" IVar="0" Cut="124405" cType="1" res="0.0449253" purity="0.673471" nType="0">
            <Node pos="l" depth="3" NCoef="0" IVar="-1" Cut="0" cType="1" res="-0.000850512" purity="0.573833" nType="-99"/>
            <Node pos="r" depth="3" NCoef="0" IVar="-1" Cut="0" cType="1" res="0.00323051" purity="0.731646" nType="-99"/>
          </Node>
        </Node>
        <Node pos="r" depth="1" NCoef="0" IVar="-1" Cut="0" cType="1" res="-0.00145649" purity="0.409484" nType="-99"/>
      </Node>
    </BinaryTree>
    <BinaryTree type="DecisionTree" boostWeight="1.0" itree="164">
      <Node pos="s" depth="0" NCoef="0" IVar="1" Cut="100244" cType="1" res="0.00678872" purity="0.500815" nType="0">
        <Node pos="l" depth="1" NCoef="0" IVar="4" Cut="197613" cType="1" res="-0.0147384" purity="0.448351" nType="0">
          <Node pos="l" depth="2" NCoef="0" IVar="1" Cut="93748.7" cType="1" res="-0.0456855" purity="0.440791" nType="0">
            <Node pos="l" depth="3" NCoef="0" IVar="-1" Cut="0" cType="1" res="-0.000186379" purity="0.480827" nType="-99"/>
            <Node pos="r" depth="3" NCoef="0" IVar="-1" Cut="0" cType="1" res="-0.00464981" purity="0.407483" nType="-99"/>
          </Node>
          <Node pos="r" depth="2" NCoef="0" IVar="6" Cut="1.68602" cType="1" res="0.01169" purity="0.454806" nType="0">
            <Node pos="l" depth="3" NCoef="0" IVar="-1" Cut="0" cType="1" res="-0.00172862" purity="0.414805" nType="-99"/>
            <Node pos="r" depth="3" NCoef="0" IVar="6" Cut="2.50312" cType="1" res="0.030958" purity="0.473247" nType="0">
              <Node pos="l" depth="4" NCoef="0" IVar="-1" Cut="0" cType="1" res="0.00353929" purity="0.549797" nType="-99"/>
              <Node pos="r" depth="4" NCoef="0" IVar="-1" Cut="0" cType="1" res="-0.00117451" purity="0.39254" nType="-99"/>
            </Node>
          </Node>
        </Node>
        <Node pos="r" depth="1" NCoef="0" IVar="3" Cut="113255" cType="1" res="0.0153465" purity="0.521672" nType="0">
          <Node pos="l" depth="2" NCoef="0" IVar="-1" Cut="0" cType="1" res="-0.00216882" purity="0.459877" nType="-99"/>
          <Node pos="r" depth="2" NCoef="0" IVar="3" Cut="136028" cType="1" res="0.0189654" purity="0.525565" nType="0">
            <Node pos="l" depth="3" NCoef="0" IVar="-1" Cut="0" cType="1" res="0.0025804" purity="0.567694" nType="-99"/>
            <Node pos="r" depth="3" NCoef="0" IVar="4" Cut="256374" cType="1" res="0.0134356" purity="0.520158" nType="0">
              <Node pos="l" depth="4" NCoef="0" IVar="-1" Cut="0" cType="1" res="0.00125157" purity="0.563125" nType="-99"/>
              <Node pos="r" depth="4" NCoef="0" IVar="-1" Cut="0" cType="1" res="-0.000386245" purity="0.457558" nType="-99"/>
            </Node>
          </Node>
        </Node>
      </Node>
    </BinaryTree>
    <BinaryTree type="DecisionTree" boostWeight="1.0" itree="165">
      <Node pos="s" depth="0" NCoef="0" IVar="6" Cut="1.76236" cType="1" res="0.012776" purity="0.506296" nType="0">
        <Node pos="l" depth="1" NCoef="0" IVar="3" Cut="130092" cType="1" res="-0.00640108" purity="0.50688" nType="0">
          <Node pos="l" depth="2" NCoef="0" IVar="-1" Cut="0" cType="1" res="-0.00388183" purity="0.445478" nType="-99"/>
          <Node pos="r" depth="2" NCoef="0" IVar="2" Cut="21340.6" cType="1" res="0.00352882" purity="0.516149" nType="0">
            <Node pos="l" depth="3" NCoef="0" IVar="1" Cut="146295" cType="1" res="-0.00789077" purity="0.477519" nType="0">
              <Node pos="l" depth="4" NCoef="0" IVar="-1" Cut="0" cType="1" res="0.00031735" purity="0.49157" nType="-99"/>
              <Node pos="r" depth="4" NCoef="0" IVar="-1" Cut="0" cType="1" res="-0.00419538" purity="0.413387" nType="-99"/>
            </Node>
            <Node pos="r" depth="3" NCoef="0" IVar="-1" Cut="0" cType="1" res="0.00206182" purity="0.674876" nType="-99"/>
          </Node>
        </Node>
        <Node pos="r" depth="1" NCoef="0" IVar="3" Cut="142133" cType="1" res="0.0282261" purity="0.505824" nType="0">
          <Node pos="l" depth="2" NCoef="0" IVar="2" Cut="-6134.54" cType="1" res="0.0645105" purity="0.551308" nType="0">
            <Node pos="l" depth="3" NCoef="0" IVar="-1" Cut="0" cType="1" res="0.00500215" purity="0.550708" nType="-99"/>
            <Node pos="r" depth="3" NCoef="0" IVar="-1" Cut="0" cType="1" res="0.00127979" purity="0.551756" nType="-99"/>
          </Node>
          <Node pos="r" depth="2" NCoef="0" IVar="5" Cut="0.880079" cType="1" res="0.0195684" purity="0.494972" nType="0">
            <Node pos="l" depth="3" NCoef="0" IVar="-1" Cut="0" cType="1" res="-0.00161254" purity="0.489282" nType="-99"/>
            <Node pos="r" depth="3" NCoef="0" IVar="4" Cut="207995" cType="1" res="0.0307513" purity="0.496192" nType="0">
              <Node pos="l" depth="4" NCoef="0" IVar="-1" Cut="0" cType="1" res="0.00300898" purity="0.56833" nType="-99"/>
              <Node pos="r" depth="4" NCoef="0" IVar="-1" Cut="0" cType="1" res="0.000342823" purity="0.448331" nType="-99"/>
            </Node>
          </Node>
        </Node>
      </Node>
    </BinaryTree>
    <BinaryTree type="DecisionTree" boostWeight="1.0" itree="166">
      <Node pos="s" depth="0" NCoef="0" IVar="0" Cut="129266" cType="1" res="0.0114072" purity="0.504403" nType="0">
        <Node pos="l" depth="1" NCoef="0" IVar="4" Cut="314797" cType="1" res="-0.0206852" purity="0.439171" nType="0">
          <Node pos="l" depth="2" NCoef="0" IVar="5" Cut="1.51412" cType="1" res="-0.00904596" purity="0.466725" nType="0">
            <Node pos="l" depth="3" NCoef="0" IVar="2" Cut="-2891.46" cType="1" res="-0.0379979" purity="0.438431" nType="0">
              <Node pos="l" depth="4" NCoef="0" IVar="-1" Cut="0" cType="1" res="0.000925428" purity="0.40755" nType="-99"/>
              <Node pos="r" depth="4" NCoef="0" IVar="-1" Cut="0" cType="1" res="-0.00317781" purity="0.451801" nType="-99"/>
            </Node>
            <Node pos="r" depth="3" NCoef="0" IVar="4" Cut="213551" cType="1" res="0.0118663" purity="0.487163" nType="0">
              <Node pos="l" depth="4" NCoef="0" IVar="-1" Cut="0" cType="1" res="0.00153904" purity="0.533483" nType="-99"/>
              <Node pos="r" depth="4" NCoef="0" IVar="-1" Cut="0" cType="1" res="-0.000455043" purity="0.441636" nType="-99"/>
            </Node>
          </Node>
          <Node pos="r" depth="2" NCoef="0" IVar="-1" Cut="0" cType="1" res="-0.0054424" purity="0.308497" nType="-99"/>
        </Node>
        <Node pos="r" depth="1" NCoef="0" IVar="6" Cut="0.919512" cType="1" res="0.0363247" purity="0.555052" nType="0">
          <Node pos="l" depth="2" NCoef="0" IVar="1" Cut="130911" cType="1" res="0.0709293" purity="0.576289" nType="0">
            <Node pos="l" depth="3" NCoef="0" IVar="-1" Cut="0" cType="1" res="0.00436183" purity="0.599909" nType="-99"/>
            <Node pos="r" depth="3" NCoef="0" IVar="-1" Cut="0" cType="1" res="0.000563975" purity="0.536623" nType="-99"/>
          </Node>
          <Node pos="r" depth="2" NCoef="0" IVar="6" Cut="2.38282" cType="1" res="0.0273455" purity="0.549541" nType="0">
            <Node pos="l" depth="3" NCoef="0" IVar="0" Cut="183342" cType="1" res="0.0105888" purity="0.562699" nType="0">
              <Node pos="l" depth="4" NCoef="0" IVar="-1" Cut="0" cType="1" res="-0.000479186" purity="0.527002" nType="-99"/>
              <Node pos="r" depth="4" NCoef="0" IVar="-1" Cut="0" cType="1" res="0.00208555" purity="0.630435" nType="-99"/>
            </Node>
            <Node pos="r" depth="3" NCoef="0" IVar="0" Cut="191710" cType="1" res="0.0517598" purity="0.530371" nType="0">
              <Node pos="l" depth="4" NCoef="0" IVar="-1" Cut="0" cType="1" res="0.00317262" purity="0.527058" nType="-99"/>
              <Node pos="r" depth="4" NCoef="0" IVar="-1" Cut="0" cType="1" res="0.000205716" purity="0.53861" nType="-99"/>
            </Node>
          </Node>
        </Node>
      </Node>
    </BinaryTree>
    <BinaryTree type="DecisionTree" boostWeight="1.0" itree="167">
      <Node pos="s" depth="0" NCoef="0" IVar="5" Cut="2.53084" cType="1" res="0.00186688" purity="0.495069" nType="0">
        <Node pos="l" depth="1" NCoef="0" IVar="6" Cut="2.45194" cType="1" res="0.00650885" purity="0.503975" nType="0">
          <Node pos="l" depth="2" NCoef="0" IVar="0" Cut="114636" cType="1" res="0.0148526" purity="0.532922" nType="0">
            <Node pos="l" depth="3" NCoef="0" IVar="6" Cut="0.956696" cType="1" res="-0.0175498" purity="0.459891" nType="0">
              <Node pos="l" depth="4" NCoef="0" IVar="-1" Cut="0" cType="1" res="-0.00406081" purity="0.392784" nType="-99"/>
              <Node pos="r" depth="4" NCoef="0" IVar="-1" Cut="0" cType="1" res="0.000401962" purity="0.493369" nType="-99"/>
            </Node>
            <Node pos="r" depth="3" NCoef="0" IVar="4" Cut="382788" cType="1" res="0.0257117" purity="0.557397" nType="0">
              <Node pos="l" depth="4" NCoef="0" IVar="-1" Cut="0" cType="1" res="0.00143548" purity="0.569034" nType="-99"/>
              <Node pos="r" depth="4" NCoef="0" IVar="-1" Cut="0" cType="1" res="-0.00196817" purity="0.44085" nType="-99"/>
            </Node>
          </Node>
          <Node pos="r" depth="2" NCoef="0" IVar="6" Cut="2.60346" cType="1" res="-0.015643" purity="0.427122" nType="0">
            <Node pos="l" depth="3" NCoef="0" IVar="-1" Cut="0" cType="1" res="-0.00406535" purity="0.40226" nType="-99"/>
            <Node pos="r" depth="3" NCoef="0" IVar="0" Cut="153632" cType="1" res="-0.000639194" purity="0.433823" nType="0">
              <Node pos="l" depth="4" NCoef="0" IVar="-1" Cut="0" cType="1" res="-0.00136614" purity="0.37827" nType="-99"/>
              <Node pos="r" depth="4" NCoef="0" IVar="-1" Cut="0" cType="1" res="0.00157777" purity="0.524184" nType="-99"/>
            </Node>
          </Node>
        </Node>
        <Node pos="r" depth="1" NCoef="0" IVar="3" Cut="173137" cType="1" res="-0.0383872" purity="0.41784" nType="0">
          <Node pos="l" depth="2" NCoef="0" IVar="-1" Cut="0" cType="1" res="-0.000740194" purity="0.451481" nType="-99"/>
          <Node pos="r" depth="2" NCoef="0" IVar="-1" Cut="0" cType="1" res="-0.00434468" purity="0.371267" nType="-99"/>
        </Node>
      </Node>
    </BinaryTree>
    <BinaryTree type="DecisionTree" boostWeight="1.0" itree="168">
      <Node pos="s" depth="0" NCoef="0" IVar="1" Cut="115609" cType="1" res="0.0071571" purity="0.500252" nType="0">
        <Node pos="l" depth="1" NCoef="0" IVar="0" Cut="231688" cType="1" res="-0.0102559" purity="0.466105" nType="0">
          <Node pos="l" depth="2" NCoef="0" IVar="0" Cut="170660" cType="1" res="-0.0150751" purity="0.454049" nType="0">
            <Node pos="l" depth="3" NCoef="0" IVar="1" Cut="97495.3" cType="1" res="-0.00521223" purity="0.454745" nType="0">
              <Node pos="l" depth="4" NCoef="0" IVar="-1" Cut="0" cType="1" res="0.00136761" purity="0.475924" nType="-99"/>
              <Node pos="r" depth="4" NCoef="0" IVar="-1" Cut="0" cType="1" res="-0.00141197" purity="0.440713" nType="-99"/>
            </Node>
            <Node pos="r" depth="3" NCoef="0" IVar="3" Cut="168438" cType="1" res="-0.0660662" purity="0.450447" nType="0">
              <Node pos="l" depth="4" NCoef="0" IVar="-1" Cut="0" cType="1" res="-0.00171565" purity="0.489723" nType="-99"/>
              <Node pos="r" depth="4" NCoef="0" IVar="-1" Cut="0" cType="1" res="-0.00600724" purity="0.409217" nType="-99"/>
            </Node>
          </Node>
          <Node pos="r" depth="2" NCoef="0" IVar="-1" Cut="0" cType="1" res="0.00205103" purity="0.617054" nType="-99"/>
        </Node>
        <Node pos="r" depth="1" NCoef="0" IVar="3" Cut="160631" cType="1" res="0.0285956" purity="0.542293" nType="0">
          <Node pos="l" depth="2" NCoef="0" IVar="3" Cut="148591" cType="1" res="-0.00108335" purity="0.513913" nType="0">
            <Node pos="l" depth="3" NCoef="0" IVar="4" Cut="293735" cType="1" res="0.0212615" purity="0.53915" nType="0">
              <Node pos="l" depth="4" NCoef="0" IVar="-1" Cut="0" cType="1" res="0.00196609" purity="0.588623" nType="-99"/>
              <Node pos="r" depth="4" NCoef="0" IVar="-1" Cut="0" cType="1" res="-0.00127375" purity="0.446898" nType="-99"/>
            </Node>
            <Node pos="r" depth="3" NCoef="0" IVar="-1" Cut="0" cType="1" res="-0.00298159" purity="0.454048" nType="-99"/>
          </Node>
          <Node pos="r" depth="2" NCoef="0" IVar="1" Cut="129111" cType="1" res="0.0461499" purity="0.559079" nType="0">
            <Node pos="l" depth="3" NCoef="0" IVar="-1" Cut="0" cType="1" res="0.00305595" purity="0.595893" nType="-99"/>
            <Node pos="r" depth="3" NCoef="0" IVar="2" Cut="10875" cType="1" res="0.0312676" purity="0.538485" nType="0">
              <Node pos="l" depth="4" NCoef="0" IVar="-1" Cut="0" cType="1" res="0.000136785" purity="0.465776" nType="-99"/>
              <Node pos="r" depth="4" NCoef="0" IVar="-1" Cut="0" cType="1" res="0.00310853" purity="0.664177" nType="-99"/>
            </Node>
          </Node>
        </Node>
      </Node>
    </BinaryTree>
    <BinaryTree type="DecisionTree" boostWeight="1.0" itree="169">
      <Node pos="s" depth="0" NCoef="0" IVar="0" Cut="119513" cType="1" res="0.0129391" purity="0.506709" nType="0">
        <Node pos="l" depth="1" NCoef="0" IVar="2" Cut="-6283.89" cType="1" res="-0.0142076" purity="0.433111" nType="0">
          <Node pos="l" depth="2" NCoef="0" IVar="-1" Cut="0" cType="1" res="0.00186912" purity="0.409834" nType="-99"/>
          <Node pos="r" depth="2" NCoef="0" IVar="6" Cut="2.22186" cType="1" res="-0.0311326" purity="0.441535" nType="0">
            <Node pos="l" depth="3" NCoef="0" IVar="1" Cut="100152" cType="1" res="-0.0100166" purity="0.474845" nType="0">
              <Node pos="l" depth="4" NCoef="0" IVar="-1" Cut="0" cType="1" res="-0.00425285" purity="0.385515" nType="-99"/>
              <Node pos="r" depth="4" NCoef="0" IVar="-1" Cut="0" cType="1" res="0.000470247" purity="0.503038" nType="-99"/>
            </Node>
            <Node pos="r" depth="3" NCoef="0" IVar="-1" Cut="0" cType="1" res="-0.0103682" purity="0.278041" nType="-99"/>
          </Node>
        </Node>
        <Node pos="r" depth="1" NCoef="0" IVar="4" Cut="314642" cType="1" res="0.0259304" purity="0.54193" nType="0">
          <Node pos="l" depth="2" NCoef="0" IVar="1" Cut="159468" cType="1" res="0.0162335" purity="0.547162" nType="0">
            <Node pos="l" depth="3" NCoef="0" IVar="0" Cut="207550" cType="1" res="0.0244924" purity="0.554541" nType="0">
              <Node pos="l" depth="4" NCoef="0" IVar="-1" Cut="0" cType="1" res="0.000718795" purity="0.533864" nType="-99"/>
              <Node pos="r" depth="4" NCoef="0" IVar="-1" Cut="0" cType="1" res="0.00287667" purity="0.664361" nType="-99"/>
            </Node>
            <Node pos="r" depth="3" NCoef="0" IVar="-1" Cut="0" cType="1" res="-0.0034525" purity="0.473989" nType="-99"/>
          </Node>
          <Node pos="r" depth="2" NCoef="0" IVar="0" Cut="145922" cType="1" res="0.053476" purity="0.527069" nType="0">
            <Node pos="l" depth="3" NCoef="0" IVar="-1" Cut="0" cType="1" res="0.00014588" purity="0.437923" nType="-99"/>
            <Node pos="r" depth="3" NCoef="0" IVar="6" Cut="1.91565" cType="1" res="0.0785047" purity="0.571181" nType="0">
              <Node pos="l" depth="4" NCoef="0" IVar="-1" Cut="0" cType="1" res="0.00149551" purity="0.54343" nType="-99"/>
              <Node pos="r" depth="4" NCoef="0" IVar="-1" Cut="0" cType="1" res="0.00457269" purity="0.593967" nType="-99"/>
            </Node>
          </Node>
        </Node>
      </Node>
    </BinaryTree>
    <BinaryTree type="DecisionTree" boostWeight="1.0" itree="170">
      <Node pos="s" depth="0" NCoef="0" IVar="3" Cut="218090" cType="1" res="-0.000780888" purity="0.49195" nType="0">
        <Node pos="l" depth="1" NCoef="0" IVar="6" Cut="0.68964" cType="1" res="0.00277118" purity="0.496958" nType="0">
          <Node pos="l" depth="2" NCoef="0" IVar="1" Cut="125825" cType="1" res="-0.0285301" purity="0.448299" nType="0">
            <Node pos="l" depth="3" NCoef="0" IVar="3" Cut="164361" cType="1" res="-0.00305401" purity="0.458347" nType="0">
              <Node pos="l" depth="4" NCoef="0" IVar="-1" Cut="0" cType="1" res="-0.00218499" purity="0.421285" nType="-99"/>
              <Node pos="r" depth="4" NCoef="0" IVar="-1" Cut="0" cType="1" res="0.00144344" purity="0.492087" nType="-99"/>
            </Node>
            <Node pos="r" depth="3" NCoef="0" IVar="-1" Cut="0" cType="1" res="-0.00390373" purity="0.430655" nType="-99"/>
          </Node>
          <Node pos="r" depth="2" NCoef="0" IVar="4" Cut="158570" cType="1" res="0.00842685" purity="0.50575" nType="0">
            <Node pos="l" depth="3" NCoef="0" IVar="-1" Cut="0" cType="1" res="0.00216178" purity="0.599719" nType="-99"/>
            <Node pos="r" depth="3" NCoef="0" IVar="3" Cut="171923" cType="1" res="0.00286194" purity="0.492468" nType="0">
              <Node pos="l" depth="4" NCoef="0" IVar="-1" Cut="0" cType="1" res="0.000704269" purity="0.507323" nType="-99"/>
              <Node pos="r" depth="4" NCoef="0" IVar="-1" Cut="0" cType="1" res="-0.000737558" purity="0.470762" nType="-99"/>
            </Node>
          </Node>
        </Node>
        <Node pos="r" depth="1" NCoef="0" IVar="-1" Cut="0" cType="1" res="-0.00299035" purity="0.418203" nType="-99"/>
      </Node>
    </BinaryTree>
    <BinaryTree type="DecisionTree" boostWeight="1.0" itree="171">
      <Node pos="s" depth="0" NCoef="0" IVar="6" Cut="2.91164" cType="1" res="0.000132715" purity="0.493394" nType="0">
        <Node pos="l" depth="1" NCoef="0" IVar="2" Cut="31352.6" cType="1" res="-0.00428956" purity="0.496463" nType="0">
          <Node pos="l" depth="2" NCoef="0" IVar="2" Cut="17443.4" cType="1" res="-0.00787129" purity="0.481738" nType="0">
            <Node pos="l" depth="3" NCoef="0" IVar="0" Cut="143902" cType="1" res="-0.00276733" purity="0.471024" nType="0">
              <Node pos="l" depth="4" NCoef="0" IVar="-1" Cut="0" cType="1" res="0.000468725" purity="0.458293" nType="-99"/>
              <Node pos="r" depth="4" NCoef="0" IVar="-1" Cut="0" cType="1" res="-0.00104036" purity="0.490844" nType="-99"/>
            </Node>
            <Node pos="r" depth="3" NCoef="0" IVar="2" Cut="22871.4" cType="1" res="-0.0459081" purity="0.561584" nType="0">
              <Node pos="l" depth="4" NCoef="0" IVar="-1" Cut="0" cType="1" res="-0.00353964" purity="0.514691" nType="-99"/>
              <Node pos="r" depth="4" NCoef="0" IVar="-1" Cut="0" cType="1" res="-0.000749193" purity="0.61577" nType="-99"/>
            </Node>
          </Node>
          <Node pos="r" depth="2" NCoef="0" IVar="-1" Cut="0" cType="1" res="0.00200123" purity="0.706694" nType="-99"/>
        </Node>
        <Node pos="r" depth="1" NCoef="0" IVar="6" Cut="3.01818" cType="1" res="0.0470957" purity="0.460811" nType="0">
          <Node pos="l" depth="2" NCoef="0" IVar="-1" Cut="0" cType="1" res="0.00487978" purity="0.518004" nType="-99"/>
          <Node pos="r" depth="2" NCoef="0" IVar="-1" Cut="0" cType="1" res="-0.000611143" purity="0.402896" nType="-99"/>
        </Node>
      </Node>
    </BinaryTree>
    <BinaryTree type="DecisionTree" boostWeight="1.0" itree="172">
      <Node pos="s" depth="0" NCoef="0" IVar="0" Cut="163387" cType="1" res="0.00324854" purity="0.496666" nType="0">
        <Node pos="l" depth="1" NCoef="0" IVar="3" Cut="217936" cType="1" res="-0.00679556" purity="0.467499" nType="0">
          <Node pos="l" depth="2" NCoef="0" IVar="1" Cut="171948" cType="1" res="-0.00102186" purity="0.475177" nType="0">
            <Node pos="l" depth="3" NCoef="0" IVar="4" Cut="256335" cType="1" res="-0.00752282" purity="0.471215" nType="0">
              <Node pos="l" depth="4" NCoef="0" IVar="-1" Cut="0" cType="1" res="0.000421783" purity="0.506552" nType="-99"/>
              <Node pos="r" depth="4" NCoef="0" IVar="-1" Cut="0" cType="1" res="-0.00271752" purity="0.385726" nType="-99"/>
            </Node>
            <Node pos="r" depth="3" NCoef="0" IVar="-1" Cut="0" cType="1" res="0.00290453" purity="0.515457" nType="-99"/>
          </Node>
          <Node pos="r" depth="2" NCoef="0" IVar="-1" Cut="0" cType="1" res="-0.00641861" purity="0.343989" nType="-99"/>
        </Node>
        <Node pos="r" depth="1" NCoef="0" IVar="6" Cut="2.14549" cType="1" res="0.029279" purity="0.572256" nType="0">
          <Node pos="l" depth="2" NCoef="0" IVar="1" Cut="136050" cType="1" res="0.0611108" purity="0.61939" nType="0">
            <Node pos="l" depth="3" NCoef="0" IVar="0" Cut="206671" cType="1" res="0.0810333" purity="0.640389" nType="0">
              <Node pos="l" depth="4" NCoef="0" IVar="-1" Cut="0" cType="1" res="0.00264313" purity="0.60537" nType="-99"/>
              <Node pos="r" depth="4" NCoef="0" IVar="-1" Cut="0" cType="1" res="0.00429807" purity="0.698471" nType="-99"/>
            </Node>
            <Node pos="r" depth="3" NCoef="0" IVar="-1" Cut="0" cType="1" res="0.000889553" purity="0.575791" nType="-99"/>
          </Node>
          <Node pos="r" depth="2" NCoef="0" IVar="1" Cut="100234" cType="1" res="-0.0148528" purity="0.50691" nType="0">
            <Node pos="l" depth="3" NCoef="0" IVar="-1" Cut="0" cType="1" res="-0.00300068" purity="0.434514" nType="-99"/>
            <Node pos="r" depth="3" NCoef="0" IVar="-1" Cut="0" cType="1" res="0.000280232" purity="0.547824" nType="-99"/>
          </Node>
        </Node>
      </Node>
    </BinaryTree>
    <BinaryTree type="DecisionTree" boostWeight="1.0" itree="173">
      <Node pos="s" depth="0" NCoef="0" IVar="4" Cut="373193" cType="1" res="-0.00464726" purity="0.487597" nType="0">
        <Node pos="l" depth="1" NCoef="0" IVar="4" Cut="186673" cType="1" res="-0.0118558" purity="0.488454" nType="0">
          <Node pos="l" depth="2" NCoef="0" IVar="4" Cut="146546" cType="1" res="0.0061799" purity="0.539056" nType="0">
            <Node pos="l" depth="3" NCoef="0" IVar="-1" Cut="0" cType="1" res="-0.00318579" purity="0.489292" nType="-99"/>
            <Node pos="r" depth="3" NCoef="0" IVar="0" Cut="114665" cType="1" res="0.022102" purity="0.551087" nType="0">
              <Node pos="l" depth="4" NCoef="0" IVar="-1" Cut="0" cType="1" res="-0.000602011" purity="0.480008" nType="-99"/>
              <Node pos="r" depth="4" NCoef="0" IVar="-1" Cut="0" cType="1" res="0.00150544" purity="0.575697" nType="-99"/>
            </Node>
          </Node>
          <Node pos="r" depth="2" NCoef="0" IVar="5" Cut="1.09545" cType="1" res="-0.0205236" purity="0.464135" nType="0">
            <Node pos="l" depth="3" NCoef="0" IVar="0" Cut="192632" cType="1" res="-0.0533633" purity="0.453037" nType="0">
              <Node pos="l" depth="4" NCoef="0" IVar="-1" Cut="0" cType="1" res="-0.00424007" purity="0.411946" nType="-99"/>
              <Node pos="r" depth="4" NCoef="0" IVar="-1" Cut="0" cType="1" res="0.000147208" purity="0.554218" nType="-99"/>
            </Node>
            <Node pos="r" depth="3" NCoef="0" IVar="5" Cut="2.0437" cType="1" res="-0.0100424" purity="0.467678" nType="0">
              <Node pos="l" depth="4" NCoef="0" IVar="-1" Cut="0" cType="1" res="0.000243369" purity="0.487589" nType="-99"/>
              <Node pos="r" depth="4" NCoef="0" IVar="-1" Cut="0" cType="1" res="-0.00212818" purity="0.429695" nType="-99"/>
            </Node>
          </Node>
        </Node>
        <Node pos="r" depth="1" NCoef="0" IVar="1" Cut="141218" cType="1" res="0.0441024" purity="0.481802" nType="0">
          <Node pos="l" depth="2" NCoef="0" IVar="-1" Cut="0" cType="1" res="0.000494795" purity="0.438494" nType="-99"/>
          <Node pos="r" depth="2" NCoef="0" IVar="-1" Cut="0" cType="1" res="0.00397829" purity="0.546217" nType="-99"/>
        </Node>
      </Node>
    </BinaryTree>
    <BinaryTree type="DecisionTree" boostWeight="1.0" itree="174">
      <Node pos="s" depth="0" NCoef="0" IVar="5" Cut="1.00398" cType="1" res="0.00751724" purity="0.500614" nType="0">
        <Node pos="l" depth="1" NCoef="0" IVar="1" Cut="116121" cType="1" res="0.0350797" purity="0.554478" nType="0">
          <Node pos="l" depth="2" NCoef="0" IVar="1" Cut="102741" cType="1" res="0.0247835" purity="0.526872" nType="0">
            <Node pos="l" depth="3" NCoef="0" IVar="1" Cut="92797.4" cType="1" res="0.0431566" purity="0.530485" nType="0">
              <Node pos="l" depth="4" NCoef="0" IVar="-1" Cut="0" cType="1" res="-0.000359278" purity="0.470479" nType="-99"/>
              <Node pos="r" depth="4" NCoef="0" IVar="-1" Cut="0" cType="1" res="0.00276092" purity="0.553971" nType="-99"/>
            </Node>
            <Node pos="r" depth="3" NCoef="0" IVar="-1" Cut="0" cType="1" res="-0.00100946" purity="0.517879" nType="-99"/>
          </Node>
          <Node pos="r" depth="2" NCoef="0" IVar="-1" Cut="0" cType="1" res="0.00313239" purity="0.672194" nType="-99"/>
        </Node>
        <Node pos="r" depth="1" NCoef="0" IVar="3" Cut="171568" cType="1" res="-0.00246572" purity="0.481105" nType="0">
          <Node pos="l" depth="2" NCoef="0" IVar="3" Cut="155347" cType="1" res="0.0144285" purity="0.505216" nType="0">
            <Node pos="l" depth="3" NCoef="0" IVar="3" Cut="136890" cType="1" res="-0.00846452" purity="0.477718" nType="0">
              <Node pos="l" depth="4" NCoef="0" IVar="-1" Cut="0" cType="1" res="0.00149525" purity="0.517313" nType="-99"/>
              <Node pos="r" depth="4" NCoef="0" IVar="-1" Cut="0" cType="1" res="-0.00323784" purity="0.429012" nType="-99"/>
            </Node>
            <Node pos="r" depth="3" NCoef="0" IVar="6" Cut="2.22225" cType="1" res="0.0443173" purity="0.541117" nType="0">
              <Node pos="l" depth="4" NCoef="0" IVar="-1" Cut="0" cType="1" res="0.00263671" purity="0.581302" nType="-99"/>
              <Node pos="r" depth="4" NCoef="0" IVar="-1" Cut="0" cType="1" res="0.000504144" purity="0.450037" nType="-99"/>
            </Node>
          </Node>
          <Node pos="r" depth="2" NCoef="0" IVar="1" Cut="100245" cType="1" res="-0.0242554" purity="0.450007" nType="0">
            <Node pos="l" depth="3" NCoef="0" IVar="-1" Cut="0" cType="1" res="-0.0056088" purity="0.352126" nType="-99"/>
            <Node pos="r" depth="3" NCoef="0" IVar="1" Cut="158709" cType="1" res="-0.00870374" purity="0.47557" nType="0">
              <Node pos="l" depth="4" NCoef="0" IVar="-1" Cut="0" cType="1" res="0.000219592" purity="0.494689" nType="-99"/>
              <Node pos="r" depth="4" NCoef="0" IVar="-1" Cut="0" cType="1" res="-0.00351127" purity="0.400232" nType="-99"/>
            </Node>
          </Node>
        </Node>
      </Node>
    </BinaryTree>
    <BinaryTree type="DecisionTree" boostWeight="1.0" itree="175">
      <Node pos="s" depth="0" NCoef="0" IVar="1" Cut="130975" cType="1" res="0.0108925" purity="0.502928" nType="0">
        <Node pos="l" depth="1" NCoef="0" IVar="4" Cut="207378" cType="1" res="-0.00442643" purity="0.481272" nType="0">
          <Node pos="l" depth="2" NCoef="0" IVar="0" Cut="163400" cType="1" res="0.00884898" purity="0.522716" nType="0">
            <Node pos="l" depth="3" NCoef="0" IVar="1" Cut="111987" cType="1" res="-0.00551335" purity="0.492277" nType="0">
              <Node pos="l" depth="4" NCoef="0" IVar="-1" Cut="0" cType="1" res="0.000324123" purity="0.48841" nType="-99"/>
              <Node pos="r" depth="4" NCoef="0" IVar="-1" Cut="0" cType="1" res="-0.00225452" purity="0.504752" nType="-99"/>
            </Node>
            <Node pos="r" depth="3" NCoef="0" IVar="1" Cut="101982" cType="1" res="0.0477557" purity="0.605174" nType="0">
              <Node pos="l" depth="4" NCoef="0" IVar="-1" Cut="0" cType="1" res="0.000527539" purity="0.527106" nType="-99"/>
              <Node pos="r" depth="4" NCoef="0" IVar="-1" Cut="0" cType="1" res="0.00341052" purity="0.690351" nType="-99"/>
            </Node>
          </Node>
          <Node pos="r" depth="2" NCoef="0" IVar="4" Cut="221665" cType="1" res="-0.0176457" purity="0.440003" nType="0">
            <Node pos="l" depth="3" NCoef="0" IVar="-1" Cut="0" cType="1" res="-0.00458247" purity="0.398422" nType="-99"/>
            <Node pos="r" depth="3" NCoef="0" IVar="0" Cut="187770" cType="1" res="-0.00733765" purity="0.446866" nType="0">
              <Node pos="l" depth="4" NCoef="0" IVar="-1" Cut="0" cType="1" res="0.000144147" purity="0.444364" nType="-99"/>
              <Node pos="r" depth="4" NCoef="0" IVar="-1" Cut="0" cType="1" res="-0.00346644" purity="0.461041" nType="-99"/>
            </Node>
          </Node>
        </Node>
        <Node pos="r" depth="1" NCoef="0" IVar="1" Cut="168079" cType="1" res="0.0483225" purity="0.555844" nType="0">
          <Node pos="l" depth="2" NCoef="0" IVar="5" Cut="1.85074" cType="1" res="0.0688" purity="0.594911" nType="0">
            <Node pos="l" depth="3" NCoef="0" IVar="1" Cut="143655" cType="1" res="0.0945343" purity="0.650581" nType="0">
              <Node pos="l" depth="4" NCoef="0" IVar="-1" Cut="0" cType="1" res="0.0030911" purity="0.636435" nType="-99"/>
              <Node pos="r" depth="4" NCoef="0" IVar="-1" Cut="0" cType="1" res="0.00421584" purity="0.665572" nType="-99"/>
            </Node>
            <Node pos="r" depth="3" NCoef="0" IVar="-1" Cut="0" cType="1" res="0.00182447" purity="0.528976" nType="-99"/>
          </Node>
          <Node pos="r" depth="2" NCoef="0" IVar="6" Cut="1.30312" cType="1" res="0.0149153" purity="0.49211" nType="0">
            <Node pos="l" depth="3" NCoef="0" IVar="-1" Cut="0" cType="1" res="-0.00144638" purity="0.471843" nType="-99"/>
            <Node pos="r" depth="3" NCoef="0" IVar="-1" Cut="0" cType="1" res="0.00213025" purity="0.505507" nType="-99"/>
          </Node>
        </Node>
      </Node>
    </BinaryTree>
    <BinaryTree type="DecisionTree" boostWeight="1.0" itree="176">
      <Node pos="s" depth="0" NCoef="0" IVar="4" Cut="431661" cType="1" res="0.00276776" purity="0.496137" nType="0">
        <Node pos="l" depth="1" NCoef="0" IVar="4" Cut="156689" cType="1" res="0.00615328" purity="0.502601" nType="0">
          <Node pos="l" depth="2" NCoef="0" IVar="4" Cut="141481" cType="1" res="0.0500606" purity="0.596597" nType="0">
            <Node pos="l" depth="3" NCoef="0" IVar="-1" Cut="0" cType="1" res="0.00133386" purity="0.580372" nType="-99"/>
            <Node pos="r" depth="3" NCoef="0" IVar="-1" Cut="0" cType="1" res="0.0029178" purity="0.609707" nType="-99"/>
          </Node>
          <Node pos="r" depth="2" NCoef="0" IVar="5" Cut="0.804823" cType="1" res="0.00046007" purity="0.490413" nType="0">
            <Node pos="l" depth="3" NCoef="0" IVar="6" Cut="2.0689" cType="1" res="-0.0542351" purity="0.48376" nType="0">
              <Node pos="l" depth="4" NCoef="0" IVar="-1" Cut="0" cType="1" res="-0.00113923" purity="0.526524" nType="-99"/>
              <Node pos="r" depth="4" NCoef="0" IVar="-1" Cut="0" cType="1" res="-0.00488129" purity="0.4365" nType="-99"/>
            </Node>
            <Node pos="r" depth="3" NCoef="0" IVar="2" Cut="9668.39" cType="1" res="0.00684556" purity="0.491189" nType="0">
              <Node pos="l" depth="4" NCoef="0" IVar="-1" Cut="0" cType="1" res="-0.000124546" purity="0.446111" nType="-99"/>
              <Node pos="r" depth="4" NCoef="0" IVar="-1" Cut="0" cType="1" res="0.00124146" purity="0.59972" nType="-99"/>
            </Node>
          </Node>
        </Node>
        <Node pos="r" depth="1" NCoef="0" IVar="-1" Cut="0" cType="1" res="-0.00437416" purity="0.355654" nType="-99"/>
      </Node>
    </BinaryTree>
    <BinaryTree type="DecisionTree" boostWeight="1.0" itree="177">
      <Node pos="s" depth="0" NCoef="0" IVar="1" Cut="100236" cType="1" res="-0.00193853" purity="0.49131" nType="0">
        <Node pos="l" depth="1" NCoef="0" IVar="4" Cut="226839" cType="1" res="-0.0289124" purity="0.430313" nType="0">
          <Node pos="l" depth="2" NCoef="0" IVar="0" Cut="143900" cType="1" res="-0.0480861" purity="0.426396" nType="0">
            <Node pos="l" depth="3" NCoef="0" IVar="1" Cut="94992" cType="1" res="-0.0285029" purity="0.426924" nType="0">
              <Node pos="l" depth="4" NCoef="0" IVar="-1" Cut="0" cType="1" res="0.000491143" purity="0.464786" nType="-99"/>
              <Node pos="r" depth="4" NCoef="0" IVar="-1" Cut="0" cType="1" res="-0.00461666" purity="0.379657" nType="-99"/>
            </Node>
            <Node pos="r" depth="3" NCoef="0" IVar="-1" Cut="0" cType="1" res="-0.00447998" purity="0.425586" nType="-99"/>
          </Node>
          <Node pos="r" depth="2" NCoef="0" IVar="0" Cut="148741" cType="1" res="0.000822338" purity="0.436388" nType="0">
            <Node pos="l" depth="3" NCoef="0" IVar="-1" Cut="0" cType="1" res="-0.00145132" purity="0.386237" nType="-99"/>
            <Node pos="r" depth="3" NCoef="0" IVar="-1" Cut="0" cType="1" res="0.00162091" purity="0.501211" nType="-99"/>
          </Node>
        </Node>
        <Node pos="r" depth="1" NCoef="0" IVar="2" Cut="-16248.1" cType="1" res="0.00849284" purity="0.514899" nType="0">
          <Node pos="l" depth="2" NCoef="0" IVar="-1" Cut="0" cType="1" res="0.00304158" purity="0.473415" nType="-99"/>
          <Node pos="r" depth="2" NCoef="0" IVar="2" Cut="568.855" cType="1" res="0.00412794" purity="0.51841" nType="0">
            <Node pos="l" depth="3" NCoef="0" IVar="0" Cut="119519" cType="1" res="-0.0270071" purity="0.415629" nType="0">
              <Node pos="l" depth="4" NCoef="0" IVar="-1" Cut="0" cType="1" res="-0.00506336" purity="0.318439" nType="-99"/>
              <Node pos="r" depth="4" NCoef="0" IVar="-1" Cut="0" cType="1" res="-0.000118857" purity="0.465985" nType="-99"/>
            </Node>
            <Node pos="r" depth="3" NCoef="0" IVar="6" Cut="2.11123" cType="1" res="0.01824" purity="0.564995" nType="0">
              <Node pos="l" depth="4" NCoef="0" IVar="-1" Cut="0" cType="1" res="0.00115145" purity="0.571838" nType="-99"/>
              <Node pos="r" depth="4" NCoef="0" IVar="-1" Cut="0" cType="1" res="-0.00115225" purity="0.527858" nType="-99"/>
            </Node>
          </Node>
        </Node>
      </Node>
    </BinaryTree>
    <BinaryTree type="DecisionTree" boostWeight="1.0" itree="178">
      <Node pos="s" depth="0" NCoef="0" IVar="4" Cut="207327" cType="1" res="0.00054003" purity="0.493185" nType="0">
        <Node pos="l" depth="1" NCoef="0" IVar="1" Cut="96095.9" cType="1" res="0.0289223" purity="0.554563" nType="0">
          <Node pos="l" depth="2" NCoef="0" IVar="0" Cut="143802" cType="1" res="0.0595159" purity="0.535699" nType="0">
            <Node pos="l" depth="3" NCoef="0" IVar="-1" Cut="0" cType="1" res="0.00431641" purity="0.552863" nType="-99"/>
            <Node pos="r" depth="3" NCoef="0" IVar="-1" Cut="0" cType="1" res="2.84135e-05" purity="0.50826" nType="-99"/>
          </Node>
          <Node pos="r" depth="2" NCoef="0" IVar="1" Cut="119288" cType="1" res="0.0180918" purity="0.561241" nType="0">
            <Node pos="l" depth="3" NCoef="0" IVar="1" Cut="101186" cType="1" res="-0.00260144" purity="0.520769" nType="0">
              <Node pos="l" depth="4" NCoef="0" IVar="-1" Cut="0" cType="1" res="-0.00237554" purity="0.438861" nType="-99"/>
              <Node pos="r" depth="4" NCoef="0" IVar="-1" Cut="0" cType="1" res="0.000690221" purity="0.5553" nType="-99"/>
            </Node>
            <Node pos="r" depth="3" NCoef="0" IVar="-1" Cut="0" cType="1" res="0.00256532" purity="0.646859" nType="-99"/>
          </Node>
        </Node>
        <Node pos="r" depth="1" NCoef="0" IVar="1" Cut="115610" cType="1" res="-0.0198993" purity="0.448984" nType="0">
          <Node pos="l" depth="2" NCoef="0" IVar="6" Cut="2.75847" cType="1" res="-0.0425651" purity="0.404823" nType="0">
            <Node pos="l" depth="3" NCoef="0" IVar="6" Cut="2.2875" cType="1" res="-0.0257213" purity="0.432559" nType="0">
              <Node pos="l" depth="4" NCoef="0" IVar="-1" Cut="0" cType="1" res="-0.00236987" purity="0.422235" nType="-99"/>
              <Node pos="r" depth="4" NCoef="0" IVar="-1" Cut="0" cType="1" res="0.00074759" purity="0.456964" nType="-99"/>
            </Node>
            <Node pos="r" depth="3" NCoef="0" IVar="-1" Cut="0" cType="1" res="-0.00844468" purity="0.288475" nType="-99"/>
          </Node>
          <Node pos="r" depth="2" NCoef="0" IVar="0" Cut="129270" cType="1" res="-0.00140857" purity="0.485011" nType="0">
            <Node pos="l" depth="3" NCoef="0" IVar="2" Cut="-3605.7" cType="1" res="0.0283257" purity="0.475433" nType="0">
              <Node pos="l" depth="4" NCoef="0" IVar="-1" Cut="0" cType="1" res="-0.000182743" purity="0.38403" nType="-99"/>
              <Node pos="r" depth="4" NCoef="0" IVar="-1" Cut="0" cType="1" res="0.00199709" purity="0.523457" nType="-99"/>
            </Node>
            <Node pos="r" depth="3" NCoef="0" IVar="5" Cut="1.55611" cType="1" res="-0.0278858" purity="0.49354" nType="0">
              <Node pos="l" depth="4" NCoef="0" IVar="-1" Cut="0" cType="1" res="0.00122196" purity="0.583457" nType="-99"/>
              <Node pos="r" depth="4" NCoef="0" IVar="-1" Cut="0" cType="1" res="-0.00321862" purity="0.440937" nType="-99"/>
            </Node>
          </Node>
        </Node>
      </Node>
    </BinaryTree>
    <BinaryTree type="DecisionTree" boostWeight="1.0" itree="179">
      <Node pos="s" depth="0" NCoef="0" IVar="6" Cut="0.68964" cType="1" res="0.0101945" purity="0.503111" nType="0">
        <Node pos="l" depth="1" NCoef="0" IVar="3" Cut="184509" cType="1" res="-0.0272419" purity="0.450031" nType="0">
          <Node pos="l" depth="2" NCoef="0" IVar="6" Cut="0.353146" cType="1" res="-0.0534531" purity="0.428064" nType="0">
            <Node pos="l" depth="3" NCoef="0" IVar="-1" Cut="0" cType="1" res="-0.00139482" purity="0.454916" nType="-99"/>
            <Node pos="r" depth="3" NCoef="0" IVar="-1" Cut="0" cType="1" res="-0.00461951" purity="0.398726" nType="-99"/>
          </Node>
          <Node pos="r" depth="2" NCoef="0" IVar="-1" Cut="0" cType="1" res="0.00198126" purity="0.508434" nType="-99"/>
        </Node>
        <Node pos="r" depth="1" NCoef="0" IVar="0" Cut="148765" cType="1" res="0.0169584" purity="0.512701" nType="0">
          <Node pos="l" depth="2" NCoef="0" IVar="6" Cut="2.90244" cType="1" res="0.00794032" purity="0.477224" nType="0">
            <Node pos="l" depth="3" NCoef="0" IVar="4" Cut="314636" cType="1" res="0.0140012" purity="0.492715" nType="0">
              <Node pos="l" depth="4" NCoef="0" IVar="-1" Cut="0" cType="1" res="0.00113055" purity="0.518948" nType="-99"/>
              <Node pos="r" depth="4" NCoef="0" IVar="-1" Cut="0" cType="1" res="-0.0020644" purity="0.368487" nType="-99"/>
            </Node>
            <Node pos="r" depth="3" NCoef="0" IVar="-1" Cut="0" cType="1" res="-0.00321492" purity="0.333116" nType="-99"/>
          </Node>
          <Node pos="r" depth="2" NCoef="0" IVar="5" Cut="1.55789" cType="1" res="0.0312704" purity="0.569004" nType="0">
            <Node pos="l" depth="3" NCoef="0" IVar="5" Cut="0.932308" cType="1" res="0.0425512" purity="0.584162" nType="0">
              <Node pos="l" depth="4" NCoef="0" IVar="-1" Cut="0" cType="1" res="0.000307977" purity="0.558009" nType="-99"/>
              <Node pos="r" depth="4" NCoef="0" IVar="-1" Cut="0" cType="1" res="0.00296769" purity="0.603739" nType="-99"/>
            </Node>
            <Node pos="r" depth="3" NCoef="0" IVar="-1" Cut="0" cType="1" res="-0.000424116" purity="0.515209" nType="-99"/>
          </Node>
        </Node>
      </Node>
    </BinaryTree>
    <BinaryTree type="DecisionTree" boostWeight="1.0" itree="180">
      <Node pos="s" depth="0" NCoef="0" IVar="4" Cut="304894" cType="1" res="0.000467246" purity="0.493462" nType="0">
        <Node pos="l" depth="1" NCoef="0" IVar="0" Cut="187803" cType="1" res="-0.00957705" purity="0.499482" nType="0">
          <Node pos="l" depth="2" NCoef="0" IVar="4" Cut="254927" cType="1" res="-0.0174303" purity="0.479452" nType="0">
            <Node pos="l" depth="3" NCoef="0" IVar="2" Cut="10892.6" cType="1" res="-0.0105698" purity="0.494621" nType="0">
              <Node pos="l" depth="4" NCoef="0" IVar="-1" Cut="0" cType="1" res="-0.00112058" purity="0.433473" nType="-99"/>
              <Node pos="r" depth="4" NCoef="0" IVar="-1" Cut="0" cType="1" res="0.000418743" purity="0.618363" nType="-99"/>
            </Node>
            <Node pos="r" depth="3" NCoef="0" IVar="6" Cut="1.83872" cType="1" res="-0.0487609" purity="0.410178" nType="0">
              <Node pos="l" depth="4" NCoef="0" IVar="-1" Cut="0" cType="1" res="-0.00490887" purity="0.398413" nType="-99"/>
              <Node pos="r" depth="4" NCoef="0" IVar="-1" Cut="0" cType="1" res="-0.00100077" purity="0.420637" nType="-99"/>
            </Node>
          </Node>
          <Node pos="r" depth="2" NCoef="0" IVar="3" Cut="160719" cType="1" res="0.0314087" purity="0.60402" nType="0">
            <Node pos="l" depth="3" NCoef="0" IVar="-1" Cut="0" cType="1" res="0.00333146" purity="0.657807" nType="-99"/>
            <Node pos="r" depth="3" NCoef="0" IVar="-1" Cut="0" cType="1" res="-0.000206503" purity="0.564838" nType="-99"/>
          </Node>
        </Node>
        <Node pos="r" depth="1" NCoef="0" IVar="4" Cut="414346" cType="1" res="0.028087" purity="0.476906" nType="0">
          <Node pos="l" depth="2" NCoef="0" IVar="6" Cut="1.15086" cType="1" res="0.0483206" purity="0.504203" nType="0">
            <Node pos="l" depth="3" NCoef="0" IVar="-1" Cut="0" cType="1" res="-0.000353892" purity="0.458345" nType="-99"/>
            <Node pos="r" depth="3" NCoef="0" IVar="0" Cut="124407" cType="1" res="0.0669207" purity="0.519585" nType="0">
              <Node pos="l" depth="4" NCoef="0" IVar="-1" Cut="0" cType="1" res="0.00521812" purity="0.497388" nType="-99"/>
              <Node pos="r" depth="4" NCoef="0" IVar="-1" Cut="0" cType="1" res="0.00194839" purity="0.532244" nType="-99"/>
            </Node>
          </Node>
          <Node pos="r" depth="2" NCoef="0" IVar="-1" Cut="0" cType="1" res="-0.00211481" purity="0.389999" nType="-99"/>
        </Node>
      </Node>
    </BinaryTree>
    <BinaryTree type="DecisionTree" boostWeight="1.0" itree="181">
      <Node pos="s" depth="0" NCoef="0" IVar="3" Cut="165520" cType="1" res="0.00319905" purity="0.49324" nType="0">
        <Node pos="l" depth="1" NCoef="0" IVar="4" Cut="188108" cType="1" res="0.0191887" purity="0.512652" nType="0">
          <Node pos="l" depth="2" NCoef="0" IVar="3" Cut="139966" cType="1" res="-0.0213856" purity="0.512373" nType="0">
            <Node pos="l" depth="3" NCoef="0" IVar="-1" Cut="0" cType="1" res="-0.00294611" purity="0.474135" nType="-99"/>
            <Node pos="r" depth="3" NCoef="0" IVar="-1" Cut="0" cType="1" res="-5.08388e-05" purity="0.53487" nType="-99"/>
          </Node>
          <Node pos="r" depth="2" NCoef="0" IVar="0" Cut="139013" cType="1" res="0.0341948" purity="0.512755" nType="0">
            <Node pos="l" depth="3" NCoef="0" IVar="4" Cut="317410" cType="1" res="0.0564243" purity="0.509396" nType="0">
              <Node pos="l" depth="4" NCoef="0" IVar="-1" Cut="0" cType="1" res="0.00323063" purity="0.541786" nType="-99"/>
              <Node pos="r" depth="4" NCoef="0" IVar="-1" Cut="0" cType="1" res="-0.000328228" purity="0.388334" nType="-99"/>
            </Node>
            <Node pos="r" depth="3" NCoef="0" IVar="3" Cut="129617" cType="1" res="0.00230631" purity="0.517574" nType="0">
              <Node pos="l" depth="4" NCoef="0" IVar="-1" Cut="0" cType="1" res="0.00160691" purity="0.55296" nType="-99"/>
              <Node pos="r" depth="4" NCoef="0" IVar="-1" Cut="0" cType="1" res="-0.000622595" purity="0.502174" nType="-99"/>
            </Node>
          </Node>
        </Node>
        <Node pos="r" depth="1" NCoef="0" IVar="3" Cut="217948" cType="1" res="-0.0104377" purity="0.476685" nType="0">
          <Node pos="l" depth="2" NCoef="0" IVar="1" Cut="141218" cType="1" res="-0.021364" purity="0.468837" nType="0">
            <Node pos="l" depth="3" NCoef="0" IVar="6" Cut="2.6818" cType="1" res="-0.0323327" purity="0.455385" nType="0">
              <Node pos="l" depth="4" NCoef="0" IVar="-1" Cut="0" cType="1" res="-0.00108787" purity="0.481061" nType="-99"/>
              <Node pos="r" depth="4" NCoef="0" IVar="-1" Cut="0" cType="1" res="-0.0052999" purity="0.33976" nType="-99"/>
            </Node>
            <Node pos="r" depth="3" NCoef="0" IVar="6" Cut="1.60919" cType="1" res="0.0208338" purity="0.520589" nType="0">
              <Node pos="l" depth="4" NCoef="0" IVar="-1" Cut="0" cType="1" res="-0.00159104" purity="0.494895" nType="-99"/>
              <Node pos="r" depth="4" NCoef="0" IVar="-1" Cut="0" cType="1" res="0.00315279" purity="0.543778" nType="-99"/>
            </Node>
          </Node>
          <Node pos="r" depth="2" NCoef="0" IVar="-1" Cut="0" cType="1" res="0.00244329" purity="0.522164" nType="-99"/>
        </Node>
      </Node>
    </BinaryTree>
    <BinaryTree type="DecisionTree" boostWeight="1.0" itree="182">
      <Node pos="s" depth="0" NCoef="0" IVar="3" Cut="159651" cType="1" res="0.00297237" purity="0.495563" nType="0">
        <Node pos="l" depth="1" NCoef="0" IVar="2" Cut="13956.7" cType="1" res="-0.0203359" purity="0.478854" nType="0">
          <Node pos="l" depth="2" NCoef="0" IVar="2" Cut="-1839.55" cType="1" res="-0.034043" purity="0.426084" nType="0">
            <Node pos="l" depth="3" NCoef="0" IVar="3" Cut="142908" cType="1" res="0.0016264" purity="0.430777" nType="0">
              <Node pos="l" depth="4" NCoef="0" IVar="-1" Cut="0" cType="1" res="0.00177789" purity="0.477354" nType="-99"/>
              <Node pos="r" depth="4" NCoef="0" IVar="-1" Cut="0" cType="1" res="-0.00366721" purity="0.355772" nType="-99"/>
            </Node>
            <Node pos="r" depth="3" NCoef="0" IVar="4" Cut="266114" cType="1" res="-0.0623167" purity="0.422365" nType="0">
              <Node pos="l" depth="4" NCoef="0" IVar="-1" Cut="0" cType="1" res="-0.00181109" purity="0.46261" nType="-99"/>
              <Node pos="r" depth="4" NCoef="0" IVar="-1" Cut="0" cType="1" res="-0.00851866" purity="0.329336" nType="-99"/>
            </Node>
          </Node>
          <Node pos="r" depth="2" NCoef="0" IVar="-1" Cut="0" cType="1" res="0.000784379" purity="0.629332" nType="-99"/>
        </Node>
        <Node pos="r" depth="1" NCoef="0" IVar="6" Cut="2.83506" cType="1" res="0.015942" purity="0.50486" nType="0">
          <Node pos="l" depth="2" NCoef="0" IVar="4" Cut="324404" cType="1" res="0.0230067" purity="0.521521" nType="0">
            <Node pos="l" depth="3" NCoef="0" IVar="6" Cut="2.55832" cType="1" res="0.0129637" purity="0.525165" nType="0">
              <Node pos="l" depth="4" NCoef="0" IVar="-1" Cut="0" cType="1" res="0.000257046" purity="0.52666" nType="-99"/>
              <Node pos="r" depth="4" NCoef="0" IVar="-1" Cut="0" cType="1" res="0.00281584" purity="0.515765" nType="-99"/>
            </Node>
            <Node pos="r" depth="3" NCoef="0" IVar="2" Cut="5358.72" cType="1" res="0.0599104" purity="0.508132" nType="0">
              <Node pos="l" depth="4" NCoef="0" IVar="-1" Cut="0" cType="1" res="0.00436737" purity="0.493688" nType="-99"/>
              <Node pos="r" depth="4" NCoef="0" IVar="-1" Cut="0" cType="1" res="0.00105587" purity="0.526787" nType="-99"/>
            </Node>
          </Node>
          <Node pos="r" depth="2" NCoef="0" IVar="-1" Cut="0" cType="1" res="-0.00234732" purity="0.375656" nType="-99"/>
        </Node>
      </Node>
    </BinaryTree>
    <BinaryTree type="DecisionTree" boostWeight="1.0" itree="183">
      <Node pos="s" depth="0" NCoef="0" IVar="4" Cut="431765" cType="1" res="0.0132329" purity="0.505552" nType="0">
        <Node pos="l" depth="1" NCoef="0" IVar="5" Cut="2.53091" cType="1" res="0.0163668" purity="0.511705" nType="0">
          <Node pos="l" depth="2" NCoef="0" IVar="1" Cut="115582" cType="1" res="0.020697" purity="0.519892" nType="0">
            <Node pos="l" depth="3" NCoef="0" IVar="1" Cut="109342" cType="1" res="0.00633131" purity="0.483896" nType="0">
              <Node pos="l" depth="4" NCoef="0" IVar="-1" Cut="0" cType="1" res="0.000842242" purity="0.489193" nType="-99"/>
              <Node pos="r" depth="4" NCoef="0" IVar="-1" Cut="0" cType="1" res="-0.0030445" purity="0.452696" nType="-99"/>
            </Node>
            <Node pos="r" depth="3" NCoef="0" IVar="6" Cut="1.45587" cType="1" res="0.0436676" purity="0.577449" nType="0">
              <Node pos="l" depth="4" NCoef="0" IVar="-1" Cut="0" cType="1" res="0.000496096" purity="0.559435" nType="-99"/>
              <Node pos="r" depth="4" NCoef="0" IVar="-1" Cut="0" cType="1" res="0.00266012" purity="0.58741" nType="-99"/>
            </Node>
          </Node>
          <Node pos="r" depth="2" NCoef="0" IVar="3" Cut="167924" cType="1" res="-0.0219105" purity="0.439334" nType="0">
            <Node pos="l" depth="3" NCoef="0" IVar="-1" Cut="0" cType="1" res="-0.00218232" purity="0.428255" nType="-99"/>
            <Node pos="r" depth="3" NCoef="0" IVar="-1" Cut="0" cType="1" res="-0.000212507" purity="0.450028" nType="-99"/>
          </Node>
        </Node>
        <Node pos="r" depth="1" NCoef="0" IVar="-1" Cut="0" cType="1" res="-0.00344117" purity="0.370566" nType="-99"/>
      </Node>
    </BinaryTree>
    <BinaryTree type="DecisionTree" boostWeight="1.0" itree="184">
      <Node pos="s" depth="0" NCoef="0" IVar="6" Cut="1.45583" cType="1" res="0.0177587" purity="0.509682" nType="0">
        <Node pos="l" depth="1" NCoef="0" IVar="3" Cut="165530" cType="1" res="-0.00147805" purity="0.499514" nType="0">
          <Node pos="l" depth="2" NCoef="0" IVar="4" Cut="197756" cType="1" res="-0.0275885" purity="0.470582" nType="0">
            <Node pos="l" depth="3" NCoef="0" IVar="-1" Cut="0" cType="1" res="-0.00433888" purity="0.447309" nType="-99"/>
            <Node pos="r" depth="3" NCoef="0" IVar="4" Cut="264008" cType="1" res="-0.00143179" purity="0.482401" nType="0">
              <Node pos="l" depth="4" NCoef="0" IVar="-1" Cut="0" cType="1" res="0.00135802" purity="0.530112" nType="-99"/>
              <Node pos="r" depth="4" NCoef="0" IVar="-1" Cut="0" cType="1" res="-0.00164609" purity="0.435807" nType="-99"/>
            </Node>
          </Node>
          <Node pos="r" depth="2" NCoef="0" IVar="3" Cut="198303" cType="1" res="0.0192065" purity="0.522434" nType="0">
            <Node pos="l" depth="3" NCoef="0" IVar="6" Cut="0.85218" cType="1" res="0.038437" purity="0.547155" nType="0">
              <Node pos="l" depth="4" NCoef="0" IVar="-1" Cut="0" cType="1" res="0.00315731" purity="0.561796" nType="-99"/>
              <Node pos="r" depth="4" NCoef="0" IVar="-1" Cut="0" cType="1" res="-0.000304302" purity="0.528821" nType="-99"/>
            </Node>
            <Node pos="r" depth="3" NCoef="0" IVar="-1" Cut="0" cType="1" res="-0.00170294" purity="0.455707" nType="-99"/>
          </Node>
        </Node>
        <Node pos="r" depth="1" NCoef="0" IVar="4" Cut="324390" cType="1" res="0.0284333" purity="0.515324" nType="0">
          <Node pos="l" depth="2" NCoef="0" IVar="1" Cut="99748.5" cType="1" res="0.0174532" purity="0.518153" nType="0">
            <Node pos="l" depth="3" NCoef="0" IVar="0" Cut="134146" cType="1" res="-0.0221663" purity="0.444234" nType="0">
              <Node pos="l" depth="4" NCoef="0" IVar="-1" Cut="0" cType="1" res="0.000677708" purity="0.447824" nType="-99"/>
              <Node pos="r" depth="4" NCoef="0" IVar="-1" Cut="0" cType="1" res="-0.00314348" purity="0.440724" nType="-99"/>
            </Node>
            <Node pos="r" depth="3" NCoef="0" IVar="2" Cut="-6980.43" cType="1" res="0.0347979" purity="0.550513" nType="0">
              <Node pos="l" depth="4" NCoef="0" IVar="-1" Cut="0" cType="1" res="-0.00077727" purity="0.426865" nType="-99"/>
              <Node pos="r" depth="4" NCoef="0" IVar="-1" Cut="0" cType="1" res="0.00218386" purity="0.589887" nType="-99"/>
            </Node>
          </Node>
          <Node pos="r" depth="2" NCoef="0" IVar="3" Cut="189355" cType="1" res="0.0685402" purity="0.504992" nType="0">
            <Node pos="l" depth="3" NCoef="0" IVar="4" Cut="384351" cType="1" res="0.0416859" purity="0.481152" nType="0">
              <Node pos="l" depth="4" NCoef="0" IVar="-1" Cut="0" cType="1" res="0.00394003" purity="0.532735" nType="-99"/>
              <Node pos="r" depth="4" NCoef="0" IVar="-1" Cut="0" cType="1" res="-0.00043671" purity="0.423487" nType="-99"/>
            </Node>
            <Node pos="r" depth="3" NCoef="0" IVar="-1" Cut="0" cType="1" res="0.0054925" purity="0.558504" nType="-99"/>
          </Node>
        </Node>
      </Node>
    </BinaryTree>
    <BinaryTree type="DecisionTree" boostWeight="1.0" itree="185">
      <Node pos="s" depth="0" NCoef="0" IVar="2" Cut="7253.82" cType="1" res="0.000203442" purity="0.494009" nType="0">
        <Node pos="l" depth="1" NCoef="0" IVar="6" Cut="2.22208" cType="1" res="-0.00998538" purity="0.430508" nType="0">
          <Node pos="l" depth="2" NCoef="0" IVar="3" Cut="200616" cType="1" res="-0.03705" purity="0.405829" nType="0">
            <Node pos="l" depth="3" NCoef="0" IVar="3" Cut="177045" cType="1" res="-0.0497685" purity="0.394612" nType="0">
              <Node pos="l" depth="4" NCoef="0" IVar="-1" Cut="0" cType="1" res="-0.001889" purity="0.41195" nType="-99"/>
              <Node pos="r" depth="4" NCoef="0" IVar="-1" Cut="0" cType="1" res="-0.00600493" purity="0.343997" nType="-99"/>
            </Node>
            <Node pos="r" depth="3" NCoef="0" IVar="-1" Cut="0" cType="1" res="0.00118308" purity="0.45867" nType="-99"/>
          </Node>
          <Node pos="r" depth="2" NCoef="0" IVar="3" Cut="200528" cType="1" res="0.0116315" purity="0.450219" nType="0">
            <Node pos="l" depth="3" NCoef="0" IVar="6" Cut="2.93973" cType="1" res="0.0191617" purity="0.459525" nType="0">
              <Node pos="l" depth="4" NCoef="0" IVar="-1" Cut="0" cType="1" res="0.00142114" purity="0.475381" nType="-99"/>
              <Node pos="r" depth="4" NCoef="0" IVar="-1" Cut="0" cType="1" res="-0.000923594" purity="0.400097" nType="-99"/>
            </Node>
            <Node pos="r" depth="3" NCoef="0" IVar="-1" Cut="0" cType="1" res="-0.00192303" purity="0.393871" nType="-99"/>
          </Node>
        </Node>
        <Node pos="r" depth="1" NCoef="0" IVar="3" Cut="183053" cType="1" res="0.014775" purity="0.584824" nType="0">
          <Node pos="l" depth="2" NCoef="0" IVar="4" Cut="275874" cType="1" res="0.00124332" purity="0.575748" nType="0">
            <Node pos="l" depth="3" NCoef="0" IVar="4" Cut="169013" cType="1" res="0.0141683" purity="0.605981" nType="0">
              <Node pos="l" depth="4" NCoef="0" IVar="-1" Cut="0" cType="1" res="-0.000637138" purity="0.595321" nType="-99"/>
              <Node pos="r" depth="4" NCoef="0" IVar="-1" Cut="0" cType="1" res="0.00110993" purity="0.610521" nType="-99"/>
            </Node>
            <Node pos="r" depth="3" NCoef="0" IVar="-1" Cut="0" cType="1" res="-0.00190128" purity="0.483512" nType="-99"/>
          </Node>
          <Node pos="r" depth="2" NCoef="0" IVar="5" Cut="1.3378" cType="1" res="0.0489696" purity="0.607758" nType="0">
            <Node pos="l" depth="3" NCoef="0" IVar="-1" Cut="0" cType="1" res="-0.000210838" purity="0.569549" nType="-99"/>
            <Node pos="r" depth="3" NCoef="0" IVar="-1" Cut="0" cType="1" res="0.00364408" purity="0.638257" nType="-99"/>
          </Node>
        </Node>
      </Node>
    </BinaryTree>
    <BinaryTree type="DecisionTree" boostWeight="1.0" itree="186">
      <Node pos="s" depth="0" NCoef="0" IVar="6" Cut="0.536419" cType="1" res="0.0085118" purity="0.50117" nType="0">
        <Node pos="l" depth="1" NCoef="0" IVar="4" Cut="275645" cType="1" res="-0.0357567" purity="0.43904" nType="0">
          <Node pos="l" depth="2" NCoef="0" IVar="-1" Cut="0" cType="1" res="-0.00357587" purity="0.421711" nType="-99"/>
          <Node pos="r" depth="2" NCoef="0" IVar="-1" Cut="0" cType="1" res="0.000784745" purity="0.469156" nType="-99"/>
        </Node>
        <Node pos="r" depth="1" NCoef="0" IVar="3" Cut="153837" cType="1" res="0.0144214" purity="0.509464" nType="0">
          <Node pos="l" depth="2" NCoef="0" IVar="3" Cut="146992" cType="1" res="-0.00370113" purity="0.498016" nType="0">
            <Node pos="l" depth="3" NCoef="0" IVar="6" Cut="1.36394" cType="1" res="0.00977833" purity="0.51386" nType="0">
              <Node pos="l" depth="4" NCoef="0" IVar="-1" Cut="0" cType="1" res="-0.00131128" purity="0.476355" nType="-99"/>
              <Node pos="r" depth="4" NCoef="0" IVar="-1" Cut="0" cType="1" res="0.00104821" purity="0.527015" nType="-99"/>
            </Node>
            <Node pos="r" depth="3" NCoef="0" IVar="-1" Cut="0" cType="1" res="-0.00310959" purity="0.434662" nType="-99"/>
          </Node>
          <Node pos="r" depth="2" NCoef="0" IVar="3" Cut="168088" cType="1" res="0.0219913" purity="0.514246" nType="0">
            <Node pos="l" depth="3" NCoef="0" IVar="4" Cut="198619" cType="1" res="0.056642" purity="0.55785" nType="0">
              <Node pos="l" depth="4" NCoef="0" IVar="-1" Cut="0" cType="1" res="-0.000176552" purity="0.534382" nType="-99"/>
              <Node pos="r" depth="4" NCoef="0" IVar="-1" Cut="0" cType="1" res="0.00386374" purity="0.570298" nType="-99"/>
            </Node>
            <Node pos="r" depth="3" NCoef="0" IVar="5" Cut="1.41306" cType="1" res="0.00784251" purity="0.496441" nType="0">
              <Node pos="l" depth="4" NCoef="0" IVar="-1" Cut="0" cType="1" res="-0.000481444" purity="0.496113" nType="-99"/>
              <Node pos="r" depth="4" NCoef="0" IVar="-1" Cut="0" cType="1" res="0.0012793" purity="0.496784" nType="-99"/>
            </Node>
          </Node>
        </Node>
      </Node>
    </BinaryTree>
    <BinaryTree type="DecisionTree" boostWeight="1.0" itree="187">
      <Node pos="s" depth="0" NCoef="0" IVar="3" Cut="165484" cType="1" res="0.0177252" purity="0.509489" nType="0">
        <Node pos="l" depth="1" NCoef="0" IVar="3" Cut="157825" cType="1" res="0.0300829" purity="0.528444" nType="0">
          <Node pos="l" depth="2" NCoef="0" IVar="0" Cut="158536" cType="1" res="0.0177632" purity="0.516368" nType="0">
            <Node pos="l" depth="3" NCoef="0" IVar="0" Cut="137112" cType="1" res="0.000257343" purity="0.479529" nType="0">
              <Node pos="l" depth="4" NCoef="0" IVar="-1" Cut="0" cType="1" res="0.000863617" purity="0.490568" nType="-99"/>
              <Node pos="r" depth="4" NCoef="0" IVar="-1" Cut="0" cType="1" res="-0.00360043" purity="0.438766" nType="-99"/>
            </Node>
            <Node pos="r" depth="3" NCoef="0" IVar="6" Cut="2.22246" cType="1" res="0.0562535" purity="0.597365" nType="0">
              <Node pos="l" depth="4" NCoef="0" IVar="-1" Cut="0" cType="1" res="0.00396478" purity="0.643933" nType="-99"/>
              <Node pos="r" depth="4" NCoef="0" IVar="-1" Cut="0" cType="1" res="-0.000448731" purity="0.517168" nType="-99"/>
            </Node>
          </Node>
          <Node pos="r" depth="2" NCoef="0" IVar="4" Cut="247231" cType="1" res="0.0689566" purity="0.56655" nType="0">
            <Node pos="l" depth="3" NCoef="0" IVar="-1" Cut="0" cType="1" res="0.00125748" purity="0.556549" nType="-99"/>
            <Node pos="r" depth="3" NCoef="0" IVar="-1" Cut="0" cType="1" res="0.00523692" purity="0.579258" nType="-99"/>
          </Node>
        </Node>
        <Node pos="r" depth="1" NCoef="0" IVar="1" Cut="161706" cType="1" res="0.00728839" purity="0.493481" nType="0">
          <Node pos="l" depth="2" NCoef="0" IVar="6" Cut="1.22599" cType="1" res="0.01397" purity="0.501667" nType="0">
            <Node pos="l" depth="3" NCoef="0" IVar="1" Cut="105714" cType="1" res="0.0486752" purity="0.538286" nType="0">
              <Node pos="l" depth="4" NCoef="0" IVar="-1" Cut="0" cType="1" res="0.00402991" purity="0.529723" nType="-99"/>
              <Node pos="r" depth="4" NCoef="0" IVar="-1" Cut="0" cType="1" res="0.000871885" purity="0.544571" nType="-99"/>
            </Node>
            <Node pos="r" depth="3" NCoef="0" IVar="3" Cut="185057" cType="1" res="-0.000692126" purity="0.486196" nType="0">
              <Node pos="l" depth="4" NCoef="0" IVar="-1" Cut="0" cType="1" res="-0.000828649" purity="0.480749" nType="-99"/>
              <Node pos="r" depth="4" NCoef="0" IVar="-1" Cut="0" cType="1" res="0.000773794" purity="0.491954" nType="-99"/>
            </Node>
          </Node>
          <Node pos="r" depth="2" NCoef="0" IVar="-1" Cut="0" cType="1" res="-0.0024846" purity="0.429804" nType="-99"/>
        </Node>
      </Node>
    </BinaryTree>
    <BinaryTree type="DecisionTree" boostWeight="1.0" itree="188">
      <Node pos="s" depth="0" NCoef="0" IVar="3" Cut="218097" cType="1" res="0.00176159" purity="0.495138" nType="0">
        <Node pos="l" depth="1" NCoef="0" IVar="6" Cut="0.306531" cType="1" res="0.00651627" purity="0.501354" nType="0">
          <Node pos="l" depth="2" NCoef="0" IVar="-1" Cut="0" cType="1" res="0.00287871" purity="0.550248" nType="-99"/>
          <Node pos="r" depth="2" NCoef="0" IVar="4" Cut="392801" cType="1" res="0.00128016" purity="0.497113" nType="0">
            <Node pos="l" depth="3" NCoef="0" IVar="3" Cut="179631" cType="1" res="-0.00361614" purity="0.499002" nType="0">
              <Node pos="l" depth="4" NCoef="0" IVar="-1" Cut="0" cType="1" res="0.000356287" purity="0.513708" nType="-99"/>
              <Node pos="r" depth="4" NCoef="0" IVar="-1" Cut="0" cType="1" res="-0.00170163" purity="0.459627" nType="-99"/>
            </Node>
            <Node pos="r" depth="3" NCoef="0" IVar="5" Cut="1.18099" cType="1" res="0.0467223" purity="0.479584" nType="0">
              <Node pos="l" depth="4" NCoef="0" IVar="-1" Cut="0" cType="1" res="0.00304667" purity="0.519475" nType="-99"/>
              <Node pos="r" depth="4" NCoef="0" IVar="-1" Cut="0" cType="1" res="0.00143581" purity="0.441495" nType="-99"/>
            </Node>
          </Node>
        </Node>
        <Node pos="r" depth="1" NCoef="0" IVar="-1" Cut="0" cType="1" res="-0.00393379" purity="0.403784" nType="-99"/>
      </Node>
    </BinaryTree>
    <BinaryTree type="DecisionTree" boostWeight="1.0" itree="189">
      <Node pos="s" depth="0" NCoef="0" IVar="1" Cut="130974" cType="1" res="0.00546521" purity="0.498392" nType="0">
        <Node pos="l" depth="1" NCoef="0" IVar="0" Cut="236513" cType="1" res="-0.0054804" purity="0.482893" nType="0">
          <Node pos="l" depth="2" NCoef="0" IVar="5" Cut="1.31548" cType="1" res="-0.0100451" purity="0.472742" nType="0">
            <Node pos="l" depth="3" NCoef="0" IVar="5" Cut="1.06382" cType="1" res="-0.0282186" purity="0.46391" nType="0">
              <Node pos="l" depth="4" NCoef="0" IVar="-1" Cut="0" cType="1" res="-0.000621969" purity="0.489566" nType="-99"/>
              <Node pos="r" depth="4" NCoef="0" IVar="-1" Cut="0" cType="1" res="-0.00331551" purity="0.414179" nType="-99"/>
            </Node>
            <Node pos="r" depth="3" NCoef="0" IVar="6" Cut="2.14543" cType="1" res="0.00998197" purity="0.482474" nType="0">
              <Node pos="l" depth="4" NCoef="0" IVar="-1" Cut="0" cType="1" res="-0.000575223" purity="0.489959" nType="-99"/>
              <Node pos="r" depth="4" NCoef="0" IVar="-1" Cut="0" cType="1" res="0.00217429" purity="0.471315" nType="-99"/>
            </Node>
          </Node>
          <Node pos="r" depth="2" NCoef="0" IVar="-1" Cut="0" cType="1" res="0.00262165" purity="0.638027" nType="-99"/>
        </Node>
        <Node pos="r" depth="1" NCoef="0" IVar="6" Cut="1.76259" cType="1" res="0.0326121" purity="0.536831" nType="0">
          <Node pos="l" depth="2" NCoef="0" IVar="5" Cut="2.3588" cType="1" res="0.000435894" purity="0.526941" nType="0">
            <Node pos="l" depth="3" NCoef="0" IVar="-1" Cut="0" cType="1" res="-0.00136921" purity="0.531741" nType="-99"/>
            <Node pos="r" depth="3" NCoef="0" IVar="-1" Cut="0" cType="1" res="0.00160353" purity="0.521404" nType="-99"/>
          </Node>
          <Node pos="r" depth="2" NCoef="0" IVar="0" Cut="148791" cType="1" res="0.0678642" purity="0.547666" nType="0">
            <Node pos="l" depth="3" NCoef="0" IVar="-1" Cut="0" cType="1" res="0.00437469" purity="0.543319" nType="-99"/>
            <Node pos="r" depth="3" NCoef="0" IVar="-1" Cut="0" cType="1" res="0.000618663" purity="0.555685" nType="-99"/>
          </Node>
        </Node>
      </Node>
    </BinaryTree>
    <BinaryTree type="DecisionTree" boostWeight="1.0" itree="190">
      <Node pos="s" depth="0" NCoef="0" IVar="5" Cut="2.75968" cType="1" res="0.0071723" purity="0.500695" nType="0">
        <Node pos="l" depth="1" NCoef="0" IVar="4" Cut="188020" cType="1" res="0.0124192" purity="0.508949" nType="0">
          <Node pos="l" depth="2" NCoef="0" IVar="3" Cut="182878" cType="1" res="0.0379593" purity="0.571713" nType="0">
            <Node pos="l" depth="3" NCoef="0" IVar="4" Cut="175182" cType="1" res="0.0179422" purity="0.556211" nType="0">
              <Node pos="l" depth="4" NCoef="0" IVar="-1" Cut="0" cType="1" res="-3.97127e-06" purity="0.541826" nType="-99"/>
              <Node pos="r" depth="4" NCoef="0" IVar="-1" Cut="0" cType="1" res="0.00271834" purity="0.589839" nType="-99"/>
            </Node>
            <Node pos="r" depth="3" NCoef="0" IVar="-1" Cut="0" cType="1" res="0.00366538" purity="0.61099" nType="-99"/>
          </Node>
          <Node pos="r" depth="2" NCoef="0" IVar="4" Cut="218458" cType="1" res="0.000780855" purity="0.480348" nType="0">
            <Node pos="l" depth="3" NCoef="0" IVar="0" Cut="124418" cType="1" res="-0.0374654" purity="0.465928" nType="0">
              <Node pos="l" depth="4" NCoef="0" IVar="-1" Cut="0" cType="1" res="-0.000314379" purity="0.465537" nType="-99"/>
              <Node pos="r" depth="4" NCoef="0" IVar="-1" Cut="0" cType="1" res="-0.00337894" purity="0.46625" nType="-99"/>
            </Node>
            <Node pos="r" depth="3" NCoef="0" IVar="3" Cut="130283" cType="1" res="0.0121645" purity="0.48464" nType="0">
              <Node pos="l" depth="4" NCoef="0" IVar="-1" Cut="0" cType="1" res="0.00287234" purity="0.553086" nType="-99"/>
              <Node pos="r" depth="4" NCoef="0" IVar="-1" Cut="0" cType="1" res="0.000138081" purity="0.472791" nType="-99"/>
            </Node>
          </Node>
        </Node>
        <Node pos="r" depth="1" NCoef="0" IVar="-1" Cut="0" cType="1" res="-0.00467734" purity="0.371988" nType="-99"/>
      </Node>
    </BinaryTree>
    <BinaryTree type="DecisionTree" boostWeight="1.0" itree="191">
      <Node pos="s" depth="0" NCoef="0" IVar="5" Cut="2.45771" cType="1" res="0.0126624" purity="0.504013" nType="0">
        <Node pos="l" depth="1" NCoef="0" IVar="6" Cut="2.52853" cType="1" res="0.00747992" purity="0.504237" nType="0">
          <Node pos="l" depth="2" NCoef="0" IVar="6" Cut="1.97346" cType="1" res="0.000522117" purity="0.517945" nType="0">
            <Node pos="l" depth="3" NCoef="0" IVar="4" Cut="314694" cType="1" res="0.010091" purity="0.530242" nType="0">
              <Node pos="l" depth="4" NCoef="0" IVar="-1" Cut="0" cType="1" res="3.67442e-05" purity="0.533423" nType="-99"/>
              <Node pos="r" depth="4" NCoef="0" IVar="-1" Cut="0" cType="1" res="0.0021795" purity="0.517656" nType="-99"/>
            </Node>
            <Node pos="r" depth="3" NCoef="0" IVar="3" Cut="172028" cType="1" res="-0.0229195" purity="0.487821" nType="0">
              <Node pos="l" depth="4" NCoef="0" IVar="-1" Cut="0" cType="1" res="0.000363206" purity="0.524899" nType="-99"/>
              <Node pos="r" depth="4" NCoef="0" IVar="-1" Cut="0" cType="1" res="-0.00334527" purity="0.440472" nType="-99"/>
            </Node>
          </Node>
          <Node pos="r" depth="2" NCoef="0" IVar="6" Cut="2.72289" cType="1" res="0.0278377" purity="0.464127" nType="0">
            <Node pos="l" depth="3" NCoef="0" IVar="-1" Cut="0" cType="1" res="0.00358418" purity="0.547159" nType="-99"/>
            <Node pos="r" depth="3" NCoef="0" IVar="6" Cut="2.89649" cType="1" res="-0.00182445" purity="0.418881" nType="0">
              <Node pos="l" depth="4" NCoef="0" IVar="-1" Cut="0" cType="1" res="-0.00301484" purity="0.37891" nType="-99"/>
              <Node pos="r" depth="4" NCoef="0" IVar="-1" Cut="0" cType="1" res="0.00149061" purity="0.444143" nType="-99"/>
            </Node>
          </Node>
        </Node>
        <Node pos="r" depth="1" NCoef="0" IVar="1" Cut="153774" cType="1" res="0.0467441" purity="0.502545" nType="0">
          <Node pos="l" depth="2" NCoef="0" IVar="-1" Cut="0" cType="1" res="0.00360409" purity="0.544868" nType="-99"/>
          <Node pos="r" depth="2" NCoef="0" IVar="-1" Cut="0" cType="1" res="0.000598712" purity="0.456654" nType="-99"/>
        </Node>
      </Node>
    </BinaryTree>
    <BinaryTree type="DecisionTree" boostWeight="1.0" itree="192">
      <Node pos="s" depth="0" NCoef="0" IVar="3" Cut="159690" cType="1" res="0.0181844" purity="0.510945" nType="0">
        <Node pos="l" depth="1" NCoef="0" IVar="3" Cut="140314" cType="1" res="-0.000969364" purity="0.497189" nType="0">
          <Node pos="l" depth="2" NCoef="0" IVar="2" Cut="7291.6" cType="1" res="0.0207201" purity="0.518501" nType="0">
            <Node pos="l" depth="3" NCoef="0" IVar="3" Cut="124775" cType="1" res="0.0502258" purity="0.498151" nType="0">
              <Node pos="l" depth="4" NCoef="0" IVar="-1" Cut="0" cType="1" res="0.000369696" purity="0.453972" nType="-99"/>
              <Node pos="r" depth="4" NCoef="0" IVar="-1" Cut="0" cType="1" res="0.00415819" purity="0.54527" nType="-99"/>
            </Node>
            <Node pos="r" depth="3" NCoef="0" IVar="-1" Cut="0" cType="1" res="-0.00105553" purity="0.548233" nType="-99"/>
          </Node>
          <Node pos="r" depth="2" NCoef="0" IVar="4" Cut="246910" cType="1" res="-0.0252067" purity="0.473374" nType="0">
            <Node pos="l" depth="3" NCoef="0" IVar="6" Cut="1.99262" cType="1" res="-0.00126829" purity="0.521237" nType="0">
              <Node pos="l" depth="4" NCoef="0" IVar="-1" Cut="0" cType="1" res="0.00143056" purity="0.57315" nType="-99"/>
              <Node pos="r" depth="4" NCoef="0" IVar="-1" Cut="0" cType="1" res="-0.002819" purity="0.444009" nType="-99"/>
            </Node>
            <Node pos="r" depth="3" NCoef="0" IVar="-1" Cut="0" cType="1" res="-0.00388612" purity="0.391182" nType="-99"/>
          </Node>
        </Node>
        <Node pos="r" depth="1" NCoef="0" IVar="1" Cut="100223" cType="1" res="0.0289388" purity="0.518669" nType="0">
          <Node pos="l" depth="2" NCoef="0" IVar="6" Cut="2.52854" cType="1" res="0.00742183" purity="0.461161" nType="0">
            <Node pos="l" depth="3" NCoef="0" IVar="3" Cut="187046" cType="1" res="-0.0157516" purity="0.454909" nType="0">
              <Node pos="l" depth="4" NCoef="0" IVar="-1" Cut="0" cType="1" res="0.000465491" purity="0.488428" nType="-99"/>
              <Node pos="r" depth="4" NCoef="0" IVar="-1" Cut="0" cType="1" res="-0.00400685" purity="0.389205" nType="-99"/>
            </Node>
            <Node pos="r" depth="3" NCoef="0" IVar="-1" Cut="0" cType="1" res="0.00287124" purity="0.474589" nType="-99"/>
          </Node>
          <Node pos="r" depth="2" NCoef="0" IVar="0" Cut="202432" cType="1" res="0.0374796" purity="0.541495" nType="0">
            <Node pos="l" depth="3" NCoef="0" IVar="0" Cut="167440" cType="1" res="0.0299868" purity="0.523358" nType="0">
              <Node pos="l" depth="4" NCoef="0" IVar="-1" Cut="0" cType="1" res="0.00184563" purity="0.525791" nType="-99"/>
              <Node pos="r" depth="4" NCoef="0" IVar="-1" Cut="0" cType="1" res="-0.00187322" purity="0.506277" nType="-99"/>
            </Node>
            <Node pos="r" depth="3" NCoef="0" IVar="-1" Cut="0" cType="1" res="0.00340843" purity="0.661992" nType="-99"/>
          </Node>
        </Node>
      </Node>
    </BinaryTree>
    <BinaryTree type="DecisionTree" boostWeight="1.0" itree="193">
      <Node pos="s" depth="0" NCoef="0" IVar="1" Cut="105366" cType="1" res="0.00776809" purity="0.503453" nType="0">
        <Node pos="l" depth="1" NCoef="0" IVar="5" Cut="1.0817" cType="1" res="-0.0115885" purity="0.454137" nType="0">
          <Node pos="l" depth="2" NCoef="0" IVar="1" Cut="94498.6" cType="1" res="0.0113687" purity="0.496316" nType="0">
            <Node pos="l" depth="3" NCoef="0" IVar="-1" Cut="0" cType="1" res="-0.00120053" purity="0.454869" nType="-99"/>
            <Node pos="r" depth="3" NCoef="0" IVar="0" Cut="148788" cType="1" res="0.0333609" purity="0.522638" nType="0">
              <Node pos="l" depth="4" NCoef="0" IVar="-1" Cut="0" cType="1" res="-0.000765839" purity="0.443564" nType="-99"/>
              <Node pos="r" depth="4" NCoef="0" IVar="-1" Cut="0" cType="1" res="0.00282662" purity="0.575931" nType="-99"/>
            </Node>
          </Node>
          <Node pos="r" depth="2" NCoef="0" IVar="6" Cut="2.37504" cType="1" res="-0.0346115" purity="0.411838" nType="0">
            <Node pos="l" depth="3" NCoef="0" IVar="6" Cut="1.56361" cType="1" res="-0.0534244" purity="0.411353" nType="0">
              <Node pos="l" depth="4" NCoef="0" IVar="-1" Cut="0" cType="1" res="-0.00153824" purity="0.427805" nType="-99"/>
              <Node pos="r" depth="4" NCoef="0" IVar="-1" Cut="0" cType="1" res="-0.00512313" purity="0.392008" nType="-99"/>
            </Node>
            <Node pos="r" depth="3" NCoef="0" IVar="-1" Cut="0" cType="1" res="-6.09339e-05" purity="0.412702" nType="-99"/>
          </Node>
        </Node>
        <Node pos="r" depth="1" NCoef="0" IVar="4" Cut="256143" cType="1" res="0.020123" purity="0.53493" nType="0">
          <Node pos="l" depth="2" NCoef="0" IVar="4" Cut="168591" cType="1" res="0.0369211" purity="0.583282" nType="0">
            <Node pos="l" depth="3" NCoef="0" IVar="-1" Cut="0" cType="1" res="-0.000691991" purity="0.578325" nType="-99"/>
            <Node pos="r" depth="3" NCoef="0" IVar="1" Cut="148547" cType="1" res="0.0484312" purity="0.584385" nType="0">
              <Node pos="l" depth="4" NCoef="0" IVar="-1" Cut="0" cType="1" res="0.00255206" purity="0.592599" nType="-99"/>
              <Node pos="r" depth="4" NCoef="0" IVar="-1" Cut="0" cType="1" res="-0.000421045" purity="0.541214" nType="-99"/>
            </Node>
          </Node>
          <Node pos="r" depth="2" NCoef="0" IVar="1" Cut="143346" cType="1" res="-0.00212886" purity="0.470879" nType="0">
            <Node pos="l" depth="3" NCoef="0" IVar="0" Cut="129274" cType="1" res="-0.0354274" purity="0.435893" nType="0">
              <Node pos="l" depth="4" NCoef="0" IVar="-1" Cut="0" cType="1" res="-0.00565055" purity="0.333261" nType="-99"/>
              <Node pos="r" depth="4" NCoef="0" IVar="-1" Cut="0" cType="1" res="0.000390419" purity="0.521792" nType="-99"/>
            </Node>
            <Node pos="r" depth="3" NCoef="0" IVar="5" Cut="2.60145" cType="1" res="0.0269014" purity="0.501381" nType="0">
              <Node pos="l" depth="4" NCoef="0" IVar="-1" Cut="0" cType="1" res="0.00191768" purity="0.53294" nType="-99"/>
              <Node pos="r" depth="4" NCoef="0" IVar="-1" Cut="0" cType="1" res="-0.000329399" purity="0.434077" nType="-99"/>
            </Node>
          </Node>
        </Node>
      </Node>
    </BinaryTree>
    <BinaryTree type="DecisionTree" boostWeight="1.0" itree="194">
      <Node pos="s" depth="0" NCoef="0" IVar="6" Cut="0.842957" cType="1" res="0.00742478" purity="0.501023" nType="0">
        <Node pos="l" depth="1" NCoef="0" IVar="6" Cut="0.636825" cType="1" res="0.0396793" purity="0.520304" nType="0">
          <Node pos="l" depth="2" NCoef="0" IVar="0" Cut="148705" cType="1" res="0.024906" purity="0.498946" nType="0">
            <Node pos="l" depth="3" NCoef="0" IVar="3" Cut="169856" cType="1" res="0.0414125" purity="0.508565" nType="0">
              <Node pos="l" depth="4" NCoef="0" IVar="-1" Cut="0" cType="1" res="0.000620481" purity="0.483786" nType="-99"/>
              <Node pos="r" depth="4" NCoef="0" IVar="-1" Cut="0" cType="1" res="0.0031693" purity="0.534472" nType="-99"/>
            </Node>
            <Node pos="r" depth="3" NCoef="0" IVar="-1" Cut="0" cType="1" res="-0.0010311" purity="0.472058" nType="-99"/>
          </Node>
          <Node pos="r" depth="2" NCoef="0" IVar="-1" Cut="0" cType="1" res="0.0032675" purity="0.576891" nType="-99"/>
        </Node>
        <Node pos="r" depth="1" NCoef="0" IVar="2" Cut="14112.2" cType="1" res="-0.00125509" purity="0.495835" nType="0">
          <Node pos="l" depth="2" NCoef="0" IVar="6" Cut="2.41288" cType="1" res="-0.0110679" purity="0.45097" nType="0">
            <Node pos="l" depth="3" NCoef="0" IVar="5" Cut="1.0376" cType="1" res="-0.0305456" purity="0.449864" nType="0">
              <Node pos="l" depth="4" NCoef="0" IVar="-1" Cut="0" cType="1" res="-0.00503435" purity="0.396793" nType="-99"/>
              <Node pos="r" depth="4" NCoef="0" IVar="-1" Cut="0" cType="1" res="-0.00109073" purity="0.45875" nType="-99"/>
            </Node>
            <Node pos="r" depth="3" NCoef="0" IVar="5" Cut="1.32631" cType="1" res="0.0134195" purity="0.452361" nType="0">
              <Node pos="l" depth="4" NCoef="0" IVar="-1" Cut="0" cType="1" res="-0.00047555" purity="0.441211" nType="-99"/>
              <Node pos="r" depth="4" NCoef="0" IVar="-1" Cut="0" cType="1" res="0.00193498" purity="0.464436" nType="-99"/>
            </Node>
          </Node>
          <Node pos="r" depth="2" NCoef="0" IVar="1" Cut="105297" cType="1" res="0.0379896" purity="0.675264" nType="0">
            <Node pos="l" depth="3" NCoef="0" IVar="-1" Cut="0" cType="1" res="7.47293e-05" purity="0.60668" nType="-99"/>
            <Node pos="r" depth="3" NCoef="0" IVar="1" Cut="128945" cType="1" res="0.0557053" purity="0.708744" nType="0">
              <Node pos="l" depth="4" NCoef="0" IVar="-1" Cut="0" cType="1" res="0.00231786" purity="0.708911" nType="-99"/>
              <Node pos="r" depth="4" NCoef="0" IVar="-1" Cut="0" cType="1" res="0.0021769" purity="0.708553" nType="-99"/>
            </Node>
          </Node>
        </Node>
      </Node>
    </BinaryTree>
    <BinaryTree type="DecisionTree" boostWeight="1.0" itree="195">
      <Node pos="s" depth="0" NCoef="0" IVar="5" Cut="1.08999" cType="1" res="0.0102317" purity="0.504034" nType="0">
        <Node pos="l" depth="1" NCoef="0" IVar="4" Cut="402434" cType="1" res="0.0347674" purity="0.546176" nType="0">
          <Node pos="l" depth="2" NCoef="0" IVar="4" Cut="262257" cType="1" res="0.0212192" purity="0.540801" nType="0">
            <Node pos="l" depth="3" NCoef="0" IVar="4" Cut="222653" cType="1" res="0.0337072" purity="0.56244" nType="0">
              <Node pos="l" depth="4" NCoef="0" IVar="-1" Cut="0" cType="1" res="0.00104543" purity="0.555535" nType="-99"/>
              <Node pos="r" depth="4" NCoef="0" IVar="-1" Cut="0" cType="1" res="0.00347515" purity="0.593321" nType="-99"/>
            </Node>
            <Node pos="r" depth="3" NCoef="0" IVar="-1" Cut="0" cType="1" res="-0.00112401" purity="0.466202" nType="-99"/>
          </Node>
          <Node pos="r" depth="2" NCoef="0" IVar="-1" Cut="0" cType="1" res="0.00525074" purity="0.58372" nType="-99"/>
        </Node>
        <Node pos="r" depth="1" NCoef="0" IVar="6" Cut="1.07263" cType="1" res="-0.00161793" purity="0.483682" nType="0">
          <Node pos="l" depth="2" NCoef="0" IVar="0" Cut="119525" cType="1" res="-0.0272544" purity="0.470071" nType="0">
            <Node pos="l" depth="3" NCoef="0" IVar="-1" Cut="0" cType="1" res="-0.00353567" purity="0.408755" nType="-99"/>
            <Node pos="r" depth="3" NCoef="0" IVar="5" Cut="1.84074" cType="1" res="-0.000855118" purity="0.515129" nType="0">
              <Node pos="l" depth="4" NCoef="0" IVar="-1" Cut="0" cType="1" res="0.00181087" purity="0.55267" nType="-99"/>
              <Node pos="r" depth="4" NCoef="0" IVar="-1" Cut="0" cType="1" res="-0.00201785" purity="0.479342" nType="-99"/>
            </Node>
          </Node>
          <Node pos="r" depth="2" NCoef="0" IVar="5" Cut="2.04069" cType="1" res="0.00746144" purity="0.488502" nType="0">
            <Node pos="l" depth="3" NCoef="0" IVar="0" Cut="139029" cType="1" res="-0.00266506" purity="0.489362" nType="0">
              <Node pos="l" depth="4" NCoef="0" IVar="-1" Cut="0" cType="1" res="0.000750531" purity="0.478654" nType="-99"/>
              <Node pos="r" depth="4" NCoef="0" IVar="-1" Cut="0" cType="1" res="-0.00146919" purity="0.505601" nType="-99"/>
            </Node>
            <Node pos="r" depth="3" NCoef="0" IVar="4" Cut="285197" cType="1" res="0.03197" purity="0.486421" nType="0">
              <Node pos="l" depth="4" NCoef="0" IVar="-1" Cut="0" cType="1" res="0.00273786" purity="0.544512" nType="-99"/>
              <Node pos="r" depth="4" NCoef="0" IVar="-1" Cut="0" cType="1" res="-0.00048917" purity="0.408796" nType="-99"/>
            </Node>
          </Node>
        </Node>
      </Node>
    </BinaryTree>
    <BinaryTree type="DecisionTree" boostWeight="1.0" itree="196">
      <Node pos="s" depth="0" NCoef="0" IVar="1" Cut="100242" cType="1" res="0.00354594" purity="0.497871" nType="0">
        <Node pos="l" depth="1" NCoef="0" IVar="2" Cut="-10427.1" cType="1" res="-0.0153214" purity="0.440559" nType="0">
          <Node pos="l" depth="2" NCoef="0" IVar="-1" Cut="0" cType="1" res="0.00381821" purity="0.478051" nType="-99"/>
          <Node pos="r" depth="2" NCoef="0" IVar="4" Cut="314657" cType="1" res="-0.0307159" purity="0.434329" nType="0">
            <Node pos="l" depth="3" NCoef="0" IVar="1" Cut="96992.5" cType="1" res="-0.0518607" purity="0.42165" nType="0">
              <Node pos="l" depth="4" NCoef="0" IVar="-1" Cut="0" cType="1" res="-0.00148915" purity="0.447952" nType="-99"/>
              <Node pos="r" depth="4" NCoef="0" IVar="-1" Cut="0" cType="1" res="-0.00847336" purity="0.343843" nType="-99"/>
            </Node>
            <Node pos="r" depth="3" NCoef="0" IVar="-1" Cut="0" cType="1" res="0.00275356" purity="0.486185" nType="-99"/>
          </Node>
        </Node>
        <Node pos="r" depth="1" NCoef="0" IVar="2" Cut="811.58" cType="1" res="0.0110449" purity="0.52065" nType="0">
          <Node pos="l" depth="2" NCoef="0" IVar="4" Cut="356092" cType="1" res="-0.0146201" purity="0.424236" nType="0">
            <Node pos="l" depth="3" NCoef="0" IVar="0" Cut="153647" cType="1" res="-0.00321702" purity="0.445709" nType="0">
              <Node pos="l" depth="4" NCoef="0" IVar="-1" Cut="0" cType="1" res="-0.0014814" purity="0.398941" nType="-99"/>
              <Node pos="r" depth="4" NCoef="0" IVar="-1" Cut="0" cType="1" res="0.00229777" purity="0.56432" nType="-99"/>
            </Node>
            <Node pos="r" depth="3" NCoef="0" IVar="-1" Cut="0" cType="1" res="-0.00483676" purity="0.323193" nType="-99"/>
          </Node>
          <Node pos="r" depth="2" NCoef="0" IVar="4" Cut="383851" cType="1" res="0.0255811" purity="0.575257" nType="0">
            <Node pos="l" depth="3" NCoef="0" IVar="6" Cut="0.782104" cType="1" res="0.0186227" purity="0.575277" nType="0">
              <Node pos="l" depth="4" NCoef="0" IVar="-1" Cut="0" cType="1" res="-0.000835573" purity="0.488309" nType="-99"/>
              <Node pos="r" depth="4" NCoef="0" IVar="-1" Cut="0" cType="1" res="0.00139877" purity="0.609418" nType="-99"/>
            </Node>
            <Node pos="r" depth="3" NCoef="0" IVar="-1" Cut="0" cType="1" res="0.00344054" purity="0.575092" nType="-99"/>
          </Node>
        </Node>
      </Node>
    </BinaryTree>
    <BinaryTree type="DecisionTree" boostWeight="1.0" itree="197">
      <Node pos="s" depth="0" NCoef="0" IVar="2" Cut="-12802.8" cType="1" res="0.00553727" purity="0.500104" nType="0">
        <Node pos="l" depth="1" NCoef="0" IVar="5" Cut="1.40624" cType="1" res="-0.0601906" purity="0.353371" nType="0">
          <Node pos="l" depth="2" NCoef="0" IVar="-1" Cut="0" cType="1" res="-0.000451511" purity="0.412388" nType="-99"/>
          <Node pos="r" depth="2" NCoef="0" IVar="-1" Cut="0" cType="1" res="-0.00803887" purity="0.296515" nType="-99"/>
        </Node>
        <Node pos="r" depth="1" NCoef="0" IVar="4" Cut="343929" cType="1" res="0.012131" purity="0.514825" nType="0">
          <Node pos="l" depth="2" NCoef="0" IVar="5" Cut="0.927268" cType="1" res="0.0176919" purity="0.528378" nType="0">
            <Node pos="l" depth="3" NCoef="0" IVar="6" Cut="2.14566" cType="1" res="-0.0100682" purity="0.533424" nType="0">
              <Node pos="l" depth="4" NCoef="0" IVar="-1" Cut="0" cType="1" res="0.000389531" purity="0.570142" nType="-99"/>
              <Node pos="r" depth="4" NCoef="0" IVar="-1" Cut="0" cType="1" res="-0.00179743" purity="0.481994" nType="-99"/>
            </Node>
            <Node pos="r" depth="3" NCoef="0" IVar="5" Cut="2.60047" cType="1" res="0.0240487" purity="0.527222" nType="0">
              <Node pos="l" depth="4" NCoef="0" IVar="-1" Cut="0" cType="1" res="0.00136439" purity="0.535762" nType="-99"/>
              <Node pos="r" depth="4" NCoef="0" IVar="-1" Cut="0" cType="1" res="-0.00143413" purity="0.447368" nType="-99"/>
            </Node>
          </Node>
          <Node pos="r" depth="2" NCoef="0" IVar="0" Cut="182885" cType="1" res="-0.0201973" purity="0.436033" nType="0">
            <Node pos="l" depth="3" NCoef="0" IVar="3" Cut="171779" cType="1" res="-0.0496235" purity="0.375419" nType="0">
              <Node pos="l" depth="4" NCoef="0" IVar="-1" Cut="0" cType="1" res="-0.00686066" purity="0.32126" nType="-99"/>
              <Node pos="r" depth="4" NCoef="0" IVar="-1" Cut="0" cType="1" res="0.000178562" purity="0.427" nType="-99"/>
            </Node>
            <Node pos="r" depth="3" NCoef="0" IVar="-1" Cut="0" cType="1" res="0.00198113" purity="0.569734" nType="-99"/>
          </Node>
        </Node>
      </Node>
    </BinaryTree>
    <BinaryTree type="DecisionTree" boostWeight="1.0" itree="198">
      <Node pos="s" depth="0" NCoef="0" IVar="0" Cut="129263" cType="1" res="0.00142569" purity="0.494718" nType="0">
        <Node pos="l" depth="1" NCoef="0" IVar="5" Cut="2.00366" cType="1" res="0.0157963" purity="0.474828" nType="0">
          <Node pos="l" depth="2" NCoef="0" IVar="4" Cut="236971" cType="1" res="0.0297978" purity="0.492682" nType="0">
            <Node pos="l" depth="3" NCoef="0" IVar="4" Cut="180484" cType="1" res="0.0154207" purity="0.497632" nType="0">
              <Node pos="l" depth="4" NCoef="0" IVar="-1" Cut="0" cType="1" res="0.00193452" purity="0.55" nType="-99"/>
              <Node pos="r" depth="4" NCoef="0" IVar="-1" Cut="0" cType="1" res="-0.000588659" purity="0.448679" nType="-99"/>
            </Node>
            <Node pos="r" depth="3" NCoef="0" IVar="4" Cut="326706" cType="1" res="0.051979" purity="0.485046" nType="0">
              <Node pos="l" depth="4" NCoef="0" IVar="-1" Cut="0" cType="1" res="0.00350939" purity="0.533757" nType="-99"/>
              <Node pos="r" depth="4" NCoef="0" IVar="-1" Cut="0" cType="1" res="-0.000598213" purity="0.385827" nType="-99"/>
            </Node>
          </Node>
          <Node pos="r" depth="2" NCoef="0" IVar="6" Cut="1.30034" cType="1" res="-0.0169039" purity="0.433131" nType="0">
            <Node pos="l" depth="3" NCoef="0" IVar="-1" Cut="0" cType="1" res="-0.00295789" purity="0.435362" nType="-99"/>
            <Node pos="r" depth="3" NCoef="0" IVar="-1" Cut="0" cType="1" res="0.000306911" purity="0.431751" nType="-99"/>
          </Node>
        </Node>
        <Node pos="r" depth="1" NCoef="0" IVar="0" Cut="158398" cType="1" res="-0.0107634" purity="0.511588" nType="0">
          <Node pos="l" depth="2" NCoef="0" IVar="6" Cut="2.45216" cType="1" res="-0.0294116" purity="0.471602" nType="0">
            <Node pos="l" depth="3" NCoef="0" IVar="3" Cut="151614" cType="1" res="-0.0127542" purity="0.507205" nType="0">
              <Node pos="l" depth="4" NCoef="0" IVar="-1" Cut="0" cType="1" res="-0.00337594" purity="0.453877" nType="-99"/>
              <Node pos="r" depth="4" NCoef="0" IVar="-1" Cut="0" cType="1" res="0.000340466" purity="0.527262" nType="-99"/>
            </Node>
            <Node pos="r" depth="3" NCoef="0" IVar="-1" Cut="0" cType="1" res="-0.00547001" purity="0.352106" nType="-99"/>
          </Node>
          <Node pos="r" depth="2" NCoef="0" IVar="5" Cut="1.9477" cType="1" res="0.00404355" purity="0.543338" nType="0">
            <Node pos="l" depth="3" NCoef="0" IVar="1" Cut="105352" cType="1" res="0.0162936" purity="0.561328" nType="0">
              <Node pos="l" depth="4" NCoef="0" IVar="-1" Cut="0" cType="1" res="-0.000642189" purity="0.49077" nType="-99"/>
              <Node pos="r" depth="4" NCoef="0" IVar="-1" Cut="0" cType="1" res="0.00176816" purity="0.626971" nType="-99"/>
            </Node>
            <Node pos="r" depth="3" NCoef="0" IVar="-1" Cut="0" cType="1" res="-0.00381199" purity="0.433296" nType="-99"/>
          </Node>
        </Node>
      </Node>
    </BinaryTree>
    <BinaryTree type="DecisionTree" boostWeight="1.0" itree="199">
      <Node pos="s" depth="0" NCoef="0" IVar="3" Cut="171169" cType="1" res="0.00178424" purity="0.495423" nType="0">
        <Node pos="l" depth="1" NCoef="0" IVar="6" Cut="1.83898" cType="1" res="0.0127695" purity="0.51263" nType="0">
          <Node pos="l" depth="2" NCoef="0" IVar="2" Cut="811.58" cType="1" res="-0.0102475" purity="0.509629" nType="0">
            <Node pos="l" depth="3" NCoef="0" IVar="-1" Cut="0" cType="1" res="-0.00411231" purity="0.350875" nType="-99"/>
            <Node pos="r" depth="3" NCoef="0" IVar="5" Cut="2.37823" cType="1" res="-0.000300207" purity="0.538075" nType="0">
              <Node pos="l" depth="4" NCoef="0" IVar="-1" Cut="0" cType="1" res="-0.000536902" purity="0.537173" nType="-99"/>
              <Node pos="r" depth="4" NCoef="0" IVar="-1" Cut="0" cType="1" res="0.00167575" purity="0.541075" nType="-99"/>
            </Node>
          </Node>
          <Node pos="r" depth="2" NCoef="0" IVar="2" Cut="-5373.19" cType="1" res="0.0351156" purity="0.515543" nType="0">
            <Node pos="l" depth="3" NCoef="0" IVar="1" Cut="120722" cType="1" res="0.0677169" purity="0.498798" nType="0">
              <Node pos="l" depth="4" NCoef="0" IVar="-1" Cut="0" cType="1" res="0.00460271" purity="0.523233" nType="-99"/>
              <Node pos="r" depth="4" NCoef="0" IVar="-1" Cut="0" cType="1" res="0.000855214" purity="0.457752" nType="-99"/>
            </Node>
            <Node pos="r" depth="3" NCoef="0" IVar="6" Cut="2.34732" cType="1" res="0.0129747" purity="0.526915" nType="0">
              <Node pos="l" depth="4" NCoef="0" IVar="-1" Cut="0" cType="1" res="0.00221163" purity="0.594937" nType="-99"/>
              <Node pos="r" depth="4" NCoef="0" IVar="-1" Cut="0" cType="1" res="-0.00175316" purity="0.444113" nType="-99"/>
            </Node>
          </Node>
        </Node>
        <Node pos="r" depth="1" NCoef="0" IVar="4" Cut="392679" cType="1" res="-0.0111724" purity="0.475128" nType="0">
          <Node pos="l" depth="2" NCoef="0" IVar="2" Cut="-9489.2" cType="1" res="-0.0174419" purity="0.474557" nType="0">
            <Node pos="l" depth="3" NCoef="0" IVar="-1" Cut="0" cType="1" res="-0.00473493" purity="0.339722" nType="-99"/>
            <Node pos="r" depth="3" NCoef="0" IVar="1" Cut="95111" cType="1" res="-0.00993225" purity="0.493237" nType="0">
              <Node pos="l" depth="4" NCoef="0" IVar="-1" Cut="0" cType="1" res="0.0018653" purity="0.505107" nType="-99"/>
              <Node pos="r" depth="4" NCoef="0" IVar="-1" Cut="0" cType="1" res="-0.000997618" purity="0.490738" nType="-99"/>
            </Node>
          </Node>
          <Node pos="r" depth="2" NCoef="0" IVar="-1" Cut="0" cType="1" res="0.00201778" purity="0.479961" nType="-99"/>
        </Node>
      </Node>
    </BinaryTree>
    <BinaryTree type="DecisionTree" boostWeight="1.0" itree="200">
      <Node pos="s" depth="0" NCoef="0" IVar="4" Cut="363496" cType="1" res="-0.00143785" purity="0.491276" nType="0">
        <Node pos="l" depth="1" NCoef="0" IVar="3" Cut="218224" cType="1" res="-0.00824852" purity="0.493887" nType="0">
          <Node pos="l" depth="2" NCoef="0" IVar="3" Cut="187447" cType="1" res="-0.00459612" purity="0.499198" nType="0">
            <Node pos="l" depth="3" NCoef="0" IVar="4" Cut="260844" cType="1" res="-0.0107704" purity="0.495997" nType="0">
              <Node pos="l" depth="4" NCoef="0" IVar="-1" Cut="0" cType="1" res="9.83871e-05" purity="0.521483" nType="-99"/>
              <Node pos="r" depth="4" NCoef="0" IVar="-1" Cut="0" cType="1" res="-0.00271881" purity="0.420709" nType="-99"/>
            </Node>
            <Node pos="r" depth="3" NCoef="0" IVar="0" Cut="129283" cType="1" res="0.0224581" purity="0.513225" nType="0">
              <Node pos="l" depth="4" NCoef="0" IVar="-1" Cut="0" cType="1" res="-0.00115214" purity="0.431833" nType="-99"/>
              <Node pos="r" depth="4" NCoef="0" IVar="-1" Cut="0" cType="1" res="0.00238285" purity="0.574639" nType="-99"/>
            </Node>
          </Node>
          <Node pos="r" depth="2" NCoef="0" IVar="-1" Cut="0" cType="1" res="-0.00339199" purity="0.41709" nType="-99"/>
        </Node>
        <Node pos="r" depth="1" NCoef="0" IVar="1" Cut="166767" cType="1" res="0.0408609" purity="0.475064" nType="0">
          <Node pos="l" depth="2" NCoef="0" IVar="6" Cut="2.06885" cType="1" res="0.00871356" purity="0.440877" nType="0">
            <Node pos="l" depth="3" NCoef="0" IVar="-1" Cut="0" cType="1" res="-0.00342504" purity="0.388559" nType="-99"/>
            <Node pos="r" depth="3" NCoef="0" IVar="-1" Cut="0" cType="1" res="0.0031536" purity="0.484971" nType="-99"/>
          </Node>
          <Node pos="r" depth="2" NCoef="0" IVar="-1" Cut="0" cType="1" res="0.00467987" purity="0.551556" nType="-99"/>
        </Node>
      </Node>
    </BinaryTree>
    <BinaryTree type="DecisionTree" boostWeight="1.0" itree="201">
      <Node pos="s" depth="0" NCoef="0" IVar="4" Cut="324377" cType="1" res="0.017802" purity="0.510142" nType="0">
        <Node pos="l" depth="1" NCoef="0" IVar="0" Cut="143901" cType="1" res="0.0103596" purity="0.51584" nType="0">
          <Node pos="l" depth="2" NCoef="0" IVar="5" Cut="1.15642" cType="1" res="0.0214246" purity="0.503109" nType="0">
            <Node pos="l" depth="3" NCoef="0" IVar="4" Cut="198489" cType="1" res="-0.0107623" purity="0.487676" nType="0">
              <Node pos="l" depth="4" NCoef="0" IVar="-1" Cut="0" cType="1" res="0.000884214" purity="0.537852" nType="-99"/>
              <Node pos="r" depth="4" NCoef="0" IVar="-1" Cut="0" cType="1" res="-0.0028461" purity="0.419506" nType="-99"/>
            </Node>
            <Node pos="r" depth="3" NCoef="0" IVar="0" Cut="108563" cType="1" res="0.0314128" purity="0.507899" nType="0">
              <Node pos="l" depth="4" NCoef="0" IVar="-1" Cut="0" cType="1" res="-0.000156152" purity="0.450808" nType="-99"/>
              <Node pos="r" depth="4" NCoef="0" IVar="-1" Cut="0" cType="1" res="0.00208277" purity="0.531445" nType="-99"/>
            </Node>
          </Node>
          <Node pos="r" depth="2" NCoef="0" IVar="4" Cut="269800" cType="1" res="-0.00872201" purity="0.537795" nType="0">
            <Node pos="l" depth="3" NCoef="0" IVar="3" Cut="142499" cType="1" res="0.0069396" purity="0.559965" nType="0">
              <Node pos="l" depth="4" NCoef="0" IVar="-1" Cut="0" cType="1" res="-0.00297935" purity="0.507939" nType="-99"/>
              <Node pos="r" depth="4" NCoef="0" IVar="-1" Cut="0" cType="1" res="0.000939245" purity="0.571098" nType="-99"/>
            </Node>
            <Node pos="r" depth="3" NCoef="0" IVar="-1" Cut="0" cType="1" res="-0.00492807" purity="0.425856" nType="-99"/>
          </Node>
        </Node>
        <Node pos="r" depth="1" NCoef="0" IVar="5" Cut="1.18095" cType="1" res="0.0442027" purity="0.489926" nType="0">
          <Node pos="l" depth="2" NCoef="0" IVar="2" Cut="3541.33" cType="1" res="0.0950761" purity="0.56303" nType="0">
            <Node pos="l" depth="3" NCoef="0" IVar="-1" Cut="0" cType="1" res="0.00614526" purity="0.568192" nType="-99"/>
            <Node pos="r" depth="3" NCoef="0" IVar="-1" Cut="0" cType="1" res="0.0016568" purity="0.557768" nType="-99"/>
          </Node>
          <Node pos="r" depth="2" NCoef="0" IVar="0" Cut="143915" cType="1" res="0.0077689" purity="0.437572" nType="0">
            <Node pos="l" depth="3" NCoef="0" IVar="-1" Cut="0" cType="1" res="-0.00186032" purity="0.352899" nType="-99"/>
            <Node pos="r" depth="3" NCoef="0" IVar="-1" Cut="0" cType="1" res="0.00236474" purity="0.547567" nType="-99"/>
          </Node>
        </Node>
      </Node>
    </BinaryTree>
    <BinaryTree type="DecisionTree" boostWeight="1.0" itree="202">
      <Node pos="s" depth="0" NCoef="0" IVar="0" Cut="173169" cType="1" res="0.00813812" purity="0.500712" nType="0">
        <Node pos="l" depth="1" NCoef="0" IVar="0" Cut="162448" cType="1" res="0.0144043" purity="0.491642" nType="0">
          <Node pos="l" depth="2" NCoef="0" IVar="5" Cut="1.00397" cType="1" res="0.00960249" purity="0.483057" nType="0">
            <Node pos="l" depth="3" NCoef="0" IVar="3" Cut="182322" cType="1" res="0.0395138" purity="0.530551" nType="0">
              <Node pos="l" depth="4" NCoef="0" IVar="-1" Cut="0" cType="1" res="0.000504334" purity="0.511106" nType="-99"/>
              <Node pos="r" depth="4" NCoef="0" IVar="-1" Cut="0" cType="1" res="0.00408256" purity="0.56941" nType="-99"/>
            </Node>
            <Node pos="r" depth="3" NCoef="0" IVar="3" Cut="200351" cType="1" res="0.00272958" purity="0.472144" nType="0">
              <Node pos="l" depth="4" NCoef="0" IVar="-1" Cut="0" cType="1" res="0.000397774" purity="0.479493" nType="-99"/>
              <Node pos="r" depth="4" NCoef="0" IVar="-1" Cut="0" cType="1" res="-0.00163832" purity="0.42474" nType="-99"/>
            </Node>
          </Node>
          <Node pos="r" depth="2" NCoef="0" IVar="-1" Cut="0" cType="1" res="0.00297601" purity="0.592875" nType="-99"/>
        </Node>
        <Node pos="r" depth="1" NCoef="0" IVar="3" Cut="144097" cType="1" res="-0.0154266" purity="0.534821" nType="0">
          <Node pos="l" depth="2" NCoef="0" IVar="-1" Cut="0" cType="1" res="0.00156034" purity="0.594853" nType="-99"/>
          <Node pos="r" depth="2" NCoef="0" IVar="3" Cut="166886" cType="1" res="-0.0321786" purity="0.515289" nType="0">
            <Node pos="l" depth="3" NCoef="0" IVar="-1" Cut="0" cType="1" res="-0.00463997" purity="0.477595" nType="-99"/>
            <Node pos="r" depth="3" NCoef="0" IVar="6" Cut="2.37573" cType="1" res="-0.0135354" purity="0.529701" nType="0">
              <Node pos="l" depth="4" NCoef="0" IVar="-1" Cut="0" cType="1" res="-0.00196308" purity="0.519089" nType="-99"/>
              <Node pos="r" depth="4" NCoef="0" IVar="-1" Cut="0" cType="1" res="0.00121854" purity="0.546298" nType="-99"/>
            </Node>
          </Node>
        </Node>
      </Node>
    </BinaryTree>
    <BinaryTree type="DecisionTree" boostWeight="1.0" itree="203">
      <Node pos="s" depth="0" NCoef="0" IVar="3" Cut="119081" cType="1" res="-0.000740953" purity="0.492588" nType="0">
        <Node pos="l" depth="1" NCoef="0" IVar="4" Cut="257927" cType="1" res="0.0457594" purity="0.543752" nType="0">
          <Node pos="l" depth="2" NCoef="0" IVar="-1" Cut="0" cType="1" res="0.000556142" purity="0.531073" nType="-99"/>
          <Node pos="r" depth="2" NCoef="0" IVar="-1" Cut="0" cType="1" res="0.00360522" purity="0.559126" nType="-99"/>
        </Node>
        <Node pos="r" depth="1" NCoef="0" IVar="5" Cut="2.83621" cType="1" res="-0.00542973" purity="0.487429" nType="0">
          <Node pos="l" depth="2" NCoef="0" IVar="3" Cut="154368" cType="1" res="-0.00198681" purity="0.493511" nType="0">
            <Node pos="l" depth="3" NCoef="0" IVar="0" Cut="114639" cType="1" res="-0.0256254" purity="0.475574" nType="0">
              <Node pos="l" depth="4" NCoef="0" IVar="-1" Cut="0" cType="1" res="-0.00622223" purity="0.35676" nType="-99"/>
              <Node pos="r" depth="4" NCoef="0" IVar="-1" Cut="0" cType="1" res="-0.00012322" purity="0.513415" nType="-99"/>
            </Node>
            <Node pos="r" depth="3" NCoef="0" IVar="6" Cut="0.996032" cType="1" res="0.0053876" purity="0.499107" nType="0">
              <Node pos="l" depth="4" NCoef="0" IVar="-1" Cut="0" cType="1" res="-0.00188184" purity="0.448977" nType="-99"/>
              <Node pos="r" depth="4" NCoef="0" IVar="-1" Cut="0" cType="1" res="0.000764884" purity="0.511698" nType="-99"/>
            </Node>
          </Node>
          <Node pos="r" depth="2" NCoef="0" IVar="-1" Cut="0" cType="1" res="-0.00455316" purity="0.370304" nType="-99"/>
        </Node>
      </Node>
    </BinaryTree>
    <BinaryTree type="DecisionTree" boostWeight="1.0" itree="204">
      <Node pos="s" depth="0" NCoef="0" IVar="0" Cut="104880" cType="1" res="0.0102584" purity="0.502077" nType="0">
        <Node pos="l" depth="1" NCoef="0" IVar="-1" Cut="0" cType="1" res="-0.00245665" purity="0.403125" nType="-99"/>
        <Node pos="r" depth="1" NCoef="0" IVar="5" Cut="0.634061" cType="1" res="0.0153377" purity="0.511637" nType="0">
          <Node pos="l" depth="2" NCoef="0" IVar="-1" Cut="0" cType="1" res="-0.00302767" purity="0.504385" nType="-99"/>
          <Node pos="r" depth="2" NCoef="0" IVar="6" Cut="2.83508" cType="1" res="0.0188649" purity="0.511977" nType="0">
            <Node pos="l" depth="3" NCoef="0" IVar="1" Cut="197557" cType="1" res="0.0135045" purity="0.516563" nType="0">
              <Node pos="l" depth="4" NCoef="0" IVar="-1" Cut="0" cType="1" res="0.000447187" purity="0.513269" nType="-99"/>
              <Node pos="r" depth="4" NCoef="0" IVar="-1" Cut="0" cType="1" res="0.00277329" purity="0.556617" nType="-99"/>
            </Node>
            <Node pos="r" depth="3" NCoef="0" IVar="4" Cut="247058" cType="1" res="0.0567218" purity="0.47959" nType="0">
              <Node pos="l" depth="4" NCoef="0" IVar="-1" Cut="0" cType="1" res="0.000996103" purity="0.459894" nType="-99"/>
              <Node pos="r" depth="4" NCoef="0" IVar="-1" Cut="0" cType="1" res="0.00422324" purity="0.497136" nType="-99"/>
            </Node>
          </Node>
        </Node>
      </Node>
    </BinaryTree>
    <BinaryTree type="DecisionTree" boostWeight="1.0" itree="205">
      <Node pos="s" depth="0" NCoef="0" IVar="1" Cut="166826" cType="1" res="-0.00116597" purity="0.491484" nType="0">
        <Node pos="l" depth="1" NCoef="0" IVar="4" Cut="285394" cType="1" res="0.00472936" purity="0.498344" nType="0">
          <Node pos="l" depth="2" NCoef="0" IVar="4" Cut="262793" cType="1" res="-0.00392704" purity="0.504886" nType="0">
            <Node pos="l" depth="3" NCoef="0" IVar="4" Cut="203242" cType="1" res="-0.000284978" purity="0.511711" nType="0">
              <Node pos="l" depth="4" NCoef="0" IVar="-1" Cut="0" cType="1" res="-0.000625565" purity="0.512246" nType="-99"/>
              <Node pos="r" depth="4" NCoef="0" IVar="-1" Cut="0" cType="1" res="0.000858055" purity="0.51092" nType="-99"/>
            </Node>
            <Node pos="r" depth="3" NCoef="0" IVar="-1" Cut="0" cType="1" res="-0.00262498" purity="0.423224" nType="-99"/>
          </Node>
          <Node pos="r" depth="2" NCoef="0" IVar="4" Cut="411004" cType="1" res="0.0295693" purity="0.479573" nType="0">
            <Node pos="l" depth="3" NCoef="0" IVar="3" Cut="148100" cType="1" res="0.0455435" purity="0.502213" nType="0">
              <Node pos="l" depth="4" NCoef="0" IVar="-1" Cut="0" cType="1" res="0.00448365" purity="0.570938" nType="-99"/>
              <Node pos="r" depth="4" NCoef="0" IVar="-1" Cut="0" cType="1" res="0.0012199" purity="0.478406" nType="-99"/>
            </Node>
            <Node pos="r" depth="3" NCoef="0" IVar="-1" Cut="0" cType="1" res="-0.00157288" purity="0.398098" nType="-99"/>
          </Node>
        </Node>
        <Node pos="r" depth="1" NCoef="0" IVar="6" Cut="1.60875" cType="1" res="-0.0517387" purity="0.432637" nType="0">
          <Node pos="l" depth="2" NCoef="0" IVar="-1" Cut="0" cType="1" res="-0.00591771" purity="0.404592" nType="-99"/>
          <Node pos="r" depth="2" NCoef="0" IVar="-1" Cut="0" cType="1" res="-9.93025e-05" purity="0.460278" nType="-99"/>
        </Node>
      </Node>
    </BinaryTree>
    <BinaryTree type="DecisionTree" boostWeight="1.0" itree="206">
      <Node pos="s" depth="0" NCoef="0" IVar="0" Cut="178045" cType="1" res="0.00119572" purity="0.495884" nType="0">
        <Node pos="l" depth="1" NCoef="0" IVar="1" Cut="120674" cType="1" res="-0.00641435" purity="0.472404" nType="0">
          <Node pos="l" depth="2" NCoef="0" IVar="0" Cut="138065" cType="1" res="-0.0207127" purity="0.444259" nType="0">
            <Node pos="l" depth="3" NCoef="0" IVar="1" Cut="96733.1" cType="1" res="-0.00436575" purity="0.451462" nType="0">
              <Node pos="l" depth="4" NCoef="0" IVar="-1" Cut="0" cType="1" res="0.00139744" purity="0.470301" nType="-99"/>
              <Node pos="r" depth="4" NCoef="0" IVar="-1" Cut="0" cType="1" res="-0.00099417" purity="0.442977" nType="-99"/>
            </Node>
            <Node pos="r" depth="3" NCoef="0" IVar="1" Cut="104189" cType="1" res="-0.0615289" purity="0.426274" nType="0">
              <Node pos="l" depth="4" NCoef="0" IVar="-1" Cut="0" cType="1" res="-0.00219256" purity="0.427344" nType="-99"/>
              <Node pos="r" depth="4" NCoef="0" IVar="-1" Cut="0" cType="1" res="-0.00570812" purity="0.424361" nType="-99"/>
            </Node>
          </Node>
          <Node pos="r" depth="2" NCoef="0" IVar="3" Cut="143256" cType="1" res="0.016662" purity="0.517828" nType="0">
            <Node pos="l" depth="3" NCoef="0" IVar="-1" Cut="0" cType="1" res="-0.00191453" purity="0.461655" nType="-99"/>
            <Node pos="r" depth="3" NCoef="0" IVar="3" Cut="162364" cType="1" res="0.0317744" purity="0.533096" nType="0">
              <Node pos="l" depth="4" NCoef="0" IVar="-1" Cut="0" cType="1" res="0.00299583" purity="0.57524" nType="-99"/>
              <Node pos="r" depth="4" NCoef="0" IVar="-1" Cut="0" cType="1" res="0.000840109" purity="0.517372" nType="-99"/>
            </Node>
          </Node>
        </Node>
        <Node pos="r" depth="1" NCoef="0" IVar="3" Cut="141884" cType="1" res="0.0307113" purity="0.586951" nType="0">
          <Node pos="l" depth="2" NCoef="0" IVar="-1" Cut="0" cType="1" res="0.00345042" purity="0.649108" nType="-99"/>
          <Node pos="r" depth="2" NCoef="0" IVar="4" Cut="207518" cType="1" res="0.0152393" purity="0.5687" nType="0">
            <Node pos="l" depth="3" NCoef="0" IVar="-1" Cut="0" cType="1" res="0.00210393" purity="0.638832" nType="-99"/>
            <Node pos="r" depth="3" NCoef="0" IVar="4" Cut="300261" cType="1" res="-0.00856731" purity="0.521318" nType="0">
              <Node pos="l" depth="4" NCoef="0" IVar="-1" Cut="0" cType="1" res="-0.00258895" purity="0.494831" nType="-99"/>
              <Node pos="r" depth="4" NCoef="0" IVar="-1" Cut="0" cType="1" res="0.00105927" purity="0.541161" nType="-99"/>
            </Node>
          </Node>
        </Node>
      </Node>
    </BinaryTree>
    <BinaryTree type="DecisionTree" boostWeight="1.0" itree="207">
      <Node pos="s" depth="0" NCoef="0" IVar="4" Cut="207366" cType="1" res="0.0132795" purity="0.507972" nType="0">
        <Node pos="l" depth="1" NCoef="0" IVar="2" Cut="19254.9" cType="1" res="0.0361645" purity="0.56503" nType="0">
          <Node pos="l" depth="2" NCoef="0" IVar="4" Cut="181365" cType="1" res="0.0289101" purity="0.527244" nType="0">
            <Node pos="l" depth="3" NCoef="0" IVar="2" Cut="7694.27" cType="1" res="0.014375" purity="0.51924" nType="0">
              <Node pos="l" depth="4" NCoef="0" IVar="-1" Cut="0" cType="1" res="-0.000595809" purity="0.445483" nType="-99"/>
              <Node pos="r" depth="4" NCoef="0" IVar="-1" Cut="0" cType="1" res="0.00207958" purity="0.628727" nType="-99"/>
            </Node>
            <Node pos="r" depth="3" NCoef="0" IVar="0" Cut="148696" cType="1" res="0.0489979" purity="0.538305" nType="0">
              <Node pos="l" depth="4" NCoef="0" IVar="-1" Cut="0" cType="1" res="0.00310835" purity="0.542474" nType="-99"/>
              <Node pos="r" depth="4" NCoef="0" IVar="-1" Cut="0" cType="1" res="7.48548e-05" purity="0.528659" nType="-99"/>
            </Node>
          </Node>
          <Node pos="r" depth="2" NCoef="0" IVar="-1" Cut="0" cType="1" res="0.00278644" purity="0.734994" nType="-99"/>
        </Node>
        <Node pos="r" depth="1" NCoef="0" IVar="1" Cut="151401" cType="1" res="-0.00289045" purity="0.467656" nType="0">
          <Node pos="l" depth="2" NCoef="0" IVar="2" Cut="-6642.75" cType="1" res="-0.0126243" purity="0.454034" nType="0">
            <Node pos="l" depth="3" NCoef="0" IVar="2" Cut="-13129.8" cType="1" res="0.0226863" purity="0.431774" nType="0">
              <Node pos="l" depth="4" NCoef="0" IVar="-1" Cut="0" cType="1" res="-0.00126389" purity="0.382732" nType="-99"/>
              <Node pos="r" depth="4" NCoef="0" IVar="-1" Cut="0" cType="1" res="0.00334571" purity="0.482292" nType="-99"/>
            </Node>
            <Node pos="r" depth="3" NCoef="0" IVar="4" Cut="364373" cType="1" res="-0.0249016" purity="0.461774" nType="0">
              <Node pos="l" depth="4" NCoef="0" IVar="-1" Cut="0" cType="1" res="-0.000448663" purity="0.484509" nType="-99"/>
              <Node pos="r" depth="4" NCoef="0" IVar="-1" Cut="0" cType="1" res="-0.00650386" purity="0.353925" nType="-99"/>
            </Node>
          </Node>
          <Node pos="r" depth="2" NCoef="0" IVar="3" Cut="149590" cType="1" res="0.024712" purity="0.506283" nType="0">
            <Node pos="l" depth="3" NCoef="0" IVar="-1" Cut="0" cType="1" res="0.00329319" purity="0.58138" nType="-99"/>
            <Node pos="r" depth="3" NCoef="0" IVar="6" Cut="1.99192" cType="1" res="-0.00407725" purity="0.468679" nType="0">
              <Node pos="l" depth="4" NCoef="0" IVar="-1" Cut="0" cType="1" res="-0.00236743" purity="0.453713" nType="-99"/>
              <Node pos="r" depth="4" NCoef="0" IVar="-1" Cut="0" cType="1" res="0.00269955" purity="0.489311" nType="-99"/>
            </Node>
          </Node>
        </Node>
      </Node>
    </BinaryTree>
    <BinaryTree type="DecisionTree" boostWeight="1.0" itree="208">
      <Node pos="s" depth="0" NCoef="0" IVar="6" Cut="2.29872" cType="1" res="0.0117983" purity="0.506196" nType="0">
        <Node pos="l" depth="1" NCoef="0" IVar="3" Cut="211096" cType="1" res="0.0230681" purity="0.537635" nType="0">
          <Node pos="l" depth="2" NCoef="0" IVar="2" Cut="-2562.43" cType="1" res="0.0281629" purity="0.544974" nType="0">
            <Node pos="l" depth="3" NCoef="0" IVar="6" Cut="1.64831" cType="1" res="0.0711405" purity="0.490653" nType="0">
              <Node pos="l" depth="4" NCoef="0" IVar="-1" Cut="0" cType="1" res="0.00484216" purity="0.511496" nType="-99"/>
              <Node pos="r" depth="4" NCoef="0" IVar="-1" Cut="0" cType="1" res="0.00200159" purity="0.471048" nType="-99"/>
            </Node>
            <Node pos="r" depth="3" NCoef="0" IVar="2" Cut="2405.37" cType="1" res="0.0214266" purity="0.553489" nType="0">
              <Node pos="l" depth="4" NCoef="0" IVar="-1" Cut="0" cType="1" res="-0.00298691" purity="0.380184" nType="-99"/>
              <Node pos="r" depth="4" NCoef="0" IVar="-1" Cut="0" cType="1" res="0.00141994" purity="0.579335" nType="-99"/>
            </Node>
          </Node>
          <Node pos="r" depth="2" NCoef="0" IVar="-1" Cut="0" cType="1" res="-0.00171865" purity="0.454309" nType="-99"/>
        </Node>
        <Node pos="r" depth="1" NCoef="0" IVar="1" Cut="105366" cType="1" res="-0.0129776" purity="0.437077" nType="0">
          <Node pos="l" depth="2" NCoef="0" IVar="6" Cut="2.64825" cType="1" res="-0.0358138" purity="0.396361" nType="0">
            <Node pos="l" depth="3" NCoef="0" IVar="-1" Cut="0" cType="1" res="-0.00529674" purity="0.372735" nType="-99"/>
            <Node pos="r" depth="3" NCoef="0" IVar="6" Cut="2.87705" cType="1" res="-0.00606878" purity="0.411123" nType="0">
              <Node pos="l" depth="4" NCoef="0" IVar="-1" Cut="0" cType="1" res="0.00120848" purity="0.446262" nType="-99"/>
              <Node pos="r" depth="4" NCoef="0" IVar="-1" Cut="0" cType="1" res="-0.00206967" purity="0.37732" nType="-99"/>
            </Node>
          </Node>
          <Node pos="r" depth="2" NCoef="0" IVar="2" Cut="-2621.66" cType="1" res="0.00481039" purity="0.468792" nType="0">
            <Node pos="l" depth="3" NCoef="0" IVar="5" Cut="1.67389" cType="1" res="-0.0148358" purity="0.418586" nType="0">
              <Node pos="l" depth="4" NCoef="0" IVar="-1" Cut="0" cType="1" res="-0.00414131" purity="0.378048" nType="-99"/>
              <Node pos="r" depth="4" NCoef="0" IVar="-1" Cut="0" cType="1" res="0.00137349" purity="0.44811" nType="-99"/>
            </Node>
            <Node pos="r" depth="3" NCoef="0" IVar="-1" Cut="0" cType="1" res="0.00187899" purity="0.5675" nType="-99"/>
          </Node>
        </Node>
      </Node>
    </BinaryTree>
    <BinaryTree type="DecisionTree" boostWeight="1.0" itree="209">
      <Node pos="s" depth="0" NCoef="0" IVar="1" Cut="161646" cType="1" res="0.00965708" purity="0.503177" nType="0">
        <Node pos="l" depth="1" NCoef="0" IVar="2" Cut="27684.8" cType="1" res="0.0151275" purity="0.510079" nType="0">
          <Node pos="l" depth="2" NCoef="0" IVar="2" Cut="19438.6" cType="1" res="0.0117075" purity="0.49428" nType="0">
            <Node pos="l" depth="3" NCoef="0" IVar="2" Cut="15092" cType="1" res="0.0153928" purity="0.490003" nType="0">
              <Node pos="l" depth="4" NCoef="0" IVar="-1" Cut="0" cType="1" res="0.000535553" purity="0.475392" nType="-99"/>
              <Node pos="r" depth="4" NCoef="0" IVar="-1" Cut="0" cType="1" res="0.00267225" purity="0.653902" nType="-99"/>
            </Node>
            <Node pos="r" depth="3" NCoef="0" IVar="-1" Cut="0" cType="1" res="-0.00218179" purity="0.562844" nType="-99"/>
          </Node>
          <Node pos="r" depth="2" NCoef="0" IVar="-1" Cut="0" cType="1" res="0.00259746" purity="0.72851" nType="-99"/>
        </Node>
        <Node pos="r" depth="1" NCoef="0" IVar="4" Cut="311392" cType="1" res="-0.030523" purity="0.452483" nType="0">
          <Node pos="l" depth="2" NCoef="0" IVar="-1" Cut="0" cType="1" res="-0.00411658" purity="0.442419" nType="-99"/>
          <Node pos="r" depth="2" NCoef="0" IVar="-1" Cut="0" cType="1" res="0.000274855" purity="0.460781" nType="-99"/>
        </Node>
      </Node>
    </BinaryTree>
    <BinaryTree type="DecisionTree" boostWeight="1.0" itree="210">
      <Node pos="s" depth="0" NCoef="0" IVar="1" Cut="136086" cType="1" res="0.000368973" purity="0.494042" nType="0">
        <Node pos="l" depth="1" NCoef="0" IVar="1" Cut="129337" cType="1" res="0.00615279" purity="0.496608" nType="0">
          <Node pos="l" depth="2" NCoef="0" IVar="6" Cut="2.6052" cType="1" res="0.00249271" purity="0.488964" nType="0">
            <Node pos="l" depth="3" NCoef="0" IVar="3" Cut="212393" cType="1" res="-0.00460991" purity="0.499658" nType="0">
              <Node pos="l" depth="4" NCoef="0" IVar="-1" Cut="0" cType="1" res="-0.00054081" purity="0.496008" nType="-99"/>
              <Node pos="r" depth="4" NCoef="0" IVar="-1" Cut="0" cType="1" res="0.00261677" purity="0.535306" nType="-99"/>
            </Node>
            <Node pos="r" depth="3" NCoef="0" IVar="1" Cut="110148" cType="1" res="0.0257051" purity="0.454011" nType="0">
              <Node pos="l" depth="4" NCoef="0" IVar="-1" Cut="0" cType="1" res="0.00225853" purity="0.465548" nType="-99"/>
              <Node pos="r" depth="4" NCoef="0" IVar="-1" Cut="0" cType="1" res="-0.00152632" purity="0.420345" nType="-99"/>
            </Node>
          </Node>
          <Node pos="r" depth="2" NCoef="0" IVar="-1" Cut="0" cType="1" res="0.00235613" purity="0.597037" nType="-99"/>
        </Node>
        <Node pos="r" depth="1" NCoef="0" IVar="0" Cut="148795" cType="1" res="-0.0189497" purity="0.485472" nType="0">
          <Node pos="l" depth="2" NCoef="0" IVar="4" Cut="274340" cType="1" res="0.011586" purity="0.49451" nType="0">
            <Node pos="l" depth="3" NCoef="0" IVar="-1" Cut="0" cType="1" res="-0.00109411" purity="0.512085" nType="-99"/>
            <Node pos="r" depth="3" NCoef="0" IVar="-1" Cut="0" cType="1" res="0.00213531" purity="0.478972" nType="-99"/>
          </Node>
          <Node pos="r" depth="2" NCoef="0" IVar="1" Cut="184077" cType="1" res="-0.0678799" purity="0.47099" nType="0">
            <Node pos="l" depth="3" NCoef="0" IVar="-1" Cut="0" cType="1" res="-0.0063159" purity="0.451973" nType="-99"/>
            <Node pos="r" depth="3" NCoef="0" IVar="-1" Cut="0" cType="1" res="-0.00065994" purity="0.493345" nType="-99"/>
          </Node>
        </Node>
      </Node>
    </BinaryTree>
    <BinaryTree type="DecisionTree" boostWeight="1.0" itree="211">
      <Node pos="s" depth="0" NCoef="0" IVar="4" Cut="168359" cType="1" res="-0.00356373" purity="0.490744" nType="0">
        <Node pos="l" depth="1" NCoef="0" IVar="2" Cut="4086.14" cType="1" res="0.0248388" purity="0.572035" nType="0">
          <Node pos="l" depth="2" NCoef="0" IVar="-1" Cut="0" cType="1" res="-0.000692665" purity="0.430695" nType="-99"/>
          <Node pos="r" depth="2" NCoef="0" IVar="0" Cut="139006" cType="1" res="0.0429671" purity="0.639988" nType="0">
            <Node pos="l" depth="3" NCoef="0" IVar="-1" Cut="0" cType="1" res="0.000792961" purity="0.595176" nType="-99"/>
            <Node pos="r" depth="3" NCoef="0" IVar="-1" Cut="0" cType="1" res="0.0029626" purity="0.693422" nType="-99"/>
          </Node>
        </Node>
        <Node pos="r" depth="1" NCoef="0" IVar="6" Cut="2.98832" cType="1" res="-0.00966307" purity="0.473287" nType="0">
          <Node pos="l" depth="2" NCoef="0" IVar="2" Cut="758.1" cType="1" res="-0.00571079" purity="0.481552" nType="0">
            <Node pos="l" depth="3" NCoef="0" IVar="2" Cut="-7193.64" cType="1" res="0.0130159" purity="0.441864" nType="0">
              <Node pos="l" depth="4" NCoef="0" IVar="-1" Cut="0" cType="1" res="-0.0012384" purity="0.397702" nType="-99"/>
              <Node pos="r" depth="4" NCoef="0" IVar="-1" Cut="0" cType="1" res="0.00185249" purity="0.473294" nType="-99"/>
            </Node>
            <Node pos="r" depth="3" NCoef="0" IVar="5" Cut="1.55014" cType="1" res="-0.0184185" purity="0.508485" nType="0">
              <Node pos="l" depth="4" NCoef="0" IVar="-1" Cut="0" cType="1" res="1.19038e-05" purity="0.540785" nType="-99"/>
              <Node pos="r" depth="4" NCoef="0" IVar="-1" Cut="0" cType="1" res="-0.0023093" purity="0.463847" nType="-99"/>
            </Node>
          </Node>
          <Node pos="r" depth="2" NCoef="0" IVar="-1" Cut="0" cType="1" res="-0.00527174" purity="0.332993" nType="-99"/>
        </Node>
      </Node>
    </BinaryTree>
    <BinaryTree type="DecisionTree" boostWeight="1.0" itree="212">
      <Node pos="s" depth="0" NCoef="0" IVar="1" Cut="125853" cType="1" res="0.00128515" purity="0.495048" nType="0">
        <Node pos="l" depth="1" NCoef="0" IVar="6" Cut="0.460023" cType="1" res="-0.00958776" purity="0.475055" nType="0">
          <Node pos="l" depth="2" NCoef="0" IVar="-1" Cut="0" cType="1" res="-0.0030006" purity="0.40514" nType="-99"/>
          <Node pos="r" depth="2" NCoef="0" IVar="6" Cut="1.17981" cType="1" res="-0.00533342" purity="0.482136" nType="0">
            <Node pos="l" depth="3" NCoef="0" IVar="1" Cut="104854" cType="1" res="0.0339432" purity="0.527575" nType="0">
              <Node pos="l" depth="4" NCoef="0" IVar="-1" Cut="0" cType="1" res="8.47596e-05" purity="0.465736" nType="-99"/>
              <Node pos="r" depth="4" NCoef="0" IVar="-1" Cut="0" cType="1" res="0.00291712" purity="0.593844" nType="-99"/>
            </Node>
            <Node pos="r" depth="3" NCoef="0" IVar="0" Cut="139001" cType="1" res="-0.015078" purity="0.470863" nType="0">
              <Node pos="l" depth="4" NCoef="0" IVar="-1" Cut="0" cType="1" res="9.79189e-05" purity="0.459378" nType="-99"/>
              <Node pos="r" depth="4" NCoef="0" IVar="-1" Cut="0" cType="1" res="-0.0018468" purity="0.485238" nType="-99"/>
            </Node>
          </Node>
        </Node>
        <Node pos="r" depth="1" NCoef="0" IVar="2" Cut="-9639.79" cType="1" res="0.0233861" purity="0.535687" nType="0">
          <Node pos="l" depth="2" NCoef="0" IVar="-1" Cut="0" cType="1" res="0.00336477" purity="0.502688" nType="-99"/>
          <Node pos="r" depth="2" NCoef="0" IVar="5" Cut="2.70853" cType="1" res="0.0139855" purity="0.542167" nType="0">
            <Node pos="l" depth="3" NCoef="0" IVar="2" Cut="8755.92" cType="1" res="0.00193436" purity="0.548813" nType="0">
              <Node pos="l" depth="4" NCoef="0" IVar="-1" Cut="0" cType="1" res="-0.00115584" purity="0.465055" nType="-99"/>
              <Node pos="r" depth="4" NCoef="0" IVar="-1" Cut="0" cType="1" res="0.00109739" purity="0.626185" nType="-99"/>
            </Node>
            <Node pos="r" depth="3" NCoef="0" IVar="-1" Cut="0" cType="1" res="0.00286659" purity="0.516362" nType="-99"/>
          </Node>
        </Node>
      </Node>
    </BinaryTree>
    <BinaryTree type="DecisionTree" boostWeight="1.0" itree="213">
      <Node pos="s" depth="0" NCoef="0" IVar="3" Cut="129944" cType="1" res="0.00855025" purity="0.502165" nType="0">
        <Node pos="l" depth="1" NCoef="0" IVar="4" Cut="246582" cType="1" res="-0.0277986" purity="0.465786" nType="0">
          <Node pos="l" depth="2" NCoef="0" IVar="-1" Cut="0" cType="1" res="-0.00389191" purity="0.441443" nType="-99"/>
          <Node pos="r" depth="2" NCoef="0" IVar="-1" Cut="0" cType="1" res="0.00103176" purity="0.495081" nType="-99"/>
        </Node>
        <Node pos="r" depth="1" NCoef="0" IVar="5" Cut="0.862037" cType="1" res="0.0134948" purity="0.507113" nType="0">
          <Node pos="l" depth="2" NCoef="0" IVar="0" Cut="197590" cType="1" res="-0.0192468" purity="0.511722" nType="0">
            <Node pos="l" depth="3" NCoef="0" IVar="5" Cut="0.719277" cType="1" res="-0.0577118" purity="0.451514" nType="0">
              <Node pos="l" depth="4" NCoef="0" IVar="-1" Cut="0" cType="1" res="-0.000384258" purity="0.521768" nType="-99"/>
              <Node pos="r" depth="4" NCoef="0" IVar="-1" Cut="0" cType="1" res="-0.00659215" purity="0.381746" nType="-99"/>
            </Node>
            <Node pos="r" depth="3" NCoef="0" IVar="-1" Cut="0" cType="1" res="0.00211247" purity="0.615517" nType="-99"/>
          </Node>
          <Node pos="r" depth="2" NCoef="0" IVar="4" Cut="392462" cType="1" res="0.0193636" purity="0.506287" nType="0">
            <Node pos="l" depth="3" NCoef="0" IVar="3" Cut="150446" cType="1" res="0.015389" purity="0.508704" nType="0">
              <Node pos="l" depth="4" NCoef="0" IVar="-1" Cut="0" cType="1" res="-0.000717749" purity="0.482567" nType="-99"/>
              <Node pos="r" depth="4" NCoef="0" IVar="-1" Cut="0" cType="1" res="0.00101131" purity="0.513615" nType="-99"/>
            </Node>
            <Node pos="r" depth="3" NCoef="0" IVar="-1" Cut="0" cType="1" res="0.00296138" purity="0.480885" nType="-99"/>
          </Node>
        </Node>
      </Node>
    </BinaryTree>
    <BinaryTree type="DecisionTree" boostWeight="1.0" itree="214">
      <Node pos="s" depth="0" NCoef="0" IVar="0" Cut="134153" cType="1" res="0.00747623" purity="0.50112" nType="0">
        <Node pos="l" depth="1" NCoef="0" IVar="4" Cut="363289" cType="1" res="-0.00847997" purity="0.454639" nType="0">
          <Node pos="l" depth="2" NCoef="0" IVar="6" Cut="0.843116" cType="1" res="-0.00165025" purity="0.470779" nType="0">
            <Node pos="l" depth="3" NCoef="0" IVar="-1" Cut="0" cType="1" res="0.00173888" purity="0.51751" nType="-99"/>
            <Node pos="r" depth="3" NCoef="0" IVar="4" Cut="202985" cType="1" res="-0.0136673" purity="0.456242" nType="0">
              <Node pos="l" depth="4" NCoef="0" IVar="-1" Cut="0" cType="1" res="-0.00183647" purity="0.470274" nType="-99"/>
              <Node pos="r" depth="4" NCoef="0" IVar="-1" Cut="0" cType="1" res="8.24476e-05" purity="0.446482" nType="-99"/>
            </Node>
          </Node>
          <Node pos="r" depth="2" NCoef="0" IVar="-1" Cut="0" cType="1" res="-0.00604418" purity="0.28905" nType="-99"/>
        </Node>
        <Node pos="r" depth="1" NCoef="0" IVar="4" Cut="158894" cType="1" res="0.0230231" purity="0.546409" nType="0">
          <Node pos="l" depth="2" NCoef="0" IVar="-1" Cut="0" cType="1" res="-0.00204368" purity="0.528214" nType="-99"/>
          <Node pos="r" depth="2" NCoef="0" IVar="4" Cut="233766" cType="1" res="0.0301866" purity="0.548467" nType="0">
            <Node pos="l" depth="3" NCoef="0" IVar="1" Cut="119409" cType="1" res="0.0511022" purity="0.594559" nType="0">
              <Node pos="l" depth="4" NCoef="0" IVar="-1" Cut="0" cType="1" res="0.00131339" purity="0.545775" nType="-99"/>
              <Node pos="r" depth="4" NCoef="0" IVar="-1" Cut="0" cType="1" res="0.00382858" purity="0.701116" nType="-99"/>
            </Node>
            <Node pos="r" depth="3" NCoef="0" IVar="4" Cut="285704" cType="1" res="0.0131829" purity="0.510996" nType="0">
              <Node pos="l" depth="4" NCoef="0" IVar="-1" Cut="0" cType="1" res="-0.00268746" purity="0.471618" nType="-99"/>
              <Node pos="r" depth="4" NCoef="0" IVar="-1" Cut="0" cType="1" res="0.00176066" purity="0.527172" nType="-99"/>
            </Node>
          </Node>
        </Node>
      </Node>
    </BinaryTree>
    <BinaryTree type="DecisionTree" boostWeight="1.0" itree="215">
      <Node pos="s" depth="0" NCoef="0" IVar="3" Cut="165520" cType="1" res="0.00241636" purity="0.496169" nType="0">
        <Node pos="l" depth="1" NCoef="0" IVar="2" Cut="-3006.96" cType="1" res="-0.0190364" purity="0.478985" nType="0">
          <Node pos="l" depth="2" NCoef="0" IVar="3" Cut="145323" cType="1" res="-0.0505475" purity="0.379181" nType="0">
            <Node pos="l" depth="3" NCoef="0" IVar="-1" Cut="0" cType="1" res="-0.00134475" purity="0.416312" nType="-99"/>
            <Node pos="r" depth="3" NCoef="0" IVar="-1" Cut="0" cType="1" res="-0.00539915" purity="0.336248" nType="-99"/>
          </Node>
          <Node pos="r" depth="2" NCoef="0" IVar="6" Cut="1.83693" cType="1" res="-0.00735833" purity="0.515973" nType="0">
            <Node pos="l" depth="3" NCoef="0" IVar="2" Cut="9298.87" cType="1" res="-0.02859" purity="0.496001" nType="0">
              <Node pos="l" depth="4" NCoef="0" IVar="-1" Cut="0" cType="1" res="-0.00367653" purity="0.379197" nType="-99"/>
              <Node pos="r" depth="4" NCoef="0" IVar="-1" Cut="0" cType="1" res="-0.000421531" purity="0.561753" nType="-99"/>
            </Node>
            <Node pos="r" depth="3" NCoef="0" IVar="0" Cut="153663" cType="1" res="0.026533" purity="0.547853" nType="0">
              <Node pos="l" depth="4" NCoef="0" IVar="-1" Cut="0" cType="1" res="0.00252677" purity="0.548374" nType="-99"/>
              <Node pos="r" depth="4" NCoef="0" IVar="-1" Cut="0" cType="1" res="-0.000918861" purity="0.54706" nType="-99"/>
            </Node>
          </Node>
        </Node>
        <Node pos="r" depth="1" NCoef="0" IVar="5" Cut="1.1659" cType="1" res="0.0189421" purity="0.509407" nType="0">
          <Node pos="l" depth="2" NCoef="0" IVar="2" Cut="606.011" cType="1" res="0.037896" purity="0.544156" nType="0">
            <Node pos="l" depth="3" NCoef="0" IVar="-1" Cut="0" cType="1" res="0.00403759" purity="0.512065" nType="-99"/>
            <Node pos="r" depth="3" NCoef="0" IVar="1" Cut="98707.6" cType="1" res="0.00953112" purity="0.563119" nType="0">
              <Node pos="l" depth="4" NCoef="0" IVar="-1" Cut="0" cType="1" res="-0.00227524" purity="0.468099" nType="-99"/>
              <Node pos="r" depth="4" NCoef="0" IVar="-1" Cut="0" cType="1" res="0.00164871" purity="0.617245" nType="-99"/>
            </Node>
          </Node>
          <Node pos="r" depth="2" NCoef="0" IVar="3" Cut="178620" cType="1" res="0.00742812" purity="0.488298" nType="0">
            <Node pos="l" depth="3" NCoef="0" IVar="4" Cut="256203" cType="1" res="0.0429688" purity="0.535707" nType="0">
              <Node pos="l" depth="4" NCoef="0" IVar="-1" Cut="0" cType="1" res="0.00273142" purity="0.5764" nType="-99"/>
              <Node pos="r" depth="4" NCoef="0" IVar="-1" Cut="0" cType="1" res="0.000309449" purity="0.463402" nType="-99"/>
            </Node>
            <Node pos="r" depth="3" NCoef="0" IVar="0" Cut="129218" cType="1" res="-0.0146973" purity="0.458784" nType="0">
              <Node pos="l" depth="4" NCoef="0" IVar="-1" Cut="0" cType="1" res="-0.00229556" purity="0.402771" nType="-99"/>
              <Node pos="r" depth="4" NCoef="0" IVar="-1" Cut="0" cType="1" res="0.000612275" purity="0.520666" nType="-99"/>
            </Node>
          </Node>
        </Node>
      </Node>
    </BinaryTree>
    <BinaryTree type="DecisionTree" boostWeight="1.0" itree="216">
      <Node pos="s" depth="0" NCoef="0" IVar="4" Cut="343929" cType="1" res="0.00213578" purity="0.496361" nType="0">
        <Node pos="l" depth="1" NCoef="0" IVar="4" Cut="260627" cType="1" res="0.0116895" purity="0.515925" nType="0">
          <Node pos="l" depth="2" NCoef="0" IVar="4" Cut="233195" cType="1" res="0.0189844" purity="0.534967" nType="0">
            <Node pos="l" depth="3" NCoef="0" IVar="4" Cut="213712" cType="1" res="0.0113596" purity="0.532143" nType="0">
              <Node pos="l" depth="4" NCoef="0" IVar="-1" Cut="0" cType="1" res="0.000921823" purity="0.543782" nType="-99"/>
              <Node pos="r" depth="4" NCoef="0" IVar="-1" Cut="0" cType="1" res="-0.00167548" purity="0.471489" nType="-99"/>
            </Node>
            <Node pos="r" depth="3" NCoef="0" IVar="0" Cut="134015" cType="1" res="0.0548062" purity="0.548236" nType="0">
              <Node pos="l" depth="4" NCoef="0" IVar="-1" Cut="0" cType="1" res="0.00338378" purity="0.544731" nType="-99"/>
              <Node pos="r" depth="4" NCoef="0" IVar="-1" Cut="0" cType="1" res="0.00101848" purity="0.553026" nType="-99"/>
            </Node>
          </Node>
          <Node pos="r" depth="2" NCoef="0" IVar="1" Cut="171386" cType="1" res="-0.0122079" purity="0.453545" nType="0">
            <Node pos="l" depth="3" NCoef="0" IVar="6" Cut="1.53262" cType="1" res="-0.025152" purity="0.437546" nType="0">
              <Node pos="l" depth="4" NCoef="0" IVar="-1" Cut="0" cType="1" res="0.00162709" purity="0.501708" nType="-99"/>
              <Node pos="r" depth="4" NCoef="0" IVar="-1" Cut="0" cType="1" res="-0.00353196" purity="0.399251" nType="-99"/>
            </Node>
            <Node pos="r" depth="3" NCoef="0" IVar="-1" Cut="0" cType="1" res="0.00145017" purity="0.507088" nType="-99"/>
          </Node>
        </Node>
        <Node pos="r" depth="1" NCoef="0" IVar="4" Cut="378197" cType="1" res="-0.0519234" purity="0.385659" nType="0">
          <Node pos="l" depth="2" NCoef="0" IVar="-1" Cut="0" cType="1" res="-0.00793611" purity="0.326244" nType="-99"/>
          <Node pos="r" depth="2" NCoef="0" IVar="5" Cut="1.03018" cType="1" res="-0.0225176" purity="0.411212" nType="0">
            <Node pos="l" depth="3" NCoef="0" IVar="-1" Cut="0" cType="1" res="0.00191428" purity="0.50534" nType="-99"/>
            <Node pos="r" depth="3" NCoef="0" IVar="-1" Cut="0" cType="1" res="-0.00409439" purity="0.351898" nType="-99"/>
          </Node>
        </Node>
      </Node>
    </BinaryTree>
    <BinaryTree type="DecisionTree" boostWeight="1.0" itree="217">
      <Node pos="s" depth="0" NCoef="0" IVar="5" Cut="0.710006" cType="1" res="0.0128899" purity="0.504668" nType="0">
        <Node pos="l" depth="1" NCoef="0" IVar="-1" Cut="0" cType="1" res="-0.00117848" purity="0.52807" nType="-99"/>
        <Node pos="r" depth="1" NCoef="0" IVar="6" Cut="0.766426" cType="1" res="0.0159292" purity="0.502747" nType="0">
          <Node pos="l" depth="2" NCoef="0" IVar="5" Cut="1.48203" cType="1" res="-0.00530412" purity="0.469239" nType="0">
            <Node pos="l" depth="3" NCoef="0" IVar="-1" Cut="0" cType="1" res="-0.00302427" purity="0.399555" nType="-99"/>
            <Node pos="r" depth="3" NCoef="0" IVar="-1" Cut="0" cType="1" res="0.00151733" purity="0.520925" nType="-99"/>
          </Node>
          <Node pos="r" depth="2" NCoef="0" IVar="4" Cut="412287" cType="1" res="0.0203329" purity="0.509696" nType="0">
            <Node pos="l" depth="3" NCoef="0" IVar="6" Cut="2.90982" cType="1" res="0.0238117" purity="0.517638" nType="0">
              <Node pos="l" depth="4" NCoef="0" IVar="-1" Cut="0" cType="1" res="0.00132965" purity="0.530636" nType="-99"/>
              <Node pos="r" depth="4" NCoef="0" IVar="-1" Cut="0" cType="1" res="-0.00108108" purity="0.395968" nType="-99"/>
            </Node>
            <Node pos="r" depth="3" NCoef="0" IVar="-1" Cut="0" cType="1" res="-0.00195188" purity="0.38622" nType="-99"/>
          </Node>
        </Node>
      </Node>
    </BinaryTree>
    <BinaryTree type="DecisionTree" boostWeight="1.0" itree="218">
      <Node pos="s" depth="0" NCoef="0" IVar="0" Cut="104880" cType="1" res="0.00559032" purity="0.499348" nType="0">
        <Node pos="l" depth="1" NCoef="0" IVar="-1" Cut="0" cType="1" res="-0.00221932" purity="0.402267" nType="-99"/>
        <Node pos="r" depth="1" NCoef="0" IVar="0" Cut="123916" cType="1" res="0.00994604" purity="0.509107" nType="0">
          <Node pos="l" depth="2" NCoef="0" IVar="4" Cut="315860" cType="1" res="0.0276948" purity="0.487156" nType="0">
            <Node pos="l" depth="3" NCoef="0" IVar="4" Cut="243027" cType="1" res="0.0396443" purity="0.514991" nType="0">
              <Node pos="l" depth="4" NCoef="0" IVar="-1" Cut="0" cType="1" res="0.000746728" purity="0.50477" nType="-99"/>
              <Node pos="r" depth="4" NCoef="0" IVar="-1" Cut="0" cType="1" res="0.00408873" purity="0.537963" nType="-99"/>
            </Node>
            <Node pos="r" depth="3" NCoef="0" IVar="-1" Cut="0" cType="1" res="-0.00222963" purity="0.345096" nType="-99"/>
          </Node>
          <Node pos="r" depth="2" NCoef="0" IVar="4" Cut="304858" cType="1" res="0.000946357" purity="0.520237" nType="0">
            <Node pos="l" depth="3" NCoef="0" IVar="4" Cut="269879" cType="1" res="-0.010113" purity="0.525603" nType="0">
              <Node pos="l" depth="4" NCoef="0" IVar="-1" Cut="0" cType="1" res="-0.000116652" purity="0.538392" nType="-99"/>
              <Node pos="r" depth="4" NCoef="0" IVar="-1" Cut="0" cType="1" res="-0.00393915" purity="0.426166" nType="-99"/>
            </Node>
            <Node pos="r" depth="3" NCoef="0" IVar="6" Cut="1.07288" cType="1" res="0.0283731" purity="0.506928" nType="0">
              <Node pos="l" depth="4" NCoef="0" IVar="-1" Cut="0" cType="1" res="0.00380061" purity="0.567553" nType="-99"/>
              <Node pos="r" depth="4" NCoef="0" IVar="-1" Cut="0" cType="1" res="0.000173523" purity="0.483153" nType="-99"/>
            </Node>
          </Node>
        </Node>
      </Node>
    </BinaryTree>
    <BinaryTree type="DecisionTree" boostWeight="1.0" itree="219">
      <Node pos="s" depth="0" NCoef="0" IVar="1" Cut="207774" cType="1" res="0.0073053" purity="0.501206" nType="0">
        <Node pos="l" depth="1" NCoef="0" IVar="6" Cut="2.83506" cType="1" res="0.0105799" purity="0.505383" nType="0">
          <Node pos="l" depth="2" NCoef="0" IVar="0" Cut="178052" cType="1" res="0.0157042" purity="0.520446" nType="0">
            <Node pos="l" depth="3" NCoef="0" IVar="6" Cut="0.345772" cType="1" res="0.00899391" purity="0.499188" nType="0">
              <Node pos="l" depth="4" NCoef="0" IVar="-1" Cut="0" cType="1" res="0.00235589" purity="0.521442" nType="-99"/>
              <Node pos="r" depth="4" NCoef="0" IVar="-1" Cut="0" cType="1" res="0.000217646" purity="0.49683" nType="-99"/>
            </Node>
            <Node pos="r" depth="3" NCoef="0" IVar="0" Cut="195907" cType="1" res="0.0431282" purity="0.607326" nType="0">
              <Node pos="l" depth="4" NCoef="0" IVar="-1" Cut="0" cType="1" res="0.00371676" purity="0.637089" nType="-99"/>
              <Node pos="r" depth="4" NCoef="0" IVar="-1" Cut="0" cType="1" res="0.000674722" purity="0.591521" nType="-99"/>
            </Node>
          </Node>
          <Node pos="r" depth="2" NCoef="0" IVar="0" Cut="129276" cType="1" res="-0.0307608" purity="0.383855" nType="0">
            <Node pos="l" depth="3" NCoef="0" IVar="-1" Cut="0" cType="1" res="-0.00537823" purity="0.294387" nType="-99"/>
            <Node pos="r" depth="3" NCoef="0" IVar="-1" Cut="0" cType="1" res="-6.87757e-06" purity="0.449933" nType="-99"/>
          </Node>
        </Node>
        <Node pos="r" depth="1" NCoef="0" IVar="-1" Cut="0" cType="1" res="-0.00397814" purity="0.405063" nType="-99"/>
      </Node>
    </BinaryTree>
    <BinaryTree type="DecisionTree" boostWeight="1.0" itree="220">
      <Node pos="s" depth="0" NCoef="0" IVar="6" Cut="1.45588" cType="1" res="0.00855264" purity="0.502085" nType="0">
        <Node pos="l" depth="1" NCoef="0" IVar="5" Cut="2.30563" cType="1" res="-0.0107176" purity="0.491085" nType="0">
          <Node pos="l" depth="2" NCoef="0" IVar="4" Cut="217105" cType="1" res="-0.0217154" purity="0.482557" nType="0">
            <Node pos="l" depth="3" NCoef="0" IVar="0" Cut="124356" cType="1" res="-0.046139" purity="0.475149" nType="0">
              <Node pos="l" depth="4" NCoef="0" IVar="-1" Cut="0" cType="1" res="-0.000420743" purity="0.496004" nType="-99"/>
              <Node pos="r" depth="4" NCoef="0" IVar="-1" Cut="0" cType="1" res="-0.00455" purity="0.454926" nType="-99"/>
            </Node>
            <Node pos="r" depth="3" NCoef="0" IVar="0" Cut="124365" cType="1" res="0.00248187" purity="0.489898" nType="0">
              <Node pos="l" depth="4" NCoef="0" IVar="-1" Cut="0" cType="1" res="-0.00364072" purity="0.381435" nType="-99"/>
              <Node pos="r" depth="4" NCoef="0" IVar="-1" Cut="0" cType="1" res="0.00182211" purity="0.554368" nType="-99"/>
            </Node>
          </Node>
          <Node pos="r" depth="2" NCoef="0" IVar="-1" Cut="0" cType="1" res="0.00105426" purity="0.516754" nType="-99"/>
        </Node>
        <Node pos="r" depth="1" NCoef="0" IVar="4" Cut="217099" cType="1" res="0.0190641" purity="0.508085" nType="0">
          <Node pos="l" depth="2" NCoef="0" IVar="6" Cut="1.94932" cType="1" res="0.0449413" purity="0.56736" nType="0">
            <Node pos="l" depth="3" NCoef="0" IVar="-1" Cut="0" cType="1" res="0.00342538" purity="0.654573" nType="-99"/>
            <Node pos="r" depth="3" NCoef="0" IVar="0" Cut="139023" cType="1" res="0.0286244" purity="0.529055" nType="0">
              <Node pos="l" depth="4" NCoef="0" IVar="-1" Cut="0" cType="1" res="-2.53721e-05" purity="0.464086" nType="-99"/>
              <Node pos="r" depth="4" NCoef="0" IVar="-1" Cut="0" cType="1" res="0.00243813" purity="0.590469" nType="-99"/>
            </Node>
          </Node>
          <Node pos="r" depth="2" NCoef="0" IVar="3" Cut="199789" cType="1" res="-0.00277412" purity="0.458062" nType="0">
            <Node pos="l" depth="3" NCoef="0" IVar="4" Cut="389597" cType="1" res="-0.0157061" purity="0.447644" nType="0">
              <Node pos="l" depth="4" NCoef="0" IVar="-1" Cut="0" cType="1" res="-0.000334549" purity="0.462991" nType="-99"/>
              <Node pos="r" depth="4" NCoef="0" IVar="-1" Cut="0" cType="1" res="-0.004262" purity="0.363903" nType="-99"/>
            </Node>
            <Node pos="r" depth="3" NCoef="0" IVar="-1" Cut="0" cType="1" res="0.00246616" purity="0.502497" nType="-99"/>
          </Node>
        </Node>
      </Node>
    </BinaryTree>
    <BinaryTree type="DecisionTree" boostWeight="1.0" itree="221">
      <Node pos="s" depth="0" NCoef="0" IVar="4" Cut="402436" cType="1" res="0.00465708" purity="0.497966" nType="0">
        <Node pos="l" depth="1" NCoef="0" IVar="5" Cut="2.53076" cType="1" res="0.00887889" purity="0.507141" nType="0">
          <Node pos="l" depth="2" NCoef="0" IVar="4" Cut="284446" cType="1" res="0.0149054" purity="0.518023" nType="0">
            <Node pos="l" depth="3" NCoef="0" IVar="4" Cut="167534" cType="1" res="0.00536474" purity="0.519046" nType="0">
              <Node pos="l" depth="4" NCoef="0" IVar="-1" Cut="0" cType="1" res="0.00142628" purity="0.57715" nType="-99"/>
              <Node pos="r" depth="4" NCoef="0" IVar="-1" Cut="0" cType="1" res="-0.000161876" purity="0.499843" nType="-99"/>
            </Node>
            <Node pos="r" depth="3" NCoef="0" IVar="1" Cut="100225" cType="1" res="0.0467715" purity="0.514607" nType="0">
              <Node pos="l" depth="4" NCoef="0" IVar="-1" Cut="0" cType="1" res="0.00449512" purity="0.535442" nType="-99"/>
              <Node pos="r" depth="4" NCoef="0" IVar="-1" Cut="0" cType="1" res="0.00128006" purity="0.506596" nType="-99"/>
            </Node>
          </Node>
          <Node pos="r" depth="2" NCoef="0" IVar="4" Cut="270136" cType="1" res="-0.0442203" purity="0.41126" nType="0">
            <Node pos="l" depth="3" NCoef="0" IVar="-1" Cut="0" cType="1" res="-0.00465365" purity="0.405715" nType="-99"/>
            <Node pos="r" depth="3" NCoef="0" IVar="-1" Cut="0" cType="1" res="-0.000562063" purity="0.41653" nType="-99"/>
          </Node>
        </Node>
        <Node pos="r" depth="1" NCoef="0" IVar="-1" Cut="0" cType="1" res="-0.00273595" purity="0.384378" nType="-99"/>
      </Node>
    </BinaryTree>
    <BinaryTree type="DecisionTree" boostWeight="1.0" itree="222">
      <Node pos="s" depth="0" NCoef="0" IVar="3" Cut="200688" cType="1" res="0.00933815" purity="0.501435" nType="0">
        <Node pos="l" depth="1" NCoef="0" IVar="4" Cut="334178" cType="1" res="0.00148051" purity="0.49704" nType="0">
          <Node pos="l" depth="2" NCoef="0" IVar="0" Cut="192647" cType="1" res="-0.00528545" purity="0.503637" nType="0">
            <Node pos="l" depth="3" NCoef="0" IVar="0" Cut="131641" cType="1" res="-0.0104901" purity="0.485541" nType="0">
              <Node pos="l" depth="4" NCoef="0" IVar="-1" Cut="0" cType="1" res="0.000167218" purity="0.481002" nType="-99"/>
              <Node pos="r" depth="4" NCoef="0" IVar="-1" Cut="0" cType="1" res="-0.00156748" purity="0.492129" nType="-99"/>
            </Node>
            <Node pos="r" depth="3" NCoef="0" IVar="1" Cut="105352" cType="1" res="0.0256722" purity="0.611269" nType="0">
              <Node pos="l" depth="4" NCoef="0" IVar="-1" Cut="0" cType="1" res="-0.000641349" purity="0.527782" nType="-99"/>
              <Node pos="r" depth="4" NCoef="0" IVar="-1" Cut="0" cType="1" res="0.00221144" purity="0.673761" nType="-99"/>
            </Node>
          </Node>
          <Node pos="r" depth="2" NCoef="0" IVar="4" Cut="398908" cType="1" res="0.0313812" purity="0.467888" nType="0">
            <Node pos="l" depth="3" NCoef="0" IVar="0" Cut="143824" cType="1" res="0.0614066" purity="0.506092" nType="0">
              <Node pos="l" depth="4" NCoef="0" IVar="-1" Cut="0" cType="1" res="0.00148524" purity="0.41888" nType="-99"/>
              <Node pos="r" depth="4" NCoef="0" IVar="-1" Cut="0" cType="1" res="0.0040008" purity="0.597816" nType="-99"/>
            </Node>
            <Node pos="r" depth="3" NCoef="0" IVar="-1" Cut="0" cType="1" res="-0.000422328" purity="0.418141" nType="-99"/>
          </Node>
        </Node>
        <Node pos="r" depth="1" NCoef="0" IVar="5" Cut="1.86632" cType="1" res="0.0534732" purity="0.526119" nType="0">
          <Node pos="l" depth="2" NCoef="0" IVar="5" Cut="1.12005" cType="1" res="0.021986" purity="0.503323" nType="0">
            <Node pos="l" depth="3" NCoef="0" IVar="-1" Cut="0" cType="1" res="0.00270672" purity="0.552639" nType="-99"/>
            <Node pos="r" depth="3" NCoef="0" IVar="-1" Cut="0" cType="1" res="-0.00078081" purity="0.456527" nType="-99"/>
          </Node>
          <Node pos="r" depth="2" NCoef="0" IVar="-1" Cut="0" cType="1" res="0.00486644" purity="0.567658" nType="-99"/>
        </Node>
      </Node>
    </BinaryTree>
    <BinaryTree type="DecisionTree" boostWeight="1.0" itree="223">
      <Node pos="s" depth="0" NCoef="0" IVar="3" Cut="183234" cType="1" res="0.000719322" purity="0.494854" nType="0">
        <Node pos="l" depth="1" NCoef="0" IVar="6" Cut="0.383167" cType="1" res="0.00881248" purity="0.508453" nType="0">
          <Node pos="l" depth="2" NCoef="0" IVar="-1" Cut="0" cType="1" res="0.00297776" purity="0.548943" nType="-99"/>
          <Node pos="r" depth="2" NCoef="0" IVar="5" Cut="1.61474" cType="1" res="0.0024437" purity="0.504036" nType="0">
            <Node pos="l" depth="3" NCoef="0" IVar="1" Cut="134951" cType="1" res="0.0158657" purity="0.530309" nType="0">
              <Node pos="l" depth="4" NCoef="0" IVar="-1" Cut="0" cType="1" res="0.000449163" purity="0.51368" nType="-99"/>
              <Node pos="r" depth="4" NCoef="0" IVar="-1" Cut="0" cType="1" res="0.00265874" purity="0.656723" nType="-99"/>
            </Node>
            <Node pos="r" depth="3" NCoef="0" IVar="5" Cut="2.65748" cType="1" res="-0.0208175" purity="0.458502" nType="0">
              <Node pos="l" depth="4" NCoef="0" IVar="-1" Cut="0" cType="1" res="-0.00185827" purity="0.452737" nType="-99"/>
              <Node pos="r" depth="4" NCoef="0" IVar="-1" Cut="0" cType="1" res="0.00143841" purity="0.479856" nType="-99"/>
            </Node>
          </Node>
        </Node>
        <Node pos="r" depth="1" NCoef="0" IVar="2" Cut="-2730.29" cType="1" res="-0.0198106" purity="0.460356" nType="0">
          <Node pos="l" depth="2" NCoef="0" IVar="4" Cut="275601" cType="1" res="0.0233532" purity="0.441374" nType="0">
            <Node pos="l" depth="3" NCoef="0" IVar="-1" Cut="0" cType="1" res="-0.000562331" purity="0.426591" nType="-99"/>
            <Node pos="r" depth="3" NCoef="0" IVar="-1" Cut="0" cType="1" res="0.0030695" purity="0.457323" nType="-99"/>
          </Node>
          <Node pos="r" depth="2" NCoef="0" IVar="5" Cut="1.1658" cType="1" res="-0.0389129" purity="0.468757" nType="0">
            <Node pos="l" depth="3" NCoef="0" IVar="-1" Cut="0" cType="1" res="-0.00436452" purity="0.439636" nType="-99"/>
            <Node pos="r" depth="3" NCoef="0" IVar="6" Cut="1.60981" cType="1" res="-0.0172001" purity="0.484373" nType="0">
              <Node pos="l" depth="4" NCoef="0" IVar="-1" Cut="0" cType="1" res="-0.00405642" purity="0.429971" nType="-99"/>
              <Node pos="r" depth="4" NCoef="0" IVar="-1" Cut="0" cType="1" res="0.00202537" purity="0.546549" nType="-99"/>
            </Node>
          </Node>
        </Node>
      </Node>
    </BinaryTree>
    <BinaryTree type="DecisionTree" boostWeight="1.0" itree="224">
      <Node pos="s" depth="0" NCoef="0" IVar="1" Cut="100244" cType="1" res="0.00557162" purity="0.498752" nType="0">
        <Node pos="l" depth="1" NCoef="0" IVar="2" Cut="-3801.59" cType="1" res="0.0299011" purity="0.487387" nType="0">
          <Node pos="l" depth="2" NCoef="0" IVar="2" Cut="-9099.5" cType="1" res="0.0754665" purity="0.482294" nType="0">
            <Node pos="l" depth="3" NCoef="0" IVar="-1" Cut="0" cType="1" res="0.000463637" purity="0.410722" nType="-99"/>
            <Node pos="r" depth="3" NCoef="0" IVar="-1" Cut="0" cType="1" res="0.00613456" purity="0.547864" nType="-99"/>
          </Node>
          <Node pos="r" depth="2" NCoef="0" IVar="3" Cut="183053" cType="1" res="0.0122999" purity="0.489354" nType="0">
            <Node pos="l" depth="3" NCoef="0" IVar="0" Cut="124408" cType="1" res="0.0337653" purity="0.515" nType="0">
              <Node pos="l" depth="4" NCoef="0" IVar="-1" Cut="0" cType="1" res="0.00344071" purity="0.537678" nType="-99"/>
              <Node pos="r" depth="4" NCoef="0" IVar="-1" Cut="0" cType="1" res="0.000299867" purity="0.500741" nType="-99"/>
            </Node>
            <Node pos="r" depth="3" NCoef="0" IVar="-1" Cut="0" cType="1" res="-0.00292443" purity="0.416487" nType="-99"/>
          </Node>
        </Node>
        <Node pos="r" depth="1" NCoef="0" IVar="6" Cut="0.689644" cType="1" res="-0.00486238" purity="0.503626" nType="0">
          <Node pos="l" depth="2" NCoef="0" IVar="0" Cut="124263" cType="1" res="-0.0585767" purity="0.437475" nType="0">
            <Node pos="l" depth="3" NCoef="0" IVar="-1" Cut="0" cType="1" res="-0.00865228" purity="0.342699" nType="-99"/>
            <Node pos="r" depth="3" NCoef="0" IVar="-1" Cut="0" cType="1" res="-0.000416569" purity="0.506377" nType="-99"/>
          </Node>
          <Node pos="r" depth="2" NCoef="0" IVar="3" Cut="183230" cType="1" res="0.00504496" purity="0.515827" nType="0">
            <Node pos="l" depth="3" NCoef="0" IVar="2" Cut="13581.8" cType="1" res="-0.0103321" purity="0.505884" nType="0">
              <Node pos="l" depth="4" NCoef="0" IVar="-1" Cut="0" cType="1" res="-0.00130877" purity="0.448022" nType="-99"/>
              <Node pos="r" depth="4" NCoef="0" IVar="-1" Cut="0" cType="1" res="0.00145171" purity="0.684925" nType="-99"/>
            </Node>
            <Node pos="r" depth="3" NCoef="0" IVar="1" Cut="109857" cType="1" res="0.0374013" purity="0.53675" nType="0">
              <Node pos="l" depth="4" NCoef="0" IVar="-1" Cut="0" cType="1" res="0.0035448" purity="0.569493" nType="-99"/>
              <Node pos="r" depth="4" NCoef="0" IVar="-1" Cut="0" cType="1" res="0.000855456" purity="0.52324" nType="-99"/>
            </Node>
          </Node>
        </Node>
      </Node>
    </BinaryTree>
    <BinaryTree type="DecisionTree" boostWeight="1.0" itree="225">
      <Node pos="s" depth="0" NCoef="0" IVar="0" Cut="236580" cType="1" res="0.00694168" purity="0.501222" nType="0">
        <Node pos="l" depth="1" NCoef="0" IVar="1" Cut="156583" cType="1" res="0.00351783" purity="0.491935" nType="0">
          <Node pos="l" depth="2" NCoef="0" IVar="5" Cut="1.92737" cType="1" res="0.00736242" purity="0.497481" nType="0">
            <Node pos="l" depth="3" NCoef="0" IVar="5" Cut="1.46494" cType="1" res="0.000853754" purity="0.493649" nType="0">
              <Node pos="l" depth="4" NCoef="0" IVar="-1" Cut="0" cType="1" res="0.000426748" purity="0.505163" nType="-99"/>
              <Node pos="r" depth="4" NCoef="0" IVar="-1" Cut="0" cType="1" res="-0.00120453" purity="0.458843" nType="-99"/>
            </Node>
            <Node pos="r" depth="3" NCoef="0" IVar="3" Cut="178373" cType="1" res="0.0319465" purity="0.511954" nType="0">
              <Node pos="l" depth="4" NCoef="0" IVar="-1" Cut="0" cType="1" res="0.000324887" purity="0.489532" nType="-99"/>
              <Node pos="r" depth="4" NCoef="0" IVar="-1" Cut="0" cType="1" res="0.00329572" purity="0.54824" nType="-99"/>
            </Node>
          </Node>
          <Node pos="r" depth="2" NCoef="0" IVar="6" Cut="1.53242" cType="1" res="-0.0215483" purity="0.455777" nType="0">
            <Node pos="l" depth="3" NCoef="0" IVar="-1" Cut="0" cType="1" res="-0.00344029" purity="0.431162" nType="-99"/>
            <Node pos="r" depth="3" NCoef="0" IVar="-1" Cut="0" cType="1" res="0.000826518" purity="0.477394" nType="-99"/>
          </Node>
        </Node>
        <Node pos="r" depth="1" NCoef="0" IVar="-1" Cut="0" cType="1" res="0.00228649" purity="0.637595" nType="-99"/>
      </Node>
    </BinaryTree>
    <BinaryTree type="DecisionTree" boostWeight="1.0" itree="226">
      <Node pos="s" depth="0" NCoef="0" IVar="3" Cut="142133" cType="1" res="0.016754" purity="0.510223" nType="0">
        <Node pos="l" depth="1" NCoef="0" IVar="1" Cut="120676" cType="1" res="0.0440944" purity="0.545229" nType="0">
          <Node pos="l" depth="2" NCoef="0" IVar="0" Cut="124378" cType="1" res="0.0618947" purity="0.548554" nType="0">
            <Node pos="l" depth="3" NCoef="0" IVar="-1" Cut="0" cType="1" res="0.00459978" purity="0.562745" nType="-99"/>
            <Node pos="r" depth="3" NCoef="0" IVar="-1" Cut="0" cType="1" res="0.00135084" purity="0.537337" nType="-99"/>
          </Node>
          <Node pos="r" depth="2" NCoef="0" IVar="-1" Cut="0" cType="1" res="0.000729462" purity="0.540055" nType="-99"/>
        </Node>
        <Node pos="r" depth="1" NCoef="0" IVar="2" Cut="7172.17" cType="1" res="0.0091732" purity="0.500517" nType="0">
          <Node pos="l" depth="2" NCoef="0" IVar="1" Cut="130983" cType="1" res="0.0225666" purity="0.462566" nType="0">
            <Node pos="l" depth="3" NCoef="0" IVar="5" Cut="0.836829" cType="1" res="0.00848276" purity="0.444487" nType="0">
              <Node pos="l" depth="4" NCoef="0" IVar="-1" Cut="0" cType="1" res="-0.00287013" purity="0.396329" nType="-99"/>
              <Node pos="r" depth="4" NCoef="0" IVar="-1" Cut="0" cType="1" res="0.000873661" purity="0.451326" nType="-99"/>
            </Node>
            <Node pos="r" depth="3" NCoef="0" IVar="5" Cut="2.12688" cType="1" res="0.0638083" purity="0.515506" nType="0">
              <Node pos="l" depth="4" NCoef="0" IVar="-1" Cut="0" cType="1" res="0.00401746" purity="0.5806" nType="-99"/>
              <Node pos="r" depth="4" NCoef="0" IVar="-1" Cut="0" cType="1" res="0.00132373" purity="0.443935" nType="-99"/>
            </Node>
          </Node>
          <Node pos="r" depth="2" NCoef="0" IVar="4" Cut="197495" cType="1" res="-0.012302" purity="0.561369" nType="0">
            <Node pos="l" depth="3" NCoef="0" IVar="1" Cut="107001" cType="1" res="0.0209899" purity="0.626091" nType="0">
              <Node pos="l" depth="4" NCoef="0" IVar="-1" Cut="0" cType="1" res="0.000120383" purity="0.575181" nType="-99"/>
              <Node pos="r" depth="4" NCoef="0" IVar="-1" Cut="0" cType="1" res="0.00155611" purity="0.673786" nType="-99"/>
            </Node>
            <Node pos="r" depth="3" NCoef="0" IVar="5" Cut="2.01372" cType="1" res="-0.0392767" purity="0.508928" nType="0">
              <Node pos="l" depth="4" NCoef="0" IVar="-1" Cut="0" cType="1" res="-0.000859144" purity="0.542518" nType="-99"/>
              <Node pos="r" depth="4" NCoef="0" IVar="-1" Cut="0" cType="1" res="-0.00581739" purity="0.413626" nType="-99"/>
            </Node>
          </Node>
        </Node>
      </Node>
    </BinaryTree>
    <BinaryTree type="DecisionTree" boostWeight="1.0" itree="227">
      <Node pos="s" depth="0" NCoef="0" IVar="5" Cut="2.83591" cType="1" res="0.00725754" purity="0.499424" nType="0">
        <Node pos="l" depth="1" NCoef="0" IVar="0" Cut="104880" cType="1" res="0.0023426" purity="0.497444" nType="0">
          <Node pos="l" depth="2" NCoef="0" IVar="-1" Cut="0" cType="1" res="0.00241022" purity="0.48927" nType="-99"/>
          <Node pos="r" depth="2" NCoef="0" IVar="5" Cut="1.38924" cType="1" res="-0.00301741" purity="0.498371" nType="0">
            <Node pos="l" depth="3" NCoef="0" IVar="4" Cut="197578" cType="1" res="0.00682633" purity="0.516368" nType="0">
              <Node pos="l" depth="4" NCoef="0" IVar="-1" Cut="0" cType="1" res="-0.000873422" purity="0.526284" nType="-99"/>
              <Node pos="r" depth="4" NCoef="0" IVar="-1" Cut="0" cType="1" res="0.00113739" purity="0.509552" nType="-99"/>
            </Node>
            <Node pos="r" depth="3" NCoef="0" IVar="5" Cut="1.67164" cType="1" res="-0.0150158" purity="0.476435" nType="0">
              <Node pos="l" depth="4" NCoef="0" IVar="-1" Cut="0" cType="1" res="-0.00214849" purity="0.455993" nType="-99"/>
              <Node pos="r" depth="4" NCoef="0" IVar="-1" Cut="0" cType="1" res="-0.000133105" purity="0.485956" nType="-99"/>
            </Node>
          </Node>
        </Node>
        <Node pos="r" depth="1" NCoef="0" IVar="-1" Cut="0" cType="1" res="0.00382871" purity="0.529892" nType="-99"/>
      </Node>
    </BinaryTree>
    <BinaryTree type="DecisionTree" boostWeight="1.0" itree="228">
      <Node pos="s" depth="0" NCoef="0" IVar="6" Cut="0.842907" cType="1" res="0.00391168" purity="0.498799" nType="0">
        <Node pos="l" depth="1" NCoef="0" IVar="2" Cut="3497.69" cType="1" res="0.0357518" purity="0.517468" nType="0">
          <Node pos="l" depth="2" NCoef="0" IVar="-1" Cut="0" cType="1" res="0.00418301" purity="0.502291" nType="-99"/>
          <Node pos="r" depth="2" NCoef="0" IVar="5" Cut="1.1882" cType="1" res="0.01928" purity="0.522046" nType="0">
            <Node pos="l" depth="3" NCoef="0" IVar="-1" Cut="0" cType="1" res="-0.00185326" purity="0.469233" nType="-99"/>
            <Node pos="r" depth="3" NCoef="0" IVar="1" Cut="146348" cType="1" res="0.0408878" purity="0.541845" nType="0">
              <Node pos="l" depth="4" NCoef="0" IVar="-1" Cut="0" cType="1" res="0.00314996" purity="0.573409" nType="-99"/>
              <Node pos="r" depth="4" NCoef="0" IVar="-1" Cut="0" cType="1" res="-0.000378884" purity="0.491143" nType="-99"/>
            </Node>
          </Node>
        </Node>
        <Node pos="r" depth="1" NCoef="0" IVar="6" Cut="1.45969" cType="1" res="-0.00439193" purity="0.49393" nType="0">
          <Node pos="l" depth="2" NCoef="0" IVar="2" Cut="4093.44" cType="1" res="-0.0301552" purity="0.498608" nType="0">
            <Node pos="l" depth="3" NCoef="0" IVar="-1" Cut="0" cType="1" res="-0.00433333" purity="0.3478" nType="-99"/>
            <Node pos="r" depth="3" NCoef="0" IVar="4" Cut="217128" cType="1" res="-0.0155899" purity="0.555246" nType="0">
              <Node pos="l" depth="4" NCoef="0" IVar="-1" Cut="0" cType="1" res="0.000425636" purity="0.606683" nType="-99"/>
              <Node pos="r" depth="4" NCoef="0" IVar="-1" Cut="0" cType="1" res="-0.00219567" purity="0.497238" nType="-99"/>
            </Node>
          </Node>
          <Node pos="r" depth="2" NCoef="0" IVar="6" Cut="1.91105" cType="1" res="0.00218793" purity="0.492735" nType="0">
            <Node pos="l" depth="3" NCoef="0" IVar="4" Cut="255953" cType="1" res="0.0364438" purity="0.584538" nType="0">
              <Node pos="l" depth="4" NCoef="0" IVar="-1" Cut="0" cType="1" res="0.00227681" purity="0.626176" nType="-99"/>
              <Node pos="r" depth="4" NCoef="0" IVar="-1" Cut="0" cType="1" res="-0.000151268" purity="0.49376" nType="-99"/>
            </Node>
            <Node pos="r" depth="3" NCoef="0" IVar="1" Cut="110483" cType="1" res="-0.00966529" purity="0.460969" nType="0">
              <Node pos="l" depth="4" NCoef="0" IVar="-1" Cut="0" cType="1" res="0.000513911" purity="0.468715" nType="-99"/>
              <Node pos="r" depth="4" NCoef="0" IVar="-1" Cut="0" cType="1" res="-0.00187989" purity="0.451031" nType="-99"/>
            </Node>
          </Node>
        </Node>
      </Node>
    </BinaryTree>
    <BinaryTree type="DecisionTree" boostWeight="1.0" itree="229">
      <Node pos="s" depth="0" NCoef="0" IVar="2" Cut="-2881.82" cType="1" res="0.0100114" purity="0.504374" nType="0">
        <Node pos="l" depth="1" NCoef="0" IVar="2" Cut="-6500.22" cType="1" res="-0.0142831" purity="0.408728" nType="0">
          <Node pos="l" depth="2" NCoef="0" IVar="1" Cut="115605" cType="1" res="0.00732063" purity="0.427189" nType="0">
            <Node pos="l" depth="3" NCoef="0" IVar="1" Cut="101863" cType="1" res="0.0337318" purity="0.448053" nType="0">
              <Node pos="l" depth="4" NCoef="0" IVar="-1" Cut="0" cType="1" res="-0.000573405" purity="0.397505" nType="-99"/>
              <Node pos="r" depth="4" NCoef="0" IVar="-1" Cut="0" cType="1" res="0.00412885" purity="0.509154" nType="-99"/>
            </Node>
            <Node pos="r" depth="3" NCoef="0" IVar="-1" Cut="0" cType="1" res="-0.00169538" purity="0.398232" nType="-99"/>
          </Node>
          <Node pos="r" depth="2" NCoef="0" IVar="-1" Cut="0" cType="1" res="-0.00433019" purity="0.361325" nType="-99"/>
        </Node>
        <Node pos="r" depth="1" NCoef="0" IVar="2" Cut="6985.59" cType="1" res="0.0188923" purity="0.539337" nType="0">
          <Node pos="l" depth="2" NCoef="0" IVar="4" Cut="373052" cType="1" res="0.0311114" purity="0.488115" nType="0">
            <Node pos="l" depth="3" NCoef="0" IVar="3" Cut="176643" cType="1" res="0.0230415" purity="0.48559" nType="0">
              <Node pos="l" depth="4" NCoef="0" IVar="-1" Cut="0" cType="1" res="0.00193991" purity="0.504819" nType="-99"/>
              <Node pos="r" depth="4" NCoef="0" IVar="-1" Cut="0" cType="1" res="-0.000185599" purity="0.456611" nType="-99"/>
            </Node>
            <Node pos="r" depth="3" NCoef="0" IVar="-1" Cut="0" cType="1" res="0.0039227" purity="0.505452" nType="-99"/>
          </Node>
          <Node pos="r" depth="2" NCoef="0" IVar="6" Cut="0.286624" cType="1" res="0.00919733" purity="0.579978" nType="0">
            <Node pos="l" depth="3" NCoef="0" IVar="-1" Cut="0" cType="1" res="0.00258218" purity="0.558772" nType="-99"/>
            <Node pos="r" depth="3" NCoef="0" IVar="6" Cut="0.610131" cType="1" res="0.00200517" purity="0.582924" nType="0">
              <Node pos="l" depth="4" NCoef="0" IVar="-1" Cut="0" cType="1" res="-0.00346561" purity="0.439641" nType="-99"/>
              <Node pos="r" depth="4" NCoef="0" IVar="-1" Cut="0" cType="1" res="0.000483666" purity="0.602351" nType="-99"/>
            </Node>
          </Node>
        </Node>
      </Node>
    </BinaryTree>
    <BinaryTree type="DecisionTree" boostWeight="1.0" itree="230">
      <Node pos="s" depth="0" NCoef="0" IVar="2" Cut="3986.95" cType="1" res="0.0153233" purity="0.51062" nType="0">
        <Node pos="l" depth="1" NCoef="0" IVar="2" Cut="-11021.5" cType="1" res="-0.00147213" purity="0.433299" nType="0">
          <Node pos="l" depth="2" NCoef="0" IVar="4" Cut="299003" cType="1" res="0.0361628" purity="0.451583" nType="0">
            <Node pos="l" depth="3" NCoef="0" IVar="-1" Cut="0" cType="1" res="0.00280453" purity="0.486454" nType="-99"/>
            <Node pos="r" depth="3" NCoef="0" IVar="-1" Cut="0" cType="1" res="-0.000278099" purity="0.385643" nType="-99"/>
          </Node>
          <Node pos="r" depth="2" NCoef="0" IVar="6" Cut="2.14549" cType="1" res="-0.0139386" purity="0.427242" nType="0">
            <Node pos="l" depth="3" NCoef="0" IVar="1" Cut="120679" cType="1" res="-0.0382779" purity="0.390905" nType="0">
              <Node pos="l" depth="4" NCoef="0" IVar="-1" Cut="0" cType="1" res="-0.00458214" purity="0.345846" nType="-99"/>
              <Node pos="r" depth="4" NCoef="0" IVar="-1" Cut="0" cType="1" res="0.000633486" purity="0.462449" nType="-99"/>
            </Node>
            <Node pos="r" depth="3" NCoef="0" IVar="5" Cut="1.81905" cType="1" res="0.00217818" purity="0.451304" nType="0">
              <Node pos="l" depth="4" NCoef="0" IVar="-1" Cut="0" cType="1" res="0.000837224" purity="0.47118" nType="-99"/>
              <Node pos="r" depth="4" NCoef="0" IVar="-1" Cut="0" cType="1" res="-0.00307558" purity="0.38137" nType="-99"/>
            </Node>
          </Node>
        </Node>
        <Node pos="r" depth="1" NCoef="0" IVar="3" Cut="136615" cType="1" res="0.0314048" purity="0.584655" nType="0">
          <Node pos="l" depth="2" NCoef="0" IVar="-1" Cut="0" cType="1" res="-0.00113002" purity="0.530643" nType="-99"/>
          <Node pos="r" depth="2" NCoef="0" IVar="0" Cut="207220" cType="1" res="0.0411096" purity="0.594215" nType="0">
            <Node pos="l" depth="3" NCoef="0" IVar="5" Cut="2.37763" cType="1" res="0.0492751" purity="0.596158" nType="0">
              <Node pos="l" depth="4" NCoef="0" IVar="-1" Cut="0" cType="1" res="0.00167744" purity="0.594069" nType="-99"/>
              <Node pos="r" depth="4" NCoef="0" IVar="-1" Cut="0" cType="1" res="0.00424719" purity="0.607212" nType="-99"/>
            </Node>
            <Node pos="r" depth="3" NCoef="0" IVar="-1" Cut="0" cType="1" res="-0.00108528" purity="0.578852" nType="-99"/>
          </Node>
        </Node>
      </Node>
    </BinaryTree>
    <BinaryTree type="DecisionTree" boostWeight="1.0" itree="231">
      <Node pos="s" depth="0" NCoef="0" IVar="6" Cut="2.37529" cType="1" res="0.00442566" purity="0.497916" nType="0">
        <Node pos="l" depth="1" NCoef="0" IVar="4" Cut="236608" cType="1" res="0.0152852" purity="0.529102" nType="0">
          <Node pos="l" depth="2" NCoef="0" IVar="5" Cut="2.15364" cType="1" res="0.000113233" purity="0.539512" nType="0">
            <Node pos="l" depth="3" NCoef="0" IVar="3" Cut="136582" cType="1" res="0.00959827" purity="0.551685" nType="0">
              <Node pos="l" depth="4" NCoef="0" IVar="-1" Cut="0" cType="1" res="-0.00156726" purity="0.496701" nType="-99"/>
              <Node pos="r" depth="4" NCoef="0" IVar="-1" Cut="0" cType="1" res="0.000768666" purity="0.561626" nType="-99"/>
            </Node>
            <Node pos="r" depth="3" NCoef="0" IVar="-1" Cut="0" cType="1" res="-0.00303176" purity="0.467496" nType="-99"/>
          </Node>
          <Node pos="r" depth="2" NCoef="0" IVar="3" Cut="135747" cType="1" res="0.0333108" purity="0.516734" nType="0">
            <Node pos="l" depth="3" NCoef="0" IVar="-1" Cut="0" cType="1" res="0.00356261" purity="0.57781" nType="-99"/>
            <Node pos="r" depth="3" NCoef="0" IVar="3" Cut="163489" cType="1" res="0.0211922" purity="0.502609" nType="0">
              <Node pos="l" depth="4" NCoef="0" IVar="-1" Cut="0" cType="1" res="-0.000943086" purity="0.466821" nType="-99"/>
              <Node pos="r" depth="4" NCoef="0" IVar="-1" Cut="0" cType="1" res="0.00173953" purity="0.517141" nType="-99"/>
            </Node>
          </Node>
        </Node>
        <Node pos="r" depth="1" NCoef="0" IVar="3" Cut="182636" cType="1" res="-0.0219761" purity="0.422096" nType="0">
          <Node pos="l" depth="2" NCoef="0" IVar="3" Cut="140886" cType="1" res="-0.0437399" purity="0.400513" nType="0">
            <Node pos="l" depth="3" NCoef="0" IVar="-1" Cut="0" cType="1" res="0.000959166" purity="0.478193" nType="-99"/>
            <Node pos="r" depth="3" NCoef="0" IVar="5" Cut="1.38324" cType="1" res="-0.0680742" purity="0.370778" nType="0">
              <Node pos="l" depth="4" NCoef="0" IVar="-1" Cut="0" cType="1" res="-0.00576879" purity="0.362967" nType="-99"/>
              <Node pos="r" depth="4" NCoef="0" IVar="-1" Cut="0" cType="1" res="-0.00217078" purity="0.382141" nType="-99"/>
            </Node>
          </Node>
          <Node pos="r" depth="2" NCoef="0" IVar="4" Cut="227541" cType="1" res="0.0206455" purity="0.464362" nType="0">
            <Node pos="l" depth="3" NCoef="0" IVar="-1" Cut="0" cType="1" res="0.00313337" purity="0.53119" nType="-99"/>
            <Node pos="r" depth="3" NCoef="0" IVar="-1" Cut="0" cType="1" res="-0.00134024" purity="0.406614" nType="-99"/>
          </Node>
        </Node>
      </Node>
    </BinaryTree>
    <BinaryTree type="DecisionTree" boostWeight="1.0" itree="232">
      <Node pos="s" depth="0" NCoef="0" IVar="6" Cut="2.75845" cType="1" res="0.00514461" purity="0.500622" nType="0">
        <Node pos="l" depth="1" NCoef="0" IVar="5" Cut="0.699272" cType="1" res="0.000452785" purity="0.508771" nType="0">
          <Node pos="l" depth="2" NCoef="0" IVar="-1" Cut="0" cType="1" res="0.00185659" purity="0.623666" nType="-99"/>
          <Node pos="r" depth="2" NCoef="0" IVar="3" Cut="183234" cType="1" res="-0.00328602" purity="0.498887" nType="0">
            <Node pos="l" depth="3" NCoef="0" IVar="0" Cut="124380" cType="1" res="0.00509818" purity="0.512801" nType="0">
              <Node pos="l" depth="4" NCoef="0" IVar="-1" Cut="0" cType="1" res="0.001042" purity="0.494464" nType="-99"/>
              <Node pos="r" depth="4" NCoef="0" IVar="-1" Cut="0" cType="1" res="-0.000364573" purity="0.527038" nType="-99"/>
            </Node>
            <Node pos="r" depth="3" NCoef="0" IVar="4" Cut="285403" cType="1" res="-0.0250914" purity="0.4627" nType="0">
              <Node pos="l" depth="4" NCoef="0" IVar="-1" Cut="0" cType="1" res="-0.00228307" purity="0.463112" nType="-99"/>
              <Node pos="r" depth="4" NCoef="0" IVar="-1" Cut="0" cType="1" res="0.000598668" purity="0.461897" nType="-99"/>
            </Node>
          </Node>
        </Node>
        <Node pos="r" depth="1" NCoef="0" IVar="6" Cut="3.00142" cType="1" res="0.0325181" purity="0.453082" nType="0">
          <Node pos="l" depth="2" NCoef="0" IVar="3" Cut="171222" cType="1" res="0.0578864" purity="0.478566" nType="0">
            <Node pos="l" depth="3" NCoef="0" IVar="-1" Cut="0" cType="1" res="0.00131687" purity="0.444724" nType="-99"/>
            <Node pos="r" depth="3" NCoef="0" IVar="-1" Cut="0" cType="1" res="0.00409609" purity="0.509906" nType="-99"/>
          </Node>
          <Node pos="r" depth="2" NCoef="0" IVar="-1" Cut="0" cType="1" res="-0.00114927" purity="0.400152" nType="-99"/>
        </Node>
      </Node>
    </BinaryTree>
    <BinaryTree type="DecisionTree" boostWeight="1.0" itree="233">
      <Node pos="s" depth="0" NCoef="0" IVar="4" Cut="217132" cType="1" res="0.0134055" purity="0.505915" nType="0">
        <Node pos="l" depth="1" NCoef="0" IVar="4" Cut="180006" cType="1" res="-0.00235452" purity="0.525325" nType="0">
          <Node pos="l" depth="2" NCoef="0" IVar="3" Cut="167155" cType="1" res="0.013782" purity="0.55349" nType="0">
            <Node pos="l" depth="3" NCoef="0" IVar="6" Cut="1.99049" cType="1" res="0.0561519" purity="0.598315" nType="0">
              <Node pos="l" depth="4" NCoef="0" IVar="-1" Cut="0" cType="1" res="0.00291267" purity="0.632827" nType="-99"/>
              <Node pos="r" depth="4" NCoef="0" IVar="-1" Cut="0" cType="1" res="0.00122022" purity="0.531952" nType="-99"/>
            </Node>
            <Node pos="r" depth="3" NCoef="0" IVar="1" Cut="100214" cType="1" res="-0.0291777" purity="0.508041" nType="0">
              <Node pos="l" depth="4" NCoef="0" IVar="-1" Cut="0" cType="1" res="-0.00424203" purity="0.412041" nType="-99"/>
              <Node pos="r" depth="4" NCoef="0" IVar="-1" Cut="0" cType="1" res="5.35684e-05" purity="0.572692" nType="-99"/>
            </Node>
          </Node>
          <Node pos="r" depth="2" NCoef="0" IVar="3" Cut="159908" cType="1" res="-0.0210092" purity="0.492764" nType="0">
            <Node pos="l" depth="3" NCoef="0" IVar="-1" Cut="0" cType="1" res="-0.00370362" purity="0.448127" nType="-99"/>
            <Node pos="r" depth="3" NCoef="0" IVar="2" Cut="5265.22" cType="1" res="0.00311287" purity="0.516357" nType="0">
              <Node pos="l" depth="4" NCoef="0" IVar="-1" Cut="0" cType="1" res="-0.00234315" purity="0.4068" nType="-99"/>
              <Node pos="r" depth="4" NCoef="0" IVar="-1" Cut="0" cType="1" res="0.00196063" purity="0.62518" nType="-99"/>
            </Node>
          </Node>
        </Node>
        <Node pos="r" depth="1" NCoef="0" IVar="2" Cut="7194.14" cType="1" res="0.0258623" purity="0.490574" nType="0">
          <Node pos="l" depth="2" NCoef="0" IVar="6" Cut="1.22619" cType="1" res="0.0420893" purity="0.470371" nType="0">
            <Node pos="l" depth="3" NCoef="0" IVar="-1" Cut="0" cType="1" res="0.00450487" purity="0.518263" nType="-99"/>
            <Node pos="r" depth="3" NCoef="0" IVar="6" Cut="1.78706" cType="1" res="0.0288575" purity="0.459395" nType="0">
              <Node pos="l" depth="4" NCoef="0" IVar="-1" Cut="0" cType="1" res="-0.00219753" purity="0.389102" nType="-99"/>
              <Node pos="r" depth="4" NCoef="0" IVar="-1" Cut="0" cType="1" res="0.00199056" purity="0.470548" nType="-99"/>
            </Node>
          </Node>
          <Node pos="r" depth="2" NCoef="0" IVar="2" Cut="22713.1" cType="1" res="-0.00665691" purity="0.53106" nType="0">
            <Node pos="l" depth="3" NCoef="0" IVar="3" Cut="152717" cType="1" res="-0.018391" purity="0.495722" nType="0">
              <Node pos="l" depth="4" NCoef="0" IVar="-1" Cut="0" cType="1" res="0.000659086" purity="0.528853" nType="-99"/>
              <Node pos="r" depth="4" NCoef="0" IVar="-1" Cut="0" cType="1" res="-0.00162863" purity="0.481547" nType="-99"/>
            </Node>
            <Node pos="r" depth="3" NCoef="0" IVar="-1" Cut="0" cType="1" res="0.000987655" purity="0.622951" nType="-99"/>
          </Node>
        </Node>
      </Node>
    </BinaryTree>
    <BinaryTree type="DecisionTree" boostWeight="1.0" itree="234">
      <Node pos="s" depth="0" NCoef="0" IVar="0" Cut="119519" cType="1" res="0.00144559" purity="0.496271" nType="0">
        <Node pos="l" depth="1" NCoef="0" IVar="5" Cut="1.70026" cType="1" res="-0.0207449" purity="0.428425" nType="0">
          <Node pos="l" depth="2" NCoef="0" IVar="2" Cut="285.241" cType="1" res="-0.0521794" purity="0.398447" nType="0">
            <Node pos="l" depth="3" NCoef="0" IVar="-1" Cut="0" cType="1" res="-0.00115933" purity="0.352215" nType="-99"/>
            <Node pos="r" depth="3" NCoef="0" IVar="2" Cut="12119.1" cType="1" res="-0.076076" purity="0.430767" nType="0">
              <Node pos="l" depth="4" NCoef="0" IVar="-1" Cut="0" cType="1" res="-0.00685787" purity="0.328698" nType="-99"/>
              <Node pos="r" depth="4" NCoef="0" IVar="-1" Cut="0" cType="1" res="-0.00246725" purity="0.522871" nType="-99"/>
            </Node>
          </Node>
          <Node pos="r" depth="2" NCoef="0" IVar="6" Cut="1.68598" cType="1" res="0.00809977" purity="0.455934" nType="0">
            <Node pos="l" depth="3" NCoef="0" IVar="-1" Cut="0" cType="1" res="-0.00178524" purity="0.446796" nType="-99"/>
            <Node pos="r" depth="3" NCoef="0" IVar="-1" Cut="0" cType="1" res="0.00244327" purity="0.464428" nType="-99"/>
          </Node>
        </Node>
        <Node pos="r" depth="1" NCoef="0" IVar="0" Cut="137125" cType="1" res="0.0121201" purity="0.528907" nType="0">
          <Node pos="l" depth="2" NCoef="0" IVar="5" Cut="1.24086" cType="1" res="0.035506" purity="0.527847" nType="0">
            <Node pos="l" depth="3" NCoef="0" IVar="-1" Cut="0" cType="1" res="-0.00107264" purity="0.475437" nType="-99"/>
            <Node pos="r" depth="3" NCoef="0" IVar="1" Cut="115613" cType="1" res="0.0617433" purity="0.552349" nType="0">
              <Node pos="l" depth="4" NCoef="0" IVar="-1" Cut="0" cType="1" res="0.0041327" purity="0.57052" nType="-99"/>
              <Node pos="r" depth="4" NCoef="0" IVar="-1" Cut="0" cType="1" res="0.0016262" purity="0.537243" nType="-99"/>
            </Node>
          </Node>
          <Node pos="r" depth="2" NCoef="0" IVar="2" Cut="14396.9" cType="1" res="0.00133512" purity="0.529396" nType="0">
            <Node pos="l" depth="3" NCoef="0" IVar="5" Cut="1.44574" cType="1" res="-0.0106121" purity="0.48367" nType="0">
              <Node pos="l" depth="4" NCoef="0" IVar="-1" Cut="0" cType="1" res="0.000395799" purity="0.501404" nType="-99"/>
              <Node pos="r" depth="4" NCoef="0" IVar="-1" Cut="0" cType="1" res="-0.00260952" purity="0.446159" nType="-99"/>
            </Node>
            <Node pos="r" depth="3" NCoef="0" IVar="0" Cut="176820" cType="1" res="0.043028" purity="0.68897" nType="0">
              <Node pos="l" depth="4" NCoef="0" IVar="-1" Cut="0" cType="1" res="0.00103443" purity="0.661344" nType="-99"/>
              <Node pos="r" depth="4" NCoef="0" IVar="-1" Cut="0" cType="1" res="0.00265127" purity="0.721346" nType="-99"/>
            </Node>
          </Node>
        </Node>
      </Node>
    </BinaryTree>
    <BinaryTree type="DecisionTree" boostWeight="1.0" itree="235">
      <Node pos="s" depth="0" NCoef="0" IVar="4" Cut="148815" cType="1" res="0.0181171" purity="0.512674" nType="0">
        <Node pos="l" depth="1" NCoef="0" IVar="-1" Cut="0" cType="1" res="-0.001401" purity="0.519742" nType="-99"/>
        <Node pos="r" depth="1" NCoef="0" IVar="4" Cut="354385" cType="1" res="0.0212539" purity="0.512196" nType="0">
          <Node pos="l" depth="2" NCoef="0" IVar="3" Cut="142414" cType="1" res="0.0261891" purity="0.526027" nType="0">
            <Node pos="l" depth="3" NCoef="0" IVar="3" Cut="124481" cType="1" res="-0.00277593" purity="0.503664" nType="0">
              <Node pos="l" depth="4" NCoef="0" IVar="-1" Cut="0" cType="1" res="0.00099808" purity="0.526718" nType="-99"/>
              <Node pos="r" depth="4" NCoef="0" IVar="-1" Cut="0" cType="1" res="-0.00158294" purity="0.476918" nType="-99"/>
            </Node>
            <Node pos="r" depth="3" NCoef="0" IVar="6" Cut="1.60968" cType="1" res="0.0333752" purity="0.531574" nType="0">
              <Node pos="l" depth="4" NCoef="0" IVar="-1" Cut="0" cType="1" res="0.00227363" purity="0.561741" nType="-99"/>
              <Node pos="r" depth="4" NCoef="0" IVar="-1" Cut="0" cType="1" res="0.00098829" purity="0.509691" nType="-99"/>
            </Node>
          </Node>
          <Node pos="r" depth="2" NCoef="0" IVar="0" Cut="148786" cType="1" res="-0.00689359" purity="0.433313" nType="0">
            <Node pos="l" depth="3" NCoef="0" IVar="-1" Cut="0" cType="1" res="-0.00344082" purity="0.336252" nType="-99"/>
            <Node pos="r" depth="3" NCoef="0" IVar="-1" Cut="0" cType="1" res="0.00161808" purity="0.523778" nType="-99"/>
          </Node>
        </Node>
      </Node>
    </BinaryTree>
    <BinaryTree type="DecisionTree" boostWeight="1.0" itree="236">
      <Node pos="s" depth="0" NCoef="0" IVar="6" Cut="0.842902" cType="1" res="0.00127265" purity="0.496287" nType="0">
        <Node pos="l" depth="1" NCoef="0" IVar="0" Cut="114618" cType="1" res="0.0380928" purity="0.523006" nType="0">
          <Node pos="l" depth="2" NCoef="0" IVar="-1" Cut="0" cType="1" res="-0.000260026" purity="0.453327" nType="-99"/>
          <Node pos="r" depth="2" NCoef="0" IVar="4" Cut="295152" cType="1" res="0.0557426" purity="0.551498" nType="0">
            <Node pos="l" depth="3" NCoef="0" IVar="0" Cut="146125" cType="1" res="0.0304371" purity="0.539635" nType="0">
              <Node pos="l" depth="4" NCoef="0" IVar="-1" Cut="0" cType="1" res="0.00230169" purity="0.559633" nType="-99"/>
              <Node pos="r" depth="4" NCoef="0" IVar="-1" Cut="0" cType="1" res="-0.000232038" purity="0.508701" nType="-99"/>
            </Node>
            <Node pos="r" depth="3" NCoef="0" IVar="-1" Cut="0" cType="1" res="0.00448161" purity="0.576919" nType="-99"/>
          </Node>
        </Node>
        <Node pos="r" depth="1" NCoef="0" IVar="2" Cut="24297.7" cType="1" res="-0.00864759" purity="0.489088" nType="0">
          <Node pos="l" depth="2" NCoef="0" IVar="6" Cut="2.07663" cType="1" res="-0.0147163" purity="0.465768" nType="0">
            <Node pos="l" depth="3" NCoef="0" IVar="5" Cut="2.30903" cType="1" res="-0.0414754" purity="0.46884" nType="0">
              <Node pos="l" depth="4" NCoef="0" IVar="-1" Cut="0" cType="1" res="-0.00293804" purity="0.464036" nType="-99"/>
              <Node pos="r" depth="4" NCoef="0" IVar="-1" Cut="0" cType="1" res="0.00071951" purity="0.487125" nType="-99"/>
            </Node>
            <Node pos="r" depth="3" NCoef="0" IVar="1" Cut="110483" cType="1" res="0.0049874" purity="0.463507" nType="0">
              <Node pos="l" depth="4" NCoef="0" IVar="-1" Cut="0" cType="1" res="0.00131746" purity="0.477165" nType="-99"/>
              <Node pos="r" depth="4" NCoef="0" IVar="-1" Cut="0" cType="1" res="-0.00127434" purity="0.4447" nType="-99"/>
            </Node>
          </Node>
          <Node pos="r" depth="2" NCoef="0" IVar="-1" Cut="0" cType="1" res="0.00232824" purity="0.737297" nType="-99"/>
        </Node>
      </Node>
    </BinaryTree>
    <BinaryTree type="DecisionTree" boostWeight="1.0" itree="237">
      <Node pos="s" depth="0" NCoef="0" IVar="6" Cut="2.91168" cType="1" res="0.012326" purity="0.504916" nType="0">
        <Node pos="l" depth="1" NCoef="0" IVar="4" Cut="343929" cType="1" res="0.00838199" purity="0.508703" nType="0">
          <Node pos="l" depth="2" NCoef="0" IVar="1" Cut="176472" cType="1" res="0.0152877" purity="0.525258" nType="0">
            <Node pos="l" depth="3" NCoef="0" IVar="5" Cut="1.30918" cType="1" res="0.018776" purity="0.528764" nType="0">
              <Node pos="l" depth="4" NCoef="0" IVar="-1" Cut="0" cType="1" res="2.82952e-05" purity="0.525019" nType="-99"/>
              <Node pos="r" depth="4" NCoef="0" IVar="-1" Cut="0" cType="1" res="0.00155123" purity="0.531781" nType="-99"/>
            </Node>
            <Node pos="r" depth="3" NCoef="0" IVar="-1" Cut="0" cType="1" res="-0.00203412" purity="0.470831" nType="-99"/>
          </Node>
          <Node pos="r" depth="2" NCoef="0" IVar="6" Cut="1.98843" cType="1" res="-0.0300215" purity="0.416638" nType="0">
            <Node pos="l" depth="3" NCoef="0" IVar="0" Cut="148759" cType="1" res="0.0144892" purity="0.472548" nType="0">
              <Node pos="l" depth="4" NCoef="0" IVar="-1" Cut="0" cType="1" res="-0.00106627" purity="0.394885" nType="-99"/>
              <Node pos="r" depth="4" NCoef="0" IVar="-1" Cut="0" cType="1" res="0.00212545" purity="0.555049" nType="-99"/>
            </Node>
            <Node pos="r" depth="3" NCoef="0" IVar="-1" Cut="0" cType="1" res="-0.00671052" purity="0.329559" nType="-99"/>
          </Node>
        </Node>
        <Node pos="r" depth="1" NCoef="0" IVar="6" Cut="3.03506" cType="1" res="0.0514322" purity="0.467368" nType="0">
          <Node pos="l" depth="2" NCoef="0" IVar="-1" Cut="0" cType="1" res="0.00386599" purity="0.495413" nType="-99"/>
          <Node pos="r" depth="2" NCoef="0" IVar="-1" Cut="0" cType="1" res="0.00068465" purity="0.430867" nType="-99"/>
        </Node>
      </Node>
    </BinaryTree>
    <BinaryTree type="DecisionTree" boostWeight="1.0" itree="238">
      <Node pos="s" depth="0" NCoef="0" IVar="3" Cut="159908" cType="1" res="0.00642901" purity="0.502029" nType="0">
        <Node pos="l" depth="1" NCoef="0" IVar="4" Cut="168620" cType="1" res="-0.01521" purity="0.484416" nType="0">
          <Node pos="l" depth="2" NCoef="0" IVar="-1" Cut="0" cType="1" res="0.00140429" purity="0.578045" nType="-99"/>
          <Node pos="r" depth="2" NCoef="0" IVar="0" Cut="143904" cType="1" res="-0.0251923" purity="0.464094" nType="0">
            <Node pos="l" depth="3" NCoef="0" IVar="6" Cut="1.22591" cType="1" res="-0.0489139" purity="0.410397" nType="0">
              <Node pos="l" depth="4" NCoef="0" IVar="-1" Cut="0" cType="1" res="-0.00603201" purity="0.371282" nType="-99"/>
              <Node pos="r" depth="4" NCoef="0" IVar="-1" Cut="0" cType="1" res="-0.00122197" purity="0.430091" nType="-99"/>
            </Node>
            <Node pos="r" depth="3" NCoef="0" IVar="3" Cut="145393" cType="1" res="0.00862682" purity="0.540649" nType="0">
              <Node pos="l" depth="4" NCoef="0" IVar="-1" Cut="0" cType="1" res="0.00162647" purity="0.573725" nType="-99"/>
              <Node pos="r" depth="4" NCoef="0" IVar="-1" Cut="0" cType="1" res="-0.00250714" purity="0.479797" nType="-99"/>
            </Node>
          </Node>
        </Node>
        <Node pos="r" depth="1" NCoef="0" IVar="4" Cut="295163" cType="1" res="0.0185859" purity="0.511924" nType="0">
          <Node pos="l" depth="2" NCoef="0" IVar="4" Cut="228547" cType="1" res="0.00692183" purity="0.516886" nType="0">
            <Node pos="l" depth="3" NCoef="0" IVar="0" Cut="153607" cType="1" res="0.0196119" purity="0.54083" nType="0">
              <Node pos="l" depth="4" NCoef="0" IVar="-1" Cut="0" cType="1" res="0.00191398" purity="0.541983" nType="-99"/>
              <Node pos="r" depth="4" NCoef="0" IVar="-1" Cut="0" cType="1" res="-0.00154783" purity="0.538084" nType="-99"/>
            </Node>
            <Node pos="r" depth="3" NCoef="0" IVar="0" Cut="119514" cType="1" res="-0.0244558" purity="0.45768" nType="0">
              <Node pos="l" depth="4" NCoef="0" IVar="-1" Cut="0" cType="1" res="-0.00596645" purity="0.337679" nType="-99"/>
              <Node pos="r" depth="4" NCoef="0" IVar="-1" Cut="0" cType="1" res="0.000341204" purity="0.511429" nType="-99"/>
            </Node>
          </Node>
          <Node pos="r" depth="2" NCoef="0" IVar="2" Cut="-3573.48" cType="1" res="0.0478456" purity="0.499479" nType="0">
            <Node pos="l" depth="3" NCoef="0" IVar="-1" Cut="0" cType="1" res="0.00455106" purity="0.489355" nType="-99"/>
            <Node pos="r" depth="3" NCoef="0" IVar="6" Cut="1.60903" cType="1" res="0.0238654" purity="0.504706" nType="0">
              <Node pos="l" depth="4" NCoef="0" IVar="-1" Cut="0" cType="1" res="-0.000369866" purity="0.462633" nType="-99"/>
              <Node pos="r" depth="4" NCoef="0" IVar="-1" Cut="0" cType="1" res="0.00252592" purity="0.545901" nType="-99"/>
            </Node>
          </Node>
        </Node>
      </Node>
    </BinaryTree>
    <BinaryTree type="DecisionTree" boostWeight="1.0" itree="239">
      <Node pos="s" depth="0" NCoef="0" IVar="2" Cut="21169.1" cType="1" res="0.00925706" purity="0.504353" nType="0">
        <Node pos="l" depth="1" NCoef="0" IVar="4" Cut="236914" cType="1" res="0.00282743" purity="0.477354" nType="0">
          <Node pos="l" depth="2" NCoef="0" IVar="5" Cut="1.19432" cType="1" res="-0.0118596" purity="0.486658" nType="0">
            <Node pos="l" depth="3" NCoef="0" IVar="6" Cut="1.226" cType="1" res="0.0158333" purity="0.515327" nType="0">
              <Node pos="l" depth="4" NCoef="0" IVar="-1" Cut="0" cType="1" res="0.00300087" purity="0.5251" nType="-99"/>
              <Node pos="r" depth="4" NCoef="0" IVar="-1" Cut="0" cType="1" res="-0.000188443" purity="0.511441" nType="-99"/>
            </Node>
            <Node pos="r" depth="3" NCoef="0" IVar="0" Cut="109707" cType="1" res="-0.0322259" purity="0.465574" nType="0">
              <Node pos="l" depth="4" NCoef="0" IVar="-1" Cut="0" cType="1" res="0.000711231" purity="0.484595" nType="-99"/>
              <Node pos="r" depth="4" NCoef="0" IVar="-1" Cut="0" cType="1" res="-0.00278555" purity="0.457508" nType="-99"/>
            </Node>
          </Node>
          <Node pos="r" depth="2" NCoef="0" IVar="2" Cut="-5657.63" cType="1" res="0.0187738" purity="0.467253" nType="0">
            <Node pos="l" depth="3" NCoef="0" IVar="1" Cut="110516" cType="1" res="0.0402051" purity="0.450708" nType="0">
              <Node pos="l" depth="4" NCoef="0" IVar="-1" Cut="0" cType="1" res="0.00433682" purity="0.48976" nType="-99"/>
              <Node pos="r" depth="4" NCoef="0" IVar="-1" Cut="0" cType="1" res="0.000439398" purity="0.425403" nType="-99"/>
            </Node>
            <Node pos="r" depth="3" NCoef="0" IVar="2" Cut="-1077.1" cType="1" res="0.00917492" purity="0.474663" nType="0">
              <Node pos="l" depth="4" NCoef="0" IVar="-1" Cut="0" cType="1" res="-0.00257321" purity="0.373887" nType="-99"/>
              <Node pos="r" depth="4" NCoef="0" IVar="-1" Cut="0" cType="1" res="0.0010279" purity="0.498119" nType="-99"/>
            </Node>
          </Node>
        </Node>
        <Node pos="r" depth="1" NCoef="0" IVar="0" Cut="143840" cType="1" res="0.0529195" purity="0.687696" nType="0">
          <Node pos="l" depth="2" NCoef="0" IVar="-1" Cut="0" cType="1" res="0.0034333" purity="0.702474" nType="-99"/>
          <Node pos="r" depth="2" NCoef="0" IVar="-1" Cut="0" cType="1" res="-0.000766" purity="0.659675" nType="-99"/>
        </Node>
      </Node>
    </BinaryTree>
    <BinaryTree type="DecisionTree" boostWeight="1.0" itree="240">
      <Node pos="s" depth="0" NCoef="0" IVar="5" Cut="2.15528" cType="1" res="0.00879488" purity="0.503749" nType="0">
        <Node pos="l" depth="1" NCoef="0" IVar="5" Cut="1.79234" cType="1" res="0.000189617" purity="0.502312" nType="0">
          <Node pos="l" depth="2" NCoef="0" IVar="5" Cut="0.761606" cType="1" res="0.00597753" purity="0.509661" nType="0">
            <Node pos="l" depth="3" NCoef="0" IVar="0" Cut="182973" cType="1" res="-0.0386652" purity="0.505727" nType="0">
              <Node pos="l" depth="4" NCoef="0" IVar="-1" Cut="0" cType="1" res="-0.00064762" purity="0.51875" nType="-99"/>
              <Node pos="r" depth="4" NCoef="0" IVar="-1" Cut="0" cType="1" res="-0.00391653" purity="0.487914" nType="-99"/>
            </Node>
            <Node pos="r" depth="3" NCoef="0" IVar="5" Cut="1.64145" cType="1" res="0.0132211" purity="0.510299" nType="0">
              <Node pos="l" depth="4" NCoef="0" IVar="-1" Cut="0" cType="1" res="0.000351435" purity="0.504329" nType="-99"/>
              <Node pos="r" depth="4" NCoef="0" IVar="-1" Cut="0" cType="1" res="0.0025498" purity="0.553963" nType="-99"/>
            </Node>
          </Node>
          <Node pos="r" depth="2" NCoef="0" IVar="1" Cut="125648" cType="1" res="-0.0361501" purity="0.456171" nType="0">
            <Node pos="l" depth="3" NCoef="0" IVar="-1" Cut="0" cType="1" res="-7.32364e-05" purity="0.473381" nType="-99"/>
            <Node pos="r" depth="3" NCoef="0" IVar="-1" Cut="0" cType="1" res="-0.00450619" purity="0.433353" nType="-99"/>
          </Node>
        </Node>
        <Node pos="r" depth="1" NCoef="0" IVar="4" Cut="360148" cType="1" res="0.0415357" purity="0.509217" nType="0">
          <Node pos="l" depth="2" NCoef="0" IVar="4" Cut="283288" cType="1" res="0.0292762" purity="0.511766" nType="0">
            <Node pos="l" depth="3" NCoef="0" IVar="1" Cut="134323" cType="1" res="0.0519224" purity="0.551462" nType="0">
              <Node pos="l" depth="4" NCoef="0" IVar="-1" Cut="0" cType="1" res="0.00331798" purity="0.567762" nType="-99"/>
              <Node pos="r" depth="4" NCoef="0" IVar="-1" Cut="0" cType="1" res="0.00129967" purity="0.532198" nType="-99"/>
            </Node>
            <Node pos="r" depth="3" NCoef="0" IVar="-1" Cut="0" cType="1" res="-0.0013624" purity="0.417088" nType="-99"/>
          </Node>
          <Node pos="r" depth="2" NCoef="0" IVar="-1" Cut="0" cType="1" res="0.00444503" purity="0.499062" nType="-99"/>
        </Node>
      </Node>
    </BinaryTree>
    <BinaryTree type="DecisionTree" boostWeight="1.0" itree="241">
      <Node pos="s" depth="0" NCoef="0" IVar="3" Cut="148008" cType="1" res="-0.0104327" purity="0.484244" nType="0">
        <Node pos="l" depth="1" NCoef="0" IVar="4" Cut="266108" cType="1" res="0.0106037" purity="0.51338" nType="0">
          <Node pos="l" depth="2" NCoef="0" IVar="3" Cut="135585" cType="1" res="-0.0119344" purity="0.511028" nType="0">
            <Node pos="l" depth="3" NCoef="0" IVar="1" Cut="105519" cType="1" res="-0.0365833" purity="0.48229" nType="0">
              <Node pos="l" depth="4" NCoef="0" IVar="-1" Cut="0" cType="1" res="-0.00354645" purity="0.418896" nType="-99"/>
              <Node pos="r" depth="4" NCoef="0" IVar="-1" Cut="0" cType="1" res="-0.000826933" purity="0.531647" nType="-99"/>
            </Node>
            <Node pos="r" depth="3" NCoef="0" IVar="-1" Cut="0" cType="1" res="0.00121034" purity="0.555677" nType="-99"/>
          </Node>
          <Node pos="r" depth="2" NCoef="0" IVar="4" Cut="323167" cType="1" res="0.0483376" purity="0.517318" nType="0">
            <Node pos="l" depth="3" NCoef="0" IVar="-1" Cut="0" cType="1" res="0.00431805" purity="0.583935" nType="-99"/>
            <Node pos="r" depth="3" NCoef="0" IVar="-1" Cut="0" cType="1" res="-0.000322513" purity="0.454421" nType="-99"/>
          </Node>
        </Node>
        <Node pos="r" depth="1" NCoef="0" IVar="2" Cut="20623.9" cType="1" res="-0.0177474" purity="0.474113" nType="0">
          <Node pos="l" depth="2" NCoef="0" IVar="2" Cut="14709.4" cType="1" res="-0.0237414" purity="0.449213" nType="0">
            <Node pos="l" depth="3" NCoef="0" IVar="4" Cut="207507" cType="1" res="-0.0176816" purity="0.444918" nType="0">
              <Node pos="l" depth="4" NCoef="0" IVar="-1" Cut="0" cType="1" res="-1.81241e-05" purity="0.490116" nType="-99"/>
              <Node pos="r" depth="4" NCoef="0" IVar="-1" Cut="0" cType="1" res="-0.00163255" purity="0.414627" nType="-99"/>
            </Node>
            <Node pos="r" depth="3" NCoef="0" IVar="-1" Cut="0" cType="1" res="-0.00440937" purity="0.494321" nType="-99"/>
          </Node>
          <Node pos="r" depth="2" NCoef="0" IVar="-1" Cut="0" cType="1" res="0.0011726" purity="0.663731" nType="-99"/>
        </Node>
      </Node>
    </BinaryTree>
    <BinaryTree type="DecisionTree" boostWeight="1.0" itree="242">
      <Node pos="s" depth="0" NCoef="0" IVar="3" Cut="112949" cType="1" res="0.0125513" purity="0.506967" nType="0">
        <Node pos="l" depth="1" NCoef="0" IVar="-1" Cut="0" cType="1" res="-0.00388258" purity="0.430004" nType="-99"/>
        <Node pos="r" depth="1" NCoef="0" IVar="3" Cut="144877" cType="1" res="0.0172035" purity="0.511386" nType="0">
          <Node pos="l" depth="2" NCoef="0" IVar="5" Cut="1.65597" cType="1" res="0.0583614" purity="0.556067" nType="0">
            <Node pos="l" depth="3" NCoef="0" IVar="5" Cut="1.08576" cType="1" res="0.0372441" purity="0.545999" nType="0">
              <Node pos="l" depth="4" NCoef="0" IVar="-1" Cut="0" cType="1" res="0.00317556" purity="0.604204" nType="-99"/>
              <Node pos="r" depth="4" NCoef="0" IVar="-1" Cut="0" cType="1" res="-0.000264392" purity="0.481977" nType="-99"/>
            </Node>
            <Node pos="r" depth="3" NCoef="0" IVar="-1" Cut="0" cType="1" res="0.003686" purity="0.570738" nType="-99"/>
          </Node>
          <Node pos="r" depth="2" NCoef="0" IVar="5" Cut="0.73132" cType="1" res="0.00827488" purity="0.501694" nType="0">
            <Node pos="l" depth="3" NCoef="0" IVar="-1" Cut="0" cType="1" res="-0.00253105" purity="0.499032" nType="-99"/>
            <Node pos="r" depth="3" NCoef="0" IVar="2" Cut="14342.2" cType="1" res="0.0133699" purity="0.501925" nType="0">
              <Node pos="l" depth="4" NCoef="0" IVar="-1" Cut="0" cType="1" res="0.000270006" purity="0.465425" nType="-99"/>
              <Node pos="r" depth="4" NCoef="0" IVar="-1" Cut="0" cType="1" res="0.00198353" purity="0.656254" nType="-99"/>
            </Node>
          </Node>
        </Node>
      </Node>
    </BinaryTree>
    <BinaryTree type="DecisionTree" boostWeight="1.0" itree="243">
      <Node pos="s" depth="0" NCoef="0" IVar="5" Cut="2.68553" cType="1" res="0.00511982" purity="0.500603" nType="0">
        <Node pos="l" depth="1" NCoef="0" IVar="0" Cut="129275" cType="1" res="-0.000388095" purity="0.499495" nType="0">
          <Node pos="l" depth="2" NCoef="0" IVar="4" Cut="334134" cType="1" res="-0.019522" purity="0.446428" nType="0">
            <Node pos="l" depth="3" NCoef="0" IVar="4" Cut="276978" cType="1" res="-0.00854926" purity="0.47031" nType="0">
              <Node pos="l" depth="4" NCoef="0" IVar="-1" Cut="0" cType="1" res="-0.000925477" purity="0.469691" nType="-99"/>
              <Node pos="r" depth="4" NCoef="0" IVar="-1" Cut="0" cType="1" res="0.00205491" purity="0.473535" nType="-99"/>
            </Node>
            <Node pos="r" depth="3" NCoef="0" IVar="-1" Cut="0" cType="1" res="-0.00802199" purity="0.270408" nType="-99"/>
          </Node>
          <Node pos="r" depth="2" NCoef="0" IVar="4" Cut="392679" cType="1" res="0.0143933" purity="0.54049" nType="0">
            <Node pos="l" depth="3" NCoef="0" IVar="4" Cut="321301" cType="1" res="0.0188758" purity="0.550927" nType="0">
              <Node pos="l" depth="4" NCoef="0" IVar="-1" Cut="0" cType="1" res="0.000616663" purity="0.551695" nType="-99"/>
              <Node pos="r" depth="4" NCoef="0" IVar="-1" Cut="0" cType="1" res="0.00235499" purity="0.546424" nType="-99"/>
            </Node>
            <Node pos="r" depth="3" NCoef="0" IVar="-1" Cut="0" cType="1" res="-0.00135559" purity="0.446223" nType="-99"/>
          </Node>
        </Node>
        <Node pos="r" depth="1" NCoef="0" IVar="-1" Cut="0" cType="1" res="0.00292352" purity="0.511884" nType="-99"/>
      </Node>
    </BinaryTree>
    <BinaryTree type="DecisionTree" boostWeight="1.0" itree="244">
      <Node pos="s" depth="0" NCoef="0" IVar="3" Cut="124514" cType="1" res="0.0079113" purity="0.501266" nType="0">
        <Node pos="l" depth="1" NCoef="0" IVar="6" Cut="1.76241" cType="1" res="0.0469006" purity="0.544829" nType="0">
          <Node pos="l" depth="2" NCoef="0" IVar="-1" Cut="0" cType="1" res="-0.0012096" purity="0.487189" nType="-99"/>
          <Node pos="r" depth="2" NCoef="0" IVar="-1" Cut="0" cType="1" res="0.00448011" purity="0.595579" nType="-99"/>
        </Node>
        <Node pos="r" depth="1" NCoef="0" IVar="0" Cut="241455" cType="1" res="0.00298961" purity="0.495767" nType="0">
          <Node pos="l" depth="2" NCoef="0" IVar="5" Cut="0.927668" cType="1" res="-0.000172471" purity="0.487584" nType="0">
            <Node pos="l" depth="3" NCoef="0" IVar="3" Cut="179018" cType="1" res="-0.0331194" purity="0.478094" nType="0">
              <Node pos="l" depth="4" NCoef="0" IVar="-1" Cut="0" cType="1" res="-0.00313251" purity="0.457219" nType="-99"/>
              <Node pos="r" depth="4" NCoef="0" IVar="-1" Cut="0" cType="1" res="3.91684e-05" purity="0.507592" nType="-99"/>
            </Node>
            <Node pos="r" depth="3" NCoef="0" IVar="2" Cut="9212.39" cType="1" res="0.00666304" purity="0.489552" nType="0">
              <Node pos="l" depth="4" NCoef="0" IVar="-1" Cut="0" cType="1" res="-0.000225697" purity="0.437302" nType="-99"/>
              <Node pos="r" depth="4" NCoef="0" IVar="-1" Cut="0" cType="1" res="0.00127863" purity="0.600988" nType="-99"/>
            </Node>
          </Node>
          <Node pos="r" depth="2" NCoef="0" IVar="-1" Cut="0" cType="1" res="0.00232976" purity="0.633508" nType="-99"/>
        </Node>
      </Node>
    </BinaryTree>
    <BinaryTree type="DecisionTree" boostWeight="1.0" itree="245">
      <Node pos="s" depth="0" NCoef="0" IVar="5" Cut="1.16592" cType="1" res="0.00785597" purity="0.502127" nType="0">
        <Node pos="l" depth="1" NCoef="0" IVar="1" Cut="106150" cType="1" res="0.0299923" purity="0.544458" nType="0">
          <Node pos="l" depth="2" NCoef="0" IVar="6" Cut="2.14581" cType="1" res="0.0128453" purity="0.493796" nType="0">
            <Node pos="l" depth="3" NCoef="0" IVar="4" Cut="255889" cType="1" res="0.0355022" purity="0.534183" nType="0">
              <Node pos="l" depth="4" NCoef="0" IVar="-1" Cut="0" cType="1" res="0.000323847" purity="0.524402" nType="-99"/>
              <Node pos="r" depth="4" NCoef="0" IVar="-1" Cut="0" cType="1" res="0.00398376" purity="0.553144" nType="-99"/>
            </Node>
            <Node pos="r" depth="3" NCoef="0" IVar="6" Cut="2.63184" cType="1" res="-0.0169388" purity="0.440705" nType="0">
              <Node pos="l" depth="4" NCoef="0" IVar="-1" Cut="0" cType="1" res="-0.00429954" purity="0.412011" nType="-99"/>
              <Node pos="r" depth="4" NCoef="0" IVar="-1" Cut="0" cType="1" res="0.00137713" purity="0.461512" nType="-99"/>
            </Node>
          </Node>
          <Node pos="r" depth="2" NCoef="0" IVar="3" Cut="173990" cType="1" res="0.0565182" purity="0.62283" nType="0">
            <Node pos="l" depth="3" NCoef="0" IVar="5" Cut="0.905501" cType="1" res="0.0847182" purity="0.659781" nType="0">
              <Node pos="l" depth="4" NCoef="0" IVar="-1" Cut="0" cType="1" res="0.00405803" purity="0.705845" nType="-99"/>
              <Node pos="r" depth="4" NCoef="0" IVar="-1" Cut="0" cType="1" res="0.00280936" purity="0.618378" nType="-99"/>
            </Node>
            <Node pos="r" depth="3" NCoef="0" IVar="-1" Cut="0" cType="1" res="0.000536681" purity="0.56473" nType="-99"/>
          </Node>
        </Node>
        <Node pos="r" depth="1" NCoef="0" IVar="4" Cut="197936" cType="1" res="-0.00593256" purity="0.47576" nType="0">
          <Node pos="l" depth="2" NCoef="0" IVar="5" Cut="1.8404" cType="1" res="-0.0348587" purity="0.486871" nType="0">
            <Node pos="l" depth="3" NCoef="0" IVar="5" Cut="1.44538" cType="1" res="-0.0517812" purity="0.473558" nType="0">
              <Node pos="l" depth="4" NCoef="0" IVar="-1" Cut="0" cType="1" res="-0.0010956" purity="0.498925" nType="-99"/>
              <Node pos="r" depth="4" NCoef="0" IVar="-1" Cut="0" cType="1" res="-0.00491931" purity="0.442793" nType="-99"/>
            </Node>
            <Node pos="r" depth="3" NCoef="0" IVar="-1" Cut="0" cType="1" res="-0.000138806" purity="0.512051" nType="-99"/>
          </Node>
          <Node pos="r" depth="2" NCoef="0" IVar="4" Cut="212671" cType="1" res="0.00561931" purity="0.471323" nType="0">
            <Node pos="l" depth="3" NCoef="0" IVar="-1" Cut="0" cType="1" res="0.00289283" purity="0.572944" nType="-99"/>
            <Node pos="r" depth="3" NCoef="0" IVar="5" Cut="1.6478" cType="1" res="-0.00350973" purity="0.455891" nType="0">
              <Node pos="l" depth="4" NCoef="0" IVar="-1" Cut="0" cType="1" res="-0.00154925" purity="0.433221" nType="-99"/>
              <Node pos="r" depth="4" NCoef="0" IVar="-1" Cut="0" cType="1" res="0.000462819" purity="0.467274" nType="-99"/>
            </Node>
          </Node>
        </Node>
      </Node>
    </BinaryTree>
    <BinaryTree type="DecisionTree" boostWeight="1.0" itree="246">
      <Node pos="s" depth="0" NCoef="0" IVar="4" Cut="158603" cType="1" res="0.0140242" purity="0.508133" nType="0">
        <Node pos="l" depth="1" NCoef="0" IVar="6" Cut="1.68687" cType="1" res="0.0499093" purity="0.597516" nType="0">
          <Node pos="l" depth="2" NCoef="0" IVar="-1" Cut="0" cType="1" res="4.41929e-05" purity="0.552332" nType="-99"/>
          <Node pos="r" depth="2" NCoef="0" IVar="-1" Cut="0" cType="1" res="0.00361925" purity="0.631388" nType="-99"/>
        </Node>
        <Node pos="r" depth="1" NCoef="0" IVar="1" Cut="151461" cType="1" res="0.00908076" purity="0.495819" nType="0">
          <Node pos="l" depth="2" NCoef="0" IVar="3" Cut="136314" cType="1" res="0.00369135" purity="0.490544" nType="0">
            <Node pos="l" depth="3" NCoef="0" IVar="2" Cut="3222.9" cType="1" res="-0.0326879" purity="0.453005" nType="0">
              <Node pos="l" depth="4" NCoef="0" IVar="-1" Cut="0" cType="1" res="-0.000345673" purity="0.434853" nType="-99"/>
              <Node pos="r" depth="4" NCoef="0" IVar="-1" Cut="0" cType="1" res="-0.00350369" purity="0.476012" nType="-99"/>
            </Node>
            <Node pos="r" depth="3" NCoef="0" IVar="2" Cut="2716.04" cType="1" res="0.00992225" purity="0.496973" nType="0">
              <Node pos="l" depth="4" NCoef="0" IVar="-1" Cut="0" cType="1" res="-0.000472893" purity="0.420181" nType="-99"/>
              <Node pos="r" depth="4" NCoef="0" IVar="-1" Cut="0" cType="1" res="0.00121854" purity="0.569284" nType="-99"/>
            </Node>
          </Node>
          <Node pos="r" depth="2" NCoef="0" IVar="0" Cut="163426" cType="1" res="0.0323128" purity="0.518561" nType="0">
            <Node pos="l" depth="3" NCoef="0" IVar="1" Cut="176833" cType="1" res="0.055919" purity="0.519262" nType="0">
              <Node pos="l" depth="4" NCoef="0" IVar="-1" Cut="0" cType="1" res="0.000455282" purity="0.487927" nType="-99"/>
              <Node pos="r" depth="4" NCoef="0" IVar="-1" Cut="0" cType="1" res="0.00414364" purity="0.545302" nType="-99"/>
            </Node>
            <Node pos="r" depth="3" NCoef="0" IVar="-1" Cut="0" cType="1" res="-0.000896178" purity="0.517049" nType="-99"/>
          </Node>
        </Node>
      </Node>
    </BinaryTree>
    <BinaryTree type="DecisionTree" boostWeight="1.0" itree="247">
      <Node pos="s" depth="0" NCoef="0" IVar="4" Cut="392649" cType="1" res="0.00540418" purity="0.500705" nType="0">
        <Node pos="l" depth="1" NCoef="0" IVar="0" Cut="109762" cType="1" res="0.0100618" purity="0.511158" nType="0">
          <Node pos="l" depth="2" NCoef="0" IVar="5" Cut="1.57126" cType="1" res="0.0345487" purity="0.488669" nType="0">
            <Node pos="l" depth="3" NCoef="0" IVar="-1" Cut="0" cType="1" res="0.00326596" purity="0.535723" nType="-99"/>
            <Node pos="r" depth="3" NCoef="0" IVar="-1" Cut="0" cType="1" res="0.000234202" purity="0.450948" nType="-99"/>
          </Node>
          <Node pos="r" depth="2" NCoef="0" IVar="6" Cut="2.29872" cType="1" res="0.00400585" purity="0.51672" nType="0">
            <Node pos="l" depth="3" NCoef="0" IVar="4" Cut="221517" cType="1" res="0.0153138" purity="0.54846" nType="0">
              <Node pos="l" depth="4" NCoef="0" IVar="-1" Cut="0" cType="1" res="5.03837e-05" purity="0.557369" nType="-99"/>
              <Node pos="r" depth="4" NCoef="0" IVar="-1" Cut="0" cType="1" res="0.00138635" purity="0.538782" nType="-99"/>
            </Node>
            <Node pos="r" depth="3" NCoef="0" IVar="1" Cut="100240" cType="1" res="-0.0204615" purity="0.448042" nType="0">
              <Node pos="l" depth="4" NCoef="0" IVar="-1" Cut="0" cType="1" res="0.000798244" purity="0.458242" nType="-99"/>
              <Node pos="r" depth="4" NCoef="0" IVar="-1" Cut="0" cType="1" res="-0.00228547" purity="0.441798" nType="-99"/>
            </Node>
          </Node>
        </Node>
        <Node pos="r" depth="1" NCoef="0" IVar="6" Cut="2.06898" cType="1" res="-0.0463219" purity="0.384623" nType="0">
          <Node pos="l" depth="2" NCoef="0" IVar="-1" Cut="0" cType="1" res="-0.00487731" purity="0.371844" nType="-99"/>
          <Node pos="r" depth="2" NCoef="0" IVar="-1" Cut="0" cType="1" res="-0.0006793" purity="0.397866" nType="-99"/>
        </Node>
      </Node>
    </BinaryTree>
    <BinaryTree type="DecisionTree" boostWeight="1.0" itree="248">
      <Node pos="s" depth="0" NCoef="0" IVar="1" Cut="197473" cType="1" res="0.00955614" purity="0.505042" nType="0">
        <Node pos="l" depth="1" NCoef="0" IVar="6" Cut="2.22209" cType="1" res="0.00587965" purity="0.502528" nType="0">
          <Node pos="l" depth="2" NCoef="0" IVar="2" Cut="7213.76" cType="1" res="-0.00592808" purity="0.514586" nType="0">
            <Node pos="l" depth="3" NCoef="0" IVar="3" Cut="149577" cType="1" res="-0.0310939" purity="0.409799" nType="0">
              <Node pos="l" depth="4" NCoef="0" IVar="-1" Cut="0" cType="1" res="0.000771026" purity="0.45578" nType="-99"/>
              <Node pos="r" depth="4" NCoef="0" IVar="-1" Cut="0" cType="1" res="-0.00285052" purity="0.391635" nType="-99"/>
            </Node>
            <Node pos="r" depth="3" NCoef="0" IVar="3" Cut="142168" cType="1" res="0.0120595" purity="0.589483" nType="0">
              <Node pos="l" depth="4" NCoef="0" IVar="-1" Cut="0" cType="1" res="-0.00232042" purity="0.522988" nType="-99"/>
              <Node pos="r" depth="4" NCoef="0" IVar="-1" Cut="0" cType="1" res="0.00110556" purity="0.60462" nType="-99"/>
            </Node>
          </Node>
          <Node pos="r" depth="2" NCoef="0" IVar="3" Cut="182736" cType="1" res="0.0251407" purity="0.482858" nType="0">
            <Node pos="l" depth="3" NCoef="0" IVar="3" Cut="170837" cType="1" res="0.00378965" purity="0.463335" nType="0">
              <Node pos="l" depth="4" NCoef="0" IVar="-1" Cut="0" cType="1" res="0.000989339" purity="0.480076" nType="-99"/>
              <Node pos="r" depth="4" NCoef="0" IVar="-1" Cut="0" cType="1" res="-0.00244095" purity="0.414119" nType="-99"/>
            </Node>
            <Node pos="r" depth="3" NCoef="0" IVar="6" Cut="2.71546" cType="1" res="0.0683745" purity="0.52239" nType="0">
              <Node pos="l" depth="4" NCoef="0" IVar="-1" Cut="0" cType="1" res="0.00416176" purity="0.574802" nType="-99"/>
              <Node pos="r" depth="4" NCoef="0" IVar="-1" Cut="0" cType="1" res="0.00152973" purity="0.451045" nType="-99"/>
            </Node>
          </Node>
        </Node>
        <Node pos="r" depth="1" NCoef="0" IVar="-1" Cut="0" cType="1" res="0.00266578" purity="0.540924" nType="-99"/>
      </Node>
    </BinaryTree>
    <BinaryTree type="DecisionTree" boostWeight="1.0" itree="249">
      <Node pos="s" depth="0" NCoef="0" IVar="2" Cut="649.158" cType="1" res="0.00960715" purity="0.504154" nType="0">
        <Node pos="l" depth="1" NCoef="0" IVar="5" Cut="1.18745" cType="1" res="0.0257912" purity="0.45424" nType="0">
          <Node pos="l" depth="2" NCoef="0" IVar="4" Cut="221657" cType="1" res="0.0553342" purity="0.488545" nType="0">
            <Node pos="l" depth="3" NCoef="0" IVar="-1" Cut="0" cType="1" res="0.000497101" purity="0.449857" nType="-99"/>
            <Node pos="r" depth="3" NCoef="0" IVar="-1" Cut="0" cType="1" res="0.00415177" purity="0.521464" nType="-99"/>
          </Node>
          <Node pos="r" depth="2" NCoef="0" IVar="5" Cut="1.94992" cType="1" res="0.00998061" purity="0.435881" nType="0">
            <Node pos="l" depth="3" NCoef="0" IVar="1" Cut="114548" cType="1" res="-0.00960223" purity="0.421265" nType="0">
              <Node pos="l" depth="4" NCoef="0" IVar="-1" Cut="0" cType="1" res="-0.00275071" purity="0.369178" nType="-99"/>
              <Node pos="r" depth="4" NCoef="0" IVar="-1" Cut="0" cType="1" res="0.00191345" purity="0.497724" nType="-99"/>
            </Node>
            <Node pos="r" depth="3" NCoef="0" IVar="5" Cut="2.38588" cType="1" res="0.0385738" purity="0.457224" nType="0">
              <Node pos="l" depth="4" NCoef="0" IVar="-1" Cut="0" cType="1" res="0.00340078" purity="0.499718" nType="-99"/>
              <Node pos="r" depth="4" NCoef="0" IVar="-1" Cut="0" cType="1" res="0.000504262" purity="0.417193" nType="-99"/>
            </Node>
          </Node>
        </Node>
        <Node pos="r" depth="1" NCoef="0" IVar="4" Cut="158600" cType="1" res="-0.000900686" purity="0.536562" nType="0">
          <Node pos="l" depth="2" NCoef="0" IVar="-1" Cut="0" cType="1" res="0.00229307" purity="0.629526" nType="-99"/>
          <Node pos="r" depth="2" NCoef="0" IVar="0" Cut="139030" cType="1" res="-0.0111748" purity="0.51882" nType="0">
            <Node pos="l" depth="3" NCoef="0" IVar="0" Cut="105721" cType="1" res="0.00790572" purity="0.515452" nType="0">
              <Node pos="l" depth="4" NCoef="0" IVar="-1" Cut="0" cType="1" res="-0.00225552" purity="0.446141" nType="-99"/>
              <Node pos="r" depth="4" NCoef="0" IVar="-1" Cut="0" cType="1" res="0.000873502" purity="0.530393" nType="-99"/>
            </Node>
            <Node pos="r" depth="3" NCoef="0" IVar="2" Cut="5185.6" cType="1" res="-0.0335554" purity="0.522771" nType="0">
              <Node pos="l" depth="4" NCoef="0" IVar="-1" Cut="0" cType="1" res="-0.00449732" purity="0.406954" nType="-99"/>
              <Node pos="r" depth="4" NCoef="0" IVar="-1" Cut="0" cType="1" res="-0.000881798" purity="0.559336" nType="-99"/>
            </Node>
          </Node>
        </Node>
      </Node>
    </BinaryTree>
    <BinaryTree type="DecisionTree" boostWeight="1.0" itree="250">
      <Node pos="s" depth="0" NCoef="0" IVar="3" Cut="171361" cType="1" res="-0.00194411" purity="0.492266" nType="0">
        <Node pos="l" depth="1" NCoef="0" IVar="3" Cut="168646" cType="1" res="0.0124786" purity="0.513118" nType="0">
          <Node pos="l" depth="2" NCoef="0" IVar="6" Cut="0.68968" cType="1" res="0.00669383" purity="0.506076" nType="0">
            <Node pos="l" depth="3" NCoef="0" IVar="-1" Cut="0" cType="1" res="-0.00185402" purity="0.444426" nType="-99"/>
            <Node pos="r" depth="3" NCoef="0" IVar="6" Cut="1.16836" cType="1" res="0.0146866" purity="0.517997" nType="0">
              <Node pos="l" depth="4" NCoef="0" IVar="-1" Cut="0" cType="1" res="0.0023138" purity="0.574361" nType="-99"/>
              <Node pos="r" depth="4" NCoef="0" IVar="-1" Cut="0" cType="1" res="0.000345382" purity="0.506954" nType="-99"/>
            </Node>
          </Node>
          <Node pos="r" depth="2" NCoef="0" IVar="-1" Cut="0" cType="1" res="0.00311104" purity="0.582409" nType="-99"/>
        </Node>
        <Node pos="r" depth="1" NCoef="0" IVar="4" Cut="197763" cType="1" res="-0.0199838" purity="0.466185" nType="0">
          <Node pos="l" depth="2" NCoef="0" IVar="1" Cut="99969.3" cType="1" res="-0.0540809" purity="0.47069" nType="0">
            <Node pos="l" depth="3" NCoef="0" IVar="-1" Cut="0" cType="1" res="-0.00578963" purity="0.376522" nType="-99"/>
            <Node pos="r" depth="3" NCoef="0" IVar="-1" Cut="0" cType="1" res="-0.00168215" purity="0.522958" nType="-99"/>
          </Node>
          <Node pos="r" depth="2" NCoef="0" IVar="0" Cut="168265" cType="1" res="-0.00353349" purity="0.464012" nType="0">
            <Node pos="l" depth="3" NCoef="0" IVar="0" Cut="144956" cType="1" res="0.0141643" purity="0.462903" nType="0">
              <Node pos="l" depth="4" NCoef="0" IVar="-1" Cut="0" cType="1" res="-0.000634212" purity="0.425421" nType="-99"/>
              <Node pos="r" depth="4" NCoef="0" IVar="-1" Cut="0" cType="1" res="0.00367757" purity="0.577953" nType="-99"/>
            </Node>
            <Node pos="r" depth="3" NCoef="0" IVar="-1" Cut="0" cType="1" res="-0.00316856" purity="0.467628" nType="-99"/>
          </Node>
        </Node>
      </Node>
    </BinaryTree>
    <BinaryTree type="DecisionTree" boostWeight="1.0" itree="251">
      <Node pos="s" depth="0" NCoef="0" IVar="4" Cut="158601" cType="1" res="-0.0119112" purity="0.482596" nType="0">
        <Node pos="l" depth="1" NCoef="0" IVar="2" Cut="7459.66" cType="1" res="-0.0577946" purity="0.491298" nType="0">
          <Node pos="l" depth="2" NCoef="0" IVar="-1" Cut="0" cType="1" res="-0.00625745" purity="0.353493" nType="-99"/>
          <Node pos="r" depth="2" NCoef="0" IVar="-1" Cut="0" cType="1" res="-0.0013604" purity="0.596238" nType="-99"/>
        </Node>
        <Node pos="r" depth="1" NCoef="0" IVar="0" Cut="212185" cType="1" res="-0.00673384" purity="0.481614" nType="0">
          <Node pos="l" depth="2" NCoef="0" IVar="2" Cut="758.1" cType="1" res="-0.00169846" purity="0.478917" nType="0">
            <Node pos="l" depth="3" NCoef="0" IVar="2" Cut="-5206.22" cType="1" res="-0.0195237" purity="0.400078" nType="0">
              <Node pos="l" depth="4" NCoef="0" IVar="-1" Cut="0" cType="1" res="-2.35531e-05" purity="0.414226" nType="-99"/>
              <Node pos="r" depth="4" NCoef="0" IVar="-1" Cut="0" cType="1" res="-0.00288637" purity="0.378546" nType="-99"/>
            </Node>
            <Node pos="r" depth="3" NCoef="0" IVar="6" Cut="2.06343" cType="1" res="0.0108268" purity="0.534315" nType="0">
              <Node pos="l" depth="4" NCoef="0" IVar="-1" Cut="0" cType="1" res="2.00194e-05" purity="0.52599" nType="-99"/>
              <Node pos="r" depth="4" NCoef="0" IVar="-1" Cut="0" cType="1" res="0.00224488" purity="0.566025" nType="-99"/>
            </Node>
          </Node>
          <Node pos="r" depth="2" NCoef="0" IVar="-1" Cut="0" cType="1" res="-0.0030108" purity="0.50967" nType="-99"/>
        </Node>
      </Node>
    </BinaryTree>
    <BinaryTree type="DecisionTree" boostWeight="1.0" itree="252">
      <Node pos="s" depth="0" NCoef="0" IVar="0" Cut="143908" cType="1" res="0.0027291" purity="0.497745" nType="0">
        <Node pos="l" depth="1" NCoef="0" IVar="2" Cut="-16326.4" cType="1" res="0.014142" purity="0.484698" nType="0">
          <Node pos="l" depth="2" NCoef="0" IVar="-1" Cut="0" cType="1" res="-0.00440794" purity="0.320757" nType="-99"/>
          <Node pos="r" depth="2" NCoef="0" IVar="2" Cut="-2331.99" cType="1" res="0.0203614" purity="0.497531" nType="0">
            <Node pos="l" depth="3" NCoef="0" IVar="0" Cut="124628" cType="1" res="0.0539701" purity="0.459945" nType="0">
              <Node pos="l" depth="4" NCoef="0" IVar="-1" Cut="0" cType="1" res="0.00116489" purity="0.415241" nType="-99"/>
              <Node pos="r" depth="4" NCoef="0" IVar="-1" Cut="0" cType="1" res="0.00515683" purity="0.543915" nType="-99"/>
            </Node>
            <Node pos="r" depth="3" NCoef="0" IVar="5" Cut="1.15663" cType="1" res="0.00749071" purity="0.511924" nType="0">
              <Node pos="l" depth="4" NCoef="0" IVar="-1" Cut="0" cType="1" res="-0.00111925" purity="0.489674" nType="-99"/>
              <Node pos="r" depth="4" NCoef="0" IVar="-1" Cut="0" cType="1" res="0.000875872" purity="0.520155" nType="-99"/>
            </Node>
          </Node>
        </Node>
        <Node pos="r" depth="1" NCoef="0" IVar="5" Cut="1.40709" cType="1" res="-0.015867" purity="0.519003" nType="0">
          <Node pos="l" depth="2" NCoef="0" IVar="5" Cut="0.678675" cType="1" res="0.0011227" purity="0.538819" nType="0">
            <Node pos="l" depth="3" NCoef="0" IVar="-1" Cut="0" cType="1" res="-0.00359604" purity="0.494981" nType="-99"/>
            <Node pos="r" depth="3" NCoef="0" IVar="3" Cut="189066" cType="1" res="0.0151981" purity="0.547272" nType="0">
              <Node pos="l" depth="4" NCoef="0" IVar="-1" Cut="0" cType="1" res="0.00124719" purity="0.563682" nType="-99"/>
              <Node pos="r" depth="4" NCoef="0" IVar="-1" Cut="0" cType="1" res="-0.00153394" purity="0.486701" nType="-99"/>
            </Node>
          </Node>
          <Node pos="r" depth="2" NCoef="0" IVar="0" Cut="170497" cType="1" res="-0.0507942" purity="0.478267" nType="0">
            <Node pos="l" depth="3" NCoef="0" IVar="-1" Cut="0" cType="1" res="-0.00575383" purity="0.409473" nType="-99"/>
            <Node pos="r" depth="3" NCoef="0" IVar="-1" Cut="0" cType="1" res="-0.000191853" purity="0.541966" nType="-99"/>
          </Node>
        </Node>
      </Node>
    </BinaryTree>
    <BinaryTree type="DecisionTree" boostWeight="1.0" itree="253">
      <Node pos="s" depth="0" NCoef="0" IVar="3" Cut="182549" cType="1" res="-0.000410847" purity="0.494078" nType="0">
        <Node pos="l" depth="1" NCoef="0" IVar="4" Cut="412270" cType="1" res="-0.0105474" purity="0.488795" nType="0">
          <Node pos="l" depth="2" NCoef="0" IVar="3" Cut="155725" cType="1" res="-0.00570842" purity="0.498749" nType="0">
            <Node pos="l" depth="3" NCoef="0" IVar="5" Cut="2.07954" cType="1" res="-0.0214682" purity="0.484605" nType="0">
              <Node pos="l" depth="4" NCoef="0" IVar="-1" Cut="0" cType="1" res="-0.000235532" purity="0.508268" nType="-99"/>
              <Node pos="r" depth="4" NCoef="0" IVar="-1" Cut="0" cType="1" res="-0.00475757" purity="0.395964" nType="-99"/>
            </Node>
            <Node pos="r" depth="3" NCoef="0" IVar="3" Cut="174039" cType="1" res="0.00705631" purity="0.510206" nType="0">
              <Node pos="l" depth="4" NCoef="0" IVar="-1" Cut="0" cType="1" res="0.00132529" purity="0.536313" nType="-99"/>
              <Node pos="r" depth="4" NCoef="0" IVar="-1" Cut="0" cType="1" res="-0.00261976" purity="0.443507" nType="-99"/>
            </Node>
          </Node>
          <Node pos="r" depth="2" NCoef="0" IVar="-1" Cut="0" cType="1" res="-0.00582598" purity="0.32885" nType="-99"/>
        </Node>
        <Node pos="r" depth="1" NCoef="0" IVar="0" Cut="129278" cType="1" res="0.0220133" purity="0.505765" nType="0">
          <Node pos="l" depth="2" NCoef="0" IVar="4" Cut="226877" cType="1" res="-0.0134944" purity="0.434657" nType="0">
            <Node pos="l" depth="3" NCoef="0" IVar="-1" Cut="0" cType="1" res="0.00151768" purity="0.514015" nType="-99"/>
            <Node pos="r" depth="3" NCoef="0" IVar="-1" Cut="0" cType="1" res="-0.00437756" purity="0.341933" nType="-99"/>
          </Node>
          <Node pos="r" depth="2" NCoef="0" IVar="5" Cut="1.30014" cType="1" res="0.0471122" purity="0.556028" nType="0">
            <Node pos="l" depth="3" NCoef="0" IVar="5" Cut="0.89646" cType="1" res="0.0109018" purity="0.525329" nType="0">
              <Node pos="l" depth="4" NCoef="0" IVar="-1" Cut="0" cType="1" res="0.00177871" purity="0.557471" nType="-99"/>
              <Node pos="r" depth="4" NCoef="0" IVar="-1" Cut="0" cType="1" res="-0.000798539" purity="0.495191" nType="-99"/>
            </Node>
            <Node pos="r" depth="3" NCoef="0" IVar="-1" Cut="0" cType="1" res="0.00345529" purity="0.587366" nType="-99"/>
          </Node>
        </Node>
      </Node>
    </BinaryTree>
    <BinaryTree type="DecisionTree" boostWeight="1.0" itree="254">
      <Node pos="s" depth="0" NCoef="0" IVar="6" Cut="2.45195" cType="1" res="0.00087117" purity="0.498686" nType="0">
        <Node pos="l" depth="1" NCoef="0" IVar="1" Cut="105342" cType="1" res="0.0113719" purity="0.529124" nType="0">
          <Node pos="l" depth="2" NCoef="0" IVar="5" Cut="1.26797" cType="1" res="-0.0160257" purity="0.464449" nType="0">
            <Node pos="l" depth="3" NCoef="0" IVar="6" Cut="1.97343" cType="1" res="-0.0371418" purity="0.456531" nType="0">
              <Node pos="l" depth="4" NCoef="0" IVar="-1" Cut="0" cType="1" res="-0.000991102" purity="0.471108" nType="-99"/>
              <Node pos="r" depth="4" NCoef="0" IVar="-1" Cut="0" cType="1" res="-0.0048537" purity="0.417512" nType="-99"/>
            </Node>
            <Node pos="r" depth="3" NCoef="0" IVar="6" Cut="1.67379" cType="1" res="0.0159454" purity="0.476437" nType="0">
              <Node pos="l" depth="4" NCoef="0" IVar="-1" Cut="0" cType="1" res="-0.000310547" purity="0.456574" nType="-99"/>
              <Node pos="r" depth="4" NCoef="0" IVar="-1" Cut="0" cType="1" res="0.00192056" purity="0.496777" nType="-99"/>
            </Node>
          </Node>
          <Node pos="r" depth="2" NCoef="0" IVar="2" Cut="4205.75" cType="1" res="0.0266523" purity="0.565194" nType="0">
            <Node pos="l" depth="3" NCoef="0" IVar="4" Cut="288202" cType="1" res="-0.00388661" purity="0.448618" nType="0">
              <Node pos="l" depth="4" NCoef="0" IVar="-1" Cut="0" cType="1" res="0.000869483" purity="0.489928" nType="-99"/>
              <Node pos="r" depth="4" NCoef="0" IVar="-1" Cut="0" cType="1" res="-0.00257766" purity="0.375663" nType="-99"/>
            </Node>
            <Node pos="r" depth="3" NCoef="0" IVar="3" Cut="189925" cType="1" res="0.0398161" purity="0.615444" nType="0">
              <Node pos="l" depth="4" NCoef="0" IVar="-1" Cut="0" cType="1" res="0.0023018" purity="0.634334" nType="-99"/>
              <Node pos="r" depth="4" NCoef="0" IVar="-1" Cut="0" cType="1" res="-0.00105435" purity="0.534599" nType="-99"/>
            </Node>
          </Node>
        </Node>
        <Node pos="r" depth="1" NCoef="0" IVar="1" Cut="100251" cType="1" res="-0.0303573" purity="0.408168" nType="0">
          <Node pos="l" depth="2" NCoef="0" IVar="1" Cut="94249.2" cType="1" res="0.00779949" purity="0.42878" nType="0">
            <Node pos="l" depth="3" NCoef="0" IVar="-1" Cut="0" cType="1" res="-0.00166734" purity="0.397514" nType="-99"/>
            <Node pos="r" depth="3" NCoef="0" IVar="-1" Cut="0" cType="1" res="0.00197241" purity="0.453962" nType="-99"/>
          </Node>
          <Node pos="r" depth="2" NCoef="0" IVar="3" Cut="189028" cType="1" res="-0.0527274" purity="0.396084" nType="0">
            <Node pos="l" depth="3" NCoef="0" IVar="5" Cut="1.71837" cType="1" res="-0.0746571" purity="0.373853" nType="0">
              <Node pos="l" depth="4" NCoef="0" IVar="-1" Cut="0" cType="1" res="-0.00715909" purity="0.356629" nType="-99"/>
              <Node pos="r" depth="4" NCoef="0" IVar="-1" Cut="0" cType="1" res="-0.000841211" purity="0.402471" nType="-99"/>
            </Node>
            <Node pos="r" depth="3" NCoef="0" IVar="-1" Cut="0" cType="1" res="0.000376029" purity="0.456955" nType="-99"/>
          </Node>
        </Node>
      </Node>
    </BinaryTree>
    <BinaryTree type="DecisionTree" boostWeight="1.0" itree="255">
      <Node pos="s" depth="0" NCoef="0" IVar="0" Cut="119520" cType="1" res="0.00398268" purity="0.499261" nType="0">
        <Node pos="l" depth="1" NCoef="0" IVar="3" Cut="153820" cType="1" res="-0.0238382" purity="0.427047" nType="0">
          <Node pos="l" depth="2" NCoef="0" IVar="5" Cut="1.62441" cType="1" res="0.0276437" purity="0.483594" nType="0">
            <Node pos="l" depth="3" NCoef="0" IVar="-1" Cut="0" cType="1" res="0.00269991" purity="0.519591" nType="-99"/>
            <Node pos="r" depth="3" NCoef="0" IVar="-1" Cut="0" cType="1" res="-0.000118953" purity="0.449278" nType="-99"/>
          </Node>
          <Node pos="r" depth="2" NCoef="0" IVar="3" Cut="182195" cType="1" res="-0.0506514" purity="0.397597" nType="0">
            <Node pos="l" depth="3" NCoef="0" IVar="0" Cut="109994" cType="1" res="-0.0310989" purity="0.429072" nType="0">
              <Node pos="l" depth="4" NCoef="0" IVar="-1" Cut="0" cType="1" res="-0.0039102" purity="0.387106" nType="-99"/>
              <Node pos="r" depth="4" NCoef="0" IVar="-1" Cut="0" cType="1" res="0.000440495" purity="0.478086" nType="-99"/>
            </Node>
            <Node pos="r" depth="3" NCoef="0" IVar="3" Cut="199323" cType="1" res="-0.0798968" purity="0.350519" nType="0">
              <Node pos="l" depth="4" NCoef="0" IVar="-1" Cut="0" cType="1" res="-0.0093174" purity="0.30448" nType="-99"/>
              <Node pos="r" depth="4" NCoef="0" IVar="-1" Cut="0" cType="1" res="-0.00189481" purity="0.393044" nType="-99"/>
            </Node>
          </Node>
        </Node>
        <Node pos="r" depth="1" NCoef="0" IVar="1" Cut="202567" cType="1" res="0.0170957" purity="0.533298" nType="0">
          <Node pos="l" depth="2" NCoef="0" IVar="4" Cut="373287" cType="1" res="0.0219518" purity="0.53968" nType="0">
            <Node pos="l" depth="3" NCoef="0" IVar="5" Cut="0.785935" cType="1" res="0.0274881" purity="0.552923" nType="0">
              <Node pos="l" depth="4" NCoef="0" IVar="-1" Cut="0" cType="1" res="-0.000159523" purity="0.556375" nType="-99"/>
              <Node pos="r" depth="4" NCoef="0" IVar="-1" Cut="0" cType="1" res="0.0015025" purity="0.552339" nType="-99"/>
            </Node>
            <Node pos="r" depth="3" NCoef="0" IVar="-1" Cut="0" cType="1" res="-0.00106732" purity="0.437777" nType="-99"/>
          </Node>
          <Node pos="r" depth="2" NCoef="0" IVar="-1" Cut="0" cType="1" res="-0.00312143" purity="0.432243" nType="-99"/>
        </Node>
      </Node>
    </BinaryTree>
    <BinaryTree type="DecisionTree" boostWeight="1.0" itree="256">
      <Node pos="s" depth="0" NCoef="0" IVar="1" Cut="120733" cType="1" res="0.0028381" purity="0.497444" nType="0">
        <Node pos="l" depth="1" NCoef="0" IVar="3" Cut="206561" cType="1" res="-0.00963323" purity="0.471251" nType="0">
          <Node pos="l" depth="2" NCoef="0" IVar="6" Cut="2.60523" cType="1" res="-0.0041244" purity="0.478931" nType="0">
            <Node pos="l" depth="3" NCoef="0" IVar="1" Cut="101243" cType="1" res="-0.0133048" purity="0.488022" nType="0">
              <Node pos="l" depth="4" NCoef="0" IVar="-1" Cut="0" cType="1" res="-0.00161271" purity="0.446325" nType="-99"/>
              <Node pos="r" depth="4" NCoef="0" IVar="-1" Cut="0" cType="1" res="8.30815e-05" purity="0.525" nType="-99"/>
            </Node>
            <Node pos="r" depth="3" NCoef="0" IVar="0" Cut="148757" cType="1" res="0.023795" purity="0.451283" nType="0">
              <Node pos="l" depth="4" NCoef="0" IVar="-1" Cut="0" cType="1" res="0.00277068" purity="0.44482" nType="-99"/>
              <Node pos="r" depth="4" NCoef="0" IVar="-1" Cut="0" cType="1" res="-0.00106452" purity="0.461225" nType="-99"/>
            </Node>
          </Node>
          <Node pos="r" depth="2" NCoef="0" IVar="-1" Cut="0" cType="1" res="-0.00351993" purity="0.401391" nType="-99"/>
        </Node>
        <Node pos="r" depth="1" NCoef="0" IVar="6" Cut="2.22205" cType="1" res="0.0231469" purity="0.540099" nType="0">
          <Node pos="l" depth="2" NCoef="0" IVar="1" Cut="155691" cType="1" res="0.0393496" purity="0.578182" nType="0">
            <Node pos="l" depth="3" NCoef="0" IVar="5" Cut="2.05633" cType="1" res="0.0577203" purity="0.617108" nType="0">
              <Node pos="l" depth="4" NCoef="0" IVar="-1" Cut="0" cType="1" res="0.00137743" purity="0.626285" nType="-99"/>
              <Node pos="r" depth="4" NCoef="0" IVar="-1" Cut="0" cType="1" res="0.00393762" purity="0.604124" nType="-99"/>
            </Node>
            <Node pos="r" depth="3" NCoef="0" IVar="4" Cut="307551" cType="1" res="0.0106238" purity="0.517314" nType="0">
              <Node pos="l" depth="4" NCoef="0" IVar="-1" Cut="0" cType="1" res="-0.00154279" purity="0.504419" nType="-99"/>
              <Node pos="r" depth="4" NCoef="0" IVar="-1" Cut="0" cType="1" res="0.00237093" purity="0.52943" nType="-99"/>
            </Node>
          </Node>
          <Node pos="r" depth="2" NCoef="0" IVar="3" Cut="165764" cType="1" res="-0.0190991" purity="0.440804" nType="0">
            <Node pos="l" depth="3" NCoef="0" IVar="-1" Cut="0" cType="1" res="-0.00419733" purity="0.388028" nType="-99"/>
            <Node pos="r" depth="3" NCoef="0" IVar="-1" Cut="0" cType="1" res="0.00080659" purity="0.476776" nType="-99"/>
          </Node>
        </Node>
      </Node>
    </BinaryTree>
    <BinaryTree type="DecisionTree" boostWeight="1.0" itree="257">
      <Node pos="s" depth="0" NCoef="0" IVar="0" Cut="114642" cType="1" res="0.00788351" purity="0.501559" nType="0">
        <Node pos="l" depth="1" NCoef="0" IVar="5" Cut="1.39683" cType="1" res="0.0309923" purity="0.477077" nType="0">
          <Node pos="l" depth="2" NCoef="0" IVar="3" Cut="169628" cType="1" res="-0.0195761" purity="0.424237" nType="0">
            <Node pos="l" depth="3" NCoef="0" IVar="-1" Cut="0" cType="1" res="-0.00249185" purity="0.402999" nType="-99"/>
            <Node pos="r" depth="3" NCoef="0" IVar="-1" Cut="0" cType="1" res="0.000198555" purity="0.444455" nType="-99"/>
          </Node>
          <Node pos="r" depth="2" NCoef="0" IVar="0" Cut="108928" cType="1" res="0.0536103" purity="0.500711" nType="0">
            <Node pos="l" depth="3" NCoef="0" IVar="2" Cut="-192.091" cType="1" res="0.0360908" purity="0.478017" nType="0">
              <Node pos="l" depth="4" NCoef="0" IVar="-1" Cut="0" cType="1" res="0.000904773" purity="0.394978" nType="-99"/>
              <Node pos="r" depth="4" NCoef="0" IVar="-1" Cut="0" cType="1" res="0.00237109" purity="0.539973" nType="-99"/>
            </Node>
            <Node pos="r" depth="3" NCoef="0" IVar="-1" Cut="0" cType="1" res="0.00372467" purity="0.541306" nType="-99"/>
          </Node>
        </Node>
        <Node pos="r" depth="1" NCoef="0" IVar="0" Cut="150820" cType="1" res="-0.000743211" purity="0.510699" nType="0">
          <Node pos="l" depth="2" NCoef="0" IVar="1" Cut="95127.4" cType="1" res="-0.0192944" purity="0.471311" nType="0">
            <Node pos="l" depth="3" NCoef="0" IVar="-1" Cut="0" cType="1" res="0.00148363" purity="0.481332" nType="-99"/>
            <Node pos="r" depth="3" NCoef="0" IVar="6" Cut="2.37505" cType="1" res="-0.0290593" purity="0.469312" nType="0">
              <Node pos="l" depth="4" NCoef="0" IVar="-1" Cut="0" cType="1" res="-0.000582168" purity="0.508061" nType="-99"/>
              <Node pos="r" depth="4" NCoef="0" IVar="-1" Cut="0" cType="1" res="-0.0052102" purity="0.351693" nType="-99"/>
            </Node>
          </Node>
          <Node pos="r" depth="2" NCoef="0" IVar="3" Cut="182648" cType="1" res="0.0190323" purity="0.552686" nType="0">
            <Node pos="l" depth="3" NCoef="0" IVar="0" Cut="172654" cType="1" res="0.00186048" purity="0.53997" nType="0">
              <Node pos="l" depth="4" NCoef="0" IVar="-1" Cut="0" cType="1" res="0.00167861" purity="0.538508" nType="-99"/>
              <Node pos="r" depth="4" NCoef="0" IVar="-1" Cut="0" cType="1" res="-0.000924656" purity="0.540839" nType="-99"/>
            </Node>
            <Node pos="r" depth="3" NCoef="0" IVar="6" Cut="2.22246" cType="1" res="0.0526386" purity="0.57757" nType="0">
              <Node pos="l" depth="4" NCoef="0" IVar="-1" Cut="0" cType="1" res="0.000139747" purity="0.5427" nType="-99"/>
              <Node pos="r" depth="4" NCoef="0" IVar="-1" Cut="0" cType="1" res="0.0042456" purity="0.616236" nType="-99"/>
            </Node>
          </Node>
        </Node>
      </Node>
    </BinaryTree>
    <BinaryTree type="DecisionTree" boostWeight="1.0" itree="258">
      <Node pos="s" depth="0" NCoef="0" IVar="5" Cut="1.00452" cType="1" res="0.00168834" purity="0.494796" nType="0">
        <Node pos="l" depth="1" NCoef="0" IVar="5" Cut="0.714128" cType="1" res="0.0231558" purity="0.540933" nType="0">
          <Node pos="l" depth="2" NCoef="0" IVar="-1" Cut="0" cType="1" res="-0.000381461" purity="0.540691" nType="-99"/>
          <Node pos="r" depth="2" NCoef="0" IVar="2" Cut="-890.951" cType="1" res="0.0368664" purity="0.541039" nType="0">
            <Node pos="l" depth="3" NCoef="0" IVar="-1" Cut="0" cType="1" res="0.00350983" purity="0.501556" nType="-99"/>
            <Node pos="r" depth="3" NCoef="0" IVar="6" Cut="1.45115" cType="1" res="0.0196942" purity="0.56015" nType="0">
              <Node pos="l" depth="4" NCoef="0" IVar="-1" Cut="0" cType="1" res="-0.00139151" purity="0.477404" nType="-99"/>
              <Node pos="r" depth="4" NCoef="0" IVar="-1" Cut="0" cType="1" res="0.00198508" purity="0.60444" nType="-99"/>
            </Node>
          </Node>
        </Node>
        <Node pos="r" depth="1" NCoef="0" IVar="0" Cut="109764" cType="1" res="-0.00587094" purity="0.47855" nType="0">
          <Node pos="l" depth="2" NCoef="0" IVar="1" Cut="114781" cType="1" res="0.0177017" purity="0.458995" nType="0">
            <Node pos="l" depth="3" NCoef="0" IVar="-1" Cut="0" cType="1" res="0.00216393" purity="0.471576" nType="-99"/>
            <Node pos="r" depth="3" NCoef="0" IVar="-1" Cut="0" cType="1" res="-0.000726198" purity="0.44279" nType="-99"/>
          </Node>
          <Node pos="r" depth="2" NCoef="0" IVar="3" Cut="195467" cType="1" res="-0.012827" purity="0.484321" nType="0">
            <Node pos="l" depth="3" NCoef="0" IVar="0" Cut="174715" cType="1" res="-0.0057264" purity="0.493826" nType="0">
              <Node pos="l" depth="4" NCoef="0" IVar="-1" Cut="0" cType="1" res="-0.000721924" purity="0.471883" nType="-99"/>
              <Node pos="r" depth="4" NCoef="0" IVar="-1" Cut="0" cType="1" res="0.00126162" purity="0.582506" nType="-99"/>
            </Node>
            <Node pos="r" depth="3" NCoef="0" IVar="5" Cut="1.63019" cType="1" res="-0.0483854" purity="0.436721" nType="0">
              <Node pos="l" depth="4" NCoef="0" IVar="-1" Cut="0" cType="1" res="-0.00492285" purity="0.402897" nType="-99"/>
              <Node pos="r" depth="4" NCoef="0" IVar="-1" Cut="0" cType="1" res="-0.000817012" purity="0.466874" nType="-99"/>
            </Node>
          </Node>
        </Node>
      </Node>
    </BinaryTree>
    <BinaryTree type="DecisionTree" boostWeight="1.0" itree="259">
      <Node pos="s" depth="0" NCoef="0" IVar="6" Cut="1.9156" cType="1" res="0.00549401" purity="0.498181" nType="0">
        <Node pos="l" depth="1" NCoef="0" IVar="1" Cut="156531" cType="1" res="-0.00620729" purity="0.507749" nType="0">
          <Node pos="l" depth="2" NCoef="0" IVar="5" Cut="2.30539" cType="1" res="0.00235368" purity="0.51756" nType="0">
            <Node pos="l" depth="3" NCoef="0" IVar="5" Cut="1.80496" cType="1" res="-0.00874518" purity="0.507791" nType="0">
              <Node pos="l" depth="4" NCoef="0" IVar="-1" Cut="0" cType="1" res="0.000169515" purity="0.518663" nType="-99"/>
              <Node pos="r" depth="4" NCoef="0" IVar="-1" Cut="0" cType="1" res="-0.00400324" purity="0.449451" nType="-99"/>
            </Node>
            <Node pos="r" depth="3" NCoef="0" IVar="-1" Cut="0" cType="1" res="0.00272449" purity="0.570705" nType="-99"/>
          </Node>
          <Node pos="r" depth="2" NCoef="0" IVar="-1" Cut="0" cType="1" res="-0.00283469" purity="0.45458" nType="-99"/>
        </Node>
        <Node pos="r" depth="1" NCoef="0" IVar="6" Cut="2.72296" cType="1" res="0.0176602" purity="0.488233" nType="0">
          <Node pos="l" depth="2" NCoef="0" IVar="5" Cut="2.07261" cType="1" res="0.0335592" purity="0.526864" nType="0">
            <Node pos="l" depth="3" NCoef="0" IVar="4" Cut="324568" cType="1" res="0.0441958" purity="0.548463" nType="0">
              <Node pos="l" depth="4" NCoef="0" IVar="-1" Cut="0" cType="1" res="0.00157292" purity="0.548776" nType="-99"/>
              <Node pos="r" depth="4" NCoef="0" IVar="-1" Cut="0" cType="1" res="0.00389635" purity="0.547131" nType="-99"/>
            </Node>
            <Node pos="r" depth="3" NCoef="0" IVar="-1" Cut="0" cType="1" res="-0.00175339" purity="0.397871" nType="-99"/>
          </Node>
          <Node pos="r" depth="2" NCoef="0" IVar="0" Cut="153649" cType="1" res="-0.0170419" purity="0.403915" nType="0">
            <Node pos="l" depth="3" NCoef="0" IVar="0" Cut="119639" cType="1" res="-0.0501937" purity="0.333557" nType="0">
              <Node pos="l" depth="4" NCoef="0" IVar="-1" Cut="0" cType="1" res="0.00026095" purity="0.36712" nType="-99"/>
              <Node pos="r" depth="4" NCoef="0" IVar="-1" Cut="0" cType="1" res="-0.00808037" purity="0.294134" nType="-99"/>
            </Node>
            <Node pos="r" depth="3" NCoef="0" IVar="-1" Cut="0" cType="1" res="0.00172274" purity="0.518827" nType="-99"/>
          </Node>
        </Node>
      </Node>
    </BinaryTree>
    <BinaryTree type="DecisionTree" boostWeight="1.0" itree="260">
      <Node pos="s" depth="0" NCoef="0" IVar="2" Cut="24530.2" cType="1" res="-9.60616e-05" purity="0.494851" nType="0">
        <Node pos="l" depth="1" NCoef="0" IVar="6" Cut="0.22995" cType="1" res="-0.00478064" purity="0.472042" nType="0">
          <Node pos="l" depth="2" NCoef="0" IVar="-1" Cut="0" cType="1" res="0.00286515" purity="0.530326" nType="-99"/>
          <Node pos="r" depth="2" NCoef="0" IVar="4" Cut="324600" cType="1" res="-0.00872002" purity="0.468704" nType="0">
            <Node pos="l" depth="3" NCoef="0" IVar="6" Cut="0.656463" cType="1" res="-0.0168459" purity="0.473997" nType="0">
              <Node pos="l" depth="4" NCoef="0" IVar="-1" Cut="0" cType="1" res="-0.00423873" purity="0.390082" nType="-99"/>
              <Node pos="r" depth="4" NCoef="0" IVar="-1" Cut="0" cType="1" res="-0.000553295" purity="0.482377" nType="-99"/>
            </Node>
            <Node pos="r" depth="3" NCoef="0" IVar="6" Cut="1.4377" cType="1" res="0.0210717" purity="0.449299" nType="0">
              <Node pos="l" depth="4" NCoef="0" IVar="-1" Cut="0" cType="1" res="0.00346822" purity="0.510319" nType="-99"/>
              <Node pos="r" depth="4" NCoef="0" IVar="-1" Cut="0" cType="1" res="-0.0003115" purity="0.419768" nType="-99"/>
            </Node>
          </Node>
        </Node>
        <Node pos="r" depth="1" NCoef="0" IVar="-1" Cut="0" cType="1" res="0.00176652" purity="0.702081" nType="-99"/>
      </Node>
    </BinaryTree>
    <BinaryTree type="DecisionTree" boostWeight="1.0" itree="261">
      <Node pos="s" depth="0" NCoef="0" IVar="1" Cut="95119.6" cType="1" res="-0.00421327" purity="0.490292" nType="0">
        <Node pos="l" depth="1" NCoef="0" IVar="6" Cut="2.2987" cType="1" res="0.0309207" purity="0.49626" nType="0">
          <Node pos="l" depth="2" NCoef="0" IVar="4" Cut="188140" cType="1" res="-0.004582" purity="0.478497" nType="0">
            <Node pos="l" depth="3" NCoef="0" IVar="-1" Cut="0" cType="1" res="0.0015106" purity="0.544933" nType="-99"/>
            <Node pos="r" depth="3" NCoef="0" IVar="-1" Cut="0" cType="1" res="-0.00244198" purity="0.410575" nType="-99"/>
          </Node>
          <Node pos="r" depth="2" NCoef="0" IVar="-1" Cut="0" cType="1" res="0.00380612" purity="0.521648" nType="-99"/>
        </Node>
        <Node pos="r" depth="1" NCoef="0" IVar="4" Cut="402557" cType="1" res="-0.0113287" purity="0.489083" nType="0">
          <Node pos="l" depth="2" NCoef="0" IVar="4" Cut="343564" cType="1" res="-0.0154087" purity="0.49175" nType="0">
            <Node pos="l" depth="3" NCoef="0" IVar="4" Cut="201364" cType="1" res="-0.00993539" purity="0.502721" nType="0">
              <Node pos="l" depth="4" NCoef="0" IVar="-1" Cut="0" cType="1" res="-0.00172018" purity="0.50915" nType="-99"/>
              <Node pos="r" depth="4" NCoef="0" IVar="-1" Cut="0" cType="1" res="0.000305477" purity="0.498501" nType="-99"/>
            </Node>
            <Node pos="r" depth="3" NCoef="0" IVar="-1" Cut="0" cType="1" res="-0.00408621" purity="0.385146" nType="-99"/>
          </Node>
          <Node pos="r" depth="2" NCoef="0" IVar="-1" Cut="0" cType="1" res="0.00167815" purity="0.459669" nType="-99"/>
        </Node>
      </Node>
    </BinaryTree>
    <BinaryTree type="DecisionTree" boostWeight="1.0" itree="262">
      <Node pos="s" depth="0" NCoef="0" IVar="1" Cut="202653" cType="1" res="0.00682226" purity="0.500731" nType="0">
        <Node pos="l" depth="1" NCoef="0" IVar="6" Cut="2.68182" cType="1" res="0.0106929" purity="0.50545" nType="0">
          <Node pos="l" depth="2" NCoef="0" IVar="2" Cut="-9536.81" cType="1" res="0.00316506" purity="0.513774" nType="0">
            <Node pos="l" depth="3" NCoef="0" IVar="-1" Cut="0" cType="1" res="-0.00348407" purity="0.364033" nType="-99"/>
            <Node pos="r" depth="3" NCoef="0" IVar="4" Cut="217132" cType="1" res="0.00751888" purity="0.524943" nType="0">
              <Node pos="l" depth="4" NCoef="0" IVar="-1" Cut="0" cType="1" res="0.00107679" purity="0.56506" nType="-99"/>
              <Node pos="r" depth="4" NCoef="0" IVar="-1" Cut="0" cType="1" res="-0.000503276" purity="0.480891" nType="-99"/>
            </Node>
          </Node>
          <Node pos="r" depth="2" NCoef="0" IVar="6" Cut="2.79412" cType="1" res="0.0432935" purity="0.469401" nType="0">
            <Node pos="l" depth="3" NCoef="0" IVar="-1" Cut="0" cType="1" res="0.00452363" purity="0.544541" nType="-99"/>
            <Node pos="r" depth="3" NCoef="0" IVar="3" Cut="183145" cType="1" res="0.0201235" purity="0.438897" nType="0">
              <Node pos="l" depth="4" NCoef="0" IVar="-1" Cut="0" cType="1" res="-0.000145962" purity="0.416891" nType="-99"/>
              <Node pos="r" depth="4" NCoef="0" IVar="-1" Cut="0" cType="1" res="0.00317941" purity="0.481706" nType="-99"/>
            </Node>
          </Node>
        </Node>
        <Node pos="r" depth="1" NCoef="0" IVar="-1" Cut="0" cType="1" res="-0.00440123" purity="0.401447" nType="-99"/>
      </Node>
    </BinaryTree>
    <BinaryTree type="DecisionTree" boostWeight="1.0" itree="263">
      <Node pos="s" depth="0" NCoef="0" IVar="3" Cut="124559" cType="1" res="-0.0023008" purity="0.491542" nType="0">
        <Node pos="l" depth="1" NCoef="0" IVar="1" Cut="120733" cType="1" res="-0.0418753" purity="0.458288" nType="0">
          <Node pos="l" depth="2" NCoef="0" IVar="-1" Cut="0" cType="1" res="-0.00424103" purity="0.417967" nType="-99"/>
          <Node pos="r" depth="2" NCoef="0" IVar="-1" Cut="0" cType="1" res="-3.00165e-05" purity="0.510529" nType="-99"/>
        </Node>
        <Node pos="r" depth="1" NCoef="0" IVar="5" Cut="2.60718" cType="1" res="0.00205158" purity="0.495199" nType="0">
          <Node pos="l" depth="2" NCoef="0" IVar="0" Cut="231664" cType="1" res="0.0075889" purity="0.504555" nType="0">
            <Node pos="l" depth="3" NCoef="0" IVar="0" Cut="170653" cType="1" res="0.00457009" purity="0.494924" nType="0">
              <Node pos="l" depth="4" NCoef="0" IVar="-1" Cut="0" cType="1" res="0.00054639" purity="0.491748" nType="-99"/>
              <Node pos="r" depth="4" NCoef="0" IVar="-1" Cut="0" cType="1" res="-0.00136722" purity="0.510325" nType="-99"/>
            </Node>
            <Node pos="r" depth="3" NCoef="0" IVar="-1" Cut="0" cType="1" res="0.00194543" purity="0.629652" nType="-99"/>
          </Node>
          <Node pos="r" depth="2" NCoef="0" IVar="-1" Cut="0" cType="1" res="-0.00341275" purity="0.395208" nType="-99"/>
        </Node>
      </Node>
    </BinaryTree>
    <BinaryTree type="DecisionTree" boostWeight="1.0" itree="264">
      <Node pos="s" depth="0" NCoef="0" IVar="4" Cut="178080" cType="1" res="0.0182022" purity="0.510614" nType="0">
        <Node pos="l" depth="1" NCoef="0" IVar="0" Cut="119517" cType="1" res="0.040143" purity="0.577459" nType="0">
          <Node pos="l" depth="2" NCoef="0" IVar="-1" Cut="0" cType="1" res="0.000104861" purity="0.510097" nType="-99"/>
          <Node pos="r" depth="2" NCoef="0" IVar="6" Cut="2.29844" cType="1" res="0.0580406" purity="0.609194" nType="0">
            <Node pos="l" depth="3" NCoef="0" IVar="5" Cut="1.12589" cType="1" res="0.075269" purity="0.645773" nType="0">
              <Node pos="l" depth="4" NCoef="0" IVar="-1" Cut="0" cType="1" res="0.00191286" purity="0.622241" nType="-99"/>
              <Node pos="r" depth="4" NCoef="0" IVar="-1" Cut="0" cType="1" res="0.00405596" purity="0.663456" nType="-99"/>
            </Node>
            <Node pos="r" depth="3" NCoef="0" IVar="-1" Cut="0" cType="1" res="0.000614745" purity="0.513734" nType="-99"/>
          </Node>
        </Node>
        <Node pos="r" depth="1" NCoef="0" IVar="0" Cut="104887" cType="1" res="0.0113709" purity="0.489802" nType="0">
          <Node pos="l" depth="2" NCoef="0" IVar="-1" Cut="0" cType="1" res="0.00256134" purity="0.469137" nType="-99"/>
          <Node pos="r" depth="2" NCoef="0" IVar="5" Cut="1.56345" cType="1" res="0.00694287" purity="0.49209" nType="0">
            <Node pos="l" depth="3" NCoef="0" IVar="5" Cut="1.34322" cType="1" res="0.0201959" purity="0.513566" nType="0">
              <Node pos="l" depth="4" NCoef="0" IVar="-1" Cut="0" cType="1" res="0.000288655" purity="0.501633" nType="-99"/>
              <Node pos="r" depth="4" NCoef="0" IVar="-1" Cut="0" cType="1" res="0.00306616" purity="0.555138" nType="-99"/>
            </Node>
            <Node pos="r" depth="3" NCoef="0" IVar="1" Cut="115612" cType="1" res="-0.0117021" purity="0.461875" nType="0">
              <Node pos="l" depth="4" NCoef="0" IVar="-1" Cut="0" cType="1" res="-0.0030215" purity="0.390954" nType="-99"/>
              <Node pos="r" depth="4" NCoef="0" IVar="-1" Cut="0" cType="1" res="-1.33081e-05" purity="0.482922" nType="-99"/>
            </Node>
          </Node>
        </Node>
      </Node>
    </BinaryTree>
    <BinaryTree type="DecisionTree" boostWeight="1.0" itree="265">
      <Node pos="s" depth="0" NCoef="0" IVar="2" Cut="-19593.4" cType="1" res="-0.00495363" purity="0.488706" nType="0">
        <Node pos="l" depth="1" NCoef="0" IVar="-1" Cut="0" cType="1" res="0.00251046" purity="0.450864" nType="-99"/>
        <Node pos="r" depth="1" NCoef="0" IVar="4" Cut="187835" cType="1" res="-0.00772567" purity="0.490727" nType="0">
          <Node pos="l" depth="2" NCoef="0" IVar="3" Cut="142408" cType="1" res="0.010188" purity="0.549805" nType="0">
            <Node pos="l" depth="3" NCoef="0" IVar="-1" Cut="0" cType="1" res="-0.00310755" purity="0.481216" nType="-99"/>
            <Node pos="r" depth="3" NCoef="0" IVar="3" Cut="161617" cType="1" res="0.024155" purity="0.563852" nType="0">
              <Node pos="l" depth="4" NCoef="0" IVar="-1" Cut="0" cType="1" res="0.0031524" purity="0.625037" nType="-99"/>
              <Node pos="r" depth="4" NCoef="0" IVar="-1" Cut="0" cType="1" res="0.000160794" purity="0.540337" nType="-99"/>
            </Node>
          </Node>
          <Node pos="r" depth="2" NCoef="0" IVar="3" Cut="142414" cType="1" res="-0.0154373" purity="0.465294" nType="0">
            <Node pos="l" depth="3" NCoef="0" IVar="2" Cut="-2502.5" cType="1" res="0.0147721" purity="0.495755" nType="0">
              <Node pos="l" depth="4" NCoef="0" IVar="-1" Cut="0" cType="1" res="0.0033228" purity="0.510605" nType="-99"/>
              <Node pos="r" depth="4" NCoef="0" IVar="-1" Cut="0" cType="1" res="-0.000777704" purity="0.48777" nType="-99"/>
            </Node>
            <Node pos="r" depth="3" NCoef="0" IVar="2" Cut="-7967.08" cType="1" res="-0.023595" purity="0.457069" nType="0">
              <Node pos="l" depth="4" NCoef="0" IVar="-1" Cut="0" cType="1" res="-0.00445484" purity="0.34088" nType="-99"/>
              <Node pos="r" depth="4" NCoef="0" IVar="-1" Cut="0" cType="1" res="-0.00084251" purity="0.475198" nType="-99"/>
            </Node>
          </Node>
        </Node>
      </Node>
    </BinaryTree>
    <BinaryTree type="DecisionTree" boostWeight="1.0" itree="266">
      <Node pos="s" depth="0" NCoef="0" IVar="4" Cut="148809" cType="1" res="0.00781799" purity="0.501111" nType="0">
        <Node pos="l" depth="1" NCoef="0" IVar="-1" Cut="0" cType="1" res="-0.00221089" purity="0.502199" nType="-99"/>
        <Node pos="r" depth="1" NCoef="0" IVar="6" Cut="1.45602" cType="1" res="0.0109192" purity="0.501043" nType="0">
          <Node pos="l" depth="2" NCoef="0" IVar="6" Cut="1.17197" cType="1" res="-0.00434073" purity="0.497176" nType="0">
            <Node pos="l" depth="3" NCoef="0" IVar="5" Cut="2.26279" cType="1" res="0.0116484" purity="0.505778" nType="0">
              <Node pos="l" depth="4" NCoef="0" IVar="-1" Cut="0" cType="1" res="-0.000197517" purity="0.489626" nType="-99"/>
              <Node pos="r" depth="4" NCoef="0" IVar="-1" Cut="0" cType="1" res="0.00239265" purity="0.547851" nType="-99"/>
            </Node>
            <Node pos="r" depth="3" NCoef="0" IVar="-1" Cut="0" cType="1" res="-0.00340308" purity="0.464169" nType="-99"/>
          </Node>
          <Node pos="r" depth="2" NCoef="0" IVar="3" Cut="218222" cType="1" res="0.0193508" purity="0.50318" nType="0">
            <Node pos="l" depth="3" NCoef="0" IVar="5" Cut="0.879019" cType="1" res="0.0143489" purity="0.500401" nType="0">
              <Node pos="l" depth="4" NCoef="0" IVar="-1" Cut="0" cType="1" res="0.00223277" purity="0.590836" nType="-99"/>
              <Node pos="r" depth="4" NCoef="0" IVar="-1" Cut="0" cType="1" res="0.000285312" purity="0.479183" nType="-99"/>
            </Node>
            <Node pos="r" depth="3" NCoef="0" IVar="-1" Cut="0" cType="1" res="0.0033096" purity="0.533083" nType="-99"/>
          </Node>
        </Node>
      </Node>
    </BinaryTree>
    <BinaryTree type="DecisionTree" boostWeight="1.0" itree="267">
      <Node pos="s" depth="0" NCoef="0" IVar="4" Cut="168322" cType="1" res="0.00485638" purity="0.498229" nType="0">
        <Node pos="l" depth="1" NCoef="0" IVar="1" Cut="98158.5" cType="1" res="0.0389363" purity="0.585324" nType="0">
          <Node pos="l" depth="2" NCoef="0" IVar="-1" Cut="0" cType="1" res="0.002954" purity="0.569189" nType="-99"/>
          <Node pos="r" depth="2" NCoef="0" IVar="-1" Cut="0" cType="1" res="0.000894438" purity="0.595936" nType="-99"/>
        </Node>
        <Node pos="r" depth="1" NCoef="0" IVar="4" Cut="297752" cType="1" res="-0.00258689" purity="0.479207" nType="0">
          <Node pos="l" depth="2" NCoef="0" IVar="3" Cut="153930" cType="1" res="-0.0130477" purity="0.485313" nType="0">
            <Node pos="l" depth="3" NCoef="0" IVar="4" Cut="221945" cType="1" res="-0.0497271" purity="0.452899" nType="0">
              <Node pos="l" depth="4" NCoef="0" IVar="-1" Cut="0" cType="1" res="-0.00547596" purity="0.414652" nType="-99"/>
              <Node pos="r" depth="4" NCoef="0" IVar="-1" Cut="0" cType="1" res="-0.000149417" purity="0.491573" nType="-99"/>
            </Node>
            <Node pos="r" depth="3" NCoef="0" IVar="4" Cut="209377" cType="1" res="0.00211488" purity="0.498712" nType="0">
              <Node pos="l" depth="4" NCoef="0" IVar="-1" Cut="0" cType="1" res="0.00137118" purity="0.541359" nType="-99"/>
              <Node pos="r" depth="4" NCoef="0" IVar="-1" Cut="0" cType="1" res="-0.00110706" purity="0.462569" nType="-99"/>
            </Node>
          </Node>
          <Node pos="r" depth="2" NCoef="0" IVar="1" Cut="182126" cType="1" res="0.0188297" purity="0.466705" nType="0">
            <Node pos="l" depth="3" NCoef="0" IVar="6" Cut="0.997149" cType="1" res="0.00422921" purity="0.447536" nType="0">
              <Node pos="l" depth="4" NCoef="0" IVar="-1" Cut="0" cType="1" res="0.00242238" purity="0.494717" nType="-99"/>
              <Node pos="r" depth="4" NCoef="0" IVar="-1" Cut="0" cType="1" res="-0.000477331" purity="0.434236" nType="-99"/>
            </Node>
            <Node pos="r" depth="3" NCoef="0" IVar="-1" Cut="0" cType="1" res="0.0030834" purity="0.5367" nType="-99"/>
          </Node>
        </Node>
      </Node>
    </BinaryTree>
    <BinaryTree type="DecisionTree" boostWeight="1.0" itree="268">
      <Node pos="s" depth="0" NCoef="0" IVar="0" Cut="109758" cType="1" res="0.00314078" purity="0.496993" nType="0">
        <Node pos="l" depth="1" NCoef="0" IVar="1" Cut="115525" cType="1" res="0.0322818" purity="0.478357" nType="0">
          <Node pos="l" depth="2" NCoef="0" IVar="4" Cut="217042" cType="1" res="0.0596189" purity="0.49713" nType="0">
            <Node pos="l" depth="3" NCoef="0" IVar="-1" Cut="0" cType="1" res="0.00151879" purity="0.504171" nType="-99"/>
            <Node pos="r" depth="3" NCoef="0" IVar="-1" Cut="0" cType="1" res="0.00480468" purity="0.488364" nType="-99"/>
          </Node>
          <Node pos="r" depth="2" NCoef="0" IVar="-1" Cut="0" cType="1" res="-0.000482571" purity="0.449963" nType="-99"/>
        </Node>
        <Node pos="r" depth="1" NCoef="0" IVar="6" Cut="1.07275" cType="1" res="-0.00384843" purity="0.501463" nType="0">
          <Node pos="l" depth="2" NCoef="0" IVar="5" Cut="1.15905" cType="1" res="0.0205387" purity="0.518957" nType="0">
            <Node pos="l" depth="3" NCoef="0" IVar="-1" Cut="0" cType="1" res="0.00258399" purity="0.543033" nType="-99"/>
            <Node pos="r" depth="3" NCoef="0" IVar="0" Cut="142243" cType="1" res="-0.000959591" purity="0.505815" nType="0">
              <Node pos="l" depth="4" NCoef="0" IVar="-1" Cut="0" cType="1" res="-0.00137895" purity="0.470706" nType="-99"/>
              <Node pos="r" depth="4" NCoef="0" IVar="-1" Cut="0" cType="1" res="0.00167074" purity="0.557862" nType="-99"/>
            </Node>
          </Node>
          <Node pos="r" depth="2" NCoef="0" IVar="3" Cut="159985" cType="1" res="-0.0122755" purity="0.495418" nType="0">
            <Node pos="l" depth="3" NCoef="0" IVar="3" Cut="147901" cType="1" res="-0.0314828" purity="0.484319" nType="0">
              <Node pos="l" depth="4" NCoef="0" IVar="-1" Cut="0" cType="1" res="-0.000440241" purity="0.508134" nType="-99"/>
              <Node pos="r" depth="4" NCoef="0" IVar="-1" Cut="0" cType="1" res="-0.00446038" purity="0.43623" nType="-99"/>
            </Node>
            <Node pos="r" depth="3" NCoef="0" IVar="4" Cut="305232" cType="1" res="-0.00169513" purity="0.501532" nType="0">
              <Node pos="l" depth="4" NCoef="0" IVar="-1" Cut="0" cType="1" res="-0.000843884" purity="0.503233" nType="-99"/>
              <Node pos="r" depth="4" NCoef="0" IVar="-1" Cut="0" cType="1" res="0.00174224" purity="0.497262" nType="-99"/>
            </Node>
          </Node>
        </Node>
      </Node>
    </BinaryTree>
    <BinaryTree type="DecisionTree" boostWeight="1.0" itree="269">
      <Node pos="s" depth="0" NCoef="0" IVar="2" Cut="-16353.8" cType="1" res="0.0127413" purity="0.505857" nType="0">
        <Node pos="l" depth="1" NCoef="0" IVar="-1" Cut="0" cType="1" res="0.0032872" purity="0.471824" nType="-99"/>
        <Node pos="r" depth="1" NCoef="0" IVar="2" Cut="25581.7" cType="1" res="0.00879065" purity="0.508423" nType="0">
          <Node pos="l" depth="2" NCoef="0" IVar="5" Cut="1.513" cType="1" res="0.0051158" purity="0.488868" nType="0">
            <Node pos="l" depth="3" NCoef="0" IVar="0" Cut="134149" cType="1" res="-0.00757896" purity="0.48162" nType="0">
              <Node pos="l" depth="4" NCoef="0" IVar="-1" Cut="0" cType="1" res="-0.00185305" purity="0.410337" nType="-99"/>
              <Node pos="r" depth="4" NCoef="0" IVar="-1" Cut="0" cType="1" res="0.000346479" purity="0.522472" nType="-99"/>
            </Node>
            <Node pos="r" depth="3" NCoef="0" IVar="1" Cut="110440" cType="1" res="0.0199593" purity="0.497343" nType="0">
              <Node pos="l" depth="4" NCoef="0" IVar="-1" Cut="0" cType="1" res="0.00261156" purity="0.504802" nType="-99"/>
              <Node pos="r" depth="4" NCoef="0" IVar="-1" Cut="0" cType="1" res="0.000313086" purity="0.494283" nType="-99"/>
            </Node>
          </Node>
          <Node pos="r" depth="2" NCoef="0" IVar="-1" Cut="0" cType="1" res="0.00183101" purity="0.697162" nType="-99"/>
        </Node>
      </Node>
    </BinaryTree>
    <BinaryTree type="DecisionTree" boostWeight="1.0" itree="270">
      <Node pos="s" depth="0" NCoef="0" IVar="3" Cut="112964" cType="1" res="0.00577202" purity="0.497541" nType="0">
        <Node pos="l" depth="1" NCoef="0" IVar="-1" Cut="0" cType="1" res="-0.00333498" purity="0.436278" nType="-99"/>
        <Node pos="r" depth="1" NCoef="0" IVar="0" Cut="109757" cType="1" res="0.00959253" purity="0.501057" nType="0">
          <Node pos="l" depth="2" NCoef="0" IVar="2" Cut="3717.97" cType="1" res="0.037911" purity="0.477843" nType="0">
            <Node pos="l" depth="3" NCoef="0" IVar="-1" Cut="0" cType="1" res="0.00414407" purity="0.45502" nType="-99"/>
            <Node pos="r" depth="3" NCoef="0" IVar="-1" Cut="0" cType="1" res="-0.000396757" purity="0.50451" nType="-99"/>
          </Node>
          <Node pos="r" depth="2" NCoef="0" IVar="5" Cut="1.00397" cType="1" res="0.00293985" purity="0.506511" nType="0">
            <Node pos="l" depth="3" NCoef="0" IVar="2" Cut="-6130.65" cType="1" res="0.0269307" purity="0.546298" nType="0">
              <Node pos="l" depth="4" NCoef="0" IVar="-1" Cut="0" cType="1" res="0.0047931" purity="0.558346" nType="-99"/>
              <Node pos="r" depth="4" NCoef="0" IVar="-1" Cut="0" cType="1" res="0.000380807" purity="0.543731" nType="-99"/>
            </Node>
            <Node pos="r" depth="3" NCoef="0" IVar="6" Cut="1.83894" cType="1" res="-0.00747716" purity="0.489235" nType="0">
              <Node pos="l" depth="4" NCoef="0" IVar="-1" Cut="0" cType="1" res="-0.00145264" purity="0.491077" nType="-99"/>
              <Node pos="r" depth="4" NCoef="0" IVar="-1" Cut="0" cType="1" res="0.000666899" purity="0.487435" nType="-99"/>
            </Node>
          </Node>
        </Node>
      </Node>
    </BinaryTree>
    <BinaryTree type="DecisionTree" boostWeight="1.0" itree="271">
      <Node pos="s" depth="0" NCoef="0" IVar="2" Cut="20716.7" cType="1" res="0.0103153" purity="0.504184" nType="0">
        <Node pos="l" depth="1" NCoef="0" IVar="6" Cut="0.842881" cType="1" res="0.0146241" purity="0.489324" nType="0">
          <Node pos="l" depth="2" NCoef="0" IVar="0" Cut="138915" cType="1" res="0.0393817" purity="0.503138" nType="0">
            <Node pos="l" depth="3" NCoef="0" IVar="-1" Cut="0" cType="1" res="-6.86875e-05" purity="0.445241" nType="-99"/>
            <Node pos="r" depth="3" NCoef="0" IVar="-1" Cut="0" cType="1" res="0.0037302" purity="0.576903" nType="-99"/>
          </Node>
          <Node pos="r" depth="2" NCoef="0" IVar="5" Cut="1.72823" cType="1" res="0.00882527" purity="0.486088" nType="0">
            <Node pos="l" depth="3" NCoef="0" IVar="5" Cut="1.58324" cType="1" res="-0.00147637" purity="0.483711" nType="0">
              <Node pos="l" depth="4" NCoef="0" IVar="-1" Cut="0" cType="1" res="0.000250971" purity="0.490068" nType="-99"/>
              <Node pos="r" depth="4" NCoef="0" IVar="-1" Cut="0" cType="1" res="-0.00344005" purity="0.42622" nType="-99"/>
            </Node>
            <Node pos="r" depth="3" NCoef="0" IVar="6" Cut="2.63712" cType="1" res="0.0278297" purity="0.490474" nType="0">
              <Node pos="l" depth="4" NCoef="0" IVar="-1" Cut="0" cType="1" res="0.000726975" purity="0.491698" nType="-99"/>
              <Node pos="r" depth="4" NCoef="0" IVar="-1" Cut="0" cType="1" res="0.00384454" purity="0.485825" nType="-99"/>
            </Node>
          </Node>
        </Node>
        <Node pos="r" depth="1" NCoef="0" IVar="0" Cut="134153" cType="1" res="-0.0232379" purity="0.619898" nType="0">
          <Node pos="l" depth="2" NCoef="0" IVar="-1" Cut="0" cType="1" res="-0.00342044" purity="0.537112" nType="-99"/>
          <Node pos="r" depth="2" NCoef="0" IVar="-1" Cut="0" cType="1" res="0.000749829" purity="0.693532" nType="-99"/>
        </Node>
      </Node>
    </BinaryTree>
    <BinaryTree type="DecisionTree" boostWeight="1.0" itree="272">
      <Node pos="s" depth="0" NCoef="0" IVar="1" Cut="115590" cType="1" res="-0.00273737" purity="0.492283" nType="0">
        <Node pos="l" depth="1" NCoef="0" IVar="1" Cut="108723" cType="1" res="-0.0172572" purity="0.460615" nType="0">
          <Node pos="l" depth="2" NCoef="0" IVar="6" Cut="2.45197" cType="1" res="-0.00659129" purity="0.465898" nType="0">
            <Node pos="l" depth="3" NCoef="0" IVar="4" Cut="295128" cType="1" res="-0.0222879" purity="0.468802" nType="0">
              <Node pos="l" depth="4" NCoef="0" IVar="-1" Cut="0" cType="1" res="-0.000587337" purity="0.490578" nType="-99"/>
              <Node pos="r" depth="4" NCoef="0" IVar="-1" Cut="0" cType="1" res="-0.00433057" purity="0.371143" nType="-99"/>
            </Node>
            <Node pos="r" depth="3" NCoef="0" IVar="1" Cut="95027" cType="1" res="0.0265806" purity="0.459762" nType="0">
              <Node pos="l" depth="4" NCoef="0" IVar="-1" Cut="0" cType="1" res="0.00259354" purity="0.491105" nType="-99"/>
              <Node pos="r" depth="4" NCoef="0" IVar="-1" Cut="0" cType="1" res="0.000531709" purity="0.440702" nType="-99"/>
            </Node>
          </Node>
          <Node pos="r" depth="2" NCoef="0" IVar="6" Cut="2.06914" cType="1" res="-0.0684023" purity="0.435282" nType="0">
            <Node pos="l" depth="3" NCoef="0" IVar="-1" Cut="0" cType="1" res="-0.00668452" purity="0.418027" nType="-99"/>
            <Node pos="r" depth="3" NCoef="0" IVar="-1" Cut="0" cType="1" res="-0.000819271" purity="0.454959" nType="-99"/>
          </Node>
        </Node>
        <Node pos="r" depth="1" NCoef="0" IVar="0" Cut="192642" cType="1" res="0.015399" purity="0.531838" nType="0">
          <Node pos="l" depth="2" NCoef="0" IVar="6" Cut="2.22224" cType="1" res="0.0251468" purity="0.528972" nType="0">
            <Node pos="l" depth="3" NCoef="0" IVar="4" Cut="220900" cType="1" res="0.04043" purity="0.566667" nType="0">
              <Node pos="l" depth="4" NCoef="0" IVar="-1" Cut="0" cType="1" res="-0.000199366" purity="0.581171" nType="-99"/>
              <Node pos="r" depth="4" NCoef="0" IVar="-1" Cut="0" cType="1" res="0.0027448" purity="0.558937" nType="-99"/>
            </Node>
            <Node pos="r" depth="3" NCoef="0" IVar="4" Cut="280475" cType="1" res="-0.0134232" purity="0.433839" nType="0">
              <Node pos="l" depth="4" NCoef="0" IVar="-1" Cut="0" cType="1" res="0.000729906" purity="0.493811" nType="-99"/>
              <Node pos="r" depth="4" NCoef="0" IVar="-1" Cut="0" cType="1" res="-0.00315194" purity="0.360192" nType="-99"/>
            </Node>
          </Node>
          <Node pos="r" depth="2" NCoef="0" IVar="-1" Cut="0" cType="1" res="-0.00228923" purity="0.550243" nType="-99"/>
        </Node>
      </Node>
    </BinaryTree>
    <BinaryTree type="DecisionTree" boostWeight="1.0" itree="273">
      <Node pos="s" depth="0" NCoef="0" IVar="2" Cut="-13030.5" cType="1" res="0.0111526" purity="0.503872" nType="0">
        <Node pos="l" depth="1" NCoef="0" IVar="1" Cut="110489" cType="1" res="-0.0374958" purity="0.368428" nType="0">
          <Node pos="l" depth="2" NCoef="0" IVar="-1" Cut="0" cType="1" res="-0.000284362" purity="0.399391" nType="-99"/>
          <Node pos="r" depth="2" NCoef="0" IVar="-1" Cut="0" cType="1" res="-0.00460303" purity="0.336597" nType="-99"/>
        </Node>
        <Node pos="r" depth="1" NCoef="0" IVar="1" Cut="105353" cType="1" res="0.0159051" purity="0.517104" nType="0">
          <Node pos="l" depth="2" NCoef="0" IVar="5" Cut="0.938861" cType="1" res="-0.00304937" purity="0.464268" nType="0">
            <Node pos="l" depth="3" NCoef="0" IVar="2" Cut="5720.16" cType="1" res="-0.0404193" purity="0.447451" nType="0">
              <Node pos="l" depth="4" NCoef="0" IVar="-1" Cut="0" cType="1" res="0.000299635" purity="0.430305" nType="-99"/>
              <Node pos="r" depth="4" NCoef="0" IVar="-1" Cut="0" cType="1" res="-0.00435764" purity="0.464164" nType="-99"/>
            </Node>
            <Node pos="r" depth="3" NCoef="0" IVar="5" Cut="1.23115" cType="1" res="0.0147823" purity="0.472293" nType="0">
              <Node pos="l" depth="4" NCoef="0" IVar="-1" Cut="0" cType="1" res="0.00247483" purity="0.519089" nType="-99"/>
              <Node pos="r" depth="4" NCoef="0" IVar="-1" Cut="0" cType="1" res="-0.00080623" purity="0.436564" nType="-99"/>
            </Node>
          </Node>
          <Node pos="r" depth="2" NCoef="0" IVar="1" Cut="110101" cType="1" res="0.0276996" purity="0.549981" nType="0">
            <Node pos="l" depth="3" NCoef="0" IVar="-1" Cut="0" cType="1" res="0.0034113" purity="0.595301" nType="-99"/>
            <Node pos="r" depth="3" NCoef="0" IVar="4" Cut="266263" cType="1" res="0.0167865" purity="0.540714" nType="0">
              <Node pos="l" depth="4" NCoef="0" IVar="-1" Cut="0" cType="1" res="0.00149406" purity="0.590495" nType="-99"/>
              <Node pos="r" depth="4" NCoef="0" IVar="-1" Cut="0" cType="1" res="-0.000479548" purity="0.466593" nType="-99"/>
            </Node>
          </Node>
        </Node>
      </Node>
    </BinaryTree>
    <BinaryTree type="DecisionTree" boostWeight="1.0" itree="274">
      <Node pos="s" depth="0" NCoef="0" IVar="2" Cut="-9624.26" cType="1" res="-0.00261642" purity="0.489079" nType="0">
        <Node pos="l" depth="1" NCoef="0" IVar="1" Cut="105367" cType="1" res="-0.0358147" purity="0.376451" nType="0">
          <Node pos="l" depth="2" NCoef="0" IVar="-1" Cut="0" cType="1" res="0.000966478" purity="0.42023" nType="-99"/>
          <Node pos="r" depth="2" NCoef="0" IVar="-1" Cut="0" cType="1" res="-0.00458909" purity="0.345826" nType="-99"/>
        </Node>
        <Node pos="r" depth="1" NCoef="0" IVar="5" Cut="2.15547" cType="1" res="0.00252842" purity="0.506533" nType="0">
          <Node pos="l" depth="2" NCoef="0" IVar="4" Cut="363346" cType="1" res="-0.00537494" purity="0.505715" nType="0">
            <Node pos="l" depth="3" NCoef="0" IVar="3" Cut="212256" cType="1" res="0.00362216" purity="0.521261" nType="0">
              <Node pos="l" depth="4" NCoef="0" IVar="-1" Cut="0" cType="1" res="-0.00010199" purity="0.518112" nType="-99"/>
              <Node pos="r" depth="4" NCoef="0" IVar="-1" Cut="0" cType="1" res="0.0026549" purity="0.552353" nType="-99"/>
            </Node>
            <Node pos="r" depth="3" NCoef="0" IVar="-1" Cut="0" cType="1" res="-0.00499052" purity="0.372663" nType="-99"/>
          </Node>
          <Node pos="r" depth="2" NCoef="0" IVar="3" Cut="188262" cType="1" res="0.032243" purity="0.509611" nType="0">
            <Node pos="l" depth="3" NCoef="0" IVar="4" Cut="244457" cType="1" res="0.0189459" purity="0.499891" nType="0">
              <Node pos="l" depth="4" NCoef="0" IVar="-1" Cut="0" cType="1" res="0.00233696" purity="0.568531" nType="-99"/>
              <Node pos="r" depth="4" NCoef="0" IVar="-1" Cut="0" cType="1" res="-0.000498674" purity="0.440944" nType="-99"/>
            </Node>
            <Node pos="r" depth="3" NCoef="0" IVar="-1" Cut="0" cType="1" res="0.00304985" purity="0.535667" nType="-99"/>
          </Node>
        </Node>
      </Node>
    </BinaryTree>
    <BinaryTree type="DecisionTree" boostWeight="1.0" itree="275">
      <Node pos="s" depth="0" NCoef="0" IVar="0" Cut="129282" cType="1" res="0.00752886" purity="0.501031" nType="0">
        <Node pos="l" depth="1" NCoef="0" IVar="6" Cut="0.842994" cType="1" res="-0.0128618" purity="0.44342" nType="0">
          <Node pos="l" depth="2" NCoef="0" IVar="3" Cut="164796" cType="1" res="0.0398758" purity="0.498318" nType="0">
            <Node pos="l" depth="3" NCoef="0" IVar="-1" Cut="0" cType="1" res="-0.00153046" purity="0.43133" nType="-99"/>
            <Node pos="r" depth="3" NCoef="0" IVar="-1" Cut="0" cType="1" res="0.00414634" purity="0.549556" nType="-99"/>
          </Node>
          <Node pos="r" depth="2" NCoef="0" IVar="6" Cut="2.41273" cType="1" res="-0.0304794" purity="0.42508" nType="0">
            <Node pos="l" depth="3" NCoef="0" IVar="1" Cut="130780" cType="1" res="-0.0527869" purity="0.440292" nType="0">
              <Node pos="l" depth="4" NCoef="0" IVar="-1" Cut="0" cType="1" res="-0.00413356" purity="0.413967" nType="-99"/>
              <Node pos="r" depth="4" NCoef="0" IVar="-1" Cut="0" cType="1" res="0.000133611" purity="0.511143" nType="-99"/>
            </Node>
            <Node pos="r" depth="3" NCoef="0" IVar="1" Cut="115514" cType="1" res="0.00847779" purity="0.398515" nType="0">
              <Node pos="l" depth="4" NCoef="0" IVar="-1" Cut="0" cType="1" res="0.00200546" purity="0.42759" nType="-99"/>
              <Node pos="r" depth="4" NCoef="0" IVar="-1" Cut="0" cType="1" res="-0.00257276" purity="0.350091" nType="-99"/>
            </Node>
          </Node>
        </Node>
        <Node pos="r" depth="1" NCoef="0" IVar="4" Cut="334336" cType="1" res="0.0233805" purity="0.545819" nType="0">
          <Node pos="l" depth="2" NCoef="0" IVar="1" Cut="146285" cType="1" res="0.0103274" purity="0.546661" nType="0">
            <Node pos="l" depth="3" NCoef="0" IVar="1" Cut="117453" cType="1" res="0.0229809" purity="0.5583" nType="0">
              <Node pos="l" depth="4" NCoef="0" IVar="-1" Cut="0" cType="1" res="0.000147061" purity="0.516826" nType="-99"/>
              <Node pos="r" depth="4" NCoef="0" IVar="-1" Cut="0" cType="1" res="0.00297459" purity="0.663918" nType="-99"/>
            </Node>
            <Node pos="r" depth="3" NCoef="0" IVar="-1" Cut="0" cType="1" res="-0.00343761" purity="0.478434" nType="-99"/>
          </Node>
          <Node pos="r" depth="2" NCoef="0" IVar="0" Cut="158449" cType="1" res="0.066396" purity="0.543043" nType="0">
            <Node pos="l" depth="3" NCoef="0" IVar="-1" Cut="0" cType="1" res="0.0047736" purity="0.555304" nType="-99"/>
            <Node pos="r" depth="3" NCoef="0" IVar="-1" Cut="0" cType="1" res="0.00139061" purity="0.533865" nType="-99"/>
          </Node>
        </Node>
      </Node>
    </BinaryTree>
    <BinaryTree type="DecisionTree" boostWeight="1.0" itree="276">
      <Node pos="s" depth="0" NCoef="0" IVar="3" Cut="223937" cType="1" res="0.00477688" purity="0.499021" nType="0">
        <Node pos="l" depth="1" NCoef="0" IVar="5" Cut="2.22571" cType="1" res="0.00099134" purity="0.49676" nType="0">
          <Node pos="l" depth="2" NCoef="0" IVar="5" Cut="1.68584" cType="1" res="0.00720078" purity="0.508608" nType="0">
            <Node pos="l" depth="3" NCoef="0" IVar="6" Cut="2.52859" cType="1" res="-0.002807" purity="0.501858" nType="0">
              <Node pos="l" depth="4" NCoef="0" IVar="-1" Cut="0" cType="1" res="0.000446807" purity="0.534661" nType="-99"/>
              <Node pos="r" depth="4" NCoef="0" IVar="-1" Cut="0" cType="1" res="-0.00222214" purity="0.405504" nType="-99"/>
            </Node>
            <Node pos="r" depth="3" NCoef="0" IVar="5" Cut="1.81752" cType="1" res="0.0422133" purity="0.532224" nType="0">
              <Node pos="l" depth="4" NCoef="0" IVar="-1" Cut="0" cType="1" res="0.00357501" purity="0.57919" nType="-99"/>
              <Node pos="r" depth="4" NCoef="0" IVar="-1" Cut="0" cType="1" res="0.00105783" purity="0.508835" nType="-99"/>
            </Node>
          </Node>
          <Node pos="r" depth="2" NCoef="0" IVar="1" Cut="151420" cType="1" res="-0.0304401" purity="0.436785" nType="0">
            <Node pos="l" depth="3" NCoef="0" IVar="-1" Cut="0" cType="1" res="0.000818595" purity="0.498278" nType="-99"/>
            <Node pos="r" depth="3" NCoef="0" IVar="-1" Cut="0" cType="1" res="-0.00565067" purity="0.358474" nType="-99"/>
          </Node>
        </Node>
        <Node pos="r" depth="1" NCoef="0" IVar="-1" Cut="0" cType="1" res="0.00280217" purity="0.532783" nType="-99"/>
      </Node>
    </BinaryTree>
    <BinaryTree type="DecisionTree" boostWeight="1.0" itree="277">
      <Node pos="s" depth="0" NCoef="0" IVar="0" Cut="231694" cType="1" res="0.00631086" purity="0.501121" nType="0">
        <Node pos="l" depth="1" NCoef="0" IVar="5" Cut="2.60709" cType="1" res="0.002638" purity="0.491411" nType="0">
          <Node pos="l" depth="2" NCoef="0" IVar="2" Cut="24545.7" cType="1" res="-0.00236722" purity="0.490765" nType="0">
            <Node pos="l" depth="3" NCoef="0" IVar="6" Cut="0.306569" cType="1" res="-0.00794197" purity="0.466397" nType="0">
              <Node pos="l" depth="4" NCoef="0" IVar="-1" Cut="0" cType="1" res="0.00192812" purity="0.504878" nType="-99"/>
              <Node pos="r" depth="4" NCoef="0" IVar="-1" Cut="0" cType="1" res="-0.000607338" purity="0.463398" nType="-99"/>
            </Node>
            <Node pos="r" depth="3" NCoef="0" IVar="-1" Cut="0" cType="1" res="0.00183802" purity="0.694383" nType="-99"/>
          </Node>
          <Node pos="r" depth="2" NCoef="0" IVar="-1" Cut="0" cType="1" res="0.00223605" purity="0.496946" nType="-99"/>
        </Node>
        <Node pos="r" depth="1" NCoef="0" IVar="-1" Cut="0" cType="1" res="0.00235385" purity="0.632542" nType="-99"/>
      </Node>
    </BinaryTree>
    <BinaryTree type="DecisionTree" boostWeight="1.0" itree="278">
      <Node pos="s" depth="0" NCoef="0" IVar="0" Cut="124390" cType="1" res="0.00237061" purity="0.495914" nType="0">
        <Node pos="l" depth="1" NCoef="0" IVar="0" Cut="104757" cType="1" res="0.0177566" purity="0.472172" nType="0">
          <Node pos="l" depth="2" NCoef="0" IVar="-1" Cut="0" cType="1" res="-0.000939156" purity="0.423743" nType="-99"/>
          <Node pos="r" depth="2" NCoef="0" IVar="1" Cut="109634" cType="1" res="0.0272858" purity="0.485583" nType="0">
            <Node pos="l" depth="3" NCoef="0" IVar="0" Cut="112408" cType="1" res="0.0423575" purity="0.481053" nType="0">
              <Node pos="l" depth="4" NCoef="0" IVar="-1" Cut="0" cType="1" res="0.00346564" purity="0.510359" nType="-99"/>
              <Node pos="r" depth="4" NCoef="0" IVar="-1" Cut="0" cType="1" res="0.000739274" purity="0.455088" nType="-99"/>
            </Node>
            <Node pos="r" depth="3" NCoef="0" IVar="3" Cut="183645" cType="1" res="0.0141176" purity="0.489541" nType="0">
              <Node pos="l" depth="4" NCoef="0" IVar="-1" Cut="0" cType="1" res="0.00161495" purity="0.516126" nType="-99"/>
              <Node pos="r" depth="4" NCoef="0" IVar="-1" Cut="0" cType="1" res="-0.00239156" purity="0.416481" nType="-99"/>
            </Node>
          </Node>
        </Node>
        <Node pos="r" depth="1" NCoef="0" IVar="3" Cut="118774" cType="1" res="-0.00833774" purity="0.512438" nType="0">
          <Node pos="l" depth="2" NCoef="0" IVar="-1" Cut="0" cType="1" res="0.00237527" purity="0.575394" nType="-99"/>
          <Node pos="r" depth="2" NCoef="0" IVar="2" Cut="24545.7" cType="1" res="-0.0148149" purity="0.50624" nType="0">
            <Node pos="l" depth="3" NCoef="0" IVar="6" Cut="0.842876" cType="1" res="-0.022052" purity="0.481126" nType="0">
              <Node pos="l" depth="4" NCoef="0" IVar="-1" Cut="0" cType="1" res="0.00121627" purity="0.513211" nType="-99"/>
              <Node pos="r" depth="4" NCoef="0" IVar="-1" Cut="0" cType="1" res="-0.00165998" purity="0.474393" nType="-99"/>
            </Node>
            <Node pos="r" depth="3" NCoef="0" IVar="-1" Cut="0" cType="1" res="0.0021978" purity="0.739512" nType="-99"/>
          </Node>
        </Node>
      </Node>
    </BinaryTree>
    <BinaryTree type="DecisionTree" boostWeight="1.0" itree="279">
      <Node pos="s" depth="0" NCoef="0" IVar="6" Cut="1.53246" cType="1" res="0.0102566" purity="0.505761" nType="0">
        <Node pos="l" depth="1" NCoef="0" IVar="0" Cut="134150" cType="1" res="0.0305179" purity="0.537974" nType="0">
          <Node pos="l" depth="2" NCoef="0" IVar="6" Cut="1.00921" cType="1" res="0.00907129" purity="0.496797" nType="0">
            <Node pos="l" depth="3" NCoef="0" IVar="2" Cut="8306.3" cType="1" res="-0.0222248" purity="0.457346" nType="0">
              <Node pos="l" depth="4" NCoef="0" IVar="-1" Cut="0" cType="1" res="-0.00505314" purity="0.326743" nType="-99"/>
              <Node pos="r" depth="4" NCoef="0" IVar="-1" Cut="0" cType="1" res="0.000213399" purity="0.527745" nType="-99"/>
            </Node>
            <Node pos="r" depth="3" NCoef="0" IVar="-1" Cut="0" cType="1" res="0.00248087" purity="0.556184" nType="-99"/>
          </Node>
          <Node pos="r" depth="2" NCoef="0" IVar="2" Cut="6448.59" cType="1" res="0.0558767" purity="0.586662" nType="0">
            <Node pos="l" depth="3" NCoef="0" IVar="-1" Cut="0" cType="1" res="0.00466319" purity="0.564355" nType="-99"/>
            <Node pos="r" depth="3" NCoef="0" IVar="5" Cut="1.80882" cType="1" res="0.0183801" purity="0.601243" nType="0">
              <Node pos="l" depth="4" NCoef="0" IVar="-1" Cut="0" cType="1" res="0.00216658" purity="0.659809" nType="-99"/>
              <Node pos="r" depth="4" NCoef="0" IVar="-1" Cut="0" cType="1" res="-0.00236289" purity="0.497406" nType="-99"/>
            </Node>
          </Node>
        </Node>
        <Node pos="r" depth="1" NCoef="0" IVar="1" Cut="146277" cType="1" res="-0.00358679" purity="0.483751" nType="0">
          <Node pos="l" depth="2" NCoef="0" IVar="6" Cut="1.88567" cType="1" res="-0.015528" purity="0.473504" nType="0">
            <Node pos="l" depth="3" NCoef="0" IVar="-1" Cut="0" cType="1" res="-0.0031391" purity="0.495898" nType="-99"/>
            <Node pos="r" depth="3" NCoef="0" IVar="4" Cut="217420" cType="1" res="-0.00621884" purity="0.468803" nType="0">
              <Node pos="l" depth="4" NCoef="0" IVar="-1" Cut="0" cType="1" res="0.000551407" purity="0.51528" nType="-99"/>
              <Node pos="r" depth="4" NCoef="0" IVar="-1" Cut="0" cType="1" res="-0.00131004" purity="0.422983" nType="-99"/>
            </Node>
          </Node>
          <Node pos="r" depth="2" NCoef="0" IVar="2" Cut="-5215.85" cType="1" res="0.0554925" purity="0.53445" nType="0">
            <Node pos="l" depth="3" NCoef="0" IVar="-1" Cut="0" cType="1" res="0.00103063" purity="0.428559" nType="-99"/>
            <Node pos="r" depth="3" NCoef="0" IVar="-1" Cut="0" cType="1" res="0.00330804" purity="0.60776" nType="-99"/>
          </Node>
        </Node>
      </Node>
    </BinaryTree>
    <BinaryTree type="DecisionTree" boostWeight="1.0" itree="280">
      <Node pos="s" depth="0" NCoef="0" IVar="1" Cut="105354" cType="1" res="-0.00372668" purity="0.490759" nType="0">
        <Node pos="l" depth="1" NCoef="0" IVar="3" Cut="159349" cType="1" res="-0.0196164" purity="0.443227" nType="0">
          <Node pos="l" depth="2" NCoef="0" IVar="5" Cut="1.10563" cType="1" res="-0.0562437" purity="0.412694" nType="0">
            <Node pos="l" depth="3" NCoef="0" IVar="-1" Cut="0" cType="1" res="-0.000810408" purity="0.47304" nType="-99"/>
            <Node pos="r" depth="3" NCoef="0" IVar="-1" Cut="0" cType="1" res="-0.00646314" purity="0.345701" nType="-99"/>
          </Node>
          <Node pos="r" depth="2" NCoef="0" IVar="0" Cut="173111" cType="1" res="-0.000524925" purity="0.459141" nType="0">
            <Node pos="l" depth="3" NCoef="0" IVar="0" Cut="128517" cType="1" res="0.0133086" purity="0.459081" nType="0">
              <Node pos="l" depth="4" NCoef="0" IVar="-1" Cut="0" cType="1" res="-0.000724908" purity="0.420544" nType="-99"/>
              <Node pos="r" depth="4" NCoef="0" IVar="-1" Cut="0" cType="1" res="0.00216084" purity="0.504925" nType="-99"/>
            </Node>
            <Node pos="r" depth="3" NCoef="0" IVar="-1" Cut="0" cType="1" res="-0.00267094" purity="0.459351" nType="-99"/>
          </Node>
        </Node>
        <Node pos="r" depth="1" NCoef="0" IVar="6" Cut="2.52853" cType="1" res="0.00612134" purity="0.520218" nType="0">
          <Node pos="l" depth="2" NCoef="0" IVar="6" Cut="1.47988" cType="1" res="0.0154036" purity="0.546672" nType="0">
            <Node pos="l" depth="3" NCoef="0" IVar="3" Cut="189245" cType="1" res="-0.00805405" purity="0.518618" nType="0">
              <Node pos="l" depth="4" NCoef="0" IVar="-1" Cut="0" cType="1" res="0.000243894" purity="0.537192" nType="-99"/>
              <Node pos="r" depth="4" NCoef="0" IVar="-1" Cut="0" cType="1" res="-0.00317837" purity="0.445425" nType="-99"/>
            </Node>
            <Node pos="r" depth="3" NCoef="0" IVar="5" Cut="2.25402" cType="1" res="0.0392433" purity="0.575183" nType="0">
              <Node pos="l" depth="4" NCoef="0" IVar="-1" Cut="0" cType="1" res="0.00215926" purity="0.613622" nType="-99"/>
              <Node pos="r" depth="4" NCoef="0" IVar="-1" Cut="0" cType="1" res="-0.000150892" purity="0.432928" nType="-99"/>
            </Node>
          </Node>
          <Node pos="r" depth="2" NCoef="0" IVar="6" Cut="2.73785" cType="1" res="-0.0322071" purity="0.410982" nType="0">
            <Node pos="l" depth="3" NCoef="0" IVar="-1" Cut="0" cType="1" res="-0.00624732" purity="0.370775" nType="-99"/>
            <Node pos="r" depth="3" NCoef="0" IVar="-1" Cut="0" cType="1" res="0.000225934" purity="0.431678" nType="-99"/>
          </Node>
        </Node>
      </Node>
    </BinaryTree>
    <BinaryTree type="DecisionTree" boostWeight="1.0" itree="281">
      <Node pos="s" depth="0" NCoef="0" IVar="2" Cut="-6012.15" cType="1" res="0.0058937" purity="0.498196" nType="0">
        <Node pos="l" depth="1" NCoef="0" IVar="2" Cut="-8499.78" cType="1" res="0.0473301" purity="0.466316" nType="0">
          <Node pos="l" depth="2" NCoef="0" IVar="3" Cut="177588" cType="1" res="0.0299853" purity="0.444955" nType="0">
            <Node pos="l" depth="3" NCoef="0" IVar="4" Cut="294290" cType="1" res="0.0527043" purity="0.471081" nType="0">
              <Node pos="l" depth="4" NCoef="0" IVar="-1" Cut="0" cType="1" res="0.00141777" purity="0.462499" nType="-99"/>
              <Node pos="r" depth="4" NCoef="0" IVar="-1" Cut="0" cType="1" res="0.00457099" purity="0.485489" nType="-99"/>
            </Node>
            <Node pos="r" depth="3" NCoef="0" IVar="-1" Cut="0" cType="1" res="-0.000943617" purity="0.391798" nType="-99"/>
          </Node>
          <Node pos="r" depth="2" NCoef="0" IVar="-1" Cut="0" cType="1" res="0.00435671" purity="0.527757" nType="-99"/>
        </Node>
        <Node pos="r" depth="1" NCoef="0" IVar="4" Cut="421951" cType="1" res="-0.00576291" purity="0.507164" nType="0">
          <Node pos="l" depth="2" NCoef="0" IVar="4" Cut="186430" cType="1" res="-0.00882156" purity="0.508196" nType="0">
            <Node pos="l" depth="3" NCoef="0" IVar="4" Cut="171679" cType="1" res="0.0106179" purity="0.560246" nType="0">
              <Node pos="l" depth="4" NCoef="0" IVar="-1" Cut="0" cType="1" res="-0.000194035" purity="0.549616" nType="-99"/>
              <Node pos="r" depth="4" NCoef="0" IVar="-1" Cut="0" cType="1" res="0.001773" purity="0.581349" nType="-99"/>
            </Node>
            <Node pos="r" depth="3" NCoef="0" IVar="5" Cut="0.943689" cType="1" res="-0.0187611" purity="0.481582" nType="0">
              <Node pos="l" depth="4" NCoef="0" IVar="-1" Cut="0" cType="1" res="-0.00366094" purity="0.455484" nType="-99"/>
              <Node pos="r" depth="4" NCoef="0" IVar="-1" Cut="0" cType="1" res="-0.000451171" purity="0.486875" nType="-99"/>
            </Node>
          </Node>
          <Node pos="r" depth="2" NCoef="0" IVar="-1" Cut="0" cType="1" res="0.00203873" purity="0.490956" nType="-99"/>
        </Node>
      </Node>
    </BinaryTree>
    <BinaryTree type="DecisionTree" boostWeight="1.0" itree="282">
      <Node pos="s" depth="0" NCoef="0" IVar="5" Cut="1.39858" cType="1" res="-0.00912184" purity="0.485379" nType="0">
        <Node pos="l" depth="1" NCoef="0" IVar="1" Cut="128776" cType="1" res="0.00666282" purity="0.515648" nType="0">
          <Node pos="l" depth="2" NCoef="0" IVar="0" Cut="231682" cType="1" res="-0.00062575" purity="0.495256" nType="0">
            <Node pos="l" depth="3" NCoef="0" IVar="1" Cut="108914" cType="1" res="-0.00612888" purity="0.480303" nType="0">
              <Node pos="l" depth="4" NCoef="0" IVar="-1" Cut="0" cType="1" res="0.00018218" purity="0.472887" nType="-99"/>
              <Node pos="r" depth="4" NCoef="0" IVar="-1" Cut="0" cType="1" res="-0.00171887" purity="0.501969" nType="-99"/>
            </Node>
            <Node pos="r" depth="3" NCoef="0" IVar="-1" Cut="0" cType="1" res="0.00199434" purity="0.625806" nType="-99"/>
          </Node>
          <Node pos="r" depth="2" NCoef="0" IVar="-1" Cut="0" cType="1" res="0.00222385" purity="0.647758" nType="-99"/>
        </Node>
        <Node pos="r" depth="1" NCoef="0" IVar="1" Cut="166833" cType="1" res="-0.0256712" purity="0.453644" nType="0">
          <Node pos="l" depth="2" NCoef="0" IVar="3" Cut="154857" cType="1" res="-0.0399633" purity="0.44144" nType="0">
            <Node pos="l" depth="3" NCoef="0" IVar="3" Cut="134466" cType="1" res="-0.0799611" purity="0.401137" nType="0">
              <Node pos="l" depth="4" NCoef="0" IVar="-1" Cut="0" cType="1" res="-0.00262252" purity="0.430551" nType="-99"/>
              <Node pos="r" depth="4" NCoef="0" IVar="-1" Cut="0" cType="1" res="-0.00680279" purity="0.37064" nType="-99"/>
            </Node>
            <Node pos="r" depth="3" NCoef="0" IVar="5" Cut="1.90862" cType="1" res="-0.0229139" purity="0.458619" nType="0">
              <Node pos="l" depth="4" NCoef="0" IVar="-1" Cut="0" cType="1" res="-0.00262231" purity="0.438677" nType="-99"/>
              <Node pos="r" depth="4" NCoef="0" IVar="-1" Cut="0" cType="1" res="0.000206472" purity="0.480076" nType="-99"/>
            </Node>
          </Node>
          <Node pos="r" depth="2" NCoef="0" IVar="5" Cut="2.54682" cType="1" res="0.0232277" purity="0.495397" nType="0">
            <Node pos="l" depth="3" NCoef="0" IVar="-1" Cut="0" cType="1" res="0.00315637" purity="0.570386" nType="-99"/>
            <Node pos="r" depth="3" NCoef="0" IVar="-1" Cut="0" cType="1" res="-0.00373127" purity="0.373878" nType="-99"/>
          </Node>
        </Node>
      </Node>
    </BinaryTree>
    <BinaryTree type="DecisionTree" boostWeight="1.0" itree="283">
      <Node pos="s" depth="0" NCoef="0" IVar="6" Cut="0.229907" cType="1" res="0.00362469" purity="0.496016" nType="0">
        <Node pos="l" depth="1" NCoef="0" IVar="-1" Cut="0" cType="1" res="-0.00558879" purity="0.387858" nType="-99"/>
        <Node pos="r" depth="1" NCoef="0" IVar="1" Cut="130929" cType="1" res="0.00875885" purity="0.501499" nType="0">
          <Node pos="l" depth="2" NCoef="0" IVar="1" Cut="95990.2" cType="1" res="-0.000558928" purity="0.486551" nType="0">
            <Node pos="l" depth="3" NCoef="0" IVar="4" Cut="275601" cType="1" res="0.0314066" purity="0.49758" nType="0">
              <Node pos="l" depth="4" NCoef="0" IVar="-1" Cut="0" cType="1" res="0.00219405" purity="0.522073" nType="-99"/>
              <Node pos="r" depth="4" NCoef="0" IVar="-1" Cut="0" cType="1" res="-0.000944261" purity="0.414696" nType="-99"/>
            </Node>
            <Node pos="r" depth="3" NCoef="0" IVar="1" Cut="98548" cType="1" res="-0.0123512" purity="0.482482" nType="0">
              <Node pos="l" depth="4" NCoef="0" IVar="-1" Cut="0" cType="1" res="-0.00453999" purity="0.374072" nType="-99"/>
              <Node pos="r" depth="4" NCoef="0" IVar="-1" Cut="0" cType="1" res="-0.000251724" purity="0.495908" nType="-99"/>
            </Node>
          </Node>
          <Node pos="r" depth="2" NCoef="0" IVar="5" Cut="1.92282" cType="1" res="0.0329256" purity="0.540269" nType="0">
            <Node pos="l" depth="3" NCoef="0" IVar="0" Cut="143891" cType="1" res="0.0603516" purity="0.618746" nType="0">
              <Node pos="l" depth="4" NCoef="0" IVar="-1" Cut="0" cType="1" res="0.00353427" purity="0.619553" nType="-99"/>
              <Node pos="r" depth="4" NCoef="0" IVar="-1" Cut="0" cType="1" res="0.00121985" purity="0.617865" nType="-99"/>
            </Node>
            <Node pos="r" depth="3" NCoef="0" IVar="5" Cut="2.4585" cType="1" res="0.0112583" purity="0.478269" nType="0">
              <Node pos="l" depth="4" NCoef="0" IVar="-1" Cut="0" cType="1" res="-0.00319075" purity="0.433493" nType="-99"/>
              <Node pos="r" depth="4" NCoef="0" IVar="-1" Cut="0" cType="1" res="0.00269624" purity="0.508142" nType="-99"/>
            </Node>
          </Node>
        </Node>
      </Node>
    </BinaryTree>
    <BinaryTree type="DecisionTree" boostWeight="1.0" itree="284">
      <Node pos="s" depth="0" NCoef="0" IVar="5" Cut="0.656" cType="1" res="0.00404982" purity="0.495601" nType="0">
        <Node pos="l" depth="1" NCoef="0" IVar="-1" Cut="0" cType="1" res="-0.00352806" purity="0.483786" nType="-99"/>
        <Node pos="r" depth="1" NCoef="0" IVar="6" Cut="0.383154" cType="1" res="0.00791426" purity="0.496225" nType="0">
          <Node pos="l" depth="2" NCoef="0" IVar="-1" Cut="0" cType="1" res="0.00208542" purity="0.522336" nType="-99"/>
          <Node pos="r" depth="2" NCoef="0" IVar="0" Cut="114640" cType="1" res="0.00396493" purity="0.493493" nType="0">
            <Node pos="l" depth="3" NCoef="0" IVar="1" Cut="125684" cType="1" res="0.0215198" purity="0.464514" nType="0">
              <Node pos="l" depth="4" NCoef="0" IVar="-1" Cut="0" cType="1" res="0.00193426" purity="0.476268" nType="-99"/>
              <Node pos="r" depth="4" NCoef="0" IVar="-1" Cut="0" cType="1" res="-0.00117418" purity="0.434614" nType="-99"/>
            </Node>
            <Node pos="r" depth="3" NCoef="0" IVar="0" Cut="119176" cType="1" res="-0.0027372" purity="0.504557" nType="0">
              <Node pos="l" depth="4" NCoef="0" IVar="-1" Cut="0" cType="1" res="-0.00353592" purity="0.389619" nType="-99"/>
              <Node pos="r" depth="4" NCoef="0" IVar="-1" Cut="0" cType="1" res="0.000129914" purity="0.515551" nType="-99"/>
            </Node>
          </Node>
        </Node>
      </Node>
    </BinaryTree>
    <BinaryTree type="DecisionTree" boostWeight="1.0" itree="285">
      <Node pos="s" depth="0" NCoef="0" IVar="3" Cut="171360" cType="1" res="0.00566074" purity="0.497704" nType="0">
        <Node pos="l" depth="1" NCoef="0" IVar="4" Cut="275846" cType="1" res="0.0183811" purity="0.515781" nType="0">
          <Node pos="l" depth="2" NCoef="0" IVar="1" Cut="130870" cType="1" res="0.00687142" purity="0.522491" nType="0">
            <Node pos="l" depth="3" NCoef="0" IVar="1" Cut="104947" cType="1" res="0.01888" purity="0.524631" nType="0">
              <Node pos="l" depth="4" NCoef="0" IVar="-1" Cut="0" cType="1" res="-0.000193592" purity="0.473149" nType="-99"/>
              <Node pos="r" depth="4" NCoef="0" IVar="-1" Cut="0" cType="1" res="0.00197265" purity="0.581958" nType="-99"/>
            </Node>
            <Node pos="r" depth="3" NCoef="0" IVar="-1" Cut="0" cType="1" res="-0.00228946" purity="0.512875" nType="-99"/>
          </Node>
          <Node pos="r" depth="2" NCoef="0" IVar="1" Cut="141179" cType="1" res="0.0431868" purity="0.50132" nType="0">
            <Node pos="l" depth="3" NCoef="0" IVar="5" Cut="1.01803" cType="1" res="0.0187808" purity="0.467042" nType="0">
              <Node pos="l" depth="4" NCoef="0" IVar="-1" Cut="0" cType="1" res="0.00291499" purity="0.547082" nType="-99"/>
              <Node pos="r" depth="4" NCoef="0" IVar="-1" Cut="0" cType="1" res="-0.000863396" purity="0.410648" nType="-99"/>
            </Node>
            <Node pos="r" depth="3" NCoef="0" IVar="-1" Cut="0" cType="1" res="0.00326822" purity="0.547628" nType="-99"/>
          </Node>
        </Node>
        <Node pos="r" depth="1" NCoef="0" IVar="5" Cut="1.23049" cType="1" res="-0.00997722" purity="0.47548" nType="0">
          <Node pos="l" depth="2" NCoef="0" IVar="5" Cut="0.800179" cType="1" res="-0.0384725" purity="0.462361" nType="0">
            <Node pos="l" depth="3" NCoef="0" IVar="-1" Cut="0" cType="1" res="0.000928746" purity="0.547002" nType="-99"/>
            <Node pos="r" depth="3" NCoef="0" IVar="4" Cut="247021" cType="1" res="-0.067841" purity="0.420316" nType="0">
              <Node pos="l" depth="4" NCoef="0" IVar="-1" Cut="0" cType="1" res="-0.00530025" purity="0.411697" nType="-99"/>
              <Node pos="r" depth="4" NCoef="0" IVar="-1" Cut="0" cType="1" res="-0.00163224" purity="0.43353" nType="-99"/>
            </Node>
          </Node>
          <Node pos="r" depth="2" NCoef="0" IVar="1" Cut="156095" cType="1" res="0.00790682" purity="0.483714" nType="0">
            <Node pos="l" depth="3" NCoef="0" IVar="6" Cut="1.53248" cType="1" res="0.0200729" purity="0.49729" nType="0">
              <Node pos="l" depth="4" NCoef="0" IVar="-1" Cut="0" cType="1" res="0.00272799" purity="0.564613" nType="-99"/>
              <Node pos="r" depth="4" NCoef="0" IVar="-1" Cut="0" cType="1" res="-0.000534485" purity="0.448699" nType="-99"/>
            </Node>
            <Node pos="r" depth="3" NCoef="0" IVar="-1" Cut="0" cType="1" res="-0.00220747" purity="0.430506" nType="-99"/>
          </Node>
        </Node>
      </Node>
    </BinaryTree>
    <BinaryTree type="DecisionTree" boostWeight="1.0" itree="286">
      <Node pos="s" depth="0" NCoef="0" IVar="1" Cut="95119.4" cType="1" res="0.00581009" purity="0.499464" nType="0">
        <Node pos="l" depth="1" NCoef="0" IVar="1" Cut="91374.6" cType="1" res="-0.0234481" purity="0.435507" nType="0">
          <Node pos="l" depth="2" NCoef="0" IVar="-1" Cut="0" cType="1" res="-0.00393864" purity="0.394625" nType="-99"/>
          <Node pos="r" depth="2" NCoef="0" IVar="0" Cut="139011" cType="1" res="-0.00822111" purity="0.449947" nType="0">
            <Node pos="l" depth="3" NCoef="0" IVar="-1" Cut="0" cType="1" res="0.00124449" purity="0.459829" nType="-99"/>
            <Node pos="r" depth="3" NCoef="0" IVar="-1" Cut="0" cType="1" res="-0.00258269" purity="0.438159" nType="-99"/>
          </Node>
        </Node>
        <Node pos="r" depth="1" NCoef="0" IVar="0" Cut="109765" cType="1" res="0.0111255" purity="0.511084" nType="0">
          <Node pos="l" depth="2" NCoef="0" IVar="6" Cut="1.91527" cType="1" res="-0.0156182" purity="0.433257" nType="0">
            <Node pos="l" depth="3" NCoef="0" IVar="-1" Cut="0" cType="1" res="0.00118401" purity="0.504556" nType="-99"/>
            <Node pos="r" depth="3" NCoef="0" IVar="-1" Cut="0" cType="1" res="-0.00570223" purity="0.318729" nType="-99"/>
          </Node>
          <Node pos="r" depth="2" NCoef="0" IVar="1" Cut="194975" cType="1" res="0.0169597" purity="0.528062" nType="0">
            <Node pos="l" depth="3" NCoef="0" IVar="1" Cut="155993" cType="1" res="0.0120823" purity="0.526052" nType="0">
              <Node pos="l" depth="4" NCoef="0" IVar="-1" Cut="0" cType="1" res="0.000768228" purity="0.531691" nType="-99"/>
              <Node pos="r" depth="4" NCoef="0" IVar="-1" Cut="0" cType="1" res="-0.00130285" purity="0.478823" nType="-99"/>
            </Node>
            <Node pos="r" depth="3" NCoef="0" IVar="-1" Cut="0" cType="1" res="0.00281307" purity="0.547438" nType="-99"/>
          </Node>
        </Node>
      </Node>
    </BinaryTree>
    <BinaryTree type="DecisionTree" boostWeight="1.0" itree="287">
      <Node pos="s" depth="0" NCoef="0" IVar="6" Cut="2.45197" cType="1" res="-0.00905699" purity="0.483317" nType="0">
        <Node pos="l" depth="1" NCoef="0" IVar="0" Cut="109768" cType="1" res="1.15438e-05" purity="0.511428" nType="0">
          <Node pos="l" depth="2" NCoef="0" IVar="6" Cut="1.61495" cType="1" res="0.0254492" purity="0.490469" nType="0">
            <Node pos="l" depth="3" NCoef="0" IVar="-1" Cut="0" cType="1" res="0.00246783" purity="0.530241" nType="-99"/>
            <Node pos="r" depth="3" NCoef="0" IVar="-1" Cut="0" cType="1" res="-0.00176886" purity="0.412028" nType="-99"/>
          </Node>
          <Node pos="r" depth="2" NCoef="0" IVar="3" Cut="154580" cType="1" res="-0.00623214" purity="0.516572" nType="0">
            <Node pos="l" depth="3" NCoef="0" IVar="3" Cut="122829" cType="1" res="-0.0300824" purity="0.491646" nType="0">
              <Node pos="l" depth="4" NCoef="0" IVar="-1" Cut="0" cType="1" res="0.00154646" purity="0.547625" nType="-99"/>
              <Node pos="r" depth="4" NCoef="0" IVar="-1" Cut="0" cType="1" res="-0.0032383" purity="0.462719" nType="-99"/>
            </Node>
            <Node pos="r" depth="3" NCoef="0" IVar="6" Cut="2.2127" cType="1" res="0.00422853" purity="0.527505" nType="0">
              <Node pos="l" depth="4" NCoef="0" IVar="-1" Cut="0" cType="1" res="-0.000247521" purity="0.52226" nType="-99"/>
              <Node pos="r" depth="4" NCoef="0" IVar="-1" Cut="0" cType="1" res="0.00250412" purity="0.55704" nType="-99"/>
            </Node>
          </Node>
        </Node>
        <Node pos="r" depth="1" NCoef="0" IVar="3" Cut="147972" cType="1" res="-0.0353835" purity="0.40171" nType="0">
          <Node pos="l" depth="2" NCoef="0" IVar="-1" Cut="0" cType="1" res="0.00104828" purity="0.470727" nType="-99"/>
          <Node pos="r" depth="2" NCoef="0" IVar="4" Cut="207515" cType="1" res="-0.0529966" purity="0.380024" nType="0">
            <Node pos="l" depth="3" NCoef="0" IVar="-1" Cut="0" cType="1" res="-0.000450635" purity="0.455756" nType="-99"/>
            <Node pos="r" depth="3" NCoef="0" IVar="2" Cut="-5808.89" cType="1" res="-0.07882" purity="0.335933" nType="0">
              <Node pos="l" depth="4" NCoef="0" IVar="-1" Cut="0" cType="1" res="-0.00349832" purity="0.347248" nType="-99"/>
              <Node pos="r" depth="4" NCoef="0" IVar="-1" Cut="0" cType="1" res="-0.00823828" purity="0.319179" nType="-99"/>
            </Node>
          </Node>
        </Node>
      </Node>
    </BinaryTree>
    <BinaryTree type="DecisionTree" boostWeight="1.0" itree="288">
      <Node pos="s" depth="0" NCoef="0" IVar="2" Cut="24530.2" cType="1" res="-0.00372852" purity="0.48833" nType="0">
        <Node pos="l" depth="1" NCoef="0" IVar="3" Cut="147996" cType="1" res="-0.00827838" purity="0.466677" nType="0">
          <Node pos="l" depth="2" NCoef="0" IVar="2" Cut="-5343.18" cType="1" res="0.0171713" purity="0.497336" nType="0">
            <Node pos="l" depth="3" NCoef="0" IVar="-1" Cut="0" cType="1" res="-0.00180092" purity="0.401163" nType="-99"/>
            <Node pos="r" depth="3" NCoef="0" IVar="6" Cut="1.83922" cType="1" res="0.0334841" purity="0.529202" nType="0">
              <Node pos="l" depth="4" NCoef="0" IVar="-1" Cut="0" cType="1" res="0.000369289" purity="0.498825" nType="-99"/>
              <Node pos="r" depth="4" NCoef="0" IVar="-1" Cut="0" cType="1" res="0.00307553" purity="0.573697" nType="-99"/>
            </Node>
          </Node>
          <Node pos="r" depth="2" NCoef="0" IVar="5" Cut="1.3041" cType="1" res="-0.0167868" purity="0.456427" nType="0">
            <Node pos="l" depth="3" NCoef="0" IVar="4" Cut="188452" cType="1" res="-0.0380799" purity="0.441089" nType="0">
              <Node pos="l" depth="4" NCoef="0" IVar="-1" Cut="0" cType="1" res="0.000488415" purity="0.517237" nType="-99"/>
              <Node pos="r" depth="4" NCoef="0" IVar="-1" Cut="0" cType="1" res="-0.00383183" purity="0.396244" nType="-99"/>
            </Node>
            <Node pos="r" depth="3" NCoef="0" IVar="1" Cut="115592" cType="1" res="-0.00125896" purity="0.467612" nType="0">
              <Node pos="l" depth="4" NCoef="0" IVar="-1" Cut="0" cType="1" res="0.00121816" purity="0.476805" nType="-99"/>
              <Node pos="r" depth="4" NCoef="0" IVar="-1" Cut="0" cType="1" res="-0.00110584" purity="0.460511" nType="-99"/>
            </Node>
          </Node>
        </Node>
        <Node pos="r" depth="1" NCoef="0" IVar="-1" Cut="0" cType="1" res="0.00165118" purity="0.692463" nType="-99"/>
      </Node>
    </BinaryTree>
    <BinaryTree type="DecisionTree" boostWeight="1.0" itree="289">
      <Node pos="s" depth="0" NCoef="0" IVar="0" Cut="134158" cType="1" res="0.00752778" purity="0.499448" nType="0">
        <Node pos="l" depth="1" NCoef="0" IVar="2" Cut="-6241.26" cType="1" res="-0.00369806" purity="0.455046" nType="0">
          <Node pos="l" depth="2" NCoef="0" IVar="2" Cut="-11180.2" cType="1" res="0.0332439" purity="0.419329" nType="0">
            <Node pos="l" depth="3" NCoef="0" IVar="-1" Cut="0" cType="1" res="4.39791e-05" purity="0.378413" nType="-99"/>
            <Node pos="r" depth="3" NCoef="0" IVar="-1" Cut="0" cType="1" res="0.00395786" purity="0.477754" nType="-99"/>
          </Node>
          <Node pos="r" depth="2" NCoef="0" IVar="0" Cut="125827" cType="1" res="-0.015906" purity="0.46685" nType="0">
            <Node pos="l" depth="3" NCoef="0" IVar="5" Cut="2.08812" cType="1" res="-0.00589789" purity="0.47178" nType="0">
              <Node pos="l" depth="4" NCoef="0" IVar="-1" Cut="0" cType="1" res="0.000234511" purity="0.48509" nType="-99"/>
              <Node pos="r" depth="4" NCoef="0" IVar="-1" Cut="0" cType="1" res="-0.00186152" purity="0.43643" nType="-99"/>
            </Node>
            <Node pos="r" depth="3" NCoef="0" IVar="-1" Cut="0" cType="1" res="-0.00349523" purity="0.442966" nType="-99"/>
          </Node>
        </Node>
        <Node pos="r" depth="1" NCoef="0" IVar="6" Cut="1.53306" cType="1" res="0.0186084" purity="0.543276" nType="0">
          <Node pos="l" depth="2" NCoef="0" IVar="4" Cut="324666" cType="1" res="0.0376469" purity="0.561394" nType="0">
            <Node pos="l" depth="3" NCoef="0" IVar="0" Cut="166420" cType="1" res="0.0134951" purity="0.549471" nType="0">
              <Node pos="l" depth="4" NCoef="0" IVar="-1" Cut="0" cType="1" res="-0.000680504" purity="0.512417" nType="-99"/>
              <Node pos="r" depth="4" NCoef="0" IVar="-1" Cut="0" cType="1" res="0.00202652" purity="0.593776" nType="-99"/>
            </Node>
            <Node pos="r" depth="3" NCoef="0" IVar="-1" Cut="0" cType="1" res="0.00385687" purity="0.590352" nType="-99"/>
          </Node>
          <Node pos="r" depth="2" NCoef="0" IVar="4" Cut="266008" cType="1" res="0.00771577" purity="0.53291" nType="0">
            <Node pos="l" depth="3" NCoef="0" IVar="6" Cut="2.55336" cType="1" res="0.0316822" purity="0.577002" nType="0">
              <Node pos="l" depth="4" NCoef="0" IVar="-1" Cut="0" cType="1" res="0.000663299" purity="0.592957" nType="-99"/>
              <Node pos="r" depth="4" NCoef="0" IVar="-1" Cut="0" cType="1" res="0.00259399" purity="0.549401" nType="-99"/>
            </Node>
            <Node pos="r" depth="3" NCoef="0" IVar="4" Cut="328840" cType="1" res="-0.0378567" purity="0.449068" nType="0">
              <Node pos="l" depth="4" NCoef="0" IVar="-1" Cut="0" cType="1" res="-0.00643756" purity="0.392535" nType="-99"/>
              <Node pos="r" depth="4" NCoef="0" IVar="-1" Cut="0" cType="1" res="5.82798e-05" purity="0.481674" nType="-99"/>
            </Node>
          </Node>
        </Node>
      </Node>
    </BinaryTree>
    <BinaryTree type="DecisionTree" boostWeight="1.0" itree="290">
      <Node pos="s" depth="0" NCoef="0" IVar="5" Cut="0.729565" cType="1" res="0.00789221" purity="0.500404" nType="0">
        <Node pos="l" depth="1" NCoef="0" IVar="-1" Cut="0" cType="1" res="-0.00234931" purity="0.49741" nType="-99"/>
        <Node pos="r" depth="1" NCoef="0" IVar="4" Cut="314885" cType="1" res="0.0124672" purity="0.500655" nType="0">
          <Node pos="l" depth="2" NCoef="0" IVar="3" Cut="212392" cType="1" res="0.0204274" purity="0.523245" nType="0">
            <Node pos="l" depth="3" NCoef="0" IVar="0" Cut="202436" cType="1" res="0.0256844" purity="0.530881" nType="0">
              <Node pos="l" depth="4" NCoef="0" IVar="-1" Cut="0" cType="1" res="0.00099734" purity="0.518022" nType="-99"/>
              <Node pos="r" depth="4" NCoef="0" IVar="-1" Cut="0" cType="1" res="0.00299323" purity="0.655769" nType="-99"/>
            </Node>
            <Node pos="r" depth="3" NCoef="0" IVar="-1" Cut="0" cType="1" res="-0.00245905" purity="0.427692" nType="-99"/>
          </Node>
          <Node pos="r" depth="2" NCoef="0" IVar="5" Cut="1.08292" cType="1" res="-0.0172317" purity="0.416372" nType="0">
            <Node pos="l" depth="3" NCoef="0" IVar="-1" Cut="0" cType="1" res="0.00172313" purity="0.49363" nType="-99"/>
            <Node pos="r" depth="3" NCoef="0" IVar="6" Cut="1.30312" cType="1" res="-0.0363008" purity="0.388985" nType="0">
              <Node pos="l" depth="4" NCoef="0" IVar="-1" Cut="0" cType="1" res="-0.00609362" purity="0.35381" nType="-99"/>
              <Node pos="r" depth="4" NCoef="0" IVar="-1" Cut="0" cType="1" res="-0.000441926" purity="0.404897" nType="-99"/>
            </Node>
          </Node>
        </Node>
      </Node>
    </BinaryTree>
    <BinaryTree type="DecisionTree" boostWeight="1.0" itree="291">
      <Node pos="s" depth="0" NCoef="0" IVar="3" Cut="107464" cType="1" res="0.0156487" purity="0.508478" nType="0">
        <Node pos="l" depth="1" NCoef="0" IVar="-1" Cut="0" cType="1" res="0.00348135" purity="0.573541" nType="-99"/>
        <Node pos="r" depth="1" NCoef="0" IVar="5" Cut="1.99645" cType="1" res="0.0118562" purity="0.504757" nType="0">
          <Node pos="l" depth="2" NCoef="0" IVar="4" Cut="421901" cType="1" res="0.0040759" purity="0.504806" nType="0">
            <Node pos="l" depth="3" NCoef="0" IVar="0" Cut="202436" cType="1" res="2.91183e-05" purity="0.505534" nType="0">
              <Node pos="l" depth="4" NCoef="0" IVar="-1" Cut="0" cType="1" res="-0.000328138" purity="0.485569" nType="-99"/>
              <Node pos="r" depth="4" NCoef="0" IVar="-1" Cut="0" cType="1" res="0.00168503" purity="0.62186" nType="-99"/>
            </Node>
            <Node pos="r" depth="3" NCoef="0" IVar="-1" Cut="0" cType="1" res="0.00308296" purity="0.493847" nType="-99"/>
          </Node>
          <Node pos="r" depth="2" NCoef="0" IVar="1" Cut="141311" cType="1" res="0.0351415" purity="0.504612" nType="0">
            <Node pos="l" depth="3" NCoef="0" IVar="5" Cut="2.38762" cType="1" res="0.0710538" purity="0.550893" nType="0">
              <Node pos="l" depth="4" NCoef="0" IVar="-1" Cut="0" cType="1" res="0.00241743" purity="0.535255" nType="-99"/>
              <Node pos="r" depth="4" NCoef="0" IVar="-1" Cut="0" cType="1" res="0.00386066" purity="0.56579" nType="-99"/>
            </Node>
            <Node pos="r" depth="3" NCoef="0" IVar="5" Cut="2.69495" cType="1" res="-0.00310537" purity="0.455323" nType="0">
              <Node pos="l" depth="4" NCoef="0" IVar="-1" Cut="0" cType="1" res="0.00159534" purity="0.507513" nType="-99"/>
              <Node pos="r" depth="4" NCoef="0" IVar="-1" Cut="0" cType="1" res="-0.00424571" purity="0.366073" nType="-99"/>
            </Node>
          </Node>
        </Node>
      </Node>
    </BinaryTree>
    <BinaryTree type="DecisionTree" boostWeight="1.0" itree="292">
      <Node pos="s" depth="0" NCoef="0" IVar="4" Cut="197613" cType="1" res="0.00969876" purity="0.501016" nType="0">
        <Node pos="l" depth="1" NCoef="0" IVar="5" Cut="1.53777" cType="1" res="-0.00813978" purity="0.523842" nType="0">
          <Node pos="l" depth="2" NCoef="0" IVar="0" Cut="119530" cType="1" res="-0.024515" purity="0.512663" nType="0">
            <Node pos="l" depth="3" NCoef="0" IVar="-1" Cut="0" cType="1" res="-0.00408605" purity="0.421798" nType="-99"/>
            <Node pos="r" depth="3" NCoef="0" IVar="6" Cut="1.37991" cType="1" res="-0.00858621" purity="0.541281" nType="0">
              <Node pos="l" depth="4" NCoef="0" IVar="-1" Cut="0" cType="1" res="-0.00279057" purity="0.472439" nType="-99"/>
              <Node pos="r" depth="4" NCoef="0" IVar="-1" Cut="0" cType="1" res="0.000298008" purity="0.565023" nType="-99"/>
            </Node>
          </Node>
          <Node pos="r" depth="2" NCoef="0" IVar="-1" Cut="0" cType="1" res="0.00115843" purity="0.546837" nType="-99"/>
        </Node>
        <Node pos="r" depth="1" NCoef="0" IVar="1" Cut="105365" cType="1" res="0.0187183" purity="0.489474" nType="0">
          <Node pos="l" depth="2" NCoef="0" IVar="5" Cut="1.31053" cType="1" res="0.0525041" purity="0.488842" nType="0">
            <Node pos="l" depth="3" NCoef="0" IVar="6" Cut="1.68575" cType="1" res="0.0259487" purity="0.472741" nType="0">
              <Node pos="l" depth="4" NCoef="0" IVar="-1" Cut="0" cType="1" res="0.0035436" purity="0.531073" nType="-99"/>
              <Node pos="r" depth="4" NCoef="0" IVar="-1" Cut="0" cType="1" res="-0.000378759" purity="0.436212" nType="-99"/>
            </Node>
            <Node pos="r" depth="3" NCoef="0" IVar="-1" Cut="0" cType="1" res="0.0047063" purity="0.517403" nType="-99"/>
          </Node>
          <Node pos="r" depth="2" NCoef="0" IVar="2" Cut="811.58" cType="1" res="0.000725406" purity="0.489811" nType="0">
            <Node pos="l" depth="3" NCoef="0" IVar="6" Cut="2.75868" cType="1" res="-0.0278966" purity="0.399148" nType="0">
              <Node pos="l" depth="4" NCoef="0" IVar="-1" Cut="0" cType="1" res="-0.00357801" purity="0.377475" nType="-99"/>
              <Node pos="r" depth="4" NCoef="0" IVar="-1" Cut="0" cType="1" res="0.00145767" purity="0.438736" nType="-99"/>
            </Node>
            <Node pos="r" depth="3" NCoef="0" IVar="4" Cut="367017" cType="1" res="0.0202706" purity="0.551722" nType="0">
              <Node pos="l" depth="4" NCoef="0" IVar="-1" Cut="0" cType="1" res="0.000224889" purity="0.546692" nType="-99"/>
              <Node pos="r" depth="4" NCoef="0" IVar="-1" Cut="0" cType="1" res="0.00341433" purity="0.572227" nType="-99"/>
            </Node>
          </Node>
        </Node>
      </Node>
    </BinaryTree>
    <BinaryTree type="DecisionTree" boostWeight="1.0" itree="293">
      <Node pos="s" depth="0" NCoef="0" IVar="4" Cut="421962" cType="1" res="0.00813918" purity="0.499492" nType="0">
        <Node pos="l" depth="1" NCoef="0" IVar="2" Cut="20700.6" cType="1" res="0.0124808" purity="0.507976" nType="0">
          <Node pos="l" depth="2" NCoef="0" IVar="4" Cut="202140" cType="1" res="0.0171877" purity="0.49338" nType="0">
            <Node pos="l" depth="3" NCoef="0" IVar="3" Cut="189062" cType="1" res="-0.002015" purity="0.502855" nType="0">
              <Node pos="l" depth="4" NCoef="0" IVar="-1" Cut="0" cType="1" res="0.000588805" purity="0.518171" nType="-99"/>
              <Node pos="r" depth="4" NCoef="0" IVar="-1" Cut="0" cType="1" res="-0.00357565" purity="0.43547" nType="-99"/>
            </Node>
            <Node pos="r" depth="3" NCoef="0" IVar="6" Cut="1.07297" cType="1" res="0.0284266" purity="0.487835" nType="0">
              <Node pos="l" depth="4" NCoef="0" IVar="-1" Cut="0" cType="1" res="0.0029182" purity="0.526255" nType="-99"/>
              <Node pos="r" depth="4" NCoef="0" IVar="-1" Cut="0" cType="1" res="0.000829993" purity="0.475269" nType="-99"/>
            </Node>
          </Node>
          <Node pos="r" depth="2" NCoef="0" IVar="6" Cut="1.28134" cType="1" res="-0.0242521" purity="0.621885" nType="0">
            <Node pos="l" depth="3" NCoef="0" IVar="-1" Cut="0" cType="1" res="-0.0024334" purity="0.562697" nType="-99"/>
            <Node pos="r" depth="3" NCoef="0" IVar="-1" Cut="0" cType="1" res="0.000268562" purity="0.685914" nType="-99"/>
          </Node>
        </Node>
        <Node pos="r" depth="1" NCoef="0" IVar="-1" Cut="0" cType="1" res="-0.00472385" purity="0.341077" nType="-99"/>
      </Node>
    </BinaryTree>
    <BinaryTree type="DecisionTree" boostWeight="1.0" itree="294">
      <Node pos="s" depth="0" NCoef="0" IVar="1" Cut="95120.7" cType="1" res="0.00296815" purity="0.496337" nType="0">
        <Node pos="l" depth="1" NCoef="0" IVar="1" Cut="91498.4" cType="1" res="0.036589" purity="0.496457" nType="0">
          <Node pos="l" depth="2" NCoef="0" IVar="-1" Cut="0" cType="1" res="-0.00128338" purity="0.443054" nType="-99"/>
          <Node pos="r" depth="2" NCoef="0" IVar="2" Cut="2396.75" cType="1" res="0.0607357" purity="0.517993" nType="0">
            <Node pos="l" depth="3" NCoef="0" IVar="-1" Cut="0" cType="1" res="0.00460718" purity="0.51349" nType="-99"/>
            <Node pos="r" depth="3" NCoef="0" IVar="-1" Cut="0" cType="1" res="0.000905806" purity="0.523003" nType="-99"/>
          </Node>
        </Node>
        <Node pos="r" depth="1" NCoef="0" IVar="3" Cut="165520" cType="1" res="-0.00387036" purity="0.496313" nType="0">
          <Node pos="l" depth="2" NCoef="0" IVar="1" Cut="105113" cType="1" res="0.0123158" purity="0.51809" nType="0">
            <Node pos="l" depth="3" NCoef="0" IVar="1" Cut="99505.6" cType="1" res="-0.0213345" purity="0.446169" nType="0">
              <Node pos="l" depth="4" NCoef="0" IVar="-1" Cut="0" cType="1" res="-0.00307822" purity="0.401852" nType="-99"/>
              <Node pos="r" depth="4" NCoef="0" IVar="-1" Cut="0" cType="1" res="0.000305741" purity="0.486079" nType="-99"/>
            </Node>
            <Node pos="r" depth="3" NCoef="0" IVar="3" Cut="150310" cType="1" res="0.023652" purity="0.542319" nType="0">
              <Node pos="l" depth="4" NCoef="0" IVar="-1" Cut="0" cType="1" res="0.000394589" purity="0.525818" nType="-99"/>
              <Node pos="r" depth="4" NCoef="0" IVar="-1" Cut="0" cType="1" res="0.0021699" purity="0.566822" nType="-99"/>
            </Node>
          </Node>
          <Node pos="r" depth="2" NCoef="0" IVar="6" Cut="2.22214" cType="1" res="-0.0177652" purity="0.477619" nType="0">
            <Node pos="l" depth="3" NCoef="0" IVar="2" Cut="19725.5" cType="1" res="-0.0327515" purity="0.488161" nType="0">
              <Node pos="l" depth="4" NCoef="0" IVar="-1" Cut="0" cType="1" res="-0.00223166" purity="0.448752" nType="-99"/>
              <Node pos="r" depth="4" NCoef="0" IVar="-1" Cut="0" cType="1" res="0.000437533" purity="0.654102" nType="-99"/>
            </Node>
            <Node pos="r" depth="3" NCoef="0" IVar="1" Cut="110097" cType="1" res="0.00712694" purity="0.460108" nType="0">
              <Node pos="l" depth="4" NCoef="0" IVar="-1" Cut="0" cType="1" res="0.00203815" purity="0.491041" nType="-99"/>
              <Node pos="r" depth="4" NCoef="0" IVar="-1" Cut="0" cType="1" res="-0.00134205" purity="0.4315" nType="-99"/>
            </Node>
          </Node>
        </Node>
      </Node>
    </BinaryTree>
    <BinaryTree type="DecisionTree" boostWeight="1.0" itree="295">
      <Node pos="s" depth="0" NCoef="0" IVar="6" Cut="2.91168" cType="1" res="0.0150501" purity="0.507567" nType="0">
        <Node pos="l" depth="1" NCoef="0" IVar="0" Cut="139029" cType="1" res="0.0191846" purity="0.518285" nType="0">
          <Node pos="l" depth="2" NCoef="0" IVar="4" Cut="314636" cType="1" res="0.0322615" purity="0.506094" nType="0">
            <Node pos="l" depth="3" NCoef="0" IVar="5" Cut="1.08005" cType="1" res="0.0430152" purity="0.533022" nType="0">
              <Node pos="l" depth="4" NCoef="0" IVar="-1" Cut="0" cType="1" res="0.000181668" purity="0.511257" nType="-99"/>
              <Node pos="r" depth="4" NCoef="0" IVar="-1" Cut="0" cType="1" res="0.00232407" purity="0.53756" nType="-99"/>
            </Node>
            <Node pos="r" depth="3" NCoef="0" IVar="0" Cut="118086" cType="1" res="-0.0217392" purity="0.370869" nType="0">
              <Node pos="l" depth="4" NCoef="0" IVar="-1" Cut="0" cType="1" res="-0.00515838" purity="0.294535" nType="-99"/>
              <Node pos="r" depth="4" NCoef="0" IVar="-1" Cut="0" cType="1" res="0.00127894" purity="0.448764" nType="-99"/>
            </Node>
          </Node>
          <Node pos="r" depth="2" NCoef="0" IVar="4" Cut="334345" cType="1" res="0.00179274" purity="0.534499" nType="0">
            <Node pos="l" depth="3" NCoef="0" IVar="2" Cut="-2779.22" cType="1" res="-0.00914364" purity="0.53713" nType="0">
              <Node pos="l" depth="4" NCoef="0" IVar="-1" Cut="0" cType="1" res="-0.0035974" purity="0.407521" nType="-99"/>
              <Node pos="r" depth="4" NCoef="0" IVar="-1" Cut="0" cType="1" res="2.93327e-05" purity="0.560674" nType="-99"/>
            </Node>
            <Node pos="r" depth="3" NCoef="0" IVar="0" Cut="182200" cType="1" res="0.0357367" purity="0.526333" nType="0">
              <Node pos="l" depth="4" NCoef="0" IVar="-1" Cut="0" cType="1" res="0.00325696" purity="0.544024" nType="-99"/>
              <Node pos="r" depth="4" NCoef="0" IVar="-1" Cut="0" cType="1" res="-0.000948194" purity="0.502528" nType="-99"/>
            </Node>
          </Node>
        </Node>
        <Node pos="r" depth="1" NCoef="0" IVar="-1" Cut="0" cType="1" res="-0.00215502" purity="0.379272" nType="-99"/>
      </Node>
    </BinaryTree>
    <BinaryTree type="DecisionTree" boostWeight="1.0" itree="296">
      <Node pos="s" depth="0" NCoef="0" IVar="2" Cut="469.027" cType="1" res="0.0081311" purity="0.499987" nType="0">
        <Node pos="l" depth="1" NCoef="0" IVar="2" Cut="-14335.1" cType="1" res="0.0252757" purity="0.450038" nType="0">
          <Node pos="l" depth="2" NCoef="0" IVar="-1" Cut="0" cType="1" res="-0.00206801" purity="0.370341" nType="-99"/>
          <Node pos="r" depth="2" NCoef="0" IVar="5" Cut="1.25704" cType="1" res="0.0401422" purity="0.470089" nType="0">
            <Node pos="l" depth="3" NCoef="0" IVar="0" Cut="139027" cType="1" res="0.0783044" purity="0.507464" nType="0">
              <Node pos="l" depth="4" NCoef="0" IVar="-1" Cut="0" cType="1" res="0.00633554" purity="0.521859" nType="-99"/>
              <Node pos="r" depth="4" NCoef="0" IVar="-1" Cut="0" cType="1" res="0.00164921" purity="0.497196" nType="-99"/>
            </Node>
            <Node pos="r" depth="3" NCoef="0" IVar="1" Cut="105347" cType="1" res="0.013992" purity="0.444478" nType="0">
              <Node pos="l" depth="4" NCoef="0" IVar="-1" Cut="0" cType="1" res="-0.00297011" purity="0.362736" nType="-99"/>
              <Node pos="r" depth="4" NCoef="0" IVar="-1" Cut="0" cType="1" res="0.00183597" purity="0.476484" nType="-99"/>
            </Node>
          </Node>
        </Node>
        <Node pos="r" depth="1" NCoef="0" IVar="3" Cut="188893" cType="1" res="-0.00315841" purity="0.532877" nType="0">
          <Node pos="l" depth="2" NCoef="0" IVar="3" Cut="179488" cType="1" res="0.00400777" purity="0.5447" nType="0">
            <Node pos="l" depth="3" NCoef="0" IVar="6" Cut="2.25456" cType="1" res="-0.0034668" purity="0.540196" nType="0">
              <Node pos="l" depth="4" NCoef="0" IVar="-1" Cut="0" cType="1" res="0.000215505" purity="0.55262" nType="-99"/>
              <Node pos="r" depth="4" NCoef="0" IVar="-1" Cut="0" cType="1" res="-0.0033542" purity="0.454354" nType="-99"/>
            </Node>
            <Node pos="r" depth="3" NCoef="0" IVar="-1" Cut="0" cType="1" res="0.00198225" purity="0.569937" nType="-99"/>
          </Node>
          <Node pos="r" depth="2" NCoef="0" IVar="1" Cut="105358" cType="1" res="-0.029632" purity="0.489201" nType="0">
            <Node pos="l" depth="3" NCoef="0" IVar="-1" Cut="0" cType="1" res="0.000698328" purity="0.491928" nType="-99"/>
            <Node pos="r" depth="3" NCoef="0" IVar="-1" Cut="0" cType="1" res="-0.00283364" purity="0.487465" nType="-99"/>
          </Node>
        </Node>
      </Node>
    </BinaryTree>
    <BinaryTree type="DecisionTree" boostWeight="1.0" itree="297">
      <Node pos="s" depth="0" NCoef="0" IVar="4" Cut="236609" cType="1" res="0.0067846" purity="0.497923" nType="0">
        <Node pos="l" depth="1" NCoef="0" IVar="3" Cut="130843" cType="1" res="-0.0102853" purity="0.50842" nType="0">
          <Node pos="l" depth="2" NCoef="0" IVar="-1" Cut="0" cType="1" res="-0.00352935" purity="0.451253" nType="-99"/>
          <Node pos="r" depth="2" NCoef="0" IVar="1" Cut="134115" cType="1" res="-0.00336311" purity="0.515909" nType="0">
            <Node pos="l" depth="3" NCoef="0" IVar="5" Cut="1.91848" cType="1" res="0.00320457" purity="0.513643" nType="0">
              <Node pos="l" depth="4" NCoef="0" IVar="-1" Cut="0" cType="1" res="-0.000492896" purity="0.501119" nType="-99"/>
              <Node pos="r" depth="4" NCoef="0" IVar="-1" Cut="0" cType="1" res="0.00307" purity="0.577022" nType="-99"/>
            </Node>
            <Node pos="r" depth="3" NCoef="0" IVar="-1" Cut="0" cType="1" res="-0.00269339" purity="0.532804" nType="-99"/>
          </Node>
        </Node>
        <Node pos="r" depth="1" NCoef="0" IVar="1" Cut="217917" cType="1" res="0.0250428" purity="0.486696" nType="0">
          <Node pos="l" depth="2" NCoef="0" IVar="5" Cut="2.23645" cType="1" res="0.0200272" purity="0.481168" nType="0">
            <Node pos="l" depth="3" NCoef="0" IVar="1" Cut="133651" cType="1" res="0.029607" purity="0.497675" nType="0">
              <Node pos="l" depth="4" NCoef="0" IVar="-1" Cut="0" cType="1" res="0.00101088" purity="0.472033" nType="-99"/>
              <Node pos="r" depth="4" NCoef="0" IVar="-1" Cut="0" cType="1" res="0.00234022" purity="0.565545" nType="-99"/>
            </Node>
            <Node pos="r" depth="3" NCoef="0" IVar="5" Cut="2.65551" cType="1" res="-0.0188122" purity="0.414245" nType="0">
              <Node pos="l" depth="4" NCoef="0" IVar="-1" Cut="0" cType="1" res="-0.00286167" purity="0.393702" nType="-99"/>
              <Node pos="r" depth="4" NCoef="0" IVar="-1" Cut="0" cType="1" res="0.000552298" purity="0.433281" nType="-99"/>
            </Node>
          </Node>
          <Node pos="r" depth="2" NCoef="0" IVar="-1" Cut="0" cType="1" res="0.00344527" purity="0.545478" nType="-99"/>
        </Node>
      </Node>
    </BinaryTree>
    <BinaryTree type="DecisionTree" boostWeight="1.0" itree="298">
      <Node pos="s" depth="0" NCoef="0" IVar="6" Cut="2.9883" cType="1" res="0.00718195" purity="0.49908" nType="0">
        <Node pos="l" depth="1" NCoef="0" IVar="3" Cut="153812" cType="1" res="0.00383004" purity="0.500776" nType="0">
          <Node pos="l" depth="2" NCoef="0" IVar="1" Cut="166770" cType="1" res="0.0215662" purity="0.518256" nType="0">
            <Node pos="l" depth="3" NCoef="0" IVar="6" Cut="2.47811" cType="1" res="0.0116295" purity="0.509735" nType="0">
              <Node pos="l" depth="4" NCoef="0" IVar="-1" Cut="0" cType="1" res="-0.000132363" purity="0.50934" nType="-99"/>
              <Node pos="r" depth="4" NCoef="0" IVar="-1" Cut="0" cType="1" res="0.00295712" purity="0.511112" nType="-99"/>
            </Node>
            <Node pos="r" depth="3" NCoef="0" IVar="-1" Cut="0" cType="1" res="0.00335558" purity="0.567542" nType="-99"/>
          </Node>
          <Node pos="r" depth="2" NCoef="0" IVar="0" Cut="104880" cType="1" res="-0.00420326" purity="0.492858" nType="0">
            <Node pos="l" depth="3" NCoef="0" IVar="-1" Cut="0" cType="1" res="-0.00397824" purity="0.377806" nType="-99"/>
            <Node pos="r" depth="3" NCoef="0" IVar="0" Cut="195294" cType="1" res="0.0015363" purity="0.5035" nType="0">
              <Node pos="l" depth="4" NCoef="0" IVar="-1" Cut="0" cType="1" res="0.000412073" purity="0.500815" nType="-99"/>
              <Node pos="r" depth="4" NCoef="0" IVar="-1" Cut="0" cType="1" res="-0.00199314" purity="0.519472" nType="-99"/>
            </Node>
          </Node>
        </Node>
        <Node pos="r" depth="1" NCoef="0" IVar="-1" Cut="0" cType="1" res="0.00300342" purity="0.472609" nType="-99"/>
      </Node>
    </BinaryTree>
    <BinaryTree type="DecisionTree" boostWeight="1.0" itree="299">
      <Node pos="s" depth="0" NCoef="0" IVar="5" Cut="1.39688" cType="1" res="0.0104044" purity="0.503587" nType="0">
        <Node pos="l" depth="1" NCoef="0" IVar="4" Cut="314654" cType="1" res="0.0291571" purity="0.53415" nType="0">
          <Node pos="l" depth="2" NCoef="0" IVar="6" Cut="0.767146" cType="1" res="0.0205773" purity="0.537592" nType="0">
            <Node pos="l" depth="3" NCoef="0" IVar="-1" Cut="0" cType="1" res="-0.00129827" purity="0.446163" nType="-99"/>
            <Node pos="r" depth="3" NCoef="0" IVar="4" Cut="251882" cType="1" res="0.0286882" purity="0.55359" nType="0">
              <Node pos="l" depth="4" NCoef="0" IVar="-1" Cut="0" cType="1" res="0.00159983" purity="0.56514" nType="-99"/>
              <Node pos="r" depth="4" NCoef="0" IVar="-1" Cut="0" cType="1" res="-0.000265986" purity="0.493222" nType="-99"/>
            </Node>
          </Node>
          <Node pos="r" depth="2" NCoef="0" IVar="3" Cut="164669" cType="1" res="0.0588878" purity="0.522223" nType="0">
            <Node pos="l" depth="3" NCoef="0" IVar="-1" Cut="0" cType="1" res="0.00458702" purity="0.576059" nType="-99"/>
            <Node pos="r" depth="3" NCoef="0" IVar="-1" Cut="0" cType="1" res="0.00121669" purity="0.482748" nType="-99"/>
          </Node>
        </Node>
        <Node pos="r" depth="1" NCoef="0" IVar="0" Cut="104880" cType="1" res="-0.00913063" purity="0.471749" nType="0">
          <Node pos="l" depth="2" NCoef="0" IVar="-1" Cut="0" cType="1" res="-0.00398079" purity="0.375643" nType="-99"/>
          <Node pos="r" depth="2" NCoef="0" IVar="5" Cut="2.71599" cType="1" res="-0.000850285" purity="0.485983" nType="0">
            <Node pos="l" depth="3" NCoef="0" IVar="0" Cut="185777" cType="1" res="-0.00945594" purity="0.483748" nType="0">
              <Node pos="l" depth="4" NCoef="0" IVar="-1" Cut="0" cType="1" res="-0.000962487" purity="0.464634" nType="-99"/>
              <Node pos="r" depth="4" NCoef="0" IVar="-1" Cut="0" cType="1" res="0.00248657" purity="0.621113" nType="-99"/>
            </Node>
            <Node pos="r" depth="3" NCoef="0" IVar="-1" Cut="0" cType="1" res="0.00219896" purity="0.497596" nType="-99"/>
          </Node>
        </Node>
      </Node>
    </BinaryTree>
    <BinaryTree type="DecisionTree" boostWeight="1.0" itree="300">
      <Node pos="s" depth="0" NCoef="0" IVar="3" Cut="217701" cType="1" res="0.0172547" purity="0.51133" nType="0">
        <Node pos="l" depth="1" NCoef="0" IVar="0" Cut="251210" cType="1" res="0.0128615" purity="0.508961" nType="0">
          <Node pos="l" depth="2" NCoef="0" IVar="4" Cut="265882" cType="1" res="0.0100077" purity="0.502152" nType="0">
            <Node pos="l" depth="3" NCoef="0" IVar="2" Cut="17493.8" cType="1" res="-0.000615803" purity="0.514626" nType="0">
              <Node pos="l" depth="4" NCoef="0" IVar="-1" Cut="0" cType="1" res="-0.00049226" purity="0.472927" nType="-99"/>
              <Node pos="r" depth="4" NCoef="0" IVar="-1" Cut="0" cType="1" res="0.00167892" purity="0.697037" nType="-99"/>
            </Node>
            <Node pos="r" depth="3" NCoef="0" IVar="5" Cut="1.86357" cType="1" res="0.0298892" purity="0.478808" nType="0">
              <Node pos="l" depth="4" NCoef="0" IVar="-1" Cut="0" cType="1" res="0.000540128" purity="0.467927" nType="-99"/>
              <Node pos="r" depth="4" NCoef="0" IVar="-1" Cut="0" cType="1" res="0.00287864" purity="0.495728" nType="-99"/>
            </Node>
          </Node>
          <Node pos="r" depth="2" NCoef="0" IVar="-1" Cut="0" cType="1" res="0.0031117" purity="0.65985" nType="-99"/>
        </Node>
        <Node pos="r" depth="1" NCoef="0" IVar="6" Cut="1.99169" cType="1" res="0.0670598" purity="0.538197" nType="0">
          <Node pos="l" depth="2" NCoef="0" IVar="-1" Cut="0" cType="1" res="0.00184033" purity="0.52363" nType="-99"/>
          <Node pos="r" depth="2" NCoef="0" IVar="-1" Cut="0" cType="1" res="0.00403876" purity="0.552988" nType="-99"/>
        </Node>
      </Node>
    </BinaryTree>
    <BinaryTree type="DecisionTree" boostWeight="1.0" itree="301">
      <Node pos="s" depth="0" NCoef="0" IVar="1" Cut="177070" cType="1" res="0.00710632" purity="0.500802" nType="0">
        <Node pos="l" depth="1" NCoef="0" IVar="3" Cut="130340" cType="1" res="0.0131824" purity="0.50828" nType="0">
          <Node pos="l" depth="2" NCoef="0" IVar="3" Cut="113270" cType="1" res="-0.0248933" purity="0.476126" nType="0">
            <Node pos="l" depth="3" NCoef="0" IVar="-1" Cut="0" cType="1" res="0.000145907" purity="0.505417" nType="-99"/>
            <Node pos="r" depth="3" NCoef="0" IVar="-1" Cut="0" cType="1" res="-0.00283865" purity="0.448485" nType="-99"/>
          </Node>
          <Node pos="r" depth="2" NCoef="0" IVar="6" Cut="0.919582" cType="1" res="0.0185687" purity="0.512829" nType="0">
            <Node pos="l" depth="3" NCoef="0" IVar="4" Cut="256299" cType="1" res="0.047755" purity="0.537488" nType="0">
              <Node pos="l" depth="4" NCoef="0" IVar="-1" Cut="0" cType="1" res="0.000884009" purity="0.524906" nType="-99"/>
              <Node pos="r" depth="4" NCoef="0" IVar="-1" Cut="0" cType="1" res="0.00415369" purity="0.560632" nType="-99"/>
            </Node>
            <Node pos="r" depth="3" NCoef="0" IVar="1" Cut="102737" cType="1" res="0.0108646" purity="0.50632" nType="0">
              <Node pos="l" depth="4" NCoef="0" IVar="-1" Cut="0" cType="1" res="0.00147704" purity="0.495181" nType="-99"/>
              <Node pos="r" depth="4" NCoef="0" IVar="-1" Cut="0" cType="1" res="-0.000109801" purity="0.514116" nType="-99"/>
            </Node>
          </Node>
        </Node>
        <Node pos="r" depth="1" NCoef="0" IVar="1" Cut="210056" cType="1" res="-0.0606577" purity="0.417399" nType="0">
          <Node pos="l" depth="2" NCoef="0" IVar="-1" Cut="0" cType="1" res="-0.00537573" purity="0.394801" nType="-99"/>
          <Node pos="r" depth="2" NCoef="0" IVar="-1" Cut="0" cType="1" res="-0.00162993" purity="0.440615" nType="-99"/>
        </Node>
      </Node>
    </BinaryTree>
    <BinaryTree type="DecisionTree" boostWeight="1.0" itree="302">
      <Node pos="s" depth="0" NCoef="0" IVar="1" Cut="141207" cType="1" res="0.00055721" purity="0.495789" nType="0">
        <Node pos="l" depth="1" NCoef="0" IVar="4" Cut="207362" cType="1" res="-0.00855698" purity="0.484868" nType="0">
          <Node pos="l" depth="2" NCoef="0" IVar="4" Cut="196893" cType="1" res="0.00776579" purity="0.531645" nType="0">
            <Node pos="l" depth="3" NCoef="0" IVar="0" Cut="109764" cType="1" res="-0.00351492" purity="0.524904" nType="0">
              <Node pos="l" depth="4" NCoef="0" IVar="-1" Cut="0" cType="1" res="0.00191247" purity="0.538971" nType="-99"/>
              <Node pos="r" depth="4" NCoef="0" IVar="-1" Cut="0" cType="1" res="-0.000742513" purity="0.521241" nType="-99"/>
            </Node>
            <Node pos="r" depth="3" NCoef="0" IVar="-1" Cut="0" cType="1" res="0.00314914" purity="0.569221" nType="-99"/>
          </Node>
          <Node pos="r" depth="2" NCoef="0" IVar="1" Cut="124969" cType="1" res="-0.0245237" purity="0.439111" nType="0">
            <Node pos="l" depth="3" NCoef="0" IVar="2" Cut="-6322.42" cType="1" res="-0.014881" purity="0.437972" nType="0">
              <Node pos="l" depth="4" NCoef="0" IVar="-1" Cut="0" cType="1" res="0.00132739" purity="0.428488" nType="-99"/>
              <Node pos="r" depth="4" NCoef="0" IVar="-1" Cut="0" cType="1" res="-0.0016046" purity="0.441541" nType="-99"/>
            </Node>
            <Node pos="r" depth="3" NCoef="0" IVar="-1" Cut="0" cType="1" res="-0.00370118" purity="0.444298" nType="-99"/>
          </Node>
        </Node>
        <Node pos="r" depth="1" NCoef="0" IVar="6" Cut="1.76182" cType="1" res="0.0326338" purity="0.534224" nType="0">
          <Node pos="l" depth="2" NCoef="0" IVar="3" Cut="173144" cType="1" res="0.0058107" purity="0.529393" nType="0">
            <Node pos="l" depth="3" NCoef="0" IVar="-1" Cut="0" cType="1" res="0.00150033" purity="0.565025" nType="-99"/>
            <Node pos="r" depth="3" NCoef="0" IVar="-1" Cut="0" cType="1" res="-0.00220957" purity="0.468222" nType="-99"/>
          </Node>
          <Node pos="r" depth="2" NCoef="0" IVar="6" Cut="2.36733" cType="1" res="0.0634914" purity="0.539781" nType="0">
            <Node pos="l" depth="3" NCoef="0" IVar="-1" Cut="0" cType="1" res="0.00385473" purity="0.603362" nType="-99"/>
            <Node pos="r" depth="3" NCoef="0" IVar="-1" Cut="0" cType="1" res="0.00163728" purity="0.475425" nType="-99"/>
          </Node>
        </Node>
      </Node>
    </BinaryTree>
    <BinaryTree type="DecisionTree" boostWeight="1.0" itree="303">
      <Node pos="s" depth="0" NCoef="0" IVar="4" Cut="265869" cType="1" res="-0.000617365" purity="0.494662" nType="0">
        <Node pos="l" depth="1" NCoef="0" IVar="6" Cut="1.60897" cType="1" res="0.0124067" purity="0.529534" nType="0">
          <Node pos="l" depth="2" NCoef="0" IVar="1" Cut="132788" cType="1" res="0.0327437" purity="0.559409" nType="0">
            <Node pos="l" depth="3" NCoef="0" IVar="5" Cut="1.46984" cType="1" res="0.0536475" purity="0.570974" nType="0">
              <Node pos="l" depth="4" NCoef="0" IVar="-1" Cut="0" cType="1" res="0.00127801" purity="0.541821" nType="-99"/>
              <Node pos="r" depth="4" NCoef="0" IVar="-1" Cut="0" cType="1" res="0.00365886" purity="0.608356" nType="-99"/>
            </Node>
            <Node pos="r" depth="3" NCoef="0" IVar="-1" Cut="0" cType="1" res="-0.00282597" purity="0.5084" nType="-99"/>
          </Node>
          <Node pos="r" depth="2" NCoef="0" IVar="1" Cut="117360" cType="1" res="-0.00347979" purity="0.506197" nType="0">
            <Node pos="l" depth="3" NCoef="0" IVar="1" Cut="95339.2" cType="1" res="-0.022173" purity="0.469958" nType="0">
              <Node pos="l" depth="4" NCoef="0" IVar="-1" Cut="0" cType="1" res="-0.00366586" purity="0.416976" nType="-99"/>
              <Node pos="r" depth="4" NCoef="0" IVar="-1" Cut="0" cType="1" res="-0.000352359" purity="0.490486" nType="-99"/>
            </Node>
            <Node pos="r" depth="3" NCoef="0" IVar="3" Cut="170495" cType="1" res="0.0401591" purity="0.590795" nType="0">
              <Node pos="l" depth="4" NCoef="0" IVar="-1" Cut="0" cType="1" res="0.000443103" purity="0.576567" nType="-99"/>
              <Node pos="r" depth="4" NCoef="0" IVar="-1" Cut="0" cType="1" res="0.0030151" purity="0.604965" nType="-99"/>
            </Node>
          </Node>
        </Node>
        <Node pos="r" depth="1" NCoef="0" IVar="3" Cut="195625" cType="1" res="-0.02588" purity="0.427022" nType="0">
          <Node pos="l" depth="2" NCoef="0" IVar="0" Cut="124390" cType="1" res="-0.0143296" purity="0.439944" nType="0">
            <Node pos="l" depth="3" NCoef="0" IVar="0" Cut="110119" cType="1" res="0.0142085" purity="0.414212" nType="0">
              <Node pos="l" depth="4" NCoef="0" IVar="-1" Cut="0" cType="1" res="-0.00314014" purity="0.330415" nType="-99"/>
              <Node pos="r" depth="4" NCoef="0" IVar="-1" Cut="0" cType="1" res="0.00289322" purity="0.476927" nType="-99"/>
            </Node>
            <Node pos="r" depth="3" NCoef="0" IVar="4" Cut="328699" cType="1" res="-0.031376" purity="0.455315" nType="0">
              <Node pos="l" depth="4" NCoef="0" IVar="-1" Cut="0" cType="1" res="-0.00450744" purity="0.417396" nType="-99"/>
              <Node pos="r" depth="4" NCoef="0" IVar="-1" Cut="0" cType="1" res="-3.20811e-05" purity="0.479004" nType="-99"/>
            </Node>
          </Node>
          <Node pos="r" depth="2" NCoef="0" IVar="-1" Cut="0" cType="1" res="-0.00457227" purity="0.372903" nType="-99"/>
        </Node>
      </Node>
    </BinaryTree>
    <BinaryTree type="DecisionTree" boostWeight="1.0" itree="304">
      <Node pos="s" depth="0" NCoef="0" IVar="5" Cut="0.654168" cType="1" res="8.44013e-05" purity="0.49374" nType="0">
        <Node pos="l" depth="1" NCoef="0" IVar="-1" Cut="0" cType="1" res="-0.00291076" purity="0.511733" nType="-99"/>
        <Node pos="r" depth="1" NCoef="0" IVar="5" Cut="1.38217" cType="1" res="0.00296203" purity="0.492811" nType="0">
          <Node pos="l" depth="2" NCoef="0" IVar="4" Cut="314648" cType="1" res="0.0163449" purity="0.515853" nType="0">
            <Node pos="l" depth="3" NCoef="0" IVar="6" Cut="1.37931" cType="1" res="0.00868877" purity="0.521378" nType="0">
              <Node pos="l" depth="4" NCoef="0" IVar="-1" Cut="0" cType="1" res="-0.00169047" purity="0.461357" nType="-99"/>
              <Node pos="r" depth="4" NCoef="0" IVar="-1" Cut="0" cType="1" res="0.00111698" purity="0.543356" nType="-99"/>
            </Node>
            <Node pos="r" depth="3" NCoef="0" IVar="5" Cut="1.00928" cType="1" res="0.0429448" purity="0.496658" nType="0">
              <Node pos="l" depth="4" NCoef="0" IVar="-1" Cut="0" cType="1" res="0.0032542" purity="0.537532" nType="-99"/>
              <Node pos="r" depth="4" NCoef="0" IVar="-1" Cut="0" cType="1" res="0.000214194" purity="0.440783" nType="-99"/>
            </Node>
          </Node>
          <Node pos="r" depth="2" NCoef="0" IVar="0" Cut="109772" cType="1" res="-0.00880545" purity="0.472551" nType="0">
            <Node pos="l" depth="3" NCoef="0" IVar="1" Cut="115504" cType="1" res="-0.0497392" purity="0.392589" nType="0">
              <Node pos="l" depth="4" NCoef="0" IVar="-1" Cut="0" cType="1" res="-0.000869881" purity="0.425142" nType="-99"/>
              <Node pos="r" depth="4" NCoef="0" IVar="-1" Cut="0" cType="1" res="-0.00546369" purity="0.358033" nType="-99"/>
            </Node>
            <Node pos="r" depth="3" NCoef="0" IVar="5" Cut="1.68279" cType="1" res="0.00375637" purity="0.49709" nType="0">
              <Node pos="l" depth="4" NCoef="0" IVar="-1" Cut="0" cType="1" res="-0.00158461" purity="0.466246" nType="-99"/>
              <Node pos="r" depth="4" NCoef="0" IVar="-1" Cut="0" cType="1" res="0.00088028" purity="0.510096" nType="-99"/>
            </Node>
          </Node>
        </Node>
      </Node>
    </BinaryTree>
    <BinaryTree type="DecisionTree" boostWeight="1.0" itree="305">
      <Node pos="s" depth="0" NCoef="0" IVar="1" Cut="161633" cType="1" res="0.0148905" purity="0.506958" nType="0">
        <Node pos="l" depth="1" NCoef="0" IVar="4" Cut="236635" cType="1" res="0.0204037" purity="0.514142" nType="0">
          <Node pos="l" depth="2" NCoef="0" IVar="4" Cut="209989" cType="1" res="0.0100573" purity="0.527407" nType="0">
            <Node pos="l" depth="3" NCoef="0" IVar="6" Cut="0.843016" cType="1" res="0.0185208" purity="0.541658" nType="0">
              <Node pos="l" depth="4" NCoef="0" IVar="-1" Cut="0" cType="1" res="0.00229693" purity="0.541982" nType="-99"/>
              <Node pos="r" depth="4" NCoef="0" IVar="-1" Cut="0" cType="1" res="0.000488732" purity="0.541575" nType="-99"/>
            </Node>
            <Node pos="r" depth="3" NCoef="0" IVar="2" Cut="-304.737" cType="1" res="-0.0225668" purity="0.472472" nType="0">
              <Node pos="l" depth="4" NCoef="0" IVar="-1" Cut="0" cType="1" res="-0.00367164" purity="0.37191" nType="-99"/>
              <Node pos="r" depth="4" NCoef="0" IVar="-1" Cut="0" cType="1" res="0.000115741" purity="0.539402" nType="-99"/>
            </Node>
          </Node>
          <Node pos="r" depth="2" NCoef="0" IVar="3" Cut="148897" cType="1" res="0.035227" purity="0.495136" nType="0">
            <Node pos="l" depth="3" NCoef="0" IVar="1" Cut="109177" cType="1" res="0.0725427" purity="0.537791" nType="0">
              <Node pos="l" depth="4" NCoef="0" IVar="-1" Cut="0" cType="1" res="0.00467092" purity="0.539337" nType="-99"/>
              <Node pos="r" depth="4" NCoef="0" IVar="-1" Cut="0" cType="1" res="0.00201924" purity="0.536474" nType="-99"/>
            </Node>
            <Node pos="r" depth="3" NCoef="0" IVar="1" Cut="100483" cType="1" res="0.0229332" purity="0.481084" nType="0">
              <Node pos="l" depth="4" NCoef="0" IVar="-1" Cut="0" cType="1" res="-0.00153513" purity="0.39825" nType="-99"/>
              <Node pos="r" depth="4" NCoef="0" IVar="-1" Cut="0" cType="1" res="0.00193652" purity="0.51061" nType="-99"/>
            </Node>
          </Node>
        </Node>
        <Node pos="r" depth="1" NCoef="0" IVar="6" Cut="1.3795" cType="1" res="-0.0254455" purity="0.454403" nType="0">
          <Node pos="l" depth="2" NCoef="0" IVar="-1" Cut="0" cType="1" res="0.000753904" purity="0.518904" nType="-99"/>
          <Node pos="r" depth="2" NCoef="0" IVar="-1" Cut="0" cType="1" res="-0.00378894" purity="0.393769" nType="-99"/>
        </Node>
      </Node>
    </BinaryTree>
    <BinaryTree type="DecisionTree" boostWeight="1.0" itree="306">
      <Node pos="s" depth="0" NCoef="0" IVar="6" Cut="0.383257" cType="1" res="0.00478418" purity="0.498419" nType="0">
        <Node pos="l" depth="1" NCoef="0" IVar="6" Cut="0.186902" cType="1" res="0.0568352" purity="0.541349" nType="0">
          <Node pos="l" depth="2" NCoef="0" IVar="-1" Cut="0" cType="1" res="7.90845e-05" purity="0.482841" nType="-99"/>
          <Node pos="r" depth="2" NCoef="0" IVar="-1" Cut="0" cType="1" res="0.00411674" purity="0.585627" nType="-99"/>
        </Node>
        <Node pos="r" depth="1" NCoef="0" IVar="3" Cut="118774" cType="1" res="-0.000850551" purity="0.493771" nType="0">
          <Node pos="l" depth="2" NCoef="0" IVar="-1" Cut="0" cType="1" res="0.00183044" purity="0.544326" nType="-99"/>
          <Node pos="r" depth="2" NCoef="0" IVar="5" Cut="0.710043" cType="1" res="-0.00460918" purity="0.489217" nType="0">
            <Node pos="l" depth="3" NCoef="0" IVar="-1" Cut="0" cType="1" res="-0.0023713" purity="0.510604" nType="-99"/>
            <Node pos="r" depth="3" NCoef="0" IVar="5" Cut="1.4217" cType="1" res="-0.00129011" purity="0.487526" nType="0">
              <Node pos="l" depth="4" NCoef="0" IVar="-1" Cut="0" cType="1" res="0.000593451" purity="0.512063" nType="-99"/>
              <Node pos="r" depth="4" NCoef="0" IVar="-1" Cut="0" cType="1" res="-0.000728063" purity="0.464241" nType="-99"/>
            </Node>
          </Node>
        </Node>
      </Node>
    </BinaryTree>
    <BinaryTree type="DecisionTree" boostWeight="1.0" itree="307">
      <Node pos="s" depth="0" NCoef="0" IVar="6" Cut="0.383154" cType="1" res="0.0122247" purity="0.505433" nType="0">
        <Node pos="l" depth="1" NCoef="0" IVar="6" Cut="0.196205" cType="1" res="0.0590373" purity="0.541538" nType="0">
          <Node pos="l" depth="2" NCoef="0" IVar="-1" Cut="0" cType="1" res="0.00371191" purity="0.564911" nType="-99"/>
          <Node pos="r" depth="2" NCoef="0" IVar="-1" Cut="0" cType="1" res="0.00127804" purity="0.515159" nType="-99"/>
        </Node>
        <Node pos="r" depth="1" NCoef="0" IVar="4" Cut="178108" cType="1" res="0.00724899" purity="0.501596" nType="0">
          <Node pos="l" depth="2" NCoef="0" IVar="3" Cut="176559" cType="1" res="0.0340885" purity="0.578257" nType="0">
            <Node pos="l" depth="3" NCoef="0" IVar="4" Cut="151569" cType="1" res="0.0150369" purity="0.566025" nType="0">
              <Node pos="l" depth="4" NCoef="0" IVar="-1" Cut="0" cType="1" res="-0.00148465" purity="0.529859" nType="-99"/>
              <Node pos="r" depth="4" NCoef="0" IVar="-1" Cut="0" cType="1" res="0.00171741" purity="0.585256" nType="-99"/>
            </Node>
            <Node pos="r" depth="3" NCoef="0" IVar="-1" Cut="0" cType="1" res="0.00281194" purity="0.599047" nType="-99"/>
          </Node>
          <Node pos="r" depth="2" NCoef="0" IVar="5" Cut="1.33257" cType="1" res="-0.0011929" purity="0.477483" nType="0">
            <Node pos="l" depth="3" NCoef="0" IVar="5" Cut="0.707452" cType="1" res="-0.0311711" purity="0.461851" nType="0">
              <Node pos="l" depth="4" NCoef="0" IVar="-1" Cut="0" cType="1" res="0.00135834" purity="0.548739" nType="-99"/>
              <Node pos="r" depth="4" NCoef="0" IVar="-1" Cut="0" cType="1" res="-0.00233476" purity="0.445058" nType="-99"/>
            </Node>
            <Node pos="r" depth="3" NCoef="0" IVar="5" Cut="1.46511" cType="1" res="0.0196775" purity="0.488367" nType="0">
              <Node pos="l" depth="4" NCoef="0" IVar="-1" Cut="0" cType="1" res="0.00299697" purity="0.547319" nType="-99"/>
              <Node pos="r" depth="4" NCoef="0" IVar="-1" Cut="0" cType="1" res="0.000613672" purity="0.478751" nType="-99"/>
            </Node>
          </Node>
        </Node>
      </Node>
    </BinaryTree>
    <BinaryTree type="DecisionTree" boostWeight="1.0" itree="308">
      <Node pos="s" depth="0" NCoef="0" IVar="5" Cut="2.75987" cType="1" res="-0.00205097" purity="0.490294" nType="0">
        <Node pos="l" depth="1" NCoef="0" IVar="0" Cut="104887" cType="1" res="0.00288177" purity="0.497879" nType="0">
          <Node pos="l" depth="2" NCoef="0" IVar="-1" Cut="0" cType="1" res="0.00237972" purity="0.494815" nType="-99"/>
          <Node pos="r" depth="2" NCoef="0" IVar="1" Cut="166684" cType="1" res="-0.00224117" purity="0.498227" nType="0">
            <Node pos="l" depth="3" NCoef="0" IVar="4" Cut="383042" cType="1" res="-0.00661702" purity="0.493954" nType="0">
              <Node pos="l" depth="4" NCoef="0" IVar="-1" Cut="0" cType="1" res="-0.000540798" purity="0.497212" nType="-99"/>
              <Node pos="r" depth="4" NCoef="0" IVar="-1" Cut="0" cType="1" res="0.00169786" purity="0.463247" nType="-99"/>
            </Node>
            <Node pos="r" depth="3" NCoef="0" IVar="6" Cut="1.60946" cType="1" res="0.0352828" purity="0.534868" nType="0">
              <Node pos="l" depth="4" NCoef="0" IVar="-1" Cut="0" cType="1" res="3.70438e-05" purity="0.524017" nType="-99"/>
              <Node pos="r" depth="4" NCoef="0" IVar="-1" Cut="0" cType="1" res="0.00307768" purity="0.544761" nType="-99"/>
            </Node>
          </Node>
        </Node>
        <Node pos="r" depth="1" NCoef="0" IVar="-1" Cut="0" cType="1" res="-0.00484902" purity="0.372956" nType="-99"/>
      </Node>
    </BinaryTree>
    <BinaryTree type="DecisionTree" boostWeight="1.0" itree="309">
      <Node pos="s" depth="0" NCoef="0" IVar="0" Cut="158542" cType="1" res="0.013198" purity="0.508192" nType="0">
        <Node pos="l" depth="1" NCoef="0" IVar="2" Cut="14017.9" cType="1" res="0.00499072" purity="0.477893" nType="0">
          <Node pos="l" depth="2" NCoef="0" IVar="3" Cut="136582" cType="1" res="0.0141015" purity="0.453301" nType="0">
            <Node pos="l" depth="3" NCoef="0" IVar="-1" Cut="0" cType="1" res="0.00265388" purity="0.49648" nType="-99"/>
            <Node pos="r" depth="3" NCoef="0" IVar="4" Cut="256974" cType="1" res="0.00542263" purity="0.444244" nType="0">
              <Node pos="l" depth="4" NCoef="0" IVar="-1" Cut="0" cType="1" res="0.000944588" purity="0.481195" nType="-99"/>
              <Node pos="r" depth="4" NCoef="0" IVar="-1" Cut="0" cType="1" res="-0.00121534" purity="0.37568" nType="-99"/>
            </Node>
          </Node>
          <Node pos="r" depth="2" NCoef="0" IVar="0" Cut="115700" cType="1" res="-0.0289129" purity="0.569407" nType="0">
            <Node pos="l" depth="3" NCoef="0" IVar="-1" Cut="0" cType="1" res="-0.00336826" purity="0.497963" nType="-99"/>
            <Node pos="r" depth="3" NCoef="0" IVar="-1" Cut="0" cType="1" res="-0.000257532" purity="0.610015" nType="-99"/>
          </Node>
        </Node>
        <Node pos="r" depth="1" NCoef="0" IVar="3" Cut="193639" cType="1" res="0.0316898" purity="0.576457" nType="0">
          <Node pos="l" depth="2" NCoef="0" IVar="4" Cut="295401" cType="1" res="0.0188296" purity="0.569845" nType="0">
            <Node pos="l" depth="3" NCoef="0" IVar="2" Cut="9760.53" cType="1" res="0.0329005" purity="0.598251" nType="0">
              <Node pos="l" depth="4" NCoef="0" IVar="-1" Cut="0" cType="1" res="0.00212092" purity="0.55931" nType="-99"/>
              <Node pos="r" depth="4" NCoef="0" IVar="-1" Cut="0" cType="1" res="0.0002518" purity="0.669863" nType="-99"/>
            </Node>
            <Node pos="r" depth="3" NCoef="0" IVar="-1" Cut="0" cType="1" res="-0.000637504" purity="0.505247" nType="-99"/>
          </Node>
          <Node pos="r" depth="2" NCoef="0" IVar="-1" Cut="0" cType="1" res="0.00309195" purity="0.59871" nType="-99"/>
        </Node>
      </Node>
    </BinaryTree>
    <BinaryTree type="DecisionTree" boostWeight="1.0" itree="310">
      <Node pos="s" depth="0" NCoef="0" IVar="4" Cut="353804" cType="1" res="0.00393399" purity="0.497705" nType="0">
        <Node pos="l" depth="1" NCoef="0" IVar="5" Cut="1.0325" cType="1" res="0.0089568" purity="0.511778" nType="0">
          <Node pos="l" depth="2" NCoef="0" IVar="6" Cut="0.766301" cType="1" res="-0.0167667" purity="0.511394" nType="0">
            <Node pos="l" depth="3" NCoef="0" IVar="-1" Cut="0" cType="1" res="0.00125508" purity="0.495004" nType="-99"/>
            <Node pos="r" depth="3" NCoef="0" IVar="0" Cut="182894" cType="1" res="-0.0270685" purity="0.515214" nType="0">
              <Node pos="l" depth="4" NCoef="0" IVar="-1" Cut="0" cType="1" res="-0.00255947" purity="0.471815" nType="-99"/>
              <Node pos="r" depth="4" NCoef="0" IVar="-1" Cut="0" cType="1" res="0.000371269" purity="0.586599" nType="-99"/>
            </Node>
          </Node>
          <Node pos="r" depth="2" NCoef="0" IVar="4" Cut="267558" cType="1" res="0.0176263" purity="0.511907" nType="0">
            <Node pos="l" depth="3" NCoef="0" IVar="5" Cut="2.21539" cType="1" res="0.00364943" purity="0.512619" nType="0">
              <Node pos="l" depth="4" NCoef="0" IVar="-1" Cut="0" cType="1" res="0.00051048" purity="0.520192" nType="-99"/>
              <Node pos="r" depth="4" NCoef="0" IVar="-1" Cut="0" cType="1" res="-0.0014555" purity="0.478488" nType="-99"/>
            </Node>
            <Node pos="r" depth="3" NCoef="0" IVar="6" Cut="1.91685" cType="1" res="0.0534733" purity="0.510081" nType="0">
              <Node pos="l" depth="4" NCoef="0" IVar="-1" Cut="0" cType="1" res="0.000864854" purity="0.493726" nType="-99"/>
              <Node pos="r" depth="4" NCoef="0" IVar="-1" Cut="0" cType="1" res="0.00400398" purity="0.525571" nType="-99"/>
            </Node>
          </Node>
        </Node>
        <Node pos="r" depth="1" NCoef="0" IVar="5" Cut="0.954687" cType="1" res="-0.0264057" purity="0.4127" nType="0">
          <Node pos="l" depth="2" NCoef="0" IVar="-1" Cut="0" cType="1" res="0.00162127" purity="0.520624" nType="-99"/>
          <Node pos="r" depth="2" NCoef="0" IVar="5" Cut="2.07471" cType="1" res="-0.0519246" purity="0.367377" nType="0">
            <Node pos="l" depth="3" NCoef="0" IVar="-1" Cut="0" cType="1" res="-0.00529269" purity="0.344463" nType="-99"/>
            <Node pos="r" depth="3" NCoef="0" IVar="-1" Cut="0" cType="1" res="-0.00051092" purity="0.401327" nType="-99"/>
          </Node>
        </Node>
      </Node>
    </BinaryTree>
    <BinaryTree type="DecisionTree" boostWeight="1.0" itree="311">
      <Node pos="s" depth="0" NCoef="0" IVar="5" Cut="2.76456" cType="1" res="0.00207975" purity="0.496479" nType="0">
        <Node pos="l" depth="1" NCoef="0" IVar="0" Cut="109762" cType="1" res="0.00615161" purity="0.503616" nType="0">
          <Node pos="l" depth="2" NCoef="0" IVar="4" Cut="246223" cType="1" res="-0.0252352" purity="0.424157" nType="0">
            <Node pos="l" depth="3" NCoef="0" IVar="0" Cut="104765" cType="1" res="0.00153797" purity="0.484701" nType="0">
              <Node pos="l" depth="4" NCoef="0" IVar="-1" Cut="0" cType="1" res="-0.000779031" purity="0.470582" nType="-99"/>
              <Node pos="r" depth="4" NCoef="0" IVar="-1" Cut="0" cType="1" res="0.000851994" purity="0.49855" nType="-99"/>
            </Node>
            <Node pos="r" depth="3" NCoef="0" IVar="-1" Cut="0" cType="1" res="-0.00550879" purity="0.30809" nType="-99"/>
          </Node>
          <Node pos="r" depth="2" NCoef="0" IVar="4" Cut="324407" cType="1" res="0.0127391" purity="0.520293" nType="0">
            <Node pos="l" depth="3" NCoef="0" IVar="3" Cut="171369" cType="1" res="0.00357415" purity="0.524081" nType="0">
              <Node pos="l" depth="4" NCoef="0" IVar="-1" Cut="0" cType="1" res="0.000859843" purity="0.546401" nType="-99"/>
              <Node pos="r" depth="4" NCoef="0" IVar="-1" Cut="0" cType="1" res="-0.000749964" purity="0.495876" nType="-99"/>
            </Node>
            <Node pos="r" depth="3" NCoef="0" IVar="6" Cut="1.30288" cType="1" res="0.0466386" purity="0.506278" nType="0">
              <Node pos="l" depth="4" NCoef="0" IVar="-1" Cut="0" cType="1" res="0.00416266" purity="0.568683" nType="-99"/>
              <Node pos="r" depth="4" NCoef="0" IVar="-1" Cut="0" cType="1" res="0.00115021" purity="0.477754" nType="-99"/>
            </Node>
          </Node>
        </Node>
        <Node pos="r" depth="1" NCoef="0" IVar="-1" Cut="0" cType="1" res="-0.00377582" purity="0.386228" nType="-99"/>
      </Node>
    </BinaryTree>
    <BinaryTree type="DecisionTree" boostWeight="1.0" itree="312">
      <Node pos="s" depth="0" NCoef="0" IVar="2" Cut="23377.2" cType="1" res="-0.0013652" purity="0.493162" nType="0">
        <Node pos="l" depth="1" NCoef="0" IVar="1" Cut="125844" cType="1" res="-0.00537009" purity="0.4704" nType="0">
          <Node pos="l" depth="2" NCoef="0" IVar="3" Cut="142446" cType="1" res="0.00427789" purity="0.475407" nType="0">
            <Node pos="l" depth="3" NCoef="0" IVar="6" Cut="1.91499" cType="1" res="0.0374723" purity="0.510244" nType="0">
              <Node pos="l" depth="4" NCoef="0" IVar="-1" Cut="0" cType="1" res="-0.000324727" purity="0.460369" nType="-99"/>
              <Node pos="r" depth="4" NCoef="0" IVar="-1" Cut="0" cType="1" res="0.00345382" purity="0.554929" nType="-99"/>
            </Node>
            <Node pos="r" depth="3" NCoef="0" IVar="5" Cut="0.80877" cType="1" res="-0.00427888" purity="0.466427" nType="0">
              <Node pos="l" depth="4" NCoef="0" IVar="-1" Cut="0" cType="1" res="-0.00355211" purity="0.414389" nType="-99"/>
              <Node pos="r" depth="4" NCoef="0" IVar="-1" Cut="0" cType="1" res="0.000233098" purity="0.474173" nType="-99"/>
            </Node>
          </Node>
          <Node pos="r" depth="2" NCoef="0" IVar="0" Cut="124405" cType="1" res="-0.0293869" purity="0.457937" nType="0">
            <Node pos="l" depth="3" NCoef="0" IVar="1" Cut="146969" cType="1" res="-0.0760862" purity="0.361646" nType="0">
              <Node pos="l" depth="4" NCoef="0" IVar="-1" Cut="0" cType="1" res="-0.00735277" purity="0.354865" nType="-99"/>
              <Node pos="r" depth="4" NCoef="0" IVar="-1" Cut="0" cType="1" res="-0.00265965" purity="0.367829" nType="-99"/>
            </Node>
            <Node pos="r" depth="3" NCoef="0" IVar="3" Cut="178263" cType="1" res="-0.0038222" purity="0.510649" nType="0">
              <Node pos="l" depth="4" NCoef="0" IVar="-1" Cut="0" cType="1" res="-0.00211407" purity="0.478059" nType="-99"/>
              <Node pos="r" depth="4" NCoef="0" IVar="-1" Cut="0" cType="1" res="0.0021484" purity="0.557288" nType="-99"/>
            </Node>
          </Node>
        </Node>
        <Node pos="r" depth="1" NCoef="0" IVar="2" Cut="32326.2" cType="1" res="0.0321952" purity="0.683905" nType="0">
          <Node pos="l" depth="2" NCoef="0" IVar="-1" Cut="0" cType="1" res="0.00220583" purity="0.695338" nType="-99"/>
          <Node pos="r" depth="2" NCoef="0" IVar="-1" Cut="0" cType="1" res="0.000218716" purity="0.670423" nType="-99"/>
        </Node>
      </Node>
    </BinaryTree>
    <BinaryTree type="DecisionTree" boostWeight="1.0" itree="313">
      <Node pos="s" depth="0" NCoef="0" IVar="5" Cut="2.60709" cType="1" res="0.007341" purity="0.500002" nType="0">
        <Node pos="l" depth="1" NCoef="0" IVar="4" Cut="402434" cType="1" res="0.00257804" purity="0.50022" nType="0">
          <Node pos="l" depth="2" NCoef="0" IVar="5" Cut="1.08767" cType="1" res="0.00596682" purity="0.508802" nType="0">
            <Node pos="l" depth="3" NCoef="0" IVar="4" Cut="225405" cType="1" res="-0.0154294" purity="0.506707" nType="0">
              <Node pos="l" depth="4" NCoef="0" IVar="-1" Cut="0" cType="1" res="-0.00202178" purity="0.497409" nType="-99"/>
              <Node pos="r" depth="4" NCoef="0" IVar="-1" Cut="0" cType="1" res="0.00111603" purity="0.521601" nType="-99"/>
            </Node>
            <Node pos="r" depth="3" NCoef="0" IVar="5" Cut="1.19887" cType="1" res="0.0158871" purity="0.509773" nType="0">
              <Node pos="l" depth="4" NCoef="0" IVar="-1" Cut="0" cType="1" res="0.00282804" purity="0.555161" nType="-99"/>
              <Node pos="r" depth="4" NCoef="0" IVar="-1" Cut="0" cType="1" res="0.000415091" purity="0.502737" nType="-99"/>
            </Node>
          </Node>
          <Node pos="r" depth="2" NCoef="0" IVar="-1" Cut="0" cType="1" res="-0.00224389" purity="0.390267" nType="-99"/>
        </Node>
        <Node pos="r" depth="1" NCoef="0" IVar="5" Cut="2.86785" cType="1" res="0.0501438" purity="0.498037" nType="0">
          <Node pos="l" depth="2" NCoef="0" IVar="-1" Cut="0" cType="1" res="0.00395105" purity="0.54162" nType="-99"/>
          <Node pos="r" depth="2" NCoef="0" IVar="-1" Cut="0" cType="1" res="0.000409544" purity="0.446248" nType="-99"/>
        </Node>
      </Node>
    </BinaryTree>
    <BinaryTree type="DecisionTree" boostWeight="1.0" itree="314">
      <Node pos="s" depth="0" NCoef="0" IVar="0" Cut="182925" cType="1" res="0.0125796" purity="0.504974" nType="0">
        <Node pos="l" depth="1" NCoef="0" IVar="6" Cut="2.52853" cType="1" res="0.00503941" purity="0.482751" nType="0">
          <Node pos="l" depth="2" NCoef="0" IVar="2" Cut="-9230.52" cType="1" res="0.0119358" purity="0.509461" nType="0">
            <Node pos="l" depth="3" NCoef="0" IVar="-1" Cut="0" cType="1" res="0.00275377" purity="0.464352" nType="-99"/>
            <Node pos="r" depth="3" NCoef="0" IVar="4" Cut="275649" cType="1" res="0.00807797" purity="0.513403" nType="0">
              <Node pos="l" depth="4" NCoef="0" IVar="-1" Cut="0" cType="1" res="0.000766483" purity="0.541431" nType="-99"/>
              <Node pos="r" depth="4" NCoef="0" IVar="-1" Cut="0" cType="1" res="-0.000787945" purity="0.437447" nType="-99"/>
            </Node>
          </Node>
          <Node pos="r" depth="2" NCoef="0" IVar="0" Cut="142480" cType="1" res="-0.0191687" purity="0.388995" nType="0">
            <Node pos="l" depth="3" NCoef="0" IVar="0" Cut="124869" cType="1" res="-0.00185793" purity="0.392321" nType="0">
              <Node pos="l" depth="4" NCoef="0" IVar="-1" Cut="0" cType="1" res="-0.00109737" purity="0.363496" nType="-99"/>
              <Node pos="r" depth="4" NCoef="0" IVar="-1" Cut="0" cType="1" res="0.00158374" purity="0.453774" nType="-99"/>
            </Node>
            <Node pos="r" depth="3" NCoef="0" IVar="-1" Cut="0" cType="1" res="-0.00369029" purity="0.380363" nType="-99"/>
          </Node>
        </Node>
        <Node pos="r" depth="1" NCoef="0" IVar="0" Cut="217191" cType="1" res="0.0451811" purity="0.601061" nType="0">
          <Node pos="l" depth="2" NCoef="0" IVar="1" Cut="110473" cType="1" res="0.0761728" purity="0.609941" nType="0">
            <Node pos="l" depth="3" NCoef="0" IVar="-1" Cut="0" cType="1" res="0.00475738" purity="0.62979" nType="-99"/>
            <Node pos="r" depth="3" NCoef="0" IVar="-1" Cut="0" cType="1" res="0.0011399" purity="0.586037" nType="-99"/>
          </Node>
          <Node pos="r" depth="2" NCoef="0" IVar="6" Cut="1.91591" cType="1" res="0.0108206" purity="0.591215" nType="0">
            <Node pos="l" depth="3" NCoef="0" IVar="-1" Cut="0" cType="1" res="0.00254784" purity="0.645355" nType="-99"/>
            <Node pos="r" depth="3" NCoef="0" IVar="-1" Cut="0" cType="1" res="-0.00138057" purity="0.545994" nType="-99"/>
          </Node>
        </Node>
      </Node>
    </BinaryTree>
    <BinaryTree type="DecisionTree" boostWeight="1.0" itree="315">
      <Node pos="s" depth="0" NCoef="0" IVar="0" Cut="109758" cType="1" res="0.0147802" purity="0.508093" nType="0">
        <Node pos="l" depth="1" NCoef="0" IVar="5" Cut="1.41312" cType="1" res="-0.0223966" purity="0.421884" nType="0">
          <Node pos="l" depth="2" NCoef="0" IVar="-1" Cut="0" cType="1" res="0.00145606" purity="0.485518" nType="-99"/>
          <Node pos="r" depth="2" NCoef="0" IVar="0" Cut="104760" cType="1" res="-0.0523005" purity="0.385427" nType="0">
            <Node pos="l" depth="3" NCoef="0" IVar="-1" Cut="0" cType="1" res="-0.000363205" purity="0.42511" nType="-99"/>
            <Node pos="r" depth="3" NCoef="0" IVar="-1" Cut="0" cType="1" res="-0.00774974" purity="0.334531" nType="-99"/>
          </Node>
        </Node>
        <Node pos="r" depth="1" NCoef="0" IVar="2" Cut="4205.75" cType="1" res="0.0227449" purity="0.526562" nType="0">
          <Node pos="l" depth="2" NCoef="0" IVar="2" Cut="-9785.6" cType="1" res="0.0407709" purity="0.486735" nType="0">
            <Node pos="l" depth="3" NCoef="0" IVar="5" Cut="1.11827" cType="1" res="0.071851" purity="0.49851" nType="0">
              <Node pos="l" depth="4" NCoef="0" IVar="-1" Cut="0" cType="1" res="0.00559392" purity="0.568248" nType="-99"/>
              <Node pos="r" depth="4" NCoef="0" IVar="-1" Cut="0" cType="1" res="0.00202785" purity="0.46074" nType="-99"/>
            </Node>
            <Node pos="r" depth="3" NCoef="0" IVar="4" Cut="217661" cType="1" res="0.0295904" purity="0.482499" nType="0">
              <Node pos="l" depth="4" NCoef="0" IVar="-1" Cut="0" cType="1" res="0.00250875" purity="0.5166" nType="-99"/>
              <Node pos="r" depth="4" NCoef="0" IVar="-1" Cut="0" cType="1" res="0.000466162" purity="0.454322" nType="-99"/>
            </Node>
          </Node>
          <Node pos="r" depth="2" NCoef="0" IVar="3" Cut="171281" cType="1" res="0.0032309" purity="0.569677" nType="0">
            <Node pos="l" depth="3" NCoef="0" IVar="5" Cut="1.92001" cType="1" res="0.0239936" purity="0.596446" nType="0">
              <Node pos="l" depth="4" NCoef="0" IVar="-1" Cut="0" cType="1" res="0.000395719" purity="0.594483" nType="-99"/>
              <Node pos="r" depth="4" NCoef="0" IVar="-1" Cut="0" cType="1" res="0.00268814" purity="0.601663" nType="-99"/>
            </Node>
            <Node pos="r" depth="3" NCoef="0" IVar="6" Cut="0.987898" cType="1" res="-0.0261486" purity="0.531798" nType="0">
              <Node pos="l" depth="4" NCoef="0" IVar="-1" Cut="0" cType="1" res="-0.00588183" purity="0.412752" nType="-99"/>
              <Node pos="r" depth="4" NCoef="0" IVar="-1" Cut="0" cType="1" res="2.99961e-05" purity="0.574504" nType="-99"/>
            </Node>
          </Node>
        </Node>
      </Node>
    </BinaryTree>
    <BinaryTree type="DecisionTree" boostWeight="1.0" itree="316">
      <Node pos="s" depth="0" NCoef="0" IVar="0" Cut="114636" cType="1" res="0.0113682" purity="0.505852" nType="0">
        <Node pos="l" depth="1" NCoef="0" IVar="6" Cut="0.689622" cType="1" res="0.0404822" purity="0.484984" nType="0">
          <Node pos="l" depth="2" NCoef="0" IVar="-1" Cut="0" cType="1" res="-0.00099272" purity="0.42844" nType="-99"/>
          <Node pos="r" depth="2" NCoef="0" IVar="3" Cut="159716" cType="1" res="0.0530099" purity="0.497174" nType="0">
            <Node pos="l" depth="3" NCoef="0" IVar="-1" Cut="0" cType="1" res="0.00390556" purity="0.535432" nType="-99"/>
            <Node pos="r" depth="3" NCoef="0" IVar="2" Cut="-1356.41" cType="1" res="0.0313272" purity="0.472112" nType="0">
              <Node pos="l" depth="4" NCoef="0" IVar="-1" Cut="0" cType="1" res="-0.000113501" purity="0.364513" nType="-99"/>
              <Node pos="r" depth="4" NCoef="0" IVar="-1" Cut="0" cType="1" res="0.0024595" purity="0.548403" nType="-99"/>
            </Node>
          </Node>
        </Node>
        <Node pos="r" depth="1" NCoef="0" IVar="2" Cut="23392.6" cType="1" res="0.000615288" purity="0.513559" nType="0">
          <Node pos="l" depth="2" NCoef="0" IVar="0" Cut="119168" cType="1" res="-0.00608034" purity="0.487635" nType="0">
            <Node pos="l" depth="3" NCoef="0" IVar="-1" Cut="0" cType="1" res="-0.00435098" purity="0.368642" nType="-99"/>
            <Node pos="r" depth="3" NCoef="0" IVar="2" Cut="3293.66" cType="1" res="-0.000601217" purity="0.498026" nType="0">
              <Node pos="l" depth="4" NCoef="0" IVar="-1" Cut="0" cType="1" res="0.000826131" purity="0.473705" nType="-99"/>
              <Node pos="r" depth="4" NCoef="0" IVar="-1" Cut="0" cType="1" res="-0.000960108" purity="0.525998" nType="-99"/>
            </Node>
          </Node>
          <Node pos="r" depth="2" NCoef="0" IVar="-1" Cut="0" cType="1" res="0.00231183" purity="0.729215" nType="-99"/>
        </Node>
      </Node>
    </BinaryTree>
    <BinaryTree type="DecisionTree" boostWeight="1.0" itree="317">
      <Node pos="s" depth="0" NCoef="0" IVar="6" Cut="2.68184" cType="1" res="0.0052885" purity="0.500448" nType="0">
        <Node pos="l" depth="1" NCoef="0" IVar="2" Cut="3838.39" cType="1" res="-0.000830802" purity="0.50943" nType="0">
          <Node pos="l" depth="2" NCoef="0" IVar="4" Cut="198001" cType="1" res="-0.022428" purity="0.417175" nType="0">
            <Node pos="l" depth="3" NCoef="0" IVar="6" Cut="2.09311" cType="1" res="-0.0724368" purity="0.377056" nType="0">
              <Node pos="l" depth="4" NCoef="0" IVar="-1" Cut="0" cType="1" res="-0.0102709" purity="0.293691" nType="-99"/>
              <Node pos="r" depth="4" NCoef="0" IVar="-1" Cut="0" cType="1" res="-0.000495623" purity="0.461188" nType="-99"/>
            </Node>
            <Node pos="r" depth="3" NCoef="0" IVar="0" Cut="168273" cType="1" res="-0.00304145" purity="0.432727" nType="0">
              <Node pos="l" depth="4" NCoef="0" IVar="-1" Cut="0" cType="1" res="-0.0010396" purity="0.398519" nType="-99"/>
              <Node pos="r" depth="4" NCoef="0" IVar="-1" Cut="0" cType="1" res="0.00225059" purity="0.555763" nType="-99"/>
            </Node>
          </Node>
          <Node pos="r" depth="2" NCoef="0" IVar="5" Cut="2.30174" cType="1" res="0.0127387" purity="0.567394" nType="0">
            <Node pos="l" depth="3" NCoef="0" IVar="1" Cut="125572" cType="1" res="0.00482675" purity="0.56914" nType="0">
              <Node pos="l" depth="4" NCoef="0" IVar="-1" Cut="0" cType="1" res="0.000724739" purity="0.56654" nType="-99"/>
              <Node pos="r" depth="4" NCoef="0" IVar="-1" Cut="0" cType="1" res="-0.00130663" purity="0.57659" nType="-99"/>
            </Node>
            <Node pos="r" depth="3" NCoef="0" IVar="-1" Cut="0" cType="1" res="0.00219137" purity="0.559451" nType="-99"/>
          </Node>
        </Node>
        <Node pos="r" depth="1" NCoef="0" IVar="3" Cut="148004" cType="1" res="0.0336356" purity="0.458839" nType="0">
          <Node pos="l" depth="2" NCoef="0" IVar="-1" Cut="0" cType="1" res="0.00400991" purity="0.536298" nType="-99"/>
          <Node pos="r" depth="2" NCoef="0" IVar="4" Cut="265869" cType="1" res="0.0161615" purity="0.435362" nType="0">
            <Node pos="l" depth="3" NCoef="0" IVar="-1" Cut="0" cType="1" res="-0.000644687" purity="0.428075" nType="-99"/>
            <Node pos="r" depth="3" NCoef="0" IVar="-1" Cut="0" cType="1" res="0.00278017" purity="0.44471" nType="-99"/>
          </Node>
        </Node>
      </Node>
    </BinaryTree>
    <BinaryTree type="DecisionTree" boostWeight="1.0" itree="318">
      <Node pos="s" depth="0" NCoef="0" IVar="4" Cut="392788" cType="1" res="5.80864e-05" purity="0.49239" nType="0">
        <Node pos="l" depth="1" NCoef="0" IVar="3" Cut="165519" cType="1" res="-0.0043188" purity="0.495507" nType="0">
          <Node pos="l" depth="2" NCoef="0" IVar="6" Cut="0.459751" cType="1" res="-0.0191779" purity="0.48734" nType="0">
            <Node pos="l" depth="3" NCoef="0" IVar="-1" Cut="0" cType="1" res="-0.00457676" purity="0.407639" nType="-99"/>
            <Node pos="r" depth="3" NCoef="0" IVar="6" Cut="1.57209" cType="1" res="-0.0117421" purity="0.496846" nType="0">
              <Node pos="l" depth="4" NCoef="0" IVar="-1" Cut="0" cType="1" res="0.000974586" purity="0.547952" nType="-99"/>
              <Node pos="r" depth="4" NCoef="0" IVar="-1" Cut="0" cType="1" res="-0.00161226" purity="0.466974" nType="-99"/>
            </Node>
          </Node>
          <Node pos="r" depth="2" NCoef="0" IVar="3" Cut="172075" cType="1" res="0.00763805" purity="0.502079" nType="0">
            <Node pos="l" depth="3" NCoef="0" IVar="3" Cut="168876" cType="1" res="0.0610415" purity="0.577475" nType="0">
              <Node pos="l" depth="4" NCoef="0" IVar="-1" Cut="0" cType="1" res="0.00105968" purity="0.535709" nType="-99"/>
              <Node pos="r" depth="4" NCoef="0" IVar="-1" Cut="0" cType="1" res="0.00401698" purity="0.612987" nType="-99"/>
            </Node>
            <Node pos="r" depth="3" NCoef="0" IVar="0" Cut="187774" cType="1" res="-0.00666802" purity="0.481881" nType="0">
              <Node pos="l" depth="4" NCoef="0" IVar="-1" Cut="0" cType="1" res="0.00010451" purity="0.479725" nType="-99"/>
              <Node pos="r" depth="4" NCoef="0" IVar="-1" Cut="0" cType="1" res="-0.00316467" purity="0.495119" nType="-99"/>
            </Node>
          </Node>
        </Node>
        <Node pos="r" depth="1" NCoef="0" IVar="0" Cut="153609" cType="1" res="0.0407907" purity="0.46338" nType="0">
          <Node pos="l" depth="2" NCoef="0" IVar="-1" Cut="0" cType="1" res="-0.000267549" purity="0.353789" nType="-99"/>
          <Node pos="r" depth="2" NCoef="0" IVar="-1" Cut="0" cType="1" res="0.00346324" purity="0.568416" nType="-99"/>
        </Node>
      </Node>
    </BinaryTree>
    <BinaryTree type="DecisionTree" boostWeight="1.0" itree="319">
      <Node pos="s" depth="0" NCoef="0" IVar="6" Cut="2.52856" cType="1" res="0.00015099" purity="0.491498" nType="0">
        <Node pos="l" depth="1" NCoef="0" IVar="3" Cut="218223" cType="1" res="-0.00896765" purity="0.500683" nType="0">
          <Node pos="l" depth="2" NCoef="0" IVar="5" Cut="1.08035" cType="1" res="-0.00361892" purity="0.508334" nType="0">
            <Node pos="l" depth="3" NCoef="0" IVar="4" Cut="334115" cType="1" res="0.0226648" purity="0.560048" nType="0">
              <Node pos="l" depth="4" NCoef="0" IVar="-1" Cut="0" cType="1" res="0.000346354" purity="0.557161" nType="-99"/>
              <Node pos="r" depth="4" NCoef="0" IVar="-1" Cut="0" cType="1" res="0.00373631" purity="0.572024" nType="-99"/>
            </Node>
            <Node pos="r" depth="3" NCoef="0" IVar="0" Cut="173174" cType="1" res="-0.0148588" purity="0.486219" nType="0">
              <Node pos="l" depth="4" NCoef="0" IVar="-1" Cut="0" cType="1" res="-0.000409211" purity="0.482922" nType="-99"/>
              <Node pos="r" depth="4" NCoef="0" IVar="-1" Cut="0" cType="1" res="-0.0028703" purity="0.506088" nType="-99"/>
            </Node>
          </Node>
          <Node pos="r" depth="2" NCoef="0" IVar="-1" Cut="0" cType="1" res="-0.00541493" purity="0.387968" nType="-99"/>
        </Node>
        <Node pos="r" depth="1" NCoef="0" IVar="5" Cut="1.30786" cType="1" res="0.0278052" purity="0.46364" nType="0">
          <Node pos="l" depth="2" NCoef="0" IVar="3" Cut="163999" cType="1" res="0.00446065" purity="0.45664" nType="0">
            <Node pos="l" depth="3" NCoef="0" IVar="-1" Cut="0" cType="1" res="-0.00364094" purity="0.395967" nType="-99"/>
            <Node pos="r" depth="3" NCoef="0" IVar="-1" Cut="0" cType="1" res="0.00200124" purity="0.490704" nType="-99"/>
          </Node>
          <Node pos="r" depth="2" NCoef="0" IVar="0" Cut="129182" cType="1" res="0.0523486" purity="0.471001" nType="0">
            <Node pos="l" depth="3" NCoef="0" IVar="-1" Cut="0" cType="1" res="0.00146858" purity="0.413146" nType="-99"/>
            <Node pos="r" depth="3" NCoef="0" IVar="-1" Cut="0" cType="1" res="0.00378872" purity="0.551981" nType="-99"/>
          </Node>
        </Node>
      </Node>
    </BinaryTree>
    <BinaryTree type="DecisionTree" boostWeight="1.0" itree="320">
      <Node pos="s" depth="0" NCoef="0" IVar="3" Cut="206408" cType="1" res="0.0151284" purity="0.509177" nType="0">
        <Node pos="l" depth="1" NCoef="0" IVar="0" Cut="202436" cType="1" res="0.0095868" purity="0.507013" nType="0">
          <Node pos="l" depth="2" NCoef="0" IVar="4" Cut="256142" cType="1" res="0.00485486" purity="0.491114" nType="0">
            <Node pos="l" depth="3" NCoef="0" IVar="3" Cut="181504" cType="1" res="0.0165385" purity="0.526289" nType="0">
              <Node pos="l" depth="4" NCoef="0" IVar="-1" Cut="0" cType="1" res="0.00119762" purity="0.538661" nType="-99"/>
              <Node pos="r" depth="4" NCoef="0" IVar="-1" Cut="0" cType="1" res="-0.000942761" purity="0.480096" nType="-99"/>
            </Node>
            <Node pos="r" depth="3" NCoef="0" IVar="2" Cut="6919.45" cType="1" res="-0.0166692" purity="0.426315" nType="0">
              <Node pos="l" depth="4" NCoef="0" IVar="-1" Cut="0" cType="1" res="0.000489444" purity="0.412742" nType="-99"/>
              <Node pos="r" depth="4" NCoef="0" IVar="-1" Cut="0" cType="1" res="-0.00346663" purity="0.453014" nType="-99"/>
            </Node>
          </Node>
          <Node pos="r" depth="2" NCoef="0" IVar="0" Cut="228615" cType="1" res="0.0420593" purity="0.616115" nType="0">
            <Node pos="l" depth="3" NCoef="0" IVar="-1" Cut="0" cType="1" res="0.00315147" purity="0.63948" nType="-99"/>
            <Node pos="r" depth="3" NCoef="0" IVar="-1" Cut="0" cType="1" res="0.000544459" purity="0.595829" nType="-99"/>
          </Node>
        </Node>
        <Node pos="r" depth="1" NCoef="0" IVar="6" Cut="2.45151" cType="1" res="0.0554873" purity="0.524938" nType="0">
          <Node pos="l" depth="2" NCoef="0" IVar="3" Cut="224645" cType="1" res="0.034745" purity="0.520239" nType="0">
            <Node pos="l" depth="3" NCoef="0" IVar="-1" Cut="0" cType="1" res="0.00115317" purity="0.520272" nType="-99"/>
            <Node pos="r" depth="3" NCoef="0" IVar="-1" Cut="0" cType="1" res="0.00208875" purity="0.520206" nType="-99"/>
          </Node>
          <Node pos="r" depth="2" NCoef="0" IVar="-1" Cut="0" cType="1" res="0.00435678" purity="0.534559" nType="-99"/>
        </Node>
      </Node>
    </BinaryTree>
    <BinaryTree type="DecisionTree" boostWeight="1.0" itree="321">
      <Node pos="s" depth="0" NCoef="0" IVar="3" Cut="194689" cType="1" res="-0.00691849" purity="0.486914" nType="0">
        <Node pos="l" depth="1" NCoef="0" IVar="4" Cut="246590" cType="1" res="-0.0136863" purity="0.484189" nType="0">
          <Node pos="l" depth="2" NCoef="0" IVar="6" Cut="2.2218" cType="1" res="-0.000563413" purity="0.521999" nType="0">
            <Node pos="l" depth="3" NCoef="0" IVar="2" Cut="14403.2" cType="1" res="-0.0165955" purity="0.529983" nType="0">
              <Node pos="l" depth="4" NCoef="0" IVar="-1" Cut="0" cType="1" res="-0.00211041" purity="0.450025" nType="-99"/>
              <Node pos="r" depth="4" NCoef="0" IVar="-1" Cut="0" cType="1" res="0.00102805" purity="0.671249" nType="-99"/>
            </Node>
            <Node pos="r" depth="3" NCoef="0" IVar="4" Cut="203898" cType="1" res="0.0290487" purity="0.507253" nType="0">
              <Node pos="l" depth="4" NCoef="0" IVar="-1" Cut="0" cType="1" res="0.000116894" purity="0.492127" nType="-99"/>
              <Node pos="r" depth="4" NCoef="0" IVar="-1" Cut="0" cType="1" res="0.00308055" purity="0.529106" nType="-99"/>
            </Node>
          </Node>
          <Node pos="r" depth="2" NCoef="0" IVar="0" Cut="109765" cType="1" res="-0.0337331" purity="0.42643" nType="0">
            <Node pos="l" depth="3" NCoef="0" IVar="-1" Cut="0" cType="1" res="-0.00553536" purity="0.309231" nType="-99"/>
            <Node pos="r" depth="3" NCoef="0" IVar="0" Cut="137610" cType="1" res="-0.0255434" purity="0.449375" nType="0">
              <Node pos="l" depth="4" NCoef="0" IVar="-1" Cut="0" cType="1" res="0.000136901" purity="0.438441" nType="-99"/>
              <Node pos="r" depth="4" NCoef="0" IVar="-1" Cut="0" cType="1" res="-0.00250779" purity="0.457831" nType="-99"/>
            </Node>
          </Node>
        </Node>
        <Node pos="r" depth="1" NCoef="0" IVar="2" Cut="-183.584" cType="1" res="0.0219438" purity="0.498536" nType="0">
          <Node pos="l" depth="2" NCoef="0" IVar="-1" Cut="0" cType="1" res="0.00348741" purity="0.488318" nType="-99"/>
          <Node pos="r" depth="2" NCoef="0" IVar="6" Cut="1.19824" cType="1" res="-0.0121766" purity="0.505463" nType="0">
            <Node pos="l" depth="3" NCoef="0" IVar="-1" Cut="0" cType="1" res="0.00115356" purity="0.525384" nType="-99"/>
            <Node pos="r" depth="3" NCoef="0" IVar="-1" Cut="0" cType="1" res="-0.00198901" purity="0.491302" nType="-99"/>
          </Node>
        </Node>
      </Node>
    </BinaryTree>
    <BinaryTree type="DecisionTree" boostWeight="1.0" itree="322">
      <Node pos="s" depth="0" NCoef="0" IVar="3" Cut="182829" cType="1" res="0.012871" purity="0.506834" nType="0">
        <Node pos="l" depth="1" NCoef="0" IVar="2" Cut="-16222" cType="1" res="0.004867" purity="0.504698" nType="0">
          <Node pos="l" depth="2" NCoef="0" IVar="-1" Cut="0" cType="1" res="0.0026937" purity="0.454663" nType="-99"/>
          <Node pos="r" depth="2" NCoef="0" IVar="2" Cut="677.154" cType="1" res="0.00101517" purity="0.508652" nType="0">
            <Node pos="l" depth="3" NCoef="0" IVar="1" Cut="125754" cType="1" res="-0.0261202" purity="0.406042" nType="0">
              <Node pos="l" depth="4" NCoef="0" IVar="-1" Cut="0" cType="1" res="-0.00294441" purity="0.379133" nType="-99"/>
              <Node pos="r" depth="4" NCoef="0" IVar="-1" Cut="0" cType="1" res="0.0015008" purity="0.47274" nType="-99"/>
            </Node>
            <Node pos="r" depth="3" NCoef="0" IVar="0" Cut="182926" cType="1" res="0.013488" purity="0.555817" nType="0">
              <Node pos="l" depth="4" NCoef="0" IVar="-1" Cut="0" cType="1" res="0.00023001" purity="0.535254" nType="-99"/>
              <Node pos="r" depth="4" NCoef="0" IVar="-1" Cut="0" cType="1" res="0.00192192" purity="0.632389" nType="-99"/>
            </Node>
          </Node>
        </Node>
        <Node pos="r" depth="1" NCoef="0" IVar="3" Cut="214113" cType="1" res="0.0316145" purity="0.511836" nType="0">
          <Node pos="l" depth="2" NCoef="0" IVar="6" Cut="1.76242" cType="1" res="0.0467377" purity="0.530893" nType="0">
            <Node pos="l" depth="3" NCoef="0" IVar="0" Cut="138657" cType="1" res="0.0827219" purity="0.588619" nType="0">
              <Node pos="l" depth="4" NCoef="0" IVar="-1" Cut="0" cType="1" res="0.0041434" purity="0.590345" nType="-99"/>
              <Node pos="r" depth="4" NCoef="0" IVar="-1" Cut="0" cType="1" res="0.00227894" purity="0.586026" nType="-99"/>
            </Node>
            <Node pos="r" depth="3" NCoef="0" IVar="6" Cut="2.43517" cType="1" res="0.0126832" purity="0.476262" nType="0">
              <Node pos="l" depth="4" NCoef="0" IVar="-1" Cut="0" cType="1" res="-0.00265536" purity="0.450677" nType="-99"/>
              <Node pos="r" depth="4" NCoef="0" IVar="-1" Cut="0" cType="1" res="0.00277979" purity="0.495171" nType="-99"/>
            </Node>
          </Node>
          <Node pos="r" depth="2" NCoef="0" IVar="-1" Cut="0" cType="1" res="-0.000559258" purity="0.458318" nType="-99"/>
        </Node>
      </Node>
    </BinaryTree>
    <BinaryTree type="DecisionTree" boostWeight="1.0" itree="323">
      <Node pos="s" depth="0" NCoef="0" IVar="1" Cut="136096" cType="1" res="0.0149684" purity="0.508502" nType="0">
        <Node pos="l" depth="1" NCoef="0" IVar="2" Cut="-16298.7" cType="1" res="0.00494023" purity="0.495447" nType="0">
          <Node pos="l" depth="2" NCoef="0" IVar="-1" Cut="0" cType="1" res="-0.0036965" purity="0.355742" nType="-99"/>
          <Node pos="r" depth="2" NCoef="0" IVar="2" Cut="-5081.67" cType="1" res="0.00885494" purity="0.504266" nType="0">
            <Node pos="l" depth="3" NCoef="0" IVar="5" Cut="1.46535" cType="1" res="0.0415205" purity="0.46852" nType="0">
              <Node pos="l" depth="4" NCoef="0" IVar="-1" Cut="0" cType="1" res="0.00392545" purity="0.516588" nType="-99"/>
              <Node pos="r" depth="4" NCoef="0" IVar="-1" Cut="0" cType="1" res="-0.00221885" purity="0.384413" nType="-99"/>
            </Node>
            <Node pos="r" depth="3" NCoef="0" IVar="6" Cut="2.22205" cType="1" res="0.0014932" purity="0.512322" nType="0">
              <Node pos="l" depth="4" NCoef="0" IVar="-1" Cut="0" cType="1" res="0.000696143" purity="0.538127" nType="-99"/>
              <Node pos="r" depth="4" NCoef="0" IVar="-1" Cut="0" cType="1" res="-0.00180188" purity="0.444054" nType="-99"/>
            </Node>
          </Node>
        </Node>
        <Node pos="r" depth="1" NCoef="0" IVar="5" Cut="1.71748" cType="1" res="0.044321" purity="0.546714" nType="0">
          <Node pos="l" depth="2" NCoef="0" IVar="-1" Cut="0" cType="1" res="0.00351721" purity="0.65207" nType="-99"/>
          <Node pos="r" depth="2" NCoef="0" IVar="5" Cut="2.30826" cType="1" res="0.0222375" purity="0.496087" nType="0">
            <Node pos="l" depth="3" NCoef="0" IVar="-1" Cut="0" cType="1" res="-0.000567757" purity="0.494888" nType="-99"/>
            <Node pos="r" depth="3" NCoef="0" IVar="6" Cut="0.996099" cType="1" res="0.0438592" purity="0.496844" nType="0">
              <Node pos="l" depth="4" NCoef="0" IVar="-1" Cut="0" cType="1" res="0.00285266" purity="0.555522" nType="-99"/>
              <Node pos="r" depth="4" NCoef="0" IVar="-1" Cut="0" cType="1" res="0.0014853" purity="0.457007" nType="-99"/>
            </Node>
          </Node>
        </Node>
      </Node>
    </BinaryTree>
    <BinaryTree type="DecisionTree" boostWeight="1.0" itree="324">
      <Node pos="s" depth="0" NCoef="0" IVar="3" Cut="112964" cType="1" res="0.0118057" purity="0.507134" nType="0">
        <Node pos="l" depth="1" NCoef="0" IVar="-1" Cut="0" cType="1" res="-0.00309061" purity="0.449598" nType="-99"/>
        <Node pos="r" depth="1" NCoef="0" IVar="1" Cut="115581" cType="1" res="0.0158195" purity="0.510468" nType="0">
          <Node pos="l" depth="2" NCoef="0" IVar="1" Cut="109340" cType="1" res="0.00385014" purity="0.481549" nType="0">
            <Node pos="l" depth="3" NCoef="0" IVar="3" Cut="208707" cType="1" res="0.0120926" purity="0.484329" nType="0">
              <Node pos="l" depth="4" NCoef="0" IVar="-1" Cut="0" cType="1" res="0.000908299" purity="0.493327" nType="-99"/>
              <Node pos="r" depth="4" NCoef="0" IVar="-1" Cut="0" cType="1" res="-0.0032701" purity="0.392181" nType="-99"/>
            </Node>
            <Node pos="r" depth="3" NCoef="0" IVar="-1" Cut="0" cType="1" res="-0.00217916" purity="0.466216" nType="-99"/>
          </Node>
          <Node pos="r" depth="2" NCoef="0" IVar="6" Cut="2.22129" cType="1" res="0.031039" purity="0.54724" nType="0">
            <Node pos="l" depth="3" NCoef="0" IVar="6" Cut="1.89573" cType="1" res="0.0455745" purity="0.581477" nType="0">
              <Node pos="l" depth="4" NCoef="0" IVar="-1" Cut="0" cType="1" res="0.00144353" purity="0.569517" nType="-99"/>
              <Node pos="r" depth="4" NCoef="0" IVar="-1" Cut="0" cType="1" res="0.00405352" purity="0.630197" nType="-99"/>
            </Node>
            <Node pos="r" depth="3" NCoef="0" IVar="6" Cut="2.73709" cType="1" res="-0.00351704" purity="0.465845" nType="0">
              <Node pos="l" depth="4" NCoef="0" IVar="-1" Cut="0" cType="1" res="-0.00161874" purity="0.468793" nType="-99"/>
              <Node pos="r" depth="4" NCoef="0" IVar="-1" Cut="0" cType="1" res="0.00175749" purity="0.461757" nType="-99"/>
            </Node>
          </Node>
        </Node>
      </Node>
    </BinaryTree>
    <BinaryTree type="DecisionTree" boostWeight="1.0" itree="325">
      <Node pos="s" depth="0" NCoef="0" IVar="3" Cut="112935" cType="1" res="0.0108868" purity="0.506577" nType="0">
        <Node pos="l" depth="1" NCoef="0" IVar="-1" Cut="0" cType="1" res="-0.00218803" purity="0.458395" nType="-99"/>
        <Node pos="r" depth="1" NCoef="0" IVar="3" Cut="185863" cType="1" res="0.014182" purity="0.509583" nType="0">
          <Node pos="l" depth="2" NCoef="0" IVar="2" Cut="27459.2" cType="1" res="0.00552213" purity="0.507229" nType="0">
            <Node pos="l" depth="3" NCoef="0" IVar="3" Cut="148512" cType="1" res="0.000382525" purity="0.486155" nType="0">
              <Node pos="l" depth="4" NCoef="0" IVar="-1" Cut="0" cType="1" res="0.00134238" purity="0.511351" nType="-99"/>
              <Node pos="r" depth="4" NCoef="0" IVar="-1" Cut="0" cType="1" res="-0.0005626" purity="0.475888" nType="-99"/>
            </Node>
            <Node pos="r" depth="3" NCoef="0" IVar="-1" Cut="0" cType="1" res="0.00241866" purity="0.724566" nType="-99"/>
          </Node>
          <Node pos="r" depth="2" NCoef="0" IVar="5" Cut="1.34797" cType="1" res="0.0362476" purity="0.515581" nType="0">
            <Node pos="l" depth="3" NCoef="0" IVar="3" Cut="207297" cType="1" res="0.0107618" purity="0.50097" nType="0">
              <Node pos="l" depth="4" NCoef="0" IVar="-1" Cut="0" cType="1" res="0.00189736" purity="0.533316" nType="-99"/>
              <Node pos="r" depth="4" NCoef="0" IVar="-1" Cut="0" cType="1" res="-0.00218967" purity="0.444696" nType="-99"/>
            </Node>
            <Node pos="r" depth="3" NCoef="0" IVar="0" Cut="119488" cType="1" res="0.0567524" purity="0.527337" nType="0">
              <Node pos="l" depth="4" NCoef="0" IVar="-1" Cut="0" cType="1" res="0.000881812" purity="0.444626" nType="-99"/>
              <Node pos="r" depth="4" NCoef="0" IVar="-1" Cut="0" cType="1" res="0.00344763" purity="0.57844" nType="-99"/>
            </Node>
          </Node>
        </Node>
      </Node>
    </BinaryTree>
    <BinaryTree type="DecisionTree" boostWeight="1.0" itree="326">
      <Node pos="s" depth="0" NCoef="0" IVar="3" Cut="107424" cType="1" res="0.00496821" purity="0.500798" nType="0">
        <Node pos="l" depth="1" NCoef="0" IVar="-1" Cut="0" cType="1" res="-0.0036333" purity="0.427668" nType="-99"/>
        <Node pos="r" depth="1" NCoef="0" IVar="3" Cut="135587" cType="1" res="0.00794322" purity="0.503923" nType="0">
          <Node pos="l" depth="2" NCoef="0" IVar="0" Cut="134160" cType="1" res="0.0562442" purity="0.555378" nType="0">
            <Node pos="l" depth="3" NCoef="0" IVar="-1" Cut="0" cType="1" res="0.00128836" purity="0.492509" nType="-99"/>
            <Node pos="r" depth="3" NCoef="0" IVar="-1" Cut="0" cType="1" res="0.00340474" purity="0.616267" nType="-99"/>
          </Node>
          <Node pos="r" depth="2" NCoef="0" IVar="5" Cut="1.30918" cType="1" res="0.000747085" purity="0.496257" nType="0">
            <Node pos="l" depth="3" NCoef="0" IVar="0" Cut="182890" cType="1" res="-0.0160268" purity="0.497408" nType="0">
              <Node pos="l" depth="4" NCoef="0" IVar="-1" Cut="0" cType="1" res="-0.00191553" purity="0.455769" nType="-99"/>
              <Node pos="r" depth="4" NCoef="0" IVar="-1" Cut="0" cType="1" res="0.00134038" purity="0.595496" nType="-99"/>
            </Node>
            <Node pos="r" depth="3" NCoef="0" IVar="6" Cut="2.7584" cType="1" res="0.0142699" purity="0.495329" nType="0">
              <Node pos="l" depth="4" NCoef="0" IVar="-1" Cut="0" cType="1" res="0.000959317" purity="0.511932" nType="-99"/>
              <Node pos="r" depth="4" NCoef="0" IVar="-1" Cut="0" cType="1" res="-0.00207805" purity="0.361496" nType="-99"/>
            </Node>
          </Node>
        </Node>
      </Node>
    </BinaryTree>
    <BinaryTree type="DecisionTree" boostWeight="1.0" itree="327">
      <Node pos="s" depth="0" NCoef="0" IVar="3" Cut="229772" cType="1" res="0.0128478" purity="0.506999" nType="0">
        <Node pos="l" depth="1" NCoef="0" IVar="3" Cut="122349" cType="1" res="0.00913187" purity="0.504752" nType="0">
          <Node pos="l" depth="2" NCoef="0" IVar="5" Cut="1.47501" cType="1" res="0.0497805" purity="0.554447" nType="0">
            <Node pos="l" depth="3" NCoef="0" IVar="-1" Cut="0" cType="1" res="0.00326231" purity="0.59703" nType="-99"/>
            <Node pos="r" depth="3" NCoef="0" IVar="-1" Cut="0" cType="1" res="0.000932925" purity="0.508375" nType="-99"/>
          </Node>
          <Node pos="r" depth="2" NCoef="0" IVar="4" Cut="314808" cType="1" res="0.00406529" purity="0.498558" nType="0">
            <Node pos="l" depth="3" NCoef="0" IVar="0" Cut="143901" cType="1" res="-0.00213899" purity="0.507626" nType="0">
              <Node pos="l" depth="4" NCoef="0" IVar="-1" Cut="0" cType="1" res="0.000510219" purity="0.498285" nType="-99"/>
              <Node pos="r" depth="4" NCoef="0" IVar="-1" Cut="0" cType="1" res="-0.00120243" purity="0.524343" nType="-99"/>
            </Node>
            <Node pos="r" depth="3" NCoef="0" IVar="5" Cut="2.00487" cType="1" res="0.0256917" purity="0.466949" nType="0">
              <Node pos="l" depth="4" NCoef="0" IVar="-1" Cut="0" cType="1" res="0.00243434" purity="0.501279" nType="-99"/>
              <Node pos="r" depth="4" NCoef="0" IVar="-1" Cut="0" cType="1" res="-0.00230771" purity="0.378956" nType="-99"/>
            </Node>
          </Node>
        </Node>
        <Node pos="r" depth="1" NCoef="0" IVar="-1" Cut="0" cType="1" res="0.00369222" purity="0.548489" nType="-99"/>
      </Node>
    </BinaryTree>
    <BinaryTree type="DecisionTree" boostWeight="1.0" itree="328">
      <Node pos="s" depth="0" NCoef="0" IVar="2" Cut="-6130.65" cType="1" res="0.00460557" purity="0.497639" nType="0">
        <Node pos="l" depth="1" NCoef="0" IVar="2" Cut="-12728.4" cType="1" res="0.0258153" purity="0.447753" nType="0">
          <Node pos="l" depth="2" NCoef="0" IVar="6" Cut="2.7382" cType="1" res="-0.0103178" purity="0.397189" nType="0">
            <Node pos="l" depth="3" NCoef="0" IVar="-1" Cut="0" cType="1" res="-0.004567" purity="0.348643" nType="-99"/>
            <Node pos="r" depth="3" NCoef="0" IVar="-1" Cut="0" cType="1" res="0.00210805" purity="0.436518" nType="-99"/>
          </Node>
          <Node pos="r" depth="2" NCoef="0" IVar="0" Cut="134104" cType="1" res="0.0568789" purity="0.491223" nType="0">
            <Node pos="l" depth="3" NCoef="0" IVar="-1" Cut="0" cType="1" res="0.00419933" purity="0.490446" nType="-99"/>
            <Node pos="r" depth="3" NCoef="0" IVar="-1" Cut="0" cType="1" res="0.00074193" purity="0.492342" nType="-99"/>
          </Node>
        </Node>
        <Node pos="r" depth="1" NCoef="0" IVar="2" Cut="-1017.41" cType="1" res="-0.00116475" purity="0.511212" nType="0">
          <Node pos="l" depth="2" NCoef="0" IVar="4" Cut="259197" cType="1" res="-0.0375225" purity="0.389009" nType="0">
            <Node pos="l" depth="3" NCoef="0" IVar="-1" Cut="0" cType="1" res="-0.00404365" purity="0.37098" nType="-99"/>
            <Node pos="r" depth="3" NCoef="0" IVar="-1" Cut="0" cType="1" res="0.000458893" purity="0.414932" nType="-99"/>
          </Node>
          <Node pos="r" depth="2" NCoef="0" IVar="2" Cut="11138" cType="1" res="0.00565752" purity="0.534142" nType="0">
            <Node pos="l" depth="3" NCoef="0" IVar="5" Cut="1.30835" cType="1" res="0.0172607" purity="0.493544" nType="0">
              <Node pos="l" depth="4" NCoef="0" IVar="-1" Cut="0" cType="1" res="-7.54609e-05" purity="0.469963" nType="-99"/>
              <Node pos="r" depth="4" NCoef="0" IVar="-1" Cut="0" cType="1" res="0.00147056" purity="0.51094" nType="-99"/>
            </Node>
            <Node pos="r" depth="3" NCoef="0" IVar="2" Cut="19676.7" cType="1" res="-0.0101763" purity="0.589542" nType="0">
              <Node pos="l" depth="4" NCoef="0" IVar="-1" Cut="0" cType="1" res="-0.00182849" purity="0.523878" nType="-99"/>
              <Node pos="r" depth="4" NCoef="0" IVar="-1" Cut="0" cType="1" res="0.000824043" purity="0.658278" nType="-99"/>
            </Node>
          </Node>
        </Node>
      </Node>
    </BinaryTree>
    <BinaryTree type="DecisionTree" boostWeight="1.0" itree="329">
      <Node pos="s" depth="0" NCoef="0" IVar="4" Cut="392800" cType="1" res="0.0066651" purity="0.499851" nType="0">
        <Node pos="l" depth="1" NCoef="0" IVar="0" Cut="158542" cType="1" res="-0.000214818" purity="0.499896" nType="0">
          <Node pos="l" depth="2" NCoef="0" IVar="0" Cut="122851" cType="1" res="-0.00780363" purity="0.472828" nType="0">
            <Node pos="l" depth="3" NCoef="0" IVar="4" Cut="314395" cType="1" res="0.011504" purity="0.473972" nType="0">
              <Node pos="l" depth="4" NCoef="0" IVar="-1" Cut="0" cType="1" res="0.000918773" purity="0.492918" nType="-99"/>
              <Node pos="r" depth="4" NCoef="0" IVar="-1" Cut="0" cType="1" res="-0.00301729" purity="0.328058" nType="-99"/>
            </Node>
            <Node pos="r" depth="3" NCoef="0" IVar="1" Cut="95112.5" cType="1" res="-0.0324945" purity="0.471365" nType="0">
              <Node pos="l" depth="4" NCoef="0" IVar="-1" Cut="0" cType="1" res="0.00166099" purity="0.501879" nType="-99"/>
              <Node pos="r" depth="4" NCoef="0" IVar="-1" Cut="0" cType="1" res="-0.00252316" purity="0.464568" nType="-99"/>
            </Node>
          </Node>
          <Node pos="r" depth="2" NCoef="0" IVar="4" Cut="236045" cType="1" res="0.018314" purity="0.565983" nType="0">
            <Node pos="l" depth="3" NCoef="0" IVar="6" Cut="2.52821" cType="1" res="-0.00935532" purity="0.555218" nType="0">
              <Node pos="l" depth="4" NCoef="0" IVar="-1" Cut="0" cType="1" res="-0.00110955" purity="0.557693" nType="-99"/>
              <Node pos="r" depth="4" NCoef="0" IVar="-1" Cut="0" cType="1" res="0.00113786" purity="0.54901" nType="-99"/>
            </Node>
            <Node pos="r" depth="3" NCoef="0" IVar="6" Cut="1.60971" cType="1" res="0.0507531" purity="0.578603" nType="0">
              <Node pos="l" depth="4" NCoef="0" IVar="-1" Cut="0" cType="1" res="0.0040923" purity="0.630678" nType="-99"/>
              <Node pos="r" depth="4" NCoef="0" IVar="-1" Cut="0" cType="1" res="0.000784761" purity="0.542554" nType="-99"/>
            </Node>
          </Node>
        </Node>
        <Node pos="r" depth="1" NCoef="0" IVar="5" Cut="1.00342" cType="1" res="0.0663314" purity="0.499465" nType="0">
          <Node pos="l" depth="2" NCoef="0" IVar="-1" Cut="0" cType="1" res="0.00483174" purity="0.598217" nType="-99"/>
          <Node pos="r" depth="2" NCoef="0" IVar="-1" Cut="0" cType="1" res="0.00151505" purity="0.431436" nType="-99"/>
        </Node>
      </Node>
    </BinaryTree>
    <BinaryTree type="DecisionTree" boostWeight="1.0" itree="330">
      <Node pos="s" depth="0" NCoef="0" IVar="4" Cut="285365" cType="1" res="0.00533615" purity="0.499783" nType="0">
        <Node pos="l" depth="1" NCoef="0" IVar="3" Cut="130745" cType="1" res="0.0143049" purity="0.526503" nType="0">
          <Node pos="l" depth="2" NCoef="0" IVar="4" Cut="204163" cType="1" res="-0.0402394" purity="0.472349" nType="0">
            <Node pos="l" depth="3" NCoef="0" IVar="-1" Cut="0" cType="1" res="-0.00241941" purity="0.482918" nType="-99"/>
            <Node pos="r" depth="3" NCoef="0" IVar="-1" Cut="0" cType="1" res="-0.0018074" purity="0.460996" nType="-99"/>
          </Node>
          <Node pos="r" depth="2" NCoef="0" IVar="0" Cut="231674" cType="1" res="0.0217195" purity="0.533865" nType="0">
            <Node pos="l" depth="3" NCoef="0" IVar="0" Cut="180286" cType="1" res="0.0180287" purity="0.523851" nType="0">
              <Node pos="l" depth="4" NCoef="0" IVar="-1" Cut="0" cType="1" res="0.00111339" purity="0.521021" nType="-99"/>
              <Node pos="r" depth="4" NCoef="0" IVar="-1" Cut="0" cType="1" res="-0.00117263" purity="0.54556" nType="-99"/>
            </Node>
            <Node pos="r" depth="3" NCoef="0" IVar="-1" Cut="0" cType="1" res="0.00304081" purity="0.681188" nType="-99"/>
          </Node>
        </Node>
        <Node pos="r" depth="1" NCoef="0" IVar="5" Cut="1.87938" cType="1" res="-0.0168456" purity="0.433696" nType="0">
          <Node pos="l" depth="2" NCoef="0" IVar="1" Cut="115410" cType="1" res="0.00670516" purity="0.469025" nType="0">
            <Node pos="l" depth="3" NCoef="0" IVar="4" Cut="384805" cType="1" res="-0.0165453" purity="0.4203" nType="0">
              <Node pos="l" depth="4" NCoef="0" IVar="-1" Cut="0" cType="1" res="0.00129516" purity="0.471894" nType="-99"/>
              <Node pos="r" depth="4" NCoef="0" IVar="-1" Cut="0" cType="1" res="-0.00604523" purity="0.330803" nType="-99"/>
            </Node>
            <Node pos="r" depth="3" NCoef="0" IVar="-1" Cut="0" cType="1" res="0.0019173" purity="0.544853" nType="-99"/>
          </Node>
          <Node pos="r" depth="2" NCoef="0" IVar="3" Cut="166768" cType="1" res="-0.0619264" purity="0.366071" nType="0">
            <Node pos="l" depth="3" NCoef="0" IVar="-1" Cut="0" cType="1" res="-0.0017043" purity="0.403753" nType="-99"/>
            <Node pos="r" depth="3" NCoef="0" IVar="-1" Cut="0" cType="1" res="-0.00637028" purity="0.329577" nType="-99"/>
          </Node>
        </Node>
      </Node>
    </BinaryTree>
    <BinaryTree type="DecisionTree" boostWeight="1.0" itree="331">
      <Node pos="s" depth="0" NCoef="0" IVar="0" Cut="124391" cType="1" res="0.000497123" purity="0.494493" nType="0">
        <Node pos="l" depth="1" NCoef="0" IVar="1" Cut="110407" cType="1" res="0.0234785" purity="0.480456" nType="0">
          <Node pos="l" depth="2" NCoef="0" IVar="2" Cut="2908.78" cType="1" res="0.0445426" purity="0.485561" nType="0">
            <Node pos="l" depth="3" NCoef="0" IVar="2" Cut="-6524.21" cType="1" res="0.0789894" purity="0.464069" nType="0">
              <Node pos="l" depth="4" NCoef="0" IVar="-1" Cut="0" cType="1" res="0.00573179" purity="0.503516" nType="-99"/>
              <Node pos="r" depth="4" NCoef="0" IVar="-1" Cut="0" cType="1" res="0.00257204" purity="0.431899" nType="-99"/>
            </Node>
            <Node pos="r" depth="3" NCoef="0" IVar="-1" Cut="0" cType="1" res="0.00021538" purity="0.510477" nType="-99"/>
          </Node>
          <Node pos="r" depth="2" NCoef="0" IVar="0" Cut="115459" cType="1" res="0.00249902" purity="0.475373" nType="0">
            <Node pos="l" depth="3" NCoef="0" IVar="5" Cut="1.83952" cType="1" res="0.020935" purity="0.482227" nType="0">
              <Node pos="l" depth="4" NCoef="0" IVar="-1" Cut="0" cType="1" res="0.00229457" purity="0.533934" nType="-99"/>
              <Node pos="r" depth="4" NCoef="0" IVar="-1" Cut="0" cType="1" res="-0.000112672" purity="0.440841" nType="-99"/>
            </Node>
            <Node pos="r" depth="3" NCoef="0" IVar="-1" Cut="0" cType="1" res="-0.00220076" purity="0.459017" nType="-99"/>
          </Node>
        </Node>
        <Node pos="r" depth="1" NCoef="0" IVar="4" Cut="373170" cType="1" res="-0.0154727" purity="0.504247" nType="0">
          <Node pos="l" depth="2" NCoef="0" IVar="5" Cut="0.885379" cType="1" res="-0.0253349" purity="0.504469" nType="0">
            <Node pos="l" depth="3" NCoef="0" IVar="4" Cut="193298" cType="1" res="-0.0659755" purity="0.485269" nType="0">
              <Node pos="l" depth="4" NCoef="0" IVar="-1" Cut="0" cType="1" res="-0.000989426" purity="0.555545" nType="-99"/>
              <Node pos="r" depth="4" NCoef="0" IVar="-1" Cut="0" cType="1" res="-0.00762409" purity="0.394062" nType="-99"/>
            </Node>
            <Node pos="r" depth="3" NCoef="0" IVar="1" Cut="166504" cType="1" res="-0.014688" purity="0.509499" nType="0">
              <Node pos="l" depth="4" NCoef="0" IVar="-1" Cut="0" cType="1" res="-0.000181385" purity="0.521551" nType="-99"/>
              <Node pos="r" depth="4" NCoef="0" IVar="-1" Cut="0" cType="1" res="-0.00470038" purity="0.432932" nType="-99"/>
            </Node>
          </Node>
          <Node pos="r" depth="2" NCoef="0" IVar="4" Cut="413414" cType="1" res="0.0397776" purity="0.503006" nType="0">
            <Node pos="l" depth="3" NCoef="0" IVar="-1" Cut="0" cType="1" res="0.00359352" purity="0.553932" nType="-99"/>
            <Node pos="r" depth="3" NCoef="0" IVar="-1" Cut="0" cType="1" res="0.000138273" purity="0.457996" nType="-99"/>
          </Node>
        </Node>
      </Node>
    </BinaryTree>
    <BinaryTree type="DecisionTree" boostWeight="1.0" itree="332">
      <Node pos="s" depth="0" NCoef="0" IVar="3" Cut="118790" cType="1" res="0.00896647" purity="0.505144" nType="0">
        <Node pos="l" depth="1" NCoef="0" IVar="-1" Cut="0" cType="1" res="0.00284499" purity="0.568227" nType="-99"/>
        <Node pos="r" depth="1" NCoef="0" IVar="4" Cut="314759" cType="1" res="0.0033443" purity="0.499079" nType="0">
          <Node pos="l" depth="2" NCoef="0" IVar="2" Cut="7550.13" cType="1" res="0.0101273" purity="0.520166" nType="0">
            <Node pos="l" depth="3" NCoef="0" IVar="0" Cut="134154" cType="1" res="-0.000314636" purity="0.452359" nType="0">
              <Node pos="l" depth="4" NCoef="0" IVar="-1" Cut="0" cType="1" res="-0.00119659" purity="0.403428" nType="-99"/>
              <Node pos="r" depth="4" NCoef="0" IVar="-1" Cut="0" cType="1" res="0.00105831" purity="0.505644" nType="-99"/>
            </Node>
            <Node pos="r" depth="3" NCoef="0" IVar="1" Cut="110025" cType="1" res="0.0247278" purity="0.614978" nType="0">
              <Node pos="l" depth="4" NCoef="0" IVar="-1" Cut="0" cType="1" res="0.00185531" purity="0.613039" nType="-99"/>
              <Node pos="r" depth="4" NCoef="0" IVar="-1" Cut="0" cType="1" res="0.000389444" purity="0.6166" nType="-99"/>
            </Node>
          </Node>
          <Node pos="r" depth="2" NCoef="0" IVar="2" Cut="-6707.04" cType="1" res="-0.0210974" purity="0.423095" nType="0">
            <Node pos="l" depth="3" NCoef="0" IVar="-1" Cut="0" cType="1" res="0.00116469" purity="0.417987" nType="-99"/>
            <Node pos="r" depth="3" NCoef="0" IVar="3" Cut="185034" cType="1" res="-0.037261" purity="0.42503" nType="0">
              <Node pos="l" depth="4" NCoef="0" IVar="-1" Cut="0" cType="1" res="-0.00397566" purity="0.397956" nType="-99"/>
              <Node pos="r" depth="4" NCoef="0" IVar="-1" Cut="0" cType="1" res="0.000658066" purity="0.470162" nType="-99"/>
            </Node>
          </Node>
        </Node>
      </Node>
    </BinaryTree>
    <BinaryTree type="DecisionTree" boostWeight="1.0" itree="333">
      <Node pos="s" depth="0" NCoef="0" IVar="5" Cut="1.99638" cType="1" res="-0.00734128" purity="0.488931" nType="0">
        <Node pos="l" depth="1" NCoef="0" IVar="1" Cut="95073.2" cType="1" res="0.00279705" purity="0.506639" nType="0">
          <Node pos="l" depth="2" NCoef="0" IVar="6" Cut="2.22162" cType="1" res="-0.0284024" purity="0.440197" nType="0">
            <Node pos="l" depth="3" NCoef="0" IVar="6" Cut="1.40786" cType="1" res="-0.00045022" purity="0.482871" nType="0">
              <Node pos="l" depth="4" NCoef="0" IVar="-1" Cut="0" cType="1" res="-0.00443762" purity="0.381035" nType="-99"/>
              <Node pos="r" depth="4" NCoef="0" IVar="-1" Cut="0" cType="1" res="0.00266123" purity="0.569357" nType="-99"/>
            </Node>
            <Node pos="r" depth="3" NCoef="0" IVar="-1" Cut="0" cType="1" res="-0.00419243" purity="0.378656" nType="-99"/>
          </Node>
          <Node pos="r" depth="2" NCoef="0" IVar="3" Cut="212248" cType="1" res="0.0103642" purity="0.522754" nType="0">
            <Node pos="l" depth="3" NCoef="0" IVar="6" Cut="1.22617" cType="1" res="0.00393045" purity="0.518288" nType="0">
              <Node pos="l" depth="4" NCoef="0" IVar="-1" Cut="0" cType="1" res="0.00138507" purity="0.536014" nType="-99"/>
              <Node pos="r" depth="4" NCoef="0" IVar="-1" Cut="0" cType="1" res="-0.000322093" purity="0.511308" nType="-99"/>
            </Node>
            <Node pos="r" depth="3" NCoef="0" IVar="-1" Cut="0" cType="1" res="0.00308422" purity="0.565776" nType="-99"/>
          </Node>
        </Node>
        <Node pos="r" depth="1" NCoef="0" IVar="0" Cut="139000" cType="1" res="-0.0416218" purity="0.429054" nType="0">
          <Node pos="l" depth="2" NCoef="0" IVar="0" Cut="107617" cType="1" res="-0.0758287" purity="0.378876" nType="0">
            <Node pos="l" depth="3" NCoef="0" IVar="-1" Cut="0" cType="1" res="-0.00155191" purity="0.403076" nType="-99"/>
            <Node pos="r" depth="3" NCoef="0" IVar="5" Cut="2.49919" cType="1" res="-0.100687" purity="0.366838" nType="0">
              <Node pos="l" depth="4" NCoef="0" IVar="-1" Cut="0" cType="1" res="-0.00898751" purity="0.340492" nType="-99"/>
              <Node pos="r" depth="4" NCoef="0" IVar="-1" Cut="0" cType="1" res="-0.00406268" purity="0.393236" nType="-99"/>
            </Node>
          </Node>
          <Node pos="r" depth="2" NCoef="0" IVar="-1" Cut="0" cType="1" res="0.00111793" purity="0.524813" nType="-99"/>
        </Node>
      </Node>
    </BinaryTree>
    <BinaryTree type="DecisionTree" boostWeight="1.0" itree="334">
      <Node pos="s" depth="0" NCoef="0" IVar="4" Cut="226854" cType="1" res="0.00196891" purity="0.495766" nType="0">
        <Node pos="l" depth="1" NCoef="0" IVar="2" Cut="19230" cType="1" res="-0.0120761" purity="0.511346" nType="0">
          <Node pos="l" depth="2" NCoef="0" IVar="1" Cut="108001" cType="1" res="-0.0204156" purity="0.474167" nType="0">
            <Node pos="l" depth="3" NCoef="0" IVar="4" Cut="183593" cType="1" res="-0.0337724" purity="0.435732" nType="0">
              <Node pos="l" depth="4" NCoef="0" IVar="-1" Cut="0" cType="1" res="-0.000482404" purity="0.469806" nType="-99"/>
              <Node pos="r" depth="4" NCoef="0" IVar="-1" Cut="0" cType="1" res="-0.00413544" purity="0.386964" nType="-99"/>
            </Node>
            <Node pos="r" depth="3" NCoef="0" IVar="5" Cut="1.50824" cType="1" res="-0.00275847" purity="0.524975" nType="0">
              <Node pos="l" depth="4" NCoef="0" IVar="-1" Cut="0" cType="1" res="-0.00172585" purity="0.503137" nType="-99"/>
              <Node pos="r" depth="4" NCoef="0" IVar="-1" Cut="0" cType="1" res="0.000990296" purity="0.54091" nType="-99"/>
            </Node>
          </Node>
          <Node pos="r" depth="2" NCoef="0" IVar="-1" Cut="0" cType="1" res="0.00136886" purity="0.70518" nType="-99"/>
        </Node>
        <Node pos="r" depth="1" NCoef="0" IVar="3" Cut="171341" cType="1" res="0.0151801" purity="0.481111" nType="0">
          <Node pos="l" depth="2" NCoef="0" IVar="4" Cut="340091" cType="1" res="0.0315031" purity="0.506834" nType="0">
            <Node pos="l" depth="3" NCoef="0" IVar="0" Cut="153653" cType="1" res="0.0474316" purity="0.537889" nType="0">
              <Node pos="l" depth="4" NCoef="0" IVar="-1" Cut="0" cType="1" res="0.00282955" purity="0.532205" nType="-99"/>
              <Node pos="r" depth="4" NCoef="0" IVar="-1" Cut="0" cType="1" res="0.000373187" purity="0.552215" nType="-99"/>
            </Node>
            <Node pos="r" depth="3" NCoef="0" IVar="6" Cut="1.9162" cType="1" res="-0.00543516" purity="0.434817" nType="0">
              <Node pos="l" depth="4" NCoef="0" IVar="-1" Cut="0" cType="1" res="-0.00199106" purity="0.426994" nType="-99"/>
              <Node pos="r" depth="4" NCoef="0" IVar="-1" Cut="0" cType="1" res="0.00126439" purity="0.442387" nType="-99"/>
            </Node>
          </Node>
          <Node pos="r" depth="2" NCoef="0" IVar="4" Cut="266867" cType="1" res="-0.00457203" purity="0.449985" nType="0">
            <Node pos="l" depth="3" NCoef="0" IVar="-1" Cut="0" cType="1" res="0.00144948" purity="0.511356" nType="-99"/>
            <Node pos="r" depth="3" NCoef="0" IVar="4" Cut="357855" cType="1" res="-0.0188388" purity="0.424971" nType="0">
              <Node pos="l" depth="4" NCoef="0" IVar="-1" Cut="0" cType="1" res="-0.00266948" purity="0.406976" nType="-99"/>
              <Node pos="r" depth="4" NCoef="0" IVar="-1" Cut="0" cType="1" res="0.000927338" purity="0.449512" nType="-99"/>
            </Node>
          </Node>
        </Node>
      </Node>
    </BinaryTree>
    <BinaryTree type="DecisionTree" boostWeight="1.0" itree="335">
      <Node pos="s" depth="0" NCoef="0" IVar="2" Cut="-16222" cType="1" res="0.0181302" purity="0.512284" nType="0">
        <Node pos="l" depth="1" NCoef="0" IVar="-1" Cut="0" cType="1" res="0.00382387" purity="0.477488" nType="-99"/>
        <Node pos="r" depth="1" NCoef="0" IVar="0" Cut="114629" cType="1" res="0.0136937" purity="0.515005" nType="0">
          <Node pos="l" depth="2" NCoef="0" IVar="1" Cut="100189" cType="1" res="-0.0152672" purity="0.442776" nType="0">
            <Node pos="l" depth="3" NCoef="0" IVar="-1" Cut="0" cType="1" res="-0.00319981" purity="0.384303" nType="-99"/>
            <Node pos="r" depth="3" NCoef="0" IVar="6" Cut="1.22571" cType="1" res="-0.00292891" purity="0.461811" nType="0">
              <Node pos="l" depth="4" NCoef="0" IVar="-1" Cut="0" cType="1" res="-0.00154071" purity="0.460948" nType="-99"/>
              <Node pos="r" depth="4" NCoef="0" IVar="-1" Cut="0" cType="1" res="0.000749398" purity="0.462381" nType="-99"/>
            </Node>
          </Node>
          <Node pos="r" depth="2" NCoef="0" IVar="6" Cut="0.842907" cType="1" res="0.0231642" purity="0.538624" nType="0">
            <Node pos="l" depth="3" NCoef="0" IVar="2" Cut="11943.8" cType="1" res="0.0621247" purity="0.556707" nType="0">
              <Node pos="l" depth="4" NCoef="0" IVar="-1" Cut="0" cType="1" res="0.00423617" purity="0.557099" nType="-99"/>
              <Node pos="r" depth="4" NCoef="0" IVar="-1" Cut="0" cType="1" res="-8.07245e-05" purity="0.556058" nType="-99"/>
            </Node>
            <Node pos="r" depth="3" NCoef="0" IVar="6" Cut="1.57217" cType="1" res="0.0126735" purity="0.533755" nType="0">
              <Node pos="l" depth="4" NCoef="0" IVar="-1" Cut="0" cType="1" res="-0.00162653" purity="0.514541" nType="-99"/>
              <Node pos="r" depth="4" NCoef="0" IVar="-1" Cut="0" cType="1" res="0.00123241" purity="0.539689" nType="-99"/>
            </Node>
          </Node>
        </Node>
      </Node>
    </BinaryTree>
    <BinaryTree type="DecisionTree" boostWeight="1.0" itree="336">
      <Node pos="s" depth="0" NCoef="0" IVar="3" Cut="119186" cType="1" res="0.0131637" purity="0.508929" nType="0">
        <Node pos="l" depth="1" NCoef="0" IVar="6" Cut="1.76346" cType="1" res="0.0592086" purity="0.553669" nType="0">
          <Node pos="l" depth="2" NCoef="0" IVar="-1" Cut="0" cType="1" res="0.00285912" purity="0.570237" nType="-99"/>
          <Node pos="r" depth="2" NCoef="0" IVar="-1" Cut="0" cType="1" res="0.00224588" purity="0.535011" nType="-99"/>
        </Node>
        <Node pos="r" depth="1" NCoef="0" IVar="2" Cut="27002.5" cType="1" res="0.00875011" purity="0.50464" nType="0">
          <Node pos="l" depth="2" NCoef="0" IVar="3" Cut="185292" cType="1" res="0.0041806" purity="0.48521" nType="0">
            <Node pos="l" depth="3" NCoef="0" IVar="6" Cut="1.9156" cType="1" res="-0.00722525" purity="0.476944" nType="0">
              <Node pos="l" depth="4" NCoef="0" IVar="-1" Cut="0" cType="1" res="-0.00111834" purity="0.481286" nType="-99"/>
              <Node pos="r" depth="4" NCoef="0" IVar="-1" Cut="0" cType="1" res="0.000367616" purity="0.472773" nType="-99"/>
            </Node>
            <Node pos="r" depth="3" NCoef="0" IVar="1" Cut="95118.4" cType="1" res="0.0297167" purity="0.503716" nType="0">
              <Node pos="l" depth="4" NCoef="0" IVar="-1" Cut="0" cType="1" res="0.00395636" purity="0.526268" nType="-99"/>
              <Node pos="r" depth="4" NCoef="0" IVar="-1" Cut="0" cType="1" res="0.000823633" purity="0.498833" nType="-99"/>
            </Node>
          </Node>
          <Node pos="r" depth="2" NCoef="0" IVar="-1" Cut="0" cType="1" res="0.00254202" purity="0.731067" nType="-99"/>
        </Node>
      </Node>
    </BinaryTree>
    <BinaryTree type="DecisionTree" boostWeight="1.0" itree="337">
      <Node pos="s" depth="0" NCoef="0" IVar="2" Cut="10794.1" cType="1" res="0.0175854" purity="0.510489" nType="0">
        <Node pos="l" depth="1" NCoef="0" IVar="4" Cut="197763" cType="1" res="0.0289013" purity="0.478899" nType="0">
          <Node pos="l" depth="2" NCoef="0" IVar="4" Cut="181112" cType="1" res="0.00352701" purity="0.476716" nType="0">
            <Node pos="l" depth="3" NCoef="0" IVar="3" Cut="159107" cType="1" res="0.0207267" purity="0.497343" nType="0">
              <Node pos="l" depth="4" NCoef="0" IVar="-1" Cut="0" cType="1" res="0.00283865" purity="0.535306" nType="-99"/>
              <Node pos="r" depth="4" NCoef="0" IVar="-1" Cut="0" cType="1" res="-0.000110423" purity="0.476408" nType="-99"/>
            </Node>
            <Node pos="r" depth="3" NCoef="0" IVar="-1" Cut="0" cType="1" res="-0.0019809" purity="0.429417" nType="-99"/>
          </Node>
          <Node pos="r" depth="2" NCoef="0" IVar="3" Cut="154017" cType="1" res="0.0398004" purity="0.479836" nType="0">
            <Node pos="l" depth="3" NCoef="0" IVar="0" Cut="138897" cType="1" res="0.00902085" purity="0.454727" nType="0">
              <Node pos="l" depth="4" NCoef="0" IVar="-1" Cut="0" cType="1" res="-0.00089477" purity="0.398389" nType="-99"/>
              <Node pos="r" depth="4" NCoef="0" IVar="-1" Cut="0" cType="1" res="0.00180849" purity="0.525591" nType="-99"/>
            </Node>
            <Node pos="r" depth="3" NCoef="0" IVar="1" Cut="171858" cType="1" res="0.0525385" purity="0.490227" nType="0">
              <Node pos="l" depth="4" NCoef="0" IVar="-1" Cut="0" cType="1" res="0.00291064" purity="0.499467" nType="-99"/>
              <Node pos="r" depth="4" NCoef="0" IVar="-1" Cut="0" cType="1" res="-0.000348436" purity="0.41933" nType="-99"/>
            </Node>
          </Node>
        </Node>
        <Node pos="r" depth="1" NCoef="0" IVar="5" Cut="1.23285" cType="1" res="-0.0106169" purity="0.589221" nType="0">
          <Node pos="l" depth="2" NCoef="0" IVar="0" Cut="143881" cType="1" res="0.0189437" purity="0.639707" nType="0">
            <Node pos="l" depth="3" NCoef="0" IVar="-1" Cut="0" cType="1" res="-0.000994041" purity="0.567528" nType="-99"/>
            <Node pos="r" depth="3" NCoef="0" IVar="-1" Cut="0" cType="1" res="0.00223305" purity="0.701387" nType="-99"/>
          </Node>
          <Node pos="r" depth="2" NCoef="0" IVar="4" Cut="236841" cType="1" res="-0.0413518" purity="0.536729" nType="0">
            <Node pos="l" depth="3" NCoef="0" IVar="-1" Cut="0" cType="1" res="-0.003105" purity="0.552388" nType="-99"/>
            <Node pos="r" depth="3" NCoef="0" IVar="-1" Cut="0" cType="1" res="-0.000859038" purity="0.51892" nType="-99"/>
          </Node>
        </Node>
      </Node>
    </BinaryTree>
    <BinaryTree type="DecisionTree" boostWeight="1.0" itree="338">
      <Node pos="s" depth="0" NCoef="0" IVar="3" Cut="165735" cType="1" res="0.0045817" purity="0.502294" nType="0">
        <Node pos="l" depth="1" NCoef="0" IVar="2" Cut="758.1" cType="1" res="0.021588" purity="0.524472" nType="0">
          <Node pos="l" depth="2" NCoef="0" IVar="6" Cut="2.46736" cType="1" res="-0.00625197" purity="0.426942" nType="0">
            <Node pos="l" depth="3" NCoef="0" IVar="-1" Cut="0" cType="1" res="-0.00252206" purity="0.386681" nType="-99"/>
            <Node pos="r" depth="3" NCoef="0" IVar="3" Cut="142679" cType="1" res="0.0208268" purity="0.456273" nType="0">
              <Node pos="l" depth="4" NCoef="0" IVar="-1" Cut="0" cType="1" res="0.00305825" purity="0.521063" nType="-99"/>
              <Node pos="r" depth="4" NCoef="0" IVar="-1" Cut="0" cType="1" res="-0.00123245" purity="0.399975" nType="-99"/>
            </Node>
          </Node>
          <Node pos="r" depth="2" NCoef="0" IVar="6" Cut="1.56851" cType="1" res="0.0375591" purity="0.580424" nType="0">
            <Node pos="l" depth="3" NCoef="0" IVar="1" Cut="105362" cType="1" res="0.0195988" purity="0.546616" nType="0">
              <Node pos="l" depth="4" NCoef="0" IVar="-1" Cut="0" cType="1" res="-0.00188662" purity="0.463896" nType="-99"/>
              <Node pos="r" depth="4" NCoef="0" IVar="-1" Cut="0" cType="1" res="0.0018024" purity="0.578597" nType="-99"/>
            </Node>
            <Node pos="r" depth="3" NCoef="0" IVar="4" Cut="246522" cType="1" res="0.0591329" purity="0.621032" nType="0">
              <Node pos="l" depth="4" NCoef="0" IVar="-1" Cut="0" cType="1" res="0.003491" purity="0.663886" nType="-99"/>
              <Node pos="r" depth="4" NCoef="0" IVar="-1" Cut="0" cType="1" res="0.000118823" purity="0.519588" nType="-99"/>
            </Node>
          </Node>
        </Node>
        <Node pos="r" depth="1" NCoef="0" IVar="0" Cut="129267" cType="1" res="-0.0102074" purity="0.483006" nType="0">
          <Node pos="l" depth="2" NCoef="0" IVar="6" Cut="1.07294" cType="1" res="-0.0354128" purity="0.421472" nType="0">
            <Node pos="l" depth="3" NCoef="0" IVar="-1" Cut="0" cType="1" res="0.00114025" purity="0.502356" nType="-99"/>
            <Node pos="r" depth="3" NCoef="0" IVar="6" Cut="2.23388" cType="1" res="-0.061028" purity="0.386191" nType="0">
              <Node pos="l" depth="4" NCoef="0" IVar="-1" Cut="0" cType="1" res="-0.00518262" purity="0.408219" nType="-99"/>
              <Node pos="r" depth="4" NCoef="0" IVar="-1" Cut="0" cType="1" res="-0.00204485" purity="0.364166" nType="-99"/>
            </Node>
          </Node>
          <Node pos="r" depth="2" NCoef="0" IVar="6" Cut="2.83507" cType="1" res="0.00857532" purity="0.52886" nType="0">
            <Node pos="l" depth="3" NCoef="0" IVar="1" Cut="156509" cType="1" res="-0.00397136" purity="0.526937" nType="0">
              <Node pos="l" depth="4" NCoef="0" IVar="-1" Cut="0" cType="1" res="0.000252402" purity="0.54123" nType="-99"/>
              <Node pos="r" depth="4" NCoef="0" IVar="-1" Cut="0" cType="1" res="-0.00296886" purity="0.447705" nType="-99"/>
            </Node>
            <Node pos="r" depth="3" NCoef="0" IVar="-1" Cut="0" cType="1" res="0.00364438" purity="0.539991" nType="-99"/>
          </Node>
        </Node>
      </Node>
    </BinaryTree>
    <BinaryTree type="DecisionTree" boostWeight="1.0" itree="339">
      <Node pos="s" depth="0" NCoef="0" IVar="1" Cut="110488" cType="1" res="0.0122721" purity="0.507439" nType="0">
        <Node pos="l" depth="1" NCoef="0" IVar="3" Cut="171151" cType="1" res="0.0273365" purity="0.501152" nType="0">
          <Node pos="l" depth="2" NCoef="0" IVar="3" Cut="154940" cType="1" res="0.0426476" purity="0.521916" nType="0">
            <Node pos="l" depth="3" NCoef="0" IVar="6" Cut="1.45646" cType="1" res="0.0225455" purity="0.497075" nType="0">
              <Node pos="l" depth="4" NCoef="0" IVar="-1" Cut="0" cType="1" res="0.00284186" purity="0.530787" nType="-99"/>
              <Node pos="r" depth="4" NCoef="0" IVar="-1" Cut="0" cType="1" res="7.19811e-05" purity="0.47922" nType="-99"/>
            </Node>
            <Node pos="r" depth="3" NCoef="0" IVar="6" Cut="1.99186" cType="1" res="0.0667178" purity="0.551661" nType="0">
              <Node pos="l" depth="4" NCoef="0" IVar="-1" Cut="0" cType="1" res="0.00141899" purity="0.544196" nType="-99"/>
              <Node pos="r" depth="4" NCoef="0" IVar="-1" Cut="0" cType="1" res="0.00426705" purity="0.558067" nType="-99"/>
            </Node>
          </Node>
          <Node pos="r" depth="2" NCoef="0" IVar="1" Cut="94496.2" cType="1" res="0.00845131" purity="0.47554" nType="0">
            <Node pos="l" depth="3" NCoef="0" IVar="-1" Cut="0" cType="1" res="-0.00180606" purity="0.42699" nType="-99"/>
            <Node pos="r" depth="3" NCoef="0" IVar="2" Cut="4055.96" cType="1" res="0.0232318" purity="0.49338" nType="0">
              <Node pos="l" depth="4" NCoef="0" IVar="-1" Cut="0" cType="1" res="0.00231347" purity="0.470735" nType="-99"/>
              <Node pos="r" depth="4" NCoef="0" IVar="-1" Cut="0" cType="1" res="-0.000330839" purity="0.523905" nType="-99"/>
            </Node>
          </Node>
        </Node>
        <Node pos="r" depth="1" NCoef="0" IVar="6" Cut="2.75841" cType="1" res="-0.00244019" purity="0.51358" nType="0">
          <Node pos="l" depth="2" NCoef="0" IVar="5" Cut="2.10607" cType="1" res="0.00578533" purity="0.532817" nType="0">
            <Node pos="l" depth="3" NCoef="0" IVar="3" Cut="153246" cType="1" res="0.0192773" purity="0.576289" nType="0">
              <Node pos="l" depth="4" NCoef="0" IVar="-1" Cut="0" cType="1" res="0.00234918" purity="0.615011" nType="-99"/>
              <Node pos="r" depth="4" NCoef="0" IVar="-1" Cut="0" cType="1" res="2.1331e-05" purity="0.557108" nType="-99"/>
            </Node>
            <Node pos="r" depth="3" NCoef="0" IVar="5" Cut="2.46004" cType="1" res="-0.0192174" purity="0.452255" nType="0">
              <Node pos="l" depth="4" NCoef="0" IVar="-1" Cut="0" cType="1" res="-0.00433685" purity="0.424265" nType="-99"/>
              <Node pos="r" depth="4" NCoef="0" IVar="-1" Cut="0" cType="1" res="0.000451351" purity="0.466263" nType="-99"/>
            </Node>
          </Node>
          <Node pos="r" depth="2" NCoef="0" IVar="-1" Cut="0" cType="1" res="-0.00436855" purity="0.353602" nType="-99"/>
        </Node>
      </Node>
    </BinaryTree>
    <BinaryTree type="DecisionTree" boostWeight="1.0" itree="340">
      <Node pos="s" depth="0" NCoef="0" IVar="6" Cut="0.383175" cType="1" res="0.00368928" purity="0.497778" nType="0">
        <Node pos="l" depth="1" NCoef="0" IVar="5" Cut="1.40633" cType="1" res="0.0602197" purity="0.543788" nType="0">
          <Node pos="l" depth="2" NCoef="0" IVar="-1" Cut="0" cType="1" res="0.004566" purity="0.576273" nType="-99"/>
          <Node pos="r" depth="2" NCoef="0" IVar="-1" Cut="0" cType="1" res="0.000360381" purity="0.509416" nType="-99"/>
        </Node>
        <Node pos="r" depth="1" NCoef="0" IVar="4" Cut="431698" cType="1" res="-0.00257465" purity="0.492679" nType="0">
          <Node pos="l" depth="2" NCoef="0" IVar="4" Cut="358892" cType="1" res="0.000597066" purity="0.499428" nType="0">
            <Node pos="l" depth="3" NCoef="0" IVar="0" Cut="109763" cType="1" res="-0.00440592" purity="0.500646" nType="0">
              <Node pos="l" depth="4" NCoef="0" IVar="-1" Cut="0" cType="1" res="0.00132251" purity="0.483411" nType="-99"/>
              <Node pos="r" depth="4" NCoef="0" IVar="-1" Cut="0" cType="1" res="-0.000596332" purity="0.504953" nType="-99"/>
            </Node>
            <Node pos="r" depth="3" NCoef="0" IVar="5" Cut="1.29973" cType="1" res="0.0456389" purity="0.488467" nType="0">
              <Node pos="l" depth="4" NCoef="0" IVar="-1" Cut="0" cType="1" res="0.00307032" purity="0.540912" nType="-99"/>
              <Node pos="r" depth="4" NCoef="0" IVar="-1" Cut="0" cType="1" res="0.00127603" purity="0.438985" nType="-99"/>
            </Node>
          </Node>
          <Node pos="r" depth="2" NCoef="0" IVar="-1" Cut="0" cType="1" res="-0.00426082" purity="0.356691" nType="-99"/>
        </Node>
      </Node>
    </BinaryTree>
    <BinaryTree type="DecisionTree" boostWeight="1.0" itree="341">
      <Node pos="s" depth="0" NCoef="0" IVar="6" Cut="2.60522" cType="1" res="0.0048795" purity="0.497343" nType="0">
        <Node pos="l" depth="1" NCoef="0" IVar="1" Cut="187238" cType="1" res="-0.00436863" purity="0.504743" nType="0">
          <Node pos="l" depth="2" NCoef="0" IVar="3" Cut="218097" cType="1" res="-0.00966721" purity="0.500616" nType="0">
            <Node pos="l" depth="3" NCoef="0" IVar="0" Cut="109764" cType="1" res="-0.00593555" purity="0.506813" nType="0">
              <Node pos="l" depth="4" NCoef="0" IVar="-1" Cut="0" cType="1" res="-0.00170586" purity="0.433336" nType="-99"/>
              <Node pos="r" depth="4" NCoef="0" IVar="-1" Cut="0" cType="1" res="-1.12938e-06" purity="0.523643" nType="-99"/>
            </Node>
            <Node pos="r" depth="3" NCoef="0" IVar="-1" Cut="0" cType="1" res="-0.0039657" purity="0.404532" nType="-99"/>
          </Node>
          <Node pos="r" depth="2" NCoef="0" IVar="-1" Cut="0" cType="1" res="0.00218765" purity="0.546138" nType="-99"/>
        </Node>
        <Node pos="r" depth="1" NCoef="0" IVar="0" Cut="114645" cType="1" res="0.0381195" purity="0.470745" nType="0">
          <Node pos="l" depth="2" NCoef="0" IVar="-1" Cut="0" cType="1" res="0.00569157" purity="0.481704" nType="-99"/>
          <Node pos="r" depth="2" NCoef="0" IVar="4" Cut="209072" cType="1" res="0.0113137" purity="0.466765" nType="0">
            <Node pos="l" depth="3" NCoef="0" IVar="-1" Cut="0" cType="1" res="0.00281394" purity="0.538677" nType="-99"/>
            <Node pos="r" depth="3" NCoef="0" IVar="6" Cut="2.81453" cType="1" res="-0.0194819" purity="0.423078" nType="0">
              <Node pos="l" depth="4" NCoef="0" IVar="-1" Cut="0" cType="1" res="0.00104099" purity="0.481404" nType="-99"/>
              <Node pos="r" depth="4" NCoef="0" IVar="-1" Cut="0" cType="1" res="-0.002994" purity="0.379978" nType="-99"/>
            </Node>
          </Node>
        </Node>
      </Node>
    </BinaryTree>
    <BinaryTree type="DecisionTree" boostWeight="1.0" itree="342">
      <Node pos="s" depth="0" NCoef="0" IVar="2" Cut="-2870.42" cType="1" res="0.00847458" purity="0.503045" nType="0">
        <Node pos="l" depth="1" NCoef="0" IVar="3" Cut="189028" cType="1" res="0.0335891" purity="0.457468" nType="0">
          <Node pos="l" depth="2" NCoef="0" IVar="5" Cut="1.05783" cType="1" res="0.0178497" purity="0.443132" nType="0">
            <Node pos="l" depth="3" NCoef="0" IVar="-1" Cut="0" cType="1" res="0.00370651" purity="0.523074" nType="-99"/>
            <Node pos="r" depth="3" NCoef="0" IVar="1" Cut="115563" cType="1" res="-0.00468863" purity="0.415642" nType="0">
              <Node pos="l" depth="4" NCoef="0" IVar="-1" Cut="0" cType="1" res="-0.00220818" purity="0.374496" nType="-99"/>
              <Node pos="r" depth="4" NCoef="0" IVar="-1" Cut="0" cType="1" res="0.0012971" purity="0.455116" nType="-99"/>
            </Node>
          </Node>
          <Node pos="r" depth="2" NCoef="0" IVar="-1" Cut="0" cType="1" res="0.00388473" purity="0.501898" nType="-99"/>
        </Node>
        <Node pos="r" depth="1" NCoef="0" IVar="2" Cut="9464.26" cType="1" res="-0.00176798" purity="0.521632" nType="0">
          <Node pos="l" depth="2" NCoef="0" IVar="2" Cut="3146.83" cType="1" res="-0.0187297" purity="0.44457" nType="0">
            <Node pos="l" depth="3" NCoef="0" IVar="6" Cut="2.52808" cType="1" res="0.0125587" purity="0.457745" nType="0">
              <Node pos="l" depth="4" NCoef="0" IVar="-1" Cut="0" cType="1" res="0.00184494" purity="0.482137" nType="-99"/>
              <Node pos="r" depth="4" NCoef="0" IVar="-1" Cut="0" cType="1" res="-0.00389893" purity="0.379397" nType="-99"/>
            </Node>
            <Node pos="r" depth="3" NCoef="0" IVar="6" Cut="1.44554" cType="1" res="-0.0524973" purity="0.430351" nType="0">
              <Node pos="l" depth="4" NCoef="0" IVar="-1" Cut="0" cType="1" res="-0.00632969" purity="0.352664" nType="-99"/>
              <Node pos="r" depth="4" NCoef="0" IVar="-1" Cut="0" cType="1" res="-0.000993383" purity="0.483671" nType="-99"/>
            </Node>
          </Node>
          <Node pos="r" depth="2" NCoef="0" IVar="1" Cut="115535" cType="1" res="0.0163733" purity="0.604054" nType="0">
            <Node pos="l" depth="3" NCoef="0" IVar="1" Cut="96855.6" cType="1" res="-0.00181201" purity="0.574671" nType="0">
              <Node pos="l" depth="4" NCoef="0" IVar="-1" Cut="0" cType="1" res="0.00239271" purity="0.614252" nType="-99"/>
              <Node pos="r" depth="4" NCoef="0" IVar="-1" Cut="0" cType="1" res="-0.00146845" purity="0.553137" nType="-99"/>
            </Node>
            <Node pos="r" depth="3" NCoef="0" IVar="6" Cut="0.544145" cType="1" res="0.0339459" purity="0.632447" nType="0">
              <Node pos="l" depth="4" NCoef="0" IVar="-1" Cut="0" cType="1" res="-0.000704825" purity="0.512936" nType="-99"/>
              <Node pos="r" depth="4" NCoef="0" IVar="-1" Cut="0" cType="1" res="0.00206947" purity="0.672542" nType="-99"/>
            </Node>
          </Node>
        </Node>
      </Node>
    </BinaryTree>
    <BinaryTree type="DecisionTree" boostWeight="1.0" itree="343">
      <Node pos="s" depth="0" NCoef="0" IVar="2" Cut="24088" cType="1" res="0.00593546" purity="0.50211" nType="0">
        <Node pos="l" depth="1" NCoef="0" IVar="5" Cut="1.32637" cType="1" res="0.00138476" purity="0.479762" nType="0">
          <Node pos="l" depth="2" NCoef="0" IVar="5" Cut="1.09641" cType="1" res="-0.0200159" purity="0.466041" nType="0">
            <Node pos="l" depth="3" NCoef="0" IVar="0" Cut="158539" cType="1" res="-0.00855103" purity="0.484105" nType="0">
              <Node pos="l" depth="4" NCoef="0" IVar="-1" Cut="0" cType="1" res="-0.00180996" purity="0.419525" nType="-99"/>
              <Node pos="r" depth="4" NCoef="0" IVar="-1" Cut="0" cType="1" res="0.000635471" purity="0.542654" nType="-99"/>
            </Node>
            <Node pos="r" depth="3" NCoef="0" IVar="2" Cut="-2436.82" cType="1" res="-0.0446619" purity="0.42721" nType="0">
              <Node pos="l" depth="4" NCoef="0" IVar="-1" Cut="0" cType="1" res="0.00110664" purity="0.438962" nType="-99"/>
              <Node pos="r" depth="4" NCoef="0" IVar="-1" Cut="0" cType="1" res="-0.00479022" purity="0.419883" nType="-99"/>
            </Node>
          </Node>
          <Node pos="r" depth="2" NCoef="0" IVar="5" Cut="1.41516" cType="1" res="0.0173068" purity="0.48997" nType="0">
            <Node pos="l" depth="3" NCoef="0" IVar="-1" Cut="0" cType="1" res="0.0029508" purity="0.549667" nType="-99"/>
            <Node pos="r" depth="3" NCoef="0" IVar="2" Cut="-10245.6" cType="1" res="0.0117058" purity="0.483129" nType="0">
              <Node pos="l" depth="4" NCoef="0" IVar="-1" Cut="0" cType="1" res="-0.00233853" purity="0.363986" nType="-99"/>
              <Node pos="r" depth="4" NCoef="0" IVar="-1" Cut="0" cType="1" res="0.000936266" purity="0.50231" nType="-99"/>
            </Node>
          </Node>
        </Node>
        <Node pos="r" depth="1" NCoef="0" IVar="-1" Cut="0" cType="1" res="0.00188204" purity="0.700377" nType="-99"/>
      </Node>
    </BinaryTree>
    <BinaryTree type="DecisionTree" boostWeight="1.0" itree="344">
      <Node pos="s" depth="0" NCoef="0" IVar="2" Cut="-9624.26" cType="1" res="0.0119331" purity="0.506688" nType="0">
        <Node pos="l" depth="1" NCoef="0" IVar="4" Cut="322384" cType="1" res="-0.0208669" purity="0.394148" nType="0">
          <Node pos="l" depth="2" NCoef="0" IVar="6" Cut="2.73821" cType="1" res="-0.0460168" purity="0.383878" nType="0">
            <Node pos="l" depth="3" NCoef="0" IVar="-1" Cut="0" cType="1" res="-0.000555757" purity="0.424825" nType="-99"/>
            <Node pos="r" depth="3" NCoef="0" IVar="-1" Cut="0" cType="1" res="-0.00600778" purity="0.336122" nType="-99"/>
          </Node>
          <Node pos="r" depth="2" NCoef="0" IVar="-1" Cut="0" cType="1" res="0.0021605" purity="0.418242" nType="-99"/>
        </Node>
        <Node pos="r" depth="1" NCoef="0" IVar="2" Cut="904.046" cType="1" res="0.0169928" purity="0.524049" nType="0">
          <Node pos="l" depth="2" NCoef="0" IVar="1" Cut="105279" cType="1" res="0.0447202" purity="0.481855" nType="0">
            <Node pos="l" depth="3" NCoef="0" IVar="6" Cut="2.53082" cType="1" res="0.00469532" purity="0.42207" nType="0">
              <Node pos="l" depth="4" NCoef="0" IVar="-1" Cut="0" cType="1" res="-0.0019594" purity="0.369069" nType="-99"/>
              <Node pos="r" depth="4" NCoef="0" IVar="-1" Cut="0" cType="1" res="0.00167768" purity="0.464605" nType="-99"/>
            </Node>
            <Node pos="r" depth="3" NCoef="0" IVar="3" Cut="177740" cType="1" res="0.074882" purity="0.526908" nType="0">
              <Node pos="l" depth="4" NCoef="0" IVar="-1" Cut="0" cType="1" res="0.0041792" purity="0.550978" nType="-99"/>
              <Node pos="r" depth="4" NCoef="0" IVar="-1" Cut="0" cType="1" res="0.00183097" purity="0.481034" nType="-99"/>
            </Node>
          </Node>
          <Node pos="r" depth="2" NCoef="0" IVar="6" Cut="2.4024" cType="1" res="0.00459994" purity="0.542908" nType="0">
            <Node pos="l" depth="3" NCoef="0" IVar="0" Cut="192677" cType="1" res="0.00900171" purity="0.549707" nType="0">
              <Node pos="l" depth="4" NCoef="0" IVar="-1" Cut="0" cType="1" res="0.000127922" purity="0.533801" nType="-99"/>
              <Node pos="r" depth="4" NCoef="0" IVar="-1" Cut="0" cType="1" res="0.0018188" purity="0.634915" nType="-99"/>
            </Node>
            <Node pos="r" depth="3" NCoef="0" IVar="-1" Cut="0" cType="1" res="-0.00255405" purity="0.458467" nType="-99"/>
          </Node>
        </Node>
      </Node>
    </BinaryTree>
    <BinaryTree type="DecisionTree" boostWeight="1.0" itree="345">
      <Node pos="s" depth="0" NCoef="0" IVar="3" Cut="224056" cType="1" res="0.00718583" purity="0.503215" nType="0">
        <Node pos="l" depth="1" NCoef="0" IVar="0" Cut="114645" cType="1" res="0.00247436" purity="0.499593" nType="0">
          <Node pos="l" depth="2" NCoef="0" IVar="3" Cut="148323" cType="1" res="-0.0257283" purity="0.422182" nType="0">
            <Node pos="l" depth="3" NCoef="0" IVar="-1" Cut="0" cType="1" res="-0.00561321" purity="0.359055" nType="-99"/>
            <Node pos="r" depth="3" NCoef="0" IVar="3" Cut="164915" cType="1" res="-0.00487594" purity="0.442717" nType="0">
              <Node pos="l" depth="4" NCoef="0" IVar="-1" Cut="0" cType="1" res="0.00275946" purity="0.509457" nType="-99"/>
              <Node pos="r" depth="4" NCoef="0" IVar="-1" Cut="0" cType="1" res="-0.00187518" purity="0.411522" nType="-99"/>
            </Node>
          </Node>
          <Node pos="r" depth="2" NCoef="0" IVar="6" Cut="2.68183" cType="1" res="0.0119256" purity="0.525535" nType="0">
            <Node pos="l" depth="3" NCoef="0" IVar="5" Cut="0.928205" cType="1" res="0.0195511" purity="0.546441" nType="0">
              <Node pos="l" depth="4" NCoef="0" IVar="-1" Cut="0" cType="1" res="-0.000556613" purity="0.540254" nType="-99"/>
              <Node pos="r" depth="4" NCoef="0" IVar="-1" Cut="0" cType="1" res="0.0012854" purity="0.548137" nType="-99"/>
            </Node>
            <Node pos="r" depth="3" NCoef="0" IVar="5" Cut="1.01446" cType="1" res="-0.0258021" purity="0.422101" nType="0">
              <Node pos="l" depth="4" NCoef="0" IVar="-1" Cut="0" cType="1" res="0.000453727" purity="0.473897" nType="-99"/>
              <Node pos="r" depth="4" NCoef="0" IVar="-1" Cut="0" cType="1" res="-0.00325638" purity="0.380917" nType="-99"/>
            </Node>
          </Node>
        </Node>
        <Node pos="r" depth="1" NCoef="0" IVar="-1" Cut="0" cType="1" res="0.00333992" purity="0.556616" nType="-99"/>
      </Node>
    </BinaryTree>
    <BinaryTree type="DecisionTree" boostWeight="1.0" itree="346">
      <Node pos="s" depth="0" NCoef="0" IVar="4" Cut="187829" cType="1" res="0.00835744" purity="0.501843" nType="0">
        <Node pos="l" depth="1" NCoef="0" IVar="0" Cut="177902" cType="1" res="-0.0270307" purity="0.511842" nType="0">
          <Node pos="l" depth="2" NCoef="0" IVar="6" Cut="1.83863" cType="1" res="-0.0437128" purity="0.481591" nType="0">
            <Node pos="l" depth="3" NCoef="0" IVar="3" Cut="169509" cType="1" res="-0.0662407" purity="0.480282" nType="0">
              <Node pos="l" depth="4" NCoef="0" IVar="-1" Cut="0" cType="1" res="-0.00535308" purity="0.457158" nType="-99"/>
              <Node pos="r" depth="4" NCoef="0" IVar="-1" Cut="0" cType="1" res="-0.00175161" purity="0.504499" nType="-99"/>
            </Node>
            <Node pos="r" depth="3" NCoef="0" IVar="-1" Cut="0" cType="1" res="-0.000894523" purity="0.483135" nType="-99"/>
          </Node>
          <Node pos="r" depth="2" NCoef="0" IVar="-1" Cut="0" cType="1" res="0.00155222" purity="0.627373" nType="-99"/>
        </Node>
        <Node pos="r" depth="1" NCoef="0" IVar="0" Cut="192682" cType="1" res="0.0215344" purity="0.498119" nType="0">
          <Node pos="l" depth="2" NCoef="0" IVar="1" Cut="182192" cType="1" res="0.0279191" purity="0.491509" nType="0">
            <Node pos="l" depth="3" NCoef="0" IVar="5" Cut="2.45901" cType="1" res="0.0220694" purity="0.487392" nType="0">
              <Node pos="l" depth="4" NCoef="0" IVar="-1" Cut="0" cType="1" res="0.00138559" purity="0.496593" nType="-99"/>
              <Node pos="r" depth="4" NCoef="0" IVar="-1" Cut="0" cType="1" res="-0.00178736" purity="0.414318" nType="-99"/>
            </Node>
            <Node pos="r" depth="3" NCoef="0" IVar="-1" Cut="0" cType="1" res="0.00363183" purity="0.52801" nType="-99"/>
          </Node>
          <Node pos="r" depth="2" NCoef="0" IVar="1" Cut="125823" cType="1" res="-0.0171233" purity="0.538144" nType="0">
            <Node pos="l" depth="3" NCoef="0" IVar="-1" Cut="0" cType="1" res="0.000466358" purity="0.552577" nType="-99"/>
            <Node pos="r" depth="3" NCoef="0" IVar="-1" Cut="0" cType="1" res="-0.0028721" purity="0.517143" nType="-99"/>
          </Node>
        </Node>
      </Node>
    </BinaryTree>
    <BinaryTree type="DecisionTree" boostWeight="1.0" itree="347">
      <Node pos="s" depth="0" NCoef="0" IVar="3" Cut="130354" cType="1" res="0.000863445" purity="0.49636" nType="0">
        <Node pos="l" depth="1" NCoef="0" IVar="6" Cut="1.30288" cType="1" res="-0.0435031" purity="0.460835" nType="0">
          <Node pos="l" depth="2" NCoef="0" IVar="-1" Cut="0" cType="1" res="-0.0066485" purity="0.3801" nType="-99"/>
          <Node pos="r" depth="2" NCoef="0" IVar="3" Cut="114997" cType="1" res="-0.0119861" purity="0.500264" nType="0">
            <Node pos="l" depth="3" NCoef="0" IVar="-1" Cut="0" cType="1" res="4.3964e-05" purity="0.515913" nType="-99"/>
            <Node pos="r" depth="3" NCoef="0" IVar="-1" Cut="0" cType="1" res="-0.00125068" purity="0.483995" nType="-99"/>
          </Node>
        </Node>
        <Node pos="r" depth="1" NCoef="0" IVar="5" Cut="1.70034" cType="1" res="0.00710537" purity="0.501358" nType="0">
          <Node pos="l" depth="2" NCoef="0" IVar="6" Cut="0.613112" cType="1" res="0.020566" purity="0.524207" nType="0">
            <Node pos="l" depth="3" NCoef="0" IVar="-1" Cut="0" cType="1" res="0.00283934" purity="0.533771" nType="-99"/>
            <Node pos="r" depth="3" NCoef="0" IVar="3" Cut="142626" cType="1" res="0.0137551" purity="0.522744" nType="0">
              <Node pos="l" depth="4" NCoef="0" IVar="-1" Cut="0" cType="1" res="0.00349678" purity="0.608751" nType="-99"/>
              <Node pos="r" depth="4" NCoef="0" IVar="-1" Cut="0" cType="1" res="0.000313511" purity="0.51369" nType="-99"/>
            </Node>
          </Node>
          <Node pos="r" depth="2" NCoef="0" IVar="6" Cut="0.996283" cType="1" res="-0.0201235" purity="0.455137" nType="0">
            <Node pos="l" depth="3" NCoef="0" IVar="-1" Cut="0" cType="1" res="-0.00322392" purity="0.446164" nType="-99"/>
            <Node pos="r" depth="3" NCoef="0" IVar="4" Cut="250155" cType="1" res="-0.0045408" purity="0.458704" nType="0">
              <Node pos="l" depth="4" NCoef="0" IVar="-1" Cut="0" cType="1" res="-0.00155148" purity="0.477421" nType="-99"/>
              <Node pos="r" depth="4" NCoef="0" IVar="-1" Cut="0" cType="1" res="0.00100655" purity="0.442485" nType="-99"/>
            </Node>
          </Node>
        </Node>
      </Node>
    </BinaryTree>
    <BinaryTree type="DecisionTree" boostWeight="1.0" itree="348">
      <Node pos="s" depth="0" NCoef="0" IVar="4" Cut="256119" cType="1" res="-0.00851091" purity="0.488637" nType="0">
        <Node pos="l" depth="1" NCoef="0" IVar="4" Cut="164753" cType="1" res="0.00353665" purity="0.523981" nType="0">
          <Node pos="l" depth="2" NCoef="0" IVar="2" Cut="5945.79" cType="1" res="-0.0172833" purity="0.531815" nType="0">
            <Node pos="l" depth="3" NCoef="0" IVar="-1" Cut="0" cType="1" res="-0.00454157" purity="0.374943" nType="-99"/>
            <Node pos="r" depth="3" NCoef="0" IVar="-1" Cut="0" cType="1" res="0.000676984" purity="0.623084" nType="-99"/>
          </Node>
          <Node pos="r" depth="2" NCoef="0" IVar="6" Cut="1.45577" cType="1" res="0.00951261" purity="0.521733" nType="0">
            <Node pos="l" depth="3" NCoef="0" IVar="5" Cut="1.36445" cType="1" res="-0.0174211" purity="0.50061" nType="0">
              <Node pos="l" depth="4" NCoef="0" IVar="-1" Cut="0" cType="1" res="-0.00294404" purity="0.440029" nType="-99"/>
              <Node pos="r" depth="4" NCoef="0" IVar="-1" Cut="0" cType="1" res="0.000342303" purity="0.541076" nType="-99"/>
            </Node>
            <Node pos="r" depth="3" NCoef="0" IVar="5" Cut="0.902613" cType="1" res="0.0245299" purity="0.533511" nType="0">
              <Node pos="l" depth="4" NCoef="0" IVar="-1" Cut="0" cType="1" res="0.00283786" purity="0.615744" nType="-99"/>
              <Node pos="r" depth="4" NCoef="0" IVar="-1" Cut="0" cType="1" res="0.000668208" purity="0.512584" nType="-99"/>
            </Node>
          </Node>
        </Node>
        <Node pos="r" depth="1" NCoef="0" IVar="0" Cut="109764" cType="1" res="-0.0284253" purity="0.430214" nType="0">
          <Node pos="l" depth="2" NCoef="0" IVar="-1" Cut="0" cType="1" res="-0.00834671" purity="0.271208" nType="-99"/>
          <Node pos="r" depth="2" NCoef="0" IVar="5" Cut="2.61006" cType="1" res="-0.0154679" purity="0.458265" nType="0">
            <Node pos="l" depth="3" NCoef="0" IVar="0" Cut="137601" cType="1" res="-0.00783254" purity="0.471805" nType="0">
              <Node pos="l" depth="4" NCoef="0" IVar="-1" Cut="0" cType="1" res="0.000817611" purity="0.45507" nType="-99"/>
              <Node pos="r" depth="4" NCoef="0" IVar="-1" Cut="0" cType="1" res="-0.0012244" purity="0.483633" nType="-99"/>
            </Node>
            <Node pos="r" depth="3" NCoef="0" IVar="-1" Cut="0" cType="1" res="-0.00391748" purity="0.36974" nType="-99"/>
          </Node>
        </Node>
      </Node>
    </BinaryTree>
    <BinaryTree type="DecisionTree" boostWeight="1.0" itree="349">
      <Node pos="s" depth="0" NCoef="0" IVar="6" Cut="1.14937" cType="1" res="0.0032101" purity="0.498951" nType="0">
        <Node pos="l" depth="1" NCoef="0" IVar="1" Cut="105354" cType="1" res="0.0210969" purity="0.520354" nType="0">
          <Node pos="l" depth="2" NCoef="0" IVar="6" Cut="0.61669" cType="1" res="-0.0190184" purity="0.432212" nType="0">
            <Node pos="l" depth="3" NCoef="0" IVar="-1" Cut="0" cType="1" res="-0.0031565" purity="0.375309" nType="-99"/>
            <Node pos="r" depth="3" NCoef="0" IVar="-1" Cut="0" cType="1" res="0.000608611" purity="0.484011" nType="-99"/>
          </Node>
          <Node pos="r" depth="2" NCoef="0" IVar="1" Cut="167028" cType="1" res="0.039933" purity="0.561741" nType="0">
            <Node pos="l" depth="3" NCoef="0" IVar="0" Cut="124378" cType="1" res="0.0569038" purity="0.587343" nType="0">
              <Node pos="l" depth="4" NCoef="0" IVar="-1" Cut="0" cType="1" res="0.00127746" purity="0.526718" nType="-99"/>
              <Node pos="r" depth="4" NCoef="0" IVar="-1" Cut="0" cType="1" res="0.00324958" purity="0.641135" nType="-99"/>
            </Node>
            <Node pos="r" depth="3" NCoef="0" IVar="-1" Cut="0" cType="1" res="-0.00124124" purity="0.463944" nType="-99"/>
          </Node>
        </Node>
        <Node pos="r" depth="1" NCoef="0" IVar="4" Cut="363538" cType="1" res="-0.0041057" purity="0.490197" nType="0">
          <Node pos="l" depth="2" NCoef="0" IVar="6" Cut="2.99574" cType="1" res="0.00155062" purity="0.505622" nType="0">
            <Node pos="l" depth="3" NCoef="0" IVar="2" Cut="-13140.5" cType="1" res="-0.00214898" purity="0.508497" nType="0">
              <Node pos="l" depth="4" NCoef="0" IVar="-1" Cut="0" cType="1" res="-0.00296179" purity="0.36905" nType="-99"/>
              <Node pos="r" depth="4" NCoef="0" IVar="-1" Cut="0" cType="1" res="0.000113906" purity="0.521786" nType="-99"/>
            </Node>
            <Node pos="r" depth="3" NCoef="0" IVar="-1" Cut="0" cType="1" res="0.00254666" purity="0.468653" nType="-99"/>
          </Node>
          <Node pos="r" depth="2" NCoef="0" IVar="2" Cut="-1633.29" cType="1" res="-0.0436986" purity="0.382231" nType="0">
            <Node pos="l" depth="3" NCoef="0" IVar="-1" Cut="0" cType="1" res="-0.000256991" purity="0.377252" nType="-99"/>
            <Node pos="r" depth="3" NCoef="0" IVar="-1" Cut="0" cType="1" res="-0.00522123" purity="0.387835" nType="-99"/>
          </Node>
        </Node>
      </Node>
    </BinaryTree>
    <BinaryTree type="DecisionTree" boostWeight="1.0" itree="350">
      <Node pos="s" depth="0" NCoef="0" IVar="3" Cut="194894" cType="1" res="-0.00197329" purity="0.492373" nType="0">
        <Node pos="l" depth="1" NCoef="0" IVar="0" Cut="139032" cType="1" res="-0.0103014" purity="0.488426" nType="0">
          <Node pos="l" depth="2" NCoef="0" IVar="6" Cut="2.83505" cType="1" res="-0.023306" purity="0.447374" nType="0">
            <Node pos="l" depth="3" NCoef="0" IVar="4" Cut="344015" cType="1" res="-0.014258" purity="0.467011" nType="0">
              <Node pos="l" depth="4" NCoef="0" IVar="-1" Cut="0" cType="1" res="-0.000341125" purity="0.487104" nType="-99"/>
              <Node pos="r" depth="4" NCoef="0" IVar="-1" Cut="0" cType="1" res="-0.00567348" purity="0.299329" nType="-99"/>
            </Node>
            <Node pos="r" depth="3" NCoef="0" IVar="-1" Cut="0" cType="1" res="-0.00851418" purity="0.269825" nType="-99"/>
          </Node>
          <Node pos="r" depth="2" NCoef="0" IVar="5" Cut="1.70884" cType="1" res="0.00616883" purity="0.54042" nType="0">
            <Node pos="l" depth="3" NCoef="0" IVar="3" Cut="136090" cType="1" res="0.016297" purity="0.555301" nType="0">
              <Node pos="l" depth="4" NCoef="0" IVar="-1" Cut="0" cType="1" res="-0.00104412" purity="0.520297" nType="-99"/>
              <Node pos="r" depth="4" NCoef="0" IVar="-1" Cut="0" cType="1" res="0.00109791" purity="0.562216" nType="-99"/>
            </Node>
            <Node pos="r" depth="3" NCoef="0" IVar="-1" Cut="0" cType="1" res="-0.00149088" purity="0.487589" nType="-99"/>
          </Node>
        </Node>
        <Node pos="r" depth="1" NCoef="0" IVar="4" Cut="324396" cType="1" res="0.0333727" purity="0.509124" nType="0">
          <Node pos="l" depth="2" NCoef="0" IVar="1" Cut="119367" cType="1" res="0.000571789" purity="0.493156" nType="0">
            <Node pos="l" depth="3" NCoef="0" IVar="-1" Cut="0" cType="1" res="-0.00194418" purity="0.43912" nType="-99"/>
            <Node pos="r" depth="3" NCoef="0" IVar="-1" Cut="0" cType="1" res="0.00237226" purity="0.571378" nType="-99"/>
          </Node>
          <Node pos="r" depth="2" NCoef="0" IVar="-1" Cut="0" cType="1" res="0.00499995" purity="0.549336" nType="-99"/>
        </Node>
      </Node>
    </BinaryTree>
    <BinaryTree type="DecisionTree" boostWeight="1.0" itree="351">
      <Node pos="s" depth="0" NCoef="0" IVar="2" Cut="30830.4" cType="1" res="-0.000494488" purity="0.491824" nType="0">
        <Node pos="l" depth="1" NCoef="0" IVar="5" Cut="2.85884" cType="1" res="-0.00428164" purity="0.477373" nType="0">
          <Node pos="l" depth="2" NCoef="0" IVar="2" Cut="-256.38" cType="1" res="-0.00845411" purity="0.475927" nType="0">
            <Node pos="l" depth="3" NCoef="0" IVar="5" Cut="1.60648" cType="1" res="0.00939425" purity="0.435444" nType="0">
              <Node pos="l" depth="4" NCoef="0" IVar="-1" Cut="0" cType="1" res="0.00154682" purity="0.457723" nType="-99"/>
              <Node pos="r" depth="4" NCoef="0" IVar="-1" Cut="0" cType="1" res="-0.0014955" purity="0.397414" nType="-99"/>
            </Node>
            <Node pos="r" depth="3" NCoef="0" IVar="2" Cut="1261.06" cType="1" res="-0.0197918" purity="0.501643" nType="0">
              <Node pos="l" depth="4" NCoef="0" IVar="-1" Cut="0" cType="1" res="-0.00484513" purity="0.371433" nType="-99"/>
              <Node pos="r" depth="4" NCoef="0" IVar="-1" Cut="0" cType="1" res="-0.000700328" purity="0.513529" nType="-99"/>
            </Node>
          </Node>
          <Node pos="r" depth="2" NCoef="0" IVar="-1" Cut="0" cType="1" res="0.00301333" purity="0.50079" nType="-99"/>
        </Node>
        <Node pos="r" depth="1" NCoef="0" IVar="-1" Cut="0" cType="1" res="0.00235875" purity="0.717593" nType="-99"/>
      </Node>
    </BinaryTree>
    <BinaryTree type="DecisionTree" boostWeight="1.0" itree="352">
      <Node pos="s" depth="0" NCoef="0" IVar="2" Cut="17345.5" cType="1" res="-0.00569457" purity="0.489775" nType="0">
        <Node pos="l" depth="1" NCoef="0" IVar="0" Cut="104880" cType="1" res="-0.0131833" purity="0.454766" nType="0">
          <Node pos="l" depth="2" NCoef="0" IVar="-1" Cut="0" cType="1" res="0.00177201" purity="0.44735" nType="-99"/>
          <Node pos="r" depth="2" NCoef="0" IVar="5" Cut="1.0924" cType="1" res="-0.0184834" purity="0.455595" nType="0">
            <Node pos="l" depth="3" NCoef="0" IVar="3" Cut="146947" cType="1" res="0.00853197" purity="0.487812" nType="0">
              <Node pos="l" depth="4" NCoef="0" IVar="-1" Cut="0" cType="1" res="-0.00226373" purity="0.442056" nType="-99"/>
              <Node pos="r" depth="4" NCoef="0" IVar="-1" Cut="0" cType="1" res="0.000999019" purity="0.498593" nType="-99"/>
            </Node>
            <Node pos="r" depth="3" NCoef="0" IVar="2" Cut="-821.643" cType="1" res="-0.0308186" purity="0.440885" nType="0">
              <Node pos="l" depth="4" NCoef="0" IVar="-1" Cut="0" cType="1" res="-0.00315458" purity="0.373112" nType="-99"/>
              <Node pos="r" depth="4" NCoef="0" IVar="-1" Cut="0" cType="1" res="-0.000799521" purity="0.486452" nType="-99"/>
            </Node>
          </Node>
        </Node>
        <Node pos="r" depth="1" NCoef="0" IVar="5" Cut="1.30774" cType="1" res="0.0300182" purity="0.656728" nType="0">
          <Node pos="l" depth="2" NCoef="0" IVar="6" Cut="1.60769" cType="1" res="0.00737104" purity="0.655083" nType="0">
            <Node pos="l" depth="3" NCoef="0" IVar="-1" Cut="0" cType="1" res="-0.000448536" purity="0.617631" nType="-99"/>
            <Node pos="r" depth="3" NCoef="0" IVar="-1" Cut="0" cType="1" res="0.00124741" purity="0.698402" nType="-99"/>
          </Node>
          <Node pos="r" depth="2" NCoef="0" IVar="-1" Cut="0" cType="1" res="0.00231203" purity="0.658706" nType="-99"/>
        </Node>
      </Node>
    </BinaryTree>
    <BinaryTree type="DecisionTree" boostWeight="1.0" itree="353">
      <Node pos="s" depth="0" NCoef="0" IVar="0" Cut="207290" cType="1" res="0.00929853" purity="0.501066" nType="0">
        <Node pos="l" depth="1" NCoef="0" IVar="3" Cut="183052" cType="1" res="0.013599" purity="0.496323" nType="0">
          <Node pos="l" depth="2" NCoef="0" IVar="4" Cut="246692" cType="1" res="0.00587666" purity="0.494106" nType="0">
            <Node pos="l" depth="3" NCoef="0" IVar="4" Cut="221735" cType="1" res="0.020227" purity="0.536652" nType="0">
              <Node pos="l" depth="4" NCoef="0" IVar="-1" Cut="0" cType="1" res="0.00031192" purity="0.527225" nType="-99"/>
              <Node pos="r" depth="4" NCoef="0" IVar="-1" Cut="0" cType="1" res="0.00311025" purity="0.57222" nType="-99"/>
            </Node>
            <Node pos="r" depth="3" NCoef="0" IVar="1" Cut="110489" cType="1" res="-0.0165904" purity="0.427495" nType="0">
              <Node pos="l" depth="4" NCoef="0" IVar="-1" Cut="0" cType="1" res="0.00135272" purity="0.444787" nType="-99"/>
              <Node pos="r" depth="4" NCoef="0" IVar="-1" Cut="0" cType="1" res="-0.00235169" purity="0.416896" nType="-99"/>
            </Node>
          </Node>
          <Node pos="r" depth="2" NCoef="0" IVar="5" Cut="2.24008" cType="1" res="0.0317419" purity="0.501532" nType="0">
            <Node pos="l" depth="3" NCoef="0" IVar="6" Cut="1.22699" cType="1" res="0.0209769" purity="0.496892" nType="0">
              <Node pos="l" depth="4" NCoef="0" IVar="-1" Cut="0" cType="1" res="0.00256197" purity="0.540667" nType="-99"/>
              <Node pos="r" depth="4" NCoef="0" IVar="-1" Cut="0" cType="1" res="0.000277995" purity="0.479011" nType="-99"/>
            </Node>
            <Node pos="r" depth="3" NCoef="0" IVar="-1" Cut="0" cType="1" res="0.00343616" purity="0.519327" nType="-99"/>
          </Node>
        </Node>
        <Node pos="r" depth="1" NCoef="0" IVar="5" Cut="1.00242" cType="1" res="-0.0287201" purity="0.542997" nType="0">
          <Node pos="l" depth="2" NCoef="0" IVar="-1" Cut="0" cType="1" res="0.000171713" purity="0.578204" nType="-99"/>
          <Node pos="r" depth="2" NCoef="0" IVar="-1" Cut="0" cType="1" res="-0.00369896" purity="0.497789" nType="-99"/>
        </Node>
      </Node>
    </BinaryTree>
    <BinaryTree type="DecisionTree" boostWeight="1.0" itree="354">
      <Node pos="s" depth="0" NCoef="0" IVar="0" Cut="148787" cType="1" res="0.0105213" purity="0.503681" nType="0">
        <Node pos="l" depth="1" NCoef="0" IVar="6" Cut="0.383172" cType="1" res="0.0202686" purity="0.490174" nType="0">
          <Node pos="l" depth="2" NCoef="0" IVar="-1" Cut="0" cType="1" res="-0.00113784" purity="0.447346" nType="-99"/>
          <Node pos="r" depth="2" NCoef="0" IVar="1" Cut="130580" cType="1" res="0.0246009" purity="0.494569" nType="0">
            <Node pos="l" depth="3" NCoef="0" IVar="0" Cut="107154" cType="1" res="0.0166515" purity="0.482317" nType="0">
              <Node pos="l" depth="4" NCoef="0" IVar="-1" Cut="0" cType="1" res="0.00299303" purity="0.511739" nType="-99"/>
              <Node pos="r" depth="4" NCoef="0" IVar="-1" Cut="0" cType="1" res="0.000147761" purity="0.47324" nType="-99"/>
            </Node>
            <Node pos="r" depth="3" NCoef="0" IVar="6" Cut="1.86432" cType="1" res="0.0460293" purity="0.527595" nType="0">
              <Node pos="l" depth="4" NCoef="0" IVar="-1" Cut="0" cType="1" res="0.000880946" purity="0.53612" nType="-99"/>
              <Node pos="r" depth="4" NCoef="0" IVar="-1" Cut="0" cType="1" res="0.00344992" purity="0.519074" nType="-99"/>
            </Node>
          </Node>
        </Node>
        <Node pos="r" depth="1" NCoef="0" IVar="1" Cut="192412" cType="1" res="-0.007201" purity="0.52824" nType="0">
          <Node pos="l" depth="2" NCoef="0" IVar="5" Cut="1.48219" cType="1" res="-0.0161923" purity="0.521527" nType="0">
            <Node pos="l" depth="3" NCoef="0" IVar="2" Cut="-4706.28" cType="1" res="-0.00705686" purity="0.534175" nType="0">
              <Node pos="l" depth="4" NCoef="0" IVar="-1" Cut="0" cType="1" res="-0.00197911" purity="0.451587" nType="-99"/>
              <Node pos="r" depth="4" NCoef="0" IVar="-1" Cut="0" cType="1" res="-4.24737e-06" purity="0.553001" nType="-99"/>
            </Node>
            <Node pos="r" depth="3" NCoef="0" IVar="-1" Cut="0" cType="1" res="-0.00263582" purity="0.47325" nType="-99"/>
          </Node>
          <Node pos="r" depth="2" NCoef="0" IVar="-1" Cut="0" cType="1" res="0.00263302" purity="0.579949" nType="-99"/>
        </Node>
      </Node>
    </BinaryTree>
    <BinaryTree type="DecisionTree" boostWeight="1.0" itree="355">
      <Node pos="s" depth="0" NCoef="0" IVar="5" Cut="1.69108" cType="1" res="0.00885176" purity="0.503719" nType="0">
        <Node pos="l" depth="1" NCoef="0" IVar="5" Cut="1.56817" cType="1" res="-0.00376991" purity="0.500739" nType="0">
          <Node pos="l" depth="2" NCoef="0" IVar="6" Cut="2.91171" cType="1" res="0.00328468" purity="0.508694" nType="0">
            <Node pos="l" depth="3" NCoef="0" IVar="2" Cut="585.632" cType="1" res="0.00968637" purity="0.522819" nType="0">
              <Node pos="l" depth="4" NCoef="0" IVar="-1" Cut="0" cType="1" res="0.00243935" purity="0.477454" nType="-99"/>
              <Node pos="r" depth="4" NCoef="0" IVar="-1" Cut="0" cType="1" res="-0.00040912" purity="0.544235" nType="-99"/>
            </Node>
            <Node pos="r" depth="3" NCoef="0" IVar="-1" Cut="0" cType="1" res="-0.003526" purity="0.372627" nType="-99"/>
          </Node>
          <Node pos="r" depth="2" NCoef="0" IVar="-1" Cut="0" cType="1" res="-0.00451704" purity="0.406915" nType="-99"/>
        </Node>
        <Node pos="r" depth="1" NCoef="0" IVar="0" Cut="124398" cType="1" res="0.0305973" purity="0.508853" nType="0">
          <Node pos="l" depth="2" NCoef="0" IVar="3" Cut="150066" cType="1" res="0.00847375" purity="0.457287" nType="0">
            <Node pos="l" depth="3" NCoef="0" IVar="-1" Cut="0" cType="1" res="0.00259162" purity="0.511846" nType="-99"/>
            <Node pos="r" depth="3" NCoef="0" IVar="4" Cut="248044" cType="1" res="-0.0123742" purity="0.432308" nType="0">
              <Node pos="l" depth="4" NCoef="0" IVar="-1" Cut="0" cType="1" res="-0.00183754" purity="0.455724" nType="-99"/>
              <Node pos="r" depth="4" NCoef="0" IVar="-1" Cut="0" cType="1" res="0.00091741" purity="0.40195" nType="-99"/>
            </Node>
          </Node>
          <Node pos="r" depth="2" NCoef="0" IVar="0" Cut="167230" cType="1" res="0.0533179" purity="0.561809" nType="0">
            <Node pos="l" depth="3" NCoef="0" IVar="5" Cut="2.22157" cType="1" res="0.0783791" purity="0.579095" nType="0">
              <Node pos="l" depth="4" NCoef="0" IVar="-1" Cut="0" cType="1" res="0.002469" purity="0.576025" nType="-99"/>
              <Node pos="r" depth="4" NCoef="0" IVar="-1" Cut="0" cType="1" res="0.00412708" purity="0.582074" nType="-99"/>
            </Node>
            <Node pos="r" depth="3" NCoef="0" IVar="-1" Cut="0" cType="1" res="-0.00058373" purity="0.516605" nType="-99"/>
          </Node>
        </Node>
      </Node>
    </BinaryTree>
    <BinaryTree type="DecisionTree" boostWeight="1.0" itree="356">
      <Node pos="s" depth="0" NCoef="0" IVar="6" Cut="1.07285" cType="1" res="0.0066693" purity="0.50013" nType="0">
        <Node pos="l" depth="1" NCoef="0" IVar="2" Cut="11437.2" cType="1" res="0.0364996" purity="0.528429" nType="0">
          <Node pos="l" depth="2" NCoef="0" IVar="2" Cut="6491.31" cType="1" res="0.0692359" purity="0.510281" nType="0">
            <Node pos="l" depth="3" NCoef="0" IVar="4" Cut="226831" cType="1" res="0.0497977" purity="0.471365" nType="0">
              <Node pos="l" depth="4" NCoef="0" IVar="-1" Cut="0" cType="1" res="0.00338007" purity="0.485466" nType="-99"/>
              <Node pos="r" depth="4" NCoef="0" IVar="-1" Cut="0" cType="1" res="0.0014133" purity="0.455331" nType="-99"/>
            </Node>
            <Node pos="r" depth="3" NCoef="0" IVar="-1" Cut="0" cType="1" res="0.00421334" purity="0.574182" nType="-99"/>
          </Node>
          <Node pos="r" depth="2" NCoef="0" IVar="5" Cut="2.00315" cType="1" res="-0.00525804" purity="0.551578" nType="0">
            <Node pos="l" depth="3" NCoef="0" IVar="-1" Cut="0" cType="1" res="0.00105535" purity="0.591036" nType="-99"/>
            <Node pos="r" depth="3" NCoef="0" IVar="-1" Cut="0" cType="1" res="-0.00263206" purity="0.493311" nType="-99"/>
          </Node>
        </Node>
        <Node pos="r" depth="1" NCoef="0" IVar="4" Cut="421962" cType="1" res="-0.0044342" purity="0.489596" nType="0">
          <Node pos="l" depth="2" NCoef="0" IVar="2" Cut="-13017.1" cType="1" res="-0.00795459" purity="0.490824" nType="0">
            <Node pos="l" depth="3" NCoef="0" IVar="6" Cut="2.7884" cType="1" res="-0.0475294" purity="0.363638" nType="0">
              <Node pos="l" depth="4" NCoef="0" IVar="-1" Cut="0" cType="1" res="-0.00401649" purity="0.356098" nType="-99"/>
              <Node pos="r" depth="4" NCoef="0" IVar="-1" Cut="0" cType="1" res="-0.00192547" purity="0.371294" nType="-99"/>
            </Node>
            <Node pos="r" depth="3" NCoef="0" IVar="6" Cut="1.42608" cType="1" res="-0.00260354" purity="0.508021" nType="0">
              <Node pos="l" depth="4" NCoef="0" IVar="-1" Cut="0" cType="1" res="-0.0017248" purity="0.508208" nType="-99"/>
              <Node pos="r" depth="4" NCoef="0" IVar="-1" Cut="0" cType="1" res="0.000133754" purity="0.50799" nType="-99"/>
            </Node>
          </Node>
          <Node pos="r" depth="2" NCoef="0" IVar="-1" Cut="0" cType="1" res="0.00237463" purity="0.471242" nType="-99"/>
        </Node>
      </Node>
    </BinaryTree>
    <BinaryTree type="DecisionTree" boostWeight="1.0" itree="357">
      <Node pos="s" depth="0" NCoef="0" IVar="1" Cut="115609" cType="1" res="0.00343466" purity="0.498565" nType="0">
        <Node pos="l" depth="1" NCoef="0" IVar="2" Cut="7253.82" cType="1" res="-0.00920084" purity="0.46696" nType="0">
          <Node pos="l" depth="2" NCoef="0" IVar="2" Cut="2648.49" cType="1" res="0.00533071" purity="0.436796" nType="0">
            <Node pos="l" depth="3" NCoef="0" IVar="3" Cut="178675" cType="1" res="-0.0129717" purity="0.409023" nType="0">
              <Node pos="l" depth="4" NCoef="0" IVar="-1" Cut="0" cType="1" res="0.000618844" purity="0.432874" nType="-99"/>
              <Node pos="r" depth="4" NCoef="0" IVar="-1" Cut="0" cType="1" res="-0.00387643" purity="0.36243" nType="-99"/>
            </Node>
            <Node pos="r" depth="3" NCoef="0" IVar="2" Cut="4557.79" cType="1" res="0.0565403" purity="0.514505" nType="0">
              <Node pos="l" depth="4" NCoef="0" IVar="-1" Cut="0" cType="1" res="0.00444861" purity="0.552348" nType="-99"/>
              <Node pos="r" depth="4" NCoef="0" IVar="-1" Cut="0" cType="1" res="0.00100004" purity="0.483395" nType="-99"/>
            </Node>
          </Node>
          <Node pos="r" depth="2" NCoef="0" IVar="4" Cut="207251" cType="1" res="-0.0365777" purity="0.523788" nType="0">
            <Node pos="l" depth="3" NCoef="0" IVar="1" Cut="98121.7" cType="1" res="-0.0123989" purity="0.573868" nType="0">
              <Node pos="l" depth="4" NCoef="0" IVar="-1" Cut="0" cType="1" res="0.000528009" purity="0.579904" nType="-99"/>
              <Node pos="r" depth="4" NCoef="0" IVar="-1" Cut="0" cType="1" res="-0.00130735" purity="0.569569" nType="-99"/>
            </Node>
            <Node pos="r" depth="3" NCoef="0" IVar="-1" Cut="0" cType="1" res="-0.00403608" purity="0.440521" nType="-99"/>
          </Node>
        </Node>
        <Node pos="r" depth="1" NCoef="0" IVar="0" Cut="109758" cType="1" res="0.0189575" purity="0.537393" nType="0">
          <Node pos="l" depth="2" NCoef="0" IVar="-1" Cut="0" cType="1" res="-0.000649902" purity="0.442927" nType="-99"/>
          <Node pos="r" depth="2" NCoef="0" IVar="6" Cut="2.52833" cType="1" res="0.0251301" purity="0.556325" nType="0">
            <Node pos="l" depth="3" NCoef="0" IVar="4" Cut="334313" cType="1" res="0.0157313" purity="0.563457" nType="0">
              <Node pos="l" depth="4" NCoef="0" IVar="-1" Cut="0" cType="1" res="0.000218418" purity="0.574139" nType="-99"/>
              <Node pos="r" depth="4" NCoef="0" IVar="-1" Cut="0" cType="1" res="0.00228616" purity="0.529613" nType="-99"/>
            </Node>
            <Node pos="r" depth="3" NCoef="0" IVar="-1" Cut="0" cType="1" res="0.00274285" purity="0.528936" nType="-99"/>
          </Node>
        </Node>
      </Node>
    </BinaryTree>
    <BinaryTree type="DecisionTree" boostWeight="1.0" itree="358">
      <Node pos="s" depth="0" NCoef="0" IVar="2" Cut="23572.5" cType="1" res="0.00316793" purity="0.49828" nType="0">
        <Node pos="l" depth="1" NCoef="0" IVar="6" Cut="1.5325" cType="1" res="-0.00168205" purity="0.475367" nType="0">
          <Node pos="l" depth="2" NCoef="0" IVar="2" Cut="9627.08" cType="1" res="-0.0228744" purity="0.460025" nType="0">
            <Node pos="l" depth="3" NCoef="0" IVar="3" Cut="168142" cType="1" res="-0.0483098" purity="0.388702" nType="0">
              <Node pos="l" depth="4" NCoef="0" IVar="-1" Cut="0" cType="1" res="-0.0055487" purity="0.346402" nType="-99"/>
              <Node pos="r" depth="4" NCoef="0" IVar="-1" Cut="0" cType="1" res="-0.00103213" purity="0.421929" nType="-99"/>
            </Node>
            <Node pos="r" depth="3" NCoef="0" IVar="3" Cut="172027" cType="1" res="0.00778297" purity="0.545991" nType="0">
              <Node pos="l" depth="4" NCoef="0" IVar="-1" Cut="0" cType="1" res="0.00126438" purity="0.571733" nType="-99"/>
              <Node pos="r" depth="4" NCoef="0" IVar="-1" Cut="0" cType="1" res="-0.00129897" purity="0.504403" nType="-99"/>
            </Node>
          </Node>
          <Node pos="r" depth="2" NCoef="0" IVar="1" Cut="130965" cType="1" res="0.00956229" purity="0.483508" nType="0">
            <Node pos="l" depth="3" NCoef="0" IVar="4" Cut="305003" cType="1" res="-0.000560579" purity="0.472163" nType="0">
              <Node pos="l" depth="4" NCoef="0" IVar="-1" Cut="0" cType="1" res="-0.000531841" purity="0.4757" nType="-99"/>
              <Node pos="r" depth="4" NCoef="0" IVar="-1" Cut="0" cType="1" res="0.00186294" purity="0.459125" nType="-99"/>
            </Node>
            <Node pos="r" depth="3" NCoef="0" IVar="5" Cut="1.84441" cType="1" res="0.0402127" purity="0.517856" nType="0">
              <Node pos="l" depth="4" NCoef="0" IVar="-1" Cut="0" cType="1" res="0.00326229" purity="0.603972" nType="-99"/>
              <Node pos="r" depth="4" NCoef="0" IVar="-1" Cut="0" cType="1" res="0.000482185" purity="0.448393" nType="-99"/>
            </Node>
          </Node>
        </Node>
        <Node pos="r" depth="1" NCoef="0" IVar="-1" Cut="0" cType="1" res="0.00184904" purity="0.698091" nType="-99"/>
      </Node>
    </BinaryTree>
    <BinaryTree type="DecisionTree" boostWeight="1.0" itree="359">
      <Node pos="s" depth="0" NCoef="0" IVar="6" Cut="0.459861" cType="1" res="0.00983143" purity="0.504851" nType="0">
        <Node pos="l" depth="1" NCoef="0" IVar="3" Cut="171166" cType="1" res="-0.0297476" purity="0.454937" nType="0">
          <Node pos="l" depth="2" NCoef="0" IVar="-1" Cut="0" cType="1" res="-0.00312582" purity="0.428349" nType="-99"/>
          <Node pos="r" depth="2" NCoef="0" IVar="-1" Cut="0" cType="1" res="0.000163194" purity="0.487114" nType="-99"/>
        </Node>
        <Node pos="r" depth="1" NCoef="0" IVar="3" Cut="188893" cType="1" res="0.0142563" purity="0.510431" nType="0">
          <Node pos="l" depth="2" NCoef="0" IVar="6" Cut="2.48757" cType="1" res="0.00650607" purity="0.5086" nType="0">
            <Node pos="l" depth="3" NCoef="0" IVar="2" Cut="11011.6" cType="1" res="0.0170501" purity="0.541485" nType="0">
              <Node pos="l" depth="4" NCoef="0" IVar="-1" Cut="0" cType="1" res="0.00151249" purity="0.49651" nType="-99"/>
              <Node pos="r" depth="4" NCoef="0" IVar="-1" Cut="0" cType="1" res="-0.000266429" purity="0.614027" nType="-99"/>
            </Node>
            <Node pos="r" depth="3" NCoef="0" IVar="6" Cut="2.6632" cType="1" res="-0.0236985" purity="0.414398" nType="0">
              <Node pos="l" depth="4" NCoef="0" IVar="-1" Cut="0" cType="1" res="-0.00425504" purity="0.39179" nType="-99"/>
              <Node pos="r" depth="4" NCoef="0" IVar="-1" Cut="0" cType="1" res="-0.000337617" purity="0.422945" nType="-99"/>
            </Node>
          </Node>
          <Node pos="r" depth="2" NCoef="0" IVar="6" Cut="2.3569" cType="1" res="0.0381147" purity="0.516066" nType="0">
            <Node pos="l" depth="3" NCoef="0" IVar="0" Cut="148736" cType="1" res="0.00609743" purity="0.503379" nType="0">
              <Node pos="l" depth="4" NCoef="0" IVar="-1" Cut="0" cType="1" res="0.00149227" purity="0.510219" nType="-99"/>
              <Node pos="r" depth="4" NCoef="0" IVar="-1" Cut="0" cType="1" res="-0.00237722" purity="0.489279" nType="-99"/>
            </Node>
            <Node pos="r" depth="3" NCoef="0" IVar="4" Cut="246389" cType="1" res="0.0875423" purity="0.535653" nType="0">
              <Node pos="l" depth="4" NCoef="0" IVar="-1" Cut="0" cType="1" res="0.00294351" purity="0.53975" nType="-99"/>
              <Node pos="r" depth="4" NCoef="0" IVar="-1" Cut="0" cType="1" res="0.00474766" purity="0.531768" nType="-99"/>
            </Node>
          </Node>
        </Node>
      </Node>
    </BinaryTree>
    <BinaryTree type="DecisionTree" boostWeight="1.0" itree="360">
      <Node pos="s" depth="0" NCoef="0" IVar="0" Cut="153661" cType="1" res="0.0183572" purity="0.513209" nType="0">
        <Node pos="l" depth="1" NCoef="0" IVar="4" Cut="275458" cType="1" res="0.00760389" purity="0.479086" nType="0">
          <Node pos="l" depth="2" NCoef="0" IVar="4" Cut="202711" cType="1" res="-0.00227426" purity="0.492984" nType="0">
            <Node pos="l" depth="3" NCoef="0" IVar="1" Cut="115847" cType="1" res="0.0186738" purity="0.531084" nType="0">
              <Node pos="l" depth="4" NCoef="0" IVar="-1" Cut="0" cType="1" res="0.00146381" purity="0.519593" nType="-99"/>
              <Node pos="r" depth="4" NCoef="0" IVar="-1" Cut="0" cType="1" res="-0.000712772" purity="0.56311" nType="-99"/>
            </Node>
            <Node pos="r" depth="3" NCoef="0" IVar="6" Cut="2.37453" cType="1" res="-0.0306619" purity="0.441353" nType="0">
              <Node pos="l" depth="4" NCoef="0" IVar="-1" Cut="0" cType="1" res="-0.000473979" purity="0.482594" nType="-99"/>
              <Node pos="r" depth="4" NCoef="0" IVar="-1" Cut="0" cType="1" res="-0.00558953" purity="0.338642" nType="-99"/>
            </Node>
          </Node>
          <Node pos="r" depth="2" NCoef="0" IVar="0" Cut="110478" cType="1" res="0.0297722" purity="0.447896" nType="0">
            <Node pos="l" depth="3" NCoef="0" IVar="-1" Cut="0" cType="1" res="-0.00154369" purity="0.34608" nType="-99"/>
            <Node pos="r" depth="3" NCoef="0" IVar="0" Cut="134702" cType="1" res="0.0482237" purity="0.482944" nType="0">
              <Node pos="l" depth="4" NCoef="0" IVar="-1" Cut="0" cType="1" res="0.00366239" purity="0.502552" nType="-99"/>
              <Node pos="r" depth="4" NCoef="0" IVar="-1" Cut="0" cType="1" res="-0.000795332" purity="0.440266" nType="-99"/>
            </Node>
          </Node>
        </Node>
        <Node pos="r" depth="1" NCoef="0" IVar="6" Cut="1.07279" cType="1" res="0.03856" purity="0.577319" nType="0">
          <Node pos="l" depth="2" NCoef="0" IVar="5" Cut="1.33305" cType="1" res="0.070657" purity="0.586259" nType="0">
            <Node pos="l" depth="3" NCoef="0" IVar="-1" Cut="0" cType="1" res="0.00309028" purity="0.577844" nType="-99"/>
            <Node pos="r" depth="3" NCoef="0" IVar="-1" Cut="0" cType="1" res="0.00282351" purity="0.594677" nType="-99"/>
          </Node>
          <Node pos="r" depth="2" NCoef="0" IVar="1" Cut="146328" cType="1" res="0.029219" purity="0.574717" nType="0">
            <Node pos="l" depth="3" NCoef="0" IVar="1" Cut="121513" cType="1" res="0.0408621" purity="0.58549" nType="0">
              <Node pos="l" depth="4" NCoef="0" IVar="-1" Cut="0" cType="1" res="0.00120654" purity="0.557148" nType="-99"/>
              <Node pos="r" depth="4" NCoef="0" IVar="-1" Cut="0" cType="1" res="0.00384795" purity="0.694905" nType="-99"/>
            </Node>
            <Node pos="r" depth="3" NCoef="0" IVar="-1" Cut="0" cType="1" res="-0.00115033" purity="0.525253" nType="-99"/>
          </Node>
        </Node>
      </Node>
    </BinaryTree>
    <BinaryTree type="DecisionTree" boostWeight="1.0" itree="361">
      <Node pos="s" depth="0" NCoef="0" IVar="4" Cut="382934" cType="1" res="0.00704937" purity="0.50144" nType="0">
        <Node pos="l" depth="1" NCoef="0" IVar="3" Cut="136313" cType="1" res="0.00151281" purity="0.503518" nType="0">
          <Node pos="l" depth="2" NCoef="0" IVar="4" Cut="252420" cType="1" res="-0.0306771" purity="0.470652" nType="0">
            <Node pos="l" depth="3" NCoef="0" IVar="2" Cut="3778.56" cType="1" res="-0.000539764" purity="0.507982" nType="0">
              <Node pos="l" depth="4" NCoef="0" IVar="-1" Cut="0" cType="1" res="0.00214715" purity="0.501228" nType="-99"/>
              <Node pos="r" depth="4" NCoef="0" IVar="-1" Cut="0" cType="1" res="-0.00260333" purity="0.515372" nType="-99"/>
            </Node>
            <Node pos="r" depth="3" NCoef="0" IVar="-1" Cut="0" cType="1" res="-0.00547178" purity="0.392998" nType="-99"/>
          </Node>
          <Node pos="r" depth="2" NCoef="0" IVar="6" Cut="2.75846" cType="1" res="0.00742049" purity="0.509549" nType="0">
            <Node pos="l" depth="3" NCoef="0" IVar="0" Cut="109758" cType="1" res="0.013345" purity="0.528138" nType="0">
              <Node pos="l" depth="4" NCoef="0" IVar="-1" Cut="0" cType="1" res="-0.00128043" purity="0.43693" nType="-99"/>
              <Node pos="r" depth="4" NCoef="0" IVar="-1" Cut="0" cType="1" res="0.00100083" purity="0.548408" nType="-99"/>
            </Node>
            <Node pos="r" depth="3" NCoef="0" IVar="4" Cut="210556" cType="1" res="-0.0305752" purity="0.390331" nType="0">
              <Node pos="l" depth="4" NCoef="0" IVar="-1" Cut="0" cType="1" res="0.000622227" purity="0.45729" nType="-99"/>
              <Node pos="r" depth="4" NCoef="0" IVar="-1" Cut="0" cType="1" res="-0.00390686" purity="0.341971" nType="-99"/>
            </Node>
          </Node>
        </Node>
        <Node pos="r" depth="1" NCoef="0" IVar="6" Cut="1.37949" cType="1" res="0.0508887" purity="0.484991" nType="0">
          <Node pos="l" depth="2" NCoef="0" IVar="-1" Cut="0" cType="1" res="0.0046961" purity="0.552212" nType="-99"/>
          <Node pos="r" depth="2" NCoef="0" IVar="-1" Cut="0" cType="1" res="0.000961152" purity="0.447746" nType="-99"/>
        </Node>
      </Node>
    </BinaryTree>
    <BinaryTree type="DecisionTree" boostWeight="1.0" itree="362">
      <Node pos="s" depth="0" NCoef="0" IVar="5" Cut="0.928238" cType="1" res="0.00417598" purity="0.499456" nType="0">
        <Node pos="l" depth="1" NCoef="0" IVar="0" Cut="134149" cType="1" res="-0.0176651" purity="0.508501" nType="0">
          <Node pos="l" depth="2" NCoef="0" IVar="-1" Cut="0" cType="1" res="-0.00469944" purity="0.407402" nType="-99"/>
          <Node pos="r" depth="2" NCoef="0" IVar="1" Cut="101040" cType="1" res="0.00143508" purity="0.541105" nType="0">
            <Node pos="l" depth="3" NCoef="0" IVar="-1" Cut="0" cType="1" res="-0.00117023" purity="0.471835" nType="-99"/>
            <Node pos="r" depth="3" NCoef="0" IVar="-1" Cut="0" cType="1" res="0.00109237" purity="0.611627" nType="-99"/>
          </Node>
        </Node>
        <Node pos="r" depth="1" NCoef="0" IVar="1" Cut="95122.3" cType="1" res="0.00927986" purity="0.497342" nType="0">
          <Node pos="l" depth="2" NCoef="0" IVar="5" Cut="1.21902" cType="1" res="0.0384438" purity="0.488983" nType="0">
            <Node pos="l" depth="3" NCoef="0" IVar="-1" Cut="0" cType="1" res="0.00363204" purity="0.53567" nType="-99"/>
            <Node pos="r" depth="3" NCoef="0" IVar="-1" Cut="0" cType="1" res="1.26573e-05" purity="0.445698" nType="-99"/>
          </Node>
          <Node pos="r" depth="2" NCoef="0" IVar="2" Cut="-12976.1" cType="1" res="0.00477551" purity="0.498633" nType="0">
            <Node pos="l" depth="3" NCoef="0" IVar="-1" Cut="0" cType="1" res="-0.0018568" purity="0.367413" nType="-99"/>
            <Node pos="r" depth="3" NCoef="0" IVar="3" Cut="120403" cType="1" res="0.00871979" purity="0.513287" nType="0">
              <Node pos="l" depth="4" NCoef="0" IVar="-1" Cut="0" cType="1" res="0.00216659" purity="0.552012" nType="-99"/>
              <Node pos="r" depth="4" NCoef="0" IVar="-1" Cut="0" cType="1" res="0.000236829" purity="0.509577" nType="-99"/>
            </Node>
          </Node>
        </Node>
      </Node>
    </BinaryTree>
    <BinaryTree type="DecisionTree" boostWeight="1.0" itree="363">
      <Node pos="s" depth="0" NCoef="0" IVar="0" Cut="153663" cType="1" res="0.0196001" purity="0.515297" nType="0">
        <Node pos="l" depth="1" NCoef="0" IVar="0" Cut="103935" cType="1" res="0.00980891" purity="0.48183" nType="0">
          <Node pos="l" depth="2" NCoef="0" IVar="-1" Cut="0" cType="1" res="0.00297213" purity="0.508362" nType="-99"/>
          <Node pos="r" depth="2" NCoef="0" IVar="3" Cut="171365" cType="1" res="0.00243055" purity="0.477968" nType="0">
            <Node pos="l" depth="3" NCoef="0" IVar="1" Cut="115570" cType="1" res="-0.0151471" purity="0.467176" nType="0">
              <Node pos="l" depth="4" NCoef="0" IVar="-1" Cut="0" cType="1" res="-0.0024417" purity="0.418814" nType="-99"/>
              <Node pos="r" depth="4" NCoef="0" IVar="-1" Cut="0" cType="1" res="0.000819938" purity="0.522683" nType="-99"/>
            </Node>
            <Node pos="r" depth="3" NCoef="0" IVar="5" Cut="1.97501" cType="1" res="0.0219575" purity="0.489957" nType="0">
              <Node pos="l" depth="4" NCoef="0" IVar="-1" Cut="0" cType="1" res="0.000386697" purity="0.480041" nType="-99"/>
              <Node pos="r" depth="4" NCoef="0" IVar="-1" Cut="0" cType="1" res="0.00270338" purity="0.513749" nType="-99"/>
            </Node>
          </Node>
        </Node>
        <Node pos="r" depth="1" NCoef="0" IVar="1" Cut="151411" cType="1" res="0.0385782" purity="0.580164" nType="0">
          <Node pos="l" depth="2" NCoef="0" IVar="5" Cut="1.05642" cType="1" res="0.0288436" purity="0.573698" nType="0">
            <Node pos="l" depth="3" NCoef="0" IVar="5" Cut="0.914484" cType="1" res="0.0526673" purity="0.600886" nType="0">
              <Node pos="l" depth="4" NCoef="0" IVar="-1" Cut="0" cType="1" res="0.00157618" purity="0.587035" nType="-99"/>
              <Node pos="r" depth="4" NCoef="0" IVar="-1" Cut="0" cType="1" res="0.00364827" purity="0.634176" nType="-99"/>
            </Node>
            <Node pos="r" depth="3" NCoef="0" IVar="3" Cut="171977" cType="1" res="-0.00820562" purity="0.531417" nType="0">
              <Node pos="l" depth="4" NCoef="0" IVar="-1" Cut="0" cType="1" res="-0.00233421" purity="0.501432" nType="-99"/>
              <Node pos="r" depth="4" NCoef="0" IVar="-1" Cut="0" cType="1" res="0.0013136" purity="0.561227" nType="-99"/>
            </Node>
          </Node>
          <Node pos="r" depth="2" NCoef="0" IVar="-1" Cut="0" cType="1" res="0.00301305" purity="0.602493" nType="-99"/>
        </Node>
      </Node>
    </BinaryTree>
    <BinaryTree type="DecisionTree" boostWeight="1.0" itree="364">
      <Node pos="s" depth="0" NCoef="0" IVar="4" Cut="334178" cType="1" res="-0.00140414" purity="0.492886" nType="0">
        <Node pos="l" depth="1" NCoef="0" IVar="3" Cut="165736" cType="1" res="-0.00758632" purity="0.49991" nType="0">
          <Node pos="l" depth="2" NCoef="0" IVar="6" Cut="2.22184" cType="1" res="-0.0202539" purity="0.493349" nType="0">
            <Node pos="l" depth="3" NCoef="0" IVar="4" Cut="225839" cType="1" res="-0.00157878" purity="0.53373" nType="0">
              <Node pos="l" depth="4" NCoef="0" IVar="-1" Cut="0" cType="1" res="-0.00104887" purity="0.529886" nType="-99"/>
              <Node pos="r" depth="4" NCoef="0" IVar="-1" Cut="0" cType="1" res="0.00122688" purity="0.539433" nType="-99"/>
            </Node>
            <Node pos="r" depth="3" NCoef="0" IVar="0" Cut="148802" cType="1" res="-0.0598983" purity="0.407626" nType="0">
              <Node pos="l" depth="4" NCoef="0" IVar="-1" Cut="0" cType="1" res="-0.00540741" purity="0.350968" nType="-99"/>
              <Node pos="r" depth="4" NCoef="0" IVar="-1" Cut="0" cType="1" res="-0.00111533" purity="0.495957" nType="-99"/>
            </Node>
          </Node>
          <Node pos="r" depth="2" NCoef="0" IVar="6" Cut="2.22209" cType="1" res="0.00265438" purity="0.505214" nType="0">
            <Node pos="l" depth="3" NCoef="0" IVar="6" Cut="1.95097" cType="1" res="-0.00848172" purity="0.517647" nType="0">
              <Node pos="l" depth="4" NCoef="0" IVar="-1" Cut="0" cType="1" res="0.000104802" purity="0.52779" nType="-99"/>
              <Node pos="r" depth="4" NCoef="0" IVar="-1" Cut="0" cType="1" res="-0.00375485" purity="0.460744" nType="-99"/>
            </Node>
            <Node pos="r" depth="3" NCoef="0" IVar="0" Cut="158524" cType="1" res="0.0214339" purity="0.484247" nType="0">
              <Node pos="l" depth="4" NCoef="0" IVar="-1" Cut="0" cType="1" res="-0.000317837" purity="0.421335" nType="-99"/>
              <Node pos="r" depth="4" NCoef="0" IVar="-1" Cut="0" cType="1" res="0.00294282" purity="0.59698" nType="-99"/>
            </Node>
          </Node>
        </Node>
        <Node pos="r" depth="1" NCoef="0" IVar="2" Cut="-7188.21" cType="1" res="0.0247431" purity="0.463181" nType="0">
          <Node pos="l" depth="2" NCoef="0" IVar="-1" Cut="0" cType="1" res="0.0044345" purity="0.476186" nType="-99"/>
          <Node pos="r" depth="2" NCoef="0" IVar="4" Cut="374642" cType="1" res="0.000626526" purity="0.45824" nType="0">
            <Node pos="l" depth="3" NCoef="0" IVar="-1" Cut="0" cType="1" res="0.00215692" purity="0.520208" nType="-99"/>
            <Node pos="r" depth="3" NCoef="0" IVar="0" Cut="153620" cType="1" res="-0.0274274" purity="0.420014" nType="0">
              <Node pos="l" depth="4" NCoef="0" IVar="-1" Cut="0" cType="1" res="-0.00101771" purity="0.383982" nType="-99"/>
              <Node pos="r" depth="4" NCoef="0" IVar="-1" Cut="0" cType="1" res="-0.00203842" purity="0.459394" nType="-99"/>
            </Node>
          </Node>
        </Node>
      </Node>
    </BinaryTree>
    <BinaryTree type="DecisionTree" boostWeight="1.0" itree="365">
      <Node pos="s" depth="0" NCoef="0" IVar="1" Cut="151461" cType="1" res="-0.0014846" purity="0.49084" nType="0">
        <Node pos="l" depth="1" NCoef="0" IVar="1" Cut="131958" cType="1" res="-0.0109105" purity="0.482569" nType="0">
          <Node pos="l" depth="2" NCoef="0" IVar="1" Cut="92047" cType="1" res="-0.00490129" purity="0.482896" nType="0">
            <Node pos="l" depth="3" NCoef="0" IVar="-1" Cut="0" cType="1" res="-0.00297439" purity="0.416286" nType="-99"/>
            <Node pos="r" depth="3" NCoef="0" IVar="0" Cut="226800" cType="1" res="-0.000415741" purity="0.489352" nType="0">
              <Node pos="l" depth="4" NCoef="0" IVar="-1" Cut="0" cType="1" res="0.000144343" purity="0.485749" nType="-99"/>
              <Node pos="r" depth="4" NCoef="0" IVar="-1" Cut="0" cType="1" res="-0.00257124" purity="0.544237" nType="-99"/>
            </Node>
          </Node>
          <Node pos="r" depth="2" NCoef="0" IVar="6" Cut="1.91623" cType="1" res="-0.0578663" purity="0.480012" nType="0">
            <Node pos="l" depth="3" NCoef="0" IVar="-1" Cut="0" cType="1" res="-0.00482625" purity="0.471672" nType="-99"/>
            <Node pos="r" depth="3" NCoef="0" IVar="-1" Cut="0" cType="1" res="-0.000996002" purity="0.490486" nType="-99"/>
          </Node>
        </Node>
        <Node pos="r" depth="1" NCoef="0" IVar="6" Cut="1.22591" cType="1" res="0.0417184" purity="0.528749" nType="0">
          <Node pos="l" depth="2" NCoef="0" IVar="-1" Cut="0" cType="1" res="0.00329488" purity="0.582477" nType="-99"/>
          <Node pos="r" depth="2" NCoef="0" IVar="6" Cut="2.3003" cType="1" res="0.0139772" purity="0.489224" nType="0">
            <Node pos="l" depth="3" NCoef="0" IVar="-1" Cut="0" cType="1" res="-0.00011023" purity="0.504081" nType="-99"/>
            <Node pos="r" depth="3" NCoef="0" IVar="-1" Cut="0" cType="1" res="0.00175692" purity="0.469434" nType="-99"/>
          </Node>
        </Node>
      </Node>
    </BinaryTree>
    <BinaryTree type="DecisionTree" boostWeight="1.0" itree="366">
      <Node pos="s" depth="0" NCoef="0" IVar="5" Cut="2.45763" cType="1" res="0.016621" purity="0.512175" nType="0">
        <Node pos="l" depth="1" NCoef="0" IVar="4" Cut="343917" cType="1" res="0.0216476" purity="0.522112" nType="0">
          <Node pos="l" depth="2" NCoef="0" IVar="5" Cut="1.74591" cType="1" res="0.0280398" purity="0.536905" nType="0">
            <Node pos="l" depth="3" NCoef="0" IVar="0" Cut="119515" cType="1" res="0.0171331" purity="0.529308" nType="0">
              <Node pos="l" depth="4" NCoef="0" IVar="-1" Cut="0" cType="1" res="-0.000446898" purity="0.452598" nType="-99"/>
              <Node pos="r" depth="4" NCoef="0" IVar="-1" Cut="0" cType="1" res="0.00121688" purity="0.557416" nType="-99"/>
            </Node>
            <Node pos="r" depth="3" NCoef="0" IVar="1" Cut="120447" cType="1" res="0.0605141" purity="0.559525" nType="0">
              <Node pos="l" depth="4" NCoef="0" IVar="-1" Cut="0" cType="1" res="0.00372841" purity="0.563116" nType="-99"/>
              <Node pos="r" depth="4" NCoef="0" IVar="-1" Cut="0" cType="1" res="0.0016755" purity="0.556171" nType="-99"/>
            </Node>
          </Node>
          <Node pos="r" depth="2" NCoef="0" IVar="5" Cut="0.98891" cType="1" res="-0.016606" purity="0.433587" nType="0">
            <Node pos="l" depth="3" NCoef="0" IVar="-1" Cut="0" cType="1" res="0.00213083" purity="0.529658" nType="-99"/>
            <Node pos="r" depth="3" NCoef="0" IVar="-1" Cut="0" cType="1" res="-0.00337453" purity="0.373523" nType="-99"/>
          </Node>
        </Node>
        <Node pos="r" depth="1" NCoef="0" IVar="0" Cut="119504" cType="1" res="-0.0210946" purity="0.437613" nType="0">
          <Node pos="l" depth="2" NCoef="0" IVar="-1" Cut="0" cType="1" res="-0.00495225" purity="0.356389" nType="-99"/>
          <Node pos="r" depth="2" NCoef="0" IVar="-1" Cut="0" cType="1" res="0.000770834" purity="0.493282" nType="-99"/>
        </Node>
      </Node>
    </BinaryTree>
    <BinaryTree type="DecisionTree" boostWeight="1.0" itree="367">
      <Node pos="s" depth="0" NCoef="0" IVar="1" Cut="187313" cType="1" res="0.0108267" purity="0.506801" nType="0">
        <Node pos="l" depth="1" NCoef="0" IVar="1" Cut="92373.9" cType="1" res="0.00638582" purity="0.504644" nType="0">
          <Node pos="l" depth="2" NCoef="0" IVar="-1" Cut="0" cType="1" res="-0.00212392" purity="0.426911" nType="-99"/>
          <Node pos="r" depth="2" NCoef="0" IVar="6" Cut="2.3753" cType="1" res="0.0100612" purity="0.511149" nType="0">
            <Node pos="l" depth="3" NCoef="0" IVar="0" Cut="104879" cType="1" res="-0.000595093" purity="0.523576" nType="0">
              <Node pos="l" depth="4" NCoef="0" IVar="-1" Cut="0" cType="1" res="-0.00269662" purity="0.425023" nType="-99"/>
              <Node pos="r" depth="4" NCoef="0" IVar="-1" Cut="0" cType="1" res="0.000207541" purity="0.533957" nType="-99"/>
            </Node>
            <Node pos="r" depth="3" NCoef="0" IVar="0" Cut="207284" cType="1" res="0.0333776" purity="0.483958" nType="0">
              <Node pos="l" depth="4" NCoef="0" IVar="-1" Cut="0" cType="1" res="0.00117973" purity="0.452824" nType="-99"/>
              <Node pos="r" depth="4" NCoef="0" IVar="-1" Cut="0" cType="1" res="0.00358092" purity="0.657082" nType="-99"/>
            </Node>
          </Node>
        </Node>
        <Node pos="r" depth="1" NCoef="0" IVar="-1" Cut="0" cType="1" res="0.00273607" purity="0.531948" nType="-99"/>
      </Node>
    </BinaryTree>
    <BinaryTree type="DecisionTree" boostWeight="1.0" itree="368">
      <Node pos="s" depth="0" NCoef="0" IVar="2" Cut="-13017.1" cType="1" res="0.0077672" purity="0.502367" nType="0">
        <Node pos="l" depth="1" NCoef="0" IVar="1" Cut="115582" cType="1" res="-0.0291331" purity="0.372221" nType="0">
          <Node pos="l" depth="2" NCoef="0" IVar="-1" Cut="0" cType="1" res="0.000113304" purity="0.401233" nType="-99"/>
          <Node pos="r" depth="2" NCoef="0" IVar="-1" Cut="0" cType="1" res="-0.00462864" purity="0.335922" nType="-99"/>
        </Node>
        <Node pos="r" depth="1" NCoef="0" IVar="0" Cut="182926" cType="1" res="0.0114412" purity="0.515325" nType="0">
          <Node pos="l" depth="2" NCoef="0" IVar="0" Cut="154608" cType="1" res="0.00580829" purity="0.493996" nType="0">
            <Node pos="l" depth="3" NCoef="0" IVar="2" Cut="16790" cType="1" res="0.0144558" purity="0.495477" nType="0">
              <Node pos="l" depth="4" NCoef="0" IVar="-1" Cut="0" cType="1" res="0.00113308" purity="0.476496" nType="-99"/>
              <Node pos="r" depth="4" NCoef="0" IVar="-1" Cut="0" cType="1" res="-0.00109984" purity="0.582245" nType="-99"/>
            </Node>
            <Node pos="r" depth="3" NCoef="0" IVar="2" Cut="2218.98" cType="1" res="-0.0360547" purity="0.486827" nType="0">
              <Node pos="l" depth="4" NCoef="0" IVar="-1" Cut="0" cType="1" res="0.000524123" purity="0.474908" nType="-99"/>
              <Node pos="r" depth="4" NCoef="0" IVar="-1" Cut="0" cType="1" res="-0.00378596" purity="0.496254" nType="-99"/>
            </Node>
          </Node>
          <Node pos="r" depth="2" NCoef="0" IVar="6" Cut="1.22611" cType="1" res="0.0340607" purity="0.600971" nType="0">
            <Node pos="l" depth="3" NCoef="0" IVar="-1" Cut="0" cType="1" res="0.00343456" purity="0.626396" nType="-99"/>
            <Node pos="r" depth="3" NCoef="0" IVar="4" Cut="188373" cType="1" res="0.0157654" purity="0.59219" nType="0">
              <Node pos="l" depth="4" NCoef="0" IVar="-1" Cut="0" cType="1" res="0.00282649" purity="0.683747" nType="-99"/>
              <Node pos="r" depth="4" NCoef="0" IVar="-1" Cut="0" cType="1" res="-0.000541807" purity="0.544028" nType="-99"/>
            </Node>
          </Node>
        </Node>
      </Node>
    </BinaryTree>
    <BinaryTree type="DecisionTree" boostWeight="1.0" itree="369">
      <Node pos="s" depth="0" NCoef="0" IVar="3" Cut="194649" cType="1" res="0.00376473" purity="0.498919" nType="0">
        <Node pos="l" depth="1" NCoef="0" IVar="0" Cut="124391" cType="1" res="0.00994948" purity="0.507784" nType="0">
          <Node pos="l" depth="2" NCoef="0" IVar="4" Cut="178333" cType="1" res="0.0235871" purity="0.48106" nType="0">
            <Node pos="l" depth="3" NCoef="0" IVar="-1" Cut="0" cType="1" res="-0.00113398" purity="0.489411" nType="-99"/>
            <Node pos="r" depth="3" NCoef="0" IVar="6" Cut="2.52857" cType="1" res="0.0361448" purity="0.478782" nType="0">
              <Node pos="l" depth="4" NCoef="0" IVar="-1" Cut="0" cType="1" res="0.00230749" purity="0.512243" nType="-99"/>
              <Node pos="r" depth="4" NCoef="0" IVar="-1" Cut="0" cType="1" res="-0.000507209" purity="0.365579" nType="-99"/>
            </Node>
          </Node>
          <Node pos="r" depth="2" NCoef="0" IVar="0" Cut="158658" cType="1" res="0.000307162" purity="0.526678" nType="0">
            <Node pos="l" depth="3" NCoef="0" IVar="0" Cut="145277" cType="1" res="-0.0207883" purity="0.48051" nType="0">
              <Node pos="l" depth="4" NCoef="0" IVar="-1" Cut="0" cType="1" res="-0.000163044" purity="0.495958" nType="-99"/>
              <Node pos="r" depth="4" NCoef="0" IVar="-1" Cut="0" cType="1" res="-0.00358794" purity="0.441752" nType="-99"/>
            </Node>
            <Node pos="r" depth="3" NCoef="0" IVar="3" Cut="175074" cType="1" res="0.0214218" purity="0.572889" nType="0">
              <Node pos="l" depth="4" NCoef="0" IVar="-1" Cut="0" cType="1" res="0.00170757" purity="0.592999" nType="-99"/>
              <Node pos="r" depth="4" NCoef="0" IVar="-1" Cut="0" cType="1" res="-0.0015452" purity="0.51196" nType="-99"/>
            </Node>
          </Node>
        </Node>
        <Node pos="r" depth="1" NCoef="0" IVar="3" Cut="207432" cType="1" res="-0.0249268" purity="0.457798" nType="0">
          <Node pos="l" depth="2" NCoef="0" IVar="-1" Cut="0" cType="1" res="-0.00475229" purity="0.407277" nType="-99"/>
          <Node pos="r" depth="2" NCoef="0" IVar="1" Cut="120628" cType="1" res="0.00918041" purity="0.488308" nType="0">
            <Node pos="l" depth="3" NCoef="0" IVar="-1" Cut="0" cType="1" res="-0.00195262" purity="0.426631" nType="-99"/>
            <Node pos="r" depth="3" NCoef="0" IVar="-1" Cut="0" cType="1" res="0.00274214" purity="0.563181" nType="-99"/>
          </Node>
        </Node>
      </Node>
    </BinaryTree>
    <BinaryTree type="DecisionTree" boostWeight="1.0" itree="370">
      <Node pos="s" depth="0" NCoef="0" IVar="5" Cut="1.7762" cType="1" res="0.00673118" purity="0.502929" nType="0">
        <Node pos="l" depth="1" NCoef="0" IVar="3" Cut="136327" cType="1" res="-0.00367463" purity="0.501778" nType="0">
          <Node pos="l" depth="2" NCoef="0" IVar="3" Cut="119658" cType="1" res="-0.0532768" purity="0.44932" nType="0">
            <Node pos="l" depth="3" NCoef="0" IVar="-1" Cut="0" cType="1" res="-0.000615332" purity="0.492638" nType="-99"/>
            <Node pos="r" depth="3" NCoef="0" IVar="-1" Cut="0" cType="1" res="-0.00581629" purity="0.401486" nType="-99"/>
          </Node>
          <Node pos="r" depth="2" NCoef="0" IVar="1" Cut="130928" cType="1" res="0.00433174" purity="0.510245" nType="0">
            <Node pos="l" depth="3" NCoef="0" IVar="5" Cut="1.56326" cType="1" res="-0.00302964" purity="0.490984" nType="0">
              <Node pos="l" depth="4" NCoef="0" IVar="-1" Cut="0" cType="1" res="0.000245171" purity="0.50165" nType="-99"/>
              <Node pos="r" depth="4" NCoef="0" IVar="-1" Cut="0" cType="1" res="-0.00438599" purity="0.395626" nType="-99"/>
            </Node>
            <Node pos="r" depth="3" NCoef="0" IVar="-1" Cut="0" cType="1" res="0.00199395" purity="0.621975" nType="-99"/>
          </Node>
        </Node>
        <Node pos="r" depth="1" NCoef="0" IVar="3" Cut="137770" cType="1" res="0.0276111" purity="0.505239" nType="0">
          <Node pos="l" depth="2" NCoef="0" IVar="-1" Cut="0" cType="1" res="0.00303064" purity="0.557414" nType="-99"/>
          <Node pos="r" depth="2" NCoef="0" IVar="5" Cut="2.1093" cType="1" res="0.0162584" purity="0.491524" nType="0">
            <Node pos="l" depth="3" NCoef="0" IVar="-1" Cut="0" cType="1" res="0.00232579" purity="0.544602" nType="-99"/>
            <Node pos="r" depth="3" NCoef="0" IVar="0" Cut="138891" cType="1" res="-0.00501003" purity="0.458142" nType="0">
              <Node pos="l" depth="4" NCoef="0" IVar="-1" Cut="0" cType="1" res="0.000495641" purity="0.460393" nType="-99"/>
              <Node pos="r" depth="4" NCoef="0" IVar="-1" Cut="0" cType="1" res="-0.00217989" purity="0.452559" nType="-99"/>
            </Node>
          </Node>
        </Node>
      </Node>
    </BinaryTree>
    <BinaryTree type="DecisionTree" boostWeight="1.0" itree="371">
      <Node pos="s" depth="0" NCoef="0" IVar="4" Cut="285384" cType="1" res="0.00673073" purity="0.500361" nType="0">
        <Node pos="l" depth="1" NCoef="0" IVar="6" Cut="2.29875" cType="1" res="-0.00246162" purity="0.510305" nType="0">
          <Node pos="l" depth="2" NCoef="0" IVar="2" Cut="-2720.53" cType="1" res="0.00641114" purity="0.540653" nType="0">
            <Node pos="l" depth="3" NCoef="0" IVar="-1" Cut="0" cType="1" res="0.00311559" purity="0.497195" nType="-99"/>
            <Node pos="r" depth="3" NCoef="0" IVar="4" Cut="217570" cType="1" res="-0.00197769" purity="0.546858" nType="0">
              <Node pos="l" depth="4" NCoef="0" IVar="-1" Cut="0" cType="1" res="0.000445932" purity="0.570255" nType="-99"/>
              <Node pos="r" depth="4" NCoef="0" IVar="-1" Cut="0" cType="1" res="-0.0013913" purity="0.494584" nType="-99"/>
            </Node>
          </Node>
          <Node pos="r" depth="2" NCoef="0" IVar="1" Cut="104221" cType="1" res="-0.0227588" purity="0.440883" nType="0">
            <Node pos="l" depth="3" NCoef="0" IVar="2" Cut="-6851.32" cType="1" res="0.0115279" purity="0.455373" nType="0">
              <Node pos="l" depth="4" NCoef="0" IVar="-1" Cut="0" cType="1" res="0.00288482" purity="0.48138" nType="-99"/>
              <Node pos="r" depth="4" NCoef="0" IVar="-1" Cut="0" cType="1" res="-0.000937997" purity="0.439678" nType="-99"/>
            </Node>
            <Node pos="r" depth="3" NCoef="0" IVar="4" Cut="231788" cType="1" res="-0.0604702" purity="0.424945" nType="0">
              <Node pos="l" depth="4" NCoef="0" IVar="-1" Cut="0" cType="1" res="-0.00638413" purity="0.398784" nType="-99"/>
              <Node pos="r" depth="4" NCoef="0" IVar="-1" Cut="0" cType="1" res="0.000206715" purity="0.462997" nType="-99"/>
            </Node>
          </Node>
        </Node>
        <Node pos="r" depth="1" NCoef="0" IVar="2" Cut="7635.65" cType="1" res="0.0271425" purity="0.478278" nType="0">
          <Node pos="l" depth="2" NCoef="0" IVar="2" Cut="1831.2" cType="1" res="0.0466835" purity="0.466634" nType="0">
            <Node pos="l" depth="3" NCoef="0" IVar="5" Cut="2.17734" cType="1" res="0.0162578" purity="0.42391" nType="0">
              <Node pos="l" depth="4" NCoef="0" IVar="-1" Cut="0" cType="1" res="0.00208954" purity="0.457326" nType="-99"/>
              <Node pos="r" depth="4" NCoef="0" IVar="-1" Cut="0" cType="1" res="-0.00349471" purity="0.332829" nType="-99"/>
            </Node>
            <Node pos="r" depth="3" NCoef="0" IVar="-1" Cut="0" cType="1" res="0.00485867" purity="0.566016" nType="-99"/>
          </Node>
          <Node pos="r" depth="2" NCoef="0" IVar="0" Cut="139016" cType="1" res="-0.0168874" purity="0.504514" nType="0">
            <Node pos="l" depth="3" NCoef="0" IVar="-1" Cut="0" cType="1" res="0.0011062" purity="0.515639" nType="-99"/>
            <Node pos="r" depth="3" NCoef="0" IVar="-1" Cut="0" cType="1" res="-0.00291431" purity="0.49336" nType="-99"/>
          </Node>
        </Node>
      </Node>
    </BinaryTree>
    <BinaryTree type="DecisionTree" boostWeight="1.0" itree="372">
      <Node pos="s" depth="0" NCoef="0" IVar="0" Cut="163416" cType="1" res="0.00798947" purity="0.503626" nType="0">
        <Node pos="l" depth="1" NCoef="0" IVar="4" Cut="343921" cType="1" res="0.00012301" purity="0.475406" nType="0">
          <Node pos="l" depth="2" NCoef="0" IVar="4" Cut="284404" cType="1" res="0.00924231" purity="0.496836" nType="0">
            <Node pos="l" depth="3" NCoef="0" IVar="0" Cut="107741" cType="1" res="-0.00190752" purity="0.495018" nType="0">
              <Node pos="l" depth="4" NCoef="0" IVar="-1" Cut="0" cType="1" res="0.00143388" purity="0.502615" nType="-99"/>
              <Node pos="r" depth="4" NCoef="0" IVar="-1" Cut="0" cType="1" res="-0.000564484" purity="0.492748" nType="-99"/>
            </Node>
            <Node pos="r" depth="3" NCoef="0" IVar="3" Cut="172056" cType="1" res="0.0626815" purity="0.505545" nType="0">
              <Node pos="l" depth="4" NCoef="0" IVar="-1" Cut="0" cType="1" res="0.00414415" purity="0.5442" nType="-99"/>
              <Node pos="r" depth="4" NCoef="0" IVar="-1" Cut="0" cType="1" res="0.00110144" purity="0.455639" nType="-99"/>
            </Node>
          </Node>
          <Node pos="r" depth="2" NCoef="0" IVar="3" Cut="171350" cType="1" res="-0.0597379" purity="0.334742" nType="0">
            <Node pos="l" depth="3" NCoef="0" IVar="-1" Cut="0" cType="1" res="-0.00709462" purity="0.296203" nType="-99"/>
            <Node pos="r" depth="3" NCoef="0" IVar="-1" Cut="0" cType="1" res="-0.00151355" purity="0.369864" nType="-99"/>
          </Node>
        </Node>
        <Node pos="r" depth="1" NCoef="0" IVar="4" Cut="324382" cType="1" res="0.0286593" purity="0.577775" nType="0">
          <Node pos="l" depth="2" NCoef="0" IVar="1" Cut="125039" cType="1" res="0.0123006" purity="0.575854" nType="0">
            <Node pos="l" depth="3" NCoef="0" IVar="1" Cut="98544.7" cType="1" res="0.0342472" purity="0.585416" nType="0">
              <Node pos="l" depth="4" NCoef="0" IVar="-1" Cut="0" cType="1" res="-0.000976265" purity="0.481393" nType="-99"/>
              <Node pos="r" depth="4" NCoef="0" IVar="-1" Cut="0" cType="1" res="0.00272908" purity="0.647817" nType="-99"/>
            </Node>
            <Node pos="r" depth="3" NCoef="0" IVar="-1" Cut="0" cType="1" res="-0.00234145" purity="0.550095" nType="-99"/>
          </Node>
          <Node pos="r" depth="2" NCoef="0" IVar="1" Cut="120749" cType="1" res="0.0684473" purity="0.582447" nType="0">
            <Node pos="l" depth="3" NCoef="0" IVar="-1" Cut="0" cType="1" res="0.00241042" purity="0.553934" nType="-99"/>
            <Node pos="r" depth="3" NCoef="0" IVar="-1" Cut="0" cType="1" res="0.00316097" purity="0.610386" nType="-99"/>
          </Node>
        </Node>
      </Node>
    </BinaryTree>
    <BinaryTree type="DecisionTree" boostWeight="1.0" itree="373">
      <Node pos="s" depth="0" NCoef="0" IVar="6" Cut="0.689646" cType="1" res="0.00849172" purity="0.504554" nType="0">
        <Node pos="l" depth="1" NCoef="0" IVar="6" Cut="0.353158" cType="1" res="-0.0301486" purity="0.448101" nType="0">
          <Node pos="l" depth="2" NCoef="0" IVar="-1" Cut="0" cType="1" res="0.000115788" purity="0.483681" nType="-99"/>
          <Node pos="r" depth="2" NCoef="0" IVar="-1" Cut="0" cType="1" res="-0.00396287" purity="0.405734" nType="-99"/>
        </Node>
        <Node pos="r" depth="1" NCoef="0" IVar="6" Cut="2.84253" cType="1" res="0.0153706" purity="0.514604" nType="0">
          <Node pos="l" depth="2" NCoef="0" IVar="1" Cut="95106.2" cType="1" res="0.0208084" purity="0.531335" nType="0">
            <Node pos="l" depth="3" NCoef="0" IVar="5" Cut="1.17139" cType="1" res="0.0601485" purity="0.535486" nType="0">
              <Node pos="l" depth="4" NCoef="0" IVar="-1" Cut="0" cType="1" res="0.003797" purity="0.577609" nType="-99"/>
              <Node pos="r" depth="4" NCoef="0" IVar="-1" Cut="0" cType="1" res="0.00081238" purity="0.469527" nType="-99"/>
            </Node>
            <Node pos="r" depth="3" NCoef="0" IVar="6" Cut="2.31742" cType="1" res="0.0127791" purity="0.530488" nType="0">
              <Node pos="l" depth="4" NCoef="0" IVar="-1" Cut="0" cType="1" res="0.00107945" purity="0.561252" nType="-99"/>
              <Node pos="r" depth="4" NCoef="0" IVar="-1" Cut="0" cType="1" res="-0.00089164" purity="0.446089" nType="-99"/>
            </Node>
          </Node>
          <Node pos="r" depth="2" NCoef="0" IVar="0" Cut="143886" cType="1" res="-0.0236584" purity="0.394524" nType="0">
            <Node pos="l" depth="3" NCoef="0" IVar="-1" Cut="0" cType="1" res="-0.00423319" purity="0.312948" nType="-99"/>
            <Node pos="r" depth="3" NCoef="0" IVar="-1" Cut="0" cType="1" res="0.000964598" purity="0.494592" nType="-99"/>
          </Node>
        </Node>
      </Node>
    </BinaryTree>
    <BinaryTree type="DecisionTree" boostWeight="1.0" itree="374">
      <Node pos="s" depth="0" NCoef="0" IVar="2" Cut="4018.91" cType="1" res="0.00857139" purity="0.500522" nType="0">
        <Node pos="l" depth="1" NCoef="0" IVar="6" Cut="1.37924" cType="1" res="0.022589" purity="0.458106" nType="0">
          <Node pos="l" depth="2" NCoef="0" IVar="1" Cut="105340" cType="1" res="-0.024823" purity="0.391834" nType="0">
            <Node pos="l" depth="3" NCoef="0" IVar="-1" Cut="0" cType="1" res="-0.00297256" purity="0.344654" nType="-99"/>
            <Node pos="r" depth="3" NCoef="0" IVar="-1" Cut="0" cType="1" res="-0.000267805" purity="0.4365" nType="-99"/>
          </Node>
          <Node pos="r" depth="2" NCoef="0" IVar="5" Cut="2.0981" cType="1" res="0.0321595" purity="0.471484" nType="0">
            <Node pos="l" depth="3" NCoef="0" IVar="5" Cut="0.996457" cType="1" res="0.0205783" purity="0.467019" nType="0">
              <Node pos="l" depth="4" NCoef="0" IVar="-1" Cut="0" cType="1" res="0.003102" purity="0.532478" nType="-99"/>
              <Node pos="r" depth="4" NCoef="0" IVar="-1" Cut="0" cType="1" res="0.000157183" purity="0.443867" nType="-99"/>
            </Node>
            <Node pos="r" depth="3" NCoef="0" IVar="5" Cut="2.55579" cType="1" res="0.0702551" purity="0.48617" nType="0">
              <Node pos="l" depth="4" NCoef="0" IVar="-1" Cut="0" cType="1" res="0.00505964" purity="0.539329" nType="-99"/>
              <Node pos="r" depth="4" NCoef="0" IVar="-1" Cut="0" cType="1" res="0.00118067" purity="0.420525" nType="-99"/>
            </Node>
          </Node>
        </Node>
        <Node pos="r" depth="1" NCoef="0" IVar="6" Cut="1.78955" cType="1" res="-0.00652122" purity="0.546192" nType="0">
          <Node pos="l" depth="2" NCoef="0" IVar="4" Cut="353782" cType="1" res="0.00613943" purity="0.552072" nType="0">
            <Node pos="l" depth="3" NCoef="0" IVar="0" Cut="139023" cType="1" res="-0.00223438" purity="0.55328" nType="0">
              <Node pos="l" depth="4" NCoef="0" IVar="-1" Cut="0" cType="1" res="0.000686956" purity="0.555481" nType="-99"/>
              <Node pos="r" depth="4" NCoef="0" IVar="-1" Cut="0" cType="1" res="-0.00175128" purity="0.548943" nType="-99"/>
            </Node>
            <Node pos="r" depth="3" NCoef="0" IVar="-1" Cut="0" cType="1" res="0.002495" purity="0.545055" nType="-99"/>
          </Node>
          <Node pos="r" depth="2" NCoef="0" IVar="3" Cut="171946" cType="1" res="-0.0381784" purity="0.531487" nType="0">
            <Node pos="l" depth="3" NCoef="0" IVar="-1" Cut="0" cType="1" res="-0.000562824" purity="0.562668" nType="-99"/>
            <Node pos="r" depth="3" NCoef="0" IVar="-1" Cut="0" cType="1" res="-0.0037442" purity="0.490116" nType="-99"/>
          </Node>
        </Node>
      </Node>
    </BinaryTree>
    <BinaryTree type="DecisionTree" boostWeight="1.0" itree="375">
      <Node pos="s" depth="0" NCoef="0" IVar="6" Cut="0.536481" cType="1" res="0.00849184" purity="0.50409" nType="0">
        <Node pos="l" depth="1" NCoef="0" IVar="3" Cut="167764" cType="1" res="-0.0278807" purity="0.451673" nType="0">
          <Node pos="l" depth="2" NCoef="0" IVar="-1" Cut="0" cType="1" res="0.000119471" purity="0.486799" nType="-99"/>
          <Node pos="r" depth="2" NCoef="0" IVar="-1" Cut="0" cType="1" res="-0.00347382" purity="0.407741" nType="-99"/>
        </Node>
        <Node pos="r" depth="1" NCoef="0" IVar="2" Cut="-19788.1" cType="1" res="0.0132373" purity="0.510928" nType="0">
          <Node pos="l" depth="2" NCoef="0" IVar="-1" Cut="0" cType="1" res="0.00307229" purity="0.466829" nType="-99"/>
          <Node pos="r" depth="2" NCoef="0" IVar="6" Cut="2.95096" cType="1" res="0.0104613" purity="0.513547" nType="0">
            <Node pos="l" depth="3" NCoef="0" IVar="3" Cut="153837" cType="1" res="0.0139789" purity="0.521662" nType="0">
              <Node pos="l" depth="4" NCoef="0" IVar="-1" Cut="0" cType="1" res="0.00146918" purity="0.539124" nType="-99"/>
              <Node pos="r" depth="4" NCoef="0" IVar="-1" Cut="0" cType="1" res="0.00028837" purity="0.513956" nType="-99"/>
            </Node>
            <Node pos="r" depth="3" NCoef="0" IVar="-1" Cut="0" cType="1" res="-0.00241532" purity="0.391618" nType="-99"/>
          </Node>
        </Node>
      </Node>
    </BinaryTree>
    <BinaryTree type="DecisionTree" boostWeight="1.0" itree="376">
      <Node pos="s" depth="0" NCoef="0" IVar="0" Cut="168294" cType="1" res="0.00706589" purity="0.50133" nType="0">
        <Node pos="l" depth="1" NCoef="0" IVar="2" Cut="17328.7" cType="1" res="0.0148652" purity="0.490445" nType="0">
          <Node pos="l" depth="2" NCoef="0" IVar="6" Cut="0.459765" cType="1" res="0.0244217" purity="0.474785" nType="0">
            <Node pos="l" depth="3" NCoef="0" IVar="-1" Cut="0" cType="1" res="0.0037344" purity="0.5268" nType="-99"/>
            <Node pos="r" depth="3" NCoef="0" IVar="3" Cut="178058" cType="1" res="0.0173875" purity="0.468252" nType="0">
              <Node pos="l" depth="4" NCoef="0" IVar="-1" Cut="0" cType="1" res="0.00147246" purity="0.484962" nType="-99"/>
              <Node pos="r" depth="4" NCoef="0" IVar="-1" Cut="0" cType="1" res="-0.000270909" purity="0.437292" nType="-99"/>
            </Node>
          </Node>
          <Node pos="r" depth="2" NCoef="0" IVar="5" Cut="1.08055" cType="1" res="-0.0388561" purity="0.578478" nType="0">
            <Node pos="l" depth="3" NCoef="0" IVar="-1" Cut="0" cType="1" res="0.000435458" purity="0.636897" nType="-99"/>
            <Node pos="r" depth="3" NCoef="0" IVar="-1" Cut="0" cType="1" res="-0.00395439" purity="0.530065" nType="-99"/>
          </Node>
        </Node>
        <Node pos="r" depth="1" NCoef="0" IVar="4" Cut="197769" cType="1" res="-0.019175" purity="0.537952" nType="0">
          <Node pos="l" depth="2" NCoef="0" IVar="4" Cut="164440" cType="1" res="0.0380788" purity="0.625183" nType="0">
            <Node pos="l" depth="3" NCoef="0" IVar="-1" Cut="0" cType="1" res="0.00361226" purity="0.688894" nType="-99"/>
            <Node pos="r" depth="3" NCoef="0" IVar="-1" Cut="0" cType="1" res="-0.000539179" purity="0.564079" nType="-99"/>
          </Node>
          <Node pos="r" depth="2" NCoef="0" IVar="2" Cut="-184.781" cType="1" res="-0.0525296" purity="0.487134" nType="0">
            <Node pos="l" depth="3" NCoef="0" IVar="-1" Cut="0" cType="1" res="-0.00530497" purity="0.406755" nType="-99"/>
            <Node pos="r" depth="3" NCoef="0" IVar="5" Cut="1.0307" cType="1" res="-0.0344136" purity="0.52206" nType="0">
              <Node pos="l" depth="4" NCoef="0" IVar="-1" Cut="0" cType="1" res="7.79988e-06" purity="0.564411" nType="-99"/>
              <Node pos="r" depth="4" NCoef="0" IVar="-1" Cut="0" cType="1" res="-0.00312067" purity="0.489541" nType="-99"/>
            </Node>
          </Node>
        </Node>
      </Node>
    </BinaryTree>
    <BinaryTree type="DecisionTree" boostWeight="1.0" itree="377">
      <Node pos="s" depth="0" NCoef="0" IVar="0" Cut="104880" cType="1" res="0.0041615" purity="0.500524" nType="0">
        <Node pos="l" depth="1" NCoef="0" IVar="-1" Cut="0" cType="1" res="-0.00297976" purity="0.392242" nType="-99"/>
        <Node pos="r" depth="1" NCoef="0" IVar="6" Cut="1.53252" cType="1" res="0.00922749" purity="0.510643" nType="0">
          <Node pos="l" depth="2" NCoef="0" IVar="5" Cut="1.01401" cType="1" res="-0.00810961" purity="0.502758" nType="0">
            <Node pos="l" depth="3" NCoef="0" IVar="4" Cut="208044" cType="1" res="0.0352266" purity="0.545133" nType="0">
              <Node pos="l" depth="4" NCoef="0" IVar="-1" Cut="0" cType="1" res="0.000619045" purity="0.536971" nType="-99"/>
              <Node pos="r" depth="4" NCoef="0" IVar="-1" Cut="0" cType="1" res="0.00250433" purity="0.553932" nType="-99"/>
            </Node>
            <Node pos="r" depth="3" NCoef="0" IVar="3" Cut="154076" cType="1" res="-0.0229568" purity="0.48824" nType="0">
              <Node pos="l" depth="4" NCoef="0" IVar="-1" Cut="0" cType="1" res="0.000278368" purity="0.51514" nType="-99"/>
              <Node pos="r" depth="4" NCoef="0" IVar="-1" Cut="0" cType="1" res="-0.00192218" purity="0.474748" nType="-99"/>
            </Node>
          </Node>
          <Node pos="r" depth="2" NCoef="0" IVar="1" Cut="171796" cType="1" res="0.0194693" purity="0.515302" nType="0">
            <Node pos="l" depth="3" NCoef="0" IVar="6" Cut="2.74913" cType="1" res="0.0137204" purity="0.511302" nType="0">
              <Node pos="l" depth="4" NCoef="0" IVar="-1" Cut="0" cType="1" res="0.00116981" purity="0.543234" nType="-99"/>
              <Node pos="r" depth="4" NCoef="0" IVar="-1" Cut="0" cType="1" res="-0.00137052" purity="0.404859" nType="-99"/>
            </Node>
            <Node pos="r" depth="3" NCoef="0" IVar="-1" Cut="0" cType="1" res="0.00324961" purity="0.55257" nType="-99"/>
          </Node>
        </Node>
      </Node>
    </BinaryTree>
    <BinaryTree type="DecisionTree" boostWeight="1.0" itree="378">
      <Node pos="s" depth="0" NCoef="0" IVar="4" Cut="148813" cType="1" res="0.00176289" purity="0.498" nType="0">
        <Node pos="l" depth="1" NCoef="0" IVar="-1" Cut="0" cType="1" res="-0.00365402" purity="0.487313" nType="-99"/>
        <Node pos="r" depth="1" NCoef="0" IVar="5" Cut="2.00487" cType="1" res="0.00636929" purity="0.498706" nType="0">
          <Node pos="l" depth="2" NCoef="0" IVar="2" Cut="24545.7" cType="1" res="-0.00309558" purity="0.498037" nType="0">
            <Node pos="l" depth="3" NCoef="0" IVar="4" Cut="165951" cType="1" res="-0.00907922" purity="0.47272" nType="0">
              <Node pos="l" depth="4" NCoef="0" IVar="-1" Cut="0" cType="1" res="-0.00364386" purity="0.446447" nType="-99"/>
              <Node pos="r" depth="4" NCoef="0" IVar="-1" Cut="0" cType="1" res="-0.000167759" purity="0.475318" nType="-99"/>
            </Node>
            <Node pos="r" depth="3" NCoef="0" IVar="-1" Cut="0" cType="1" res="0.00201646" purity="0.717825" nType="-99"/>
          </Node>
          <Node pos="r" depth="2" NCoef="0" IVar="1" Cut="131041" cType="1" res="0.0333404" purity="0.500613" nType="0">
            <Node pos="l" depth="3" NCoef="0" IVar="-1" Cut="0" cType="1" res="0.00328423" purity="0.534736" nType="-99"/>
            <Node pos="r" depth="3" NCoef="0" IVar="6" Cut="2.06503" cType="1" res="0.0113844" purity="0.47938" nType="0">
              <Node pos="l" depth="4" NCoef="0" IVar="-1" Cut="0" cType="1" res="0.00153465" purity="0.522922" nType="-99"/>
              <Node pos="r" depth="4" NCoef="0" IVar="-1" Cut="0" cType="1" res="-0.00290504" purity="0.359813" nType="-99"/>
            </Node>
          </Node>
        </Node>
      </Node>
    </BinaryTree>
    <BinaryTree type="DecisionTree" boostWeight="1.0" itree="379">
      <Node pos="s" depth="0" NCoef="0" IVar="6" Cut="0.68964" cType="1" res="0.00400197" purity="0.499655" nType="0">
        <Node pos="l" depth="1" NCoef="0" IVar="4" Cut="314984" cType="1" res="-0.0272442" purity="0.452297" nType="0">
          <Node pos="l" depth="2" NCoef="0" IVar="2" Cut="10048.9" cType="1" res="-0.0585655" purity="0.432252" nType="0">
            <Node pos="l" depth="3" NCoef="0" IVar="-1" Cut="0" cType="1" res="-0.00776188" purity="0.324093" nType="-99"/>
            <Node pos="r" depth="3" NCoef="0" IVar="-1" Cut="0" cType="1" res="-0.000513197" purity="0.526077" nType="-99"/>
          </Node>
          <Node pos="r" depth="2" NCoef="0" IVar="-1" Cut="0" cType="1" res="0.00269051" purity="0.507197" nType="-99"/>
        </Node>
        <Node pos="r" depth="1" NCoef="0" IVar="6" Cut="1.16808" cType="1" res="0.0095394" purity="0.508048" nType="0">
          <Node pos="l" depth="2" NCoef="0" IVar="4" Cut="216993" cType="1" res="0.0385242" purity="0.552275" nType="0">
            <Node pos="l" depth="3" NCoef="0" IVar="-1" Cut="0" cType="1" res="-0.000675099" purity="0.520754" nType="-99"/>
            <Node pos="r" depth="3" NCoef="0" IVar="-1" Cut="0" cType="1" res="0.0033907" purity="0.576905" nType="-99"/>
          </Node>
          <Node pos="r" depth="2" NCoef="0" IVar="6" Cut="1.55318" cType="1" res="0.00435304" purity="0.500134" nType="0">
            <Node pos="l" depth="3" NCoef="0" IVar="3" Cut="165752" cType="1" res="-0.0391129" purity="0.488757" nType="0">
              <Node pos="l" depth="4" NCoef="0" IVar="-1" Cut="0" cType="1" res="-0.00424437" purity="0.4521" nType="-99"/>
              <Node pos="r" depth="4" NCoef="0" IVar="-1" Cut="0" cType="1" res="-0.000299941" purity="0.517114" nType="-99"/>
            </Node>
            <Node pos="r" depth="3" NCoef="0" IVar="6" Cut="2.01812" cType="1" res="0.0118506" purity="0.502096" nType="0">
              <Node pos="l" depth="4" NCoef="0" IVar="-1" Cut="0" cType="1" res="0.00147317" purity="0.581863" nType="-99"/>
              <Node pos="r" depth="4" NCoef="0" IVar="-1" Cut="0" cType="1" res="0.000192751" purity="0.471034" nType="-99"/>
            </Node>
          </Node>
        </Node>
      </Node>
    </BinaryTree>
    <BinaryTree type="DecisionTree" boostWeight="1.0" itree="380">
      <Node pos="s" depth="0" NCoef="0" IVar="6" Cut="1.45588" cType="1" res="0.000688058" purity="0.497084" nType="0">
        <Node pos="l" depth="1" NCoef="0" IVar="0" Cut="109757" cType="1" res="-0.0219817" purity="0.48371" nType="0">
          <Node pos="l" depth="2" NCoef="0" IVar="-1" Cut="0" cType="1" res="-0.00543077" purity="0.379565" nType="-99"/>
          <Node pos="r" depth="2" NCoef="0" IVar="6" Cut="0.781184" cType="1" res="-0.00634846" purity="0.508517" nType="0">
            <Node pos="l" depth="3" NCoef="0" IVar="3" Cut="161229" cType="1" res="0.0295696" purity="0.522424" nType="0">
              <Node pos="l" depth="4" NCoef="0" IVar="-1" Cut="0" cType="1" res="0.00272398" purity="0.559538" nType="-99"/>
              <Node pos="r" depth="4" NCoef="0" IVar="-1" Cut="0" cType="1" res="2.80457e-05" purity="0.492497" nType="-99"/>
            </Node>
            <Node pos="r" depth="3" NCoef="0" IVar="2" Cut="10818.1" cType="1" res="-0.0471565" purity="0.492716" nType="0">
              <Node pos="l" depth="4" NCoef="0" IVar="-1" Cut="0" cType="1" res="-0.00458045" purity="0.38222" nType="-99"/>
              <Node pos="r" depth="4" NCoef="0" IVar="-1" Cut="0" cType="1" res="-0.000920929" purity="0.598598" nType="-99"/>
            </Node>
          </Node>
        </Node>
        <Node pos="r" depth="1" NCoef="0" IVar="4" Cut="314778" cType="1" res="0.0129631" purity="0.504325" nType="0">
          <Node pos="l" depth="2" NCoef="0" IVar="6" Cut="2.81268" cType="1" res="0.0216923" purity="0.529928" nType="0">
            <Node pos="l" depth="3" NCoef="0" IVar="6" Cut="2.68022" cType="1" res="0.0300536" purity="0.555375" nType="0">
              <Node pos="l" depth="4" NCoef="0" IVar="-1" Cut="0" cType="1" res="0.00103278" purity="0.555743" nType="-99"/>
              <Node pos="r" depth="4" NCoef="0" IVar="-1" Cut="0" cType="1" res="0.00416392" purity="0.552314" nType="-99"/>
            </Node>
            <Node pos="r" depth="3" NCoef="0" IVar="1" Cut="106492" cType="1" res="-0.0185915" purity="0.407328" nType="0">
              <Node pos="l" depth="4" NCoef="0" IVar="-1" Cut="0" cType="1" res="-0.00199306" purity="0.383707" nType="-99"/>
              <Node pos="r" depth="4" NCoef="0" IVar="-1" Cut="0" cType="1" res="-0.000108462" purity="0.434546" nType="-99"/>
            </Node>
          </Node>
          <Node pos="r" depth="2" NCoef="0" IVar="4" Cut="423174" cType="1" res="-0.0184825" purity="0.412096" nType="0">
            <Node pos="l" depth="3" NCoef="0" IVar="3" Cut="166036" cType="1" res="-0.0458142" purity="0.391289" nType="0">
              <Node pos="l" depth="4" NCoef="0" IVar="-1" Cut="0" cType="1" res="-0.000113016" purity="0.438446" nType="-99"/>
              <Node pos="r" depth="4" NCoef="0" IVar="-1" Cut="0" cType="1" res="-0.00515126" purity="0.35326" nType="-99"/>
            </Node>
            <Node pos="r" depth="3" NCoef="0" IVar="-1" Cut="0" cType="1" res="0.00253211" purity="0.463794" nType="-99"/>
          </Node>
        </Node>
      </Node>
    </BinaryTree>
    <BinaryTree type="DecisionTree" boostWeight="1.0" itree="381">
      <Node pos="s" depth="0" NCoef="0" IVar="6" Cut="2.6052" cType="1" res="0.00511274" purity="0.500504" nType="0">
        <Node pos="l" depth="1" NCoef="0" IVar="4" Cut="412290" cType="1" res="-0.00411796" purity="0.507727" nType="0">
          <Node pos="l" depth="2" NCoef="0" IVar="5" Cut="2.75977" cType="1" res="-0.000902043" purity="0.516439" nType="0">
            <Node pos="l" depth="3" NCoef="0" IVar="2" Cut="7262.67" cType="1" res="-0.00545993" purity="0.515973" nType="0">
              <Node pos="l" depth="4" NCoef="0" IVar="-1" Cut="0" cType="1" res="-0.00121424" purity="0.431748" nType="-99"/>
              <Node pos="r" depth="4" NCoef="0" IVar="-1" Cut="0" cType="1" res="0.000496116" purity="0.595981" nType="-99"/>
            </Node>
            <Node pos="r" depth="3" NCoef="0" IVar="-1" Cut="0" cType="1" res="0.00241314" purity="0.521906" nType="-99"/>
          </Node>
          <Node pos="r" depth="2" NCoef="0" IVar="-1" Cut="0" cType="1" res="-0.00310635" purity="0.373477" nType="-99"/>
        </Node>
        <Node pos="r" depth="1" NCoef="0" IVar="6" Cut="3.01074" cType="1" res="0.0393845" purity="0.473687" nType="0">
          <Node pos="l" depth="2" NCoef="0" IVar="4" Cut="246506" cType="1" res="0.0548133" purity="0.494509" nType="0">
            <Node pos="l" depth="3" NCoef="0" IVar="3" Cut="169963" cType="1" res="0.0257558" purity="0.485142" nType="0">
              <Node pos="l" depth="4" NCoef="0" IVar="-1" Cut="0" cType="1" res="0.000525866" purity="0.467393" nType="-99"/>
              <Node pos="r" depth="4" NCoef="0" IVar="-1" Cut="0" cType="1" res="0.0019541" purity="0.502298" nType="-99"/>
            </Node>
            <Node pos="r" depth="3" NCoef="0" IVar="6" Cut="2.80302" cType="1" res="0.0827232" purity="0.503507" nType="0">
              <Node pos="l" depth="4" NCoef="0" IVar="-1" Cut="0" cType="1" res="0.00524872" purity="0.547509" nType="-99"/>
              <Node pos="r" depth="4" NCoef="0" IVar="-1" Cut="0" cType="1" res="0.00235462" purity="0.455538" nType="-99"/>
            </Node>
          </Node>
          <Node pos="r" depth="2" NCoef="0" IVar="-1" Cut="0" cType="1" res="-0.00126704" purity="0.39118" nType="-99"/>
        </Node>
      </Node>
    </BinaryTree>
    <BinaryTree type="DecisionTree" boostWeight="1.0" itree="382">
      <Node pos="s" depth="0" NCoef="0" IVar="3" Cut="118790" cType="1" res="0.000818639" purity="0.495205" nType="0">
        <Node pos="l" depth="1" NCoef="0" IVar="-1" Cut="0" cType="1" res="0.00177103" purity="0.532858" nType="-99"/>
        <Node pos="r" depth="1" NCoef="0" IVar="2" Cut="778.479" cType="1" res="-0.00273191" purity="0.491739" nType="0">
          <Node pos="l" depth="2" NCoef="0" IVar="2" Cut="-1213.7" cType="1" res="0.00984235" purity="0.436367" nType="0">
            <Node pos="l" depth="3" NCoef="0" IVar="3" Cut="167395" cType="1" res="-0.00262565" purity="0.420288" nType="0">
              <Node pos="l" depth="4" NCoef="0" IVar="-1" Cut="0" cType="1" res="-0.00197192" purity="0.38941" nType="-99"/>
              <Node pos="r" depth="4" NCoef="0" IVar="-1" Cut="0" cType="1" res="0.00101275" purity="0.441276" nType="-99"/>
            </Node>
            <Node pos="r" depth="3" NCoef="0" IVar="-1" Cut="0" cType="1" res="0.00306637" purity="0.505723" nType="-99"/>
          </Node>
          <Node pos="r" depth="2" NCoef="0" IVar="3" Cut="207126" cType="1" res="-0.0110868" purity="0.52853" nType="0">
            <Node pos="l" depth="3" NCoef="0" IVar="0" Cut="139023" cType="1" res="-0.0163309" purity="0.525925" nType="0">
              <Node pos="l" depth="4" NCoef="0" IVar="-1" Cut="0" cType="1" res="0.000178846" purity="0.520405" nType="-99"/>
              <Node pos="r" depth="4" NCoef="0" IVar="-1" Cut="0" cType="1" res="-0.00205157" purity="0.532729" nType="-99"/>
            </Node>
            <Node pos="r" depth="3" NCoef="0" IVar="-1" Cut="0" cType="1" res="0.00119838" purity="0.547316" nType="-99"/>
          </Node>
        </Node>
      </Node>
    </BinaryTree>
    <BinaryTree type="DecisionTree" boostWeight="1.0" itree="383">
      <Node pos="s" depth="0" NCoef="0" IVar="3" Cut="130473" cType="1" res="0.00177945" purity="0.496715" nType="0">
        <Node pos="l" depth="1" NCoef="0" IVar="6" Cut="1.37961" cType="1" res="-0.0413964" purity="0.456733" nType="0">
          <Node pos="l" depth="2" NCoef="0" IVar="-1" Cut="0" cType="1" res="-0.00485033" purity="0.403111" nType="-99"/>
          <Node pos="r" depth="2" NCoef="0" IVar="-1" Cut="0" cType="1" res="-0.000832772" purity="0.487261" nType="-99"/>
        </Node>
        <Node pos="r" depth="1" NCoef="0" IVar="0" Cut="119513" cType="1" res="0.00790448" purity="0.502387" nType="0">
          <Node pos="l" depth="2" NCoef="0" IVar="6" Cut="1.609" cType="1" res="0.023115" purity="0.469501" nType="0">
            <Node pos="l" depth="3" NCoef="0" IVar="4" Cut="207333" cType="1" res="0.0522422" purity="0.528435" nType="0">
              <Node pos="l" depth="4" NCoef="0" IVar="-1" Cut="0" cType="1" res="0.00314132" purity="0.591082" nType="-99"/>
              <Node pos="r" depth="4" NCoef="0" IVar="-1" Cut="0" cType="1" res="0.00140496" purity="0.461994" nType="-99"/>
            </Node>
            <Node pos="r" depth="3" NCoef="0" IVar="5" Cut="1.86794" cType="1" res="-0.00381583" purity="0.41501" nType="0">
              <Node pos="l" depth="4" NCoef="0" IVar="-1" Cut="0" cType="1" res="0.000857227" purity="0.445165" nType="-99"/>
              <Node pos="r" depth="4" NCoef="0" IVar="-1" Cut="0" cType="1" res="-0.00274721" purity="0.357515" nType="-99"/>
            </Node>
          </Node>
          <Node pos="r" depth="2" NCoef="0" IVar="0" Cut="128319" cType="1" res="0.000171224" purity="0.519108" nType="0">
            <Node pos="l" depth="3" NCoef="0" IVar="-1" Cut="0" cType="1" res="-0.00123957" purity="0.465574" nType="-99"/>
            <Node pos="r" depth="3" NCoef="0" IVar="6" Cut="1.53303" cType="1" res="0.00464623" purity="0.52925" nType="0">
              <Node pos="l" depth="4" NCoef="0" IVar="-1" Cut="0" cType="1" res="-0.000640535" purity="0.516766" nType="-99"/>
              <Node pos="r" depth="4" NCoef="0" IVar="-1" Cut="0" cType="1" res="0.000658531" purity="0.535629" nType="-99"/>
            </Node>
          </Node>
        </Node>
      </Node>
    </BinaryTree>
    <BinaryTree type="DecisionTree" boostWeight="1.0" itree="384">
      <Node pos="s" depth="0" NCoef="0" IVar="2" Cut="778.479" cType="1" res="0.000727532" purity="0.495708" nType="0">
        <Node pos="l" depth="1" NCoef="0" IVar="5" Cut="2.37656" cType="1" res="0.0198781" purity="0.450434" nType="0">
          <Node pos="l" depth="2" NCoef="0" IVar="1" Cut="140915" cType="1" res="0.0304028" purity="0.464044" nType="0">
            <Node pos="l" depth="3" NCoef="0" IVar="3" Cut="182943" cType="1" res="0.0213043" purity="0.450238" nType="0">
              <Node pos="l" depth="4" NCoef="0" IVar="-1" Cut="0" cType="1" res="0.000392602" purity="0.436476" nType="-99"/>
              <Node pos="r" depth="4" NCoef="0" IVar="-1" Cut="0" cType="1" res="0.0025583" purity="0.479329" nType="-99"/>
            </Node>
            <Node pos="r" depth="3" NCoef="0" IVar="-1" Cut="0" cType="1" res="0.00367034" purity="0.548715" nType="-99"/>
          </Node>
          <Node pos="r" depth="2" NCoef="0" IVar="-1" Cut="0" cType="1" res="-0.0033093" purity="0.355583" nType="-99"/>
        </Node>
        <Node pos="r" depth="1" NCoef="0" IVar="0" Cut="153656" cType="1" res="-0.0122624" purity="0.526418" nType="0">
          <Node pos="l" depth="2" NCoef="0" IVar="6" Cut="0.35466" cType="1" res="0.00130834" purity="0.521662" nType="0">
            <Node pos="l" depth="3" NCoef="0" IVar="-1" Cut="0" cType="1" res="0.00244112" purity="0.520699" nType="-99"/>
            <Node pos="r" depth="3" NCoef="0" IVar="3" Cut="188119" cType="1" res="-0.00950463" purity="0.521862" nType="0">
              <Node pos="l" depth="4" NCoef="0" IVar="-1" Cut="0" cType="1" res="3.71852e-06" purity="0.536316" nType="-99"/>
              <Node pos="r" depth="4" NCoef="0" IVar="-1" Cut="0" cType="1" res="-0.00242518" purity="0.466863" nType="-99"/>
            </Node>
          </Node>
          <Node pos="r" depth="2" NCoef="0" IVar="6" Cut="2.11127" cType="1" res="-0.0394351" purity="0.53594" nType="0">
            <Node pos="l" depth="3" NCoef="0" IVar="4" Cut="266464" cType="1" res="-0.016106" purity="0.565407" nType="0">
              <Node pos="l" depth="4" NCoef="0" IVar="-1" Cut="0" cType="1" res="-0.00204364" purity="0.568819" nType="-99"/>
              <Node pos="r" depth="4" NCoef="0" IVar="-1" Cut="0" cType="1" res="0.000772244" purity="0.560967" nType="-99"/>
            </Node>
            <Node pos="r" depth="3" NCoef="0" IVar="-1" Cut="0" cType="1" res="-0.00548778" purity="0.458656" nType="-99"/>
          </Node>
        </Node>
      </Node>
    </BinaryTree>
    <BinaryTree type="DecisionTree" boostWeight="1.0" itree="385">
      <Node pos="s" depth="0" NCoef="0" IVar="4" Cut="275618" cType="1" res="0.00122822" purity="0.495399" nType="0">
        <Node pos="l" depth="1" NCoef="0" IVar="4" Cut="258483" cType="1" res="-0.0101401" purity="0.503737" nType="0">
          <Node pos="l" depth="2" NCoef="0" IVar="3" Cut="206077" cType="1" res="-0.00421284" purity="0.512487" nType="0">
            <Node pos="l" depth="3" NCoef="0" IVar="0" Cut="104888" cType="1" res="0.00130348" purity="0.52007" nType="0">
              <Node pos="l" depth="4" NCoef="0" IVar="-1" Cut="0" cType="1" res="0.00183542" purity="0.511851" nType="-99"/>
              <Node pos="r" depth="4" NCoef="0" IVar="-1" Cut="0" cType="1" res="-0.00017707" purity="0.521138" nType="-99"/>
            </Node>
            <Node pos="r" depth="3" NCoef="0" IVar="-1" Cut="0" cType="1" res="-0.00320835" purity="0.436941" nType="-99"/>
          </Node>
          <Node pos="r" depth="2" NCoef="0" IVar="-1" Cut="0" cType="1" res="-0.00488502" purity="0.391944" nType="-99"/>
        </Node>
        <Node pos="r" depth="1" NCoef="0" IVar="5" Cut="1.55864" cType="1" res="0.0238149" purity="0.478833" nType="0">
          <Node pos="l" depth="2" NCoef="0" IVar="5" Cut="1.22705" cType="1" res="0.0419971" purity="0.51268" nType="0">
            <Node pos="l" depth="3" NCoef="0" IVar="4" Cut="346837" cType="1" res="0.0118983" purity="0.49336" nType="0">
              <Node pos="l" depth="4" NCoef="0" IVar="-1" Cut="0" cType="1" res="0.00227421" purity="0.556749" nType="-99"/>
              <Node pos="r" depth="4" NCoef="0" IVar="-1" Cut="0" cType="1" res="-0.00104167" purity="0.443001" nType="-99"/>
            </Node>
            <Node pos="r" depth="3" NCoef="0" IVar="-1" Cut="0" cType="1" res="0.00453306" purity="0.553142" nType="-99"/>
          </Node>
          <Node pos="r" depth="2" NCoef="0" IVar="4" Cut="330249" cType="1" res="0.00457141" purity="0.44301" nType="0">
            <Node pos="l" depth="3" NCoef="0" IVar="-1" Cut="0" cType="1" res="-0.00188401" purity="0.416615" nType="-99"/>
            <Node pos="r" depth="3" NCoef="0" IVar="4" Cut="375750" cType="1" res="0.0343112" purity="0.462898" nType="0">
              <Node pos="l" depth="4" NCoef="0" IVar="-1" Cut="0" cType="1" res="0.0030303" purity="0.498491" nType="-99"/>
              <Node pos="r" depth="4" NCoef="0" IVar="-1" Cut="0" cType="1" res="0.000492752" purity="0.430859" nType="-99"/>
            </Node>
          </Node>
        </Node>
      </Node>
    </BinaryTree>
    <BinaryTree type="DecisionTree" boostWeight="1.0" itree="386">
      <Node pos="s" depth="0" NCoef="0" IVar="3" Cut="107108" cType="1" res="0.00640177" purity="0.501509" nType="0">
        <Node pos="l" depth="1" NCoef="0" IVar="-1" Cut="0" cType="1" res="0.00330313" purity="0.568057" nType="-99"/>
        <Node pos="r" depth="1" NCoef="0" IVar="4" Cut="324543" cType="1" res="0.00269892" purity="0.498047" nType="0">
          <Node pos="l" depth="2" NCoef="0" IVar="6" Cut="2.06885" cType="1" res="-0.00456116" purity="0.504369" nType="0">
            <Node pos="l" depth="3" NCoef="0" IVar="4" Cut="176894" cType="1" res="0.00989251" purity="0.540287" nType="0">
              <Node pos="l" depth="4" NCoef="0" IVar="-1" Cut="0" cType="1" res="0.00181857" purity="0.607755" nType="-99"/>
              <Node pos="r" depth="4" NCoef="0" IVar="-1" Cut="0" cType="1" res="-0.000246112" purity="0.508874" nType="-99"/>
            </Node>
            <Node pos="r" depth="3" NCoef="0" IVar="2" Cut="-6607.24" cType="1" res="-0.0269045" purity="0.448844" nType="0">
              <Node pos="l" depth="4" NCoef="0" IVar="-1" Cut="0" cType="1" res="0.000364566" purity="0.438575" nType="-99"/>
              <Node pos="r" depth="4" NCoef="0" IVar="-1" Cut="0" cType="1" res="-0.00241432" purity="0.454477" nType="-99"/>
            </Node>
          </Node>
          <Node pos="r" depth="2" NCoef="0" IVar="5" Cut="1.26281" cType="1" res="0.0295855" purity="0.474634" nType="0">
            <Node pos="l" depth="3" NCoef="0" IVar="0" Cut="163419" cType="1" res="0.0637774" purity="0.534706" nType="0">
              <Node pos="l" depth="4" NCoef="0" IVar="-1" Cut="0" cType="1" res="0.00364655" purity="0.5069" nType="-99"/>
              <Node pos="r" depth="4" NCoef="0" IVar="-1" Cut="0" cType="1" res="0.00184812" purity="0.570383" nType="-99"/>
            </Node>
            <Node pos="r" depth="3" NCoef="0" IVar="2" Cut="-3849.37" cType="1" res="0.000498342" purity="0.42353" nType="0">
              <Node pos="l" depth="4" NCoef="0" IVar="-1" Cut="0" cType="1" res="0.00287931" purity="0.421304" nType="-99"/>
              <Node pos="r" depth="4" NCoef="0" IVar="-1" Cut="0" cType="1" res="-0.00176209" purity="0.425018" nType="-99"/>
            </Node>
          </Node>
        </Node>
      </Node>
    </BinaryTree>
    <BinaryTree type="DecisionTree" boostWeight="1.0" itree="387">
      <Node pos="s" depth="0" NCoef="0" IVar="6" Cut="2.68181" cType="1" res="0.0158042" purity="0.511883" nType="0">
        <Node pos="l" depth="1" NCoef="0" IVar="4" Cut="197586" cType="1" res="0.0210018" purity="0.530695" nType="0">
          <Node pos="l" depth="2" NCoef="0" IVar="4" Cut="149999" cType="1" res="0.00143759" purity="0.546277" nType="0">
            <Node pos="l" depth="3" NCoef="0" IVar="-1" Cut="0" cType="1" res="0.00161588" purity="0.581235" nType="-99"/>
            <Node pos="r" depth="3" NCoef="0" IVar="0" Cut="143869" cType="1" res="-0.00983071" purity="0.535037" nType="0">
              <Node pos="l" depth="4" NCoef="0" IVar="-1" Cut="0" cType="1" res="0.000149765" purity="0.523591" nType="-99"/>
              <Node pos="r" depth="4" NCoef="0" IVar="-1" Cut="0" cType="1" res="-0.00157267" purity="0.554632" nType="-99"/>
            </Node>
          </Node>
          <Node pos="r" depth="2" NCoef="0" IVar="5" Cut="2.01088" cType="1" res="0.0312738" purity="0.522515" nType="0">
            <Node pos="l" depth="3" NCoef="0" IVar="0" Cut="124395" cType="1" res="0.0426776" purity="0.545531" nType="0">
              <Node pos="l" depth="4" NCoef="0" IVar="-1" Cut="0" cType="1" res="0.00305612" purity="0.516198" nType="-99"/>
              <Node pos="r" depth="4" NCoef="0" IVar="-1" Cut="0" cType="1" res="0.0013365" purity="0.561291" nType="-99"/>
            </Node>
            <Node pos="r" depth="3" NCoef="0" IVar="5" Cut="2.70027" cType="1" res="0.00507383" purity="0.469635" nType="0">
              <Node pos="l" depth="4" NCoef="0" IVar="-1" Cut="0" cType="1" res="-0.00120823" purity="0.454267" nType="-99"/>
              <Node pos="r" depth="4" NCoef="0" IVar="-1" Cut="0" cType="1" res="0.00236212" purity="0.49271" nType="-99"/>
            </Node>
          </Node>
        </Node>
        <Node pos="r" depth="1" NCoef="0" IVar="6" Cut="2.97337" cType="1" res="-0.0111706" purity="0.414248" nType="0">
          <Node pos="l" depth="2" NCoef="0" IVar="4" Cut="218834" cType="1" res="-0.0358606" purity="0.396674" nType="0">
            <Node pos="l" depth="3" NCoef="0" IVar="-1" Cut="0" cType="1" res="0.000608934" purity="0.467704" nType="-99"/>
            <Node pos="r" depth="3" NCoef="0" IVar="-1" Cut="0" cType="1" res="-0.00469123" purity="0.34349" nType="-99"/>
          </Node>
          <Node pos="r" depth="2" NCoef="0" IVar="-1" Cut="0" cType="1" res="0.00156643" purity="0.443713" nType="-99"/>
        </Node>
      </Node>
    </BinaryTree>
    <BinaryTree type="DecisionTree" boostWeight="1.0" itree="388">
      <Node pos="s" depth="0" NCoef="0" IVar="6" Cut="0.689736" cType="1" res="-0.000199146" purity="0.493558" nType="0">
        <Node pos="l" depth="1" NCoef="0" IVar="0" Cut="153659" cType="1" res="-0.0257296" purity="0.449286" nType="0">
          <Node pos="l" depth="2" NCoef="0" IVar="3" Cut="166152" cType="1" res="-0.0440027" purity="0.421147" nType="0">
            <Node pos="l" depth="3" NCoef="0" IVar="-1" Cut="0" cType="1" res="-0.00589245" purity="0.36794" nType="-99"/>
            <Node pos="r" depth="3" NCoef="0" IVar="-1" Cut="0" cType="1" res="-2.63915e-05" purity="0.467404" nType="-99"/>
          </Node>
          <Node pos="r" depth="2" NCoef="0" IVar="-1" Cut="0" cType="1" res="0.000946233" purity="0.521323" nType="-99"/>
        </Node>
        <Node pos="r" depth="1" NCoef="0" IVar="2" Cut="-9662.63" cType="1" res="0.00449829" purity="0.501704" nType="0">
          <Node pos="l" depth="2" NCoef="0" IVar="5" Cut="1.33698" cType="1" res="-0.0242371" purity="0.387505" nType="0">
            <Node pos="l" depth="3" NCoef="0" IVar="-1" Cut="0" cType="1" res="0.00063508" purity="0.440959" nType="-99"/>
            <Node pos="r" depth="3" NCoef="0" IVar="-1" Cut="0" cType="1" res="-0.00335088" purity="0.34746" nType="-99"/>
          </Node>
          <Node pos="r" depth="2" NCoef="0" IVar="2" Cut="8734.27" cType="1" res="0.00995562" purity="0.523392" nType="0">
            <Node pos="l" depth="3" NCoef="0" IVar="5" Cut="1.19356" cType="1" res="0.0190622" purity="0.479528" nType="0">
              <Node pos="l" depth="4" NCoef="0" IVar="-1" Cut="0" cType="1" res="0.00187547" purity="0.506649" nType="-99"/>
              <Node pos="r" depth="4" NCoef="0" IVar="-1" Cut="0" cType="1" res="0.000418795" purity="0.465025" nType="-99"/>
            </Node>
            <Node pos="r" depth="3" NCoef="0" IVar="2" Cut="26170.1" cType="1" res="-0.00595409" purity="0.600025" nType="0">
              <Node pos="l" depth="4" NCoef="0" IVar="-1" Cut="0" cType="1" res="-0.000792604" purity="0.563733" nType="-99"/>
              <Node pos="r" depth="4" NCoef="0" IVar="-1" Cut="0" cType="1" res="0.00133735" purity="0.716906" nType="-99"/>
            </Node>
          </Node>
        </Node>
      </Node>
    </BinaryTree>
    <BinaryTree type="DecisionTree" boostWeight="1.0" itree="389">
      <Node pos="s" depth="0" NCoef="0" IVar="1" Cut="176983" cType="1" res="0.0209573" purity="0.515645" nType="0">
        <Node pos="l" depth="1" NCoef="0" IVar="2" Cut="-2763.53" cType="1" res="0.0275792" purity="0.523701" nType="0">
          <Node pos="l" depth="2" NCoef="0" IVar="1" Cut="96363.6" cType="1" res="0.0556226" purity="0.480684" nType="0">
            <Node pos="l" depth="3" NCoef="0" IVar="-1" Cut="0" cType="1" res="0.00512938" purity="0.526808" nType="-99"/>
            <Node pos="r" depth="3" NCoef="0" IVar="3" Cut="147606" cType="1" res="0.0366339" purity="0.465129" nType="0">
              <Node pos="l" depth="4" NCoef="0" IVar="-1" Cut="0" cType="1" res="0.00334442" purity="0.515459" nType="-99"/>
              <Node pos="r" depth="4" NCoef="0" IVar="-1" Cut="0" cType="1" res="0.00121602" purity="0.446498" nType="-99"/>
            </Node>
          </Node>
          <Node pos="r" depth="2" NCoef="0" IVar="0" Cut="241429" cType="1" res="0.0157981" purity="0.541772" nType="0">
            <Node pos="l" depth="3" NCoef="0" IVar="3" Cut="159579" cType="1" res="0.00951192" purity="0.530434" nType="0">
              <Node pos="l" depth="4" NCoef="0" IVar="-1" Cut="0" cType="1" res="-0.000673349" purity="0.507974" nType="-99"/>
              <Node pos="r" depth="4" NCoef="0" IVar="-1" Cut="0" cType="1" res="0.00100315" purity="0.542057" nType="-99"/>
            </Node>
            <Node pos="r" depth="3" NCoef="0" IVar="-1" Cut="0" cType="1" res="0.00411799" purity="0.706249" nType="-99"/>
          </Node>
        </Node>
        <Node pos="r" depth="1" NCoef="0" IVar="6" Cut="1.45319" cType="1" res="-0.0545253" purity="0.423821" nType="0">
          <Node pos="l" depth="2" NCoef="0" IVar="-1" Cut="0" cType="1" res="-0.00167262" purity="0.466003" nType="-99"/>
          <Node pos="r" depth="2" NCoef="0" IVar="-1" Cut="0" cType="1" res="-0.00464172" purity="0.381403" nType="-99"/>
        </Node>
      </Node>
    </BinaryTree>
    <BinaryTree type="DecisionTree" boostWeight="1.0" itree="390">
      <Node pos="s" depth="0" NCoef="0" IVar="3" Cut="171169" cType="1" res="0.00378217" purity="0.500147" nType="0">
        <Node pos="l" depth="1" NCoef="0" IVar="5" Cut="0.868137" cType="1" res="0.0152371" purity="0.520044" nType="0">
          <Node pos="l" depth="2" NCoef="0" IVar="0" Cut="163459" cType="1" res="0.0628751" purity="0.606728" nType="0">
            <Node pos="l" depth="3" NCoef="0" IVar="-1" Cut="0" cType="1" res="0.000747092" purity="0.537497" nType="-99"/>
            <Node pos="r" depth="3" NCoef="0" IVar="-1" Cut="0" cType="1" res="0.00399372" purity="0.661025" nType="-99"/>
          </Node>
          <Node pos="r" depth="2" NCoef="0" IVar="4" Cut="353748" cType="1" res="0.00509438" purity="0.501588" nType="0">
            <Node pos="l" depth="3" NCoef="0" IVar="4" Cut="162265" cType="1" res="0.0132083" purity="0.518437" nType="0">
              <Node pos="l" depth="4" NCoef="0" IVar="-1" Cut="0" cType="1" res="-0.00212298" purity="0.489884" nType="-99"/>
              <Node pos="r" depth="4" NCoef="0" IVar="-1" Cut="0" cType="1" res="0.000980492" purity="0.522429" nType="-99"/>
            </Node>
            <Node pos="r" depth="3" NCoef="0" IVar="-1" Cut="0" cType="1" res="-0.00364466" purity="0.371328" nType="-99"/>
          </Node>
        </Node>
        <Node pos="r" depth="1" NCoef="0" IVar="0" Cut="187770" cType="1" res="-0.0103193" purity="0.475653" nType="0">
          <Node pos="l" depth="2" NCoef="0" IVar="0" Cut="144947" cType="1" res="-0.0018489" purity="0.471929" nType="0">
            <Node pos="l" depth="3" NCoef="0" IVar="4" Cut="236626" cType="1" res="-0.0165279" purity="0.444429" nType="0">
              <Node pos="l" depth="4" NCoef="0" IVar="-1" Cut="0" cType="1" res="0.000165008" purity="0.497216" nType="-99"/>
              <Node pos="r" depth="4" NCoef="0" IVar="-1" Cut="0" cType="1" res="-0.00258" purity="0.374886" nType="-99"/>
            </Node>
            <Node pos="r" depth="3" NCoef="0" IVar="2" Cut="2293.41" cType="1" res="0.0330093" purity="0.537233" nType="0">
              <Node pos="l" depth="4" NCoef="0" IVar="-1" Cut="0" cType="1" res="0.0033613" purity="0.537665" nType="-99"/>
              <Node pos="r" depth="4" NCoef="0" IVar="-1" Cut="0" cType="1" res="-0.000491545" purity="0.536813" nType="-99"/>
            </Node>
          </Node>
          <Node pos="r" depth="2" NCoef="0" IVar="-1" Cut="0" cType="1" res="-0.00284982" purity="0.495721" nType="-99"/>
        </Node>
      </Node>
    </BinaryTree>
    <BinaryTree type="DecisionTree" boostWeight="1.0" itree="391">
      <Node pos="s" depth="0" NCoef="0" IVar="5" Cut="1.08083" cType="1" res="-0.0114385" purity="0.486214" nType="0">
        <Node pos="l" depth="1" NCoef="0" IVar="4" Cut="178080" cType="1" res="0.00738828" purity="0.527797" nType="0">
          <Node pos="l" depth="2" NCoef="0" IVar="5" Cut="0.820192" cType="1" res="0.0525389" purity="0.614506" nType="0">
            <Node pos="l" depth="3" NCoef="0" IVar="-1" Cut="0" cType="1" res="0.00126353" purity="0.615223" nType="-99"/>
            <Node pos="r" depth="3" NCoef="0" IVar="-1" Cut="0" cType="1" res="0.00307135" purity="0.613896" nType="-99"/>
          </Node>
          <Node pos="r" depth="2" NCoef="0" IVar="0" Cut="143911" cType="1" res="-0.0147912" purity="0.485202" nType="0">
            <Node pos="l" depth="3" NCoef="0" IVar="-1" Cut="0" cType="1" res="-0.00336245" purity="0.389627" nType="-99"/>
            <Node pos="r" depth="3" NCoef="0" IVar="0" Cut="208647" cType="1" res="0.009221" purity="0.541427" nType="0">
              <Node pos="l" depth="4" NCoef="0" IVar="-1" Cut="0" cType="1" res="-0.000310832" purity="0.50306" nType="-99"/>
              <Node pos="r" depth="4" NCoef="0" IVar="-1" Cut="0" cType="1" res="0.00159406" purity="0.609202" nType="-99"/>
            </Node>
          </Node>
        </Node>
        <Node pos="r" depth="1" NCoef="0" IVar="5" Cut="1.48297" cType="1" res="-0.0199363" purity="0.467444" nType="0">
          <Node pos="l" depth="2" NCoef="0" IVar="0" Cut="119519" cType="1" res="-0.0443236" purity="0.452023" nType="0">
            <Node pos="l" depth="3" NCoef="0" IVar="-1" Cut="0" cType="1" res="-0.00632575" purity="0.342074" nType="-99"/>
            <Node pos="r" depth="3" NCoef="0" IVar="6" Cut="1.68645" cType="1" res="-0.0217849" purity="0.499182" nType="0">
              <Node pos="l" depth="4" NCoef="0" IVar="-1" Cut="0" cType="1" res="-0.00360334" purity="0.472097" nType="-99"/>
              <Node pos="r" depth="4" NCoef="0" IVar="-1" Cut="0" cType="1" res="5.53891e-05" purity="0.512877" nType="-99"/>
            </Node>
          </Node>
          <Node pos="r" depth="2" NCoef="0" IVar="1" Cut="146291" cType="1" res="-0.00727635" purity="0.47545" nType="0">
            <Node pos="l" depth="3" NCoef="0" IVar="6" Cut="2.14519" cType="1" res="0.00806219" purity="0.492083" nType="0">
              <Node pos="l" depth="4" NCoef="0" IVar="-1" Cut="0" cType="1" res="-0.000381413" purity="0.504859" nType="-99"/>
              <Node pos="r" depth="4" NCoef="0" IVar="-1" Cut="0" cType="1" res="0.00190869" purity="0.468445" nType="-99"/>
            </Node>
            <Node pos="r" depth="3" NCoef="0" IVar="4" Cut="362032" cType="1" res="-0.0378088" purity="0.44234" nType="0">
              <Node pos="l" depth="4" NCoef="0" IVar="-1" Cut="0" cType="1" res="-0.00328696" purity="0.434093" nType="-99"/>
              <Node pos="r" depth="4" NCoef="0" IVar="-1" Cut="0" cType="1" res="0.000951851" purity="0.462726" nType="-99"/>
            </Node>
          </Node>
        </Node>
      </Node>
    </BinaryTree>
    <BinaryTree type="DecisionTree" boostWeight="1.0" itree="392">
      <Node pos="s" depth="0" NCoef="0" IVar="1" Cut="100232" cType="1" res="0.00226468" purity="0.494738" nType="0">
        <Node pos="l" depth="1" NCoef="0" IVar="1" Cut="91497.9" cType="1" res="0.0264917" purity="0.484818" nType="0">
          <Node pos="l" depth="2" NCoef="0" IVar="-1" Cut="0" cType="1" res="-0.00356521" purity="0.398039" nType="-99"/>
          <Node pos="r" depth="2" NCoef="0" IVar="4" Cut="266081" cType="1" res="0.0418378" purity="0.500275" nType="0">
            <Node pos="l" depth="3" NCoef="0" IVar="6" Cut="2.68178" cType="1" res="0.0261376" purity="0.496129" nType="0">
              <Node pos="l" depth="4" NCoef="0" IVar="-1" Cut="0" cType="1" res="0.000394013" purity="0.488163" nType="-99"/>
              <Node pos="r" depth="4" NCoef="0" IVar="-1" Cut="0" cType="1" res="0.00416106" purity="0.52352" nType="-99"/>
            </Node>
            <Node pos="r" depth="3" NCoef="0" IVar="-1" Cut="0" cType="1" res="0.00385451" purity="0.511367" nType="-99"/>
          </Node>
        </Node>
        <Node pos="r" depth="1" NCoef="0" IVar="0" Cut="109764" cType="1" res="-0.00829429" purity="0.499062" nType="0">
          <Node pos="l" depth="2" NCoef="0" IVar="2" Cut="6910.52" cType="1" res="-0.044757" purity="0.393481" nType="0">
            <Node pos="l" depth="3" NCoef="0" IVar="-1" Cut="0" cType="1" res="-0.000554593" purity="0.37657" nType="-99"/>
            <Node pos="r" depth="3" NCoef="0" IVar="-1" Cut="0" cType="1" res="-0.00579129" purity="0.421758" nType="-99"/>
          </Node>
          <Node pos="r" depth="2" NCoef="0" IVar="0" Cut="188634" cType="1" res="-0.000276957" purity="0.522276" nType="0">
            <Node pos="l" depth="3" NCoef="0" IVar="0" Cut="163628" cType="1" res="0.00568316" purity="0.513212" nType="0">
              <Node pos="l" depth="4" NCoef="0" IVar="-1" Cut="0" cType="1" res="-0.000315934" purity="0.493849" nType="-99"/>
              <Node pos="r" depth="4" NCoef="0" IVar="-1" Cut="0" cType="1" res="0.00261662" purity="0.606518" nType="-99"/>
            </Node>
            <Node pos="r" depth="3" NCoef="0" IVar="2" Cut="4362.06" cType="1" res="-0.0271531" purity="0.563153" nType="0">
              <Node pos="l" depth="4" NCoef="0" IVar="-1" Cut="0" cType="1" res="-0.00397561" purity="0.461863" nType="-99"/>
              <Node pos="r" depth="4" NCoef="0" IVar="-1" Cut="0" cType="1" res="0.00028552" purity="0.629048" nType="-99"/>
            </Node>
          </Node>
        </Node>
      </Node>
    </BinaryTree>
    <BinaryTree type="DecisionTree" boostWeight="1.0" itree="393">
      <Node pos="s" depth="0" NCoef="0" IVar="2" Cut="-16198.1" cType="1" res="8.1059e-05" purity="0.497132" nType="0">
        <Node pos="l" depth="1" NCoef="0" IVar="-1" Cut="0" cType="1" res="-0.00392929" purity="0.341573" nType="-99"/>
        <Node pos="r" depth="1" NCoef="0" IVar="2" Cut="9145.83" cType="1" res="0.00399836" purity="0.507162" nType="0">
          <Node pos="l" depth="2" NCoef="0" IVar="2" Cut="-2598.43" cType="1" res="-0.00728392" purity="0.444402" nType="0">
            <Node pos="l" depth="3" NCoef="0" IVar="6" Cut="1.94158" cType="1" res="0.0190716" purity="0.451767" nType="0">
              <Node pos="l" depth="4" NCoef="0" IVar="-1" Cut="0" cType="1" res="-0.00171373" purity="0.38857" nType="-99"/>
              <Node pos="r" depth="4" NCoef="0" IVar="-1" Cut="0" cType="1" res="0.00152852" purity="0.466664" nType="-99"/>
            </Node>
            <Node pos="r" depth="3" NCoef="0" IVar="0" Cut="109768" cType="1" res="-0.024131" purity="0.439694" nType="0">
              <Node pos="l" depth="4" NCoef="0" IVar="-1" Cut="0" cType="1" res="-0.00596131" purity="0.32528" nType="-99"/>
              <Node pos="r" depth="4" NCoef="0" IVar="-1" Cut="0" cType="1" res="-0.000646311" purity="0.459695" nType="-99"/>
            </Node>
          </Node>
          <Node pos="r" depth="2" NCoef="0" IVar="4" Cut="187862" cType="1" res="0.0223891" purity="0.609464" nType="0">
            <Node pos="l" depth="3" NCoef="0" IVar="3" Cut="163829" cType="1" res="0.0455706" purity="0.670459" nType="0">
              <Node pos="l" depth="4" NCoef="0" IVar="-1" Cut="0" cType="1" res="0.00116634" purity="0.650099" nType="-99"/>
              <Node pos="r" depth="4" NCoef="0" IVar="-1" Cut="0" cType="1" res="0.00246022" purity="0.686979" nType="-99"/>
            </Node>
            <Node pos="r" depth="3" NCoef="0" IVar="0" Cut="178051" cType="1" res="0.0079466" purity="0.571463" nType="0">
              <Node pos="l" depth="4" NCoef="0" IVar="-1" Cut="0" cType="1" res="0.000847926" purity="0.569894" nType="-99"/>
              <Node pos="r" depth="4" NCoef="0" IVar="-1" Cut="0" cType="1" res="-0.00161734" purity="0.577309" nType="-99"/>
            </Node>
          </Node>
        </Node>
      </Node>
    </BinaryTree>
    <BinaryTree type="DecisionTree" boostWeight="1.0" itree="394">
      <Node pos="s" depth="0" NCoef="0" IVar="1" Cut="100242" cType="1" res="0.00313341" purity="0.497845" nType="0">
        <Node pos="l" depth="1" NCoef="0" IVar="1" Cut="96993.3" cType="1" res="-0.0203725" purity="0.4409" nType="0">
          <Node pos="l" depth="2" NCoef="0" IVar="3" Cut="154921" cType="1" res="-0.00386585" purity="0.460563" nType="0">
            <Node pos="l" depth="3" NCoef="0" IVar="-1" Cut="0" cType="1" res="-0.00285292" purity="0.416386" nType="-99"/>
            <Node pos="r" depth="3" NCoef="0" IVar="0" Cut="143890" cType="1" res="0.013945" purity="0.477462" nType="0">
              <Node pos="l" depth="4" NCoef="0" IVar="-1" Cut="0" cType="1" res="0.00222972" purity="0.4908" nType="-99"/>
              <Node pos="r" depth="4" NCoef="0" IVar="-1" Cut="0" cType="1" res="-0.0017371" purity="0.457588" nType="-99"/>
            </Node>
          </Node>
          <Node pos="r" depth="2" NCoef="0" IVar="-1" Cut="0" cType="1" res="-0.00442717" purity="0.381816" nType="-99"/>
        </Node>
        <Node pos="r" depth="1" NCoef="0" IVar="0" Cut="119519" cType="1" res="0.0123347" purity="0.520136" nType="0">
          <Node pos="l" depth="2" NCoef="0" IVar="6" Cut="0.766685" cType="1" res="0.0309474" purity="0.485218" nType="0">
            <Node pos="l" depth="3" NCoef="0" IVar="-1" Cut="0" cType="1" res="-0.00119521" purity="0.437716" nType="-99"/>
            <Node pos="r" depth="3" NCoef="0" IVar="4" Cut="275764" cType="1" res="0.0446361" purity="0.497476" nType="0">
              <Node pos="l" depth="4" NCoef="0" IVar="-1" Cut="0" cType="1" res="0.00105585" purity="0.510794" nType="-99"/>
              <Node pos="r" depth="4" NCoef="0" IVar="-1" Cut="0" cType="1" res="0.00458128" purity="0.471156" nType="-99"/>
            </Node>
          </Node>
          <Node pos="r" depth="2" NCoef="0" IVar="4" Cut="218684" cType="1" res="0.00210292" purity="0.539331" nType="0">
            <Node pos="l" depth="3" NCoef="0" IVar="0" Cut="176740" cType="1" res="-0.0200022" purity="0.56188" nType="0">
              <Node pos="l" depth="4" NCoef="0" IVar="-1" Cut="0" cType="1" res="-0.00175877" purity="0.524944" nType="-99"/>
              <Node pos="r" depth="4" NCoef="0" IVar="-1" Cut="0" cType="1" res="0.000667005" purity="0.649353" nType="-99"/>
            </Node>
            <Node pos="r" depth="3" NCoef="0" IVar="4" Cut="246161" cType="1" res="0.015068" purity="0.526107" nType="0">
              <Node pos="l" depth="4" NCoef="0" IVar="-1" Cut="0" cType="1" res="0.00264924" purity="0.61276" nType="-99"/>
              <Node pos="r" depth="4" NCoef="0" IVar="-1" Cut="0" cType="1" res="4.9667e-05" purity="0.501778" nType="-99"/>
            </Node>
          </Node>
        </Node>
      </Node>
    </BinaryTree>
    <BinaryTree type="DecisionTree" boostWeight="1.0" itree="395">
      <Node pos="s" depth="0" NCoef="0" IVar="4" Cut="295152" cType="1" res="0.000900297" purity="0.495395" nType="0">
        <Node pos="l" depth="1" NCoef="0" IVar="4" Cut="219020" cType="1" res="-0.00789338" purity="0.504422" nType="0">
          <Node pos="l" depth="2" NCoef="0" IVar="1" Cut="93625.5" cType="1" res="0.0075579" purity="0.533516" nType="0">
            <Node pos="l" depth="3" NCoef="0" IVar="-1" Cut="0" cType="1" res="0.00277235" purity="0.544431" nType="-99"/>
            <Node pos="r" depth="3" NCoef="0" IVar="1" Cut="104237" cType="1" res="-0.00310386" purity="0.531315" nType="0">
              <Node pos="l" depth="4" NCoef="0" IVar="-1" Cut="0" cType="1" res="-0.00182456" purity="0.446975" nType="-99"/>
              <Node pos="r" depth="4" NCoef="0" IVar="-1" Cut="0" cType="1" res="0.000644442" purity="0.5789" nType="-99"/>
            </Node>
          </Node>
          <Node pos="r" depth="2" NCoef="0" IVar="2" Cut="13851.5" cType="1" res="-0.0359969" purity="0.451505" nType="0">
            <Node pos="l" depth="3" NCoef="0" IVar="6" Cut="2.37535" cType="1" res="-0.0467439" purity="0.412577" nType="0">
              <Node pos="l" depth="4" NCoef="0" IVar="-1" Cut="0" cType="1" res="-0.00432821" purity="0.398618" nType="-99"/>
              <Node pos="r" depth="4" NCoef="0" IVar="-1" Cut="0" cType="1" res="-0.000470883" purity="0.431658" nType="-99"/>
            </Node>
            <Node pos="r" depth="3" NCoef="0" IVar="-1" Cut="0" cType="1" res="0.000185468" purity="0.597242" nType="-99"/>
          </Node>
        </Node>
        <Node pos="r" depth="1" NCoef="0" IVar="1" Cut="115605" cType="1" res="0.0234236" purity="0.472272" nType="0">
          <Node pos="l" depth="2" NCoef="0" IVar="6" Cut="2.45198" cType="1" res="-0.018667" purity="0.409846" nType="0">
            <Node pos="l" depth="3" NCoef="0" IVar="-1" Cut="0" cType="1" res="-0.00396988" purity="0.378561" nType="-99"/>
            <Node pos="r" depth="3" NCoef="0" IVar="-1" Cut="0" cType="1" res="0.00234258" purity="0.455666" nType="-99"/>
          </Node>
          <Node pos="r" depth="2" NCoef="0" IVar="0" Cut="124385" cType="1" res="0.0520688" purity="0.514757" nType="0">
            <Node pos="l" depth="3" NCoef="0" IVar="-1" Cut="0" cType="1" res="0.00518043" purity="0.490784" nType="-99"/>
            <Node pos="r" depth="3" NCoef="0" IVar="3" Cut="165656" cType="1" res="0.0231976" purity="0.528038" nType="0">
              <Node pos="l" depth="4" NCoef="0" IVar="-1" Cut="0" cType="1" res="-0.000597653" purity="0.495104" nType="-99"/>
              <Node pos="r" depth="4" NCoef="0" IVar="-1" Cut="0" cType="1" res="0.00226986" purity="0.553381" nType="-99"/>
            </Node>
          </Node>
        </Node>
      </Node>
    </BinaryTree>
    <BinaryTree type="DecisionTree" boostWeight="1.0" itree="396">
      <Node pos="s" depth="0" NCoef="0" IVar="1" Cut="95120.7" cType="1" res="0.00341329" purity="0.498563" nType="0">
        <Node pos="l" depth="1" NCoef="0" IVar="4" Cut="178075" cType="1" res="-0.0333672" purity="0.428403" nType="0">
          <Node pos="l" depth="2" NCoef="0" IVar="-1" Cut="0" cType="1" res="-0.00477266" purity="0.412332" nType="-99"/>
          <Node pos="r" depth="2" NCoef="0" IVar="2" Cut="958.046" cType="1" res="-0.0121697" purity="0.435678" nType="0">
            <Node pos="l" depth="3" NCoef="0" IVar="-1" Cut="0" cType="1" res="-0.00263531" purity="0.371096" nType="-99"/>
            <Node pos="r" depth="3" NCoef="0" IVar="-1" Cut="0" cType="1" res="0.000593957" purity="0.49065" nType="-99"/>
          </Node>
        </Node>
        <Node pos="r" depth="1" NCoef="0" IVar="1" Cut="175052" cType="1" res="0.0100322" purity="0.511189" nType="0">
          <Node pos="l" depth="2" NCoef="0" IVar="1" Cut="138010" cType="1" res="0.0147961" purity="0.519385" nType="0">
            <Node pos="l" depth="3" NCoef="0" IVar="1" Cut="109766" cType="1" res="0.00780756" purity="0.507838" nType="0">
              <Node pos="l" depth="4" NCoef="0" IVar="-1" Cut="0" cType="1" res="0.00113096" purity="0.502187" nType="-99"/>
              <Node pos="r" depth="4" NCoef="0" IVar="-1" Cut="0" cType="1" res="-0.000522584" purity="0.514461" nType="-99"/>
            </Node>
            <Node pos="r" depth="3" NCoef="0" IVar="0" Cut="124406" cType="1" res="0.0459163" purity="0.570805" nType="0">
              <Node pos="l" depth="4" NCoef="0" IVar="-1" Cut="0" cType="1" res="0.00379268" purity="0.561173" nType="-99"/>
              <Node pos="r" depth="4" NCoef="0" IVar="-1" Cut="0" cType="1" res="0.000463618" purity="0.578677" nType="-99"/>
            </Node>
          </Node>
          <Node pos="r" depth="2" NCoef="0" IVar="3" Cut="167706" cType="1" res="-0.0293191" purity="0.443489" nType="0">
            <Node pos="l" depth="3" NCoef="0" IVar="-1" Cut="0" cType="1" res="0.000435634" purity="0.488872" nType="-99"/>
            <Node pos="r" depth="3" NCoef="0" IVar="-1" Cut="0" cType="1" res="-0.00433386" purity="0.390972" nType="-99"/>
          </Node>
        </Node>
      </Node>
    </BinaryTree>
    <BinaryTree type="DecisionTree" boostWeight="1.0" itree="397">
      <Node pos="s" depth="0" NCoef="0" IVar="0" Cut="173169" cType="1" res="0.00232914" purity="0.498964" nType="0">
        <Node pos="l" depth="1" NCoef="0" IVar="3" Cut="212389" cType="1" res="0.00968097" purity="0.489476" nType="0">
          <Node pos="l" depth="2" NCoef="0" IVar="2" Cut="758.1" cType="1" res="0.0142686" purity="0.496808" nType="0">
            <Node pos="l" depth="3" NCoef="0" IVar="0" Cut="139260" cType="1" res="-0.00304029" purity="0.408765" nType="0">
              <Node pos="l" depth="4" NCoef="0" IVar="-1" Cut="0" cType="1" res="-0.00167015" purity="0.371275" nType="-99"/>
              <Node pos="r" depth="4" NCoef="0" IVar="-1" Cut="0" cType="1" res="0.00261108" purity="0.501307" nType="-99"/>
            </Node>
            <Node pos="r" depth="3" NCoef="0" IVar="0" Cut="137466" cType="1" res="0.025629" purity="0.554594" nType="0">
              <Node pos="l" depth="4" NCoef="0" IVar="-1" Cut="0" cType="1" res="0.00168698" purity="0.55624" nType="-99"/>
              <Node pos="r" depth="4" NCoef="0" IVar="-1" Cut="0" cType="1" res="-0.000158306" purity="0.550576" nType="-99"/>
            </Node>
          </Node>
          <Node pos="r" depth="2" NCoef="0" IVar="-1" Cut="0" cType="1" res="-0.0024123" purity="0.405277" nType="-99"/>
        </Node>
        <Node pos="r" depth="1" NCoef="0" IVar="0" Cut="244317" cType="1" res="-0.0252999" purity="0.534618" nType="0">
          <Node pos="l" depth="2" NCoef="0" IVar="2" Cut="8184.05" cType="1" res="-0.0422073" purity="0.508169" nType="0">
            <Node pos="l" depth="3" NCoef="0" IVar="1" Cut="105275" cType="1" res="-0.0665538" purity="0.440831" nType="0">
              <Node pos="l" depth="4" NCoef="0" IVar="-1" Cut="0" cType="1" res="-0.00749911" purity="0.354638" nType="-99"/>
              <Node pos="r" depth="4" NCoef="0" IVar="-1" Cut="0" cType="1" res="-0.00135556" purity="0.506444" nType="-99"/>
            </Node>
            <Node pos="r" depth="3" NCoef="0" IVar="-1" Cut="0" cType="1" res="-0.000280238" purity="0.608323" nType="-99"/>
          </Node>
          <Node pos="r" depth="2" NCoef="0" IVar="-1" Cut="0" cType="1" res="0.00124758" purity="0.619251" nType="-99"/>
        </Node>
      </Node>
    </BinaryTree>
    <BinaryTree type="DecisionTree" boostWeight="1.0" itree="398">
      <Node pos="s" depth="0" NCoef="0" IVar="3" Cut="120039" cType="1" res="0.00998292" purity="0.504183" nType="0">
        <Node pos="l" depth="1" NCoef="0" IVar="-1" Cut="0" cType="1" res="-0.00230217" purity="0.456741" nType="-99"/>
        <Node pos="r" depth="1" NCoef="0" IVar="2" Cut="-9559.3" cType="1" res="0.0146626" purity="0.508256" nType="0">
          <Node pos="l" depth="2" NCoef="0" IVar="0" Cut="129183" cType="1" res="0.0407773" purity="0.451072" nType="0">
            <Node pos="l" depth="3" NCoef="0" IVar="-1" Cut="0" cType="1" res="0.00390412" purity="0.447049" nType="-99"/>
            <Node pos="r" depth="3" NCoef="0" IVar="-1" Cut="0" cType="1" res="3.70941e-05" purity="0.456068" nType="-99"/>
          </Node>
          <Node pos="r" depth="2" NCoef="0" IVar="6" Cut="2.83473" cType="1" res="0.010293" purity="0.517824" nType="0">
            <Node pos="l" depth="3" NCoef="0" IVar="6" Cut="2.28158" cType="1" res="0.0147215" purity="0.527463" nType="0">
              <Node pos="l" depth="4" NCoef="0" IVar="-1" Cut="0" cType="1" res="0.000367024" purity="0.531132" nType="-99"/>
              <Node pos="r" depth="4" NCoef="0" IVar="-1" Cut="0" cType="1" res="0.00178961" purity="0.515292" nType="-99"/>
            </Node>
            <Node pos="r" depth="3" NCoef="0" IVar="-1" Cut="0" cType="1" res="-0.00380813" purity="0.365933" nType="-99"/>
          </Node>
        </Node>
      </Node>
    </BinaryTree>
    <BinaryTree type="DecisionTree" boostWeight="1.0" itree="399">
      <Node pos="s" depth="0" NCoef="0" IVar="5" Cut="1.31788" cType="1" res="0.00898066" purity="0.503131" nType="0">
        <Node pos="l" depth="1" NCoef="0" IVar="2" Cut="-9559.3" cType="1" res="-0.00631555" purity="0.501986" nType="0">
          <Node pos="l" depth="2" NCoef="0" IVar="-1" Cut="0" cType="1" res="-0.00558547" purity="0.345312" nType="-99"/>
          <Node pos="r" depth="2" NCoef="0" IVar="6" Cut="0.613025" cType="1" res="0.00384431" purity="0.521768" nType="0">
            <Node pos="l" depth="3" NCoef="0" IVar="-1" Cut="0" cType="1" res="0.00232773" purity="0.504551" nType="-99"/>
            <Node pos="r" depth="3" NCoef="0" IVar="5" Cut="1.19181" cType="1" res="-0.00538757" purity="0.525203" nType="0">
              <Node pos="l" depth="4" NCoef="0" IVar="-1" Cut="0" cType="1" res="0.000382897" purity="0.541646" nType="-99"/>
              <Node pos="r" depth="4" NCoef="0" IVar="-1" Cut="0" cType="1" res="-0.00527525" purity="0.421543" nType="-99"/>
            </Node>
          </Node>
        </Node>
        <Node pos="r" depth="1" NCoef="0" IVar="1" Cut="110492" cType="1" res="0.021268" purity="0.504051" nType="0">
          <Node pos="l" depth="2" NCoef="0" IVar="2" Cut="-2819.41" cType="1" res="0.046672" purity="0.501444" nType="0">
            <Node pos="l" depth="3" NCoef="0" IVar="-1" Cut="0" cType="1" res="0.000480089" purity="0.417268" nType="-99"/>
            <Node pos="r" depth="3" NCoef="0" IVar="4" Cut="197625" cType="1" res="0.0639701" purity="0.539539" nType="0">
              <Node pos="l" depth="4" NCoef="0" IVar="-1" Cut="0" cType="1" res="0.00159369" purity="0.536229" nType="-99"/>
              <Node pos="r" depth="4" NCoef="0" IVar="-1" Cut="0" cType="1" res="0.00433316" purity="0.543083" nType="-99"/>
            </Node>
          </Node>
          <Node pos="r" depth="2" NCoef="0" IVar="3" Cut="148422" cType="1" res="0.00824914" purity="0.505386" nType="0">
            <Node pos="l" depth="3" NCoef="0" IVar="4" Cut="276528" cType="1" res="0.0441161" purity="0.546504" nType="0">
              <Node pos="l" depth="4" NCoef="0" IVar="-1" Cut="0" cType="1" res="0.00281344" purity="0.592431" nType="-99"/>
              <Node pos="r" depth="4" NCoef="0" IVar="-1" Cut="0" cType="1" res="0.000568635" purity="0.482976" nType="-99"/>
            </Node>
            <Node pos="r" depth="3" NCoef="0" IVar="0" Cut="158468" cType="1" res="-0.00580158" purity="0.489279" nType="0">
              <Node pos="l" depth="4" NCoef="0" IVar="-1" Cut="0" cType="1" res="-0.00113499" purity="0.456731" nType="-99"/>
              <Node pos="r" depth="4" NCoef="0" IVar="-1" Cut="0" cType="1" res="0.00168072" purity="0.582533" nType="-99"/>
            </Node>
          </Node>
        </Node>
      </Node>
    </BinaryTree>
  </Weights>
</MethodSetup>
