<?xml version="1.0"?>
<MethodSetup Method="BDT::BDTG">
  <GeneralInfo>
    <Info name="TMVA Release" value="4.2.1 [262657]"/>
    <Info name="ROOT Release" value="6.14/04 [396804]"/>
    <Info name="Creator" value="unok"/>
    <Info name="Date" value="Mon Jan 14 16:03:50 2019"/>
    <Info name="Host" value="Linux lcgapp-slc6-x86-64-39.cern.ch 2.6.32-696.30.1.el6.x86_64 #1 SMP Tue May 22 06:09:36 CEST 2018 x86_64 x86_64 x86_64 GNU/Linux"/>
    <Info name="Dir" value="/gpfs/fs6001/unok/TMVA/2018/v142/V2/TMVA-0L"/>
    <Info name="Training events" value="997435"/>
    <Info name="TrainingTime" value="1.36484062e+03"/>
    <Info name="AnalysisType" value="Classification"/>
  </GeneralInfo>
  <Options>
    <Option name="V" modified="Yes">False</Option>
    <Option name="VerbosityLevel" modified="No">Default</Option>
    <Option name="VarTransform" modified="No">None</Option>
    <Option name="H" modified="Yes">False</Option>
    <Option name="CreateMVAPdfs" modified="No">False</Option>
    <Option name="IgnoreNegWeightsInTraining" modified="No">False</Option>
    <Option name="NTrees" modified="Yes">800</Option>
    <Option name="MaxDepth" modified="Yes">3</Option>
    <Option name="MinNodeSize" modified="Yes">2.500000%</Option>
    <Option name="nCuts" modified="Yes">20</Option>
    <Option name="BoostType" modified="Yes">Grad</Option>
    <Option name="AdaBoostR2Loss" modified="No">quadratic</Option>
    <Option name="UseBaggedBoost" modified="Yes">True</Option>
    <Option name="Shrinkage" modified="Yes">2.000000e-01</Option>
    <Option name="AdaBoostBeta" modified="No">5.000000e-01</Option>
    <Option name="UseRandomisedTrees" modified="No">False</Option>
    <Option name="UseNvars" modified="No">3</Option>
    <Option name="UsePoissonNvars" modified="No">True</Option>
    <Option name="BaggedSampleFraction" modified="Yes">5.000000e-01</Option>
    <Option name="UseYesNoLeaf" modified="No">True</Option>
    <Option name="NegWeightTreatment" modified="Yes">pray</Option>
    <Option name="Css" modified="No">1.000000e+00</Option>
    <Option name="Cts_sb" modified="No">1.000000e+00</Option>
    <Option name="Ctb_ss" modified="No">1.000000e+00</Option>
    <Option name="Cbb" modified="No">1.000000e+00</Option>
    <Option name="NodePurityLimit" modified="No">5.000000e-01</Option>
    <Option name="SeparationType" modified="No">giniindex</Option>
    <Option name="RegressionLossFunctionBDTG" modified="No">huber</Option>
    <Option name="HuberQuantile" modified="No">7.000000e-01</Option>
    <Option name="DoBoostMonitor" modified="No">False</Option>
    <Option name="UseFisherCuts" modified="No">False</Option>
    <Option name="MinLinCorrForFisher" modified="No">8.000000e-01</Option>
    <Option name="UseExclusiveVars" modified="No">False</Option>
    <Option name="DoPreselection" modified="No">False</Option>
    <Option name="SigToBkgFraction" modified="No">1.000000e+00</Option>
    <Option name="PruneMethod" modified="No">nopruning</Option>
    <Option name="PruneStrength" modified="No">0.000000e+00</Option>
    <Option name="PruningValFraction" modified="No">5.000000e-01</Option>
    <Option name="SkipNormalization" modified="No">False</Option>
    <Option name="nEventsMin" modified="No">0</Option>
    <Option name="UseBaggedGrad" modified="No">False</Option>
    <Option name="GradBaggingFraction" modified="No">5.000000e-01</Option>
    <Option name="UseNTrainEvents" modified="No">0</Option>
    <Option name="NNodesMax" modified="No">0</Option>
  </Options>
  <Variables NVar="10">
    <Variable VarIndex="0" Expression="met" Label="met" Title="E_{T}^{miss}" Unit="GeV" Internal="met" Type="F" Min="3.00000031e+02" Max="3.38783057e+03"/>
    <Variable VarIndex="1" Expression="meff" Label="meff" Title="m_{eff}(incl.)" Unit="GeV" Internal="meff" Type="F" Min="8.00004700e+02" Max="7.20206689e+03"/>
    <Variable VarIndex="2" Expression="jetPt0" Label="jetPt0" Title="p_{T}(j_{1})" Unit="GeV" Internal="jetPt0" Type="F" Min="2.00000732e+02" Max="3.35724292e+03"/>
    <Variable VarIndex="3" Expression="jetPt1" Label="jetPt1" Title="p_{T}(j_{2})" Unit="GeV" Internal="jetPt1" Type="F" Min="5.07378159e+01" Max="2.04270520e+03"/>
    <Variable VarIndex="4" Expression="jetPt2" Label="jetPt2" Title="p_{T}(j_{3})" Unit="GeV" Internal="jetPt2" Type="F" Min="5.00359535e+01" Max="1.08783679e+03"/>
    <Variable VarIndex="5" Expression="jetPt3" Label="jetPt3" Title="p_{T}(j_{4})" Unit="GeV" Internal="jetPt3" Type="F" Min="5.00000153e+01" Max="7.86924744e+02"/>
    <Variable VarIndex="6" Expression="jetEta0" Label="jetEta0" Title="#eta(j_{1})" Unit="" Internal="jetEta0" Type="F" Min="-2.78269053e+00" Max="2.79993796e+00"/>
    <Variable VarIndex="7" Expression="jetEta1" Label="jetEta1" Title="#eta(j_{2})" Unit="" Internal="jetEta1" Type="F" Min="-2.79993296e+00" Max="2.79999733e+00"/>
    <Variable VarIndex="8" Expression="jetEta2" Label="jetEta2" Title="#eta(j_{3})" Unit="" Internal="jetEta2" Type="F" Min="-2.79997253e+00" Max="2.79993677e+00"/>
    <Variable VarIndex="9" Expression="jetEta3" Label="jetEta3" Title="#eta(j_{4})" Unit="" Internal="jetEta3" Type="F" Min="-2.79996204e+00" Max="2.79998899e+00"/>
  </Variables>
  <Spectators NSpec="0">
  </Spectators>
  <Classes NClass="2">
    <Class Name="Signal" Index="0"/>
    <Class Name="Background" Index="1"/>
  </Classes>
  <Transformations NTransformations="0"/>
  <MVAPdfs/>
  <Weights NTrees="800" AnalysisType="1">
    <BinaryTree type="DecisionTree" boostWeight="1.0000000000000000e+00" itree="0">
      <Node pos="s" depth="0" NCoef="0" IVar="1" Cut="1.1048729248046875e+03" cType="1" res="5.1420135423541069e-04" rms="4.9999973177909851e-01" purity="5.0051414966583252e-01" nType="0">
        <Node pos="l" depth="1" NCoef="0" IVar="4" Cut="1.0215085601806641e+02" cType="1" res="-2.6766037940979004e-01" rms="4.2232441902160645e-01" purity="2.3233960568904877e-01" nType="0">
          <Node pos="l" depth="2" NCoef="0" IVar="0" Cut="3.7767797851562500e+02" cType="1" res="-3.2532644271850586e-01" rms="3.7968763709068298e-01" purity="1.7467354238033295e-01" nType="0">
            <Node pos="l" depth="3" NCoef="0" IVar="-1" Cut="0.0000000000000000e+00" cType="1" res="-1.4690980315208435e-01" rms="3.3927780389785767e-01" purity="1.3272546231746674e-01" nType="-99"/>
            <Node pos="r" depth="3" NCoef="0" IVar="-1" Cut="0.0000000000000000e+00" cType="1" res="-1.0218925029039383e-01" rms="4.2980632185935974e-01" purity="2.4452687799930573e-01" nType="-99"/>
          </Node>
          <Node pos="r" depth="2" NCoef="0" IVar="0" Cut="3.5317889404296875e+02" cType="1" res="-1.6681997478008270e-01" rms="4.7135028243064880e-01" purity="3.3318004012107849e-01" nType="0">
            <Node pos="l" depth="3" NCoef="0" IVar="-1" Cut="0.0000000000000000e+00" cType="1" res="-8.6103431880474091e-02" rms="4.5129120349884033e-01" purity="2.8474143147468567e-01" nType="-99"/>
            <Node pos="r" depth="3" NCoef="0" IVar="-1" Cut="0.0000000000000000e+00" cType="1" res="-4.0081568062305450e-02" rms="4.8985627293586731e-01" purity="3.9979609847068787e-01" nType="-99"/>
          </Node>
        </Node>
        <Node pos="r" depth="1" NCoef="0" IVar="5" Cut="8.5091720581054688e+01" cType="1" res="1.2689878046512604e-01" rms="4.8362869024276733e-01" purity="6.2689876556396484e-01" nType="0">
          <Node pos="l" depth="2" NCoef="0" IVar="0" Cut="4.4704339599609375e+02" cType="1" res="-2.4986654520034790e-02" rms="4.9937528371810913e-01" purity="4.7501334547996521e-01" nType="0">
            <Node pos="l" depth="3" NCoef="0" IVar="-1" Cut="0.0000000000000000e+00" cType="1" res="-6.4733371138572693e-02" rms="4.7308555245399475e-01" purity="3.3816656470298767e-01" nType="-99"/>
            <Node pos="r" depth="3" NCoef="0" IVar="-1" Cut="0.0000000000000000e+00" cType="1" res="3.1244713813066483e-02" rms="4.9386087059974670e-01" purity="5.7811176776885986e-01" nType="-99"/>
          </Node>
          <Node pos="r" depth="2" NCoef="0" IVar="0" Cut="4.4441311645507812e+02" cType="1" res="2.2993767261505127e-01" rms="4.4399175047874451e-01" purity="7.2993767261505127e-01" nType="0">
            <Node pos="l" depth="3" NCoef="0" IVar="-1" Cut="0.0000000000000000e+00" cType="1" res="3.8280133157968521e-02" rms="4.9075600504875183e-01" purity="5.9570032358169556e-01" nType="-99"/>
            <Node pos="r" depth="3" NCoef="0" IVar="-1" Cut="0.0000000000000000e+00" cType="1" res="1.3373413681983948e-01" rms="3.7177932262420654e-01" purity="8.3433532714843750e-01" nType="-99"/>
          </Node>
        </Node>
      </Node>
    </BinaryTree>
    <BinaryTree type="DecisionTree" boostWeight="1.0000000000000000e+00" itree="1">
      <Node pos="s" depth="0" NCoef="0" IVar="1" Cut="1.4083364257812500e+03" cType="1" res="5.5169388360809535e-05" rms="4.7866681218147278e-01" purity="5.0079345703125000e-01" nType="0">
        <Node pos="l" depth="1" NCoef="0" IVar="4" Cut="1.0392169952392578e+02" cType="1" res="-1.1805240809917450e-01" rms="4.6676266193389893e-01" purity="3.6054378747940063e-01" nType="0">
          <Node pos="l" depth="2" NCoef="0" IVar="3" Cut="1.5432009887695312e+02" cType="1" res="-2.2876605391502380e-01" rms="4.1169956326484680e-01" purity="2.2667258977890015e-01" nType="0">
            <Node pos="l" depth="3" NCoef="0" IVar="-1" Cut="0.0000000000000000e+00" cType="1" res="-1.1369837075471878e-01" rms="3.7089529633522034e-01" purity="1.6950684785842896e-01" nType="-99"/>
            <Node pos="r" depth="3" NCoef="0" IVar="-1" Cut="0.0000000000000000e+00" cType="1" res="-6.0216460376977921e-02" rms="4.5662948489189148e-01" purity="3.1526914238929749e-01" nType="-99"/>
          </Node>
          <Node pos="r" depth="2" NCoef="0" IVar="0" Cut="4.1103335571289062e+02" cType="1" res="-1.8251588568091393e-02" rms="4.9036812782287598e-01" purity="4.8121953010559082e-01" nType="0">
            <Node pos="l" depth="3" NCoef="0" IVar="-1" Cut="0.0000000000000000e+00" cType="1" res="-3.5658467561006546e-02" rms="4.8412713408470154e-01" purity="3.9671805500984192e-01" nType="-99"/>
            <Node pos="r" depth="3" NCoef="0" IVar="-1" Cut="0.0000000000000000e+00" cType="1" res="4.4884074479341507e-02" rms="4.7506290674209595e-01" purity="6.3645958900451660e-01" nType="-99"/>
          </Node>
        </Node>
        <Node pos="r" depth="1" NCoef="0" IVar="2" Cut="4.9879882812500000e+02" cType="1" res="2.0829193294048309e-01" rms="4.2545038461685181e-01" purity="7.4806916713714600e-01" nType="0">
          <Node pos="l" depth="2" NCoef="0" IVar="0" Cut="4.2155068969726562e+02" cType="1" res="2.8038594126701355e-01" rms="3.7424221634864807e-01" purity="8.2497537136077881e-01" nType="0">
            <Node pos="l" depth="3" NCoef="0" IVar="-1" Cut="0.0000000000000000e+00" cType="1" res="6.8399198353290558e-02" rms="4.6392181515693665e-01" purity="6.8348300457000732e-01" nType="-99"/>
            <Node pos="r" depth="3" NCoef="0" IVar="-1" Cut="0.0000000000000000e+00" cType="1" res="1.2543782591819763e-01" rms="3.4081244468688965e-01" purity="8.6239713430404663e-01" nType="-99"/>
          </Node>
          <Node pos="r" depth="2" NCoef="0" IVar="1" Cut="1.6835378417968750e+03" cType="1" res="1.0376392304897308e-01" rms="4.7108384966850281e-01" purity="6.3656413555145264e-01" nType="0">
            <Node pos="l" depth="3" NCoef="0" IVar="-1" Cut="0.0000000000000000e+00" cType="1" res="-2.5728814303874969e-02" rms="4.9032524228096008e-01" purity="4.4872552156448364e-01" nType="-99"/>
            <Node pos="r" depth="3" NCoef="0" IVar="-1" Cut="0.0000000000000000e+00" cType="1" res="7.5455270707607269e-02" rms="4.3818724155426025e-01" purity="7.2935473918914795e-01" nType="-99"/>
          </Node>
        </Node>
      </Node>
    </BinaryTree>
    <BinaryTree type="DecisionTree" boostWeight="1.0000000000000000e+00" itree="2">
      <Node pos="s" depth="0" NCoef="0" IVar="4" Cut="1.4473245239257812e+02" cType="1" res="4.3954499997198582e-03" rms="4.6430015563964844e-01" purity="5.0440543889999390e-01" nType="0">
        <Node pos="l" depth="1" NCoef="0" IVar="0" Cut="4.1392852783203125e+02" cType="1" res="-9.2921040952205658e-02" rms="4.5766785740852356e-01" purity="3.7079030275344849e-01" nType="0">
          <Node pos="l" depth="2" NCoef="0" IVar="5" Cut="6.7969963073730469e+01" cType="1" res="-1.7639598250389099e-01" rms="4.2292261123657227e-01" purity="2.4886181950569153e-01" nType="0">
            <Node pos="l" depth="3" NCoef="0" IVar="-1" Cut="0.0000000000000000e+00" cType="1" res="-1.0347913950681686e-01" rms="3.5934668779373169e-01" purity="1.5790461003780365e-01" nType="-99"/>
            <Node pos="r" depth="3" NCoef="0" IVar="-1" Cut="0.0000000000000000e+00" cType="1" res="-4.3762691318988800e-02" rms="4.6567007899284363e-01" purity="3.3628031611442566e-01" nType="-99"/>
          </Node>
          <Node pos="r" depth="2" NCoef="0" IVar="4" Cut="9.5178337097167969e+01" cType="1" res="1.7150280997157097e-02" rms="4.7801756858825684e-01" purity="5.3156709671020508e-01" nType="0">
            <Node pos="l" depth="3" NCoef="0" IVar="-1" Cut="0.0000000000000000e+00" cType="1" res="-3.9005395025014877e-02" rms="4.7028928995132446e-01" purity="3.6600366234779358e-01" nType="-99"/>
            <Node pos="r" depth="3" NCoef="0" IVar="-1" Cut="0.0000000000000000e+00" cType="1" res="3.7831872701644897e-02" rms="4.6820390224456787e-01" purity="6.4223223924636841e-01" nType="-99"/>
          </Node>
        </Node>
        <Node pos="r" depth="1" NCoef="0" IVar="0" Cut="4.4441497802734375e+02" cType="1" res="1.5878467261791229e-01" rms="4.3175786733627319e-01" purity="7.1638113260269165e-01" nType="0">
          <Node pos="l" depth="2" NCoef="0" IVar="5" Cut="1.2213701629638672e+02" cType="1" res="6.3553303480148315e-02" rms="4.8650303483009338e-01" purity="5.6956833600997925e-01" nType="0">
            <Node pos="l" depth="3" NCoef="0" IVar="-1" Cut="0.0000000000000000e+00" cType="1" res="-4.5706266537308693e-03" rms="4.9397543072700500e-01" purity="4.7517642378807068e-01" nType="-99"/>
            <Node pos="r" depth="3" NCoef="0" IVar="-1" Cut="0.0000000000000000e+00" cType="1" res="6.4298219978809357e-02" rms="4.5924875140190125e-01" purity="6.9047600030899048e-01" nType="-99"/>
          </Node>
          <Node pos="r" depth="2" NCoef="0" IVar="5" Cut="1.2018401336669922e+02" cType="1" res="2.4107560515403748e-01" rms="3.5828334093093872e-01" purity="8.4324437379837036e-01" nType="0">
            <Node pos="l" depth="3" NCoef="0" IVar="-1" Cut="0.0000000000000000e+00" cType="1" res="8.3977490663528442e-02" rms="4.0337890386581421e-01" purity="7.8847634792327881e-01" nType="-99"/>
            <Node pos="r" depth="3" NCoef="0" IVar="-1" Cut="0.0000000000000000e+00" cType="1" res="1.1649605631828308e-01" rms="3.0890655517578125e-01" purity="8.9184200763702393e-01" nType="-99"/>
          </Node>
        </Node>
      </Node>
    </BinaryTree>
    <BinaryTree type="DecisionTree" boostWeight="1.0000000000000000e+00" itree="3">
      <Node pos="s" depth="0" NCoef="0" IVar="1" Cut="1.1048719482421875e+03" cType="1" res="3.5542421974241734e-03" rms="4.5329672098159790e-01" purity="5.0308614969253540e-01" nType="0">
        <Node pos="l" depth="1" NCoef="0" IVar="5" Cut="8.0892974853515625e+01" cType="1" res="-1.4839255809783936e-01" rms="4.1440227627754211e-01" purity="2.3347614705562592e-01" nType="0">
          <Node pos="l" depth="2" NCoef="0" IVar="6" Cut="9.5380014181137085e-01" cType="1" res="-1.7700821161270142e-01" rms="3.8909175992012024e-01" purity="1.9449704885482788e-01" nType="0">
            <Node pos="l" depth="3" NCoef="0" IVar="-1" Cut="0.0000000000000000e+00" cType="1" res="-6.6438429057598114e-02" rms="4.0605592727661133e-01" purity="2.1804471313953400e-01" nType="-99"/>
            <Node pos="r" depth="3" NCoef="0" IVar="-1" Cut="0.0000000000000000e+00" cType="1" res="-1.1499144136905670e-01" rms="2.9966324567794800e-01" purity="1.0429967939853668e-01" nType="-99"/>
          </Node>
          <Node pos="r" depth="2" NCoef="0" IVar="-1" Cut="0.0000000000000000e+00" cType="1" res="-1.8972903490066528e-02" rms="4.8079463839530945e-01" purity="3.7317731976509094e-01" nType="-99"/>
        </Node>
        <Node pos="r" depth="1" NCoef="0" IVar="4" Cut="9.7379203796386719e+01" cType="1" res="7.5053356587886810e-02" rms="4.5319122076034546e-01" purity="6.2995213270187378e-01" nType="0">
          <Node pos="l" depth="2" NCoef="0" IVar="0" Cut="5.3662432861328125e+02" cType="1" res="-9.9718958139419556e-02" rms="4.6537911891937256e-01" purity="3.5512813925743103e-01" nType="0">
            <Node pos="l" depth="3" NCoef="0" IVar="-1" Cut="0.0000000000000000e+00" cType="1" res="-6.2930576503276825e-02" rms="4.3991991877555847e-01" purity="2.7816233038902283e-01" nType="-99"/>
            <Node pos="r" depth="3" NCoef="0" IVar="-1" Cut="0.0000000000000000e+00" cType="1" res="1.4632634120061994e-03" rms="4.9487218260765076e-01" purity="5.0382274389266968e-01" nType="-99"/>
          </Node>
          <Node pos="r" depth="2" NCoef="0" IVar="6" Cut="1.2094982862472534e+00" cType="1" res="1.0724740475416183e-01" rms="4.4346016645431519e-01" purity="6.8057626485824585e-01" nType="0">
            <Node pos="l" depth="3" NCoef="0" IVar="-1" Cut="0.0000000000000000e+00" cType="1" res="5.3776148706674576e-02" rms="4.3522343039512634e-01" purity="7.0296621322631836e-01" nType="-99"/>
            <Node pos="r" depth="3" NCoef="0" IVar="-1" Cut="0.0000000000000000e+00" cType="1" res="-5.2992496639490128e-02" rms="4.6706944704055786e-01" purity="4.2842641472816467e-01" nType="-99"/>
          </Node>
        </Node>
      </Node>
    </BinaryTree>
    <BinaryTree type="DecisionTree" boostWeight="1.0000000000000000e+00" itree="4">
      <Node pos="s" depth="0" NCoef="0" IVar="1" Cut="1.3775565185546875e+03" cType="1" res="-1.8823183199856430e-04" rms="4.4550645351409912e-01" purity="5.0112241506576538e-01" nType="0">
        <Node pos="l" depth="1" NCoef="0" IVar="6" Cut="-1.1661134958267212e+00" cType="1" res="-6.9876611232757568e-02" rms="4.4808208942413330e-01" purity="3.5828083753585815e-01" nType="0">
          <Node pos="l" depth="2" NCoef="0" IVar="6" Cut="-1.4682998657226562e+00" cType="1" res="-2.3429988324642181e-01" rms="3.6568692326545715e-01" purity="1.8153543770313263e-01" nType="0">
            <Node pos="l" depth="3" NCoef="0" IVar="-1" Cut="0.0000000000000000e+00" cType="1" res="-1.1953736841678619e-01" rms="3.2439634203910828e-01" purity="1.3129433989524841e-01" nType="-99"/>
            <Node pos="r" depth="3" NCoef="0" IVar="-1" Cut="0.0000000000000000e+00" cType="1" res="-7.1561969816684723e-02" rms="4.1190078854560852e-01" purity="2.5778120756149292e-01" nType="-99"/>
          </Node>
          <Node pos="r" depth="2" NCoef="0" IVar="6" Cut="1.1002300977706909e+00" cType="1" res="-4.3814603239297867e-02" rms="4.5435783267021179e-01" purity="3.8629594445228577e-01" nType="0">
            <Node pos="l" depth="3" NCoef="0" IVar="-1" Cut="0.0000000000000000e+00" cType="1" res="-4.5817624777555466e-03" rms="4.6288651227951050e-01" purity="4.2789950966835022e-01" nType="-99"/>
            <Node pos="r" depth="3" NCoef="0" IVar="-1" Cut="0.0000000000000000e+00" cType="1" res="-8.5792459547519684e-02" rms="3.7640559673309326e-01" purity="1.9347742199897766e-01" nType="-99"/>
          </Node>
        </Node>
        <Node pos="r" depth="1" NCoef="0" IVar="2" Cut="4.7979809570312500e+02" cType="1" res="1.1402336508035660e-01" rms="4.1677385568618774e-01" purity="7.3522406816482544e-01" nType="0">
          <Node pos="l" depth="2" NCoef="0" IVar="6" Cut="-8.7951701879501343e-01" cType="1" res="1.7560566961765289e-01" rms="3.7040141224861145e-01" purity="8.2120275497436523e-01" nType="0">
            <Node pos="l" depth="3" NCoef="0" IVar="-1" Cut="0.0000000000000000e+00" cType="1" res="1.6953824087977409e-02" rms="4.4982862472534180e-01" purity="6.8543958663940430e-01" nType="-99"/>
            <Node pos="r" depth="3" NCoef="0" IVar="-1" Cut="0.0000000000000000e+00" cType="1" res="8.6729742586612701e-02" rms="3.5293054580688477e-01" purity="8.4096592664718628e-01" nType="-99"/>
          </Node>
          <Node pos="r" depth="2" NCoef="0" IVar="0" Cut="5.7298510742187500e+02" cType="1" res="3.2256059348583221e-02" rms="4.5874518156051636e-01" purity="6.2106382846832275e-01" nType="0">
            <Node pos="l" depth="3" NCoef="0" IVar="-1" Cut="0.0000000000000000e+00" cType="1" res="-1.6240814700722694e-02" rms="4.7799125313758850e-01" purity="5.1976549625396729e-01" nType="-99"/>
            <Node pos="r" depth="3" NCoef="0" IVar="-1" Cut="0.0000000000000000e+00" cType="1" res="5.0325836986303329e-02" rms="4.1978105902671814e-01" purity="7.4045306444168091e-01" nType="-99"/>
          </Node>
        </Node>
      </Node>
    </BinaryTree>
    <BinaryTree type="DecisionTree" boostWeight="1.0000000000000000e+00" itree="5">
      <Node pos="s" depth="0" NCoef="0" IVar="5" Cut="8.3530998229980469e+01" cType="1" res="-4.0636402554810047e-03" rms="4.3885159492492676e-01" purity="4.9678286910057068e-01" nType="0">
        <Node pos="l" depth="1" NCoef="0" IVar="0" Cut="4.3884332275390625e+02" cType="1" res="-8.0097183585166931e-02" rms="4.3192404508590698e-01" purity="3.3361163735389709e-01" nType="0">
          <Node pos="l" depth="2" NCoef="0" IVar="7" Cut="-1.1997066736221313e+00" cType="1" res="-1.2562391161918640e-01" rms="4.0286561846733093e-01" purity="2.2761015594005585e-01" nType="0">
            <Node pos="l" depth="3" NCoef="0" IVar="-1" Cut="0.0000000000000000e+00" cType="1" res="-1.0916849970817566e-01" rms="2.9589030146598816e-01" purity="9.9902689456939697e-02" nType="-99"/>
            <Node pos="r" depth="3" NCoef="0" IVar="-1" Cut="0.0000000000000000e+00" cType="1" res="-4.6032983809709549e-02" rms="4.1704016923904419e-01" purity="2.5278407335281372e-01" nType="-99"/>
          </Node>
          <Node pos="r" depth="2" NCoef="0" IVar="3" Cut="1.3852429199218750e+02" cType="1" res="3.5289300139993429e-03" rms="4.6937802433967590e-01" purity="5.2832120656967163e-01" nType="0">
            <Node pos="l" depth="3" NCoef="0" IVar="-1" Cut="0.0000000000000000e+00" cType="1" res="-4.3894752860069275e-02" rms="4.5333945751190186e-01" purity="3.2635483145713806e-01" nType="-99"/>
            <Node pos="r" depth="3" NCoef="0" IVar="-1" Cut="0.0000000000000000e+00" cType="1" res="1.6294619068503380e-02" rms="4.6919280290603638e-01" purity="5.9454303979873657e-01" nType="-99"/>
          </Node>
        </Node>
        <Node pos="r" depth="1" NCoef="0" IVar="0" Cut="4.3267996215820312e+02" cType="1" res="8.0036520957946777e-02" rms="4.3104037642478943e-01" purity="6.7726540565490723e-01" nType="0">
          <Node pos="l" depth="2" NCoef="0" IVar="6" Cut="-1.1745649576187134e+00" cType="1" res="1.4269112609326839e-02" rms="4.7779217362403870e-01" purity="5.2399688959121704e-01" nType="0">
            <Node pos="l" depth="3" NCoef="0" IVar="-1" Cut="0.0000000000000000e+00" cType="1" res="-7.4872933328151703e-02" rms="4.4140887260437012e-01" purity="2.8821489214897156e-01" nType="-99"/>
            <Node pos="r" depth="3" NCoef="0" IVar="-1" Cut="0.0000000000000000e+00" cType="1" res="1.6360193490982056e-02" rms="4.7654187679290771e-01" purity="5.5473303794860840e-01" nType="-99"/>
          </Node>
          <Node pos="r" depth="2" NCoef="0" IVar="7" Cut="9.3233603239059448e-01" cType="1" res="1.3898523151874542e-01" rms="3.7464603781700134e-01" purity="8.1464320421218872e-01" nType="0">
            <Node pos="l" depth="3" NCoef="0" IVar="-1" Cut="0.0000000000000000e+00" cType="1" res="7.2712644934654236e-02" rms="3.6001741886138916e-01" purity="8.3296239376068115e-01" nType="-99"/>
            <Node pos="r" depth="3" NCoef="0" IVar="-1" Cut="0.0000000000000000e+00" cType="1" res="1.9028987735509872e-02" rms="4.3670052289962769e-01" purity="7.0970106124877930e-01" nType="-99"/>
          </Node>
        </Node>
      </Node>
    </BinaryTree>
    <BinaryTree type="DecisionTree" boostWeight="1.0000000000000000e+00" itree="6">
      <Node pos="s" depth="0" NCoef="0" IVar="4" Cut="1.4895869445800781e+02" cType="1" res="-1.8885564059019089e-03" rms="4.3366858363151550e-01" purity="4.9678122997283936e-01" nType="0">
        <Node pos="l" depth="1" NCoef="0" IVar="0" Cut="4.4205529785156250e+02" cType="1" res="-5.2700232714414597e-02" rms="4.3519458174705505e-01" purity="3.7226763367652893e-01" nType="0">
          <Node pos="l" depth="2" NCoef="0" IVar="7" Cut="1.2000476121902466e+00" cType="1" res="-9.6165530383586884e-02" rms="4.1480493545532227e-01" purity="2.5768041610717773e-01" nType="0">
            <Node pos="l" depth="3" NCoef="0" IVar="-1" Cut="0.0000000000000000e+00" cType="1" res="-3.2983090728521347e-02" rms="4.2596396803855896e-01" purity="2.8318235278129578e-01" nType="-99"/>
            <Node pos="r" depth="3" NCoef="0" IVar="-1" Cut="0.0000000000000000e+00" cType="1" res="-9.9629893898963928e-02" rms="3.2572278380393982e-01" purity="1.2616279721260071e-01" nType="-99"/>
          </Node>
          <Node pos="r" depth="2" NCoef="0" IVar="7" Cut="-1.1999006271362305e+00" cType="1" res="2.6489427313208580e-02" rms="4.5962718129158020e-01" purity="5.8103471994400024e-01" nType="0">
            <Node pos="l" depth="3" NCoef="0" IVar="-1" Cut="0.0000000000000000e+00" cType="1" res="-5.5249504745006561e-02" rms="4.6105864644050598e-01" purity="4.0250003337860107e-01" nType="-99"/>
            <Node pos="r" depth="3" NCoef="0" IVar="-1" Cut="0.0000000000000000e+00" cType="1" res="2.1041220054030418e-02" rms="4.5511046051979065e-01" purity="6.0662961006164551e-01" nType="-99"/>
          </Node>
        </Node>
        <Node pos="r" depth="1" NCoef="0" IVar="7" Cut="1.1999994516372681e+00" cType="1" res="8.9484639465808868e-02" rms="4.1556251049041748e-01" purity="7.2069048881530762e-01" nType="0">
          <Node pos="l" depth="2" NCoef="0" IVar="7" Cut="-1.2759677171707153e+00" cType="1" res="1.0866696387529373e-01" rms="4.0538844466209412e-01" purity="7.4333232641220093e-01" nType="0">
            <Node pos="l" depth="3" NCoef="0" IVar="-1" Cut="0.0000000000000000e+00" cType="1" res="-3.9954852312803268e-02" rms="4.5621320605278015e-01" purity="5.2266120910644531e-01" nType="-99"/>
            <Node pos="r" depth="3" NCoef="0" IVar="-1" Cut="0.0000000000000000e+00" cType="1" res="5.9212621301412582e-02" rms="3.9385178685188293e-01" purity="7.6678103208541870e-01" nType="-99"/>
          </Node>
          <Node pos="r" depth="2" NCoef="0" IVar="-1" Cut="0.0000000000000000e+00" cType="1" res="-3.6686755716800690e-02" rms="4.6341291069984436e-01" purity="5.1684576272964478e-01" nType="-99"/>
        </Node>
      </Node>
    </BinaryTree>
    <BinaryTree type="DecisionTree" boostWeight="1.0000000000000000e+00" itree="7">
      <Node pos="s" depth="0" NCoef="0" IVar="5" Cut="1.1706212615966797e+02" cType="1" res="4.2650655814213678e-05" rms="4.2814239859580994e-01" purity="4.9999243021011353e-01" nType="0">
        <Node pos="l" depth="1" NCoef="0" IVar="6" Cut="9.4501709938049316e-01" cType="1" res="-3.2901365309953690e-02" rms="4.3675699830055237e-01" purity="4.1262382268905640e-01" nType="0">
          <Node pos="l" depth="2" NCoef="0" IVar="6" Cut="-9.9823433160781860e-01" cType="1" res="-8.4016053006052971e-03" rms="4.4375759363174438e-01" purity="4.5078086853027344e-01" nType="0">
            <Node pos="l" depth="3" NCoef="0" IVar="-1" Cut="0.0000000000000000e+00" cType="1" res="-7.1599088609218597e-02" rms="3.8558501005172729e-01" purity="2.3538941144943237e-01" nType="-99"/>
            <Node pos="r" depth="3" NCoef="0" IVar="-1" Cut="0.0000000000000000e+00" cType="1" res="1.1614753864705563e-02" rms="4.4960057735443115e-01" purity="5.0176304578781128e-01" nType="-99"/>
          </Node>
          <Node pos="r" depth="2" NCoef="0" IVar="6" Cut="1.8283133506774902e+00" cType="1" res="-1.5006607770919800e-01" rms="3.8036829233169556e-01" purity="2.3014633357524872e-01" nType="0">
            <Node pos="l" depth="3" NCoef="0" IVar="-1" Cut="0.0000000000000000e+00" cType="1" res="-5.8512225747108459e-02" rms="4.0073147416114807e-01" purity="2.6630085706710815e-01" nType="-99"/>
            <Node pos="r" depth="3" NCoef="0" IVar="-1" Cut="0.0000000000000000e+00" cType="1" res="-1.1676416546106339e-01" rms="2.7292567491531372e-01" purity="9.5165923237800598e-02" nType="-99"/>
          </Node>
        </Node>
        <Node pos="r" depth="1" NCoef="0" IVar="6" Cut="-9.2265301942825317e-01" cType="1" res="1.0946615785360336e-01" rms="3.7812668085098267e-01" purity="7.9018700122833252e-01" nType="0">
          <Node pos="l" depth="2" NCoef="0" IVar="-1" Cut="0.0000000000000000e+00" cType="1" res="-4.0695243515074253e-03" rms="4.4551566243171692e-01" purity="6.2425529956817627e-01" nType="-99"/>
          <Node pos="r" depth="2" NCoef="0" IVar="6" Cut="1.0259629487991333e+00" cType="1" res="1.2725156545639038e-01" rms="3.6361584067344666e-01" purity="8.1512689590454102e-01" nType="0">
            <Node pos="l" depth="3" NCoef="0" IVar="-1" Cut="0.0000000000000000e+00" cType="1" res="7.1134924888610840e-02" rms="3.4657636284828186e-01" purity="8.4119582176208496e-01" nType="-99"/>
            <Node pos="r" depth="3" NCoef="0" IVar="-1" Cut="0.0000000000000000e+00" cType="1" res="4.5760096982121468e-03" rms="4.4355243444442749e-01" purity="6.4207237958908081e-01" nType="-99"/>
          </Node>
        </Node>
      </Node>
    </BinaryTree>
    <BinaryTree type="DecisionTree" boostWeight="1.0000000000000000e+00" itree="8">
      <Node pos="s" depth="0" NCoef="0" IVar="5" Cut="7.8109718322753906e+01" cType="1" res="-5.0123472465202212e-04" rms="4.2318853735923767e-01" purity="5.0030732154846191e-01" nType="0">
        <Node pos="l" depth="1" NCoef="0" IVar="6" Cut="-9.0996336936950684e-01" cType="1" res="-5.8520611375570297e-02" rms="4.1881388425827026e-01" purity="3.1818741559982300e-01" nType="0">
          <Node pos="l" depth="2" NCoef="0" IVar="8" Cut="-6.6600406169891357e-01" cType="1" res="-1.6461965441703796e-01" rms="3.3581852912902832e-01" purity="1.5285573899745941e-01" nType="0">
            <Node pos="l" depth="3" NCoef="0" IVar="-1" Cut="0.0000000000000000e+00" cType="1" res="-1.0329181700944901e-01" rms="2.8656327724456787e-01" purity="1.0049144923686981e-01" nType="-99"/>
            <Node pos="r" depth="3" NCoef="0" IVar="-1" Cut="0.0000000000000000e+00" cType="1" res="-6.9476857781410217e-02" rms="3.5915857553482056e-01" purity="1.8312485516071320e-01" nType="-99"/>
          </Node>
          <Node pos="r" depth="2" NCoef="0" IVar="6" Cut="8.5657465457916260e-01" cType="1" res="-3.4712221473455429e-02" rms="4.3170180916786194e-01" purity="3.5528746247291565e-01" nType="0">
            <Node pos="l" depth="3" NCoef="0" IVar="-1" Cut="0.0000000000000000e+00" cType="1" res="-1.3960037613287568e-03" rms="4.5026147365570068e-01" purity="4.1538992524147034e-01" nType="-99"/>
            <Node pos="r" depth="3" NCoef="0" IVar="-1" Cut="0.0000000000000000e+00" cType="1" res="-6.4633093774318695e-02" rms="3.5656601190567017e-01" purity="1.7977951467037201e-01" nType="-99"/>
          </Node>
        </Node>
        <Node pos="r" depth="1" NCoef="0" IVar="7" Cut="-1.4664508104324341e+00" cType="1" res="4.9920920282602310e-02" rms="4.2050182819366455e-01" purity="6.5858000516891479e-01" nType="0">
          <Node pos="l" depth="2" NCoef="0" IVar="-1" Cut="0.0000000000000000e+00" cType="1" res="-6.2642581760883331e-02" rms="4.3495205044746399e-01" purity="3.9947679638862610e-01" nType="-99"/>
          <Node pos="r" depth="2" NCoef="0" IVar="7" Cut="1.5809862613677979e+00" cType="1" res="6.4527750015258789e-02" rms="4.1578352451324463e-01" purity="6.7842471599578857e-01" nType="0">
            <Node pos="l" depth="3" NCoef="0" IVar="-1" Cut="0.0000000000000000e+00" cType="1" res="3.6372877657413483e-02" rms="4.1042950749397278e-01" purity="6.9789540767669678e-01" nType="-99"/>
            <Node pos="r" depth="3" NCoef="0" IVar="-1" Cut="0.0000000000000000e+00" cType="1" res="-5.1849748939275742e-02" rms="4.4741478562355042e-01" purity="4.0427863597869873e-01" nType="-99"/>
          </Node>
        </Node>
      </Node>
    </BinaryTree>
    <BinaryTree type="DecisionTree" boostWeight="1.0000000000000000e+00" itree="9">
      <Node pos="s" depth="0" NCoef="0" IVar="3" Cut="1.4284295654296875e+02" cType="1" res="5.1733484724536538e-04" rms="4.2111924290657043e-01" purity="5.0082093477249146e-01" nType="0">
        <Node pos="l" depth="1" NCoef="0" IVar="4" Cut="7.6504684448242188e+01" cType="1" res="-9.4496667385101318e-02" rms="3.8399133086204529e-01" purity="2.2307540476322174e-01" nType="0">
          <Node pos="l" depth="2" NCoef="0" IVar="3" Cut="9.9072273254394531e+01" cType="1" res="-1.4913032948970795e-01" rms="3.0923041701316833e-01" purity="1.1314793676137924e-01" nType="0">
            <Node pos="l" depth="3" NCoef="0" IVar="-1" Cut="0.0000000000000000e+00" cType="1" res="-9.5743536949157715e-02" rms="2.7336052060127258e-01" purity="8.0672420561313629e-02" nType="-99"/>
            <Node pos="r" depth="3" NCoef="0" IVar="-1" Cut="0.0000000000000000e+00" cType="1" res="-6.2012385576963425e-02" rms="3.4184902906417847e-01" purity="1.4925824105739594e-01" nType="-99"/>
          </Node>
          <Node pos="r" depth="2" NCoef="0" IVar="8" Cut="-9.3336910009384155e-01" cType="1" res="-6.6534698009490967e-02" rms="4.1432443261146545e-01" purity="2.7933722734451294e-01" nType="0">
            <Node pos="l" depth="3" NCoef="0" IVar="-1" Cut="0.0000000000000000e+00" cType="1" res="-6.2799535691738129e-02" rms="3.7332051992416382e-01" purity="1.9836708903312683e-01" nType="-99"/>
            <Node pos="r" depth="3" NCoef="0" IVar="-1" Cut="0.0000000000000000e+00" cType="1" res="-2.2653479129076004e-02" rms="4.2453828454017639e-01" purity="3.0470934510231018e-01" nType="-99"/>
          </Node>
        </Node>
        <Node pos="r" depth="1" NCoef="0" IVar="7" Cut="1.4665729999542236e+00" cType="1" res="2.8020694851875305e-02" rms="4.2734590172767639e-01" purity="5.8121889829635620e-01" nType="0">
          <Node pos="l" depth="2" NCoef="0" IVar="7" Cut="-1.3777679204940796e+00" cType="1" res="4.1602175682783127e-02" rms="4.2608419060707092e-01" purity="6.0259014368057251e-01" nType="0">
            <Node pos="l" depth="3" NCoef="0" IVar="-1" Cut="0.0000000000000000e+00" cType="1" res="-5.2123107016086578e-02" rms="4.1099375486373901e-01" purity="3.5041886568069458e-01" nType="-99"/>
            <Node pos="r" depth="3" NCoef="0" IVar="-1" Cut="0.0000000000000000e+00" cType="1" res="2.7703780680894852e-02" rms="4.2421549558639526e-01" purity="6.3071370124816895e-01" nType="-99"/>
          </Node>
          <Node pos="r" depth="2" NCoef="0" IVar="7" Cut="1.7840311527252197e+00" cType="1" res="-1.4010058343410492e-01" rms="4.0670096874237061e-01" purity="3.1667029857635498e-01" nType="0">
            <Node pos="l" depth="3" NCoef="0" IVar="-1" Cut="0.0000000000000000e+00" cType="1" res="-3.4289471805095673e-02" rms="4.3057271838188171e-01" purity="4.0296244621276855e-01" nType="-99"/>
            <Node pos="r" depth="3" NCoef="0" IVar="-1" Cut="0.0000000000000000e+00" cType="1" res="-8.8346116244792938e-02" rms="3.7734007835388184e-01" purity="2.4487581849098206e-01" nType="-99"/>
          </Node>
        </Node>
      </Node>
    </BinaryTree>
    <BinaryTree type="DecisionTree" boostWeight="1.0000000000000000e+00" itree="10">
      <Node pos="s" depth="0" NCoef="0" IVar="0" Cut="4.4205505371093750e+02" cType="1" res="2.1034774836152792e-03" rms="4.1854012012481689e-01" purity="5.0258994102478027e-01" nType="0">
        <Node pos="l" depth="1" NCoef="0" IVar="0" Cut="3.3382260131835938e+02" cType="1" res="-3.9152096956968307e-02" rms="4.2393553256988525e-01" purity="3.5298755764961243e-01" nType="0">
          <Node pos="l" depth="2" NCoef="0" IVar="2" Cut="3.7484356689453125e+02" cType="1" res="-1.0014019161462784e-01" rms="3.9923936128616333e-01" purity="2.5996327400207520e-01" nType="0">
            <Node pos="l" depth="3" NCoef="0" IVar="-1" Cut="0.0000000000000000e+00" cType="1" res="-3.6069639027118683e-02" rms="4.0420633554458618e-01" purity="2.7020776271820068e-01" nType="-99"/>
            <Node pos="r" depth="3" NCoef="0" IVar="-1" Cut="0.0000000000000000e+00" cType="1" res="-8.1830076873302460e-02" rms="3.7461885809898376e-01" purity="2.3081102967262268e-01" nType="-99"/>
          </Node>
          <Node pos="r" depth="2" NCoef="0" IVar="5" Cut="9.6272209167480469e+01" cType="1" res="-1.1325343511998653e-02" rms="4.3188592791557312e-01" purity="3.9543125033378601e-01" nType="0">
            <Node pos="l" depth="3" NCoef="0" IVar="-1" Cut="0.0000000000000000e+00" cType="1" res="-1.9970070570707321e-02" rms="4.2049393057823181e-01" purity="2.8456655144691467e-01" nType="-99"/>
            <Node pos="r" depth="3" NCoef="0" IVar="-1" Cut="0.0000000000000000e+00" cType="1" res="2.4598447605967522e-02" rms="4.4945651292800903e-01" purity="6.4697039127349854e-01" nType="-99"/>
          </Node>
        </Node>
        <Node pos="r" depth="1" NCoef="0" IVar="6" Cut="-1.1878567934036255e+00" cType="1" res="5.7917870581150055e-02" rms="4.0448525547981262e-01" purity="7.0498603582382202e-01" nType="0">
          <Node pos="l" depth="2" NCoef="0" IVar="-1" Cut="0.0000000000000000e+00" cType="1" res="-3.3103242516517639e-02" rms="4.4106185436248779e-01" purity="4.8101499676704407e-01" nType="-99"/>
          <Node pos="r" depth="2" NCoef="0" IVar="6" Cut="1.0904839038848877e+00" cType="1" res="6.9087706506252289e-02" rms="3.9919421076774597e-01" purity="7.2451448440551758e-01" nType="0">
            <Node pos="l" depth="3" NCoef="0" IVar="-1" Cut="0.0000000000000000e+00" cType="1" res="4.0750432759523392e-02" rms="3.9291596412658691e-01" purity="7.4999433755874634e-01" nType="-99"/>
            <Node pos="r" depth="3" NCoef="0" IVar="-1" Cut="0.0000000000000000e+00" cType="1" res="-2.0342333242297173e-02" rms="4.3361002206802368e-01" purity="5.0484180450439453e-01" nType="-99"/>
          </Node>
        </Node>
      </Node>
    </BinaryTree>
    <BinaryTree type="DecisionTree" boostWeight="1.0000000000000000e+00" itree="11">
      <Node pos="s" depth="0" NCoef="0" IVar="8" Cut="1.4666249752044678e+00" cType="1" res="-7.7601394150406122e-04" rms="4.1614848375320435e-01" purity="4.9927574396133423e-01" nType="0">
        <Node pos="l" depth="1" NCoef="0" IVar="8" Cut="-1.5809448957443237e+00" cType="1" res="1.3730685226619244e-02" rms="4.1575202345848083e-01" purity="5.2192014455795288e-01" nType="0">
          <Node pos="l" depth="2" NCoef="0" IVar="8" Cut="-1.9872967004776001e+00" cType="1" res="-1.2937572598457336e-01" rms="3.8919034600257874e-01" purity="2.9174870252609253e-01" nType="0">
            <Node pos="l" depth="3" NCoef="0" IVar="-1" Cut="0.0000000000000000e+00" cType="1" res="-8.5010230541229248e-02" rms="3.7010735273361206e-01" purity="2.2545915842056274e-01" nType="-99"/>
            <Node pos="r" depth="3" NCoef="0" IVar="-1" Cut="0.0000000000000000e+00" cType="1" res="-4.4284906238317490e-02" rms="4.0311187505722046e-01" purity="3.5613158345222473e-01" nType="-99"/>
          </Node>
          <Node pos="r" depth="2" NCoef="0" IVar="4" Cut="9.9455039978027344e+01" cType="1" res="2.9495634138584137e-02" rms="4.1557246446609497e-01" purity="5.4727643728256226e-01" nType="0">
            <Node pos="l" depth="3" NCoef="0" IVar="-1" Cut="0.0000000000000000e+00" cType="1" res="-2.1651884540915489e-02" rms="4.0187245607376099e-01" purity="2.6560416817665100e-01" nType="-99"/>
            <Node pos="r" depth="3" NCoef="0" IVar="-1" Cut="0.0000000000000000e+00" cType="1" res="2.7573818340897560e-02" rms="4.1745328903198242e-01" purity="6.5675437450408936e-01" nType="-99"/>
          </Node>
        </Node>
        <Node pos="r" depth="1" NCoef="0" IVar="8" Cut="2.1015398502349854e+00" cType="1" res="-1.2904541194438934e-01" rms="3.9721786975860596e-01" purity="2.9905185103416443e-01" nType="0">
          <Node pos="l" depth="2" NCoef="0" IVar="9" Cut="4.0023931860923767e-01" cType="1" res="-9.5963977277278900e-02" rms="4.0834605693817139e-01" purity="3.4704419970512390e-01" nType="0">
            <Node pos="l" depth="3" NCoef="0" IVar="-1" Cut="0.0000000000000000e+00" cType="1" res="-3.0061570927500725e-02" rms="4.1816270351409912e-01" purity="3.9491522312164307e-01" nType="-99"/>
            <Node pos="r" depth="3" NCoef="0" IVar="-1" Cut="0.0000000000000000e+00" cType="1" res="-6.7346163094043732e-02" rms="3.9191767573356628e-01" purity="2.8798750042915344e-01" nType="-99"/>
          </Node>
          <Node pos="r" depth="2" NCoef="0" IVar="-1" Cut="0.0000000000000000e+00" cType="1" res="-9.7125358879566193e-02" rms="3.6364480853080750e-01" purity="1.9959799945354462e-01" nType="-99"/>
        </Node>
      </Node>
    </BinaryTree>
    <BinaryTree type="DecisionTree" boostWeight="1.0000000000000000e+00" itree="12">
      <Node pos="s" depth="0" NCoef="0" IVar="0" Cut="4.4703997802734375e+02" cType="1" res="-1.6995030455291271e-03" rms="4.1250222921371460e-01" purity="4.9931600689888000e-01" nType="0">
        <Node pos="l" depth="1" NCoef="0" IVar="6" Cut="-9.0990376472473145e-01" cType="1" res="-3.4399766474962234e-02" rms="4.1908425092697144e-01" purity="3.5157451033592224e-01" nType="0">
          <Node pos="l" depth="2" NCoef="0" IVar="2" Cut="3.7144989013671875e+02" cType="1" res="-1.1204219609498978e-01" rms="3.5891771316528320e-01" purity="1.9824104011058807e-01" nType="0">
            <Node pos="l" depth="3" NCoef="0" IVar="-1" Cut="0.0000000000000000e+00" cType="1" res="-4.6894200146198273e-02" rms="3.6185318231582642e-01" purity="2.0466828346252441e-01" nType="-99"/>
            <Node pos="r" depth="3" NCoef="0" IVar="-1" Cut="0.0000000000000000e+00" cType="1" res="-8.6991474032402039e-02" rms="3.4402668476104736e-01" purity="1.8277153372764587e-01" nType="-99"/>
          </Node>
          <Node pos="r" depth="2" NCoef="0" IVar="6" Cut="6.8007236719131470e-01" cType="1" res="-1.6117136925458908e-02" rms="4.3000027537345886e-01" purity="3.8768029212951660e-01" nType="0">
            <Node pos="l" depth="3" NCoef="0" IVar="-1" Cut="0.0000000000000000e+00" cType="1" res="6.7644179798662663e-03" rms="4.4504588842391968e-01" purity="4.5151197910308838e-01" nType="-99"/>
            <Node pos="r" depth="3" NCoef="0" IVar="-1" Cut="0.0000000000000000e+00" cType="1" res="-4.1754499077796936e-02" rms="3.8900184631347656e-01" purity="2.5443539023399353e-01" nType="-99"/>
          </Node>
        </Node>
        <Node pos="r" depth="1" NCoef="0" IVar="7" Cut="1.4666606187820435e+00" cType="1" res="4.5108113437891006e-02" rms="3.9824822545051575e-01" purity="7.1079516410827637e-01" nType="0">
          <Node pos="l" depth="2" NCoef="0" IVar="7" Cut="-1.1745262145996094e+00" cType="1" res="5.5142384022474289e-02" rms="3.9350575208663940e-01" purity="7.2844964265823364e-01" nType="0">
            <Node pos="l" depth="3" NCoef="0" IVar="-1" Cut="0.0000000000000000e+00" cType="1" res="-2.0539395511150360e-02" rms="4.3643185496330261e-01" purity="5.3288948535919189e-01" nType="-99"/>
            <Node pos="r" depth="3" NCoef="0" IVar="-1" Cut="0.0000000000000000e+00" cType="1" res="3.5664811730384827e-02" rms="3.8545286655426025e-01" purity="7.5472068786621094e-01" nType="-99"/>
          </Node>
          <Node pos="r" depth="2" NCoef="0" IVar="-1" Cut="0.0000000000000000e+00" cType="1" res="-4.3698187917470932e-02" rms="4.3606668710708618e-01" purity="4.6086272597312927e-01" nType="-99"/>
        </Node>
      </Node>
    </BinaryTree>
    <BinaryTree type="DecisionTree" boostWeight="1.0000000000000000e+00" itree="13">
      <Node pos="s" depth="0" NCoef="0" IVar="6" Cut="1.4707326889038086e+00" cType="1" res="7.0819533430039883e-03" rms="4.1324070096015930e-01" purity="5.0701367855072021e-01" nType="0">
        <Node pos="l" depth="1" NCoef="0" IVar="6" Cut="-1.3648953437805176e+00" cType="1" res="1.6833525151014328e-02" rms="4.1604888439178467e-01" purity="5.2923107147216797e-01" nType="0">
          <Node pos="l" depth="2" NCoef="0" IVar="9" Cut="-6.6650503873825073e-01" cType="1" res="-1.1662448942661285e-01" rms="3.5494822263717651e-01" purity="2.1686132252216339e-01" nType="0">
            <Node pos="l" depth="3" NCoef="0" IVar="-1" Cut="0.0000000000000000e+00" cType="1" res="-8.8604107499122620e-02" rms="3.2889777421951294e-01" purity="1.5197585523128510e-01" nType="-99"/>
            <Node pos="r" depth="3" NCoef="0" IVar="-1" Cut="0.0000000000000000e+00" cType="1" res="-4.9484994262456894e-02" rms="3.6793047189712524e-01" purity="2.5730198621749878e-01" nType="-99"/>
          </Node>
          <Node pos="r" depth="2" NCoef="0" IVar="7" Cut="-1.7332133054733276e+00" cType="1" res="2.8913319110870361e-02" rms="4.1904962062835693e-01" purity="5.5750489234924316e-01" nType="0">
            <Node pos="l" depth="3" NCoef="0" IVar="-1" Cut="0.0000000000000000e+00" cType="1" res="-6.2211487442255020e-02" rms="3.8263234496116638e-01" purity="2.4863378703594208e-01" nType="-99"/>
            <Node pos="r" depth="3" NCoef="0" IVar="-1" Cut="0.0000000000000000e+00" cType="1" res="1.8490126356482506e-02" rms="4.1928949952125549e-01" purity="5.7420152425765991e-01" nType="-99"/>
          </Node>
        </Node>
        <Node pos="r" depth="1" NCoef="0" IVar="9" Cut="6.6668391227722168e-01" cType="1" res="-1.2996497750282288e-01" rms="3.4339636564254761e-01" purity="1.9477400183677673e-01" nType="0">
          <Node pos="l" depth="2" NCoef="0" IVar="-1" Cut="0.0000000000000000e+00" cType="1" res="-5.4356981068849564e-02" rms="3.6423411965370178e-01" purity="2.4396806955337524e-01" nType="-99"/>
          <Node pos="r" depth="2" NCoef="0" IVar="-1" Cut="0.0000000000000000e+00" cType="1" res="-1.0033797472715378e-01" rms="3.0087882280349731e-01" purity="1.1575812101364136e-01" nType="-99"/>
        </Node>
      </Node>
    </BinaryTree>
    <BinaryTree type="DecisionTree" boostWeight="1.0000000000000000e+00" itree="14">
      <Node pos="s" depth="0" NCoef="0" IVar="7" Cut="1.1999876499176025e+00" cType="1" res="2.2966512478888035e-03" rms="4.1120624542236328e-01" purity="5.0221282243728638e-01" nType="0">
        <Node pos="l" depth="1" NCoef="0" IVar="7" Cut="-8.9521712064743042e-01" cType="1" res="1.6636423766613007e-02" rms="4.1245338320732117e-01" purity="5.3306037187576294e-01" nType="0">
          <Node pos="l" depth="2" NCoef="0" IVar="0" Cut="4.3467514038085938e+02" cType="1" res="-5.9533976018428802e-02" rms="4.0096819400787354e-01" purity="3.6095288395881653e-01" nType="0">
            <Node pos="l" depth="3" NCoef="0" IVar="-1" Cut="0.0000000000000000e+00" cType="1" res="-4.5991871505975723e-02" rms="3.8111844658851624e-01" purity="2.2650291025638580e-01" nType="-99"/>
            <Node pos="r" depth="3" NCoef="0" IVar="-1" Cut="0.0000000000000000e+00" cType="1" res="-7.7131036669015884e-03" rms="4.2692783474922180e-01" purity="5.7403004169464111e-01" nType="-99"/>
          </Node>
          <Node pos="r" depth="2" NCoef="0" IVar="3" Cut="1.4684350585937500e+02" cType="1" res="3.9691608399152756e-02" rms="4.1310754418373108e-01" purity="5.8515375852584839e-01" nType="0">
            <Node pos="l" depth="3" NCoef="0" IVar="-1" Cut="0.0000000000000000e+00" cType="1" res="-1.8486846238374710e-02" rms="4.1118124127388000e-01" purity="2.8664514422416687e-01" nType="-99"/>
            <Node pos="r" depth="3" NCoef="0" IVar="-1" Cut="0.0000000000000000e+00" cType="1" res="2.9846545308828354e-02" rms="4.1132128238677979e-01" purity="6.6414201259613037e-01" nType="-99"/>
          </Node>
        </Node>
        <Node pos="r" depth="1" NCoef="0" IVar="5" Cut="1.0753459930419922e+02" cType="1" res="-9.0962588787078857e-02" rms="3.9035290479660034e-01" purity="3.0159443616867065e-01" nType="0">
          <Node pos="l" depth="2" NCoef="0" IVar="7" Cut="2.0380842685699463e+00" cType="1" res="-1.1203546077013016e-01" rms="3.7103867530822754e-01" purity="2.2241818904876709e-01" nType="0">
            <Node pos="l" depth="3" NCoef="0" IVar="-1" Cut="0.0000000000000000e+00" cType="1" res="-4.8851452767848969e-02" rms="3.8994768261909485e-01" purity="2.5717091560363770e-01" nType="-99"/>
            <Node pos="r" depth="3" NCoef="0" IVar="-1" Cut="0.0000000000000000e+00" cType="1" res="-8.6676649749279022e-02" rms="3.0695322155952454e-01" purity="1.2450812757015228e-01" nType="-99"/>
          </Node>
          <Node pos="r" depth="2" NCoef="0" IVar="-1" Cut="0.0000000000000000e+00" cType="1" res="-6.1097745783627033e-03" rms="4.4602569937705994e-01" purity="5.9364348649978638e-01" nType="-99"/>
        </Node>
      </Node>
    </BinaryTree>
    <BinaryTree type="DecisionTree" boostWeight="1.0000000000000000e+00" itree="15">
      <Node pos="s" depth="0" NCoef="0" IVar="8" Cut="1.1999665498733521e+00" cType="1" res="-6.2530947616323829e-04" rms="4.0923351049423218e-01" purity="5.0049400329589844e-01" nType="0">
        <Node pos="l" depth="1" NCoef="0" IVar="8" Cut="-1.6571264266967773e+00" cType="1" res="1.2295083142817020e-02" rms="4.1006085276603699e-01" purity="5.2625459432601929e-01" nType="0">
          <Node pos="l" depth="2" NCoef="0" IVar="8" Cut="-2.1469261646270752e+00" cType="1" res="-9.4673544168472290e-02" rms="3.9072504639625549e-01" purity="2.9271724820137024e-01" nType="0">
            <Node pos="l" depth="3" NCoef="0" IVar="-1" Cut="0.0000000000000000e+00" cType="1" res="-7.5619675219058990e-02" rms="3.5629999637603760e-01" purity="2.2073167562484741e-01" nType="-99"/>
            <Node pos="r" depth="3" NCoef="0" IVar="-1" Cut="0.0000000000000000e+00" cType="1" res="-3.3605579286813736e-02" rms="4.0862059593200684e-01" purity="3.3915424346923828e-01" nType="-99"/>
          </Node>
          <Node pos="r" depth="2" NCoef="0" IVar="7" Cut="1.1999484300613403e+00" cType="1" res="2.3387340828776360e-02" rms="4.1042169928550720e-01" purity="5.5047148466110229e-01" nType="0">
            <Node pos="l" depth="3" NCoef="0" IVar="-1" Cut="0.0000000000000000e+00" cType="1" res="1.7344174906611443e-02" rms="4.1070073843002319e-01" purity="5.7815426588058472e-01" nType="-99"/>
            <Node pos="r" depth="3" NCoef="0" IVar="-1" Cut="0.0000000000000000e+00" cType="1" res="-2.7306836098432541e-02" rms="4.0006828308105469e-01" purity="3.4621113538742065e-01" nType="-99"/>
          </Node>
        </Node>
        <Node pos="r" depth="1" NCoef="0" IVar="8" Cut="1.9618828296661377e+00" cType="1" res="-7.3023341596126556e-02" rms="3.9685878157615662e-01" purity="3.5614749789237976e-01" nType="0">
          <Node pos="l" depth="2" NCoef="0" IVar="6" Cut="6.9000387191772461e-01" cType="1" res="-4.8687398433685303e-02" rms="4.0786251425743103e-01" purity="4.0667882561683655e-01" nType="0">
            <Node pos="l" depth="3" NCoef="0" IVar="-1" Cut="0.0000000000000000e+00" cType="1" res="-1.1318753473460674e-02" rms="4.1988563537597656e-01" purity="4.6841832995414734e-01" nType="-99"/>
            <Node pos="r" depth="3" NCoef="0" IVar="-1" Cut="0.0000000000000000e+00" cType="1" res="-6.0898292809724808e-02" rms="3.6982825398445129e-01" purity="2.5760126113891602e-01" nType="-99"/>
          </Node>
          <Node pos="r" depth="2" NCoef="0" IVar="-1" Cut="0.0000000000000000e+00" cType="1" res="-6.9076843559741974e-02" rms="3.6396118998527527e-01" purity="2.3922967910766602e-01" nType="-99"/>
        </Node>
      </Node>
    </BinaryTree>
    <BinaryTree type="DecisionTree" boostWeight="1.0000000000000000e+00" itree="16">
      <Node pos="s" depth="0" NCoef="0" IVar="5" Cut="1.1706201934814453e+02" cType="1" res="1.6712872311472893e-03" rms="4.0941298007965088e-01" purity="5.0347381830215454e-01" nType="0">
        <Node pos="l" depth="1" NCoef="0" IVar="7" Cut="-1.4665316343307495e+00" cType="1" res="-1.4937120489776134e-02" rms="4.2038974165916443e-01" purity="4.1379818320274353e-01" nType="0">
          <Node pos="l" depth="2" NCoef="0" IVar="2" Cut="3.0668872070312500e+02" cType="1" res="-1.0471937060356140e-01" rms="3.4638127684593201e-01" purity="1.8679495155811310e-01" nType="0">
            <Node pos="l" depth="3" NCoef="0" IVar="-1" Cut="0.0000000000000000e+00" cType="1" res="-4.2386859655380249e-02" rms="3.3835661411285400e-01" purity="1.7446047067642212e-01" nType="-99"/>
            <Node pos="r" depth="3" NCoef="0" IVar="-1" Cut="0.0000000000000000e+00" cType="1" res="-6.8584330379962921e-02" rms="3.5019153356552124e-01" purity="1.9633050262928009e-01" nType="-99"/>
          </Node>
          <Node pos="r" depth="2" NCoef="0" IVar="7" Cut="9.7148364782333374e-01" cType="1" res="-5.4007894359529018e-03" rms="4.2638939619064331e-01" purity="4.3790963292121887e-01" nType="0">
            <Node pos="l" depth="3" NCoef="0" IVar="-1" Cut="0.0000000000000000e+00" cType="1" res="5.6112646125257015e-03" rms="4.3287390470504761e-01" purity="4.8203623294830322e-01" nType="-99"/>
            <Node pos="r" depth="3" NCoef="0" IVar="-1" Cut="0.0000000000000000e+00" cType="1" res="-3.4865554422140121e-02" rms="3.9632210135459900e-01" purity="2.7911922335624695e-01" nType="-99"/>
          </Node>
        </Node>
        <Node pos="r" depth="1" NCoef="0" IVar="9" Cut="-1.1996655464172363e+00" cType="1" res="5.5379621684551239e-02" rms="3.6658853292465210e-01" purity="7.9346716403961182e-01" nType="0">
          <Node pos="l" depth="2" NCoef="0" IVar="-1" Cut="0.0000000000000000e+00" cType="1" res="-2.1325297653675079e-02" rms="4.1626885533332825e-01" purity="6.7978316545486450e-01" nType="-99"/>
          <Node pos="r" depth="2" NCoef="0" IVar="9" Cut="1.2760211229324341e+00" cType="1" res="6.7894406616687775e-02" rms="3.5761886835098267e-01" purity="8.0854541063308716e-01" nType="0">
            <Node pos="l" depth="3" NCoef="0" IVar="-1" Cut="0.0000000000000000e+00" cType="1" res="4.6740800142288208e-02" rms="3.4707519412040710e-01" purity="8.2587635517120361e-01" nType="-99"/>
            <Node pos="r" depth="3" NCoef="0" IVar="-1" Cut="0.0000000000000000e+00" cType="1" res="-1.0899169370532036e-02" rms="4.0757820010185242e-01" purity="6.9867140054702759e-01" nType="-99"/>
          </Node>
        </Node>
      </Node>
    </BinaryTree>
    <BinaryTree type="DecisionTree" boostWeight="1.0000000000000000e+00" itree="17">
      <Node pos="s" depth="0" NCoef="0" IVar="8" Cut="-1.4666607379913330e+00" cType="1" res="-3.1138316262513399e-03" rms="4.0624368190765381e-01" purity="4.9719569087028503e-01" nType="0">
        <Node pos="l" depth="1" NCoef="0" IVar="2" Cut="3.3976394653320312e+02" cType="1" res="-7.9835757613182068e-02" rms="3.9677014946937561e-01" purity="3.0018454790115356e-01" nType="0">
          <Node pos="l" depth="2" NCoef="0" IVar="-1" Cut="0.0000000000000000e+00" cType="1" res="-2.3322854191064835e-02" rms="3.9635145664215088e-01" purity="2.8572526574134827e-01" nType="-99"/>
          <Node pos="r" depth="2" NCoef="0" IVar="-1" Cut="0.0000000000000000e+00" cType="1" res="-6.3703514635562897e-02" rms="3.9246904850006104e-01" purity="3.1754937767982483e-01" nType="-99"/>
        </Node>
        <Node pos="r" depth="1" NCoef="0" IVar="8" Cut="1.1745710372924805e+00" cType="1" res="5.9064473025500774e-03" rms="4.0639257431030273e-01" purity="5.2035856246948242e-01" nType="0">
          <Node pos="l" depth="2" NCoef="0" IVar="5" Cut="7.8109771728515625e+01" cType="1" res="1.9774401560425758e-02" rms="4.0733519196510315e-01" purity="5.5552417039871216e-01" nType="0">
            <Node pos="l" depth="3" NCoef="0" IVar="-1" Cut="0.0000000000000000e+00" cType="1" res="-8.4745995700359344e-03" rms="4.1775128245353699e-01" purity="3.5510686039924622e-01" nType="-99"/>
            <Node pos="r" depth="3" NCoef="0" IVar="-1" Cut="0.0000000000000000e+00" cType="1" res="2.4918308481574059e-02" rms="3.9709618687629700e-01" purity="7.0677369832992554e-01" nType="-99"/>
          </Node>
          <Node pos="r" depth="2" NCoef="0" IVar="9" Cut="9.3340873718261719e-01" cType="1" res="-5.8773200958967209e-02" rms="3.9559710025787354e-01" purity="3.5634717345237732e-01" nType="0">
            <Node pos="l" depth="3" NCoef="0" IVar="-1" Cut="0.0000000000000000e+00" cType="1" res="-1.8885295838117599e-02" rms="4.0497896075248718e-01" purity="4.0030086040496826e-01" nType="-99"/>
            <Node pos="r" depth="3" NCoef="0" IVar="-1" Cut="0.0000000000000000e+00" cType="1" res="-6.3393123447895050e-02" rms="3.6460247635841370e-01" purity="2.4566499888896942e-01" nType="-99"/>
          </Node>
        </Node>
      </Node>
    </BinaryTree>
    <BinaryTree type="DecisionTree" boostWeight="1.0000000000000000e+00" itree="18">
      <Node pos="s" depth="0" NCoef="0" IVar="6" Cut="-6.4452660083770752e-01" cType="1" res="1.4716916484758258e-03" rms="4.0742102265357971e-01" purity="5.0091630220413208e-01" nType="0">
        <Node pos="l" depth="1" NCoef="0" IVar="2" Cut="4.1736663818359375e+02" cType="1" res="-4.4921997934579849e-02" rms="3.9896926283836365e-01" purity="3.8373634219169617e-01" nType="0">
          <Node pos="l" depth="2" NCoef="0" IVar="1" Cut="1.2193729248046875e+03" cType="1" res="-2.1656118333339691e-02" rms="3.9334392547607422e-01" purity="3.7627738714218140e-01" nType="0">
            <Node pos="l" depth="3" NCoef="0" IVar="-1" Cut="0.0000000000000000e+00" cType="1" res="-2.8843700885772705e-02" rms="3.7630641460418701e-01" purity="2.2478227317333221e-01" nType="-99"/>
            <Node pos="r" depth="3" NCoef="0" IVar="-1" Cut="0.0000000000000000e+00" cType="1" res="1.6904350370168686e-02" rms="4.1869372129440308e-01" purity="6.6782665252685547e-01" nType="-99"/>
          </Node>
          <Node pos="r" depth="2" NCoef="0" IVar="1" Cut="1.4912460937500000e+03" cType="1" res="-1.0617936402559280e-01" rms="4.0710422396659851e-01" purity="4.0337517857551575e-01" nType="0">
            <Node pos="l" depth="3" NCoef="0" IVar="-1" Cut="0.0000000000000000e+00" cType="1" res="-8.0055922269821167e-02" rms="3.4890279173851013e-01" purity="1.7838677763938904e-01" nType="-99"/>
            <Node pos="r" depth="3" NCoef="0" IVar="-1" Cut="0.0000000000000000e+00" cType="1" res="-3.5199489444494247e-02" rms="4.4484823942184448e-01" purity="5.8356004953384399e-01" nType="-99"/>
          </Node>
        </Node>
        <Node pos="r" depth="1" NCoef="0" IVar="6" Cut="9.9569737911224365e-01" cType="1" res="1.6350088641047478e-02" rms="4.0898162126541138e-01" purity="5.3849577903747559e-01" nType="0">
          <Node pos="l" depth="2" NCoef="0" IVar="4" Cut="9.4973205566406250e+01" cType="1" res="3.3071167767047882e-02" rms="4.1212630271911621e-01" purity="5.9536135196685791e-01" nType="0">
            <Node pos="l" depth="3" NCoef="0" IVar="-1" Cut="0.0000000000000000e+00" cType="1" res="-1.1428933590650558e-02" rms="4.1920536756515503e-01" purity="2.9510030150413513e-01" nType="-99"/>
            <Node pos="r" depth="3" NCoef="0" IVar="-1" Cut="0.0000000000000000e+00" cType="1" res="2.6232611387968063e-02" rms="4.0822976827621460e-01" purity="6.9164001941680908e-01" nType="-99"/>
          </Node>
          <Node pos="r" depth="2" NCoef="0" IVar="2" Cut="4.0139447021484375e+02" cType="1" res="-5.0719857215881348e-02" rms="3.8895881175994873e-01" purity="3.1040248274803162e-01" nType="0">
            <Node pos="l" depth="3" NCoef="0" IVar="-1" Cut="0.0000000000000000e+00" cType="1" res="-1.3374450616538525e-02" rms="3.8181936740875244e-01" purity="3.0702000856399536e-01" nType="-99"/>
            <Node pos="r" depth="3" NCoef="0" IVar="-1" Cut="0.0000000000000000e+00" cType="1" res="-6.3580445945262909e-02" rms="3.9787292480468750e-01" purity="3.1910559535026550e-01" nType="-99"/>
          </Node>
        </Node>
      </Node>
    </BinaryTree>
    <BinaryTree type="DecisionTree" boostWeight="1.0000000000000000e+00" itree="19">
      <Node pos="s" depth="0" NCoef="0" IVar="2" Cut="4.9859042358398438e+02" cType="1" res="-1.5081737656146288e-03" rms="4.0601092576980591e-01" purity="4.9747079610824585e-01" nType="0">
        <Node pos="l" depth="1" NCoef="0" IVar="0" Cut="3.6389794921875000e+02" cType="1" res="9.1453474014997482e-03" rms="4.0235161781311035e-01" purity="4.8684248328208923e-01" nType="0">
          <Node pos="l" depth="2" NCoef="0" IVar="2" Cut="3.2795922851562500e+02" cType="1" res="-4.5494187623262405e-02" rms="3.9520955085754395e-01" purity="2.8797572851181030e-01" nType="0">
            <Node pos="l" depth="3" NCoef="0" IVar="-1" Cut="0.0000000000000000e+00" cType="1" res="-1.2829474173486233e-02" rms="4.0047323703765869e-01" purity="2.9038524627685547e-01" nType="-99"/>
            <Node pos="r" depth="3" NCoef="0" IVar="-1" Cut="0.0000000000000000e+00" cType="1" res="-4.4018615037202835e-02" rms="3.8327327370643616e-01" purity="2.8389516472816467e-01" nType="-99"/>
          </Node>
          <Node pos="r" depth="2" NCoef="0" IVar="5" Cut="6.8084854125976562e+01" cType="1" res="3.8662448525428772e-02" rms="4.0308803319931030e-01" purity="5.9427332878112793e-01" nType="0">
            <Node pos="l" depth="3" NCoef="0" IVar="-1" Cut="0.0000000000000000e+00" cType="1" res="-3.0859080143272877e-03" rms="4.1891682147979736e-01" purity="3.5001057386398315e-01" nType="-99"/>
            <Node pos="r" depth="3" NCoef="0" IVar="-1" Cut="0.0000000000000000e+00" cType="1" res="3.1793303787708282e-02" rms="3.9417308568954468e-01" purity="7.0357400178909302e-01" nType="-99"/>
          </Node>
        </Node>
        <Node pos="r" depth="1" NCoef="0" IVar="0" Cut="5.8882537841796875e+02" cType="1" res="-5.4074395447969437e-02" rms="4.1966316103935242e-01" purity="5.4991275072097778e-01" nType="0">
          <Node pos="l" depth="2" NCoef="0" IVar="3" Cut="2.3488044738769531e+02" cType="1" res="-9.2744536697864532e-02" rms="4.2174857854843140e-01" purity="4.4821190834045410e-01" nType="0">
            <Node pos="l" depth="3" NCoef="0" IVar="-1" Cut="0.0000000000000000e+00" cType="1" res="-7.4098996818065643e-02" rms="3.9090958237648010e-01" purity="2.9358306527137756e-01" nType="-99"/>
            <Node pos="r" depth="3" NCoef="0" IVar="-1" Cut="0.0000000000000000e+00" cType="1" res="-2.8271146118640900e-02" rms="4.3535992503166199e-01" purity="5.4154998064041138e-01" nType="-99"/>
          </Node>
          <Node pos="r" depth="2" NCoef="0" IVar="2" Cut="6.3367163085937500e+02" cType="1" res="1.1896716430783272e-02" rms="4.0770134329795837e-01" purity="7.2341400384902954e-01" nType="0">
            <Node pos="l" depth="3" NCoef="0" IVar="-1" Cut="0.0000000000000000e+00" cType="1" res="2.2266253829002380e-02" rms="3.9455485343933105e-01" purity="7.3932212591171265e-01" nType="-99"/>
            <Node pos="r" depth="3" NCoef="0" IVar="-1" Cut="0.0000000000000000e+00" cType="1" res="-7.3718279600143433e-03" rms="4.1686311364173889e-01" purity="7.0993745326995850e-01" nType="-99"/>
          </Node>
        </Node>
      </Node>
    </BinaryTree>
    <BinaryTree type="DecisionTree" boostWeight="1.0000000000000000e+00" itree="20">
      <Node pos="s" depth="0" NCoef="0" IVar="8" Cut="-1.4666639566421509e+00" cType="1" res="1.8718666397035122e-03" rms="4.0584206581115723e-01" purity="5.0057750940322876e-01" nType="0">
        <Node pos="l" depth="1" NCoef="0" IVar="8" Cut="-2.1015748977661133e+00" cType="1" res="-6.2725797295570374e-02" rms="3.9127919077873230e-01" purity="3.0819779634475708e-01" nType="0">
          <Node pos="l" depth="2" NCoef="0" IVar="-1" Cut="0.0000000000000000e+00" cType="1" res="-6.3275784254074097e-02" rms="3.4259518980979919e-01" purity="2.0613531768321991e-01" nType="-99"/>
          <Node pos="r" depth="2" NCoef="0" IVar="4" Cut="1.0900897979736328e+02" cType="1" res="-4.0993001312017441e-02" rms="4.1053077578544617e-01" purity="3.5649394989013672e-01" nType="0">
            <Node pos="l" depth="3" NCoef="0" IVar="-1" Cut="0.0000000000000000e+00" cType="1" res="-6.4078625291585922e-03" rms="3.8630282878875732e-01" purity="2.4496735632419586e-01" nType="-99"/>
            <Node pos="r" depth="3" NCoef="0" IVar="-1" Cut="0.0000000000000000e+00" cType="1" res="-3.3232793211936951e-02" rms="4.2907610535621643e-01" purity="4.5532780885696411e-01" nType="-99"/>
          </Node>
        </Node>
        <Node pos="r" depth="1" NCoef="0" IVar="2" Cut="3.4929779052734375e+02" cType="1" res="9.4311190769076347e-03" rms="4.0684241056442261e-01" purity="5.2308988571166992e-01" nType="0">
          <Node pos="l" depth="2" NCoef="0" IVar="1" Cut="1.1560800781250000e+03" cType="1" res="3.1904917210340500e-02" rms="4.1082739830017090e-01" purity="4.8822903633117676e-01" nType="0">
            <Node pos="l" depth="3" NCoef="0" IVar="-1" Cut="0.0000000000000000e+00" cType="1" res="1.2370259501039982e-03" rms="4.2027214169502258e-01" purity="3.0717462301254272e-01" nType="-99"/>
            <Node pos="r" depth="3" NCoef="0" IVar="-1" Cut="0.0000000000000000e+00" cType="1" res="3.9913039654493332e-02" rms="3.9243569970130920e-01" purity="7.5524133443832397e-01" nType="-99"/>
          </Node>
          <Node pos="r" depth="2" NCoef="0" IVar="0" Cut="5.8410919189453125e+02" cType="1" res="-1.4234857633709908e-02" rms="4.0124499797821045e-01" purity="5.5979996919631958e-01" nType="0">
            <Node pos="l" depth="3" NCoef="0" IVar="-1" Cut="0.0000000000000000e+00" cType="1" res="-1.8826015293598175e-02" rms="4.1021391749382019e-01" purity="4.7598880529403687e-01" nType="-99"/>
            <Node pos="r" depth="3" NCoef="0" IVar="-1" Cut="0.0000000000000000e+00" cType="1" res="2.6923194527626038e-02" rms="3.6882245540618896e-01" purity="7.9096388816833496e-01" nType="-99"/>
          </Node>
        </Node>
      </Node>
    </BinaryTree>
    <BinaryTree type="DecisionTree" boostWeight="1.0000000000000000e+00" itree="21">
      <Node pos="s" depth="0" NCoef="0" IVar="8" Cut="1.7332980632781982e+00" cType="1" res="-2.1031252108514309e-03" rms="4.0408375859260559e-01" purity="4.9669528007507324e-01" nType="0">
        <Node pos="l" depth="1" NCoef="0" IVar="6" Cut="-9.0948539972305298e-01" cType="1" res="4.3346476741135120e-03" rms="4.0585529804229736e-01" purity="5.1380890607833862e-01" nType="0">
          <Node pos="l" depth="2" NCoef="0" IVar="0" Cut="5.1430590820312500e+02" cType="1" res="-4.4578578323125839e-02" rms="3.8133379817008972e-01" purity="3.3995908498764038e-01" nType="0">
            <Node pos="l" depth="3" NCoef="0" IVar="-1" Cut="0.0000000000000000e+00" cType="1" res="-3.5480964928865433e-02" rms="3.7240460515022278e-01" purity="2.5269171595573425e-01" nType="-99"/>
            <Node pos="r" depth="3" NCoef="0" IVar="-1" Cut="0.0000000000000000e+00" cType="1" res="8.1211756914854050e-03" rms="4.0729975700378418e-01" purity="6.6477245092391968e-01" nType="-99"/>
          </Node>
          <Node pos="r" depth="2" NCoef="0" IVar="6" Cut="1.7401028871536255e+00" cType="1" res="1.4434974640607834e-02" rms="4.1001030802726746e-01" purity="5.4970794916152954e-01" nType="0">
            <Node pos="l" depth="3" NCoef="0" IVar="-1" Cut="0.0000000000000000e+00" cType="1" res="1.0680698789656162e-02" rms="4.1262459754943848e-01" purity="5.6825101375579834e-01" nType="-99"/>
            <Node pos="r" depth="3" NCoef="0" IVar="-1" Cut="0.0000000000000000e+00" cType="1" res="-6.7824095487594604e-02" rms="3.2717609405517578e-01" purity="1.5433654189109802e-01" nType="-99"/>
          </Node>
        </Node>
        <Node pos="r" depth="1" NCoef="0" IVar="2" Cut="3.3097366333007812e+02" cType="1" res="-9.0901426970958710e-02" rms="3.6747232079505920e-01" purity="2.6064205169677734e-01" nType="0">
          <Node pos="l" depth="2" NCoef="0" IVar="-1" Cut="0.0000000000000000e+00" cType="1" res="-3.5277336835861206e-02" rms="3.6022680997848511e-01" purity="2.5346347689628601e-01" nType="-99"/>
          <Node pos="r" depth="2" NCoef="0" IVar="-1" Cut="0.0000000000000000e+00" cType="1" res="-6.6881656646728516e-02" rms="3.7208810448646545e-01" purity="2.6802092790603638e-01" nType="-99"/>
        </Node>
      </Node>
    </BinaryTree>
    <BinaryTree type="DecisionTree" boostWeight="1.0000000000000000e+00" itree="22">
      <Node pos="s" depth="0" NCoef="0" IVar="6" Cut="-1.4399174451828003e+00" cType="1" res="-5.7662156177684665e-04" rms="4.0068832039833069e-01" purity="5.0163751840591431e-01" nType="0">
        <Node pos="l" depth="1" NCoef="0" IVar="6" Cut="-1.7553867101669312e+00" cType="1" res="-8.5572548210620880e-02" rms="3.3296132087707520e-01" purity="2.0214015245437622e-01" nType="0">
          <Node pos="l" depth="2" NCoef="0" IVar="-1" Cut="0.0000000000000000e+00" cType="1" res="-7.4930831789970398e-02" rms="3.0311736464500427e-01" purity="1.4855024218559265e-01" nType="-99"/>
          <Node pos="r" depth="2" NCoef="0" IVar="-1" Cut="0.0000000000000000e+00" cType="1" res="-3.2925844192504883e-02" rms="3.6207079887390137e-01" purity="2.6466315984725952e-01" nType="-99"/>
        </Node>
        <Node pos="r" depth="1" NCoef="0" IVar="6" Cut="5.7899713516235352e-01" cType="1" res="5.7023707777261734e-03" rms="4.0453511476516724e-01" purity="5.2376258373260498e-01" nType="0">
          <Node pos="l" depth="2" NCoef="0" IVar="2" Cut="5.9285736083984375e+02" cType="1" res="2.3016422986984253e-02" rms="4.0889993309974670e-01" purity="5.7652777433395386e-01" nType="0">
            <Node pos="l" depth="3" NCoef="0" IVar="-1" Cut="0.0000000000000000e+00" cType="1" res="1.6475960612297058e-02" rms="4.0631988644599915e-01" purity="5.7244855165481567e-01" nType="-99"/>
            <Node pos="r" depth="3" NCoef="0" IVar="-1" Cut="0.0000000000000000e+00" cType="1" res="-2.8554119169712067e-02" rms="4.2540910840034485e-01" purity="6.1575466394424438e-01" nType="-99"/>
          </Node>
          <Node pos="r" depth="2" NCoef="0" IVar="9" Cut="-1.4665970802307129e+00" cType="1" res="-3.7334132939577103e-02" rms="3.9016169309616089e-01" purity="3.9260742068290710e-01" nType="0">
            <Node pos="l" depth="3" NCoef="0" IVar="-1" Cut="0.0000000000000000e+00" cType="1" res="-7.0568628609180450e-02" rms="3.6147636175155640e-01" purity="2.4764516949653625e-01" nType="-99"/>
            <Node pos="r" depth="3" NCoef="0" IVar="-1" Cut="0.0000000000000000e+00" cType="1" res="-1.5111378394067287e-02" rms="3.9218530058860779e-01" purity="4.0999677777290344e-01" nType="-99"/>
          </Node>
        </Node>
      </Node>
    </BinaryTree>
    <BinaryTree type="DecisionTree" boostWeight="1.0000000000000000e+00" itree="23">
      <Node pos="s" depth="0" NCoef="0" IVar="7" Cut="-1.1999689340591431e+00" cType="1" res="-1.0819263989105821e-03" rms="4.0173554420471191e-01" purity="4.9792584776878357e-01" nType="0">
        <Node pos="l" depth="1" NCoef="0" IVar="7" Cut="-2.0380494594573975e+00" cType="1" res="-6.5487988293170929e-02" rms="3.7123224139213562e-01" purity="2.8041389584541321e-01" nType="0">
          <Node pos="l" depth="2" NCoef="0" IVar="-1" Cut="0.0000000000000000e+00" cType="1" res="-7.0008158683776855e-02" rms="3.2341867685317993e-01" purity="1.5350604057312012e-01" nType="-99"/>
          <Node pos="r" depth="2" NCoef="0" IVar="6" Cut="4.3775910139083862e-01" cType="1" res="-4.9986235797405243e-02" rms="3.8390269875526428e-01" purity="3.2077741622924805e-01" nType="0">
            <Node pos="l" depth="3" NCoef="0" IVar="-1" Cut="0.0000000000000000e+00" cType="1" res="-1.7946617677807808e-02" rms="3.9741232991218567e-01" purity="3.5149842500686646e-01" nType="-99"/>
            <Node pos="r" depth="3" NCoef="0" IVar="-1" Cut="0.0000000000000000e+00" cType="1" res="-5.3990211337804794e-02" rms="3.4626826643943787e-01" purity="2.4780100584030151e-01" nType="-99"/>
          </Node>
        </Node>
        <Node pos="r" depth="1" NCoef="0" IVar="7" Cut="7.0475500822067261e-01" cType="1" res="8.4113012999296188e-03" rms="4.0517309308052063e-01" purity="5.2998632192611694e-01" nType="0">
          <Node pos="l" depth="2" NCoef="0" IVar="0" Cut="5.6536010742187500e+02" cType="1" res="2.3688187822699547e-02" rms="4.0707874298095703e-01" purity="5.8135145902633667e-01" nType="0">
            <Node pos="l" depth="3" NCoef="0" IVar="-1" Cut="0.0000000000000000e+00" cType="1" res="7.5333365239202976e-03" rms="4.2264851927757263e-01" purity="5.1171165704727173e-01" nType="-99"/>
            <Node pos="r" depth="3" NCoef="0" IVar="-1" Cut="0.0000000000000000e+00" cType="1" res="3.6507327109575272e-02" rms="3.4273317456245422e-01" purity="8.3374220132827759e-01" nType="-99"/>
          </Node>
          <Node pos="r" depth="2" NCoef="0" IVar="2" Cut="4.7161306762695312e+02" cType="1" res="-2.7915999293327332e-02" rms="3.9825856685638428e-01" purity="4.0784385800361633e-01" nType="0">
            <Node pos="l" depth="3" NCoef="0" IVar="-1" Cut="0.0000000000000000e+00" cType="1" res="-7.3591321706771851e-03" rms="3.9182564616203308e-01" purity="4.1208928823471069e-01" nType="-99"/>
            <Node pos="r" depth="3" NCoef="0" IVar="-1" Cut="0.0000000000000000e+00" cType="1" res="-4.9195948988199234e-02" rms="4.1979378461837769e-01" purity="3.8844281435012817e-01" nType="-99"/>
          </Node>
        </Node>
      </Node>
    </BinaryTree>
    <BinaryTree type="DecisionTree" boostWeight="1.0000000000000000e+00" itree="24">
      <Node pos="s" depth="0" NCoef="0" IVar="2" Cut="6.5103735351562500e+02" cType="1" res="-1.7414699541404843e-03" rms="3.9995196461677551e-01" purity="4.9804028868675232e-01" nType="0">
        <Node pos="l" depth="1" NCoef="0" IVar="0" Cut="3.6941424560546875e+02" cType="1" res="2.7924969326704741e-03" rms="3.9776968955993652e-01" purity="4.9414306879043579e-01" nType="0">
          <Node pos="l" depth="2" NCoef="0" IVar="0" Cut="3.3305291748046875e+02" cType="1" res="-3.4588158130645752e-02" rms="3.9458495378494263e-01" purity="2.9455766081809998e-01" nType="0">
            <Node pos="l" depth="3" NCoef="0" IVar="-1" Cut="0.0000000000000000e+00" cType="1" res="-3.4289732575416565e-02" rms="3.7537485361099243e-01" purity="2.5085785984992981e-01" nType="-99"/>
            <Node pos="r" depth="3" NCoef="0" IVar="-1" Cut="0.0000000000000000e+00" cType="1" res="-3.4947101958096027e-03" rms="4.1218197345733643e-01" purity="3.4105420112609863e-01" nType="-99"/>
          </Node>
          <Node pos="r" depth="2" NCoef="0" IVar="4" Cut="7.6113235473632812e+01" cType="1" res="2.3197295144200325e-02" rms="3.9801895618438721e-01" purity="6.0308974981307983e-01" nType="0">
            <Node pos="l" depth="3" NCoef="0" IVar="-1" Cut="0.0000000000000000e+00" cType="1" res="-3.1405232846736908e-02" rms="3.7629413604736328e-01" purity="2.0420880615711212e-01" nType="-99"/>
            <Node pos="r" depth="3" NCoef="0" IVar="-1" Cut="0.0000000000000000e+00" cType="1" res="1.8164325505495071e-02" rms="3.9962843060493469e-01" purity="6.5356403589248657e-01" nType="-99"/>
          </Node>
        </Node>
        <Node pos="r" depth="1" NCoef="0" IVar="1" Cut="2.0652224121093750e+03" cType="1" res="-8.2733564078807831e-02" rms="4.2910608649253845e-01" purity="5.6765818595886230e-01" nType="0">
          <Node pos="l" depth="2" NCoef="0" IVar="-1" Cut="0.0000000000000000e+00" cType="1" res="-6.2023010104894638e-02" rms="4.3910160660743713e-01" purity="4.1154682636260986e-01" nType="-99"/>
          <Node pos="r" depth="2" NCoef="0" IVar="-1" Cut="0.0000000000000000e+00" cType="1" res="-1.9558096304535866e-02" rms="4.1261774301528931e-01" purity="7.2804832458496094e-01" nType="-99"/>
        </Node>
      </Node>
    </BinaryTree>
    <BinaryTree type="DecisionTree" boostWeight="1.0000000000000000e+00" itree="25">
      <Node pos="s" depth="0" NCoef="0" IVar="9" Cut="-1.7333468198776245e+00" cType="1" res="-5.0568097503855824e-04" rms="3.9845588803291321e-01" purity="4.9750581383705139e-01" nType="0">
        <Node pos="l" depth="1" NCoef="0" IVar="8" Cut="-6.6678082942962646e-01" cType="1" res="-7.3096401989459991e-02" rms="3.8345551490783691e-01" purity="3.3703318238258362e-01" nType="0">
          <Node pos="l" depth="2" NCoef="0" IVar="-1" Cut="0.0000000000000000e+00" cType="1" res="-6.0472071170806885e-02" rms="3.5912054777145386e-01" purity="2.4437627196311951e-01" nType="-99"/>
          <Node pos="r" depth="2" NCoef="0" IVar="7" Cut="-1.3326165080070496e-01" cType="1" res="-5.6884270161390305e-02" rms="3.9469358325004578e-01" purity="3.8578185439109802e-01" nType="0">
            <Node pos="l" depth="3" NCoef="0" IVar="-1" Cut="0.0000000000000000e+00" cType="1" res="-2.5273947045207024e-02" rms="4.0265759825706482e-01" purity="3.7906807661056519e-01" nType="-99"/>
            <Node pos="r" depth="3" NCoef="0" IVar="-1" Cut="0.0000000000000000e+00" cType="1" res="-3.6674324423074722e-02" rms="3.8674917817115784e-01" purity="3.9210754632949829e-01" nType="-99"/>
          </Node>
        </Node>
        <Node pos="r" depth="1" NCoef="0" IVar="7" Cut="-6.6662615537643433e-01" cType="1" res="5.9539624489843845e-03" rms="3.9912429451942444e-01" purity="5.1178580522537231e-01" nType="0">
          <Node pos="l" depth="2" NCoef="0" IVar="2" Cut="5.0069277954101562e+02" cType="1" res="-2.9601695016026497e-02" rms="3.9353865385055542e-01" purity="4.1511067748069763e-01" nType="0">
            <Node pos="l" depth="3" NCoef="0" IVar="-1" Cut="0.0000000000000000e+00" cType="1" res="-1.1253248900175095e-02" rms="3.9008203148841858e-01" purity="4.1132256388664246e-01" nType="-99"/>
            <Node pos="r" depth="3" NCoef="0" IVar="-1" Cut="0.0000000000000000e+00" cType="1" res="-4.4378094375133514e-02" rms="4.0781882405281067e-01" purity="4.3629544973373413e-01" nType="-99"/>
          </Node>
          <Node pos="r" depth="2" NCoef="0" IVar="7" Cut="1.1492271423339844e+00" cType="1" res="1.8188370391726494e-02" rms="4.0029862523078918e-01" purity="5.4505091905593872e-01" nType="0">
            <Node pos="l" depth="3" NCoef="0" IVar="-1" Cut="0.0000000000000000e+00" cType="1" res="1.7714431509375572e-02" rms="4.0290415287017822e-01" purity="5.9863466024398804e-01" nType="-99"/>
            <Node pos="r" depth="3" NCoef="0" IVar="-1" Cut="0.0000000000000000e+00" cType="1" res="-2.2735681384801865e-02" rms="3.8380467891693115e-01" purity="3.2187825441360474e-01" nType="-99"/>
          </Node>
        </Node>
      </Node>
    </BinaryTree>
    <BinaryTree type="DecisionTree" boostWeight="1.0000000000000000e+00" itree="26">
      <Node pos="s" depth="0" NCoef="0" IVar="2" Cut="3.4032028198242188e+02" cType="1" res="-2.1707969717681408e-03" rms="3.9865118265151978e-01" purity="4.9567472934722900e-01" nType="0">
        <Node pos="l" depth="1" NCoef="0" IVar="1" Cut="1.0019633178710938e+03" cType="1" res="1.7189821228384972e-02" rms="4.0751338005065918e-01" purity="4.5778784155845642e-01" nType="0">
          <Node pos="l" depth="2" NCoef="0" IVar="2" Cut="2.4677703857421875e+02" cType="1" res="-2.8932493180036545e-02" rms="3.6570686101913452e-01" purity="1.8335841596126556e-01" nType="0">
            <Node pos="l" depth="3" NCoef="0" IVar="-1" Cut="0.0000000000000000e+00" cType="1" res="-4.1788672097027302e-03" rms="3.9461621642112732e-01" purity="2.2959755361080170e-01" nType="-99"/>
            <Node pos="r" depth="3" NCoef="0" IVar="-1" Cut="0.0000000000000000e+00" cType="1" res="-3.3575121313333511e-02" rms="3.3656585216522217e-01" purity="1.4203481376171112e-01" nType="-99"/>
          </Node>
          <Node pos="r" depth="2" NCoef="0" IVar="4" Cut="1.0378141784667969e+02" cType="1" res="4.1486203670501709e-02" rms="4.2589294910430908e-01" purity="6.0235220193862915e-01" nType="0">
            <Node pos="l" depth="3" NCoef="0" IVar="-1" Cut="0.0000000000000000e+00" cType="1" res="3.9918821305036545e-02" rms="4.6365660429000854e-01" purity="4.2641335725784302e-01" nType="-99"/>
            <Node pos="r" depth="3" NCoef="0" IVar="-1" Cut="0.0000000000000000e+00" cType="1" res="1.6962362453341484e-02" rms="4.1564080119132996e-01" purity="6.4529496431350708e-01" nType="-99"/>
          </Node>
        </Node>
        <Node pos="r" depth="1" NCoef="0" IVar="1" Cut="1.7033101806640625e+03" cType="1" res="-2.1016484126448631e-02" rms="3.8890665769577026e-01" purity="5.3255397081375122e-01" nType="0">
          <Node pos="l" depth="2" NCoef="0" IVar="2" Cut="5.3667974853515625e+02" cType="1" res="-3.8418326526880264e-02" rms="3.9762443304061890e-01" purity="4.3111366033554077e-01" nType="0">
            <Node pos="l" depth="3" NCoef="0" IVar="-1" Cut="0.0000000000000000e+00" cType="1" res="-1.5665937215089798e-02" rms="3.9535197615623474e-01" purity="4.5029461383819580e-01" nType="-99"/>
            <Node pos="r" depth="3" NCoef="0" IVar="-1" Cut="0.0000000000000000e+00" cType="1" res="-5.0570346415042877e-02" rms="4.0616115927696228e-01" purity="3.0652728676795959e-01" nType="-99"/>
          </Node>
          <Node pos="r" depth="2" NCoef="0" IVar="2" Cut="7.4123748779296875e+02" cType="1" res="2.2642318159341812e-02" rms="3.6246353387832642e-01" purity="7.8705346584320068e-01" nType="0">
            <Node pos="l" depth="3" NCoef="0" IVar="-1" Cut="0.0000000000000000e+00" cType="1" res="2.7950977906584740e-02" rms="3.3934178948402405e-01" purity="8.2558828592300415e-01" nType="-99"/>
            <Node pos="r" depth="3" NCoef="0" IVar="-1" Cut="0.0000000000000000e+00" cType="1" res="-3.3337660133838654e-02" rms="4.3756380677223206e-01" purity="6.2290978431701660e-01" nType="-99"/>
          </Node>
        </Node>
      </Node>
    </BinaryTree>
    <BinaryTree type="DecisionTree" boostWeight="1.0000000000000000e+00" itree="27">
      <Node pos="s" depth="0" NCoef="0" IVar="6" Cut="1.4748781919479370e+00" cType="1" res="1.7807318363338709e-03" rms="3.9864918589591980e-01" purity="5.0075298547744751e-01" nType="0">
        <Node pos="l" depth="1" NCoef="0" IVar="8" Cut="1.9998898506164551e+00" cType="1" res="6.5915435552597046e-03" rms="4.0230205655097961e-01" purity="5.2254843711853027e-01" nType="0">
          <Node pos="l" depth="2" NCoef="0" IVar="7" Cut="9.3335956335067749e-01" cType="1" res="1.0030192323029041e-02" rms="4.0331879258155823e-01" purity="5.3341543674468994e-01" nType="0">
            <Node pos="l" depth="3" NCoef="0" IVar="-1" Cut="0.0000000000000000e+00" cType="1" res="9.9004469811916351e-03" rms="4.0291151404380798e-01" purity="5.6441932916641235e-01" nType="-99"/>
            <Node pos="r" depth="3" NCoef="0" IVar="-1" Cut="0.0000000000000000e+00" cType="1" res="-1.3888677582144737e-02" rms="4.0329033136367798e-01" purity="3.9308407902717590e-01" nType="-99"/>
          </Node>
          <Node pos="r" depth="2" NCoef="0" IVar="-1" Cut="0.0000000000000000e+00" cType="1" res="-4.6053729951381683e-02" rms="3.6626198887825012e-01" purity="2.5442981719970703e-01" nType="-99"/>
        </Node>
        <Node pos="r" depth="1" NCoef="0" IVar="3" Cut="1.8821853637695312e+02" cType="1" res="-6.6749475896358490e-02" rms="3.3498838543891907e-01" purity="1.9027642905712128e-01" nType="0">
          <Node pos="l" depth="2" NCoef="0" IVar="-1" Cut="0.0000000000000000e+00" cType="1" res="-3.1360391527414322e-02" rms="3.1352737545967102e-01" purity="1.3383102416992188e-01" nType="-99"/>
          <Node pos="r" depth="2" NCoef="0" IVar="-1" Cut="0.0000000000000000e+00" cType="1" res="-5.8526393026113510e-02" rms="3.5927176475524902e-01" purity="2.6901367306709290e-01" nType="-99"/>
        </Node>
      </Node>
    </BinaryTree>
    <BinaryTree type="DecisionTree" boostWeight="1.0000000000000000e+00" itree="28">
      <Node pos="s" depth="0" NCoef="0" IVar="9" Cut="-1.9998525381088257e+00" cType="1" res="2.2675739601254463e-03" rms="3.9921048283576965e-01" purity="4.9997532367706299e-01" nType="0">
        <Node pos="l" depth="1" NCoef="0" IVar="9" Cut="-2.3046026229858398e+00" cType="1" res="-7.4083089828491211e-02" rms="3.7362885475158691e-01" purity="3.1028097867965698e-01" nType="0">
          <Node pos="l" depth="2" NCoef="0" IVar="-1" Cut="0.0000000000000000e+00" cType="1" res="-5.2062761038541794e-02" rms="3.6987590789794922e-01" purity="2.8521308302879333e-01" nType="-99"/>
          <Node pos="r" depth="2" NCoef="0" IVar="-1" Cut="0.0000000000000000e+00" cType="1" res="-3.4567382186651230e-02" rms="3.7675622105598450e-01" purity="3.3556511998176575e-01" nType="-99"/>
        </Node>
        <Node pos="r" depth="1" NCoef="0" IVar="9" Cut="9.7141396999359131e-01" cType="1" res="6.3474881462752819e-03" rms="4.0012165904045105e-01" purity="5.1011192798614502e-01" nType="0">
          <Node pos="l" depth="2" NCoef="0" IVar="2" Cut="3.3396380615234375e+02" cType="1" res="1.6087066382169724e-02" rms="4.0057015419006348e-01" purity="5.3380084037780762e-01" nType="0">
            <Node pos="l" depth="3" NCoef="0" IVar="-1" Cut="0.0000000000000000e+00" cType="1" res="1.8823307007551193e-02" rms="4.0949127078056335e-01" purity="4.9363049864768982e-01" nType="-99"/>
            <Node pos="r" depth="3" NCoef="0" IVar="-1" Cut="0.0000000000000000e+00" cType="1" res="3.6194405402056873e-04" rms="3.9194297790527344e-01" purity="5.6896370649337769e-01" nType="-99"/>
          </Node>
          <Node pos="r" depth="2" NCoef="0" IVar="0" Cut="5.9407995605468750e+02" cType="1" res="-2.5945635512471199e-02" rms="3.9692479372024536e-01" purity="4.3156743049621582e-01" nType="0">
            <Node pos="l" depth="3" NCoef="0" IVar="-1" Cut="0.0000000000000000e+00" cType="1" res="-2.0262440666556358e-02" rms="3.9941087365150452e-01" purity="3.7209683656692505e-01" nType="-99"/>
            <Node pos="r" depth="3" NCoef="0" IVar="-1" Cut="0.0000000000000000e+00" cType="1" res="1.9172873347997665e-02" rms="3.7737962603569031e-01" purity="7.6891535520553589e-01" nType="-99"/>
          </Node>
        </Node>
      </Node>
    </BinaryTree>
    <BinaryTree type="DecisionTree" boostWeight="1.0000000000000000e+00" itree="29">
      <Node pos="s" depth="0" NCoef="0" IVar="6" Cut="-1.7193617820739746e+00" cType="1" res="4.5909029431641102e-03" rms="4.0054112672805786e-01" purity="5.0128722190856934e-01" nType="0">
        <Node pos="l" depth="1" NCoef="0" IVar="-1" Cut="0.0000000000000000e+00" cType="1" res="-6.0687482357025146e-02" rms="3.2113236188888550e-01" purity="1.5700146555900574e-01" nType="-99"/>
        <Node pos="r" depth="1" NCoef="0" IVar="8" Cut="1.4666053056716919e+00" cType="1" res="8.1640211865305901e-03" rms="4.0299639105796814e-01" purity="5.1512497663497925e-01" nType="0">
          <Node pos="l" depth="2" NCoef="0" IVar="8" Cut="-9.7140324115753174e-01" cType="1" res="1.3581963256001472e-02" rms="4.0428155660629272e-01" purity="5.3787618875503540e-01" nType="0">
            <Node pos="l" depth="3" NCoef="0" IVar="-1" Cut="0.0000000000000000e+00" cType="1" res="-1.2697798199951649e-02" rms="4.0166229009628296e-01" purity="4.1320732235908508e-01" nType="-99"/>
            <Node pos="r" depth="3" NCoef="0" IVar="-1" Cut="0.0000000000000000e+00" cType="1" res="1.3371156528592110e-02" rms="4.0443164110183716e-01" purity="5.7382023334503174e-01" nType="-99"/>
          </Node>
          <Node pos="r" depth="2" NCoef="0" IVar="8" Cut="2.1015009880065918e+00" cType="1" res="-3.9587162435054779e-02" rms="3.8823100924491882e-01" purity="3.1460601091384888e-01" nType="0">
            <Node pos="l" depth="3" NCoef="0" IVar="-1" Cut="0.0000000000000000e+00" cType="1" res="-1.3123041950166225e-02" rms="4.0347787737846375e-01" purity="3.6335980892181396e-01" nType="-99"/>
            <Node pos="r" depth="3" NCoef="0" IVar="-1" Cut="0.0000000000000000e+00" cType="1" res="-4.6418122947216034e-02" rms="3.5143077373504639e-01" purity="2.1168750524520874e-01" nType="-99"/>
          </Node>
        </Node>
      </Node>
    </BinaryTree>
    <BinaryTree type="DecisionTree" boostWeight="1.0000000000000000e+00" itree="30">
      <Node pos="s" depth="0" NCoef="0" IVar="9" Cut="1.9999154806137085e+00" cType="1" res="-5.1776593318209052e-04" rms="3.9612466096878052e-01" purity="4.9973329901695251e-01" nType="0">
        <Node pos="l" depth="1" NCoef="0" IVar="7" Cut="-1.7331894636154175e+00" cType="1" res="4.0454072877764702e-03" rms="3.9670091867446899e-01" purity="5.0988036394119263e-01" nType="0">
          <Node pos="l" depth="2" NCoef="0" IVar="7" Cut="-2.0887706279754639e+00" cType="1" res="-7.1139104664325714e-02" rms="3.3497041463851929e-01" purity="1.9283398985862732e-01" nType="0">
            <Node pos="l" depth="3" NCoef="0" IVar="-1" Cut="0.0000000000000000e+00" cType="1" res="-6.1637233942747116e-02" rms="3.1461831927299500e-01" purity="1.4807592332363129e-01" nType="-99"/>
            <Node pos="r" depth="3" NCoef="0" IVar="-1" Cut="0.0000000000000000e+00" cType="1" res="-3.2279811799526215e-02" rms="3.5253599286079407e-01" purity="2.3639592528343201e-01" nType="-99"/>
          </Node>
          <Node pos="r" depth="2" NCoef="0" IVar="6" Cut="-1.6971403360366821e+00" cType="1" res="8.5327243432402611e-03" rms="3.9963710308074951e-01" purity="5.2880299091339111e-01" nType="0">
            <Node pos="l" depth="3" NCoef="0" IVar="-1" Cut="0.0000000000000000e+00" cType="1" res="-4.8579636961221695e-02" rms="3.3402675390243530e-01" purity="1.6952313482761383e-01" nType="-99"/>
            <Node pos="r" depth="3" NCoef="0" IVar="-1" Cut="0.0000000000000000e+00" cType="1" res="6.4611327834427357e-03" rms="4.0171274542808533e-01" purity="5.4297411441802979e-01" nType="-99"/>
          </Node>
        </Node>
        <Node pos="r" depth="1" NCoef="0" IVar="8" Cut="1.3286851346492767e-01" cType="1" res="-8.0057889223098755e-02" rms="3.7717616558074951e-01" purity="3.2286101579666138e-01" nType="0">
          <Node pos="l" depth="2" NCoef="0" IVar="-1" Cut="0.0000000000000000e+00" cType="1" res="-2.8461998328566551e-02" rms="3.9038082957267761e-01" purity="3.8614863157272339e-01" nType="-99"/>
          <Node pos="r" depth="2" NCoef="0" IVar="-1" Cut="0.0000000000000000e+00" cType="1" res="-6.7244611680507660e-02" rms="3.6060765385627747e-01" purity="2.5812283158302307e-01" nType="-99"/>
        </Node>
      </Node>
    </BinaryTree>
    <BinaryTree type="DecisionTree" boostWeight="1.0000000000000000e+00" itree="31">
      <Node pos="s" depth="0" NCoef="0" IVar="3" Cut="1.4266464233398438e+02" cType="1" res="-1.9010920368600637e-04" rms="3.9786139130592346e-01" purity="4.9792444705963135e-01" nType="0">
        <Node pos="l" depth="1" NCoef="0" IVar="5" Cut="6.2953079223632812e+01" cType="1" res="-2.9804311692714691e-02" rms="3.6967068910598755e-01" purity="2.1973989903926849e-01" nType="0">
          <Node pos="l" depth="2" NCoef="0" IVar="8" Cut="1.3319738209247589e-01" cType="1" res="-6.5460912883281708e-02" rms="3.0652371048927307e-01" purity="1.2662035226821899e-01" nType="0">
            <Node pos="l" depth="3" NCoef="0" IVar="-1" Cut="0.0000000000000000e+00" cType="1" res="-3.4344982355833054e-02" rms="3.2542866468429565e-01" purity="1.4841039478778839e-01" nType="-99"/>
            <Node pos="r" depth="3" NCoef="0" IVar="-1" Cut="0.0000000000000000e+00" cType="1" res="-6.3225738704204559e-02" rms="2.7979972958564758e-01" purity="9.9440351128578186e-02" nType="-99"/>
          </Node>
          <Node pos="r" depth="2" NCoef="0" IVar="2" Cut="3.0828665161132812e+02" cType="1" res="-7.8133906936272979e-04" rms="4.1174623370170593e-01" purity="2.9553526639938354e-01" nType="0">
            <Node pos="l" depth="3" NCoef="0" IVar="-1" Cut="0.0000000000000000e+00" cType="1" res="1.6490843147039413e-02" rms="4.2251896858215332e-01" purity="3.0074235796928406e-01" nType="-99"/>
            <Node pos="r" depth="3" NCoef="0" IVar="-1" Cut="0.0000000000000000e+00" cType="1" res="-1.8024463206529617e-02" rms="3.9730969071388245e-01" purity="2.8984472155570984e-01" nType="-99"/>
          </Node>
        </Node>
        <Node pos="r" depth="1" NCoef="0" IVar="2" Cut="6.5103533935546875e+02" cType="1" res="8.3827786147594452e-03" rms="4.0525296330451965e-01" purity="5.7845485210418701e-01" nType="0">
          <Node pos="l" depth="2" NCoef="0" IVar="0" Cut="3.7243301391601562e+02" cType="1" res="1.2600223533809185e-02" rms="4.0392079949378967e-01" purity="5.7714813947677612e-01" nType="0">
            <Node pos="l" depth="3" NCoef="0" IVar="-1" Cut="0.0000000000000000e+00" cType="1" res="-8.8533749803900719e-03" rms="4.2198130488395691e-01" purity="3.6501491069793701e-01" nType="-99"/>
            <Node pos="r" depth="3" NCoef="0" IVar="-1" Cut="0.0000000000000000e+00" cType="1" res="1.5893822535872459e-02" rms="3.9349687099456787e-01" purity="6.8570005893707275e-01" nType="-99"/>
          </Node>
          <Node pos="r" depth="2" NCoef="0" IVar="1" Cut="2.0899516601562500e+03" cType="1" res="-5.1886104047298431e-02" rms="4.1922309994697571e-01" purity="5.9712970256805420e-01" nType="0">
            <Node pos="l" depth="3" NCoef="0" IVar="-1" Cut="0.0000000000000000e+00" cType="1" res="-4.2952612042427063e-02" rms="4.3091213703155518e-01" purity="4.5103952288627625e-01" nType="-99"/>
            <Node pos="r" depth="3" NCoef="0" IVar="-1" Cut="0.0000000000000000e+00" cType="1" res="-8.8317049667239189e-03" rms="4.0360558032989502e-01" purity="7.4589645862579346e-01" nType="-99"/>
          </Node>
        </Node>
      </Node>
    </BinaryTree>
    <BinaryTree type="DecisionTree" boostWeight="1.0000000000000000e+00" itree="32">
      <Node pos="s" depth="0" NCoef="0" IVar="6" Cut="-6.5603303909301758e-01" cType="1" res="-5.4439372615888715e-04" rms="3.9747196435928345e-01" purity="4.9874889850616455e-01" nType="0">
        <Node pos="l" depth="1" NCoef="0" IVar="2" Cut="4.2899792480468750e+02" cType="1" res="-3.0663603916764259e-02" rms="3.8558334112167358e-01" purity="3.7372675538063049e-01" nType="0">
          <Node pos="l" depth="2" NCoef="0" IVar="3" Cut="1.7710766601562500e+02" cType="1" res="-1.8642056733369827e-02" rms="3.8100498914718628e-01" purity="3.6482819914817810e-01" nType="0">
            <Node pos="l" depth="3" NCoef="0" IVar="-1" Cut="0.0000000000000000e+00" cType="1" res="-2.7012530714273453e-02" rms="3.5626113414764404e-01" purity="2.0210322737693787e-01" nType="-99"/>
            <Node pos="r" depth="3" NCoef="0" IVar="-1" Cut="0.0000000000000000e+00" cType="1" res="7.4944953666999936e-05" rms="4.0172043442726135e-01" purity="5.1598978042602539e-01" nType="-99"/>
          </Node>
          <Node pos="r" depth="2" NCoef="0" IVar="6" Cut="-1.0611450672149658e+00" cType="1" res="-6.6324412822723389e-02" rms="3.9671820402145386e-01" purity="4.0012350678443909e-01" nType="0">
            <Node pos="l" depth="3" NCoef="0" IVar="-1" Cut="0.0000000000000000e+00" cType="1" res="-4.8068683594465256e-02" rms="3.6583361029624939e-01" purity="3.0277383327484131e-01" nType="-99"/>
            <Node pos="r" depth="3" NCoef="0" IVar="-1" Cut="0.0000000000000000e+00" cType="1" res="-2.8430277481675148e-02" rms="4.2474547028541565e-01" purity="4.9685549736022949e-01" nType="-99"/>
          </Node>
        </Node>
        <Node pos="r" depth="1" NCoef="0" IVar="6" Cut="1.8124110698699951e+00" cType="1" res="8.9041329920291901e-03" rms="4.0066260099411011e-01" purity="5.3796887397766113e-01" nType="0">
          <Node pos="l" depth="2" NCoef="0" IVar="7" Cut="1.7333302497863770e+00" cType="1" res="1.2492134235799313e-02" rms="4.0409278869628906e-01" purity="5.5649113655090332e-01" nType="0">
            <Node pos="l" depth="3" NCoef="0" IVar="-1" Cut="0.0000000000000000e+00" cType="1" res="8.9602256193757057e-03" rms="4.0524303913116455e-01" purity="5.7341080904006958e-01" nType="-99"/>
            <Node pos="r" depth="3" NCoef="0" IVar="-1" Cut="0.0000000000000000e+00" cType="1" res="-2.9251430183649063e-02" rms="3.7766608595848083e-01" purity="2.5652492046356201e-01" nType="-99"/>
          </Node>
          <Node pos="r" depth="2" NCoef="0" IVar="-1" Cut="0.0000000000000000e+00" cType="1" res="-5.1988508552312851e-02" rms="3.0897256731987000e-01" purity="1.4258688688278198e-01" nType="-99"/>
        </Node>
      </Node>
    </BinaryTree>
    <BinaryTree type="DecisionTree" boostWeight="1.0000000000000000e+00" itree="33">
      <Node pos="s" depth="0" NCoef="0" IVar="0" Cut="5.7768591308593750e+02" cType="1" res="-3.1924212817102671e-03" rms="3.9602795243263245e-01" purity="4.9667835235595703e-01" nType="0">
        <Node pos="l" depth="1" NCoef="0" IVar="3" Cut="1.8071723937988281e+02" cType="1" res="-1.0960709303617477e-02" rms="4.0368616580963135e-01" purity="4.3308177590370178e-01" nType="0">
          <Node pos="l" depth="2" NCoef="0" IVar="2" Cut="3.5497015380859375e+02" cType="1" res="-2.9645357280969620e-02" rms="3.9009392261505127e-01" purity="2.6962447166442871e-01" nType="0">
            <Node pos="l" depth="3" NCoef="0" IVar="-1" Cut="0.0000000000000000e+00" cType="1" res="-6.7019537091255188e-03" rms="4.0092235803604126e-01" purity="2.8811156749725342e-01" nType="-99"/>
            <Node pos="r" depth="3" NCoef="0" IVar="-1" Cut="0.0000000000000000e+00" cType="1" res="-4.3763551861047745e-02" rms="3.6020755767822266e-01" purity="2.2690190374851227e-01" nType="-99"/>
          </Node>
          <Node pos="r" depth="2" NCoef="0" IVar="6" Cut="6.8002837896347046e-01" cType="1" res="3.8985344581305981e-03" rms="4.1357511281967163e-01" purity="5.6307363510131836e-01" nType="0">
            <Node pos="l" depth="3" NCoef="0" IVar="-1" Cut="0.0000000000000000e+00" cType="1" res="9.7778029739856720e-03" rms="4.1526633501052856e-01" purity="6.0334837436676025e-01" nType="-99"/>
            <Node pos="r" depth="3" NCoef="0" IVar="-1" Cut="0.0000000000000000e+00" cType="1" res="-2.5669811293482780e-02" rms="4.0330365300178528e-01" purity="4.1873049736022949e-01" nType="-99"/>
          </Node>
        </Node>
        <Node pos="r" depth="1" NCoef="0" IVar="5" Cut="1.2018337249755859e+02" cType="1" res="3.3425416797399521e-02" rms="3.5544908046722412e-01" purity="7.9645723104476929e-01" nType="0">
          <Node pos="l" depth="2" NCoef="0" IVar="5" Cut="6.3368007659912109e+01" cType="1" res="2.1288864314556122e-02" rms="3.9514625072479248e-01" purity="7.3030328750610352e-01" nType="0">
            <Node pos="l" depth="3" NCoef="0" IVar="-1" Cut="0.0000000000000000e+00" cType="1" res="-2.5254607200622559e-02" rms="4.4341665506362915e-01" purity="5.3666639328002930e-01" nType="-99"/>
            <Node pos="r" depth="3" NCoef="0" IVar="-1" Cut="0.0000000000000000e+00" cType="1" res="2.5287264958024025e-02" rms="3.7763157486915588e-01" purity="7.8562831878662109e-01" nType="-99"/>
          </Node>
          <Node pos="r" depth="2" NCoef="0" IVar="6" Cut="-5.5832285434007645e-02" cType="1" res="5.5886469781398773e-02" rms="2.6537269353866577e-01" purity="9.1888809204101562e-01" nType="0">
            <Node pos="l" depth="3" NCoef="0" IVar="-1" Cut="0.0000000000000000e+00" cType="1" res="4.1455630213022232e-02" rms="2.7986213564872742e-01" purity="9.0879249572753906e-01" nType="-99"/>
            <Node pos="r" depth="3" NCoef="0" IVar="-1" Cut="0.0000000000000000e+00" cType="1" res="5.6044843047857285e-02" rms="2.5318253040313721e-01" purity="9.2682439088821411e-01" nType="-99"/>
          </Node>
        </Node>
      </Node>
    </BinaryTree>
    <BinaryTree type="DecisionTree" boostWeight="1.0000000000000000e+00" itree="34">
      <Node pos="s" depth="0" NCoef="0" IVar="0" Cut="5.9407910156250000e+02" cType="1" res="-1.7846132395789027e-03" rms="3.9449757337570190e-01" purity="4.9576732516288757e-01" nType="0">
        <Node pos="l" depth="1" NCoef="0" IVar="2" Cut="4.2235223388671875e+02" cType="1" res="-8.1338323652744293e-03" rms="4.0032234787940979e-01" purity="4.3940150737762451e-01" nType="0">
          <Node pos="l" depth="2" NCoef="0" IVar="1" Cut="1.1540405273437500e+03" cType="1" res="2.2012297995388508e-03" rms="4.0030625462532043e-01" purity="4.3460163474082947e-01" nType="0">
            <Node pos="l" depth="3" NCoef="0" IVar="-1" Cut="0.0000000000000000e+00" cType="1" res="-8.6507508531212807e-03" rms="3.9236357808113098e-01" purity="2.5802952051162720e-01" nType="-99"/>
            <Node pos="r" depth="3" NCoef="0" IVar="-1" Cut="0.0000000000000000e+00" cType="1" res="1.3302166014909744e-02" rms="4.0966692566871643e-01" purity="6.7173004150390625e-01" nType="-99"/>
          </Node>
          <Node pos="r" depth="2" NCoef="0" IVar="0" Cut="5.1005413818359375e+02" cType="1" res="-3.9580553770065308e-02" rms="3.9872702956199646e-01" purity="4.5400598645210266e-01" nType="0">
            <Node pos="l" depth="3" NCoef="0" IVar="-1" Cut="0.0000000000000000e+00" cType="1" res="-3.1077746301889420e-02" rms="3.9765202999114990e-01" purity="3.9333170652389526e-01" nType="-99"/>
            <Node pos="r" depth="3" NCoef="0" IVar="-1" Cut="0.0000000000000000e+00" cType="1" res="1.1448627337813377e-02" rms="3.9677074551582336e-01" purity="6.6947627067565918e-01" nType="-99"/>
          </Node>
        </Node>
        <Node pos="r" depth="1" NCoef="0" IVar="7" Cut="4.0029662847518921e-01" cType="1" res="3.2601349055767059e-02" rms="3.5938075184822083e-01" purity="8.0103212594985962e-01" nType="0">
          <Node pos="l" depth="2" NCoef="0" IVar="9" Cut="-3.9954718947410583e-01" cType="1" res="4.2132761329412460e-02" rms="3.5098451375961304e-01" purity="8.2084864377975464e-01" nType="0">
            <Node pos="l" depth="3" NCoef="0" IVar="-1" Cut="0.0000000000000000e+00" cType="1" res="1.5932200476527214e-02" rms="3.5894334316253662e-01" purity="7.9406160116195679e-01" nType="-99"/>
            <Node pos="r" depth="3" NCoef="0" IVar="-1" Cut="0.0000000000000000e+00" cType="1" res="3.6345936357975006e-02" rms="3.4592673182487488e-01" purity="8.3614873886108398e-01" nType="-99"/>
          </Node>
          <Node pos="r" depth="2" NCoef="0" IVar="-1" Cut="0.0000000000000000e+00" cType="1" res="6.8702776916325092e-03" rms="3.7685689330101013e-01" purity="7.5604242086410522e-01" nType="-99"/>
        </Node>
      </Node>
    </BinaryTree>
    <BinaryTree type="DecisionTree" boostWeight="1.0000000000000000e+00" itree="35">
      <Node pos="s" depth="0" NCoef="0" IVar="6" Cut="-1.7043619155883789e+00" cType="1" res="2.6015641633421183e-03" rms="3.9370372891426086e-01" purity="5.0222200155258179e-01" nType="0">
        <Node pos="l" depth="1" NCoef="0" IVar="-1" Cut="0.0000000000000000e+00" cType="1" res="-6.7536070942878723e-02" rms="2.6627963781356812e-01" purity="1.2174101173877716e-01" nType="-99"/>
        <Node pos="r" depth="1" NCoef="0" IVar="7" Cut="-6.6662615537643433e-01" cType="1" res="6.2290341593325138e-03" rms="3.9776417613029480e-01" purity="5.1823562383651733e-01" nType="0">
          <Node pos="l" depth="2" NCoef="0" IVar="9" Cut="-4.0022182464599609e-01" cType="1" res="-1.8528463318943977e-02" rms="3.9457127451896667e-01" purity="4.1978216171264648e-01" nType="0">
            <Node pos="l" depth="3" NCoef="0" IVar="-1" Cut="0.0000000000000000e+00" cType="1" res="-2.5348173454403877e-02" rms="3.8748982548713684e-01" purity="3.7294629216194153e-01" nType="-99"/>
            <Node pos="r" depth="3" NCoef="0" IVar="-1" Cut="0.0000000000000000e+00" cType="1" res="-8.2453443610575050e-05" rms="3.9883771538734436e-01" purity="4.5506376028060913e-01" nType="-99"/>
          </Node>
          <Node pos="r" depth="2" NCoef="0" IVar="7" Cut="8.1907051801681519e-01" cType="1" res="1.4866467565298080e-02" rms="3.9851036667823792e-01" purity="5.5258423089981079e-01" nType="0">
            <Node pos="l" depth="3" NCoef="0" IVar="-1" Cut="0.0000000000000000e+00" cType="1" res="1.5102808363735676e-02" rms="4.0028995275497437e-01" purity="6.1696195602416992e-01" nType="-99"/>
            <Node pos="r" depth="3" NCoef="0" IVar="-1" Cut="0.0000000000000000e+00" cType="1" res="-6.8779787980020046e-03" rms="3.9303621649742126e-01" purity="4.0235161781311035e-01" nType="-99"/>
          </Node>
        </Node>
      </Node>
    </BinaryTree>
    <BinaryTree type="DecisionTree" boostWeight="1.0000000000000000e+00" itree="36">
      <Node pos="s" depth="0" NCoef="0" IVar="2" Cut="4.9131399536132812e+02" cType="1" res="-7.2743860073387623e-04" rms="3.9565494656562805e-01" purity="4.9614936113357544e-01" nType="0">
        <Node pos="l" depth="1" NCoef="0" IVar="1" Cut="9.2239178466796875e+02" cType="1" res="5.3107473067939281e-03" rms="3.9453020691871643e-01" purity="4.8553177714347839e-01" nType="0">
          <Node pos="l" depth="2" NCoef="0" IVar="0" Cut="3.3930050659179688e+02" cType="1" res="-4.2669150978326797e-02" rms="3.1446322798728943e-01" purity="1.2005744874477386e-01" nType="0">
            <Node pos="l" depth="3" NCoef="0" IVar="-1" Cut="0.0000000000000000e+00" cType="1" res="-4.6697463840246201e-02" rms="2.9812332987785339e-01" purity="1.0333813726902008e-01" nType="-99"/>
            <Node pos="r" depth="3" NCoef="0" IVar="-1" Cut="0.0000000000000000e+00" cType="1" res="-1.8645973876118660e-02" rms="3.3165994286537170e-01" purity="1.3970260322093964e-01" nType="-99"/>
          </Node>
          <Node pos="r" depth="2" NCoef="0" IVar="2" Cut="2.4161686706542969e+02" cType="1" res="1.1419840157032013e-02" rms="4.0317684412002563e-01" purity="5.3206616640090942e-01" nType="0">
            <Node pos="l" depth="3" NCoef="0" IVar="-1" Cut="0.0000000000000000e+00" cType="1" res="2.7338761836290359e-02" rms="4.3342071771621704e-01" purity="5.3078788518905640e-01" nType="-99"/>
            <Node pos="r" depth="3" NCoef="0" IVar="-1" Cut="0.0000000000000000e+00" cType="1" res="3.1656455248594284e-03" rms="3.9820200204849243e-01" purity="5.3225314617156982e-01" nType="-99"/>
          </Node>
        </Node>
        <Node pos="r" depth="1" NCoef="0" IVar="0" Cut="5.9407983398437500e+02" cType="1" res="-2.7714777737855911e-02" rms="3.9952948689460754e-01" purity="5.4360413551330566e-01" nType="0">
          <Node pos="l" depth="2" NCoef="0" IVar="6" Cut="4.0737691521644592e-01" cType="1" res="-4.9861680716276169e-02" rms="4.0478619933128357e-01" purity="4.2512050271034241e-01" nType="0">
            <Node pos="l" depth="3" NCoef="0" IVar="-1" Cut="0.0000000000000000e+00" cType="1" res="-1.3771470636129379e-02" rms="4.1461622714996338e-01" purity="4.6785962581634521e-01" nType="-99"/>
            <Node pos="r" depth="3" NCoef="0" IVar="-1" Cut="0.0000000000000000e+00" cType="1" res="-5.9053018689155579e-02" rms="3.7380641698837280e-01" purity="3.2182067632675171e-01" nType="-99"/>
          </Node>
          <Node pos="r" depth="2" NCoef="0" IVar="9" Cut="1.3321797549724579e-01" cType="1" res="1.0206250473856926e-02" rms="3.8743585348129272e-01" purity="7.4647760391235352e-01" nType="0">
            <Node pos="l" depth="3" NCoef="0" IVar="-1" Cut="0.0000000000000000e+00" cType="1" res="1.5161491930484772e-02" rms="3.7827345728874207e-01" purity="7.6277095079421997e-01" nType="-99"/>
            <Node pos="r" depth="3" NCoef="0" IVar="-1" Cut="0.0000000000000000e+00" cType="1" res="-6.0237450525164604e-03" rms="3.9885383844375610e-01" purity="7.2400349378585815e-01" nType="-99"/>
          </Node>
        </Node>
      </Node>
    </BinaryTree>
    <BinaryTree type="DecisionTree" boostWeight="1.0000000000000000e+00" itree="37">
      <Node pos="s" depth="0" NCoef="0" IVar="6" Cut="6.7278254032135010e-01" cType="1" res="3.9691393612883985e-04" rms="3.9527720212936401e-01" purity="4.9801352620124817e-01" nType="0">
        <Node pos="l" depth="1" NCoef="0" IVar="6" Cut="-3.1450888514518738e-01" cType="1" res="8.2783605903387070e-03" rms="4.0057268738746643e-01" purity="5.3687828779220581e-01" nType="0">
          <Node pos="l" depth="2" NCoef="0" IVar="9" Cut="1.4666485786437988e+00" cType="1" res="-9.0444870293140411e-03" rms="3.9476680755615234e-01" purity="4.5627507567405701e-01" nType="0">
            <Node pos="l" depth="3" NCoef="0" IVar="-1" Cut="0.0000000000000000e+00" cType="1" res="-1.4817772898823023e-03" rms="3.9681881666183472e-01" purity="4.7087284922599792e-01" nType="-99"/>
            <Node pos="r" depth="3" NCoef="0" IVar="-1" Cut="0.0000000000000000e+00" cType="1" res="-4.0056038647890091e-02" rms="3.7203133106231689e-01" purity="3.3134147524833679e-01" nType="-99"/>
          </Node>
          <Node pos="r" depth="2" NCoef="0" IVar="7" Cut="-1.4665038585662842e+00" cType="1" res="2.4673303589224815e-02" rms="4.0530973672866821e-01" purity="6.1316400766372681e-01" nType="0">
            <Node pos="l" depth="3" NCoef="0" IVar="-1" Cut="0.0000000000000000e+00" cType="1" res="-2.2268326953053474e-02" rms="3.9054316282272339e-01" purity="3.1439185142517090e-01" nType="-99"/>
            <Node pos="r" depth="3" NCoef="0" IVar="-1" Cut="0.0000000000000000e+00" cType="1" res="1.6689827665686607e-02" rms="4.0598157048225403e-01" purity="6.3543647527694702e-01" nType="-99"/>
          </Node>
        </Node>
        <Node pos="r" depth="1" NCoef="0" IVar="4" Cut="1.7064479064941406e+02" cType="1" res="-2.4601530283689499e-02" rms="3.7690156698226929e-01" purity="3.7474185228347778e-01" nType="0">
          <Node pos="l" depth="2" NCoef="0" IVar="2" Cut="3.9400234985351562e+02" cType="1" res="-3.6510821431875229e-02" rms="3.7378752231597900e-01" purity="2.8090655803680420e-01" nType="0">
            <Node pos="l" depth="3" NCoef="0" IVar="-1" Cut="0.0000000000000000e+00" cType="1" res="-1.4430373907089233e-02" rms="3.7584355473518372e-01" purity="2.7953043580055237e-01" nType="-99"/>
            <Node pos="r" depth="3" NCoef="0" IVar="-1" Cut="0.0000000000000000e+00" cType="1" res="-4.3705500662326813e-02" rms="3.6637488007545471e-01" purity="2.8427416086196899e-01" nType="-99"/>
          </Node>
          <Node pos="r" depth="2" NCoef="0" IVar="6" Cut="1.0778228044509888e+00" cType="1" res="1.4331979677081108e-02" rms="3.8434043526649475e-01" purity="6.8150544166564941e-01" nType="0">
            <Node pos="l" depth="3" NCoef="0" IVar="-1" Cut="0.0000000000000000e+00" cType="1" res="1.8888786435127258e-02" rms="3.6947974562644958e-01" purity="7.6758295297622681e-01" nType="-99"/>
            <Node pos="r" depth="3" NCoef="0" IVar="-1" Cut="0.0000000000000000e+00" cType="1" res="-2.4157210718840361e-03" rms="3.9954882860183716e-01" purity="5.8471429347991943e-01" nType="-99"/>
          </Node>
        </Node>
      </Node>
    </BinaryTree>
    <BinaryTree type="DecisionTree" boostWeight="1.0000000000000000e+00" itree="38">
      <Node pos="s" depth="0" NCoef="0" IVar="8" Cut="-9.3334579467773438e-01" cType="1" res="3.7982161156833172e-03" rms="3.9518037438392639e-01" purity="5.0098311901092529e-01" nType="0">
        <Node pos="l" depth="1" NCoef="0" IVar="6" Cut="4.2018049955368042e-01" cType="1" res="-1.9413903355598450e-02" rms="3.8970589637756348e-01" purity="4.0277656912803650e-01" nType="0">
          <Node pos="l" depth="2" NCoef="0" IVar="6" Cut="-1.0906466245651245e+00" cType="1" res="-3.1706097070127726e-03" rms="3.9559325575828552e-01" purity="4.4101223349571228e-01" nType="0">
            <Node pos="l" depth="3" NCoef="0" IVar="-1" Cut="0.0000000000000000e+00" cType="1" res="-4.7006472945213318e-02" rms="3.0889040231704712e-01" purity="1.7734992504119873e-01" nType="-99"/>
            <Node pos="r" depth="3" NCoef="0" IVar="-1" Cut="0.0000000000000000e+00" cType="1" res="8.0990307033061981e-03" rms="4.1693618893623352e-01" purity="5.2168142795562744e-01" nType="-99"/>
          </Node>
          <Node pos="r" depth="2" NCoef="0" IVar="7" Cut="1.3338389992713928e-01" cType="1" res="-6.0137942433357239e-02" rms="3.7142893671989441e-01" purity="3.0691480636596680e-01" nType="0">
            <Node pos="l" depth="3" NCoef="0" IVar="-1" Cut="0.0000000000000000e+00" cType="1" res="-2.4777386337518692e-02" rms="3.8016745448112488e-01" purity="3.2754060626029968e-01" nType="-99"/>
            <Node pos="r" depth="3" NCoef="0" IVar="-1" Cut="0.0000000000000000e+00" cType="1" res="-5.5551812052726746e-02" rms="3.5735914111137390e-01" purity="2.7894920110702515e-01" nType="-99"/>
          </Node>
        </Node>
        <Node pos="r" depth="1" NCoef="0" IVar="8" Cut="8.4438443183898926e-01" cType="1" res="1.0105524212121964e-02" rms="3.9642012119293213e-01" purity="5.2766823768615723e-01" nType="0">
          <Node pos="l" depth="2" NCoef="0" IVar="1" Cut="1.1026463623046875e+03" cType="1" res="2.0297305658459663e-02" rms="3.9606931805610657e-01" purity="5.7713389396667480e-01" nType="0">
            <Node pos="l" depth="3" NCoef="0" IVar="-1" Cut="0.0000000000000000e+00" cType="1" res="-2.0521872211247683e-03" rms="4.0887278318405151e-01" purity="2.6990801095962524e-01" nType="-99"/>
            <Node pos="r" depth="3" NCoef="0" IVar="-1" Cut="0.0000000000000000e+00" cType="1" res="1.7268041148781776e-02" rms="3.9072808623313904e-01" purity="6.9356036186218262e-01" nType="-99"/>
          </Node>
          <Node pos="r" depth="2" NCoef="0" IVar="9" Cut="1.7332310676574707e+00" cType="1" res="-1.3990188017487526e-02" rms="3.9620694518089294e-01" purity="4.1072002053260803e-01" nType="0">
            <Node pos="l" depth="3" NCoef="0" IVar="-1" Cut="0.0000000000000000e+00" cType="1" res="-4.2270352132618427e-03" rms="4.0056970715522766e-01" purity="4.3146961927413940e-01" nType="-99"/>
            <Node pos="r" depth="3" NCoef="0" IVar="-1" Cut="0.0000000000000000e+00" cType="1" res="-4.5700043439865112e-02" rms="3.5453990101814270e-01" purity="2.4399325251579285e-01" nType="-99"/>
          </Node>
        </Node>
      </Node>
    </BinaryTree>
    <BinaryTree type="DecisionTree" boostWeight="1.0000000000000000e+00" itree="39">
      <Node pos="s" depth="0" NCoef="0" IVar="2" Cut="6.2094372558593750e+02" cType="1" res="3.0979916919022799e-03" rms="3.9557534456253052e-01" purity="5.0221151113510132e-01" nType="0">
        <Node pos="l" depth="1" NCoef="0" IVar="3" Cut="2.1364578247070312e+02" cType="1" res="7.3673911392688751e-03" rms="3.9423045516014099e-01" purity="4.9819368124008179e-01" nType="0">
          <Node pos="l" depth="2" NCoef="0" IVar="2" Cut="3.6035971069335938e+02" cType="1" res="-7.9225488007068634e-03" rms="3.9696940779685974e-01" purity="3.7097892165184021e-01" nType="0">
            <Node pos="l" depth="3" NCoef="0" IVar="-1" Cut="0.0000000000000000e+00" cType="1" res="1.5557986916974187e-03" rms="4.0301796793937683e-01" purity="3.7580925226211548e-01" nType="-99"/>
            <Node pos="r" depth="3" NCoef="0" IVar="-1" Cut="0.0000000000000000e+00" cType="1" res="-1.9492808729410172e-02" rms="3.8158908486366272e-01" purity="3.5986444354057312e-01" nType="-99"/>
          </Node>
          <Node pos="r" depth="2" NCoef="0" IVar="8" Cut="9.3334144353866577e-01" cType="1" res="2.8864158317446709e-02" rms="3.8933289051055908e-01" purity="6.7705017328262329e-01" nType="0">
            <Node pos="l" depth="3" NCoef="0" IVar="-1" Cut="0.0000000000000000e+00" cType="1" res="2.1515715867280960e-02" rms="3.8345184922218323e-01" purity="7.0358920097351074e-01" nType="-99"/>
            <Node pos="r" depth="3" NCoef="0" IVar="-1" Cut="0.0000000000000000e+00" cType="1" res="5.5170257110148668e-04" rms="4.1311526298522949e-01" purity="5.6004488468170166e-01" nType="-99"/>
          </Node>
        </Node>
        <Node pos="r" depth="1" NCoef="0" IVar="8" Cut="-1.3332624733448029e-01" cType="1" res="-5.6152027100324631e-02" rms="4.0921562910079956e-01" purity="5.5797022581100464e-01" nType="0">
          <Node pos="l" depth="2" NCoef="0" IVar="-1" Cut="0.0000000000000000e+00" cType="1" res="-5.8686509728431702e-02" rms="4.1093531250953674e-01" purity="4.8961478471755981e-01" nType="-99"/>
          <Node pos="r" depth="2" NCoef="0" IVar="-1" Cut="0.0000000000000000e+00" cType="1" res="-1.2984768487513065e-02" rms="4.0474718809127808e-01" purity="6.0328567028045654e-01" nType="-99"/>
        </Node>
      </Node>
    </BinaryTree>
    <BinaryTree type="DecisionTree" boostWeight="1.0000000000000000e+00" itree="40">
      <Node pos="s" depth="0" NCoef="0" IVar="8" Cut="-1.2000143527984619e+00" cType="1" res="-4.5368871651589870e-03" rms="3.9545464515686035e-01" purity="4.9293968081474304e-01" nType="0">
        <Node pos="l" depth="1" NCoef="0" IVar="9" Cut="-6.6677206754684448e-01" cType="1" res="-3.1116884201765060e-02" rms="3.8763400912284851e-01" purity="3.4906551241874695e-01" nType="0">
          <Node pos="l" depth="2" NCoef="0" IVar="3" Cut="1.8154321289062500e+02" cType="1" res="-6.4174830913543701e-02" rms="3.6982387304306030e-01" purity="2.8313940763473511e-01" nType="0">
            <Node pos="l" depth="3" NCoef="0" IVar="-1" Cut="0.0000000000000000e+00" cType="1" res="-3.0260529369115829e-02" rms="3.4728959202766418e-01" purity="1.8396690487861633e-01" nType="-99"/>
            <Node pos="r" depth="3" NCoef="0" IVar="-1" Cut="0.0000000000000000e+00" cType="1" res="-4.9406684935092926e-02" rms="3.9119935035705566e-01" purity="3.8987761735916138e-01" nType="-99"/>
          </Node>
          <Node pos="r" depth="2" NCoef="0" IVar="7" Cut="3.9979600906372070e-01" cType="1" res="-1.2493493966758251e-02" rms="3.9610296487808228e-01" purity="3.8620537519454956e-01" nType="0">
            <Node pos="l" depth="3" NCoef="0" IVar="-1" Cut="0.0000000000000000e+00" cType="1" res="2.7756622876040637e-04" rms="3.9466556906700134e-01" purity="4.2271712422370911e-01" nType="-99"/>
            <Node pos="r" depth="3" NCoef="0" IVar="-1" Cut="0.0000000000000000e+00" cType="1" res="-2.6226947084069252e-02" rms="3.9778935909271240e-01" purity="3.0243006348609924e-01" nType="-99"/>
          </Node>
        </Node>
        <Node pos="r" depth="1" NCoef="0" IVar="8" Cut="7.0471137762069702e-01" cType="1" res="2.7086309273727238e-04" rms="3.9666262269020081e-01" purity="5.1896345615386963e-01" nType="0">
          <Node pos="l" depth="2" NCoef="0" IVar="7" Cut="1.7332683801651001e+00" cType="1" res="8.2284510135650635e-03" rms="3.9760938286781311e-01" purity="5.6552040576934814e-01" nType="0">
            <Node pos="l" depth="3" NCoef="0" IVar="-1" Cut="0.0000000000000000e+00" cType="1" res="6.5335207618772984e-03" rms="3.9815062284469604e-01" purity="5.8117634057998657e-01" nType="-99"/>
            <Node pos="r" depth="3" NCoef="0" IVar="-1" Cut="0.0000000000000000e+00" cType="1" res="-2.9525306075811386e-02" rms="3.8223108649253845e-01" purity="2.4932774901390076e-01" nType="-99"/>
          </Node>
          <Node pos="r" depth="2" NCoef="0" IVar="7" Cut="-9.3332380056381226e-01" cType="1" res="-1.6565738245844841e-02" rms="3.9412271976470947e-01" purity="4.2045864462852478e-01" nType="0">
            <Node pos="l" depth="3" NCoef="0" IVar="-1" Cut="0.0000000000000000e+00" cType="1" res="-2.9553385451436043e-02" rms="3.5576516389846802e-01" purity="2.7759629487991333e-01" nType="-99"/>
            <Node pos="r" depth="3" NCoef="0" IVar="-1" Cut="0.0000000000000000e+00" cType="1" res="-6.4887981861829758e-03" rms="4.0092492103576660e-01" purity="4.4829964637756348e-01" nType="-99"/>
          </Node>
        </Node>
      </Node>
    </BinaryTree>
    <BinaryTree type="DecisionTree" boostWeight="1.0000000000000000e+00" itree="41">
      <Node pos="s" depth="0" NCoef="0" IVar="7" Cut="9.3331652879714966e-01" cType="1" res="1.8901834264397621e-03" rms="3.9532455801963806e-01" purity="5.0189042091369629e-01" nType="0">
        <Node pos="l" depth="1" NCoef="0" IVar="8" Cut="-1.7332664728164673e+00" cType="1" res="7.5901588425040245e-03" rms="3.9743754267692566e-01" purity="5.3793305158615112e-01" nType="0">
          <Node pos="l" depth="2" NCoef="0" IVar="9" Cut="-1.3352589309215546e-01" cType="1" res="-3.8369093090295792e-02" rms="3.8141518831253052e-01" purity="2.7258601784706116e-01" nType="0">
            <Node pos="l" depth="3" NCoef="0" IVar="-1" Cut="0.0000000000000000e+00" cType="1" res="-3.7469808012247086e-02" rms="3.7289452552795410e-01" purity="2.3396717011928558e-01" nType="-99"/>
            <Node pos="r" depth="3" NCoef="0" IVar="-1" Cut="0.0000000000000000e+00" cType="1" res="-1.0751198977231979e-02" rms="3.9008185267448425e-01" purity="3.1750667095184326e-01" nType="-99"/>
          </Node>
          <Node pos="r" depth="2" NCoef="0" IVar="9" Cut="1.4666082859039307e+00" cType="1" res="1.0943843051791191e-02" rms="3.9837399125099182e-01" purity="5.5729562044143677e-01" nType="0">
            <Node pos="l" depth="3" NCoef="0" IVar="-1" Cut="0.0000000000000000e+00" cType="1" res="8.8617093861103058e-03" rms="3.9824289083480835e-01" purity="5.7001841068267822e-01" nType="-99"/>
            <Node pos="r" depth="3" NCoef="0" IVar="-1" Cut="0.0000000000000000e+00" cType="1" res="-1.1765227653086185e-02" rms="3.9804989099502563e-01" purity="4.5704433321952820e-01" nType="-99"/>
          </Node>
        </Node>
        <Node pos="r" depth="1" NCoef="0" IVar="8" Cut="-9.3346697092056274e-01" cType="1" res="-2.2272240370512009e-02" rms="3.8530394434928894e-01" purity="3.4910452365875244e-01" nType="0">
          <Node pos="l" depth="2" NCoef="0" IVar="-1" Cut="0.0000000000000000e+00" cType="1" res="-4.0609158575534821e-02" rms="3.4978312253952026e-01" purity="2.3099893331527710e-01" nType="-99"/>
          <Node pos="r" depth="2" NCoef="0" IVar="7" Cut="1.9999626874923706e+00" cType="1" res="-1.3822814449667931e-02" rms="3.9207294583320618e-01" purity="3.7471795082092285e-01" nType="0">
            <Node pos="l" depth="3" NCoef="0" IVar="-1" Cut="0.0000000000000000e+00" cType="1" res="-3.8205953314900398e-03" rms="4.0093919634819031e-01" purity="4.1344162821769714e-01" nType="-99"/>
            <Node pos="r" depth="3" NCoef="0" IVar="-1" Cut="0.0000000000000000e+00" cType="1" res="-3.3448975533246994e-02" rms="3.4470194578170776e-01" purity="1.9064123928546906e-01" nType="-99"/>
          </Node>
        </Node>
      </Node>
    </BinaryTree>
    <BinaryTree type="DecisionTree" boostWeight="1.0000000000000000e+00" itree="42">
      <Node pos="s" depth="0" NCoef="0" IVar="5" Cut="1.5527502441406250e+02" cType="1" res="7.5158612162340432e-05" rms="3.9418181777000427e-01" purity="4.9887117743492126e-01" nType="0">
        <Node pos="l" depth="1" NCoef="0" IVar="5" Cut="5.5013038635253906e+01" cType="1" res="-3.9695519953966141e-03" rms="4.0096709132194519e-01" purity="4.6298035979270935e-01" nType="0">
          <Node pos="l" depth="2" NCoef="0" IVar="5" Cut="5.1909759521484375e+01" cType="1" res="-3.8946095854043961e-02" rms="3.6683490872383118e-01" purity="2.3325775563716888e-01" nType="0">
            <Node pos="l" depth="3" NCoef="0" IVar="-1" Cut="0.0000000000000000e+00" cType="1" res="-4.0463946759700775e-02" rms="3.5001772642135620e-01" purity="2.0903155207633972e-01" nType="-99"/>
            <Node pos="r" depth="3" NCoef="0" IVar="-1" Cut="0.0000000000000000e+00" cType="1" res="-1.5935204923152924e-02" rms="3.7671568989753723e-01" purity="2.4910967051982880e-01" nType="-99"/>
          </Node>
          <Node pos="r" depth="2" NCoef="0" IVar="6" Cut="1.4703931808471680e+00" cType="1" res="5.7723926147446036e-04" rms="4.0497118234634399e-01" purity="4.9284327030181885e-01" nType="0">
            <Node pos="l" depth="3" NCoef="0" IVar="-1" Cut="0.0000000000000000e+00" cType="1" res="2.3883520625531673e-03" rms="4.0975344181060791e-01" purity="5.1606363058090210e-01" nType="-99"/>
            <Node pos="r" depth="3" NCoef="0" IVar="-1" Cut="0.0000000000000000e+00" cType="1" res="-3.6534670740365982e-02" rms="3.2824823260307312e-01" purity="1.7322576045989990e-01" nType="-99"/>
          </Node>
        </Node>
        <Node pos="r" depth="1" NCoef="0" IVar="6" Cut="-2.9920011758804321e-01" cType="1" res="4.0239401161670685e-02" rms="3.1627219915390015e-01" purity="8.5526907444000244e-01" nType="0">
          <Node pos="l" depth="2" NCoef="0" IVar="-1" Cut="0.0000000000000000e+00" cType="1" res="1.3566648587584496e-02" rms="3.4414064884185791e-01" purity="8.1464129686355591e-01" nType="-99"/>
          <Node pos="r" depth="2" NCoef="0" IVar="-1" Cut="0.0000000000000000e+00" cType="1" res="3.9531033486127853e-02" rms="3.0118677020072937e-01" purity="8.7509119510650635e-01" nType="-99"/>
        </Node>
      </Node>
    </BinaryTree>
    <BinaryTree type="DecisionTree" boostWeight="1.0000000000000000e+00" itree="43">
      <Node pos="s" depth="0" NCoef="0" IVar="7" Cut="-1.9998668432235718e+00" cType="1" res="-1.3516810722649097e-03" rms="3.9304372668266296e-01" purity="4.9800825119018555e-01" nType="0">
        <Node pos="l" depth="1" NCoef="0" IVar="-1" Cut="0.0000000000000000e+00" cType="1" res="-6.0118511319160461e-02" rms="2.9895564913749695e-01" purity="1.3666182756423950e-01" nType="-99"/>
        <Node pos="r" depth="1" NCoef="0" IVar="2" Cut="3.5034561157226562e+02" cType="1" res="1.3346421765163541e-03" rms="3.9558491110801697e-01" purity="5.1034373044967651e-01" nType="0">
          <Node pos="l" depth="2" NCoef="0" IVar="4" Cut="7.8043876647949219e+01" cType="1" res="1.2318388558924198e-02" rms="4.0146178007125854e-01" purity="4.7973749041557312e-01" nType="0">
            <Node pos="l" depth="3" NCoef="0" IVar="-1" Cut="0.0000000000000000e+00" cType="1" res="-2.2898187860846519e-02" rms="3.2935285568237305e-01" purity="1.5584228932857513e-01" nType="-99"/>
            <Node pos="r" depth="3" NCoef="0" IVar="-1" Cut="0.0000000000000000e+00" cType="1" res="1.1493092402815819e-02" rms="4.1243305802345276e-01" purity="5.3695470094680786e-01" nType="-99"/>
          </Node>
          <Node pos="r" depth="2" NCoef="0" IVar="6" Cut="-6.5597891807556152e-01" cType="1" res="-1.0753882117569447e-02" rms="3.8865566253662109e-01" purity="5.4402846097946167e-01" nType="0">
            <Node pos="l" depth="3" NCoef="0" IVar="-1" Cut="0.0000000000000000e+00" cType="1" res="-2.9495513066649437e-02" rms="3.7506568431854248e-01" purity="4.0222465991973877e-01" nType="-99"/>
            <Node pos="r" depth="3" NCoef="0" IVar="-1" Cut="0.0000000000000000e+00" cType="1" res="-2.8892760747112334e-04" rms="3.9175081253051758e-01" purity="5.8363556861877441e-01" nType="-99"/>
          </Node>
        </Node>
      </Node>
    </BinaryTree>
    <BinaryTree type="DecisionTree" boostWeight="1.0000000000000000e+00" itree="44">
      <Node pos="s" depth="0" NCoef="0" IVar="8" Cut="1.7332468032836914e+00" cType="1" res="-3.3341245725750923e-03" rms="3.9174923300743103e-01" purity="4.9586734175682068e-01" nType="0">
        <Node pos="l" depth="1" NCoef="0" IVar="7" Cut="1.9999853372573853e+00" cType="1" res="-2.3362693900708109e-04" rms="3.9402991533279419e-01" purity="5.1386272907257080e-01" nType="0">
          <Node pos="l" depth="2" NCoef="0" IVar="6" Cut="1.7419550418853760e+00" cType="1" res="1.7805425450205803e-03" rms="3.9596617221832275e-01" purity="5.2508866786956787e-01" nType="0">
            <Node pos="l" depth="3" NCoef="0" IVar="-1" Cut="0.0000000000000000e+00" cType="1" res="2.1326513960957527e-03" rms="3.9825040102005005e-01" purity="5.3869754076004028e-01" nType="-99"/>
            <Node pos="r" depth="3" NCoef="0" IVar="-1" Cut="0.0000000000000000e+00" cType="1" res="-3.6976475268602371e-02" rms="3.2581648230552673e-01" purity="1.6307269036769867e-01" nType="-99"/>
          </Node>
          <Node pos="r" depth="2" NCoef="0" IVar="-1" Cut="0.0000000000000000e+00" cType="1" res="-4.3082684278488159e-02" rms="3.2423382997512817e-01" purity="1.7412045598030090e-01" nType="-99"/>
        </Node>
        <Node pos="r" depth="1" NCoef="0" IVar="3" Cut="1.9429174804687500e+02" cType="1" res="-4.6285171061754227e-02" rms="3.5589817166328430e-01" purity="2.4657791852951050e-01" nType="0">
          <Node pos="l" depth="2" NCoef="0" IVar="-1" Cut="0.0000000000000000e+00" cType="1" res="-1.5104265883564949e-02" rms="3.3740437030792236e-01" purity="1.8903720378875732e-01" nType="-99"/>
          <Node pos="r" depth="2" NCoef="0" IVar="-1" Cut="0.0000000000000000e+00" cType="1" res="-5.0163932144641876e-02" rms="3.7916165590286255e-01" purity="3.3607953786849976e-01" nType="-99"/>
        </Node>
      </Node>
    </BinaryTree>
    <BinaryTree type="DecisionTree" boostWeight="1.0000000000000000e+00" itree="45">
      <Node pos="s" depth="0" NCoef="0" IVar="0" Cut="5.9407922363281250e+02" cType="1" res="1.5017112309578806e-04" rms="3.9221611618995667e-01" purity="4.9929320812225342e-01" nType="0">
        <Node pos="l" depth="1" NCoef="0" IVar="0" Cut="3.1400378417968750e+02" cType="1" res="-4.6604843810200691e-03" rms="3.9846131205558777e-01" purity="4.4405236840248108e-01" nType="0">
          <Node pos="l" depth="2" NCoef="0" IVar="5" Cut="8.3817008972167969e+01" cType="1" res="-5.4786458611488342e-02" rms="3.7162062525749207e-01" purity="2.2622470557689667e-01" nType="0">
            <Node pos="l" depth="3" NCoef="0" IVar="-1" Cut="0.0000000000000000e+00" cType="1" res="-2.4941086769104004e-02" rms="3.3866119384765625e-01" purity="1.5290199220180511e-01" nType="-99"/>
            <Node pos="r" depth="3" NCoef="0" IVar="-1" Cut="0.0000000000000000e+00" cType="1" res="-4.5270204544067383e-02" rms="4.1801965236663818e-01" purity="3.4736439585685730e-01" nType="-99"/>
          </Node>
          <Node pos="r" depth="2" NCoef="0" IVar="2" Cut="6.4186926269531250e+02" cType="1" res="3.6985831684432924e-04" rms="4.0070965886116028e-01" purity="4.6591225266456604e-01" nType="0">
            <Node pos="l" depth="3" NCoef="0" IVar="-1" Cut="0.0000000000000000e+00" cType="1" res="1.8609410617500544e-03" rms="3.9967066049575806e-01" purity="4.6786999702453613e-01" nType="-99"/>
            <Node pos="r" depth="3" NCoef="0" IVar="-1" Cut="0.0000000000000000e+00" cType="1" res="-3.9736017584800720e-02" rms="4.2155164480209351e-01" purity="4.1079929471015930e-01" nType="-99"/>
          </Node>
        </Node>
        <Node pos="r" depth="1" NCoef="0" IVar="8" Cut="-1.3311333954334259e-01" cType="1" res="2.6582714170217514e-02" rms="3.5478967428207397e-01" purity="8.0281835794448853e-01" nType="0">
          <Node pos="l" depth="2" NCoef="0" IVar="2" Cut="4.9152239990234375e+02" cType="1" res="9.7604952752590179e-03" rms="3.6562594771385193e-01" purity="7.8046643733978271e-01" nType="0">
            <Node pos="l" depth="3" NCoef="0" IVar="-1" Cut="0.0000000000000000e+00" cType="1" res="1.6137300059199333e-02" rms="3.3632126450538635e-01" purity="8.2986080646514893e-01" nType="-99"/>
            <Node pos="r" depth="3" NCoef="0" IVar="-1" Cut="0.0000000000000000e+00" cType="1" res="-3.6776864435523748e-03" rms="4.0264171361923218e-01" purity="7.1115779876708984e-01" nType="-99"/>
          </Node>
          <Node pos="r" depth="2" NCoef="0" IVar="3" Cut="2.4266540527343750e+02" cType="1" res="3.8704689592123032e-02" rms="3.4626504778862000e-01" purity="8.1892490386962891e-01" nType="0">
            <Node pos="l" depth="3" NCoef="0" IVar="-1" Cut="0.0000000000000000e+00" cType="1" res="3.4708857536315918e-02" rms="3.7069720029830933e-01" purity="7.7862113714218140e-01" nType="-99"/>
            <Node pos="r" depth="3" NCoef="0" IVar="-1" Cut="0.0000000000000000e+00" cType="1" res="1.8688453361392021e-02" rms="3.2204523682594299e-01" purity="8.5496056079864502e-01" nType="-99"/>
          </Node>
        </Node>
      </Node>
    </BinaryTree>
    <BinaryTree type="DecisionTree" boostWeight="1.0000000000000000e+00" itree="46">
      <Node pos="s" depth="0" NCoef="0" IVar="6" Cut="1.2128734588623047e+00" cType="1" res="7.4667306616902351e-03" rms="3.9762204885482788e-01" purity="5.0229704380035400e-01" nType="0">
        <Node pos="l" depth="1" NCoef="0" IVar="6" Cut="-4.8756876587867737e-01" cType="1" res="1.1403393000364304e-02" rms="4.0359792113304138e-01" purity="5.3119891881942749e-01" nType="0">
          <Node pos="l" depth="2" NCoef="0" IVar="7" Cut="6.6695159673690796e-01" cType="1" res="-3.9411513134837151e-03" rms="3.9486759901046753e-01" purity="4.2132690548896790e-01" nType="0">
            <Node pos="l" depth="3" NCoef="0" IVar="-1" Cut="0.0000000000000000e+00" cType="1" res="3.4607460256665945e-03" rms="3.9714652299880981e-01" purity="4.5876523852348328e-01" nType="-99"/>
            <Node pos="r" depth="3" NCoef="0" IVar="-1" Cut="0.0000000000000000e+00" cType="1" res="-2.2667212411761284e-02" rms="3.8579827547073364e-01" purity="3.0016517639160156e-01" nType="-99"/>
          </Node>
          <Node pos="r" depth="2" NCoef="0" IVar="6" Cut="2.4118055403232574e-01" cType="1" res="1.9088204950094223e-02" rms="4.0768301486968994e-01" purity="5.8622467517852783e-01" nType="0">
            <Node pos="l" depth="3" NCoef="0" IVar="-1" Cut="0.0000000000000000e+00" cType="1" res="1.7592953518033028e-02" rms="4.0525862574577332e-01" purity="6.2822210788726807e-01" nType="-99"/>
            <Node pos="r" depth="3" NCoef="0" IVar="-1" Cut="0.0000000000000000e+00" cType="1" res="4.3972879648208618e-03" rms="4.0983876585960388e-01" purity="5.4305064678192139e-01" nType="-99"/>
          </Node>
        </Node>
        <Node pos="r" depth="1" NCoef="0" IVar="0" Cut="4.7938891601562500e+02" cType="1" res="-2.6619784533977509e-02" rms="3.3963108062744141e-01" purity="2.5204324722290039e-01" nType="0">
          <Node pos="l" depth="2" NCoef="0" IVar="5" Cut="8.0188034057617188e+01" cType="1" res="-4.4111311435699463e-02" rms="3.1864699721336365e-01" purity="1.5150406956672668e-01" nType="0">
            <Node pos="l" depth="3" NCoef="0" IVar="-1" Cut="0.0000000000000000e+00" cType="1" res="-2.3330042138695717e-02" rms="2.6899775862693787e-01" purity="9.0627983212471008e-02" nType="-99"/>
            <Node pos="r" depth="3" NCoef="0" IVar="-1" Cut="0.0000000000000000e+00" cType="1" res="-4.5525941997766495e-02" rms="3.8501861691474915e-01" purity="2.5385653972625732e-01" nType="-99"/>
          </Node>
          <Node pos="r" depth="2" NCoef="0" IVar="-1" Cut="0.0000000000000000e+00" cType="1" res="1.5113999135792255e-02" rms="3.9263209700584412e-01" purity="5.6265801191329956e-01" nType="-99"/>
        </Node>
      </Node>
    </BinaryTree>
    <BinaryTree type="DecisionTree" boostWeight="1.0000000000000000e+00" itree="47">
      <Node pos="s" depth="0" NCoef="0" IVar="9" Cut="-1.4665913581848145e+00" cType="1" res="1.2328119191806763e-04" rms="3.9277583360671997e-01" purity="5.0097781419754028e-01" nType="0">
        <Node pos="l" depth="1" NCoef="0" IVar="5" Cut="1.0621935272216797e+02" cType="1" res="-3.3260598778724670e-02" rms="3.8837134838104248e-01" purity="3.7701717019081116e-01" nType="0">
          <Node pos="l" depth="2" NCoef="0" IVar="7" Cut="-6.6629034280776978e-01" cType="1" res="-2.1880721673369408e-02" rms="3.8145872950553894e-01" purity="3.1227719783782959e-01" nType="0">
            <Node pos="l" depth="3" NCoef="0" IVar="-1" Cut="0.0000000000000000e+00" cType="1" res="-3.2685436308383942e-02" rms="3.5068783164024353e-01" purity="2.3139126598834991e-01" nType="-99"/>
            <Node pos="r" depth="3" NCoef="0" IVar="-1" Cut="0.0000000000000000e+00" cType="1" res="-4.3925750069320202e-03" rms="3.9730927348136902e-01" purity="3.5867390036582947e-01" nType="-99"/>
          </Node>
          <Node pos="r" depth="2" NCoef="0" IVar="-1" Cut="0.0000000000000000e+00" cType="1" res="-4.6970352530479431e-02" rms="4.1040948033332825e-01" purity="6.1909502744674683e-01" nType="-99"/>
        </Node>
        <Node pos="r" depth="1" NCoef="0" IVar="7" Cut="1.9999600648880005e+00" cType="1" res="4.7506820410490036e-03" rms="3.9315885305404663e-01" purity="5.1816022396087646e-01" nType="0">
          <Node pos="l" depth="2" NCoef="0" IVar="1" Cut="1.6845426025390625e+03" cType="1" res="6.7531340755522251e-03" rms="3.9548003673553467e-01" purity="5.3089785575866699e-01" nType="0">
            <Node pos="l" depth="3" NCoef="0" IVar="-1" Cut="0.0000000000000000e+00" cType="1" res="1.3331996742635965e-03" rms="4.0629982948303223e-01" purity="4.6863460540771484e-01" nType="-99"/>
            <Node pos="r" depth="3" NCoef="0" IVar="-1" Cut="0.0000000000000000e+00" cType="1" res="1.9908746704459190e-02" rms="3.4035703539848328e-01" purity="8.1828135251998901e-01" nType="-99"/>
          </Node>
          <Node pos="r" depth="2" NCoef="0" IVar="-1" Cut="0.0000000000000000e+00" cType="1" res="-4.0260810405015945e-02" rms="3.1427973508834839e-01" purity="1.5353795886039734e-01" nType="-99"/>
        </Node>
      </Node>
    </BinaryTree>
    <BinaryTree type="DecisionTree" boostWeight="1.0000000000000000e+00" itree="48">
      <Node pos="s" depth="0" NCoef="0" IVar="9" Cut="1.7332412004470825e+00" cType="1" res="1.3004124630242586e-03" rms="3.9293676614761353e-01" purity="5.0130003690719604e-01" nType="0">
        <Node pos="l" depth="1" NCoef="0" IVar="7" Cut="-9.3330335617065430e-01" cType="1" res="5.2742818370461464e-03" rms="3.9463317394256592e-01" purity="5.1545286178588867e-01" nType="0">
          <Node pos="l" depth="2" NCoef="0" IVar="8" Cut="6.6663801670074463e-01" cType="1" res="-1.2928076088428497e-02" rms="3.7986239790916443e-01" purity="3.7681546807289124e-01" nType="0">
            <Node pos="l" depth="3" NCoef="0" IVar="-1" Cut="0.0000000000000000e+00" cType="1" res="-1.1840861989185214e-03" rms="3.8484829664230347e-01" purity="4.0560436248779297e-01" nType="-99"/>
            <Node pos="r" depth="3" NCoef="0" IVar="-1" Cut="0.0000000000000000e+00" cType="1" res="-3.3206667751073837e-02" rms="3.5975268483161926e-01" purity="2.7839463949203491e-01" nType="-99"/>
          </Node>
          <Node pos="r" depth="2" NCoef="0" IVar="8" Cut="-9.3335050344467163e-01" cType="1" res="9.7302906215190887e-03" rms="3.9803880453109741e-01" purity="5.4939180612564087e-01" nType="0">
            <Node pos="l" depth="3" NCoef="0" IVar="-1" Cut="0.0000000000000000e+00" cType="1" res="-3.5327777732163668e-03" rms="4.0272226929664612e-01" purity="4.4497689604759216e-01" nType="-99"/>
            <Node pos="r" depth="3" NCoef="0" IVar="-1" Cut="0.0000000000000000e+00" cType="1" res="8.3063663914799690e-03" rms="3.9677500724792480e-01" purity="5.7527416944503784e-01" nType="-99"/>
          </Node>
        </Node>
        <Node pos="r" depth="1" NCoef="0" IVar="5" Cut="8.4457710266113281e+01" cType="1" res="-4.1663132607936859e-02" rms="3.7140014767646790e-01" purity="3.4828734397888184e-01" nType="0">
          <Node pos="l" depth="2" NCoef="0" IVar="9" Cut="2.1395840644836426e+00" cType="1" res="-2.5699507445096970e-02" rms="3.5420817136764526e-01" purity="2.5121653079986572e-01" nType="0">
            <Node pos="l" depth="3" NCoef="0" IVar="-1" Cut="0.0000000000000000e+00" cType="1" res="-7.6830834150314331e-03" rms="3.7030893564224243e-01" purity="2.8305262327194214e-01" nType="-99"/>
            <Node pos="r" depth="3" NCoef="0" IVar="-1" Cut="0.0000000000000000e+00" cType="1" res="-2.8083156794309616e-02" rms="3.3745464682579041e-01" purity="2.2063438594341278e-01" nType="-99"/>
          </Node>
          <Node pos="r" depth="2" NCoef="0" IVar="-1" Cut="0.0000000000000000e+00" cType="1" res="-4.0483579039573669e-02" rms="3.9861413836479187e-01" purity="5.2117091417312622e-01" nType="-99"/>
        </Node>
      </Node>
    </BinaryTree>
    <BinaryTree type="DecisionTree" boostWeight="1.0000000000000000e+00" itree="49">
      <Node pos="s" depth="0" NCoef="0" IVar="6" Cut="4.0738290548324585e-01" cType="1" res="-1.0163929546251893e-03" rms="3.9222222566604614e-01" purity="4.9865812063217163e-01" nType="0">
        <Node pos="l" depth="1" NCoef="0" IVar="6" Cut="-6.5597605705261230e-01" cType="1" res="5.9799118898808956e-03" rms="3.9565581083297729e-01" purity="5.3272205591201782e-01" nType="0">
          <Node pos="l" depth="2" NCoef="0" IVar="9" Cut="-9.3316632509231567e-01" cType="1" res="-1.0312366299331188e-02" rms="3.8290029764175415e-01" purity="3.8301286101341248e-01" nType="0">
            <Node pos="l" depth="3" NCoef="0" IVar="-1" Cut="0.0000000000000000e+00" cType="1" res="-2.6406392455101013e-02" rms="3.6540326476097107e-01" purity="2.9270350933074951e-01" nType="-99"/>
            <Node pos="r" depth="3" NCoef="0" IVar="-1" Cut="0.0000000000000000e+00" cType="1" res="9.6941710216924548e-04" rms="3.8911563158035278e-01" purity="4.1947200894355774e-01" nType="-99"/>
          </Node>
          <Node pos="r" depth="2" NCoef="0" IVar="2" Cut="6.3697973632812500e+02" cType="1" res="1.5347518958151340e-02" rms="4.0250852704048157e-01" purity="6.1880069971084595e-01" nType="0">
            <Node pos="l" depth="3" NCoef="0" IVar="-1" Cut="0.0000000000000000e+00" cType="1" res="1.1093854904174805e-02" rms="4.0229046344757080e-01" purity="6.1516231298446655e-01" nType="-99"/>
            <Node pos="r" depth="3" NCoef="0" IVar="-1" Cut="0.0000000000000000e+00" cType="1" res="-1.6371814534068108e-02" rms="4.0266042947769165e-01" purity="6.6293710470199585e-01" nType="-99"/>
          </Node>
        </Node>
        <Node pos="r" depth="1" NCoef="0" IVar="8" Cut="6.6665422916412354e-01" cType="1" res="-1.5216764062643051e-02" rms="3.8476806879043579e-01" purity="4.2951866984367371e-01" nType="0">
          <Node pos="l" depth="2" NCoef="0" IVar="2" Cut="4.3911782836914062e+02" cType="1" res="-5.9096277691423893e-03" rms="3.8935646414756775e-01" purity="4.7289377450942993e-01" nType="0">
            <Node pos="l" depth="3" NCoef="0" IVar="-1" Cut="0.0000000000000000e+00" cType="1" res="2.7908522170037031e-03" rms="3.9266401529312134e-01" purity="4.5892637968063354e-01" nType="-99"/>
            <Node pos="r" depth="3" NCoef="0" IVar="-1" Cut="0.0000000000000000e+00" cType="1" res="-2.2067517042160034e-02" rms="3.7811440229415894e-01" purity="5.1305258274078369e-01" nType="-99"/>
          </Node>
          <Node pos="r" depth="2" NCoef="0" IVar="7" Cut="-4.0000686049461365e-01" cType="1" res="-3.5321738570928574e-02" rms="3.7387469410896301e-01" purity="3.3582121133804321e-01" nType="0">
            <Node pos="l" depth="3" NCoef="0" IVar="-1" Cut="0.0000000000000000e+00" cType="1" res="-4.6989519149065018e-02" rms="3.4987297654151917e-01" purity="2.5248014926910400e-01" nType="-99"/>
            <Node pos="r" depth="3" NCoef="0" IVar="-1" Cut="0.0000000000000000e+00" cType="1" res="-1.4900661073625088e-02" rms="3.8167157769203186e-01" purity="3.6658227443695068e-01" nType="-99"/>
          </Node>
        </Node>
      </Node>
    </BinaryTree>
    <BinaryTree type="DecisionTree" boostWeight="1.0000000000000000e+00" itree="50">
      <Node pos="s" depth="0" NCoef="0" IVar="5" Cut="1.8412394714355469e+02" cType="1" res="-3.0921618454158306e-03" rms="3.9137890934944153e-01" purity="4.9629446864128113e-01" nType="0">
        <Node pos="l" depth="1" NCoef="0" IVar="5" Cut="6.2773384094238281e+01" cType="1" res="-4.8358137719333172e-03" rms="3.9491277933120728e-01" purity="4.7937732934951782e-01" nType="0">
          <Node pos="l" depth="2" NCoef="0" IVar="0" Cut="4.4704232788085938e+02" cType="1" res="-1.9942907616496086e-02" rms="3.7706801295280457e-01" purity="2.5635510683059692e-01" nType="0">
            <Node pos="l" depth="3" NCoef="0" IVar="-1" Cut="0.0000000000000000e+00" cType="1" res="-4.9260621890425682e-03" rms="3.5365384817123413e-01" purity="1.8961325287818909e-01" nType="-99"/>
            <Node pos="r" depth="3" NCoef="0" IVar="-1" Cut="0.0000000000000000e+00" cType="1" res="-2.6680152863264084e-02" rms="4.2540565133094788e-01" purity="4.1309082508087158e-01" nType="-99"/>
          </Node>
          <Node pos="r" depth="2" NCoef="0" IVar="8" Cut="-1.7333145141601562e+00" cType="1" res="3.5293994005769491e-04" rms="4.0072721242904663e-01" purity="5.5597758293151855e-01" nType="0">
            <Node pos="l" depth="3" NCoef="0" IVar="-1" Cut="0.0000000000000000e+00" cType="1" res="-2.1273525431752205e-02" rms="3.8579380512237549e-01" purity="3.1773042678833008e-01" nType="-99"/>
            <Node pos="r" depth="3" NCoef="0" IVar="-1" Cut="0.0000000000000000e+00" cType="1" res="1.6180811217054725e-03" rms="4.0159958600997925e-01" purity="5.7198047637939453e-01" nType="-99"/>
          </Node>
        </Node>
        <Node pos="r" depth="1" NCoef="0" IVar="-1" Cut="0.0000000000000000e+00" cType="1" res="3.0433831736445427e-02" rms="2.9836291074752808e-01" purity="8.7710320949554443e-01" nType="-99"/>
      </Node>
    </BinaryTree>
    <BinaryTree type="DecisionTree" boostWeight="1.0000000000000000e+00" itree="51">
      <Node pos="s" depth="0" NCoef="0" IVar="2" Cut="3.4565841674804688e+02" cType="1" res="-2.0575373491737992e-04" rms="3.9331060647964478e-01" purity="4.9973267316818237e-01" nType="0">
        <Node pos="l" depth="1" NCoef="0" IVar="1" Cut="1.3075654296875000e+03" cType="1" res="9.2758750542998314e-03" rms="4.0043252706527710e-01" purity="4.6588090062141418e-01" nType="0">
          <Node pos="l" depth="2" NCoef="0" IVar="4" Cut="1.4244860839843750e+02" cType="1" res="3.7480767350643873e-03" rms="4.1588652133941650e-01" purity="3.6634507775306702e-01" nType="0">
            <Node pos="l" depth="3" NCoef="0" IVar="-1" Cut="0.0000000000000000e+00" cType="1" res="7.8230602666735649e-03" rms="4.0999251604080200e-01" purity="3.2219922542572021e-01" nType="-99"/>
            <Node pos="r" depth="3" NCoef="0" IVar="-1" Cut="0.0000000000000000e+00" cType="1" res="-1.6165589913725853e-02" rms="4.3602642416954041e-01" purity="5.3578400611877441e-01" nType="-99"/>
          </Node>
          <Node pos="r" depth="2" NCoef="0" IVar="2" Cut="3.0405444335937500e+02" cType="1" res="3.0086811631917953e-02" rms="3.3511784672737122e-01" purity="8.4061115980148315e-01" nType="0">
            <Node pos="l" depth="3" NCoef="0" IVar="-1" Cut="0.0000000000000000e+00" cType="1" res="3.0551729723811150e-02" rms="3.2840475440025330e-01" purity="8.5537111759185791e-01" nType="-99"/>
            <Node pos="r" depth="3" NCoef="0" IVar="-1" Cut="0.0000000000000000e+00" cType="1" res="1.4869729988276958e-02" rms="3.4216564893722534e-01" purity="8.2408392429351807e-01" nType="-99"/>
          </Node>
        </Node>
        <Node pos="r" depth="1" NCoef="0" IVar="1" Cut="1.4219499511718750e+03" cType="1" res="-9.9008632823824883e-03" rms="3.8565143942832947e-01" purity="5.3434664011001587e-01" nType="0">
          <Node pos="l" depth="2" NCoef="0" IVar="2" Cut="4.6267956542968750e+02" cType="1" res="-2.8078213334083557e-02" rms="3.8896459341049194e-01" purity="2.9894354939460754e-01" nType="0">
            <Node pos="l" depth="3" NCoef="0" IVar="-1" Cut="0.0000000000000000e+00" cType="1" res="-1.0059616528451443e-02" rms="3.9672461152076721e-01" purity="3.3351844549179077e-01" nType="-99"/>
            <Node pos="r" depth="3" NCoef="0" IVar="-1" Cut="0.0000000000000000e+00" cType="1" res="-4.1256587952375412e-02" rms="3.6054620146751404e-01" purity="1.8779838085174561e-01" nType="-99"/>
          </Node>
          <Node pos="r" depth="2" NCoef="0" IVar="6" Cut="9.6823793649673462e-01" cType="1" res="3.9312234148383141e-03" rms="3.8253283500671387e-01" purity="7.1347701549530029e-01" nType="0">
            <Node pos="l" depth="3" NCoef="0" IVar="-1" Cut="0.0000000000000000e+00" cType="1" res="6.0000908561050892e-03" rms="3.7746450304985046e-01" purity="7.3755842447280884e-01" nType="-99"/>
            <Node pos="r" depth="3" NCoef="0" IVar="-1" Cut="0.0000000000000000e+00" cType="1" res="-2.2969763725996017e-02" rms="4.2029821872711182e-01" purity="5.0981110334396362e-01" nType="-99"/>
          </Node>
        </Node>
      </Node>
    </BinaryTree>
    <BinaryTree type="DecisionTree" boostWeight="1.0000000000000000e+00" itree="52">
      <Node pos="s" depth="0" NCoef="0" IVar="6" Cut="-1.1748954057693481e+00" cType="1" res="-4.3513630516827106e-03" rms="3.9072734117507935e-01" purity="4.9373605847358704e-01" nType="0">
        <Node pos="l" depth="1" NCoef="0" IVar="6" Cut="-1.3263175487518311e+00" cType="1" res="-3.3400267362594604e-02" rms="3.3455285429954529e-01" purity="2.5120398402214050e-01" nType="0">
          <Node pos="l" depth="2" NCoef="0" IVar="2" Cut="2.9035409545898438e+02" cType="1" res="-4.3997466564178467e-02" rms="3.1767174601554871e-01" purity="2.1060077846050262e-01" nType="0">
            <Node pos="l" depth="3" NCoef="0" IVar="-1" Cut="0.0000000000000000e+00" cType="1" res="-2.3083584383130074e-02" rms="3.0806475877761841e-01" purity="1.9542634487152100e-01" nType="-99"/>
            <Node pos="r" depth="3" NCoef="0" IVar="-1" Cut="0.0000000000000000e+00" cType="1" res="-4.1467070579528809e-02" rms="3.2366025447845459e-01" purity="2.2103668749332428e-01" nType="-99"/>
          </Node>
          <Node pos="r" depth="2" NCoef="0" IVar="-1" Cut="0.0000000000000000e+00" cType="1" res="1.2707334244623780e-03" rms="3.8348174095153809e-01" purity="3.8676351308822632e-01" nType="-99"/>
        </Node>
        <Node pos="r" depth="1" NCoef="0" IVar="9" Cut="-1.9999637603759766e+00" cType="1" res="-6.2986102420836687e-04" rms="3.9719700813293457e-01" purity="5.2480727434158325e-01" nType="0">
          <Node pos="l" depth="2" NCoef="0" IVar="-1" Cut="0.0000000000000000e+00" cType="1" res="-2.3130390793085098e-02" rms="3.8488164544105530e-01" purity="3.6125093698501587e-01" nType="-99"/>
          <Node pos="r" depth="2" NCoef="0" IVar="7" Cut="-6.6656440496444702e-01" cType="1" res="1.4304909855127335e-03" rms="3.9775481820106506e-01" purity="5.3373074531555176e-01" nType="0">
            <Node pos="l" depth="3" NCoef="0" IVar="-1" Cut="0.0000000000000000e+00" cType="1" res="-7.3308930732309818e-03" rms="4.0003949403762817e-01" purity="4.4239336252212524e-01" nType="-99"/>
            <Node pos="r" depth="3" NCoef="0" IVar="-1" Cut="0.0000000000000000e+00" cType="1" res="3.6682710051536560e-03" rms="3.9688068628311157e-01" purity="5.6435430049896240e-01" nType="-99"/>
          </Node>
        </Node>
      </Node>
    </BinaryTree>
    <BinaryTree type="DecisionTree" boostWeight="1.0000000000000000e+00" itree="53">
      <Node pos="s" depth="0" NCoef="0" IVar="9" Cut="-2.2666318416595459e+00" cType="1" res="-6.8530178396031260e-04" rms="3.8887822628021240e-01" purity="5.0011897087097168e-01" nType="0">
        <Node pos="l" depth="1" NCoef="0" IVar="-1" Cut="0.0000000000000000e+00" cType="1" res="-3.1615372747182846e-02" rms="3.6414790153503418e-01" purity="2.9022201895713806e-01" nType="-99"/>
        <Node pos="r" depth="1" NCoef="0" IVar="9" Cut="2.0761511325836182e+00" cType="1" res="7.5433793244883418e-04" rms="3.8951098918914795e-01" purity="5.0646626949310303e-01" nType="0">
          <Node pos="l" depth="2" NCoef="0" IVar="5" Cut="1.5527502441406250e+02" cType="1" res="2.6881124358624220e-03" rms="3.9064940810203552e-01" purity="5.1470237970352173e-01" nType="0">
            <Node pos="l" depth="3" NCoef="0" IVar="-1" Cut="0.0000000000000000e+00" cType="1" res="-5.5066906497813761e-05" rms="3.9868554472923279e-01" purity="4.7631514072418213e-01" nType="-99"/>
            <Node pos="r" depth="3" NCoef="0" IVar="-1" Cut="0.0000000000000000e+00" cType="1" res="2.3428883403539658e-02" rms="3.0707126855850220e-01" purity="8.6332297325134277e-01" nType="-99"/>
          </Node>
          <Node pos="r" depth="2" NCoef="0" IVar="-1" Cut="0.0000000000000000e+00" cType="1" res="-2.4668583646416664e-02" rms="3.6409240961074829e-01" purity="3.4315288066864014e-01" nType="-99"/>
        </Node>
      </Node>
    </BinaryTree>
    <BinaryTree type="DecisionTree" boostWeight="1.0000000000000000e+00" itree="54">
      <Node pos="s" depth="0" NCoef="0" IVar="3" Cut="4.1167874145507812e+02" cType="1" res="4.4484501704573631e-03" rms="3.9465677738189697e-01" purity="5.0156760215759277e-01" nType="0">
        <Node pos="l" depth="1" NCoef="0" IVar="4" Cut="6.7081069946289062e+01" cType="1" res="6.3085756264626980e-03" rms="3.9460328221321106e-01" purity="4.9535021185874939e-01" nType="0">
          <Node pos="l" depth="2" NCoef="0" IVar="3" Cut="1.2041455841064453e+02" cType="1" res="-3.8417827337980270e-02" rms="3.1404152512550354e-01" purity="1.3091091811656952e-01" nType="0">
            <Node pos="l" depth="3" NCoef="0" IVar="-1" Cut="0.0000000000000000e+00" cType="1" res="-5.2290987223386765e-02" rms="2.5477188825607300e-01" purity="7.1001529693603516e-02" nType="-99"/>
            <Node pos="r" depth="3" NCoef="0" IVar="-1" Cut="0.0000000000000000e+00" cType="1" res="-1.6973819583654404e-02" rms="3.6281466484069824e-01" purity="1.9028794765472412e-01" nType="-99"/>
          </Node>
          <Node pos="r" depth="2" NCoef="0" IVar="0" Cut="5.9408093261718750e+02" cType="1" res="9.4250775873661041e-03" rms="3.9942535758018494e-01" purity="5.2074408531188965e-01" nType="0">
            <Node pos="l" depth="3" NCoef="0" IVar="-1" Cut="0.0000000000000000e+00" cType="1" res="3.5734116099774837e-03" rms="4.0900817513465881e-01" purity="4.6552869677543640e-01" nType="-99"/>
            <Node pos="r" depth="3" NCoef="0" IVar="-1" Cut="0.0000000000000000e+00" cType="1" res="2.0848840475082397e-02" rms="3.4183478355407715e-01" purity="8.2212227582931519e-01" nType="-99"/>
          </Node>
        </Node>
        <Node pos="r" depth="1" NCoef="0" IVar="-1" Cut="0.0000000000000000e+00" cType="1" res="-2.7389056980609894e-02" rms="3.9309349656105042e-01" purity="6.5876865386962891e-01" nType="-99"/>
      </Node>
    </BinaryTree>
    <BinaryTree type="DecisionTree" boostWeight="1.0000000000000000e+00" itree="55">
      <Node pos="s" depth="0" NCoef="0" IVar="9" Cut="2.2666270732879639e+00" cType="1" res="2.1157178562134504e-03" rms="3.9194837212562561e-01" purity="5.0154089927673340e-01" nType="0">
        <Node pos="l" depth="1" NCoef="0" IVar="3" Cut="2.3459146118164062e+02" cType="1" res="3.5444037057459354e-03" rms="3.9280575513839722e-01" purity="5.0762200355529785e-01" nType="0">
          <Node pos="l" depth="2" NCoef="0" IVar="4" Cut="6.7561012268066406e+01" cType="1" res="-1.7930429894477129e-03" rms="3.9835217595100403e-01" purity="4.0979632735252380e-01" nType="0">
            <Node pos="l" depth="3" NCoef="0" IVar="-1" Cut="0.0000000000000000e+00" cType="1" res="-3.2319124788045883e-02" rms="2.9881185293197632e-01" purity="1.1625599116086960e-01" nType="-99"/>
            <Node pos="r" depth="3" NCoef="0" IVar="-1" Cut="0.0000000000000000e+00" cType="1" res="9.6289737848564982e-04" rms="4.0662649273872375e-01" purity="4.3852105736732483e-01" nType="-99"/>
          </Node>
          <Node pos="r" depth="2" NCoef="0" IVar="7" Cut="6.6841888427734375e-01" cType="1" res="1.3320533558726311e-02" rms="3.8224509358406067e-01" purity="6.8680059909820557e-01" nType="0">
            <Node pos="l" depth="3" NCoef="0" IVar="-1" Cut="0.0000000000000000e+00" cType="1" res="1.3723245821893215e-02" rms="3.7790429592132568e-01" purity="7.1635156869888306e-01" nType="-99"/>
            <Node pos="r" depth="3" NCoef="0" IVar="-1" Cut="0.0000000000000000e+00" cType="1" res="-8.2369809970259666e-03" rms="3.9588436484336853e-01" purity="5.8338022232055664e-01" nType="-99"/>
          </Node>
        </Node>
        <Node pos="r" depth="1" NCoef="0" IVar="-1" Cut="0.0000000000000000e+00" cType="1" res="-2.8783673420548439e-02" rms="3.6118295788764954e-01" purity="3.1084057688713074e-01" nType="-99"/>
      </Node>
    </BinaryTree>
    <BinaryTree type="DecisionTree" boostWeight="1.0000000000000000e+00" itree="56">
      <Node pos="s" depth="0" NCoef="0" IVar="7" Cut="9.3338578939437866e-01" cType="1" res="-4.6213724999688566e-05" rms="3.9237114787101746e-01" purity="4.9550145864486694e-01" nType="0">
        <Node pos="l" depth="1" NCoef="0" IVar="7" Cut="-1.0221166610717773e+00" cType="1" res="3.5746600478887558e-03" rms="3.9517191052436829e-01" purity="5.3110116720199585e-01" nType="0">
          <Node pos="l" depth="2" NCoef="0" IVar="3" Cut="2.6716607666015625e+02" cType="1" res="-1.2280705384910107e-02" rms="3.7419882416725159e-01" purity="3.4923461079597473e-01" nType="0">
            <Node pos="l" depth="3" NCoef="0" IVar="-1" Cut="0.0000000000000000e+00" cType="1" res="-8.6943473434075713e-04" rms="3.6924204230308533e-01" purity="3.2302629947662354e-01" nType="-99"/>
            <Node pos="r" depth="3" NCoef="0" IVar="-1" Cut="0.0000000000000000e+00" cType="1" res="-3.9847012609243393e-02" rms="3.9334899187088013e-01" purity="4.7923642396926880e-01" nType="-99"/>
          </Node>
          <Node pos="r" depth="2" NCoef="0" IVar="3" Cut="2.3577905273437500e+02" cType="1" res="7.9383179545402527e-03" rms="4.0064138174057007e-01" purity="5.8115386962890625e-01" nType="0">
            <Node pos="l" depth="3" NCoef="0" IVar="-1" Cut="0.0000000000000000e+00" cType="1" res="-8.8837616203818470e-05" rms="4.1283032298088074e-01" purity="4.8126059770584106e-01" nType="-99"/>
            <Node pos="r" depth="3" NCoef="0" IVar="-1" Cut="0.0000000000000000e+00" cType="1" res="1.3924564234912395e-02" rms="3.7981203198432922e-01" purity="7.4215394258499146e-01" nType="-99"/>
          </Node>
        </Node>
        <Node pos="r" depth="1" NCoef="0" IVar="6" Cut="-9.2556372284889221e-02" cType="1" res="-1.5124558471143246e-02" rms="3.8011565804481506e-01" purity="3.4725421667098999e-01" nType="0">
          <Node pos="l" depth="2" NCoef="0" IVar="3" Cut="2.1865078735351562e+02" cType="1" res="-3.3509466797113419e-02" rms="3.7761536240577698e-01" purity="3.0795368552207947e-01" nType="0">
            <Node pos="l" depth="3" NCoef="0" IVar="-1" Cut="0.0000000000000000e+00" cType="1" res="-1.1059096083045006e-02" rms="3.6672419309616089e-01" purity="2.5481244921684265e-01" nType="-99"/>
            <Node pos="r" depth="3" NCoef="0" IVar="-1" Cut="0.0000000000000000e+00" cType="1" res="-4.0419254451990128e-02" rms="3.9613959193229675e-01" purity="4.1458016633987427e-01" nType="-99"/>
          </Node>
          <Node pos="r" depth="2" NCoef="0" IVar="6" Cut="4.5813760161399841e-01" cType="1" res="-2.5308025069534779e-03" rms="3.8130769133567810e-01" purity="3.7417522072792053e-01" nType="0">
            <Node pos="l" depth="3" NCoef="0" IVar="-1" Cut="0.0000000000000000e+00" cType="1" res="1.7890105023980141e-02" rms="4.1262242197990417e-01" purity="5.2621883153915405e-01" nType="-99"/>
            <Node pos="r" depth="3" NCoef="0" IVar="-1" Cut="0.0000000000000000e+00" cType="1" res="-1.6363566741347313e-02" rms="3.5961586236953735e-01" purity="2.8279542922973633e-01" nType="-99"/>
          </Node>
        </Node>
      </Node>
    </BinaryTree>
    <BinaryTree type="DecisionTree" boostWeight="1.0000000000000000e+00" itree="57">
      <Node pos="s" depth="0" NCoef="0" IVar="2" Cut="3.3986126708984375e+02" cType="1" res="8.0098141916096210e-04" rms="3.9265444874763489e-01" purity="4.9908560514450073e-01" nType="0">
        <Node pos="l" depth="1" NCoef="0" IVar="2" Cut="2.8658120727539062e+02" cType="1" res="9.8850773647427559e-03" rms="4.0060836076736450e-01" purity="4.6240147948265076e-01" nType="0">
          <Node pos="l" depth="2" NCoef="0" IVar="1" Cut="9.5436608886718750e+02" cType="1" res="2.1487807855010033e-02" rms="4.0775305032730103e-01" purity="4.4204381108283997e-01" nType="0">
            <Node pos="l" depth="3" NCoef="0" IVar="-1" Cut="0.0000000000000000e+00" cType="1" res="-1.7645151820033789e-03" rms="3.6167031526565552e-01" purity="1.7537137866020203e-01" nType="-99"/>
            <Node pos="r" depth="3" NCoef="0" IVar="-1" Cut="0.0000000000000000e+00" cType="1" res="1.7920384183526039e-02" rms="4.2669180035591125e-01" purity="5.6372976303100586e-01" nType="-99"/>
          </Node>
          <Node pos="r" depth="2" NCoef="0" IVar="3" Cut="2.1677169799804688e+02" cType="1" res="-9.4924001023173332e-03" rms="3.8760966062545776e-01" purity="4.9640038609504700e-01" nType="0">
            <Node pos="l" depth="3" NCoef="0" IVar="-1" Cut="0.0000000000000000e+00" cType="1" res="-1.6604023054242134e-02" rms="3.8690763711929321e-01" purity="3.5397440195083618e-01" nType="-99"/>
            <Node pos="r" depth="3" NCoef="0" IVar="-1" Cut="0.0000000000000000e+00" cType="1" res="8.4753539413213730e-03" rms="3.8743746280670166e-01" purity="6.9292116165161133e-01" nType="-99"/>
          </Node>
        </Node>
        <Node pos="r" depth="1" NCoef="0" IVar="0" Cut="5.7298413085937500e+02" cType="1" res="-7.8815100714564323e-03" rms="3.8469812273979187e-01" purity="5.3414791822433472e-01" nType="0">
          <Node pos="l" depth="2" NCoef="0" IVar="0" Cut="5.3398376464843750e+02" cType="1" res="-1.5034797601401806e-02" rms="3.9281728863716125e-01" purity="4.4183644652366638e-01" nType="0">
            <Node pos="l" depth="3" NCoef="0" IVar="-1" Cut="0.0000000000000000e+00" cType="1" res="-1.2862849049270153e-02" rms="3.9332881569862366e-01" purity="4.1484543681144714e-01" nType="-99"/>
            <Node pos="r" depth="3" NCoef="0" IVar="-1" Cut="0.0000000000000000e+00" cType="1" res="2.7669284492731094e-02" rms="3.8260355591773987e-01" purity="7.0797091722488403e-01" nType="-99"/>
          </Node>
          <Node pos="r" depth="2" NCoef="0" IVar="3" Cut="3.2192660522460938e+02" cType="1" res="1.1110161431133747e-02" rms="3.6157426238059998e-01" purity="7.7923101186752319e-01" nType="0">
            <Node pos="l" depth="3" NCoef="0" IVar="-1" Cut="0.0000000000000000e+00" cType="1" res="1.4415646903216839e-02" rms="3.6916303634643555e-01" purity="7.6102614402770996e-01" nType="-99"/>
            <Node pos="r" depth="3" NCoef="0" IVar="-1" Cut="0.0000000000000000e+00" cType="1" res="-1.1425875127315521e-02" rms="3.4145075082778931e-01" purity="8.2285052537918091e-01" nType="-99"/>
          </Node>
        </Node>
      </Node>
    </BinaryTree>
    <BinaryTree type="DecisionTree" boostWeight="1.0000000000000000e+00" itree="58">
      <Node pos="s" depth="0" NCoef="0" IVar="7" Cut="-1.9998610019683838e+00" cType="1" res="5.4276310838758945e-03" rms="3.9429470896720886e-01" purity="5.0134664773941040e-01" nType="0">
        <Node pos="l" depth="1" NCoef="0" IVar="-1" Cut="0.0000000000000000e+00" cType="1" res="-3.3402603119611740e-02" rms="3.1712701916694641e-01" purity="1.4860698580741882e-01" nType="-99"/>
        <Node pos="r" depth="1" NCoef="0" IVar="6" Cut="1.4782882928848267e+00" cType="1" res="7.0418221876025200e-03" rms="3.9665347337722778e-01" purity="5.1382404565811157e-01" nType="0">
          <Node pos="l" depth="2" NCoef="0" IVar="1" Cut="1.1048822021484375e+03" cType="1" res="8.6694154888391495e-03" rms="4.0070599317550659e-01" purity="5.3523045778274536e-01" nType="0">
            <Node pos="l" depth="3" NCoef="0" IVar="-1" Cut="0.0000000000000000e+00" cType="1" res="-1.6706243623048067e-03" rms="4.0048673748970032e-01" purity="2.4985240399837494e-01" nType="-99"/>
            <Node pos="r" depth="3" NCoef="0" IVar="-1" Cut="0.0000000000000000e+00" cType="1" res="8.1821344792842865e-03" rms="4.0070199966430664e-01" purity="6.5648651123046875e-01" nType="-99"/>
          </Node>
          <Node pos="r" depth="2" NCoef="0" IVar="1" Cut="1.1711218261718750e+03" cType="1" res="-1.6677515581250191e-02" rms="3.3112224936485291e-01" purity="2.0186255872249603e-01" nType="0">
            <Node pos="l" depth="3" NCoef="0" IVar="-1" Cut="0.0000000000000000e+00" cType="1" res="2.9296278953552246e-03" rms="2.9541167616844177e-01" purity="1.1445859819650650e-01" nType="-99"/>
            <Node pos="r" depth="3" NCoef="0" IVar="-1" Cut="0.0000000000000000e+00" cType="1" res="-2.6578005403280258e-02" rms="3.7580302357673645e-01" purity="3.3054444193840027e-01" nType="-99"/>
          </Node>
        </Node>
      </Node>
    </BinaryTree>
    <BinaryTree type="DecisionTree" boostWeight="1.0000000000000000e+00" itree="59">
      <Node pos="s" depth="0" NCoef="0" IVar="2" Cut="4.8062939453125000e+02" cType="1" res="1.2839742703363299e-03" rms="3.9432346820831299e-01" purity="4.9972364306449890e-01" nType="0">
        <Node pos="l" depth="1" NCoef="0" IVar="1" Cut="1.5544234619140625e+03" cType="1" res="4.6001044102013111e-03" rms="3.9333856105804443e-01" purity="4.8872032761573792e-01" nType="0">
          <Node pos="l" depth="2" NCoef="0" IVar="4" Cut="1.4171697998046875e+02" cType="1" res="1.3122219825163484e-03" rms="4.0656307339668274e-01" purity="4.2719972133636475e-01" nType="0">
            <Node pos="l" depth="3" NCoef="0" IVar="-1" Cut="0.0000000000000000e+00" cType="1" res="4.9751610495150089e-03" rms="4.0511181950569153e-01" purity="3.3747664093971252e-01" nType="-99"/>
            <Node pos="r" depth="3" NCoef="0" IVar="-1" Cut="0.0000000000000000e+00" cType="1" res="-8.1057762727141380e-03" rms="4.0946376323699951e-01" purity="6.3286161422729492e-01" nType="-99"/>
          </Node>
          <Node pos="r" depth="2" NCoef="0" IVar="3" Cut="2.9207339477539062e+02" cType="1" res="2.5644009932875633e-02" rms="2.9410430788993835e-01" purity="8.8247972726821899e-01" nType="0">
            <Node pos="l" depth="3" NCoef="0" IVar="-1" Cut="0.0000000000000000e+00" cType="1" res="3.6153081804513931e-02" rms="2.7703988552093506e-01" purity="9.0456151962280273e-01" nType="-99"/>
            <Node pos="r" depth="3" NCoef="0" IVar="-1" Cut="0.0000000000000000e+00" cType="1" res="1.2080762535333633e-02" rms="3.1153553724288940e-01" purity="8.5792249441146851e-01" nType="-99"/>
          </Node>
        </Node>
        <Node pos="r" depth="1" NCoef="0" IVar="1" Cut="1.5292751464843750e+03" cType="1" res="-1.2538103386759758e-02" rms="3.9810496568679810e-01" purity="5.4558676481246948e-01" nType="0">
          <Node pos="l" depth="2" NCoef="0" IVar="0" Cut="4.1778750610351562e+02" cType="1" res="-4.4332776218652725e-02" rms="3.7898457050323486e-01" purity="2.4665692448616028e-01" nType="0">
            <Node pos="l" depth="3" NCoef="0" IVar="-1" Cut="0.0000000000000000e+00" cType="1" res="-4.3149836361408234e-02" rms="3.4346526861190796e-01" purity="1.6801285743713379e-01" nType="-99"/>
            <Node pos="r" depth="3" NCoef="0" IVar="-1" Cut="0.0000000000000000e+00" cType="1" res="-1.1210277676582336e-02" rms="4.1842606663703918e-01" purity="3.4619414806365967e-01" nType="-99"/>
          </Node>
          <Node pos="r" depth="2" NCoef="0" IVar="3" Cut="4.1652841186523438e+02" cType="1" res="1.1893332703039050e-03" rms="4.0531191229820251e-01" purity="6.7465054988861084e-01" nType="0">
            <Node pos="l" depth="3" NCoef="0" IVar="-1" Cut="0.0000000000000000e+00" cType="1" res="6.8473895080387592e-03" rms="4.0185275673866272e-01" purity="6.8339341878890991e-01" nType="-99"/>
            <Node pos="r" depth="3" NCoef="0" IVar="-1" Cut="0.0000000000000000e+00" cType="1" res="-2.0233208313584328e-02" rms="4.1500788927078247e-01" purity="6.4478117227554321e-01" nType="-99"/>
          </Node>
        </Node>
      </Node>
    </BinaryTree>
    <BinaryTree type="DecisionTree" boostWeight="1.0000000000000000e+00" itree="60">
      <Node pos="s" depth="0" NCoef="0" IVar="6" Cut="-1.4534932374954224e+00" cType="1" res="3.1818987336009741e-03" rms="3.9273780584335327e-01" purity="5.0434696674346924e-01" nType="0">
        <Node pos="l" depth="1" NCoef="0" IVar="1" Cut="1.1787067871093750e+03" cType="1" res="-2.3800538852810860e-02" rms="3.3321622014045715e-01" purity="1.8683959543704987e-01" nType="0">
          <Node pos="l" depth="2" NCoef="0" IVar="-1" Cut="0.0000000000000000e+00" cType="1" res="1.0363981127738953e-03" rms="2.8391233086585999e-01" purity="1.0276588797569275e-01" nType="-99"/>
          <Node pos="r" depth="2" NCoef="0" IVar="-1" Cut="0.0000000000000000e+00" cType="1" res="-3.6383893340826035e-02" rms="3.9076313376426697e-01" purity="3.0785316228866577e-01" nType="-99"/>
        </Node>
        <Node pos="r" depth="1" NCoef="0" IVar="7" Cut="4.0006819367408752e-01" cType="1" res="5.0721019506454468e-03" rms="3.9650395512580872e-01" purity="5.2658933401107788e-01" nType="0">
          <Node pos="l" depth="2" NCoef="0" IVar="7" Cut="-2.0379555225372314e+00" cType="1" res="1.0706861503422260e-02" rms="3.9844995737075806e-01" purity="5.5623704195022583e-01" nType="0">
            <Node pos="l" depth="3" NCoef="0" IVar="-1" Cut="0.0000000000000000e+00" cType="1" res="-2.3309718817472458e-02" rms="3.2841128110885620e-01" purity="1.6662029922008514e-01" nType="-99"/>
            <Node pos="r" depth="3" NCoef="0" IVar="-1" Cut="0.0000000000000000e+00" cType="1" res="7.7424477785825729e-03" rms="4.0143764019012451e-01" purity="5.7511180639266968e-01" nType="-99"/>
          </Node>
          <Node pos="r" depth="2" NCoef="0" IVar="2" Cut="5.7748980712890625e+02" cType="1" res="-5.5216085165739059e-03" rms="3.9260038733482361e-01" purity="4.7084978222846985e-01" nType="0">
            <Node pos="l" depth="3" NCoef="0" IVar="-1" Cut="0.0000000000000000e+00" cType="1" res="-7.2210532380267978e-04" rms="3.9051839709281921e-01" purity="4.6953707933425903e-01" nType="-99"/>
            <Node pos="r" depth="3" NCoef="0" IVar="-1" Cut="0.0000000000000000e+00" cType="1" res="-2.9485244303941727e-02" rms="4.1120877861976624e-01" purity="4.8479145765304565e-01" nType="-99"/>
          </Node>
        </Node>
      </Node>
    </BinaryTree>
    <BinaryTree type="DecisionTree" boostWeight="1.0000000000000000e+00" itree="61">
      <Node pos="s" depth="0" NCoef="0" IVar="7" Cut="1.7333302497863770e+00" cType="1" res="-7.6035276288166642e-04" rms="3.9390110969543457e-01" purity="4.9937930703163147e-01" nType="0">
        <Node pos="l" depth="1" NCoef="0" IVar="5" Cut="7.9215942382812500e+01" cType="1" res="1.2027397751808167e-03" rms="3.9731630682945251e-01" purity="5.1773905754089355e-01" nType="0">
          <Node pos="l" depth="2" NCoef="0" IVar="5" Cut="5.8347415924072266e+01" cType="1" res="1.0112216696143150e-02" rms="4.0637817978858948e-01" purity="3.4299442172050476e-01" nType="0">
            <Node pos="l" depth="3" NCoef="0" IVar="-1" Cut="0.0000000000000000e+00" cType="1" res="-7.7074016444385052e-03" rms="3.8558119535446167e-01" purity="2.5948691368103027e-01" nType="-99"/>
            <Node pos="r" depth="3" NCoef="0" IVar="-1" Cut="0.0000000000000000e+00" cType="1" res="1.2752823531627655e-02" rms="4.1659867763519287e-01" purity="3.8759124279022217e-01" nType="-99"/>
          </Node>
          <Node pos="r" depth="2" NCoef="0" IVar="1" Cut="1.3946873779296875e+03" cType="1" res="-6.8152383901178837e-03" rms="3.8880619406700134e-01" purity="6.7499834299087524e-01" nType="0">
            <Node pos="l" depth="3" NCoef="0" IVar="-1" Cut="0.0000000000000000e+00" cType="1" res="-9.9826836958527565e-03" rms="4.3435880541801453e-01" purity="5.2049309015274048e-01" nType="-99"/>
            <Node pos="r" depth="3" NCoef="0" IVar="-1" Cut="0.0000000000000000e+00" cType="1" res="2.7136309072375298e-03" rms="3.4510195255279541e-01" purity="8.0621570348739624e-01" nType="-99"/>
          </Node>
        </Node>
        <Node pos="r" depth="1" NCoef="0" IVar="3" Cut="1.7215516662597656e+02" cType="1" res="-3.3972796052694321e-02" rms="3.2904949784278870e-01" purity="1.8876157701015472e-01" nType="0">
          <Node pos="l" depth="2" NCoef="0" IVar="-1" Cut="0.0000000000000000e+00" cType="1" res="-9.3830758705735207e-03" rms="3.0137705802917480e-01" purity="1.3980299234390259e-01" nType="-99"/>
          <Node pos="r" depth="2" NCoef="0" IVar="-1" Cut="0.0000000000000000e+00" cType="1" res="-3.8673356175422668e-02" rms="3.5721442103385925e-01" purity="2.4735681712627411e-01" nType="-99"/>
        </Node>
      </Node>
    </BinaryTree>
    <BinaryTree type="DecisionTree" boostWeight="1.0000000000000000e+00" itree="62">
      <Node pos="s" depth="0" NCoef="0" IVar="8" Cut="-1.9999854564666748e+00" cType="1" res="4.0419225115329027e-04" rms="3.9206352829933167e-01" purity="4.9921497702598572e-01" nType="0">
        <Node pos="l" depth="1" NCoef="0" IVar="-1" Cut="0.0000000000000000e+00" cType="1" res="-3.0001752078533173e-02" rms="3.5133007168769836e-01" purity="2.1812707185745239e-01" nType="-99"/>
        <Node pos="r" depth="1" NCoef="0" IVar="2" Cut="6.5103735351562500e+02" cType="1" res="2.1945941261947155e-03" rms="3.9365887641906738e-01" purity="5.1155829429626465e-01" nType="0">
          <Node pos="l" depth="2" NCoef="0" IVar="8" Cut="2.1142468452453613e+00" cType="1" res="4.0759365074336529e-03" rms="3.9248967170715332e-01" purity="5.0705945491790771e-01" nType="0">
            <Node pos="l" depth="3" NCoef="0" IVar="-1" Cut="0.0000000000000000e+00" cType="1" res="3.5031966399401426e-03" rms="3.9406567811965942e-01" purity="5.1805329322814941e-01" nType="-99"/>
            <Node pos="r" depth="3" NCoef="0" IVar="-1" Cut="0.0000000000000000e+00" cType="1" res="-2.8333300724625587e-02" rms="3.4365186095237732e-01" purity="2.0376732945442200e-01" nType="-99"/>
          </Node>
          <Node pos="r" depth="2" NCoef="0" IVar="0" Cut="5.9407983398437500e+02" cType="1" res="-2.9128264635801315e-02" rms="4.1137659549713135e-01" purity="5.8645999431610107e-01" nType="0">
            <Node pos="l" depth="3" NCoef="0" IVar="-1" Cut="0.0000000000000000e+00" cType="1" res="-2.8723819181323051e-02" rms="4.1265282034873962e-01" purity="4.3865394592285156e-01" nType="-99"/>
            <Node pos="r" depth="3" NCoef="0" IVar="-1" Cut="0.0000000000000000e+00" cType="1" res="-5.0567784346640110e-03" rms="4.0913873910903931e-01" purity="7.1254485845565796e-01" nType="-99"/>
          </Node>
        </Node>
      </Node>
    </BinaryTree>
    <BinaryTree type="DecisionTree" boostWeight="1.0000000000000000e+00" itree="63">
      <Node pos="s" depth="0" NCoef="0" IVar="2" Cut="7.4322540283203125e+02" cType="1" res="3.1570689752697945e-03" rms="3.9335760474205017e-01" purity="5.0206196308135986e-01" nType="0">
        <Node pos="l" depth="1" NCoef="0" IVar="6" Cut="-3.9043995738029480e-01" cType="1" res="4.4380789622664452e-03" rms="3.9252689480781555e-01" purity="4.9856510758399963e-01" nType="0">
          <Node pos="l" depth="2" NCoef="0" IVar="8" Cut="1.2003412246704102e+00" cType="1" res="-5.4781562648713589e-03" rms="3.9119416475296021e-01" purity="4.2998185753822327e-01" nType="0">
            <Node pos="l" depth="3" NCoef="0" IVar="-1" Cut="0.0000000000000000e+00" cType="1" res="-5.0488146371208131e-05" rms="3.9543882012367249e-01" purity="4.5414808392524719e-01" nType="-99"/>
            <Node pos="r" depth="3" NCoef="0" IVar="-1" Cut="0.0000000000000000e+00" cType="1" res="-2.7189603075385094e-02" rms="3.6133685708045959e-01" purity="2.7713882923126221e-01" nType="-99"/>
          </Node>
          <Node pos="r" depth="2" NCoef="0" IVar="4" Cut="7.9841873168945312e+01" cType="1" res="9.4593353569507599e-03" rms="3.9310461282730103e-01" purity="5.3329342603683472e-01" nType="0">
            <Node pos="l" depth="3" NCoef="0" IVar="-1" Cut="0.0000000000000000e+00" cType="1" res="-7.0184846408665180e-03" rms="3.5534927248954773e-01" purity="1.9120356440544128e-01" nType="-99"/>
            <Node pos="r" depth="3" NCoef="0" IVar="-1" Cut="0.0000000000000000e+00" cType="1" res="7.8309550881385803e-03" rms="3.9927542209625244e-01" purity="5.9337699413299561e-01" nType="-99"/>
          </Node>
        </Node>
        <Node pos="r" depth="1" NCoef="0" IVar="-1" Cut="0.0000000000000000e+00" cType="1" res="-2.2475244477391243e-02" rms="4.1783842444419861e-01" purity="6.1846274137496948e-01" nType="-99"/>
      </Node>
    </BinaryTree>
    <BinaryTree type="DecisionTree" boostWeight="1.0000000000000000e+00" itree="64">
      <Node pos="s" depth="0" NCoef="0" IVar="9" Cut="-1.1999760866165161e+00" cType="1" res="-1.9725908059626818e-03" rms="3.9075902104377747e-01" purity="5.0156128406524658e-01" nType="0">
        <Node pos="l" depth="1" NCoef="0" IVar="4" Cut="9.5107002258300781e+01" cType="1" res="-1.9291589036583900e-02" rms="3.9138737320899963e-01" purity="4.0460851788520813e-01" nType="0">
          <Node pos="l" depth="2" NCoef="0" IVar="5" Cut="6.0652435302734375e+01" cType="1" res="1.9310494884848595e-02" rms="3.6821547150611877e-01" purity="2.1244652569293976e-01" nType="0">
            <Node pos="l" depth="3" NCoef="0" IVar="-1" Cut="0.0000000000000000e+00" cType="1" res="2.8810517862439156e-02" rms="3.5932630300521851e-01" purity="1.9438934326171875e-01" nType="-99"/>
            <Node pos="r" depth="3" NCoef="0" IVar="-1" Cut="0.0000000000000000e+00" cType="1" res="3.9627728983759880e-03" rms="3.7672296166419983e-01" purity="2.3118016123771667e-01" nType="-99"/>
          </Node>
          <Node pos="r" depth="2" NCoef="0" IVar="8" Cut="-4.0007942914962769e-01" cType="1" res="-3.7889447063207626e-02" rms="4.0074974298477173e-01" purity="4.9718904495239258e-01" nType="0">
            <Node pos="l" depth="3" NCoef="0" IVar="-1" Cut="0.0000000000000000e+00" cType="1" res="-4.0810830891132355e-02" rms="3.9913594722747803e-01" purity="4.1620427370071411e-01" nType="-99"/>
            <Node pos="r" depth="3" NCoef="0" IVar="-1" Cut="0.0000000000000000e+00" cType="1" res="-9.1646360233426094e-03" rms="4.0040245652198792e-01" purity="5.5518263578414917e-01" nType="-99"/>
          </Node>
        </Node>
        <Node pos="r" depth="1" NCoef="0" IVar="8" Cut="9.3322783708572388e-01" cType="1" res="1.5402018325403333e-03" rms="3.9053776860237122e-01" purity="5.2122610807418823e-01" nType="0">
          <Node pos="l" depth="2" NCoef="0" IVar="8" Cut="-1.3778053522109985e+00" cType="1" res="5.7348227128386497e-03" rms="3.9156553149223328e-01" purity="5.5485713481903076e-01" nType="0">
            <Node pos="l" depth="3" NCoef="0" IVar="-1" Cut="0.0000000000000000e+00" cType="1" res="-1.0334925726056099e-02" rms="3.8079124689102173e-01" purity="3.5683485865592957e-01" nType="-99"/>
            <Node pos="r" depth="3" NCoef="0" IVar="-1" Cut="0.0000000000000000e+00" cType="1" res="5.8288960717618465e-03" rms="3.9318835735321045e-01" purity="5.8725959062576294e-01" nType="-99"/>
          </Node>
          <Node pos="r" depth="2" NCoef="0" IVar="4" Cut="1.6816993713378906e+02" cType="1" res="-1.4067530632019043e-02" rms="3.8628968596458435e-01" purity="3.9608848094940186e-01" nType="0">
            <Node pos="l" depth="3" NCoef="0" IVar="-1" Cut="0.0000000000000000e+00" cType="1" res="-4.4590295292437077e-03" rms="3.8009500503540039e-01" purity="3.3692556619644165e-01" nType="-99"/>
            <Node pos="r" depth="3" NCoef="0" IVar="-1" Cut="0.0000000000000000e+00" cType="1" res="-2.6436734944581985e-02" rms="4.0842694044113159e-01" purity="6.2804979085922241e-01" nType="-99"/>
          </Node>
        </Node>
      </Node>
    </BinaryTree>
    <BinaryTree type="DecisionTree" boostWeight="1.0000000000000000e+00" itree="65">
      <Node pos="s" depth="0" NCoef="0" IVar="8" Cut="-9.3336343765258789e-01" cType="1" res="-4.6382239088416100e-04" rms="3.8973444700241089e-01" purity="5.0230550765991211e-01" nType="0">
        <Node pos="l" depth="1" NCoef="0" IVar="4" Cut="1.4049154663085938e+02" cType="1" res="-1.3611664995551109e-02" rms="3.8442769646644592e-01" purity="3.9631414413452148e-01" nType="0">
          <Node pos="l" depth="2" NCoef="0" IVar="7" Cut="-1.1999355554580688e+00" cType="1" res="6.0380075592547655e-04" rms="3.7535396218299866e-01" purity="2.9839435219764709e-01" nType="0">
            <Node pos="l" depth="3" NCoef="0" IVar="-1" Cut="0.0000000000000000e+00" cType="1" res="-2.8237666934728622e-02" rms="3.0904361605644226e-01" purity="1.4382800459861755e-01" nType="-99"/>
            <Node pos="r" depth="3" NCoef="0" IVar="-1" Cut="0.0000000000000000e+00" cType="1" res="5.6179175153374672e-03" rms="3.8980728387832642e-01" purity="3.3721938729286194e-01" nType="-99"/>
          </Node>
          <Node pos="r" depth="2" NCoef="0" IVar="0" Cut="4.2484631347656250e+02" cType="1" res="-4.1705593466758728e-02" rms="4.0027579665184021e-01" purity="5.8983248472213745e-01" nType="0">
            <Node pos="l" depth="3" NCoef="0" IVar="-1" Cut="0.0000000000000000e+00" cType="1" res="-3.5395931452512741e-02" rms="4.1886794567108154e-01" purity="4.1191270947456360e-01" nType="-99"/>
            <Node pos="r" depth="3" NCoef="0" IVar="-1" Cut="0.0000000000000000e+00" cType="1" res="-1.3806159608066082e-02" rms="3.8223725557327271e-01" purity="7.4270409345626831e-01" nType="-99"/>
          </Node>
        </Node>
        <Node pos="r" depth="1" NCoef="0" IVar="7" Cut="-1.4664690494537354e+00" cType="1" res="3.0255359597504139e-03" rms="3.9105653762817383e-01" purity="5.3043496608734131e-01" nType="0">
          <Node pos="l" depth="2" NCoef="0" IVar="0" Cut="4.1003842163085938e+02" cType="1" res="-1.9762702286243439e-02" rms="3.4919467568397522e-01" purity="2.6705402135848999e-01" nType="0">
            <Node pos="l" depth="3" NCoef="0" IVar="-1" Cut="0.0000000000000000e+00" cType="1" res="-3.1151073053479195e-02" rms="3.0613052845001221e-01" purity="1.3356092572212219e-01" nType="-99"/>
            <Node pos="r" depth="3" NCoef="0" IVar="-1" Cut="0.0000000000000000e+00" cType="1" res="1.6506917309015989e-03" rms="3.9767849445343018e-01" purity="4.4263887405395508e-01" nType="-99"/>
          </Node>
          <Node pos="r" depth="2" NCoef="0" IVar="8" Cut="1.1998908519744873e+00" cType="1" res="4.8870644532144070e-03" rms="3.9422163367271423e-01" purity="5.5195003747940063e-01" nType="0">
            <Node pos="l" depth="3" NCoef="0" IVar="-1" Cut="0.0000000000000000e+00" cType="1" res="5.0268848426640034e-03" rms="3.9415529370307922e-01" purity="5.9362947940826416e-01" nType="-99"/>
            <Node pos="r" depth="3" NCoef="0" IVar="-1" Cut="0.0000000000000000e+00" cType="1" res="-5.7892841286957264e-03" rms="3.9421689510345459e-01" purity="3.6815279722213745e-01" nType="-99"/>
          </Node>
        </Node>
      </Node>
    </BinaryTree>
    <BinaryTree type="DecisionTree" boostWeight="1.0000000000000000e+00" itree="66">
      <Node pos="s" depth="0" NCoef="0" IVar="4" Cut="9.7307144165039062e+01" cType="1" res="-1.7730257241055369e-04" rms="3.9404815435409546e-01" purity="4.9635156989097595e-01" nType="0">
        <Node pos="l" depth="1" NCoef="0" IVar="5" Cut="6.3481395721435547e+01" cType="1" res="8.9717870578169823e-03" rms="3.8055133819580078e-01" purity="2.4005928635597229e-01" nType="0">
          <Node pos="l" depth="2" NCoef="0" IVar="9" Cut="-9.3298035860061646e-01" cType="1" res="-1.6085747629404068e-02" rms="3.4492346644401550e-01" purity="1.7281308770179749e-01" nType="0">
            <Node pos="l" depth="3" NCoef="0" IVar="-1" Cut="0.0000000000000000e+00" cType="1" res="1.0107090696692467e-02" rms="3.5007750988006592e-01" purity="1.8298241496086121e-01" nType="-99"/>
            <Node pos="r" depth="3" NCoef="0" IVar="-1" Cut="0.0000000000000000e+00" cType="1" res="-2.0235231146216393e-02" rms="3.4240749478340149e-01" purity="1.6903752088546753e-01" nType="-99"/>
          </Node>
          <Node pos="r" depth="2" NCoef="0" IVar="7" Cut="9.3331724405288696e-01" cType="1" res="3.9817299693822861e-02" rms="4.1822534799575806e-01" purity="3.2283848524093628e-01" nType="0">
            <Node pos="l" depth="3" NCoef="0" IVar="-1" Cut="0.0000000000000000e+00" cType="1" res="1.8151903524994850e-02" rms="4.1898015141487122e-01" purity="3.3677902817726135e-01" nType="-99"/>
            <Node pos="r" depth="3" NCoef="0" IVar="-1" Cut="0.0000000000000000e+00" cType="1" res="5.4540585726499557e-02" rms="4.1383698582649231e-01" purity="2.7428388595581055e-01" nType="-99"/>
          </Node>
        </Node>
        <Node pos="r" depth="1" NCoef="0" IVar="5" Cut="1.0621949005126953e+02" cType="1" res="-4.0036481805145741e-03" rms="3.9949548244476318e-01" purity="6.0353857278823853e-01" nType="0">
          <Node pos="l" depth="2" NCoef="0" IVar="0" Cut="4.1459307861328125e+02" cType="1" res="-1.2193211354315281e-02" rms="4.2255696654319763e-01" purity="4.9192008376121521e-01" nType="0">
            <Node pos="l" depth="3" NCoef="0" IVar="-1" Cut="0.0000000000000000e+00" cType="1" res="-3.8794084684923291e-04" rms="4.2135781049728394e-01" purity="3.5080659389495850e-01" nType="-99"/>
            <Node pos="r" depth="3" NCoef="0" IVar="-1" Cut="0.0000000000000000e+00" cType="1" res="-1.4005005359649658e-02" rms="4.2349061369895935e-01" purity="6.4259827136993408e-01" nType="-99"/>
          </Node>
          <Node pos="r" depth="2" NCoef="0" IVar="9" Cut="1.4666883945465088e+00" cType="1" res="7.5991158373653889e-03" rms="3.6401668190956116e-01" purity="7.6167666912078857e-01" nType="0">
            <Node pos="l" depth="3" NCoef="0" IVar="-1" Cut="0.0000000000000000e+00" cType="1" res="8.9387064799666405e-03" rms="3.6057606339454651e-01" purity="7.7472192049026489e-01" nType="-99"/>
            <Node pos="r" depth="3" NCoef="0" IVar="-1" Cut="0.0000000000000000e+00" cType="1" res="-2.5406191125512123e-02" rms="3.9334133267402649e-01" purity="6.3242501020431519e-01" nType="-99"/>
          </Node>
        </Node>
      </Node>
    </BinaryTree>
    <BinaryTree type="DecisionTree" boostWeight="1.0000000000000000e+00" itree="67">
      <Node pos="s" depth="0" NCoef="0" IVar="9" Cut="-1.3331544399261475e-01" cType="1" res="6.9103378336876631e-04" rms="3.9439111948013306e-01" purity="4.9580016732215881e-01" nType="0">
        <Node pos="l" depth="1" NCoef="0" IVar="6" Cut="-3.6065483093261719e-01" cType="1" res="7.8284433111548424e-03" rms="3.9799281954765320e-01" purity="4.9835947155952454e-01" nType="0">
          <Node pos="l" depth="2" NCoef="0" IVar="7" Cut="9.3339473009109497e-01" cType="1" res="-9.0639004483819008e-03" rms="3.9197841286659241e-01" purity="4.1740974783897400e-01" nType="0">
            <Node pos="l" depth="3" NCoef="0" IVar="-1" Cut="0.0000000000000000e+00" cType="1" res="-5.6080252397805452e-04" rms="4.0009790658950806e-01" purity="4.5222029089927673e-01" nType="-99"/>
            <Node pos="r" depth="3" NCoef="0" IVar="-1" Cut="0.0000000000000000e+00" cType="1" res="-3.8927312940359116e-02" rms="3.4022748470306396e-01" purity="2.2536265850067139e-01" nType="-99"/>
          </Node>
          <Node pos="r" depth="2" NCoef="0" IVar="7" Cut="1.3336385786533356e-01" cType="1" res="1.8295399844646454e-02" rms="4.0131771564483643e-01" purity="5.4851812124252319e-01" nType="0">
            <Node pos="l" depth="3" NCoef="0" IVar="-1" Cut="0.0000000000000000e+00" cType="1" res="3.3117157872766256e-03" rms="3.9678251743316650e-01" purity="5.3590357303619385e-01" nType="-99"/>
            <Node pos="r" depth="3" NCoef="0" IVar="-1" Cut="0.0000000000000000e+00" cType="1" res="2.1296242251992226e-02" rms="4.0636327862739563e-01" purity="5.6439292430877686e-01" nType="-99"/>
          </Node>
        </Node>
        <Node pos="r" depth="1" NCoef="0" IVar="5" Cut="1.3047167968750000e+02" cType="1" res="-5.4528797045350075e-03" rms="3.9115989208221436e-01" purity="4.9359709024429321e-01" nType="0">
          <Node pos="l" depth="2" NCoef="0" IVar="5" Cut="5.7664054870605469e+01" cType="1" res="-9.3263424932956696e-03" rms="4.0028834342956543e-01" purity="4.2712414264678955e-01" nType="0">
            <Node pos="l" depth="3" NCoef="0" IVar="-1" Cut="0.0000000000000000e+00" cType="1" res="-2.2301809862256050e-02" rms="3.5538849234580994e-01" purity="2.1993981301784515e-01" nType="-99"/>
            <Node pos="r" depth="3" NCoef="0" IVar="-1" Cut="0.0000000000000000e+00" cType="1" res="-2.4993801489472389e-03" rms="4.0969425439834595e-01" purity="4.7449427843093872e-01" nType="-99"/>
          </Node>
          <Node pos="r" depth="2" NCoef="0" IVar="8" Cut="-1.3169547915458679e-01" cType="1" res="1.3463456183671951e-02" rms="3.4248021245002747e-01" purity="8.1822264194488525e-01" nType="0">
            <Node pos="l" depth="3" NCoef="0" IVar="-1" Cut="0.0000000000000000e+00" cType="1" res="2.4179736152291298e-02" rms="3.3859744668006897e-01" purity="8.3841103315353394e-01" nType="-99"/>
            <Node pos="r" depth="3" NCoef="0" IVar="-1" Cut="0.0000000000000000e+00" cType="1" res="4.3022635509259999e-05" rms="3.4499204158782959e-01" purity="8.0196249485015869e-01" nType="-99"/>
          </Node>
        </Node>
      </Node>
    </BinaryTree>
    <BinaryTree type="DecisionTree" boostWeight="1.0000000000000000e+00" itree="68">
      <Node pos="s" depth="0" NCoef="0" IVar="6" Cut="1.7414665222167969e+00" cType="1" res="-1.2411499628797174e-03" rms="3.9042264223098755e-01" purity="5.0001072883605957e-01" nType="0">
        <Node pos="l" depth="1" NCoef="0" IVar="8" Cut="1.3327670097351074e-01" cType="1" res="4.4480263022705913e-04" rms="3.9409008622169495e-01" purity="5.1427721977233887e-01" nType="0">
          <Node pos="l" depth="2" NCoef="0" IVar="9" Cut="-4.0009093284606934e-01" cType="1" res="5.9120110236108303e-03" rms="3.9576265215873718e-01" purity="5.2641367912292480e-01" nType="0">
            <Node pos="l" depth="3" NCoef="0" IVar="-1" Cut="0.0000000000000000e+00" cType="1" res="-3.9014974609017372e-03" rms="3.9300152659416199e-01" purity="4.7929543256759644e-01" nType="-99"/>
            <Node pos="r" depth="3" NCoef="0" IVar="-1" Cut="0.0000000000000000e+00" cType="1" res="8.9292945340275764e-03" rms="3.9742839336395264e-01" purity="5.5861532688140869e-01" nType="-99"/>
          </Node>
          <Node pos="r" depth="2" NCoef="0" IVar="9" Cut="4.0004149079322815e-01" cType="1" res="-6.2901824712753296e-03" rms="3.9191502332687378e-01" purity="4.9932643771171570e-01" nType="0">
            <Node pos="l" depth="3" NCoef="0" IVar="-1" Cut="0.0000000000000000e+00" cType="1" res="3.2290681265294552e-03" rms="3.9733067154884338e-01" purity="5.3340029716491699e-01" nType="-99"/>
            <Node pos="r" depth="3" NCoef="0" IVar="-1" Cut="0.0000000000000000e+00" cType="1" res="-1.4905110001564026e-02" rms="3.8303020596504211e-01" purity="4.4834437966346741e-01" nType="-99"/>
          </Node>
        </Node>
        <Node pos="r" depth="1" NCoef="0" IVar="-1" Cut="0.0000000000000000e+00" cType="1" res="-4.0269378572702408e-02" rms="2.8004211187362671e-01" purity="1.4226332306861877e-01" nType="-99"/>
      </Node>
    </BinaryTree>
    <BinaryTree type="DecisionTree" boostWeight="1.0000000000000000e+00" itree="69">
      <Node pos="s" depth="0" NCoef="0" IVar="9" Cut="-2.2666356563568115e+00" cType="1" res="-2.5223051197826862e-03" rms="3.8917839527130127e-01" purity="4.9904882907867432e-01" nType="0">
        <Node pos="l" depth="1" NCoef="0" IVar="-1" Cut="0.0000000000000000e+00" cType="1" res="-2.2916425019502640e-02" rms="3.6969465017318726e-01" purity="2.8977498412132263e-01" nType="-99"/>
        <Node pos="r" depth="1" NCoef="0" IVar="8" Cut="-1.9999854564666748e+00" cType="1" res="-1.5853565419092774e-03" rms="3.8971683382987976e-01" purity="5.0540626049041748e-01" nType="0">
          <Node pos="l" depth="2" NCoef="0" IVar="-1" Cut="0.0000000000000000e+00" cType="1" res="-2.0106747746467590e-02" rms="3.5348412394523621e-01" purity="2.3009096086025238e-01" nType="-99"/>
          <Node pos="r" depth="2" NCoef="0" IVar="8" Cut="-1.5428270101547241e+00" cType="1" res="-4.5146324555389583e-04" rms="3.9118725061416626e-01" purity="5.1745963096618652e-01" nType="0">
            <Node pos="l" depth="3" NCoef="0" IVar="-1" Cut="0.0000000000000000e+00" cType="1" res="1.6907090321183205e-02" rms="3.9888498187065125e-01" purity="3.9330828189849854e-01" nType="-99"/>
            <Node pos="r" depth="3" NCoef="0" IVar="-1" Cut="0.0000000000000000e+00" cType="1" res="-1.2801146367564797e-03" rms="3.9068385958671570e-01" purity="5.2457910776138306e-01" nType="-99"/>
          </Node>
        </Node>
      </Node>
    </BinaryTree>
    <BinaryTree type="DecisionTree" boostWeight="1.0000000000000000e+00" itree="70">
      <Node pos="s" depth="0" NCoef="0" IVar="9" Cut="1.3334858417510986e-01" cType="1" res="9.2139694606885314e-04" rms="3.9120501279830933e-01" purity="4.9925932288169861e-01" nType="0">
        <Node pos="l" depth="1" NCoef="0" IVar="6" Cut="-3.5996747016906738e-01" cType="1" res="7.3851579800248146e-03" rms="3.9369475841522217e-01" purity="5.1154917478561401e-01" nType="0">
          <Node pos="l" depth="2" NCoef="0" IVar="1" Cut="1.3448143310546875e+03" cType="1" res="-4.9372864887118340e-03" rms="3.8909441232681274e-01" purity="4.3762385845184326e-01" nType="0">
            <Node pos="l" depth="3" NCoef="0" IVar="-1" Cut="0.0000000000000000e+00" cType="1" res="-1.3158973306417465e-02" rms="3.8824298977851868e-01" purity="2.8035932779312134e-01" nType="-99"/>
            <Node pos="r" depth="3" NCoef="0" IVar="-1" Cut="0.0000000000000000e+00" cType="1" res="1.2638355605304241e-02" rms="3.8918274641036987e-01" purity="6.9102442264556885e-01" nType="-99"/>
          </Node>
          <Node pos="r" depth="2" NCoef="0" IVar="9" Cut="-1.8221992254257202e+00" cType="1" res="1.4994820579886436e-02" rms="3.9631772041320801e-01" purity="5.5720126628875732e-01" nType="0">
            <Node pos="l" depth="3" NCoef="0" IVar="-1" Cut="0.0000000000000000e+00" cType="1" res="-7.0784930139780045e-03" rms="3.9292243123054504e-01" purity="3.7469449639320374e-01" nType="-99"/>
            <Node pos="r" depth="3" NCoef="0" IVar="-1" Cut="0.0000000000000000e+00" cType="1" res="1.1824321933090687e-02" rms="3.9665958285331726e-01" purity="5.8354407548904419e-01" nType="-99"/>
          </Node>
        </Node>
        <Node pos="r" depth="1" NCoef="0" IVar="6" Cut="9.3905478715896606e-01" cType="1" res="-6.9144773297011852e-03" rms="3.8802096247673035e-01" purity="4.8436072468757629e-01" nType="0">
          <Node pos="l" depth="2" NCoef="0" IVar="5" Cut="7.7251701354980469e+01" cType="1" res="-1.2753703631460667e-03" rms="3.9667528867721558e-01" purity="5.3365361690521240e-01" nType="0">
            <Node pos="l" depth="3" NCoef="0" IVar="-1" Cut="0.0000000000000000e+00" cType="1" res="5.3446399979293346e-03" rms="4.0281695127487183e-01" purity="3.6183893680572510e-01" nType="-99"/>
            <Node pos="r" depth="3" NCoef="0" IVar="-1" Cut="0.0000000000000000e+00" cType="1" res="-6.1580105684697628e-03" rms="3.9138439297676086e-01" purity="6.7421615123748779e-01" nType="-99"/>
          </Node>
          <Node pos="r" depth="2" NCoef="0" IVar="2" Cut="3.0682846069335938e+02" cType="1" res="-3.1035099178552628e-02" rms="3.4755530953407288e-01" purity="2.7351596951484680e-01" nType="0">
            <Node pos="l" depth="3" NCoef="0" IVar="-1" Cut="0.0000000000000000e+00" cType="1" res="-7.9712513834238052e-03" rms="3.4307342767715454e-01" purity="2.5814640522003174e-01" nType="-99"/>
            <Node pos="r" depth="3" NCoef="0" IVar="-1" Cut="0.0000000000000000e+00" cType="1" res="-3.5315964370965958e-02" rms="3.5037133097648621e-01" purity="2.8655666112899780e-01" nType="-99"/>
          </Node>
        </Node>
      </Node>
    </BinaryTree>
    <BinaryTree type="DecisionTree" boostWeight="1.0000000000000000e+00" itree="71">
      <Node pos="s" depth="0" NCoef="0" IVar="9" Cut="-3.9999356865882874e-01" cType="1" res="2.1003149449825287e-03" rms="3.9130470156669617e-01" purity="5.0045019388198853e-01" nType="0">
        <Node pos="l" depth="1" NCoef="0" IVar="3" Cut="2.0863255310058594e+02" cType="1" res="-6.0315174050629139e-03" rms="3.9014661312103271e-01" purity="4.7433543205261230e-01" nType="0">
          <Node pos="l" depth="2" NCoef="0" IVar="2" Cut="4.1296813964843750e+02" cType="1" res="-1.8458874896168709e-02" rms="3.8993200659751892e-01" purity="3.2753494381904602e-01" nType="0">
            <Node pos="l" depth="3" NCoef="0" IVar="-1" Cut="0.0000000000000000e+00" cType="1" res="-5.8237160556018353e-03" rms="3.9305865764617920e-01" purity="3.3511704206466675e-01" nType="-99"/>
            <Node pos="r" depth="3" NCoef="0" IVar="-1" Cut="0.0000000000000000e+00" cType="1" res="-3.5721752792596817e-02" rms="3.7506407499313354e-01" purity="2.9768860340118408e-01" nType="-99"/>
          </Node>
          <Node pos="r" depth="2" NCoef="0" IVar="7" Cut="-6.6651457548141479e-01" cType="1" res="8.8643133640289307e-03" rms="3.8988208770751953e-01" purity="6.5029513835906982e-01" nType="0">
            <Node pos="l" depth="3" NCoef="0" IVar="-1" Cut="0.0000000000000000e+00" cType="1" res="-1.3491177000105381e-02" rms="4.0809312462806702e-01" purity="5.2870535850524902e-01" nType="-99"/>
            <Node pos="r" depth="3" NCoef="0" IVar="-1" Cut="0.0000000000000000e+00" cType="1" res="1.2720412574708462e-02" rms="3.8284295797348022e-01" purity="6.9204854965209961e-01" nType="-99"/>
          </Node>
        </Node>
        <Node pos="r" depth="1" NCoef="0" IVar="7" Cut="3.9997076988220215e-01" cType="1" res="6.9628329947590828e-03" rms="3.9191496372222900e-01" purity="5.1606577634811401e-01" nType="0">
          <Node pos="l" depth="2" NCoef="0" IVar="8" Cut="-6.6677445173263550e-01" cType="1" res="1.2973644770681858e-02" rms="3.9293873310089111e-01" purity="5.5384719371795654e-01" nType="0">
            <Node pos="l" depth="3" NCoef="0" IVar="-1" Cut="0.0000000000000000e+00" cType="1" res="1.9742980599403381e-02" rms="3.9628747105598450e-01" purity="5.2617752552032471e-01" nType="-99"/>
            <Node pos="r" depth="3" NCoef="0" IVar="-1" Cut="0.0000000000000000e+00" cType="1" res="3.3034768421202898e-03" rms="3.9126119017601013e-01" purity="5.6544983386993408e-01" nType="-99"/>
          </Node>
          <Node pos="r" depth="2" NCoef="0" IVar="9" Cut="1.1238142251968384e+00" cType="1" res="-3.1876191496849060e-03" rms="3.8996976613998413e-01" purity="4.5226433873176575e-01" nType="0">
            <Node pos="l" depth="3" NCoef="0" IVar="-1" Cut="0.0000000000000000e+00" cType="1" res="3.8945244159549475e-03" rms="3.9610236883163452e-01" purity="5.0267004966735840e-01" nType="-99"/>
            <Node pos="r" depth="3" NCoef="0" IVar="-1" Cut="0.0000000000000000e+00" cType="1" res="-1.4635095372796059e-02" rms="3.7693956494331360e-01" purity="3.5312354564666748e-01" nType="-99"/>
          </Node>
        </Node>
      </Node>
    </BinaryTree>
    <BinaryTree type="DecisionTree" boostWeight="1.0000000000000000e+00" itree="72">
      <Node pos="s" depth="0" NCoef="0" IVar="1" Cut="1.1041791992187500e+03" cType="1" res="-1.9565629190765321e-04" rms="3.8947471976280212e-01" purity="4.9816823005676270e-01" nType="0">
        <Node pos="l" depth="1" NCoef="0" IVar="2" Cut="3.2068649291992188e+02" cType="1" res="-9.8441028967499733e-03" rms="3.7667420506477356e-01" purity="2.2249598801136017e-01" nType="0">
          <Node pos="l" depth="2" NCoef="0" IVar="1" Cut="1.0462390136718750e+03" cType="1" res="-1.4340541092678905e-03" rms="3.9821618795394897e-01" purity="2.5664201378822327e-01" nType="0">
            <Node pos="l" depth="3" NCoef="0" IVar="-1" Cut="0.0000000000000000e+00" cType="1" res="-6.8280152045190334e-03" rms="3.8075116276741028e-01" purity="2.1533641219139099e-01" nType="-99"/>
            <Node pos="r" depth="3" NCoef="0" IVar="-1" Cut="0.0000000000000000e+00" cType="1" res="1.7781605944037437e-02" rms="4.6412363648414612e-01" purity="4.3439078330993652e-01" nType="-99"/>
          </Node>
          <Node pos="r" depth="2" NCoef="0" IVar="-1" Cut="0.0000000000000000e+00" cType="1" res="-3.3284202218055725e-02" rms="2.9393413662910461e-01" purity="1.1100985109806061e-01" nType="-99"/>
        </Node>
        <Node pos="r" depth="1" NCoef="0" IVar="7" Cut="-3.9989921450614929e-01" cType="1" res="4.3387943878769875e-03" rms="3.9526605606079102e-01" purity="6.2772500514984131e-01" nType="0">
          <Node pos="l" depth="2" NCoef="0" IVar="2" Cut="5.7827862548828125e+02" cType="1" res="-5.0123501569032669e-03" rms="3.9695194363594055e-01" purity="5.8407008647918701e-01" nType="0">
            <Node pos="l" depth="3" NCoef="0" IVar="-1" Cut="0.0000000000000000e+00" cType="1" res="4.6057248255237937e-04" rms="3.9904877543449402e-01" purity="5.9262579679489136e-01" nType="-99"/>
            <Node pos="r" depth="3" NCoef="0" IVar="-1" Cut="0.0000000000000000e+00" cType="1" res="-2.5049136951565742e-02" rms="3.8208815455436707e-01" purity="5.3205204010009766e-01" nType="-99"/>
          </Node>
          <Node pos="r" depth="2" NCoef="0" IVar="4" Cut="9.9487312316894531e+01" cType="1" res="9.1422665864229202e-03" rms="3.9431107044219971e-01" purity="6.5014958381652832e-01" nType="0">
            <Node pos="l" depth="3" NCoef="0" IVar="-1" Cut="0.0000000000000000e+00" cType="1" res="1.5878586098551750e-02" rms="4.2789563536643982e-01" purity="4.0490803122520447e-01" nType="-99"/>
            <Node pos="r" depth="3" NCoef="0" IVar="-1" Cut="0.0000000000000000e+00" cType="1" res="3.3860839903354645e-03" rms="3.8704410195350647e-01" purity="6.9978410005569458e-01" nType="-99"/>
          </Node>
        </Node>
      </Node>
    </BinaryTree>
    <BinaryTree type="DecisionTree" boostWeight="1.0000000000000000e+00" itree="73">
      <Node pos="s" depth="0" NCoef="0" IVar="2" Cut="7.5944055175781250e+02" cType="1" res="1.9925700034946203e-03" rms="3.9285182952880859e-01" purity="4.9936753511428833e-01" nType="0">
        <Node pos="l" depth="1" NCoef="0" IVar="0" Cut="3.7671026611328125e+02" cType="1" res="3.1078136526048183e-03" rms="3.9232859015464783e-01" purity="4.9602878093719482e-01" nType="0">
          <Node pos="l" depth="2" NCoef="0" IVar="4" Cut="1.4191378784179688e+02" cType="1" res="-8.6091030389070511e-03" rms="3.9202290773391724e-01" purity="3.0306267738342285e-01" nType="0">
            <Node pos="l" depth="3" NCoef="0" IVar="-1" Cut="0.0000000000000000e+00" cType="1" res="1.9760711584240198e-03" rms="3.7547129392623901e-01" purity="2.2396434843540192e-01" nType="-99"/>
            <Node pos="r" depth="3" NCoef="0" IVar="-1" Cut="0.0000000000000000e+00" cType="1" res="-1.8374023959040642e-02" rms="4.2676395177841187e-01" purity="4.8642566800117493e-01" nType="-99"/>
          </Node>
          <Node pos="r" depth="2" NCoef="0" IVar="0" Cut="4.4976916503906250e+02" cType="1" res="1.0267854668200016e-02" rms="3.9234304428100586e-01" purity="6.1394757032394409e-01" nType="0">
            <Node pos="l" depth="3" NCoef="0" IVar="-1" Cut="0.0000000000000000e+00" cType="1" res="1.2703466229140759e-02" rms="4.1476622223854065e-01" purity="4.5879340171813965e-01" nType="-99"/>
            <Node pos="r" depth="3" NCoef="0" IVar="-1" Cut="0.0000000000000000e+00" cType="1" res="2.2377341520041227e-03" rms="3.7750738859176636e-01" purity="7.1075403690338135e-01" nType="-99"/>
          </Node>
        </Node>
        <Node pos="r" depth="1" NCoef="0" IVar="-1" Cut="0.0000000000000000e+00" cType="1" res="-2.2893540561199188e-02" rms="4.0960210561752319e-01" purity="6.2278568744659424e-01" nType="-99"/>
      </Node>
    </BinaryTree>
    <BinaryTree type="DecisionTree" boostWeight="1.0000000000000000e+00" itree="74">
      <Node pos="s" depth="0" NCoef="0" IVar="2" Cut="3.5034561157226562e+02" cType="1" res="-6.5435236319899559e-04" rms="3.9105960726737976e-01" purity="5.0077635049819946e-01" nType="0">
        <Node pos="l" depth="1" NCoef="0" IVar="4" Cut="7.8207313537597656e+01" cType="1" res="4.0169027633965015e-03" rms="3.9947238564491272e-01" purity="4.6171990036964417e-01" nType="0">
          <Node pos="l" depth="2" NCoef="0" IVar="7" Cut="-3.9978536963462830e-01" cType="1" res="-2.1052619442343712e-02" rms="3.2695546746253967e-01" purity="1.4087501168251038e-01" nType="0">
            <Node pos="l" depth="3" NCoef="0" IVar="-1" Cut="0.0000000000000000e+00" cType="1" res="4.2286570533178747e-04" rms="3.3417496085166931e-01" purity="1.4354823529720306e-01" nType="-99"/>
            <Node pos="r" depth="3" NCoef="0" IVar="-1" Cut="0.0000000000000000e+00" cType="1" res="-2.8177782893180847e-02" rms="3.2148396968841553e-01" purity="1.3916061818599701e-01" nType="-99"/>
          </Node>
          <Node pos="r" depth="2" NCoef="0" IVar="4" Cut="9.0900672912597656e+01" cType="1" res="8.5890265181660652e-03" rms="4.1115692257881165e-01" purity="5.2023494243621826e-01" nType="0">
            <Node pos="l" depth="3" NCoef="0" IVar="-1" Cut="0.0000000000000000e+00" cType="1" res="2.5791743770241737e-02" rms="4.1682159900665283e-01" purity="2.8526303172111511e-01" nType="-99"/>
            <Node pos="r" depth="3" NCoef="0" IVar="-1" Cut="0.0000000000000000e+00" cType="1" res="2.2591699380427599e-03" rms="4.1005739569664001e-01" purity="5.5688846111297607e-01" nType="-99"/>
          </Node>
        </Node>
        <Node pos="r" depth="1" NCoef="0" IVar="1" Cut="1.1294718017578125e+03" cType="1" res="-5.6737805716693401e-03" rms="3.8174951076507568e-01" purity="5.4274386167526245e-01" nType="0">
          <Node pos="l" depth="2" NCoef="0" IVar="-1" Cut="0.0000000000000000e+00" cType="1" res="-3.2130263745784760e-02" rms="2.8452861309051514e-01" purity="1.0362029820680618e-01" nType="-99"/>
          <Node pos="r" depth="2" NCoef="0" IVar="6" Cut="9.3800210952758789e-01" cType="1" res="-2.1654618903994560e-03" rms="3.9209508895874023e-01" purity="5.9776574373245239e-01" nType="0">
            <Node pos="l" depth="3" NCoef="0" IVar="-1" Cut="0.0000000000000000e+00" cType="1" res="8.2231091801077127e-04" rms="3.9274913072586060e-01" purity="6.2954235076904297e-01" nType="-99"/>
            <Node pos="r" depth="3" NCoef="0" IVar="-1" Cut="0.0000000000000000e+00" cType="1" res="-1.5225066803395748e-02" rms="3.8716563582420349e-01" purity="3.9514273405075073e-01" nType="-99"/>
          </Node>
        </Node>
      </Node>
    </BinaryTree>
    <BinaryTree type="DecisionTree" boostWeight="1.0000000000000000e+00" itree="75">
      <Node pos="s" depth="0" NCoef="0" IVar="8" Cut="-6.6669499874114990e-01" cType="1" res="2.7739114593714476e-03" rms="3.9009994268417358e-01" purity="5.0376349687576294e-01" nType="0">
        <Node pos="l" depth="1" NCoef="0" IVar="4" Cut="9.9598876953125000e+01" cType="1" res="-9.1020064428448677e-03" rms="3.8866266608238220e-01" purity="4.3148216605186462e-01" nType="0">
          <Node pos="l" depth="2" NCoef="0" IVar="5" Cut="7.1145668029785156e+01" cType="1" res="6.7751696333289146e-03" rms="3.6614733934402466e-01" purity="2.1539713442325592e-01" nType="0">
            <Node pos="l" depth="3" NCoef="0" IVar="-1" Cut="0.0000000000000000e+00" cType="1" res="-6.8508274853229523e-03" rms="3.3761373162269592e-01" purity="1.7173318564891815e-01" nType="-99"/>
            <Node pos="r" depth="3" NCoef="0" IVar="-1" Cut="0.0000000000000000e+00" cType="1" res="3.1735759228467941e-02" rms="4.3451297283172607e-01" purity="3.3987548947334290e-01" nType="-99"/>
          </Node>
          <Node pos="r" depth="2" NCoef="0" IVar="8" Cut="-1.0730613470077515e+00" cType="1" res="-1.7535669729113579e-02" rms="3.9985117316246033e-01" purity="5.4626256227493286e-01" nType="0">
            <Node pos="l" depth="3" NCoef="0" IVar="-1" Cut="0.0000000000000000e+00" cType="1" res="-1.9095024093985558e-02" rms="3.9535430073738098e-01" purity="4.8309889435768127e-01" nType="-99"/>
            <Node pos="r" depth="3" NCoef="0" IVar="-1" Cut="0.0000000000000000e+00" cType="1" res="2.4489359930157661e-03" rms="4.0557605028152466e-01" purity="6.4125192165374756e-01" nType="-99"/>
          </Node>
        </Node>
        <Node pos="r" depth="1" NCoef="0" IVar="9" Cut="6.6669088602066040e-01" cType="1" res="7.4062235653400421e-03" rms="3.9056125283241272e-01" purity="5.3195744752883911e-01" nType="0">
          <Node pos="l" depth="2" NCoef="0" IVar="8" Cut="1.1491240262985229e+00" cType="1" res="1.2830518186092377e-02" rms="3.9312705397605896e-01" purity="5.5915021896362305e-01" nType="0">
            <Node pos="l" depth="3" NCoef="0" IVar="-1" Cut="0.0000000000000000e+00" cType="1" res="5.6602177210152149e-03" rms="3.9160516858100891e-01" purity="5.9638392925262451e-01" nType="-99"/>
            <Node pos="r" depth="3" NCoef="0" IVar="-1" Cut="0.0000000000000000e+00" cType="1" res="1.7881985753774643e-02" rms="3.9833626151084900e-01" purity="4.2181614041328430e-01" nType="-99"/>
          </Node>
          <Node pos="r" depth="2" NCoef="0" IVar="6" Cut="-8.7472492456436157e-01" cType="1" res="-4.5223706401884556e-03" rms="3.8458961248397827e-01" purity="4.7215762734413147e-01" nType="0">
            <Node pos="l" depth="3" NCoef="0" IVar="-1" Cut="0.0000000000000000e+00" cType="1" res="-3.1939115375280380e-02" rms="3.6059808731079102e-01" purity="2.7776315808296204e-01" nType="-99"/>
            <Node pos="r" depth="3" NCoef="0" IVar="-1" Cut="0.0000000000000000e+00" cType="1" res="9.9163153208792210e-04" rms="3.8774690032005310e-01" purity="5.0171899795532227e-01" nType="-99"/>
          </Node>
        </Node>
      </Node>
    </BinaryTree>
    <BinaryTree type="DecisionTree" boostWeight="1.0000000000000000e+00" itree="76">
      <Node pos="s" depth="0" NCoef="0" IVar="2" Cut="7.4322540283203125e+02" cType="1" res="-3.1279535032808781e-03" rms="3.9129981398582458e-01" purity="4.9494829773902893e-01" nType="0">
        <Node pos="l" depth="1" NCoef="0" IVar="0" Cut="3.8254583740234375e+02" cType="1" res="-2.0759531762450933e-03" rms="3.9043468236923218e-01" purity="4.9172437191009521e-01" nType="0">
          <Node pos="l" depth="2" NCoef="0" IVar="2" Cut="2.2586880493164062e+02" cType="1" res="-1.3025832362473011e-02" rms="3.8903203606605530e-01" purity="3.0237367749214172e-01" nType="0">
            <Node pos="l" depth="3" NCoef="0" IVar="-1" Cut="0.0000000000000000e+00" cType="1" res="1.5016516670584679e-02" rms="4.2243015766143799e-01" purity="3.1317457556724548e-01" nType="-99"/>
            <Node pos="r" depth="3" NCoef="0" IVar="-1" Cut="0.0000000000000000e+00" cType="1" res="-1.1515039019286633e-02" rms="3.8407382369041443e-01" purity="3.0093201994895935e-01" nType="-99"/>
          </Node>
          <Node pos="r" depth="2" NCoef="0" IVar="0" Cut="6.1838891601562500e+02" cType="1" res="5.3569590672850609e-03" rms="3.9120933413505554e-01" purity="6.2025797367095947e-01" nType="0">
            <Node pos="l" depth="3" NCoef="0" IVar="-1" Cut="0.0000000000000000e+00" cType="1" res="5.2654496394097805e-03" rms="4.0040147304534912e-01" purity="5.7975947856903076e-01" nType="-99"/>
            <Node pos="r" depth="3" NCoef="0" IVar="-1" Cut="0.0000000000000000e+00" cType="1" res="-7.3562893085181713e-03" rms="3.4577310085296631e-01" purity="8.0526071786880493e-01" nType="-99"/>
          </Node>
        </Node>
        <Node pos="r" depth="1" NCoef="0" IVar="-1" Cut="0.0000000000000000e+00" cType="1" res="-2.2282302379608154e-02" rms="4.1843369603157043e-01" purity="6.0614067316055298e-01" nType="-99"/>
      </Node>
    </BinaryTree>
    <BinaryTree type="DecisionTree" boostWeight="1.0000000000000000e+00" itree="77">
      <Node pos="s" depth="0" NCoef="0" IVar="2" Cut="6.8988824462890625e+02" cType="1" res="-3.6852832417935133e-03" rms="3.8870933651924133e-01" purity="4.9727076292037964e-01" nType="0">
        <Node pos="l" depth="1" NCoef="0" IVar="1" Cut="9.8127020263671875e+02" cType="1" res="-2.4479071144014597e-03" rms="3.8772812485694885e-01" purity="4.9367430806159973e-01" nType="0">
          <Node pos="l" depth="2" NCoef="0" IVar="0" Cut="3.3513864135742188e+02" cType="1" res="-1.6192069277167320e-02" rms="3.4300979971885681e-01" purity="1.5928198397159576e-01" nType="0">
            <Node pos="l" depth="3" NCoef="0" IVar="-1" Cut="0.0000000000000000e+00" cType="1" res="-2.8108611702919006e-02" rms="3.2289367914199829e-01" purity="1.3190671801567078e-01" nType="-99"/>
            <Node pos="r" depth="3" NCoef="0" IVar="-1" Cut="0.0000000000000000e+00" cType="1" res="-2.0614778622984886e-03" rms="3.5722669959068298e-01" purity="1.8048162758350372e-01" nType="-99"/>
          </Node>
          <Node pos="r" depth="2" NCoef="0" IVar="2" Cut="3.8662271118164062e+02" cType="1" res="3.4371577203273773e-04" rms="3.9613652229309082e-01" purity="5.6159383058547974e-01" nType="0">
            <Node pos="l" depth="3" NCoef="0" IVar="-1" Cut="0.0000000000000000e+00" cType="1" res="4.5370399020612240e-03" rms="4.0682816505432129e-01" purity="5.7935154438018799e-01" nType="-99"/>
            <Node pos="r" depth="3" NCoef="0" IVar="-1" Cut="0.0000000000000000e+00" cType="1" res="-6.3750320114195347e-03" rms="3.8041147589683533e-01" purity="5.3669029474258423e-01" nType="-99"/>
          </Node>
        </Node>
        <Node pos="r" depth="1" NCoef="0" IVar="-1" Cut="0.0000000000000000e+00" cType="1" res="-1.8673023208975792e-02" rms="4.0992587804794312e-01" purity="5.8138036727905273e-01" nType="-99"/>
      </Node>
    </BinaryTree>
    <BinaryTree type="DecisionTree" boostWeight="1.0000000000000000e+00" itree="78">
      <Node pos="s" depth="0" NCoef="0" IVar="7" Cut="6.6669631004333496e-01" cType="1" res="4.1156043880619109e-04" rms="3.8868308067321777e-01" purity="5.0049483776092529e-01" nType="0">
        <Node pos="l" depth="1" NCoef="0" IVar="9" Cut="4.0006938576698303e-01" cType="1" res="-3.6642863415181637e-03" rms="3.9008834958076477e-01" purity="5.2681297063827515e-01" nType="0">
          <Node pos="l" depth="2" NCoef="0" IVar="1" Cut="1.7145977783203125e+03" cType="1" res="-9.1991033405065536e-03" rms="3.8977959752082825e-01" purity="5.2766311168670654e-01" nType="0">
            <Node pos="l" depth="3" NCoef="0" IVar="-1" Cut="0.0000000000000000e+00" cType="1" res="-8.4651298820972443e-03" rms="3.9842352271080017e-01" purity="4.6950721740722656e-01" nType="-99"/>
            <Node pos="r" depth="3" NCoef="0" IVar="-1" Cut="0.0000000000000000e+00" cType="1" res="1.0238975286483765e-02" rms="3.4266796708106995e-01" purity="8.1727272272109985e-01" nType="-99"/>
          </Node>
          <Node pos="r" depth="2" NCoef="0" IVar="6" Cut="6.9035172462463379e-01" cType="1" res="6.1514335684478283e-03" rms="3.9044234156608582e-01" purity="5.2530527114868164e-01" nType="0">
            <Node pos="l" depth="3" NCoef="0" IVar="-1" Cut="0.0000000000000000e+00" cType="1" res="8.2046976312994957e-03" rms="3.9599034190177917e-01" purity="5.7911604642868042e-01" nType="-99"/>
            <Node pos="r" depth="3" NCoef="0" IVar="-1" Cut="0.0000000000000000e+00" cType="1" res="-9.3278028070926666e-03" rms="3.7311011552810669e-01" purity="3.6865964531898499e-01" nType="-99"/>
          </Node>
        </Node>
        <Node pos="r" depth="1" NCoef="0" IVar="3" Cut="2.1810310363769531e+02" cType="1" res="1.1203364469110966e-02" rms="3.8472911715507507e-01" purity="4.3081119656562805e-01" nType="0">
          <Node pos="l" depth="2" NCoef="0" IVar="7" Cut="1.0730316638946533e+00" cType="1" res="3.4884402994066477e-03" rms="3.8286319375038147e-01" purity="3.2179802656173706e-01" nType="0">
            <Node pos="l" depth="3" NCoef="0" IVar="-1" Cut="0.0000000000000000e+00" cType="1" res="-7.7357529662549496e-03" rms="4.0569704771041870e-01" purity="4.1153094172477722e-01" nType="-99"/>
            <Node pos="r" depth="3" NCoef="0" IVar="-1" Cut="0.0000000000000000e+00" cType="1" res="9.3821780756115913e-03" rms="3.6926963925361633e-01" purity="2.7202683687210083e-01" nType="-99"/>
          </Node>
          <Node pos="r" depth="2" NCoef="0" IVar="7" Cut="1.4793728590011597e+00" cType="1" res="2.3689189925789833e-02" rms="3.8740450143814087e-01" purity="6.0723805427551270e-01" nType="0">
            <Node pos="l" depth="3" NCoef="0" IVar="-1" Cut="0.0000000000000000e+00" cType="1" res="1.9727896898984909e-02" rms="3.8447290658950806e-01" purity="6.7925554513931274e-01" nType="-99"/>
            <Node pos="r" depth="3" NCoef="0" IVar="-1" Cut="0.0000000000000000e+00" cType="1" res="9.4667593657504767e-05" rms="3.9493799209594727e-01" purity="3.9603468775749207e-01" nType="-99"/>
          </Node>
        </Node>
      </Node>
    </BinaryTree>
    <BinaryTree type="DecisionTree" boostWeight="1.0000000000000000e+00" itree="79">
      <Node pos="s" depth="0" NCoef="0" IVar="5" Cut="8.3531089782714844e+01" cType="1" res="3.9607845246791840e-03" rms="3.9324584603309631e-01" purity="5.0161421298980713e-01" nType="0">
        <Node pos="l" depth="1" NCoef="0" IVar="9" Cut="1.4666494131088257e+00" cType="1" res="1.0901540517807007e-02" rms="3.9722982048988342e-01" purity="3.4377229213714600e-01" nType="0">
          <Node pos="l" depth="2" NCoef="0" IVar="7" Cut="1.3346898555755615e-01" cType="1" res="5.6168031878769398e-03" rms="3.9861813187599182e-01" purity="3.4750410914421082e-01" nType="0">
            <Node pos="l" depth="3" NCoef="0" IVar="-1" Cut="0.0000000000000000e+00" cType="1" res="1.0557561181485653e-02" rms="4.0381026268005371e-01" purity="3.6475902795791626e-01" nType="-99"/>
            <Node pos="r" depth="3" NCoef="0" IVar="-1" Cut="0.0000000000000000e+00" cType="1" res="-5.8733774349093437e-03" rms="3.9121696352958679e-01" purity="3.2491064071655273e-01" nType="-99"/>
          </Node>
          <Node pos="r" depth="2" NCoef="0" IVar="3" Cut="2.0473483276367188e+02" cType="1" res="4.0993269532918930e-02" rms="3.8786029815673828e-01" purity="3.2252296805381775e-01" nType="0">
            <Node pos="l" depth="3" NCoef="0" IVar="-1" Cut="0.0000000000000000e+00" cType="1" res="2.1557401865720749e-02" rms="3.7038302421569824e-01" purity="2.4142780900001526e-01" nType="-99"/>
            <Node pos="r" depth="3" NCoef="0" IVar="-1" Cut="0.0000000000000000e+00" cType="1" res="3.8208216428756714e-02" rms="4.2014274001121521e-01" purity="4.8863023519515991e-01" nType="-99"/>
          </Node>
        </Node>
        <Node pos="r" depth="1" NCoef="0" IVar="7" Cut="1.4665009975433350e+00" cType="1" res="-3.7809896748512983e-03" rms="3.8860768079757690e-01" purity="6.7767232656478882e-01" nType="0">
          <Node pos="l" depth="2" NCoef="0" IVar="7" Cut="-1.5808784961700439e+00" cType="1" res="-6.9885188713669777e-03" rms="3.8626316189765930e-01" purity="6.9428032636642456e-01" nType="0">
            <Node pos="l" depth="3" NCoef="0" IVar="-1" Cut="0.0000000000000000e+00" cType="1" res="1.9150262698531151e-02" rms="4.2190912365913391e-01" purity="4.4224610924720764e-01" nType="-99"/>
            <Node pos="r" depth="3" NCoef="0" IVar="-1" Cut="0.0000000000000000e+00" cType="1" res="-6.6304937936365604e-03" rms="3.8351467251777649e-01" purity="7.1167021989822388e-01" nType="-99"/>
          </Node>
          <Node pos="r" depth="2" NCoef="0" IVar="-1" Cut="0.0000000000000000e+00" cType="1" res="1.9135765731334686e-02" rms="4.1375687718391418e-01" purity="4.7855406999588013e-01" nType="-99"/>
        </Node>
      </Node>
    </BinaryTree>
    <BinaryTree type="DecisionTree" boostWeight="1.0000000000000000e+00" itree="80">
      <Node pos="s" depth="0" NCoef="0" IVar="3" Cut="4.1611300659179688e+02" cType="1" res="3.3051257487386465e-03" rms="3.9403954148292542e-01" purity="4.9820837378501892e-01" nType="0">
        <Node pos="l" depth="1" NCoef="0" IVar="1" Cut="1.6917412109375000e+03" cType="1" res="4.3823649175465107e-03" rms="3.9395597577095032e-01" purity="4.9276456236839294e-01" nType="0">
          <Node pos="l" depth="2" NCoef="0" IVar="5" Cut="1.2379732513427734e+02" cType="1" res="2.0358397159725428e-03" rms="4.0212693810462952e-01" purity="4.4184124469757080e-01" nType="0">
            <Node pos="l" depth="3" NCoef="0" IVar="-1" Cut="0.0000000000000000e+00" cType="1" res="3.0200900509953499e-03" rms="4.0523809194564819e-01" purity="3.9855623245239258e-01" nType="-99"/>
            <Node pos="r" depth="3" NCoef="0" IVar="-1" Cut="0.0000000000000000e+00" cType="1" res="-1.1935055255889893e-02" rms="3.7994232773780823e-01" purity="7.3340046405792236e-01" nType="-99"/>
          </Node>
          <Node pos="r" depth="2" NCoef="0" IVar="3" Cut="2.9501181030273438e+02" cType="1" res="1.9502226263284683e-02" rms="3.3619013428688049e-01" purity="8.2088959217071533e-01" nType="0">
            <Node pos="l" depth="3" NCoef="0" IVar="-1" Cut="0.0000000000000000e+00" cType="1" res="2.3266429081559181e-02" rms="3.3923175930976868e-01" purity="8.1888651847839355e-01" nType="-99"/>
            <Node pos="r" depth="3" NCoef="0" IVar="-1" Cut="0.0000000000000000e+00" cType="1" res="6.9029740989208221e-03" rms="3.3262798190116882e-01" purity="8.2297015190124512e-01" nType="-99"/>
          </Node>
        </Node>
        <Node pos="r" depth="1" NCoef="0" IVar="-1" Cut="0.0000000000000000e+00" cType="1" res="-1.6817905008792877e-02" rms="3.9518168568611145e-01" purity="6.5040582418441772e-01" nType="-99"/>
      </Node>
    </BinaryTree>
    <BinaryTree type="DecisionTree" boostWeight="1.0000000000000000e+00" itree="81">
      <Node pos="s" depth="0" NCoef="0" IVar="0" Cut="7.4111938476562500e+02" cType="1" res="-2.9266942292451859e-03" rms="3.8887599110603333e-01" purity="4.9866318702697754e-01" nType="0">
        <Node pos="l" depth="1" NCoef="0" IVar="2" Cut="6.4823461914062500e+02" cType="1" res="-4.8069567419588566e-03" rms="3.9143514633178711e-01" purity="4.7840592265129089e-01" nType="0">
          <Node pos="l" depth="2" NCoef="0" IVar="1" Cut="1.2588399658203125e+03" cType="1" res="-2.9258725699037313e-03" rms="3.9095413684844971e-01" purity="4.7830426692962646e-01" nType="0">
            <Node pos="l" depth="3" NCoef="0" IVar="-1" Cut="0.0000000000000000e+00" cType="1" res="-6.8927602842450142e-03" rms="3.9700579643249512e-01" purity="3.0177178978919983e-01" nType="-99"/>
            <Node pos="r" depth="3" NCoef="0" IVar="-1" Cut="0.0000000000000000e+00" cType="1" res="4.5796977356076241e-03" rms="3.8319474458694458e-01" purity="6.9416707754135132e-01" nType="-99"/>
          </Node>
          <Node pos="r" depth="2" NCoef="0" IVar="-1" Cut="0.0000000000000000e+00" cType="1" res="-2.8968486934900284e-02" rms="4.0046694874763489e-01" purity="4.8096925020217896e-01" nType="-99"/>
        </Node>
        <Node pos="r" depth="1" NCoef="0" IVar="1" Cut="2.0670480957031250e+03" cType="1" res="2.7762498706579208e-02" rms="3.4297445416450500e-01" purity="8.2929700613021851e-01" nType="0">
          <Node pos="l" depth="2" NCoef="0" IVar="-1" Cut="0.0000000000000000e+00" cType="1" res="8.7381117045879364e-03" rms="3.3209919929504395e-01" purity="8.2056319713592529e-01" nType="-99"/>
          <Node pos="r" depth="2" NCoef="0" IVar="-1" Cut="0.0000000000000000e+00" cType="1" res="3.4215122461318970e-02" rms="3.5339188575744629e-01" purity="8.3870869874954224e-01" nType="-99"/>
        </Node>
      </Node>
    </BinaryTree>
    <BinaryTree type="DecisionTree" boostWeight="1.0000000000000000e+00" itree="82">
      <Node pos="s" depth="0" NCoef="0" IVar="6" Cut="1.4146351814270020e-01" cType="1" res="-1.4717676676809788e-03" rms="3.9051681756973267e-01" purity="4.9851584434509277e-01" nType="0">
        <Node pos="l" depth="1" NCoef="0" IVar="7" Cut="1.4666063785552979e+00" cType="1" res="5.1609766669571400e-03" rms="3.9117476344108582e-01" purity="5.1720345020294189e-01" nType="0">
          <Node pos="l" depth="2" NCoef="0" IVar="6" Cut="-4.1552522778511047e-01" cType="1" res="7.5640534050762653e-03" rms="3.9426270127296448e-01" purity="5.4154658317565918e-01" nType="0">
            <Node pos="l" depth="3" NCoef="0" IVar="-1" Cut="0.0000000000000000e+00" cType="1" res="4.6813063090667129e-04" rms="3.9040970802307129e-01" purity="4.6015468239784241e-01" nType="-99"/>
            <Node pos="r" depth="3" NCoef="0" IVar="-1" Cut="0.0000000000000000e+00" cType="1" res="1.0535490699112415e-02" rms="3.9928352832794189e-01" purity="6.5288525819778442e-01" nType="-99"/>
          </Node>
          <Node pos="r" depth="2" NCoef="0" IVar="-1" Cut="0.0000000000000000e+00" cType="1" res="-1.5089360997080803e-02" rms="3.5416308045387268e-01" purity="2.4805079400539398e-01" nType="-99"/>
        </Node>
        <Node pos="r" depth="1" NCoef="0" IVar="7" Cut="-3.9989921450614929e-01" cType="1" res="-9.9545279517769814e-03" rms="3.8950917124748230e-01" purity="4.7461596131324768e-01" nType="0">
          <Node pos="l" depth="2" NCoef="0" IVar="3" Cut="2.1632853698730469e+02" cType="1" res="-2.0190389826893806e-02" rms="3.8677522540092468e-01" purity="4.1888830065727234e-01" nType="0">
            <Node pos="l" depth="3" NCoef="0" IVar="-1" Cut="0.0000000000000000e+00" cType="1" res="-4.8799640499055386e-03" rms="3.7849819660186768e-01" purity="3.2614582777023315e-01" nType="-99"/>
            <Node pos="r" depth="3" NCoef="0" IVar="-1" Cut="0.0000000000000000e+00" cType="1" res="-2.5213520973920822e-02" rms="3.9774608612060547e-01" purity="5.5380374193191528e-01" nType="-99"/>
          </Node>
          <Node pos="r" depth="2" NCoef="0" IVar="3" Cut="2.1583354187011719e+02" cType="1" res="-5.0193048082292080e-03" rms="3.9072471857070923e-01" purity="5.0148504972457886e-01" nType="0">
            <Node pos="l" depth="3" NCoef="0" IVar="-1" Cut="0.0000000000000000e+00" cType="1" res="-9.1649247333407402e-03" rms="3.9317357540130615e-01" purity="3.6708715558052063e-01" nType="-99"/>
            <Node pos="r" depth="3" NCoef="0" IVar="-1" Cut="0.0000000000000000e+00" cType="1" res="4.8303371295332909e-03" rms="3.8713133335113525e-01" purity="6.7851436138153076e-01" nType="-99"/>
          </Node>
        </Node>
      </Node>
    </BinaryTree>
    <BinaryTree type="DecisionTree" boostWeight="1.0000000000000000e+00" itree="83">
      <Node pos="s" depth="0" NCoef="0" IVar="8" Cut="6.6668874025344849e-01" cType="1" res="1.6581376548856497e-03" rms="3.9051806926727295e-01" purity="5.0026166439056396e-01" nType="0">
        <Node pos="l" depth="1" NCoef="0" IVar="8" Cut="-1.9744796752929688e+00" cType="1" res="6.9296574220061302e-03" rms="3.9251974225044250e-01" purity="5.2887415885925293e-01" nType="0">
          <Node pos="l" depth="2" NCoef="0" IVar="-1" Cut="0.0000000000000000e+00" cType="1" res="-1.6253335401415825e-02" rms="3.4561568498611450e-01" purity="2.2752194106578827e-01" nType="-99"/>
          <Node pos="r" depth="2" NCoef="0" IVar="5" Cut="7.8109741210937500e+01" cType="1" res="8.7728956714272499e-03" rms="3.9532130956649780e-01" purity="5.4856801033020020e-01" nType="0">
            <Node pos="l" depth="3" NCoef="0" IVar="-1" Cut="0.0000000000000000e+00" cType="1" res="8.8773993775248528e-03" rms="4.1266986727714539e-01" purity="3.5909992456436157e-01" nType="-99"/>
            <Node pos="r" depth="3" NCoef="0" IVar="-1" Cut="0.0000000000000000e+00" cType="1" res="2.7912536170333624e-03" rms="3.8086071610450745e-01" purity="6.9965010881423950e-01" nType="-99"/>
          </Node>
        </Node>
        <Node pos="r" depth="1" NCoef="0" IVar="6" Cut="4.1452035307884216e-01" cType="1" res="-1.2078030034899712e-02" rms="3.8491439819335938e-01" purity="4.2570504546165466e-01" nType="0">
          <Node pos="l" depth="2" NCoef="0" IVar="9" Cut="9.3365055322647095e-01" cType="1" res="-1.4342752983793616e-03" rms="3.9637073874473572e-01" purity="4.8276379704475403e-01" nType="0">
            <Node pos="l" depth="3" NCoef="0" IVar="-1" Cut="0.0000000000000000e+00" cType="1" res="5.8286804705858231e-03" rms="3.9993730187416077e-01" purity="5.1507794857025146e-01" nType="-99"/>
            <Node pos="r" depth="3" NCoef="0" IVar="-1" Cut="0.0000000000000000e+00" cType="1" res="-2.4519385769963264e-02" rms="3.8173395395278931e-01" purity="3.7275719642639160e-01" nType="-99"/>
          </Node>
          <Node pos="r" depth="2" NCoef="0" IVar="8" Cut="1.4793013334274292e+00" cType="1" res="-2.9537336900830269e-02" rms="3.6467295885086060e-01" purity="3.3210971951484680e-01" nType="0">
            <Node pos="l" depth="3" NCoef="0" IVar="-1" Cut="0.0000000000000000e+00" cType="1" res="-2.6622254401445389e-02" rms="3.7565094232559204e-01" purity="3.8604497909545898e-01" nType="-99"/>
            <Node pos="r" depth="3" NCoef="0" IVar="-1" Cut="0.0000000000000000e+00" cType="1" res="-7.7387769706547260e-03" rms="3.4424209594726562e-01" purity="2.3998558521270752e-01" nType="-99"/>
          </Node>
        </Node>
      </Node>
    </BinaryTree>
    <BinaryTree type="DecisionTree" boostWeight="1.0000000000000000e+00" itree="84">
      <Node pos="s" depth="0" NCoef="0" IVar="7" Cut="2.0000231266021729e+00" cType="1" res="3.7436257116496563e-04" rms="3.9103066921234131e-01" purity="4.9859908223152161e-01" nType="0">
        <Node pos="l" depth="1" NCoef="0" IVar="7" Cut="1.0857539176940918e+00" cType="1" res="1.5023658052086830e-03" rms="3.9341682195663452e-01" purity="5.1056712865829468e-01" nType="0">
          <Node pos="l" depth="2" NCoef="0" IVar="7" Cut="9.0072458982467651e-01" cType="1" res="-1.7810601275414228e-03" rms="3.9208775758743286e-01" purity="5.2674293518066406e-01" nType="0">
            <Node pos="l" depth="3" NCoef="0" IVar="-1" Cut="0.0000000000000000e+00" cType="1" res="-2.7034286176785827e-04" rms="3.9207729697227478e-01" purity="5.2962404489517212e-01" nType="-99"/>
            <Node pos="r" depth="3" NCoef="0" IVar="-1" Cut="0.0000000000000000e+00" cType="1" res="-1.6012826934456825e-02" rms="3.9147788286209106e-01" purity="4.7516933083534241e-01" nType="-99"/>
          </Node>
          <Node pos="r" depth="2" NCoef="0" IVar="3" Cut="1.8788450622558594e+02" cType="1" res="2.3462148383259773e-02" rms="4.0150308609008789e-01" purity="4.0238183736801147e-01" nType="0">
            <Node pos="l" depth="3" NCoef="0" IVar="-1" Cut="0.0000000000000000e+00" cType="1" res="3.1249051913619041e-02" rms="3.9468562602996826e-01" purity="3.0475124716758728e-01" nType="-99"/>
            <Node pos="r" depth="3" NCoef="0" IVar="-1" Cut="0.0000000000000000e+00" cType="1" res="1.4422407839447260e-03" rms="4.0728995203971863e-01" purity="5.0223159790039062e-01" nType="-99"/>
          </Node>
        </Node>
        <Node pos="r" depth="1" NCoef="0" IVar="-1" Cut="0.0000000000000000e+00" cType="1" res="-2.6715330779552460e-02" rms="3.1396499276161194e-01" purity="1.5803690254688263e-01" nType="-99"/>
      </Node>
    </BinaryTree>
    <BinaryTree type="DecisionTree" boostWeight="1.0000000000000000e+00" itree="85">
      <Node pos="s" depth="0" NCoef="0" IVar="1" Cut="1.7125096435546875e+03" cType="1" res="2.0980373956263065e-03" rms="3.9341771602630615e-01" purity="4.9890327453613281e-01" nType="0">
        <Node pos="l" depth="1" NCoef="0" IVar="2" Cut="2.7358908081054688e+02" cType="1" res="-3.6109678330831230e-04" rms="4.0004220604896545e-01" purity="4.4562664628028870e-01" nType="0">
          <Node pos="l" depth="2" NCoef="0" IVar="9" Cut="-9.3326288461685181e-01" cType="1" res="1.3242033310234547e-02" rms="4.1519054770469666e-01" purity="4.2536023259162903e-01" nType="0">
            <Node pos="l" depth="3" NCoef="0" IVar="-1" Cut="0.0000000000000000e+00" cType="1" res="-5.4850764572620392e-03" rms="3.9984095096588135e-01" purity="3.4829899668693542e-01" nType="-99"/>
            <Node pos="r" depth="3" NCoef="0" IVar="-1" Cut="0.0000000000000000e+00" cType="1" res="1.2058696709573269e-02" rms="4.1962057352066040e-01" purity="4.4935446977615356e-01" nType="-99"/>
          </Node>
          <Node pos="r" depth="2" NCoef="0" IVar="1" Cut="1.4952718505859375e+03" cType="1" res="-6.2609137967228889e-03" rms="3.9314454793930054e-01" purity="4.5441633462905884e-01" nType="0">
            <Node pos="l" depth="3" NCoef="0" IVar="-1" Cut="0.0000000000000000e+00" cType="1" res="-7.3645105585455894e-03" rms="3.9793789386749268e-01" purity="3.8454145193099976e-01" nType="-99"/>
            <Node pos="r" depth="3" NCoef="0" IVar="-1" Cut="0.0000000000000000e+00" cType="1" res="9.6678631380200386e-03" rms="3.7391909956932068e-01" purity="7.1618950366973877e-01" nType="-99"/>
          </Node>
        </Node>
        <Node pos="r" depth="1" NCoef="0" IVar="3" Cut="3.9633517456054688e+02" cType="1" res="1.5918523073196411e-02" rms="3.5357025265693665e-01" purity="7.9832124710083008e-01" nType="0">
          <Node pos="l" depth="2" NCoef="0" IVar="2" Cut="6.3737280273437500e+02" cType="1" res="2.4585034698247910e-02" rms="3.4115236997604370e-01" purity="8.2648283243179321e-01" nType="0">
            <Node pos="l" depth="3" NCoef="0" IVar="-1" Cut="0.0000000000000000e+00" cType="1" res="1.5167340636253357e-02" rms="3.0017092823982239e-01" purity="8.8253319263458252e-01" nType="-99"/>
            <Node pos="r" depth="3" NCoef="0" IVar="-1" Cut="0.0000000000000000e+00" cType="1" res="2.6182526722550392e-02" rms="4.1838237643241882e-01" purity="6.9982427358627319e-01" nType="-99"/>
          </Node>
          <Node pos="r" depth="2" NCoef="0" IVar="-1" Cut="0.0000000000000000e+00" cType="1" res="-7.2871148586273193e-03" rms="3.8883465528488159e-01" purity="7.0965629816055298e-01" nType="-99"/>
        </Node>
      </Node>
    </BinaryTree>
    <BinaryTree type="DecisionTree" boostWeight="1.0000000000000000e+00" itree="86">
      <Node pos="s" depth="0" NCoef="0" IVar="8" Cut="1.1999627351760864e+00" cType="1" res="6.1004585586488247e-04" rms="3.8916903734207153e-01" purity="5.0163400173187256e-01" nType="0">
        <Node pos="l" depth="1" NCoef="0" IVar="2" Cut="4.8063189697265625e+02" cType="1" res="-1.8096771091222763e-03" rms="3.8847130537033081e-01" purity="5.2488160133361816e-01" nType="0">
          <Node pos="l" depth="2" NCoef="0" IVar="1" Cut="1.1772141113281250e+03" cType="1" res="9.5186033286154270e-04" rms="3.8812175393104553e-01" purity="5.1507163047790527e-01" nType="0">
            <Node pos="l" depth="3" NCoef="0" IVar="-1" Cut="0.0000000000000000e+00" cType="1" res="-4.4824127107858658e-03" rms="3.9877769351005554e-01" purity="2.8865152597427368e-01" nType="-99"/>
            <Node pos="r" depth="3" NCoef="0" IVar="-1" Cut="0.0000000000000000e+00" cType="1" res="5.8590690605342388e-03" rms="3.7762451171875000e-01" purity="7.2885483503341675e-01" nType="-99"/>
          </Node>
          <Node pos="r" depth="2" NCoef="0" IVar="1" Cut="1.5617745361328125e+03" cType="1" res="-1.2875721789896488e-02" rms="3.8967263698577881e-01" purity="5.6419199705123901e-01" nType="0">
            <Node pos="l" depth="3" NCoef="0" IVar="-1" Cut="0.0000000000000000e+00" cType="1" res="-2.2981422021985054e-02" rms="3.8856118917465210e-01" purity="2.8121784329414368e-01" nType="-99"/>
            <Node pos="r" depth="3" NCoef="0" IVar="-1" Cut="0.0000000000000000e+00" cType="1" res="-2.0643047173507512e-04" rms="3.8961338996887207e-01" purity="7.0456469058990479e-01" nType="-99"/>
          </Node>
        </Node>
        <Node pos="r" depth="1" NCoef="0" IVar="9" Cut="1.3344576954841614e-01" cType="1" res="1.4094583690166473e-02" rms="3.9276164770126343e-01" purity="3.7208077311515808e-01" nType="0">
          <Node pos="l" depth="2" NCoef="0" IVar="7" Cut="3.9987039566040039e-01" cType="1" res="-5.9328069910407066e-03" rms="3.9173966646194458e-01" purity="3.7626996636390686e-01" nType="0">
            <Node pos="l" depth="3" NCoef="0" IVar="-1" Cut="0.0000000000000000e+00" cType="1" res="-1.0790512897074223e-02" rms="3.8837867975234985e-01" purity="3.7743961811065674e-01" nType="-99"/>
            <Node pos="r" depth="3" NCoef="0" IVar="-1" Cut="0.0000000000000000e+00" cType="1" res="5.6233289651572704e-03" rms="3.9609134197235107e-01" purity="3.7457844614982605e-01" nType="-99"/>
          </Node>
          <Node pos="r" depth="2" NCoef="0" IVar="4" Cut="1.2008651733398438e+02" cType="1" res="3.1448472291231155e-02" rms="3.9282023906707764e-01" purity="3.6845079064369202e-01" nType="0">
            <Node pos="l" depth="3" NCoef="0" IVar="-1" Cut="0.0000000000000000e+00" cType="1" res="3.7140693515539169e-02" rms="3.7879416346549988e-01" purity="2.5911238789558411e-01" nType="-99"/>
            <Node pos="r" depth="3" NCoef="0" IVar="-1" Cut="0.0000000000000000e+00" cType="1" res="6.1195660382509232e-03" rms="4.0959951281547546e-01" purity="5.1215165853500366e-01" nType="-99"/>
          </Node>
        </Node>
      </Node>
    </BinaryTree>
    <BinaryTree type="DecisionTree" boostWeight="1.0000000000000000e+00" itree="87">
      <Node pos="s" depth="0" NCoef="0" IVar="2" Cut="3.4565957641601562e+02" cType="1" res="-2.1144188940525055e-03" rms="3.8980472087860107e-01" purity="4.9832746386528015e-01" nType="0">
        <Node pos="l" depth="1" NCoef="0" IVar="0" Cut="4.5477606201171875e+02" cType="1" res="2.9733334667980671e-03" rms="3.9890408515930176e-01" purity="4.6068778634071350e-01" nType="0">
          <Node pos="l" depth="2" NCoef="0" IVar="1" Cut="8.6856463623046875e+02" cType="1" res="8.2290815189480782e-03" rms="4.0677049756050110e-01" purity="3.6870628595352173e-01" nType="0">
            <Node pos="l" depth="3" NCoef="0" IVar="-1" Cut="0.0000000000000000e+00" cType="1" res="-2.3808386176824570e-02" rms="2.9179474711418152e-01" purity="1.0057242214679718e-01" nType="-99"/>
            <Node pos="r" depth="3" NCoef="0" IVar="-1" Cut="0.0000000000000000e+00" cType="1" res="7.2431126609444618e-03" rms="4.1944494843482971e-01" purity="4.0417879819869995e-01" nType="-99"/>
          </Node>
          <Node pos="r" depth="2" NCoef="0" IVar="1" Cut="1.1527822265625000e+03" cType="1" res="-1.1592525988817215e-02" rms="3.7586063146591187e-01" purity="7.1560680866241455e-01" nType="0">
            <Node pos="l" depth="3" NCoef="0" IVar="-1" Cut="0.0000000000000000e+00" cType="1" res="-2.6951313018798828e-02" rms="4.4588130712509155e-01" purity="3.8193565607070923e-01" nType="-99"/>
            <Node pos="r" depth="3" NCoef="0" IVar="-1" Cut="0.0000000000000000e+00" cType="1" res="-1.2748944573104382e-03" rms="3.5550191998481750e-01" purity="7.9908412694931030e-01" nType="-99"/>
          </Node>
        </Node>
        <Node pos="r" depth="1" NCoef="0" IVar="0" Cut="4.4703997802734375e+02" cType="1" res="-7.4132252484560013e-03" rms="3.8002398610115051e-01" purity="5.3752851486206055e-01" nType="0">
          <Node pos="l" depth="2" NCoef="0" IVar="0" Cut="3.1400314331054688e+02" cType="1" res="-1.5076331794261932e-02" rms="3.8497486710548401e-01" purity="3.4032732248306274e-01" nType="0">
            <Node pos="l" depth="3" NCoef="0" IVar="-1" Cut="0.0000000000000000e+00" cType="1" res="-4.8016723245382309e-02" rms="3.2019463181495667e-01" purity="1.6784644126892090e-01" nType="-99"/>
            <Node pos="r" depth="3" NCoef="0" IVar="-1" Cut="0.0000000000000000e+00" cType="1" res="-5.5663418024778366e-03" rms="3.9183917641639709e-01" purity="3.6179146170616150e-01" nType="-99"/>
          </Node>
          <Node pos="r" depth="2" NCoef="0" IVar="8" Cut="6.6660296916961670e-01" cType="1" res="-8.6608174024149776e-04" rms="3.7561857700347900e-01" purity="7.0601171255111694e-01" nType="0">
            <Node pos="l" depth="3" NCoef="0" IVar="-1" Cut="0.0000000000000000e+00" cType="1" res="3.1517702154815197e-03" rms="3.6930871009826660e-01" purity="7.2827643156051636e-01" nType="-99"/>
            <Node pos="r" depth="3" NCoef="0" IVar="-1" Cut="0.0000000000000000e+00" cType="1" res="-1.0611145757138729e-02" rms="3.9325109124183655e-01" purity="6.4024168252944946e-01" nType="-99"/>
          </Node>
        </Node>
      </Node>
    </BinaryTree>
    <BinaryTree type="DecisionTree" boostWeight="1.0000000000000000e+00" itree="88">
      <Node pos="s" depth="0" NCoef="0" IVar="9" Cut="-1.4666554927825928e+00" cType="1" res="2.6635942049324512e-03" rms="3.8902816176414490e-01" purity="5.0488513708114624e-01" nType="0">
        <Node pos="l" depth="1" NCoef="0" IVar="7" Cut="1.3335019350051880e-01" cType="1" res="-1.2411774136126041e-02" rms="3.7870997190475464e-01" purity="3.8016089797019958e-01" nType="0">
          <Node pos="l" depth="2" NCoef="0" IVar="9" Cut="-2.1014893054962158e+00" cType="1" res="-1.5611326089128852e-03" rms="3.7922009825706482e-01" purity="3.8627144694328308e-01" nType="0">
            <Node pos="l" depth="3" NCoef="0" IVar="-1" Cut="0.0000000000000000e+00" cType="1" res="1.7706247046589851e-02" rms="3.8474926352500916e-01" purity="3.5727345943450928e-01" nType="-99"/>
            <Node pos="r" depth="3" NCoef="0" IVar="-1" Cut="0.0000000000000000e+00" cType="1" res="-1.1434316635131836e-02" rms="3.7508052587509155e-01" purity="4.0315625071525574e-01" nType="-99"/>
          </Node>
          <Node pos="r" depth="2" NCoef="0" IVar="-1" Cut="0.0000000000000000e+00" cType="1" res="-1.9518071785569191e-02" rms="3.7728506326675415e-01" purity="3.7060147523880005e-01" nType="-99"/>
        </Node>
        <Node pos="r" depth="1" NCoef="0" IVar="7" Cut="1.1999891996383667e+00" cType="1" res="4.7078840434551239e-03" rms="3.9036154747009277e-01" purity="5.2179837226867676e-01" nType="0">
          <Node pos="l" depth="2" NCoef="0" IVar="7" Cut="8.1902664899826050e-01" cType="1" res="2.3678289726376534e-03" rms="3.9083877205848694e-01" purity="5.5066317319869995e-01" nType="0">
            <Node pos="l" depth="3" NCoef="0" IVar="-1" Cut="0.0000000000000000e+00" cType="1" res="3.0962156597524881e-03" rms="3.9011001586914062e-01" purity="5.5712431669235229e-01" nType="-99"/>
            <Node pos="r" depth="3" NCoef="0" IVar="-1" Cut="0.0000000000000000e+00" cType="1" res="-1.2391085736453533e-02" rms="3.9677765965461731e-01" purity="4.9135154485702515e-01" nType="-99"/>
          </Node>
          <Node pos="r" depth="2" NCoef="0" IVar="8" Cut="4.0017896890640259e-01" cType="1" res="1.9220534712076187e-02" rms="3.8707301020622253e-01" purity="3.4278365969657898e-01" nType="0">
            <Node pos="l" depth="3" NCoef="0" IVar="-1" Cut="0.0000000000000000e+00" cType="1" res="2.7925923932343721e-03" rms="3.8021171092987061e-01" purity="3.4769695997238159e-01" nType="-99"/>
            <Node pos="r" depth="3" NCoef="0" IVar="-1" Cut="0.0000000000000000e+00" cType="1" res="2.4722704663872719e-02" rms="3.9380013942718506e-01" purity="3.3739736676216125e-01" nType="-99"/>
          </Node>
        </Node>
      </Node>
    </BinaryTree>
    <BinaryTree type="DecisionTree" boostWeight="1.0000000000000000e+00" itree="89">
      <Node pos="s" depth="0" NCoef="0" IVar="2" Cut="6.5103625488281250e+02" cType="1" res="-2.2692489437758923e-04" rms="3.9010006189346313e-01" purity="5.0029146671295166e-01" nType="0">
        <Node pos="l" depth="1" NCoef="0" IVar="1" Cut="1.2558813476562500e+03" cType="1" res="1.0306381154805422e-03" rms="3.8922247290611267e-01" purity="4.9542942643165588e-01" nType="0">
          <Node pos="l" depth="2" NCoef="0" IVar="5" Cut="1.0115924835205078e+02" cType="1" res="-4.8527284525334835e-03" rms="4.0016841888427734e-01" purity="3.0549505352973938e-01" nType="0">
            <Node pos="l" depth="3" NCoef="0" IVar="-1" Cut="0.0000000000000000e+00" cType="1" res="-1.9968704145867378e-04" rms="3.9210915565490723e-01" purity="2.7827572822570801e-01" nType="-99"/>
            <Node pos="r" depth="3" NCoef="0" IVar="-1" Cut="0.0000000000000000e+00" cType="1" res="-1.8943239003419876e-02" rms="4.5136722922325134e-01" purity="4.9629485607147217e-01" nType="-99"/>
          </Node>
          <Node pos="r" depth="2" NCoef="0" IVar="2" Cut="5.6513287353515625e+02" cType="1" res="7.5962957926094532e-03" rms="3.7652316689491272e-01" purity="7.0739036798477173e-01" nType="0">
            <Node pos="l" depth="3" NCoef="0" IVar="-1" Cut="0.0000000000000000e+00" cType="1" res="7.3885740712285042e-03" rms="3.7252268195152283e-01" purity="7.2807055711746216e-01" nType="-99"/>
            <Node pos="r" depth="3" NCoef="0" IVar="-1" Cut="0.0000000000000000e+00" cType="1" res="-1.1086941696703434e-02" rms="4.0740168094635010e-01" purity="5.3533548116683960e-01" nType="-99"/>
          </Node>
        </Node>
        <Node pos="r" depth="1" NCoef="0" IVar="6" Cut="-2.7239242568612099e-02" cType="1" res="-2.1391510963439941e-02" rms="4.0399754047393799e-01" purity="5.8211898803710938e-01" nType="0">
          <Node pos="l" depth="2" NCoef="0" IVar="-1" Cut="0.0000000000000000e+00" cType="1" res="-2.1964287385344505e-02" rms="4.0163981914520264e-01" purity="5.6746727228164673e-01" nType="-99"/>
          <Node pos="r" depth="2" NCoef="0" IVar="-1" Cut="0.0000000000000000e+00" cType="1" res="-4.4824997894465923e-03" rms="4.0552824735641479e-01" purity="5.9486490488052368e-01" nType="-99"/>
        </Node>
      </Node>
    </BinaryTree>
    <BinaryTree type="DecisionTree" boostWeight="1.0000000000000000e+00" itree="90">
      <Node pos="s" depth="0" NCoef="0" IVar="3" Cut="1.4577171325683594e+02" cType="1" res="1.3337983982637525e-03" rms="3.9017078280448914e-01" purity="5.0247341394424438e-01" nType="0">
        <Node pos="l" depth="1" NCoef="0" IVar="3" Cut="9.1573425292968750e+01" cType="1" res="9.6022756770253181e-03" rms="3.7748840451240540e-01" purity="2.4374294281005859e-01" nType="0">
          <Node pos="l" depth="2" NCoef="0" IVar="-1" Cut="0.0000000000000000e+00" cType="1" res="-4.7399763017892838e-02" rms="2.6356312632560730e-01" purity="7.7275574207305908e-02" nType="-99"/>
          <Node pos="r" depth="2" NCoef="0" IVar="1" Cut="1.2736245117187500e+03" cType="1" res="2.1166654303669930e-02" rms="3.9619022607803345e-01" purity="2.7848899364471436e-01" nType="0">
            <Node pos="l" depth="3" NCoef="0" IVar="-1" Cut="0.0000000000000000e+00" cType="1" res="9.7131198272109032e-03" rms="3.8607203960418701e-01" purity="2.3859441280364990e-01" nType="-99"/>
            <Node pos="r" depth="3" NCoef="0" IVar="-1" Cut="0.0000000000000000e+00" cType="1" res="3.7199158221483231e-02" rms="4.5416787266731262e-01" purity="5.4134130477905273e-01" nType="-99"/>
          </Node>
        </Node>
        <Node pos="r" depth="1" NCoef="0" IVar="8" Cut="1.1999388933181763e+00" cType="1" res="-1.2684850953519344e-03" rms="3.9404186606407166e-01" purity="5.8390194177627563e-01" nType="0">
          <Node pos="l" depth="2" NCoef="0" IVar="7" Cut="1.7333309650421143e+00" cType="1" res="1.5259209321811795e-03" rms="3.9363351464271545e-01" purity="6.0846298933029175e-01" nType="0">
            <Node pos="l" depth="3" NCoef="0" IVar="-1" Cut="0.0000000000000000e+00" cType="1" res="1.3990103616379201e-04" rms="3.9383149147033691e-01" purity="6.2091588973999023e-01" nType="-99"/>
            <Node pos="r" depth="3" NCoef="0" IVar="-1" Cut="0.0000000000000000e+00" cType="1" res="1.7918989062309265e-02" rms="3.8856071233749390e-01" purity="3.5207504034042358e-01" nType="-99"/>
          </Node>
          <Node pos="r" depth="2" NCoef="0" IVar="1" Cut="1.3462089843750000e+03" cType="1" res="-1.8436558544635773e-02" rms="3.9610922336578369e-01" purity="4.3300577998161316e-01" nType="0">
            <Node pos="l" depth="3" NCoef="0" IVar="-1" Cut="0.0000000000000000e+00" cType="1" res="-2.2834986448287964e-02" rms="3.8962095975875854e-01" purity="2.8221192955970764e-01" nType="-99"/>
            <Node pos="r" depth="3" NCoef="0" IVar="-1" Cut="0.0000000000000000e+00" cType="1" res="3.3153777476400137e-03" rms="4.0284514427185059e-01" purity="6.2255638837814331e-01" nType="-99"/>
          </Node>
        </Node>
      </Node>
    </BinaryTree>
    <BinaryTree type="DecisionTree" boostWeight="1.0000000000000000e+00" itree="91">
      <Node pos="s" depth="0" NCoef="0" IVar="7" Cut="4.0005785226821899e-01" cType="1" res="2.8046828228980303e-03" rms="3.9283287525177002e-01" purity="5.0073593854904175e-01" nType="0">
        <Node pos="l" depth="1" NCoef="0" IVar="9" Cut="1.9998650550842285e+00" cType="1" res="8.3704637363553047e-03" rms="3.9537537097930908e-01" purity="5.3050988912582397e-01" nType="0">
          <Node pos="l" depth="2" NCoef="0" IVar="9" Cut="-2.8569516539573669e-01" cType="1" res="1.0349613614380360e-02" rms="3.9653253555297852e-01" purity="5.3876996040344238e-01" nType="0">
            <Node pos="l" depth="3" NCoef="0" IVar="-1" Cut="0.0000000000000000e+00" cType="1" res="9.0883084340021014e-04" rms="3.9575541019439697e-01" purity="4.9712732434272766e-01" nType="-99"/>
            <Node pos="r" depth="3" NCoef="0" IVar="-1" Cut="0.0000000000000000e+00" cType="1" res="1.1416814289987087e-02" rms="3.9702680706977844e-01" purity="5.7366001605987549e-01" nType="-99"/>
          </Node>
          <Node pos="r" depth="2" NCoef="0" IVar="-1" Cut="0.0000000000000000e+00" cType="1" res="-2.1144639700651169e-02" rms="3.6914530396461487e-01" purity="3.6468863487243652e-01" nType="-99"/>
        </Node>
        <Node pos="r" depth="1" NCoef="0" IVar="0" Cut="4.4703970336914062e+02" cType="1" res="-7.3855048976838589e-03" rms="3.8792788982391357e-01" purity="4.4622382521629333e-01" nType="0">
          <Node pos="l" depth="2" NCoef="0" IVar="0" Cut="3.4201101684570312e+02" cType="1" res="-1.1018395161954686e-04" rms="3.9166429638862610e-01" purity="3.1699827313423157e-01" nType="0">
            <Node pos="l" depth="3" NCoef="0" IVar="-1" Cut="0.0000000000000000e+00" cType="1" res="-1.1858843266963959e-02" rms="3.6707994341850281e-01" purity="2.2546030580997467e-01" nType="-99"/>
            <Node pos="r" depth="3" NCoef="0" IVar="-1" Cut="0.0000000000000000e+00" cType="1" res="6.0312976129353046e-03" rms="4.0523457527160645e-01" purity="3.7132582068443298e-01" nType="-99"/>
          </Node>
          <Node pos="r" depth="2" NCoef="0" IVar="4" Cut="1.3594152832031250e+02" cType="1" res="-1.9148323684930801e-02" rms="3.8151606917381287e-01" purity="6.5515714883804321e-01" nType="0">
            <Node pos="l" depth="3" NCoef="0" IVar="-1" Cut="0.0000000000000000e+00" cType="1" res="-2.1220291033387184e-02" rms="4.1832542419433594e-01" purity="4.7980213165283203e-01" nType="-99"/>
            <Node pos="r" depth="3" NCoef="0" IVar="-1" Cut="0.0000000000000000e+00" cType="1" res="-2.4366758298128843e-03" rms="3.4593603014945984e-01" purity="8.0599522590637207e-01" nType="-99"/>
          </Node>
        </Node>
      </Node>
    </BinaryTree>
    <BinaryTree type="DecisionTree" boostWeight="1.0000000000000000e+00" itree="92">
      <Node pos="s" depth="0" NCoef="0" IVar="9" Cut="-2.2666277885437012e+00" cType="1" res="4.0756526868790388e-04" rms="3.9035901427268982e-01" purity="5.0137180089950562e-01" nType="0">
        <Node pos="l" depth="1" NCoef="0" IVar="-1" Cut="0.0000000000000000e+00" cType="1" res="-2.6056895032525063e-02" rms="3.5850015282630920e-01" purity="2.7746009826660156e-01" nType="-99"/>
        <Node pos="r" depth="1" NCoef="0" IVar="8" Cut="1.9999117851257324e+00" cType="1" res="1.4780118362978101e-03" rms="3.9119738340377808e-01" purity="5.0790095329284668e-01" nType="0">
          <Node pos="l" depth="2" NCoef="0" IVar="6" Cut="1.4965197443962097e-01" cType="1" res="2.6832583826035261e-03" rms="3.9310014247894287e-01" purity="5.2021986246109009e-01" nType="0">
            <Node pos="l" depth="3" NCoef="0" IVar="-1" Cut="0.0000000000000000e+00" cType="1" res="4.7908467240631580e-03" rms="3.9474007487297058e-01" purity="5.3734970092773438e-01" nType="-99"/>
            <Node pos="r" depth="3" NCoef="0" IVar="-1" Cut="0.0000000000000000e+00" cType="1" res="-2.3085153661668301e-03" rms="3.9087069034576416e-01" purity="4.9795725941658020e-01" nType="-99"/>
          </Node>
          <Node pos="r" depth="2" NCoef="0" IVar="-1" Cut="0.0000000000000000e+00" cType="1" res="-2.0500695332884789e-02" rms="3.4302565455436707e-01" purity="2.2264514863491058e-01" nType="-99"/>
        </Node>
      </Node>
    </BinaryTree>
    <BinaryTree type="DecisionTree" boostWeight="1.0000000000000000e+00" itree="93">
      <Node pos="s" depth="0" NCoef="0" IVar="1" Cut="1.7079238281250000e+03" cType="1" res="-1.5881228027865291e-03" rms="3.9075258374214172e-01" purity="5.0077426433563232e-01" nType="0">
        <Node pos="l" depth="1" NCoef="0" IVar="3" Cut="1.0302660369873047e+02" cType="1" res="-4.2447396554052830e-03" rms="3.9927250146865845e-01" purity="4.4274112582206726e-01" nType="0">
          <Node pos="l" depth="2" NCoef="0" IVar="1" Cut="9.2968615722656250e+02" cType="1" res="-3.0165858566761017e-02" rms="2.9229089617729187e-01" purity="1.0684287548065186e-01" nType="0">
            <Node pos="l" depth="3" NCoef="0" IVar="-1" Cut="0.0000000000000000e+00" cType="1" res="-1.7854947596788406e-02" rms="2.8107309341430664e-01" purity="9.1496177017688751e-02" nType="-99"/>
            <Node pos="r" depth="3" NCoef="0" IVar="-1" Cut="0.0000000000000000e+00" cType="1" res="-3.7456579506397247e-02" rms="3.0181819200515747e-01" purity="1.2125731259584427e-01" nType="-99"/>
          </Node>
          <Node pos="r" depth="2" NCoef="0" IVar="2" Cut="5.4733325195312500e+02" cType="1" res="-1.7766206292435527e-03" rms="4.0791299939155579e-01" purity="4.7472417354583740e-01" nType="0">
            <Node pos="l" depth="3" NCoef="0" IVar="-1" Cut="0.0000000000000000e+00" cType="1" res="2.0452394892345183e-05" rms="4.0845474600791931e-01" purity="4.8365235328674316e-01" nType="-99"/>
            <Node pos="r" depth="3" NCoef="0" IVar="-1" Cut="0.0000000000000000e+00" cType="1" res="-2.0211538299918175e-02" rms="3.9669704437255859e-01" purity="3.1491875648498535e-01" nType="-99"/>
          </Node>
        </Node>
        <Node pos="r" depth="1" NCoef="0" IVar="6" Cut="4.4948154687881470e-01" cType="1" res="1.2491815723478794e-02" rms="3.4172832965850830e-01" purity="8.0834698677062988e-01" nType="0">
          <Node pos="l" depth="2" NCoef="0" IVar="5" Cut="1.0843195343017578e+02" cType="1" res="6.1040837317705154e-03" rms="3.3192560076713562e-01" purity="8.2087194919586182e-01" nType="0">
            <Node pos="l" depth="3" NCoef="0" IVar="-1" Cut="0.0000000000000000e+00" cType="1" res="-8.1201381981372833e-03" rms="3.8964983820915222e-01" purity="7.1068626642227173e-01" nType="-99"/>
            <Node pos="r" depth="3" NCoef="0" IVar="-1" Cut="0.0000000000000000e+00" cType="1" res="1.7738079652190208e-02" rms="2.9182940721511841e-01" purity="8.8615983724594116e-01" nType="-99"/>
          </Node>
          <Node pos="r" depth="2" NCoef="0" IVar="-1" Cut="0.0000000000000000e+00" cType="1" res="2.0151162520051003e-02" rms="3.6381602287292480e-01" purity="7.7815312147140503e-01" nType="-99"/>
        </Node>
      </Node>
    </BinaryTree>
    <BinaryTree type="DecisionTree" boostWeight="1.0000000000000000e+00" itree="94">
      <Node pos="s" depth="0" NCoef="0" IVar="9" Cut="-4.0001878142356873e-01" cType="1" res="-6.7107164068147540e-04" rms="3.8809293508529663e-01" purity="5.0207298994064331e-01" nType="0">
        <Node pos="l" depth="1" NCoef="0" IVar="5" Cut="7.7447677612304688e+01" cType="1" res="6.4876158721745014e-03" rms="3.8911494612693787e-01" purity="4.8861974477767944e-01" nType="0">
          <Node pos="l" depth="2" NCoef="0" IVar="5" Cut="5.3920959472656250e+01" cType="1" res="1.4220380224287510e-02" rms="3.8427174091339111e-01" purity="3.2011738419532776e-01" nType="0">
            <Node pos="l" depth="3" NCoef="0" IVar="-1" Cut="0.0000000000000000e+00" cType="1" res="-1.3910807669162750e-02" rms="3.4184926748275757e-01" purity="2.0951120555400848e-01" nType="-99"/>
            <Node pos="r" depth="3" NCoef="0" IVar="-1" Cut="0.0000000000000000e+00" cType="1" res="1.3852782547473907e-02" rms="3.9247247576713562e-01" purity="3.4395951032638550e-01" nType="-99"/>
          </Node>
          <Node pos="r" depth="2" NCoef="0" IVar="8" Cut="9.3315106630325317e-01" cType="1" res="-4.5797473285347223e-04" rms="3.9328470826148987e-01" purity="6.3996899127960205e-01" nType="0">
            <Node pos="l" depth="3" NCoef="0" IVar="-1" Cut="0.0000000000000000e+00" cType="1" res="3.4900889731943607e-03" rms="3.9068445563316345e-01" purity="6.6164463758468628e-01" nType="-99"/>
            <Node pos="r" depth="3" NCoef="0" IVar="-1" Cut="0.0000000000000000e+00" cType="1" res="-1.8451390787959099e-02" rms="4.0514683723449707e-01" purity="5.2772217988967896e-01" nType="-99"/>
          </Node>
        </Node>
        <Node pos="r" depth="1" NCoef="0" IVar="5" Cut="1.2018337249755859e+02" cType="1" res="-5.0854170694947243e-03" rms="3.8739544153213501e-01" purity="5.1036882400512695e-01" nType="0">
          <Node pos="l" depth="2" NCoef="0" IVar="8" Cut="1.1999680995941162e+00" cType="1" res="-9.0892929583787918e-03" rms="3.9994624257087708e-01" purity="4.2048650979995728e-01" nType="0">
            <Node pos="l" depth="3" NCoef="0" IVar="-1" Cut="0.0000000000000000e+00" cType="1" res="-7.3536396957933903e-03" rms="4.0304368734359741e-01" purity="4.4836452603340149e-01" nType="-99"/>
            <Node pos="r" depth="3" NCoef="0" IVar="-1" Cut="0.0000000000000000e+00" cType="1" res="3.3986980561167002e-03" rms="3.8517725467681885e-01" purity="2.9319155216217041e-01" nType="-99"/>
          </Node>
          <Node pos="r" depth="2" NCoef="0" IVar="9" Cut="1.1234933137893677e+00" cType="1" res="8.2747880369424820e-03" rms="3.4186187386512756e-01" purity="8.1028956174850464e-01" nType="0">
            <Node pos="l" depth="3" NCoef="0" IVar="-1" Cut="0.0000000000000000e+00" cType="1" res="1.2499016709625721e-02" rms="3.3137723803520203e-01" purity="8.3748972415924072e-01" nType="-99"/>
            <Node pos="r" depth="3" NCoef="0" IVar="-1" Cut="0.0000000000000000e+00" cType="1" res="-9.1434754431247711e-03" rms="3.7503567337989807e-01" purity="7.1632295846939087e-01" nType="-99"/>
          </Node>
        </Node>
      </Node>
    </BinaryTree>
    <BinaryTree type="DecisionTree" boostWeight="1.0000000000000000e+00" itree="95">
      <Node pos="s" depth="0" NCoef="0" IVar="0" Cut="4.4441275024414062e+02" cType="1" res="-3.7785917520523071e-03" rms="3.8982143998146057e-01" purity="4.9637487530708313e-01" nType="0">
        <Node pos="l" depth="1" NCoef="0" IVar="2" Cut="4.8502258300781250e+02" cType="1" res="1.3924826635047793e-03" rms="3.9929282665252686e-01" purity="3.5634246468544006e-01" nType="0">
          <Node pos="l" depth="2" NCoef="0" IVar="8" Cut="-1.3332554697990417e-01" cType="1" res="-1.9438235322013497e-03" rms="3.9791563153266907e-01" purity="3.5549342632293701e-01" nType="0">
            <Node pos="l" depth="3" NCoef="0" IVar="-1" Cut="0.0000000000000000e+00" cType="1" res="5.2110743708908558e-03" rms="4.0198689699172974e-01" purity="3.6585018038749695e-01" nType="-99"/>
            <Node pos="r" depth="3" NCoef="0" IVar="-1" Cut="0.0000000000000000e+00" cType="1" res="-6.8487222306430340e-03" rms="3.9406698942184448e-01" purity="3.4634971618652344e-01" nType="-99"/>
          </Node>
          <Node pos="r" depth="2" NCoef="0" IVar="3" Cut="2.9356695556640625e+02" cType="1" res="2.6738602668046951e-02" rms="4.0871572494506836e-01" purity="3.6279249191284180e-01" nType="0">
            <Node pos="l" depth="3" NCoef="0" IVar="-1" Cut="0.0000000000000000e+00" cType="1" res="-3.8089561276137829e-03" rms="3.7692105770111084e-01" purity="2.6841789484024048e-01" nType="-99"/>
            <Node pos="r" depth="3" NCoef="0" IVar="-1" Cut="0.0000000000000000e+00" cType="1" res="3.7721619009971619e-02" rms="4.4256499409675598e-01" purity="4.8325839638710022e-01" nType="-99"/>
          </Node>
        </Node>
        <Node pos="r" depth="1" NCoef="0" IVar="6" Cut="-1.1322110891342163e+00" cType="1" res="-1.1266348883509636e-02" rms="3.7555766105651855e-01" purity="6.9914287328720093e-01" nType="0">
          <Node pos="l" depth="2" NCoef="0" IVar="-1" Cut="0.0000000000000000e+00" cType="1" res="-2.8962245211005211e-02" rms="3.9332276582717896e-01" purity="4.6956145763397217e-01" nType="-99"/>
          <Node pos="r" depth="2" NCoef="0" IVar="1" Cut="1.1432908935546875e+03" cType="1" res="-7.8484937548637390e-03" rms="3.7365400791168213e-01" purity="7.2084105014801025e-01" nType="0">
            <Node pos="l" depth="3" NCoef="0" IVar="-1" Cut="0.0000000000000000e+00" cType="1" res="-3.1369708478450775e-02" rms="4.2978817224502563e-01" purity="3.3597174286842346e-01" nType="-99"/>
            <Node pos="r" depth="3" NCoef="0" IVar="-1" Cut="0.0000000000000000e+00" cType="1" res="-2.5182287208735943e-03" rms="3.6794176697731018e-01" purity="7.5493574142456055e-01" nType="-99"/>
          </Node>
        </Node>
      </Node>
    </BinaryTree>
    <BinaryTree type="DecisionTree" boostWeight="1.0000000000000000e+00" itree="96">
      <Node pos="s" depth="0" NCoef="0" IVar="7" Cut="-1.1998931169509888e+00" cType="1" res="-9.9432293791323900e-04" rms="3.8956856727600098e-01" purity="4.9948564171791077e-01" nType="0">
        <Node pos="l" depth="1" NCoef="0" IVar="3" Cut="2.3915420532226562e+02" cType="1" res="-1.4716122299432755e-02" rms="3.6148864030838013e-01" purity="2.9598268866539001e-01" nType="0">
          <Node pos="l" depth="2" NCoef="0" IVar="9" Cut="6.6634720563888550e-01" cType="1" res="-5.2352249622344971e-03" rms="3.5561043024063110e-01" purity="2.5125166773796082e-01" nType="0">
            <Node pos="l" depth="3" NCoef="0" IVar="-1" Cut="0.0000000000000000e+00" cType="1" res="4.6854191459715366e-03" rms="3.6739453673362732e-01" purity="2.6910707354545593e-01" nType="-99"/>
            <Node pos="r" depth="3" NCoef="0" IVar="-1" Cut="0.0000000000000000e+00" cType="1" res="-3.1398959457874298e-02" rms="3.1494423747062683e-01" purity="1.9742161035537720e-01" nType="-99"/>
          </Node>
          <Node pos="r" depth="2" NCoef="0" IVar="-1" Cut="0.0000000000000000e+00" cType="1" res="-2.7960317209362984e-02" rms="3.7813255190849304e-01" purity="4.3949306011199951e-01" nType="-99"/>
        </Node>
        <Node pos="r" depth="1" NCoef="0" IVar="5" Cut="8.3531227111816406e+01" cType="1" res="1.0986796114593744e-03" rms="3.9363357424736023e-01" purity="5.3052622079849243e-01" nType="0">
          <Node pos="l" depth="2" NCoef="0" IVar="8" Cut="-1.7333256006240845e+00" cType="1" res="7.1225278079509735e-03" rms="4.0425997972488403e-01" purity="3.6377838253974915e-01" nType="0">
            <Node pos="l" depth="3" NCoef="0" IVar="-1" Cut="0.0000000000000000e+00" cType="1" res="2.8858663514256477e-02" rms="3.7972828745841980e-01" purity="2.4111832678318024e-01" nType="-99"/>
            <Node pos="r" depth="3" NCoef="0" IVar="-1" Cut="0.0000000000000000e+00" cType="1" res="2.7454942464828491e-03" rms="4.0623053908348083e-01" purity="3.7449854612350464e-01" nType="-99"/>
          </Node>
          <Node pos="r" depth="2" NCoef="0" IVar="0" Cut="5.4941149902343750e+02" cType="1" res="-5.1703713834285736e-03" rms="3.8216024637222290e-01" purity="7.0406150817871094e-01" nType="0">
            <Node pos="l" depth="3" NCoef="0" IVar="-1" Cut="0.0000000000000000e+00" cType="1" res="-6.7760618403553963e-03" rms="4.1087269783020020e-01" purity="6.2992048263549805e-01" nType="-99"/>
            <Node pos="r" depth="3" NCoef="0" IVar="-1" Cut="0.0000000000000000e+00" cType="1" res="1.0232107713818550e-02" rms="3.0037555098533630e-01" purity="8.8478302955627441e-01" nType="-99"/>
          </Node>
        </Node>
      </Node>
    </BinaryTree>
    <BinaryTree type="DecisionTree" boostWeight="1.0000000000000000e+00" itree="97">
      <Node pos="s" depth="0" NCoef="0" IVar="8" Cut="-2.0000002384185791e+00" cType="1" res="1.9915250595659018e-03" rms="3.9017722010612488e-01" purity="5.0076299905776978e-01" nType="0">
        <Node pos="l" depth="1" NCoef="0" IVar="-1" Cut="0.0000000000000000e+00" cType="1" res="-1.8620621412992477e-02" rms="3.4669649600982666e-01" purity="2.2146484255790710e-01" nType="-99"/>
        <Node pos="r" depth="1" NCoef="0" IVar="8" Cut="-1.5428369045257568e+00" cType="1" res="3.1490300316363573e-03" rms="3.9195477962493896e-01" purity="5.1315718889236450e-01" nType="0">
          <Node pos="l" depth="2" NCoef="0" IVar="9" Cut="-3.9961785078048706e-01" cType="1" res="3.2516401261091232e-02" rms="4.0412184596061707e-01" purity="3.9379867911338806e-01" nType="0">
            <Node pos="l" depth="3" NCoef="0" IVar="-1" Cut="0.0000000000000000e+00" cType="1" res="3.4677945077419281e-02" rms="4.0850153565406799e-01" purity="3.7662973999977112e-01" nType="-99"/>
            <Node pos="r" depth="3" NCoef="0" IVar="-1" Cut="0.0000000000000000e+00" cType="1" res="9.0206749737262726e-03" rms="3.9925637841224670e-01" purity="4.0932241082191467e-01" nType="-99"/>
          </Node>
          <Node pos="r" depth="2" NCoef="0" IVar="0" Cut="4.4703958129882812e+02" cType="1" res="1.3668088940903544e-03" rms="3.9113324880599976e-01" purity="5.2040070295333862e-01" nType="0">
            <Node pos="l" depth="3" NCoef="0" IVar="-1" Cut="0.0000000000000000e+00" cType="1" res="3.7184883840382099e-03" rms="4.0227505564689636e-01" purity="3.8100442290306091e-01" nType="-99"/>
            <Node pos="r" depth="3" NCoef="0" IVar="-1" Cut="0.0000000000000000e+00" cType="1" res="-3.8120513781905174e-03" rms="3.7463507056236267e-01" purity="7.1840488910675049e-01" nType="-99"/>
          </Node>
        </Node>
      </Node>
    </BinaryTree>
    <BinaryTree type="DecisionTree" boostWeight="1.0000000000000000e+00" itree="98">
      <Node pos="s" depth="0" NCoef="0" IVar="3" Cut="4.3031173706054688e+02" cType="1" res="-1.7315329750999808e-03" rms="3.8781163096427917e-01" purity="5.0137633085250854e-01" nType="0">
        <Node pos="l" depth="1" NCoef="0" IVar="2" Cut="5.0069046020507812e+02" cType="1" res="-8.5262377979233861e-04" rms="3.8747051358222961e-01" purity="4.9731495976448059e-01" nType="0">
          <Node pos="l" depth="2" NCoef="0" IVar="2" Cut="2.4295596313476562e+02" cType="1" res="-3.1254864297807217e-03" rms="3.8541156053543091e-01" purity="4.8827084898948669e-01" nType="0">
            <Node pos="l" depth="3" NCoef="0" IVar="-1" Cut="0.0000000000000000e+00" cType="1" res="7.3105026967823505e-03" rms="4.1332814097404480e-01" purity="4.1712680459022522e-01" nType="-99"/>
            <Node pos="r" depth="3" NCoef="0" IVar="-1" Cut="0.0000000000000000e+00" cType="1" res="-4.2825033888220787e-03" rms="3.7923339009284973e-01" purity="5.0315517187118530e-01" nType="-99"/>
          </Node>
          <Node pos="r" depth="2" NCoef="0" IVar="0" Cut="4.3884378051757812e+02" cType="1" res="1.2023334391415119e-02" rms="3.9868944883346558e-01" purity="5.4855060577392578e-01" nType="0">
            <Node pos="l" depth="3" NCoef="0" IVar="-1" Cut="0.0000000000000000e+00" cType="1" res="-7.9264864325523376e-03" rms="3.8668873906135559e-01" purity="3.0196970701217651e-01" nType="-99"/>
            <Node pos="r" depth="3" NCoef="0" IVar="-1" Cut="0.0000000000000000e+00" cType="1" res="1.4504409395158291e-02" rms="4.0374255180358887e-01" purity="6.6574496030807495e-01" nType="-99"/>
          </Node>
        </Node>
        <Node pos="r" depth="1" NCoef="0" IVar="-1" Cut="0.0000000000000000e+00" cType="1" res="-1.9316440448164940e-02" rms="3.9790993928909302e-01" purity="6.3681405782699585e-01" nType="-99"/>
      </Node>
    </BinaryTree>
    <BinaryTree type="DecisionTree" boostWeight="1.0000000000000000e+00" itree="99">
      <Node pos="s" depth="0" NCoef="0" IVar="6" Cut="9.4501709938049316e-01" cType="1" res="-1.4307462843134999e-03" rms="3.8870111107826233e-01" purity="4.9778845906257629e-01" nType="0">
        <Node pos="l" depth="1" NCoef="0" IVar="1" Cut="1.4097316894531250e+03" cType="1" res="-4.8660188913345337e-03" rms="3.9136949181556702e-01" purity="5.3250926733016968e-01" nType="0">
          <Node pos="l" depth="2" NCoef="0" IVar="1" Cut="9.7421575927734375e+02" cType="1" res="-9.0343402698636055e-03" rms="4.0930137038230896e-01" purity="3.9406901597976685e-01" nType="0">
            <Node pos="l" depth="3" NCoef="0" IVar="-1" Cut="0.0000000000000000e+00" cType="1" res="-2.3489313200116158e-02" rms="3.4362620115280151e-01" purity="1.6151586174964905e-01" nType="-99"/>
            <Node pos="r" depth="3" NCoef="0" IVar="-1" Cut="0.0000000000000000e+00" cType="1" res="-1.3965087709948421e-03" rms="4.2591857910156250e-01" purity="4.6024721860885620e-01" nType="-99"/>
          </Node>
          <Node pos="r" depth="2" NCoef="0" IVar="8" Cut="-9.3332338333129883e-01" cType="1" res="2.1654074080288410e-03" rms="3.5898751020431519e-01" purity="7.6604038476943970e-01" nType="0">
            <Node pos="l" depth="3" NCoef="0" IVar="-1" Cut="0.0000000000000000e+00" cType="1" res="1.4018402434885502e-02" rms="3.8691046833992004e-01" purity="7.0997917652130127e-01" nType="-99"/>
            <Node pos="r" depth="3" NCoef="0" IVar="-1" Cut="0.0000000000000000e+00" cType="1" res="-1.7959686229005456e-03" rms="3.5204067826271057e-01" purity="7.7905237674713135e-01" nType="-99"/>
          </Node>
        </Node>
        <Node pos="r" depth="1" NCoef="0" IVar="2" Cut="2.8740393066406250e+02" cType="1" res="1.5723755583167076e-02" rms="3.7462100386619568e-01" purity="3.2440519332885742e-01" nType="0">
          <Node pos="l" depth="2" NCoef="0" IVar="-1" Cut="0.0000000000000000e+00" cType="1" res="3.2368361949920654e-02" rms="3.9038503170013428e-01" purity="3.0342862010002136e-01" nType="-99"/>
          <Node pos="r" depth="2" NCoef="0" IVar="6" Cut="1.5632652044296265e+00" cType="1" res="-2.6249521761201322e-04" rms="3.6439901590347290e-01" purity="3.3631789684295654e-01" nType="0">
            <Node pos="l" depth="3" NCoef="0" IVar="-1" Cut="0.0000000000000000e+00" cType="1" res="7.1996105834841728e-03" rms="3.8962218165397644e-01" purity="4.0667277574539185e-01" nType="-99"/>
            <Node pos="r" depth="3" NCoef="0" IVar="-1" Cut="0.0000000000000000e+00" cType="1" res="-2.0982643589377403e-02" rms="3.0317899584770203e-01" purity="1.8802958726882935e-01" nType="-99"/>
          </Node>
        </Node>
      </Node>
    </BinaryTree>
    <BinaryTree type="DecisionTree" boostWeight="1.0000000000000000e+00" itree="100">
      <Node pos="s" depth="0" NCoef="0" IVar="8" Cut="-1.7333037853240967e+00" cType="1" res="-1.6720006533432752e-04" rms="3.8787719607353210e-01" purity="4.9988180398941040e-01" nType="0">
        <Node pos="l" depth="1" NCoef="0" IVar="7" Cut="-1.3326123356819153e-01" cType="1" res="-2.2754099220037460e-02" rms="3.4789127111434937e-01" purity="2.5708022713661194e-01" nType="0">
          <Node pos="l" depth="2" NCoef="0" IVar="-1" Cut="0.0000000000000000e+00" cType="1" res="-2.6945522986352444e-03" rms="3.5580703616142273e-01" purity="2.6390105485916138e-01" nType="-99"/>
          <Node pos="r" depth="2" NCoef="0" IVar="-1" Cut="0.0000000000000000e+00" cType="1" res="-3.2350298017263412e-02" rms="3.3711099624633789e-01" purity="2.4917088449001312e-01" nType="-99"/>
        </Node>
        <Node pos="r" depth="1" NCoef="0" IVar="7" Cut="-9.3323475122451782e-01" cType="1" res="1.5085645718500018e-03" rms="3.9062875509262085e-01" purity="5.1789569854736328e-01" nType="0">
          <Node pos="l" depth="2" NCoef="0" IVar="7" Cut="-1.2887797355651855e+00" cType="1" res="-9.7733149304986000e-03" rms="3.8082429766654968e-01" purity="3.7168848514556885e-01" nType="0">
            <Node pos="l" depth="3" NCoef="0" IVar="-1" Cut="0.0000000000000000e+00" cType="1" res="3.4444979974068701e-04" rms="3.7041291594505310e-01" purity="3.0773368477821350e-01" nType="-99"/>
            <Node pos="r" depth="3" NCoef="0" IVar="-1" Cut="0.0000000000000000e+00" cType="1" res="-1.5508008189499378e-02" rms="3.9546164870262146e-01" purity="4.6784079074859619e-01" nType="-99"/>
          </Node>
          <Node pos="r" depth="2" NCoef="0" IVar="2" Cut="6.5103625488281250e+02" cType="1" res="4.0928162634372711e-03" rms="3.9279451966285706e-01" purity="5.5138623714447021e-01" nType="0">
            <Node pos="l" depth="3" NCoef="0" IVar="-1" Cut="0.0000000000000000e+00" cType="1" res="1.4307004166767001e-03" rms="3.9123427867889404e-01" purity="5.4371470212936401e-01" nType="-99"/>
            <Node pos="r" depth="3" NCoef="0" IVar="-1" Cut="0.0000000000000000e+00" cType="1" res="1.8121352419257164e-02" rms="4.1340079903602600e-01" purity="6.6048890352249146e-01" nType="-99"/>
          </Node>
        </Node>
      </Node>
    </BinaryTree>
    <BinaryTree type="DecisionTree" boostWeight="1.0000000000000000e+00" itree="101">
      <Node pos="s" depth="0" NCoef="0" IVar="4" Cut="9.9465583801269531e+01" cType="1" res="4.0911128744482994e-03" rms="3.9008331298828125e-01" purity="5.0193369388580322e-01" nType="0">
        <Node pos="l" depth="1" NCoef="0" IVar="5" Cut="6.4082862854003906e+01" cType="1" res="1.5995239838957787e-02" rms="3.7746259570121765e-01" purity="2.5560188293457031e-01" nType="0">
          <Node pos="l" depth="2" NCoef="0" IVar="3" Cut="2.0468417358398438e+02" cType="1" res="-1.2284315889701247e-03" rms="3.4632912278175354e-01" purity="1.8060275912284851e-01" nType="0">
            <Node pos="l" depth="3" NCoef="0" IVar="-1" Cut="0.0000000000000000e+00" cType="1" res="-7.0487628690898418e-03" rms="3.2605341076850891e-01" purity="1.4237429201602936e-01" nType="-99"/>
            <Node pos="r" depth="3" NCoef="0" IVar="-1" Cut="0.0000000000000000e+00" cType="1" res="1.5115954913198948e-02" rms="4.1663482785224915e-01" purity="3.3336773514747620e-01" nType="-99"/>
          </Node>
          <Node pos="r" depth="2" NCoef="0" IVar="1" Cut="1.2718632812500000e+03" cType="1" res="3.6843501031398773e-02" rms="4.1104808449745178e-01" purity="3.4638398885726929e-01" nType="0">
            <Node pos="l" depth="3" NCoef="0" IVar="-1" Cut="0.0000000000000000e+00" cType="1" res="1.6425035893917084e-02" rms="4.0156745910644531e-01" purity="2.7879509329795837e-01" nType="-99"/>
            <Node pos="r" depth="3" NCoef="0" IVar="-1" Cut="0.0000000000000000e+00" cType="1" res="3.8991056382656097e-02" rms="4.3757084012031555e-01" purity="5.5904185771942139e-01" nType="-99"/>
          </Node>
        </Node>
        <Node pos="r" depth="1" NCoef="0" IVar="8" Cut="-6.6665261983871460e-01" cType="1" res="-1.3303149025887251e-03" rms="3.9557898044586182e-01" purity="6.1411917209625244e-01" nType="0">
          <Node pos="l" depth="2" NCoef="0" IVar="9" Cut="6.6638565063476562e-01" cType="1" res="-1.7339909449219704e-02" rms="4.0311527252197266e-01" purity="5.3836977481842041e-01" nType="0">
            <Node pos="l" depth="3" NCoef="0" IVar="-1" Cut="0.0000000000000000e+00" cType="1" res="-6.5942071378231049e-03" rms="4.0315458178520203e-01" purity="5.4733455181121826e-01" nType="-99"/>
            <Node pos="r" depth="3" NCoef="0" IVar="-1" Cut="0.0000000000000000e+00" cType="1" res="-2.2041650488972664e-02" rms="4.0236926078796387e-01" purity="5.1242434978485107e-01" nType="-99"/>
          </Node>
          <Node pos="r" depth="2" NCoef="0" IVar="2" Cut="6.5103735351562500e+02" cType="1" res="4.4916402548551559e-03" rms="3.9264073967933655e-01" purity="6.4166575670242310e-01" nType="0">
            <Node pos="l" depth="3" NCoef="0" IVar="-1" Cut="0.0000000000000000e+00" cType="1" res="4.0386258624494076e-03" rms="3.9243340492248535e-01" purity="6.4069640636444092e-01" nType="-99"/>
            <Node pos="r" depth="3" NCoef="0" IVar="-1" Cut="0.0000000000000000e+00" cType="1" res="-1.3826489448547363e-02" rms="3.9467608928680420e-01" purity="6.5582656860351562e-01" nType="-99"/>
          </Node>
        </Node>
      </Node>
    </BinaryTree>
    <BinaryTree type="DecisionTree" boostWeight="1.0000000000000000e+00" itree="102">
      <Node pos="s" depth="0" NCoef="0" IVar="2" Cut="5.0069256591796875e+02" cType="1" res="1.7647009808570147e-03" rms="3.8932767510414124e-01" purity="5.0322031974792480e-01" nType="0">
        <Node pos="l" depth="1" NCoef="0" IVar="1" Cut="1.1772141113281250e+03" cType="1" res="4.2697926983237267e-03" rms="3.8933542370796204e-01" purity="4.9347254633903503e-01" nType="0">
          <Node pos="l" depth="2" NCoef="0" IVar="5" Cut="6.3750129699707031e+01" cType="1" res="-3.6026900634169579e-03" rms="3.9366698265075684e-01" purity="2.6771062612533569e-01" nType="0">
            <Node pos="l" depth="3" NCoef="0" IVar="-1" Cut="0.0000000000000000e+00" cType="1" res="8.0997282639145851e-03" rms="3.6074900627136230e-01" purity="1.9235332310199738e-01" nType="-99"/>
            <Node pos="r" depth="3" NCoef="0" IVar="-1" Cut="0.0000000000000000e+00" cType="1" res="-7.9000107944011688e-03" rms="4.1638141870498657e-01" purity="3.2427507638931274e-01" nType="-99"/>
          </Node>
          <Node pos="r" depth="2" NCoef="0" IVar="1" Cut="1.3927650146484375e+03" cType="1" res="1.1642336845397949e-02" rms="3.8508889079093933e-01" purity="7.0489752292633057e-01" nType="0">
            <Node pos="l" depth="3" NCoef="0" IVar="-1" Cut="0.0000000000000000e+00" cType="1" res="1.2310128659009933e-02" rms="4.3013545870780945e-01" purity="5.8372688293457031e-01" nType="-99"/>
            <Node pos="r" depth="3" NCoef="0" IVar="-1" Cut="0.0000000000000000e+00" cType="1" res="1.1539423139765859e-03" rms="3.3725765347480774e-01" purity="8.1818056106567383e-01" nType="-99"/>
          </Node>
        </Node>
        <Node pos="r" depth="1" NCoef="0" IVar="6" Cut="-5.9716135263442993e-01" cType="1" res="-1.0555134154856205e-02" rms="3.8905489444732666e-01" purity="5.5115914344787598e-01" nType="0">
          <Node pos="l" depth="2" NCoef="0" IVar="-1" Cut="0.0000000000000000e+00" cType="1" res="-2.4878541007637978e-02" rms="3.8010314106941223e-01" purity="4.1826215386390686e-01" nType="-99"/>
          <Node pos="r" depth="2" NCoef="0" IVar="8" Cut="-9.3294078111648560e-01" cType="1" res="-1.9931979477405548e-03" rms="3.9120814204216003e-01" purity="5.8986133337020874e-01" nType="0">
            <Node pos="l" depth="3" NCoef="0" IVar="-1" Cut="0.0000000000000000e+00" cType="1" res="1.4890335500240326e-02" rms="4.0769281983375549e-01" purity="5.0741988420486450e-01" nType="-99"/>
            <Node pos="r" depth="3" NCoef="0" IVar="-1" Cut="0.0000000000000000e+00" cType="1" res="-5.5456436239182949e-03" rms="3.8677331805229187e-01" purity="6.1004197597503662e-01" nType="-99"/>
          </Node>
        </Node>
      </Node>
    </BinaryTree>
    <BinaryTree type="DecisionTree" boostWeight="1.0000000000000000e+00" itree="103">
      <Node pos="s" depth="0" NCoef="0" IVar="3" Cut="2.3459146118164062e+02" cType="1" res="-1.7684793565422297e-03" rms="3.9094328880310059e-01" purity="4.9380651116371155e-01" nType="0">
        <Node pos="l" depth="1" NCoef="0" IVar="7" Cut="-1.4664708375930786e+00" cType="1" res="1.8955384148284793e-03" rms="3.9619606733322144e-01" purity="4.0537247061729431e-01" nType="0">
          <Node pos="l" depth="2" NCoef="0" IVar="6" Cut="-3.5006761550903320e-01" cType="1" res="1.8037931993603706e-02" rms="3.5259053111076355e-01" purity="2.3017036914825439e-01" nType="0">
            <Node pos="l" depth="3" NCoef="0" IVar="-1" Cut="0.0000000000000000e+00" cType="1" res="-4.4961869716644287e-03" rms="3.2798004150390625e-01" purity="1.8067146837711334e-01" nType="-99"/>
            <Node pos="r" depth="3" NCoef="0" IVar="-1" Cut="0.0000000000000000e+00" cType="1" res="2.6387188583612442e-02" rms="3.6715799570083618e-01" purity="2.6287055015563965e-01" nType="-99"/>
          </Node>
          <Node pos="r" depth="2" NCoef="0" IVar="2" Cut="4.3522296142578125e+02" cType="1" res="-6.5071202698163688e-05" rms="4.0112537145614624e-01" purity="4.2665204405784607e-01" nType="0">
            <Node pos="l" depth="3" NCoef="0" IVar="-1" Cut="0.0000000000000000e+00" cType="1" res="2.3201603908091784e-03" rms="4.0248194336891174e-01" purity="4.2636495828628540e-01" nType="-99"/>
            <Node pos="r" depth="3" NCoef="0" IVar="-1" Cut="0.0000000000000000e+00" cType="1" res="-1.1215560138225555e-02" rms="3.9422121644020081e-01" purity="4.2799803614616394e-01" nType="-99"/>
          </Node>
        </Node>
        <Node pos="r" depth="1" NCoef="0" IVar="7" Cut="9.3325614929199219e-01" cType="1" res="-8.9097646996378899e-03" rms="3.8039574027061462e-01" purity="6.6616714000701904e-01" nType="0">
          <Node pos="l" depth="2" NCoef="0" IVar="7" Cut="-1.0222296714782715e+00" cType="1" res="-4.5423978008329868e-03" rms="3.7790808081626892e-01" purity="6.9648027420043945e-01" nType="0">
            <Node pos="l" depth="3" NCoef="0" IVar="-1" Cut="0.0000000000000000e+00" cType="1" res="-2.4596540257334709e-02" rms="3.8787001371383667e-01" purity="4.7381335496902466e-01" nType="-99"/>
            <Node pos="r" depth="3" NCoef="0" IVar="-1" Cut="0.0000000000000000e+00" cType="1" res="1.3470149133354425e-03" rms="3.7571510672569275e-01" purity="7.3687756061553955e-01" nType="-99"/>
          </Node>
          <Node pos="r" depth="2" NCoef="0" IVar="-1" Cut="0.0000000000000000e+00" cType="1" res="-1.9991286098957062e-02" rms="3.9290997385978699e-01" purity="4.9973914027214050e-01" nType="-99"/>
        </Node>
      </Node>
    </BinaryTree>
    <BinaryTree type="DecisionTree" boostWeight="1.0000000000000000e+00" itree="104">
      <Node pos="s" depth="0" NCoef="0" IVar="8" Cut="1.9998917579650879e+00" cType="1" res="-4.0230872109532356e-03" rms="3.8863024115562439e-01" purity="4.9646186828613281e-01" nType="0">
        <Node pos="l" depth="1" NCoef="0" IVar="8" Cut="-2.8576016426086426e-01" cType="1" res="-5.2389525808393955e-03" rms="3.8993814587593079e-01" purity="5.0653243064880371e-01" nType="0">
          <Node pos="l" depth="2" NCoef="0" IVar="9" Cut="1.4666192531585693e+00" cType="1" res="-1.1694988235831261e-02" rms="3.8719949126243591e-01" purity="4.7264319658279419e-01" nType="0">
            <Node pos="l" depth="3" NCoef="0" IVar="-1" Cut="0.0000000000000000e+00" cType="1" res="-9.8798172548413277e-03" rms="3.8733702898025513e-01" purity="4.7754102945327759e-01" nType="-99"/>
            <Node pos="r" depth="3" NCoef="0" IVar="-1" Cut="0.0000000000000000e+00" cType="1" res="8.4924595430493355e-03" rms="3.8522741198539734e-01" purity="4.3503421545028687e-01" nType="-99"/>
          </Node>
          <Node pos="r" depth="2" NCoef="0" IVar="8" Cut="8.0263793468475342e-01" cType="1" res="-4.3159481720067561e-04" rms="3.9189592003822327e-01" purity="5.3176742792129517e-01" nType="0">
            <Node pos="l" depth="3" NCoef="0" IVar="-1" Cut="0.0000000000000000e+00" cType="1" res="3.5235765390098095e-03" rms="3.9085179567337036e-01" purity="5.8369112014770508e-01" nType="-99"/>
            <Node pos="r" depth="3" NCoef="0" IVar="-1" Cut="0.0000000000000000e+00" cType="1" res="-6.8346573971211910e-03" rms="3.9350250363349915e-01" purity="4.4090265035629272e-01" nType="-99"/>
          </Node>
        </Node>
        <Node pos="r" depth="1" NCoef="0" IVar="-1" Cut="0.0000000000000000e+00" cType="1" res="1.6789929941296577e-02" rms="3.5865342617034912e-01" purity="2.8186973929405212e-01" nType="-99"/>
      </Node>
    </BinaryTree>
    <BinaryTree type="DecisionTree" boostWeight="1.0000000000000000e+00" itree="105">
      <Node pos="s" depth="0" NCoef="0" IVar="3" Cut="1.4651663208007812e+02" cType="1" res="1.9222012488171458e-03" rms="3.9033493399620056e-01" purity="4.9857425689697266e-01" nType="0">
        <Node pos="l" depth="1" NCoef="0" IVar="2" Cut="3.1761550903320312e+02" cType="1" res="1.2477505952119827e-02" rms="3.7432464957237244e-01" purity="2.4825732409954071e-01" nType="0">
          <Node pos="l" depth="2" NCoef="0" IVar="1" Cut="8.5032635498046875e+02" cType="1" res="2.1024197340011597e-02" rms="3.8385105133056641e-01" purity="2.5356224179267883e-01" nType="0">
            <Node pos="l" depth="3" NCoef="0" IVar="-1" Cut="0.0000000000000000e+00" cType="1" res="-2.2830644622445107e-02" rms="2.7549347281455994e-01" purity="8.5668928921222687e-02" nType="-99"/>
            <Node pos="r" depth="3" NCoef="0" IVar="-1" Cut="0.0000000000000000e+00" cType="1" res="2.0370593294501305e-02" rms="4.0544700622558594e-01" purity="2.9483479261398315e-01" nType="-99"/>
          </Node>
          <Node pos="r" depth="2" NCoef="0" IVar="9" Cut="6.6671580076217651e-01" cType="1" res="2.9071460012346506e-03" rms="3.6312231421470642e-01" purity="2.4231703579425812e-01" nType="0">
            <Node pos="l" depth="3" NCoef="0" IVar="-1" Cut="0.0000000000000000e+00" cType="1" res="-8.0605689436197281e-03" rms="3.5619014501571655e-01" purity="2.3261722922325134e-01" nType="-99"/>
            <Node pos="r" depth="3" NCoef="0" IVar="-1" Cut="0.0000000000000000e+00" cType="1" res="2.3687198758125305e-02" rms="3.7498342990875244e-01" purity="2.6145815849304199e-01" nType="-99"/>
          </Node>
        </Node>
        <Node pos="r" depth="1" NCoef="0" IVar="8" Cut="1.9999496936798096e+00" cType="1" res="-1.5418952098116279e-03" rms="3.9538660645484924e-01" purity="5.8072453737258911e-01" nType="0">
          <Node pos="l" depth="2" NCoef="0" IVar="0" Cut="4.3884292602539062e+02" cType="1" res="-7.5812771683558822e-05" rms="3.9626136422157288e-01" purity="5.9204077720642090e-01" nType="0">
            <Node pos="l" depth="3" NCoef="0" IVar="-1" Cut="0.0000000000000000e+00" cType="1" res="3.3386114519089460e-03" rms="4.1867321729660034e-01" purity="4.3981993198394775e-01" nType="-99"/>
            <Node pos="r" depth="3" NCoef="0" IVar="-1" Cut="0.0000000000000000e+00" cType="1" res="-4.8505198210477829e-03" rms="3.7025040388107300e-01" purity="7.5752633810043335e-01" nType="-99"/>
          </Node>
          <Node pos="r" depth="2" NCoef="0" IVar="-1" Cut="0.0000000000000000e+00" cType="1" res="-2.8507158160209656e-02" rms="3.6764335632324219e-01" purity="2.6340898871421814e-01" nType="-99"/>
        </Node>
      </Node>
    </BinaryTree>
    <BinaryTree type="DecisionTree" boostWeight="1.0000000000000000e+00" itree="106">
      <Node pos="s" depth="0" NCoef="0" IVar="9" Cut="6.6667664051055908e-01" cType="1" res="1.7041728133335710e-03" rms="3.8942435383796692e-01" purity="5.0074863433837891e-01" nType="0">
        <Node pos="l" depth="1" NCoef="0" IVar="8" Cut="-1.2000013589859009e+00" cType="1" res="4.9019404686987400e-03" rms="3.9149659872055054e-01" purity="5.1944452524185181e-01" nType="0">
          <Node pos="l" depth="2" NCoef="0" IVar="4" Cut="1.4218344116210938e+02" cType="1" res="1.9325327128171921e-02" rms="3.8619676232337952e-01" purity="4.0320825576782227e-01" nType="0">
            <Node pos="l" depth="3" NCoef="0" IVar="-1" Cut="0.0000000000000000e+00" cType="1" res="2.0766027271747589e-02" rms="3.8331019878387451e-01" purity="3.0956593155860901e-01" nType="-99"/>
            <Node pos="r" depth="3" NCoef="0" IVar="-1" Cut="0.0000000000000000e+00" cType="1" res="-1.1338833719491959e-03" rms="3.9144700765609741e-01" purity="6.0319477319717407e-01" nType="-99"/>
          </Node>
          <Node pos="r" depth="2" NCoef="0" IVar="8" Cut="-2.4763242900371552e-01" cType="1" res="1.9466131925582886e-03" rms="3.9250826835632324e-01" purity="5.4326117038726807e-01" nType="0">
            <Node pos="l" depth="3" NCoef="0" IVar="-1" Cut="0.0000000000000000e+00" cType="1" res="-5.5079152807593346e-03" rms="3.9361381530761719e-01" purity="5.4678392410278320e-01" nType="-99"/>
            <Node pos="r" depth="3" NCoef="0" IVar="-1" Cut="0.0000000000000000e+00" cType="1" res="4.5180707238614559e-03" rms="3.9188203215599060e-01" purity="5.4158383607864380e-01" nType="-99"/>
          </Node>
        </Node>
        <Node pos="r" depth="1" NCoef="0" IVar="7" Cut="-4.0027076005935669e-01" cType="1" res="-5.7422341778874397e-03" rms="3.8445258140563965e-01" purity="4.5721280574798584e-01" nType="0">
          <Node pos="l" depth="2" NCoef="0" IVar="6" Cut="6.9116997718811035e-01" cType="1" res="-2.2410551086068153e-02" rms="3.7894478440284729e-01" purity="4.1348627209663391e-01" nType="0">
            <Node pos="l" depth="3" NCoef="0" IVar="-1" Cut="0.0000000000000000e+00" cType="1" res="-2.3214815184473991e-02" rms="3.7723135948181152e-01" purity="4.4663974642753601e-01" nType="-99"/>
            <Node pos="r" depth="3" NCoef="0" IVar="-1" Cut="0.0000000000000000e+00" cType="1" res="8.9646996930241585e-03" rms="3.8109529018402100e-01" purity="3.2876908779144287e-01" nType="-99"/>
          </Node>
          <Node pos="r" depth="2" NCoef="0" IVar="7" Cut="1.4278821945190430e+00" cType="1" res="1.5269551659002900e-03" rms="3.8660502433776855e-01" purity="4.7628232836723328e-01" nType="0">
            <Node pos="l" depth="3" NCoef="0" IVar="-1" Cut="0.0000000000000000e+00" cType="1" res="4.3560527265071869e-03" rms="3.9774566888809204e-01" purity="5.3090113401412964e-01" nType="-99"/>
            <Node pos="r" depth="3" NCoef="0" IVar="-1" Cut="0.0000000000000000e+00" cType="1" res="-1.8916876986622810e-02" rms="3.2629323005676270e-01" purity="2.1254426240921021e-01" nType="-99"/>
          </Node>
        </Node>
      </Node>
    </BinaryTree>
    <BinaryTree type="DecisionTree" boostWeight="1.0000000000000000e+00" itree="107">
      <Node pos="s" depth="0" NCoef="0" IVar="6" Cut="-9.2181438207626343e-01" cType="1" res="2.8068555984646082e-03" rms="3.9098235964775085e-01" purity="5.0103646516799927e-01" nType="0">
        <Node pos="l" depth="1" NCoef="0" IVar="6" Cut="-1.2763007879257202e+00" cType="1" res="2.0242726430296898e-02" rms="3.7413516640663147e-01" purity="3.4866464138031006e-01" nType="0">
          <Node pos="l" depth="2" NCoef="0" IVar="2" Cut="2.8892019653320312e+02" cType="1" res="7.3818094097077847e-03" rms="3.5185393691062927e-01" purity="2.5031393766403198e-01" nType="0">
            <Node pos="l" depth="3" NCoef="0" IVar="-1" Cut="0.0000000000000000e+00" cType="1" res="2.9467741027474403e-02" rms="3.5207745432853699e-01" purity="2.6814988255500793e-01" nType="-99"/>
            <Node pos="r" depth="3" NCoef="0" IVar="-1" Cut="0.0000000000000000e+00" cType="1" res="-9.3588931486010551e-03" rms="3.5046085715293884e-01" purity="2.3835521936416626e-01" nType="-99"/>
          </Node>
          <Node pos="r" depth="2" NCoef="0" IVar="6" Cut="-1.0400027036666870e+00" cType="1" res="3.6240838468074799e-02" rms="3.9954626560211182e-01" purity="4.7100633382797241e-01" nType="0">
            <Node pos="l" depth="3" NCoef="0" IVar="-1" Cut="0.0000000000000000e+00" cType="1" res="1.4078421518206596e-02" rms="3.8840207457542419e-01" purity="4.4257450103759766e-01" nType="-99"/>
            <Node pos="r" depth="3" NCoef="0" IVar="-1" Cut="0.0000000000000000e+00" cType="1" res="3.6711983382701874e-02" rms="4.1622015833854675e-01" purity="5.1805973052978516e-01" nType="-99"/>
          </Node>
        </Node>
        <Node pos="r" depth="1" NCoef="0" IVar="6" Cut="1.9138075113296509e+00" cType="1" res="-7.9744093818590045e-04" rms="3.9427906274795532e-01" purity="5.3253436088562012e-01" nType="0">
          <Node pos="l" depth="2" NCoef="0" IVar="9" Cut="-1.9999690055847168e+00" cType="1" res="1.6827044601086527e-04" rms="3.9746728539466858e-01" purity="5.4593020677566528e-01" nType="0">
            <Node pos="l" depth="3" NCoef="0" IVar="-1" Cut="0.0000000000000000e+00" cType="1" res="1.4545971527695656e-02" rms="4.0226167440414429e-01" purity="4.1011124849319458e-01" nType="-99"/>
            <Node pos="r" depth="3" NCoef="0" IVar="-1" Cut="0.0000000000000000e+00" cType="1" res="-6.9460360100492835e-04" rms="3.9716580510139465e-01" purity="5.5330693721771240e-01" nType="-99"/>
          </Node>
          <Node pos="r" depth="2" NCoef="0" IVar="-1" Cut="0.0000000000000000e+00" cType="1" res="-3.1374838203191757e-02" rms="2.7999246120452881e-01" purity="1.2824898958206177e-01" nType="-99"/>
        </Node>
      </Node>
    </BinaryTree>
    <BinaryTree type="DecisionTree" boostWeight="1.0000000000000000e+00" itree="108">
      <Node pos="s" depth="0" NCoef="0" IVar="3" Cut="1.4577171325683594e+02" cType="1" res="4.7959407675080001e-04" rms="3.8956865668296814e-01" purity="4.9997285008430481e-01" nType="0">
        <Node pos="l" depth="1" NCoef="0" IVar="9" Cut="3.9982318878173828e-01" cType="1" res="8.8941855356097221e-03" rms="3.7527379393577576e-01" purity="2.4768757820129395e-01" nType="0">
          <Node pos="l" depth="2" NCoef="0" IVar="2" Cut="3.1415698242187500e+02" cType="1" res="2.2640107199549675e-02" rms="3.8897651433944702e-01" purity="2.6691350340843201e-01" nType="0">
            <Node pos="l" depth="3" NCoef="0" IVar="-1" Cut="0.0000000000000000e+00" cType="1" res="2.7181467041373253e-02" rms="4.0518608689308167e-01" purity="2.8639402985572815e-01" nType="-99"/>
            <Node pos="r" depth="3" NCoef="0" IVar="-1" Cut="0.0000000000000000e+00" cType="1" res="2.9327892698347569e-03" rms="3.6950409412384033e-01" purity="2.4558122456073761e-01" nType="-99"/>
          </Node>
          <Node pos="r" depth="2" NCoef="0" IVar="9" Cut="1.3140308856964111e+00" cType="1" res="-1.2818583287298679e-02" rms="3.5145226120948792e-01" purity="2.1731871366500854e-01" nType="0">
            <Node pos="l" depth="3" NCoef="0" IVar="-1" Cut="0.0000000000000000e+00" cType="1" res="-2.2260885685682297e-02" rms="3.5235029458999634e-01" purity="2.2655837237834930e-01" nType="-99"/>
            <Node pos="r" depth="3" NCoef="0" IVar="-1" Cut="0.0000000000000000e+00" cType="1" res="6.5531604923307896e-03" rms="3.4926930069923401e-01" purity="2.0665070414543152e-01" nType="-99"/>
          </Node>
        </Node>
        <Node pos="r" depth="1" NCoef="0" IVar="6" Cut="1.7365801334381104e+00" cType="1" res="-2.2246656008064747e-03" rms="3.9401444792747498e-01" purity="5.8105164766311646e-01" nType="0">
          <Node pos="l" depth="2" NCoef="0" IVar="8" Cut="4.0005022287368774e-01" cType="1" res="-3.0404794961214066e-03" rms="3.9498269557952881e-01" purity="5.9367316961288452e-01" nType="0">
            <Node pos="l" depth="3" NCoef="0" IVar="-1" Cut="0.0000000000000000e+00" cType="1" res="-7.0131005486473441e-05" rms="3.9274993538856506e-01" purity="6.1427664756774902e-01" nType="-99"/>
            <Node pos="r" depth="3" NCoef="0" IVar="-1" Cut="0.0000000000000000e+00" cType="1" res="-5.2423770539462566e-03" rms="3.9900261163711548e-01" purity="5.5575805902481079e-01" nType="-99"/>
          </Node>
          <Node pos="r" depth="2" NCoef="0" IVar="-1" Cut="0.0000000000000000e+00" cType="1" res="1.5615268610417843e-02" rms="3.6655053496360779e-01" purity="2.4408783018589020e-01" nType="-99"/>
        </Node>
      </Node>
    </BinaryTree>
    <BinaryTree type="DecisionTree" boostWeight="1.0000000000000000e+00" itree="109">
      <Node pos="s" depth="0" NCoef="0" IVar="7" Cut="6.6670858860015869e-01" cType="1" res="-5.3139642113819718e-04" rms="3.8813403248786926e-01" purity="5.0259405374526978e-01" nType="0">
        <Node pos="l" depth="1" NCoef="0" IVar="9" Cut="-1.9998320341110229e+00" cType="1" res="-3.4509496763348579e-03" rms="3.8951647281646729e-01" purity="5.3020703792572021e-01" nType="0">
          <Node pos="l" depth="2" NCoef="0" IVar="-1" Cut="0.0000000000000000e+00" cType="1" res="1.3504979200661182e-02" rms="3.8362663984298706e-01" purity="3.8978520035743713e-01" nType="-99"/>
          <Node pos="r" depth="2" NCoef="0" IVar="9" Cut="1.4285715818405151e+00" cType="1" res="-4.9071670509874821e-03" rms="3.8982638716697693e-01" purity="5.3879016637802124e-01" nType="0">
            <Node pos="l" depth="3" NCoef="0" IVar="-1" Cut="0.0000000000000000e+00" cType="1" res="-4.8159272409975529e-03" rms="3.8838544487953186e-01" purity="5.5061233043670654e-01" nType="-99"/>
            <Node pos="r" depth="3" NCoef="0" IVar="-1" Cut="0.0000000000000000e+00" cType="1" res="7.9502742737531662e-03" rms="3.9932084083557129e-01" purity="4.5620250701904297e-01" nType="-99"/>
          </Node>
        </Node>
        <Node pos="r" depth="1" NCoef="0" IVar="7" Cut="1.4793765544891357e+00" cType="1" res="7.3020136915147305e-03" rms="3.8429072499275208e-01" purity="4.2850601673126221e-01" nType="0">
          <Node pos="l" depth="2" NCoef="0" IVar="6" Cut="4.3249973654747009e-01" cType="1" res="1.6321955248713493e-02" rms="3.9919334650039673e-01" purity="5.1604348421096802e-01" nType="0">
            <Node pos="l" depth="3" NCoef="0" IVar="-1" Cut="0.0000000000000000e+00" cType="1" res="1.7025105655193329e-02" rms="4.0834569931030273e-01" purity="5.6069511175155640e-01" nType="-99"/>
            <Node pos="r" depth="3" NCoef="0" IVar="-1" Cut="0.0000000000000000e+00" cType="1" res="-2.1363715641200542e-03" rms="3.8192567229270935e-01" purity="4.3820759654045105e-01" nType="-99"/>
          </Node>
          <Node pos="r" depth="2" NCoef="0" IVar="7" Cut="1.9195727109909058e+00" cType="1" res="-1.1739928275346756e-02" rms="3.4999415278434753e-01" purity="2.4370625615119934e-01" nType="0">
            <Node pos="l" depth="3" NCoef="0" IVar="-1" Cut="0.0000000000000000e+00" cType="1" res="-1.8256520852446556e-02" rms="3.6808222532272339e-01" purity="2.7656462788581848e-01" nType="-99"/>
            <Node pos="r" depth="3" NCoef="0" IVar="-1" Cut="0.0000000000000000e+00" cType="1" res="3.9192195981740952e-03" rms="3.2893189787864685e-01" purity="2.0885892212390900e-01" nType="-99"/>
          </Node>
        </Node>
      </Node>
    </BinaryTree>
    <BinaryTree type="DecisionTree" boostWeight="1.0000000000000000e+00" itree="110">
      <Node pos="s" depth="0" NCoef="0" IVar="0" Cut="5.9407910156250000e+02" cType="1" res="1.7122175777330995e-03" rms="3.9016520977020264e-01" purity="5.0270897150039673e-01" nType="0">
        <Node pos="l" depth="1" NCoef="0" IVar="0" Cut="3.1400375366210938e+02" cType="1" res="3.6876548547297716e-03" rms="3.9727753400802612e-01" purity="4.5020917057991028e-01" nType="0">
          <Node pos="l" depth="2" NCoef="0" IVar="7" Cut="-4.0040102601051331e-01" cType="1" res="-2.4254975840449333e-02" rms="3.6810779571533203e-01" purity="2.2264562547206879e-01" nType="0">
            <Node pos="l" depth="3" NCoef="0" IVar="-1" Cut="0.0000000000000000e+00" cType="1" res="-2.1562341134995222e-03" rms="3.7052863836288452e-01" purity="2.1519640088081360e-01" nType="-99"/>
            <Node pos="r" depth="3" NCoef="0" IVar="-1" Cut="0.0000000000000000e+00" cType="1" res="-2.5359541177749634e-02" rms="3.6596956849098206e-01" purity="2.2726760804653168e-01" nType="-99"/>
          </Node>
          <Node pos="r" depth="2" NCoef="0" IVar="2" Cut="6.4470098876953125e+02" cType="1" res="6.4634722657501698e-03" rms="3.9995256066322327e-01" purity="4.7281527519226074e-01" nType="0">
            <Node pos="l" depth="3" NCoef="0" IVar="-1" Cut="0.0000000000000000e+00" cType="1" res="3.0755689367651939e-03" rms="3.9876276254653931e-01" purity="4.7229436039924622e-01" nType="-99"/>
            <Node pos="r" depth="3" NCoef="0" IVar="-1" Cut="0.0000000000000000e+00" cType="1" res="2.5836238637566566e-02" rms="4.2776528000831604e-01" purity="4.8641645908355713e-01" nType="-99"/>
          </Node>
        </Node>
        <Node pos="r" depth="1" NCoef="0" IVar="1" Cut="1.6521818847656250e+03" cType="1" res="-9.3692513182759285e-03" rms="3.4737190604209900e-01" purity="7.9721319675445557e-01" nType="0">
          <Node pos="l" depth="2" NCoef="0" IVar="-1" Cut="0.0000000000000000e+00" cType="1" res="-2.4988718330860138e-02" rms="3.8157337903976440e-01" purity="7.1739393472671509e-01" nType="-99"/>
          <Node pos="r" depth="2" NCoef="0" IVar="5" Cut="8.5091812133789062e+01" cType="1" res="3.7429092917591333e-03" rms="3.2786837220191956e-01" purity="8.3774256706237793e-01" nType="0">
            <Node pos="l" depth="3" NCoef="0" IVar="-1" Cut="0.0000000000000000e+00" cType="1" res="1.0900375433266163e-02" rms="3.9721533656120300e-01" purity="7.2479695081710815e-01" nType="-99"/>
            <Node pos="r" depth="3" NCoef="0" IVar="-1" Cut="0.0000000000000000e+00" cType="1" res="-3.0330640729516745e-03" rms="2.9245018959045410e-01" purity="8.8679260015487671e-01" nType="-99"/>
          </Node>
        </Node>
      </Node>
    </BinaryTree>
    <BinaryTree type="DecisionTree" boostWeight="1.0000000000000000e+00" itree="111">
      <Node pos="s" depth="0" NCoef="0" IVar="9" Cut="4.0001264214515686e-01" cType="1" res="1.7106294399127364e-03" rms="3.8844597339630127e-01" purity="5.0263291597366333e-01" nType="0">
        <Node pos="l" depth="1" NCoef="0" IVar="1" Cut="1.1026463623046875e+03" cType="1" res="-4.4111278839409351e-03" rms="3.8876044750213623e-01" purity="5.1024562120437622e-01" nType="0">
          <Node pos="l" depth="2" NCoef="0" IVar="8" Cut="9.3301922082901001e-01" cType="1" res="-1.6497367992997169e-02" rms="3.7961733341217041e-01" purity="2.1964749693870544e-01" nType="0">
            <Node pos="l" depth="3" NCoef="0" IVar="-1" Cut="0.0000000000000000e+00" cType="1" res="-1.5338256955146790e-02" rms="3.8556033372879028e-01" purity="2.2443793714046478e-01" nType="-99"/>
            <Node pos="r" depth="3" NCoef="0" IVar="-1" Cut="0.0000000000000000e+00" cType="1" res="5.9057334437966347e-03" rms="3.5712915658950806e-01" purity="2.0299001038074493e-01" nType="-99"/>
          </Node>
          <Node pos="r" depth="2" NCoef="0" IVar="7" Cut="-1.4666815996170044e+00" cType="1" res="8.5921952268108726e-04" rms="3.9256426692008972e-01" purity="6.3696438074111938e-01" nType="0">
            <Node pos="l" depth="3" NCoef="0" IVar="-1" Cut="0.0000000000000000e+00" cType="1" res="1.6444317996501923e-02" rms="3.9279481768608093e-01" purity="4.2449083924293518e-01" nType="-99"/>
            <Node pos="r" depth="3" NCoef="0" IVar="-1" Cut="0.0000000000000000e+00" cType="1" res="-1.0103831300511956e-03" rms="3.9245271682739258e-01" purity="6.5614277124404907e-01" nType="-99"/>
          </Node>
        </Node>
        <Node pos="r" depth="1" NCoef="0" IVar="6" Cut="6.9008791446685791e-01" cType="1" res="1.1570787988603115e-02" rms="3.8773575425148010e-01" purity="4.9037140607833862e-01" nType="0">
          <Node pos="l" depth="2" NCoef="0" IVar="7" Cut="-1.3316161930561066e-01" cType="1" res="1.6720006242394447e-02" rms="3.9516961574554443e-01" purity="5.4484647512435913e-01" nType="0">
            <Node pos="l" depth="3" NCoef="0" IVar="-1" Cut="0.0000000000000000e+00" cType="1" res="1.7418451607227325e-02" rms="3.9480486512184143e-01" purity="5.4962038993835449e-01" nType="-99"/>
            <Node pos="r" depth="3" NCoef="0" IVar="-1" Cut="0.0000000000000000e+00" cType="1" res="5.6579806841909885e-03" rms="3.9523985981941223e-01" purity="5.4150253534317017e-01" nType="-99"/>
          </Node>
          <Node pos="r" depth="2" NCoef="0" IVar="9" Cut="1.3143073320388794e+00" cType="1" res="-2.0542177371680737e-03" rms="3.6699217557907104e-01" purity="3.4622851014137268e-01" nType="0">
            <Node pos="l" depth="3" NCoef="0" IVar="-1" Cut="0.0000000000000000e+00" cType="1" res="-1.1658684350550175e-02" rms="3.7059244513511658e-01" purity="3.6949053406715393e-01" nType="-99"/>
            <Node pos="r" depth="3" NCoef="0" IVar="-1" Cut="0.0000000000000000e+00" cType="1" res="1.2199053540825844e-02" rms="3.6158466339111328e-01" purity="3.1709021329879761e-01" nType="-99"/>
          </Node>
        </Node>
      </Node>
    </BinaryTree>
    <BinaryTree type="DecisionTree" boostWeight="1.0000000000000000e+00" itree="112">
      <Node pos="s" depth="0" NCoef="0" IVar="9" Cut="1.4666688442230225e+00" cType="1" res="2.4959438014775515e-03" rms="3.9063462615013123e-01" purity="5.0205647945404053e-01" nType="0">
        <Node pos="l" depth="1" NCoef="0" IVar="3" Cut="1.4288792419433594e+02" cType="1" res="4.5948745682835579e-03" rms="3.9252805709838867e-01" purity="5.1719379425048828e-01" nType="0">
          <Node pos="l" depth="2" NCoef="0" IVar="3" Cut="1.2537920379638672e+02" cType="1" res="1.3709266670048237e-02" rms="3.8009405136108398e-01" purity="2.4676641821861267e-01" nType="0">
            <Node pos="l" depth="3" NCoef="0" IVar="-1" Cut="0.0000000000000000e+00" cType="1" res="7.8756309812888503e-04" rms="3.5661709308624268e-01" purity="1.9424228370189667e-01" nType="-99"/>
            <Node pos="r" depth="3" NCoef="0" IVar="-1" Cut="0.0000000000000000e+00" cType="1" res="2.3913417011499405e-02" rms="4.2183485627174377e-01" purity="3.5134446620941162e-01" nType="-99"/>
          </Node>
          <Node pos="r" depth="2" NCoef="0" IVar="9" Cut="-1.1745777130126953e+00" cType="1" res="1.9638275261968374e-03" rms="3.9600574970245361e-01" purity="5.9525787830352783e-01" nType="0">
            <Node pos="l" depth="3" NCoef="0" IVar="-1" Cut="0.0000000000000000e+00" cType="1" res="-5.2277427166700363e-03" rms="4.0457871556282043e-01" purity="4.9062541127204895e-01" nType="-99"/>
            <Node pos="r" depth="3" NCoef="0" IVar="-1" Cut="0.0000000000000000e+00" cType="1" res="2.7879860717803240e-03" rms="3.9396595954895020e-01" purity="6.1934292316436768e-01" nType="-99"/>
          </Node>
        </Node>
        <Node pos="r" depth="1" NCoef="0" IVar="6" Cut="-3.6547461152076721e-01" cType="1" res="-1.2468518689274788e-02" rms="3.7652072310447693e-01" purity="3.9413410425186157e-01" nType="0">
          <Node pos="l" depth="2" NCoef="0" IVar="-1" Cut="0.0000000000000000e+00" cType="1" res="-3.3791199326515198e-02" rms="3.6699929833412170e-01" purity="3.0330234766006470e-01" nType="-99"/>
          <Node pos="r" depth="2" NCoef="0" IVar="1" Cut="1.3005679931640625e+03" cType="1" res="2.6318670716136694e-03" rms="3.7923979759216309e-01" purity="4.3069463968276978e-01" nType="0">
            <Node pos="l" depth="3" NCoef="0" IVar="-1" Cut="0.0000000000000000e+00" cType="1" res="-9.4879204407334328e-03" rms="3.7337592244148254e-01" purity="2.6394772529602051e-01" nType="-99"/>
            <Node pos="r" depth="3" NCoef="0" IVar="-1" Cut="0.0000000000000000e+00" cType="1" res="1.6407759860157967e-02" rms="3.8626405596733093e-01" purity="6.7140042781829834e-01" nType="-99"/>
          </Node>
        </Node>
      </Node>
    </BinaryTree>
    <BinaryTree type="DecisionTree" boostWeight="1.0000000000000000e+00" itree="113">
      <Node pos="s" depth="0" NCoef="0" IVar="8" Cut="-1.4666426181793213e+00" cType="1" res="-1.1941679986193776e-03" rms="3.8817271590232849e-01" purity="5.0259476900100708e-01" nType="0">
        <Node pos="l" depth="1" NCoef="0" IVar="4" Cut="8.9068328857421875e+01" cType="1" res="-2.1321604028344154e-02" rms="3.6502674221992493e-01" purity="2.9359668493270874e-01" nType="0">
          <Node pos="l" depth="2" NCoef="0" IVar="-1" Cut="0.0000000000000000e+00" cType="1" res="1.0697249090299010e-03" rms="3.0557662248611450e-01" purity="1.5272195637226105e-01" nType="-99"/>
          <Node pos="r" depth="2" NCoef="0" IVar="9" Cut="-6.6665059328079224e-01" cType="1" res="-3.1945854425430298e-02" rms="3.8958349823951721e-01" purity="3.6031755805015564e-01" nType="0">
            <Node pos="l" depth="3" NCoef="0" IVar="-1" Cut="0.0000000000000000e+00" cType="1" res="-3.8415476679801941e-02" rms="3.5777235031127930e-01" purity="2.6878085732460022e-01" nType="-99"/>
            <Node pos="r" depth="3" NCoef="0" IVar="-1" Cut="0.0000000000000000e+00" cType="1" res="-9.9019166082143784e-03" rms="4.0569791197776794e-01" purity="4.1219484806060791e-01" nType="-99"/>
          </Node>
        </Node>
        <Node pos="r" depth="1" NCoef="0" IVar="2" Cut="6.4788616943359375e+02" cType="1" res="1.0979243088513613e-03" rms="3.9065581560134888e-01" purity="5.2639526128768921e-01" nType="0">
          <Node pos="l" depth="2" NCoef="0" IVar="2" Cut="5.6257440185546875e+02" cType="1" res="2.5619675870984793e-03" rms="3.8934746384620667e-01" purity="5.2328151464462280e-01" nType="0">
            <Node pos="l" depth="3" NCoef="0" IVar="-1" Cut="0.0000000000000000e+00" cType="1" res="2.8853714466094971e-03" rms="3.8948619365692139e-01" purity="5.2144503593444824e-01" nType="-99"/>
            <Node pos="r" depth="3" NCoef="0" IVar="-1" Cut="0.0000000000000000e+00" cType="1" res="-1.9771289080381393e-02" rms="3.8542515039443970e-01" purity="5.5569112300872803e-01" nType="-99"/>
          </Node>
          <Node pos="r" depth="2" NCoef="0" IVar="-1" Cut="0.0000000000000000e+00" cType="1" res="-1.3881939463317394e-02" rms="4.1153016686439514e-01" purity="5.7950103282928467e-01" nType="-99"/>
        </Node>
      </Node>
    </BinaryTree>
    <BinaryTree type="DecisionTree" boostWeight="1.0000000000000000e+00" itree="114">
      <Node pos="s" depth="0" NCoef="0" IVar="9" Cut="-1.3340498507022858e-01" cType="1" res="2.2624954581260681e-03" rms="3.8956195116043091e-01" purity="5.0573289394378662e-01" nType="0">
        <Node pos="l" depth="1" NCoef="0" IVar="0" Cut="4.3884439086914062e+02" cType="1" res="9.2305205762386322e-03" rms="3.9429095387458801e-01" purity="5.0571602582931519e-01" nType="0">
          <Node pos="l" depth="2" NCoef="0" IVar="2" Cut="4.8776162719726562e+02" cType="1" res="1.5403331257402897e-02" rms="4.0613755583763123e-01" purity="3.5936614871025085e-01" nType="0">
            <Node pos="l" depth="3" NCoef="0" IVar="-1" Cut="0.0000000000000000e+00" cType="1" res="1.2924241833388805e-02" rms="4.0834090113639832e-01" purity="3.6777132749557495e-01" nType="-99"/>
            <Node pos="r" depth="3" NCoef="0" IVar="-1" Cut="0.0000000000000000e+00" cType="1" res="-1.9284317269921303e-02" rms="3.8337206840515137e-01" purity="2.8619560599327087e-01" nType="-99"/>
          </Node>
          <Node pos="r" depth="2" NCoef="0" IVar="1" Cut="1.4542141113281250e+03" cType="1" res="9.7582553280517459e-04" rms="3.7771132588386536e-01" purity="7.0142483711242676e-01" nType="0">
            <Node pos="l" depth="3" NCoef="0" IVar="-1" Cut="0.0000000000000000e+00" cType="1" res="-6.8990383297204971e-03" rms="4.2386841773986816e-01" purity="5.6073421239852905e-01" nType="-99"/>
            <Node pos="r" depth="3" NCoef="0" IVar="-1" Cut="0.0000000000000000e+00" cType="1" res="8.3284433931112289e-03" rms="3.3871775865554810e-01" purity="8.0685174465179443e-01" nType="-99"/>
          </Node>
        </Node>
        <Node pos="r" depth="1" NCoef="0" IVar="7" Cut="6.6662800312042236e-01" cType="1" res="-3.6993862595409155e-03" rms="3.8536971807479858e-01" purity="5.0574725866317749e-01" nType="0">
          <Node pos="l" depth="2" NCoef="0" IVar="6" Cut="1.2183593511581421e+00" cType="1" res="1.8913317471742630e-03" rms="3.8774767518043518e-01" purity="5.5006694793701172e-01" nType="0">
            <Node pos="l" depth="3" NCoef="0" IVar="-1" Cut="0.0000000000000000e+00" cType="1" res="-1.3120933435857296e-03" rms="3.8827827572822571e-01" purity="5.7780492305755615e-01" nType="-99"/>
            <Node pos="r" depth="3" NCoef="0" IVar="-1" Cut="0.0000000000000000e+00" cType="1" res="2.5095263496041298e-02" rms="3.8187843561172485e-01" purity="3.2341855764389038e-01" nType="-99"/>
          </Node>
          <Node pos="r" depth="2" NCoef="0" IVar="7" Cut="8.6978936195373535e-01" cType="1" res="-1.7454791814088821e-02" rms="3.7910473346710205e-01" purity="3.9670321345329285e-01" nType="0">
            <Node pos="l" depth="3" NCoef="0" IVar="-1" Cut="0.0000000000000000e+00" cType="1" res="-2.5315385311841965e-02" rms="3.9418983459472656e-01" purity="5.1767671108245850e-01" nType="-99"/>
            <Node pos="r" depth="3" NCoef="0" IVar="-1" Cut="0.0000000000000000e+00" cType="1" res="-8.0081103369593620e-03" rms="3.7493106722831726e-01" purity="3.6570447683334351e-01" nType="-99"/>
          </Node>
        </Node>
      </Node>
    </BinaryTree>
    <BinaryTree type="DecisionTree" boostWeight="1.0000000000000000e+00" itree="115">
      <Node pos="s" depth="0" NCoef="0" IVar="9" Cut="-1.9999672174453735e+00" cType="1" res="-3.1473764684051275e-03" rms="3.8843512535095215e-01" purity="4.9732059240341187e-01" nType="0">
        <Node pos="l" depth="1" NCoef="0" IVar="4" Cut="1.1242430114746094e+02" cType="1" res="-2.5825396180152893e-02" rms="3.6676707863807678e-01" purity="3.1419324874877930e-01" nType="0">
          <Node pos="l" depth="2" NCoef="0" IVar="-1" Cut="0.0000000000000000e+00" cType="1" res="-3.8737546652555466e-02" rms="3.0588066577911377e-01" purity="1.4971007406711578e-01" nType="-99"/>
          <Node pos="r" depth="2" NCoef="0" IVar="-1" Cut="0.0000000000000000e+00" cType="1" res="-2.6096121873706579e-03" rms="4.1968041658401489e-01" purity="4.8489820957183838e-01" nType="-99"/>
        </Node>
        <Node pos="r" depth="1" NCoef="0" IVar="9" Cut="2.3428306579589844e+00" cType="1" res="-1.8902600277215242e-03" rms="3.8956236839294434e-01" purity="5.0747197866439819e-01" nType="0">
          <Node pos="l" depth="2" NCoef="0" IVar="9" Cut="1.7224311828613281e+00" cType="1" res="-9.4305799575522542e-04" rms="3.9065539836883545e-01" purity="5.1290631294250488e-01" nType="0">
            <Node pos="l" depth="3" NCoef="0" IVar="-1" Cut="0.0000000000000000e+00" cType="1" res="-1.7049079760909081e-03" rms="3.8981914520263672e-01" purity="5.2050548791885376e-01" nType="-99"/>
            <Node pos="r" depth="3" NCoef="0" IVar="-1" Cut="0.0000000000000000e+00" cType="1" res="1.4445451088249683e-02" rms="4.0115565061569214e-01" purity="4.0949991345405579e-01" nType="-99"/>
          </Node>
          <Node pos="r" depth="2" NCoef="0" IVar="-1" Cut="0.0000000000000000e+00" cType="1" res="-2.5066250935196877e-02" rms="3.4715500473976135e-01" purity="3.1570416688919067e-01" nType="-99"/>
        </Node>
      </Node>
    </BinaryTree>
    <BinaryTree type="DecisionTree" boostWeight="1.0000000000000000e+00" itree="116">
      <Node pos="s" depth="0" NCoef="0" IVar="2" Cut="4.9859252929687500e+02" cType="1" res="-2.3155135568231344e-03" rms="3.8932454586029053e-01" purity="4.9776297807693481e-01" nType="0">
        <Node pos="l" depth="1" NCoef="0" IVar="0" Cut="4.9142666625976562e+02" cType="1" res="-5.2374168299138546e-03" rms="3.8645240664482117e-01" purity="4.8655024170875549e-01" nType="0">
          <Node pos="l" depth="2" NCoef="0" IVar="5" Cut="6.6040153503417969e+01" cType="1" res="-1.0077203623950481e-02" rms="3.9777266979217529e-01" purity="3.8725781440734863e-01" nType="0">
            <Node pos="l" depth="3" NCoef="0" IVar="-1" Cut="0.0000000000000000e+00" cType="1" res="3.6705823149532080e-03" rms="3.6830693483352661e-01" purity="2.1999675035476685e-01" nType="-99"/>
            <Node pos="r" depth="3" NCoef="0" IVar="-1" Cut="0.0000000000000000e+00" cType="1" res="-1.0455016978085041e-02" rms="4.1244351863861084e-01" purity="4.7670292854309082e-01" nType="-99"/>
          </Node>
          <Node pos="r" depth="2" NCoef="0" IVar="4" Cut="1.3187060546875000e+02" cType="1" res="8.8426163420081139e-03" rms="3.5107266902923584e-01" purity="7.7541440725326538e-01" nType="0">
            <Node pos="l" depth="3" NCoef="0" IVar="-1" Cut="0.0000000000000000e+00" cType="1" res="-4.1178027167916298e-03" rms="4.1434171795845032e-01" purity="6.1153912544250488e-01" nType="-99"/>
            <Node pos="r" depth="3" NCoef="0" IVar="-1" Cut="0.0000000000000000e+00" cType="1" res="1.8292570486664772e-02" rms="3.0469861626625061e-01" purity="8.7744599580764771e-01" nType="-99"/>
          </Node>
        </Node>
        <Node pos="r" depth="1" NCoef="0" IVar="7" Cut="-4.0004879236221313e-01" cType="1" res="1.1647901497781277e-02" rms="4.0247461199760437e-01" purity="5.5134737491607666e-01" nType="0">
          <Node pos="l" depth="2" NCoef="0" IVar="6" Cut="4.4544311240315437e-03" cType="1" res="-6.9873621687293053e-03" rms="4.0152132511138916e-01" purity="4.8317861557006836e-01" nType="0">
            <Node pos="l" depth="3" NCoef="0" IVar="-1" Cut="0.0000000000000000e+00" cType="1" res="6.1791050247848034e-03" rms="4.1227534413337708e-01" purity="5.1294612884521484e-01" nType="-99"/>
            <Node pos="r" depth="3" NCoef="0" IVar="-1" Cut="0.0000000000000000e+00" cType="1" res="-1.6508558765053749e-02" rms="3.8845235109329224e-01" purity="4.5043471455574036e-01" nType="-99"/>
          </Node>
          <Node pos="r" depth="2" NCoef="0" IVar="8" Cut="6.6662472486495972e-01" cType="1" res="2.0576415583491325e-02" rms="4.0262502431869507e-01" purity="5.8400839567184448e-01" nType="0">
            <Node pos="l" depth="3" NCoef="0" IVar="-1" Cut="0.0000000000000000e+00" cType="1" res="7.5515005737543106e-03" rms="3.9276459813117981e-01" purity="6.1006170511245728e-01" nType="-99"/>
            <Node pos="r" depth="3" NCoef="0" IVar="-1" Cut="0.0000000000000000e+00" cType="1" res="2.4691212922334671e-02" rms="4.2559450864791870e-01" purity="5.1870262622833252e-01" nType="-99"/>
          </Node>
        </Node>
      </Node>
    </BinaryTree>
    <BinaryTree type="DecisionTree" boostWeight="1.0000000000000000e+00" itree="117">
      <Node pos="s" depth="0" NCoef="0" IVar="1" Cut="2.0166691894531250e+03" cType="1" res="7.0101837627589703e-04" rms="3.8704612851142883e-01" purity="5.0233525037765503e-01" nType="0">
        <Node pos="l" depth="1" NCoef="0" IVar="1" Cut="1.2055581054687500e+03" cType="1" res="-7.9193583223968744e-04" rms="3.8996252417564392e-01" purity="4.8125526309013367e-01" nType="0">
          <Node pos="l" depth="2" NCoef="0" IVar="1" Cut="1.1089967041015625e+03" cType="1" res="-7.2588403709232807e-03" rms="3.9378279447555542e-01" purity="2.7880764007568359e-01" nType="0">
            <Node pos="l" depth="3" NCoef="0" IVar="-1" Cut="0.0000000000000000e+00" cType="1" res="1.6168900765478611e-04" rms="3.8214144110679626e-01" purity="2.3165129125118256e-01" nType="-99"/>
            <Node pos="r" depth="3" NCoef="0" IVar="-1" Cut="0.0000000000000000e+00" cType="1" res="-1.5604837797582150e-02" rms="4.2417418956756592e-01" purity="4.1174113750457764e-01" nType="-99"/>
          </Node>
          <Node pos="r" depth="2" NCoef="0" IVar="9" Cut="1.4666639566421509e+00" cType="1" res="4.8692249692976475e-03" rms="3.8649842143058777e-01" purity="6.5847897529602051e-01" nType="0">
            <Node pos="l" depth="3" NCoef="0" IVar="-1" Cut="0.0000000000000000e+00" cType="1" res="5.6259767152369022e-03" rms="3.8468176126480103e-01" purity="6.7140221595764160e-01" nType="-99"/>
            <Node pos="r" depth="3" NCoef="0" IVar="-1" Cut="0.0000000000000000e+00" cType="1" res="-1.5861628577113152e-02" rms="3.9995074272155762e-01" purity="5.5106210708618164e-01" nType="-99"/>
          </Node>
        </Node>
        <Node pos="r" depth="1" NCoef="0" IVar="7" Cut="1.3302390277385712e-01" cType="1" res="2.3462785407900810e-02" rms="3.3867990970611572e-01" purity="8.2372301816940308e-01" nType="0">
          <Node pos="l" depth="2" NCoef="0" IVar="-1" Cut="0.0000000000000000e+00" cType="1" res="2.5693913921713829e-02" rms="3.3736205101013184e-01" purity="8.3578038215637207e-01" nType="-99"/>
          <Node pos="r" depth="2" NCoef="0" IVar="-1" Cut="0.0000000000000000e+00" cType="1" res="7.7726379968225956e-03" rms="3.4000799059867859e-01" purity="8.0733531713485718e-01" nType="-99"/>
        </Node>
      </Node>
    </BinaryTree>
    <BinaryTree type="DecisionTree" boostWeight="1.0000000000000000e+00" itree="118">
      <Node pos="s" depth="0" NCoef="0" IVar="6" Cut="-9.2181783914566040e-01" cType="1" res="9.7730930428951979e-04" rms="3.8846775889396667e-01" purity="5.0297951698303223e-01" nType="0">
        <Node pos="l" depth="1" NCoef="0" IVar="2" Cut="4.1467471313476562e+02" cType="1" res="-8.7748700752854347e-03" rms="3.6164373159408569e-01" purity="3.1337150931358337e-01" nType="0">
          <Node pos="l" depth="2" NCoef="0" IVar="3" Cut="1.3841645812988281e+02" cType="1" res="1.9043745123781264e-04" rms="3.6393591761589050e-01" purity="3.1073099374771118e-01" nType="0">
            <Node pos="l" depth="3" NCoef="0" IVar="-1" Cut="0.0000000000000000e+00" cType="1" res="2.2400595247745514e-02" rms="3.1311917304992676e-01" purity="1.3282501697540283e-01" nType="-99"/>
            <Node pos="r" depth="3" NCoef="0" IVar="-1" Cut="0.0000000000000000e+00" cType="1" res="-5.0456626340746880e-03" rms="3.8316512107849121e-01" purity="3.8613656163215637e-01" nType="-99"/>
          </Node>
          <Node pos="r" depth="2" NCoef="0" IVar="-1" Cut="0.0000000000000000e+00" cType="1" res="-2.4392958730459213e-02" rms="3.5388320684432983e-01" purity="3.2081398367881775e-01" nType="-99"/>
        </Node>
        <Node pos="r" depth="1" NCoef="0" IVar="7" Cut="9.3338578939437866e-01" cType="1" res="2.8715152293443680e-03" rms="3.9343783259391785e-01" purity="5.3980785608291626e-01" nType="0">
          <Node pos="l" depth="2" NCoef="0" IVar="7" Cut="7.5557237863540649e-01" cType="1" res="2.1370213653426617e-04" rms="3.9285045862197876e-01" purity="5.7222086191177368e-01" nType="0">
            <Node pos="l" depth="3" NCoef="0" IVar="-1" Cut="0.0000000000000000e+00" cType="1" res="1.2100696330890059e-03" rms="3.9275205135345459e-01" purity="5.7351636886596680e-01" nType="-99"/>
            <Node pos="r" depth="3" NCoef="0" IVar="-1" Cut="0.0000000000000000e+00" cType="1" res="-1.7852321267127991e-02" rms="3.9344367384910583e-01" purity="5.5032819509506226e-01" nType="-99"/>
          </Node>
          <Node pos="r" depth="2" NCoef="0" IVar="9" Cut="-4.0008738636970520e-01" cType="1" res="1.3850899413228035e-02" rms="3.9566585421562195e-01" purity="4.0591022372245789e-01" nType="0">
            <Node pos="l" depth="3" NCoef="0" IVar="-1" Cut="0.0000000000000000e+00" cType="1" res="1.9091259688138962e-02" rms="4.0381690859794617e-01" purity="4.3062755465507507e-01" nType="-99"/>
            <Node pos="r" depth="3" NCoef="0" IVar="-1" Cut="0.0000000000000000e+00" cType="1" res="3.9307200349867344e-03" rms="3.9158323407173157e-01" purity="3.9444562792778015e-01" nType="-99"/>
          </Node>
        </Node>
      </Node>
    </BinaryTree>
    <BinaryTree type="DecisionTree" boostWeight="1.0000000000000000e+00" itree="119">
      <Node pos="s" depth="0" NCoef="0" IVar="5" Cut="8.3531051635742188e+01" cType="1" res="-3.5806736559607089e-04" rms="3.8771924376487732e-01" purity="4.9996989965438843e-01" nType="0">
        <Node pos="l" depth="1" NCoef="0" IVar="5" Cut="7.0757324218750000e+01" cType="1" res="5.2869291976094246e-03" rms="3.9049994945526123e-01" purity="3.4054490923881531e-01" nType="0">
          <Node pos="l" depth="2" NCoef="0" IVar="6" Cut="-6.3737481832504272e-01" cType="1" res="-1.8547266954556108e-03" rms="3.8018050789833069e-01" purity="2.9335674643516541e-01" nType="0">
            <Node pos="l" depth="3" NCoef="0" IVar="-1" Cut="0.0000000000000000e+00" cType="1" res="1.2530573643743992e-02" rms="3.5043382644653320e-01" purity="2.3324182629585266e-01" nType="-99"/>
            <Node pos="r" depth="3" NCoef="0" IVar="-1" Cut="0.0000000000000000e+00" cType="1" res="-5.5286595597863197e-03" rms="3.9094662666320801e-01" purity="3.1677648425102234e-01" nType="-99"/>
          </Node>
          <Node pos="r" depth="2" NCoef="0" IVar="1" Cut="1.0455861816406250e+03" cType="1" res="2.1839154884219170e-02" rms="4.1295364499092102e-01" purity="4.4991296529769897e-01" nType="0">
            <Node pos="l" depth="3" NCoef="0" IVar="-1" Cut="0.0000000000000000e+00" cType="1" res="-1.8743452383205295e-03" rms="3.9880651235580444e-01" purity="2.4318201839923859e-01" nType="-99"/>
            <Node pos="r" depth="3" NCoef="0" IVar="-1" Cut="0.0000000000000000e+00" cType="1" res="1.7834499478340149e-02" rms="4.1800695657730103e-01" purity="5.3163170814514160e-01" nType="-99"/>
          </Node>
        </Node>
        <Node pos="r" depth="1" NCoef="0" IVar="9" Cut="-1.4667152166366577e+00" cType="1" res="-6.6253254190087318e-03" rms="3.8451138138771057e-01" purity="6.7696869373321533e-01" nType="0">
          <Node pos="l" depth="2" NCoef="0" IVar="-1" Cut="0.0000000000000000e+00" cType="1" res="-2.1997407078742981e-02" rms="4.0195861458778381e-01" purity="5.4452806711196899e-01" nType="-99"/>
          <Node pos="r" depth="2" NCoef="0" IVar="0" Cut="5.5773901367187500e+02" cType="1" res="-3.4057379234582186e-03" rms="3.8245674967765808e-01" purity="6.9114375114440918e-01" nType="0">
            <Node pos="l" depth="3" NCoef="0" IVar="-1" Cut="0.0000000000000000e+00" cType="1" res="-4.9395798705518246e-03" rms="4.0677669644355774e-01" purity="6.2263590097427368e-01" nType="-99"/>
            <Node pos="r" depth="3" NCoef="0" IVar="-1" Cut="0.0000000000000000e+00" cType="1" res="1.0316847823560238e-02" rms="3.0499398708343506e-01" purity="8.8033002614974976e-01" nType="-99"/>
          </Node>
        </Node>
      </Node>
    </BinaryTree>
    <BinaryTree type="DecisionTree" boostWeight="1.0000000000000000e+00" itree="120">
      <Node pos="s" depth="0" NCoef="0" IVar="8" Cut="-1.9999740123748779e+00" cType="1" res="-1.1772534344345331e-03" rms="3.8701632618904114e-01" purity="5.0091540813446045e-01" nType="0">
        <Node pos="l" depth="1" NCoef="0" IVar="-1" Cut="0.0000000000000000e+00" cType="1" res="1.8727431073784828e-02" rms="3.5571137070655823e-01" purity="2.7203392982482910e-01" nType="-99"/>
        <Node pos="r" depth="1" NCoef="0" IVar="3" Cut="2.4150581359863281e+02" cType="1" res="-2.3170697968453169e-03" rms="3.8835453987121582e-01" purity="5.1142108440399170e-01" nType="0">
          <Node pos="l" depth="2" NCoef="0" IVar="3" Cut="1.2413430786132812e+02" cType="1" res="-5.0547164864838123e-03" rms="3.9566949009895325e-01" purity="4.2158192396163940e-01" nType="0">
            <Node pos="l" depth="3" NCoef="0" IVar="-1" Cut="0.0000000000000000e+00" cType="1" res="9.7917737439274788e-03" rms="3.6736238002777100e-01" purity="2.0870584249496460e-01" nType="-99"/>
            <Node pos="r" depth="3" NCoef="0" IVar="-1" Cut="0.0000000000000000e+00" cType="1" res="-6.0480097308754921e-03" rms="4.0312430262565613e-01" purity="4.8136380314826965e-01" nType="-99"/>
          </Node>
          <Node pos="r" depth="2" NCoef="0" IVar="7" Cut="-1.2001972198486328e+00" cType="1" res="3.1949412077665329e-03" rms="3.7313091754913330e-01" purity="6.9230425357818604e-01" nType="0">
            <Node pos="l" depth="3" NCoef="0" IVar="-1" Cut="0.0000000000000000e+00" cType="1" res="-1.8729409202933311e-02" rms="3.8280549645423889e-01" purity="4.4238504767417908e-01" nType="-99"/>
            <Node pos="r" depth="3" NCoef="0" IVar="-1" Cut="0.0000000000000000e+00" cType="1" res="4.6320902183651924e-03" rms="3.7197500467300415e-01" purity="7.1728014945983887e-01" nType="-99"/>
          </Node>
        </Node>
      </Node>
    </BinaryTree>
    <BinaryTree type="DecisionTree" boostWeight="1.0000000000000000e+00" itree="121">
      <Node pos="s" depth="0" NCoef="0" IVar="9" Cut="1.9999841451644897e+00" cType="1" res="4.0096079465001822e-04" rms="3.8983967900276184e-01" purity="4.9911877512931824e-01" nType="0">
        <Node pos="l" depth="1" NCoef="0" IVar="6" Cut="9.3906182050704956e-01" cType="1" res="-1.1926010483875871e-03" rms="3.8978874683380127e-01" purity="5.0701022148132324e-01" nType="0">
          <Node pos="l" depth="2" NCoef="0" IVar="0" Cut="4.4441314697265625e+02" cType="1" res="1.9054895965382457e-03" rms="3.9641922712326050e-01" purity="5.4473167657852173e-01" nType="0">
            <Node pos="l" depth="3" NCoef="0" IVar="-1" Cut="0.0000000000000000e+00" cType="1" res="4.8754988238215446e-03" rms="4.1422027349472046e-01" purity="4.0178304910659790e-01" nType="-99"/>
            <Node pos="r" depth="3" NCoef="0" IVar="-1" Cut="0.0000000000000000e+00" cType="1" res="-4.6099438332021236e-03" rms="3.7178573012351990e-01" purity="7.3099553585052490e-01" nType="-99"/>
          </Node>
          <Node pos="r" depth="2" NCoef="0" IVar="0" Cut="3.9646478271484375e+02" cType="1" res="-1.7310602590441704e-02" rms="3.5285243391990662e-01" purity="3.1076207756996155e-01" nType="0">
            <Node pos="l" depth="3" NCoef="0" IVar="-1" Cut="0.0000000000000000e+00" cType="1" res="-2.8671007603406906e-02" rms="3.1214708089828491e-01" purity="1.4881169795989990e-01" nType="-99"/>
            <Node pos="r" depth="3" NCoef="0" IVar="-1" Cut="0.0000000000000000e+00" cType="1" res="-3.9846546133048832e-04" rms="3.9034861326217651e-01" purity="4.8073968291282654e-01" nType="-99"/>
          </Node>
        </Node>
        <Node pos="r" depth="1" NCoef="0" IVar="6" Cut="1.5589812397956848e-01" cType="1" res="2.6694754138588905e-02" rms="3.8973945379257202e-01" purity="3.6890974640846252e-01" nType="0">
          <Node pos="l" depth="2" NCoef="0" IVar="-1" Cut="0.0000000000000000e+00" cType="1" res="-2.1500831935554743e-03" rms="3.7475845217704773e-01" purity="3.6418631672859192e-01" nType="-99"/>
          <Node pos="r" depth="2" NCoef="0" IVar="-1" Cut="0.0000000000000000e+00" cType="1" res="4.0558110922574997e-02" rms="4.0197470784187317e-01" purity="3.7364661693572998e-01" nType="-99"/>
        </Node>
      </Node>
    </BinaryTree>
    <BinaryTree type="DecisionTree" boostWeight="1.0000000000000000e+00" itree="122">
      <Node pos="s" depth="0" NCoef="0" IVar="2" Cut="6.5103533935546875e+02" cType="1" res="-1.2959297746419907e-03" rms="3.8746869564056396e-01" purity="4.9519059062004089e-01" nType="0">
        <Node pos="l" depth="1" NCoef="0" IVar="6" Cut="1.2047430276870728e+00" cType="1" res="-1.8969808297697455e-04" rms="3.8671255111694336e-01" purity="4.9043807387351990e-01" nType="0">
          <Node pos="l" depth="2" NCoef="0" IVar="1" Cut="1.2474437255859375e+03" cType="1" res="1.8425770103931427e-03" rms="3.9338377118110657e-01" purity="5.2174913883209229e-01" nType="0">
            <Node pos="l" depth="3" NCoef="0" IVar="-1" Cut="0.0000000000000000e+00" cType="1" res="-2.2731975186616182e-03" rms="4.1000059247016907e-01" purity="3.2624927163124084e-01" nType="-99"/>
            <Node pos="r" depth="3" NCoef="0" IVar="-1" Cut="0.0000000000000000e+00" cType="1" res="5.3329747170209885e-03" rms="3.7552148103713989e-01" purity="7.2191363573074341e-01" nType="-99"/>
          </Node>
          <Node pos="r" depth="2" NCoef="0" IVar="7" Cut="-3.9965209364891052e-01" cType="1" res="-1.6475670039653778e-02" rms="3.2793822884559631e-01" purity="2.3952133953571320e-01" nType="0">
            <Node pos="l" depth="3" NCoef="0" IVar="-1" Cut="0.0000000000000000e+00" cType="1" res="-3.7697818130254745e-02" rms="3.0269595980644226e-01" purity="1.7689639329910278e-01" nType="-99"/>
            <Node pos="r" depth="3" NCoef="0" IVar="-1" Cut="0.0000000000000000e+00" cType="1" res="-2.6696724817156792e-03" rms="3.3903247117996216e-01" purity="2.7064570784568787e-01" nType="-99"/>
          </Node>
        </Node>
        <Node pos="r" depth="1" NCoef="0" IVar="9" Cut="1.3336287438869476e-01" cType="1" res="-2.0368477329611778e-02" rms="3.9979976415634155e-01" purity="5.7712829113006592e-01" nType="0">
          <Node pos="l" depth="2" NCoef="0" IVar="-1" Cut="0.0000000000000000e+00" cType="1" res="-2.0462954416871071e-02" rms="4.0090328454971313e-01" purity="5.5941462516784668e-01" nType="-99"/>
          <Node pos="r" depth="2" NCoef="0" IVar="-1" Cut="0.0000000000000000e+00" cType="1" res="-2.8610457666218281e-03" rms="3.9801129698753357e-01" purity="5.9652054309844971e-01" nType="-99"/>
        </Node>
      </Node>
    </BinaryTree>
    <BinaryTree type="DecisionTree" boostWeight="1.0000000000000000e+00" itree="123">
      <Node pos="s" depth="0" NCoef="0" IVar="9" Cut="-1.7333042621612549e+00" cType="1" res="2.3387288092635572e-04" rms="3.9035943150520325e-01" purity="4.9956345558166504e-01" nType="0">
        <Node pos="l" depth="1" NCoef="0" IVar="0" Cut="4.0174871826171875e+02" cType="1" res="3.0385052785277367e-02" rms="3.8972419500350952e-01" purity="3.9956086874008179e-01" nType="0">
          <Node pos="l" depth="2" NCoef="0" IVar="-1" Cut="0.0000000000000000e+00" cType="1" res="1.0631679557263851e-02" rms="3.6109438538551331e-01" purity="2.4494852125644684e-01" nType="-99"/>
          <Node pos="r" depth="2" NCoef="0" IVar="-1" Cut="0.0000000000000000e+00" cType="1" res="2.7206026017665863e-02" rms="4.1570580005645752e-01" purity="5.5379140377044678e-01" nType="-99"/>
        </Node>
        <Node pos="r" depth="1" NCoef="0" IVar="8" Cut="-1.7333230972290039e+00" cType="1" res="-2.6796159800142050e-03" rms="3.9029735326766968e-01" purity="5.0922662019729614e-01" nType="0">
          <Node pos="l" depth="2" NCoef="0" IVar="7" Cut="-3.9989200234413147e-01" cType="1" res="1.8316948786377907e-02" rms="3.8685640692710876e-01" purity="3.0927896499633789e-01" nType="0">
            <Node pos="l" depth="3" NCoef="0" IVar="-1" Cut="0.0000000000000000e+00" cType="1" res="3.2627575099468231e-02" rms="3.8840883970260620e-01" purity="3.0973958969116211e-01" nType="-99"/>
            <Node pos="r" depth="3" NCoef="0" IVar="-1" Cut="0.0000000000000000e+00" cType="1" res="-1.8503922037780285e-03" rms="3.8431185483932495e-01" purity="3.0890646576881409e-01" nType="-99"/>
          </Node>
          <Node pos="r" depth="2" NCoef="0" IVar="6" Cut="-3.7438645958900452e-01" cType="1" res="-4.2190672829747200e-03" rms="3.9050403237342834e-01" purity="5.2388662099838257e-01" nType="0">
            <Node pos="l" depth="3" NCoef="0" IVar="-1" Cut="0.0000000000000000e+00" cType="1" res="-8.0325687304139137e-03" rms="3.9034533500671387e-01" purity="4.6628046035766602e-01" nType="-99"/>
            <Node pos="r" depth="3" NCoef="0" IVar="-1" Cut="0.0000000000000000e+00" cType="1" res="-6.4242827647831291e-05" rms="3.9051729440689087e-01" purity="5.5248671770095825e-01" nType="-99"/>
          </Node>
        </Node>
      </Node>
    </BinaryTree>
    <BinaryTree type="DecisionTree" boostWeight="1.0000000000000000e+00" itree="124">
      <Node pos="s" depth="0" NCoef="0" IVar="6" Cut="1.4707406759262085e+00" cType="1" res="-2.1048789494670928e-04" rms="3.8789820671081543e-01" purity="4.9889141321182251e-01" nType="0">
        <Node pos="l" depth="1" NCoef="0" IVar="9" Cut="1.4666485786437988e+00" cType="1" res="-2.2315417882055044e-03" rms="3.9053058624267578e-01" purity="5.1867622137069702e-01" nType="0">
          <Node pos="l" depth="2" NCoef="0" IVar="6" Cut="-7.5726902484893799e-01" cType="1" res="-4.7732945531606674e-03" rms="3.8901910185813904e-01" purity="5.2925527095794678e-01" nType="0">
            <Node pos="l" depth="3" NCoef="0" IVar="-1" Cut="0.0000000000000000e+00" cType="1" res="-1.2206665240228176e-02" rms="3.6940228939056396e-01" purity="3.5154131054878235e-01" nType="-99"/>
            <Node pos="r" depth="3" NCoef="0" IVar="-1" Cut="0.0000000000000000e+00" cType="1" res="-6.4830522751435637e-04" rms="3.9446133375167847e-01" purity="5.8093041181564331e-01" nType="-99"/>
          </Node>
          <Node pos="r" depth="2" NCoef="0" IVar="8" Cut="9.3287128210067749e-01" cType="1" res="1.5818506479263306e-02" rms="4.0063676238059998e-01" purity="4.4354987144470215e-01" nType="0">
            <Node pos="l" depth="3" NCoef="0" IVar="-1" Cut="0.0000000000000000e+00" cType="1" res="3.7997632753103971e-03" rms="4.0279185771942139e-01" purity="4.7617867588996887e-01" nType="-99"/>
            <Node pos="r" depth="3" NCoef="0" IVar="-1" Cut="0.0000000000000000e+00" cType="1" res="2.9843823984265327e-02" rms="3.9331597089767456e-01" purity="3.5266676545143127e-01" nType="-99"/>
          </Node>
        </Node>
        <Node pos="r" depth="1" NCoef="0" IVar="3" Cut="1.8847813415527344e+02" cType="1" res="2.7397856116294861e-02" rms="3.4879097342491150e-01" purity="2.2862425446510315e-01" nType="0">
          <Node pos="l" depth="2" NCoef="0" IVar="-1" Cut="0.0000000000000000e+00" cType="1" res="5.5793266743421555e-02" rms="3.3874464035034180e-01" purity="1.6978257894515991e-01" nType="-99"/>
          <Node pos="r" depth="2" NCoef="0" IVar="-1" Cut="0.0000000000000000e+00" cType="1" res="-2.1313771139830351e-03" rms="3.6033114790916443e-01" purity="3.1183308362960815e-01" nType="-99"/>
        </Node>
      </Node>
    </BinaryTree>
    <BinaryTree type="DecisionTree" boostWeight="1.0000000000000000e+00" itree="125">
      <Node pos="s" depth="0" NCoef="0" IVar="8" Cut="-4.0001139044761658e-01" cType="1" res="5.1010638708248734e-04" rms="3.8667038083076477e-01" purity="5.0261229276657104e-01" nType="0">
        <Node pos="l" depth="1" NCoef="0" IVar="4" Cut="9.9594398498535156e+01" cType="1" res="-7.3026656173169613e-03" rms="3.8810688257217407e-01" purity="4.5900788903236389e-01" nType="0">
          <Node pos="l" depth="2" NCoef="0" IVar="4" Cut="9.0182250976562500e+01" cType="1" res="7.4883056804537773e-03" rms="3.7457448244094849e-01" purity="2.3744834959506989e-01" nType="0">
            <Node pos="l" depth="3" NCoef="0" IVar="-1" Cut="0.0000000000000000e+00" cType="1" res="1.3842206448316574e-02" rms="3.7455683946609497e-01" purity="2.2087416052818298e-01" nType="-99"/>
            <Node pos="r" depth="3" NCoef="0" IVar="-1" Cut="0.0000000000000000e+00" cType="1" res="-1.7016097903251648e-02" rms="3.7250888347625732e-01" purity="2.9308313131332397e-01" nType="-99"/>
          </Node>
          <Node pos="r" depth="2" NCoef="0" IVar="0" Cut="5.4941656494140625e+02" cType="1" res="-1.4872684143483639e-02" rms="3.9463898539543152e-01" purity="5.7240211963653564e-01" nType="0">
            <Node pos="l" depth="3" NCoef="0" IVar="-1" Cut="0.0000000000000000e+00" cType="1" res="-1.1905805207788944e-02" rms="4.0844795107841492e-01" purity="4.9337118864059448e-01" nType="-99"/>
            <Node pos="r" depth="3" NCoef="0" IVar="-1" Cut="0.0000000000000000e+00" cType="1" res="1.9477299647405744e-03" rms="3.4768122434616089e-01" purity="8.1801062822341919e-01" nType="-99"/>
          </Node>
        </Node>
        <Node pos="r" depth="1" NCoef="0" IVar="7" Cut="9.3328541517257690e-01" cType="1" res="4.9128518439829350e-03" rms="3.8578879833221436e-01" purity="5.2718472480773926e-01" nType="0">
          <Node pos="l" depth="2" NCoef="0" IVar="7" Cut="-3.1113311648368835e-01" cType="1" res="8.3763664588332176e-03" rms="3.8817012310028076e-01" purity="5.6794446706771851e-01" nType="0">
            <Node pos="l" depth="3" NCoef="0" IVar="-1" Cut="0.0000000000000000e+00" cType="1" res="9.1306993272155523e-04" rms="3.8558217883110046e-01" purity="5.0108432769775391e-01" nType="-99"/>
            <Node pos="r" depth="3" NCoef="0" IVar="-1" Cut="0.0000000000000000e+00" cType="1" res="9.0403826907277107e-03" rms="3.9009597897529602e-01" purity="6.2027466297149658e-01" nType="-99"/>
          </Node>
          <Node pos="r" depth="2" NCoef="0" IVar="5" Cut="8.5092811584472656e+01" cType="1" res="-8.3269039168953896e-03" rms="3.7625333666801453e-01" purity="3.7137487530708313e-01" nType="0">
            <Node pos="l" depth="3" NCoef="0" IVar="-1" Cut="0.0000000000000000e+00" cType="1" res="-1.5842331573367119e-02" rms="3.5465452075004578e-01" purity="2.1587373316287994e-01" nType="-99"/>
            <Node pos="r" depth="3" NCoef="0" IVar="-1" Cut="0.0000000000000000e+00" cType="1" res="5.9290886856615543e-03" rms="4.0382960438728333e-01" purity="5.8900374174118042e-01" nType="-99"/>
          </Node>
        </Node>
      </Node>
    </BinaryTree>
    <BinaryTree type="DecisionTree" boostWeight="1.0000000000000000e+00" itree="126">
      <Node pos="s" depth="0" NCoef="0" IVar="7" Cut="-3.9984539151191711e-01" cType="1" res="1.6652168706059456e-03" rms="3.8916441798210144e-01" purity="4.9835044145584106e-01" nType="0">
        <Node pos="l" depth="1" NCoef="0" IVar="9" Cut="1.7333121299743652e+00" cType="1" res="-7.1652880869805813e-03" rms="3.8286539912223816e-01" purity="4.4547620415687561e-01" nType="0">
          <Node pos="l" depth="2" NCoef="0" IVar="9" Cut="-2.0956993103027344e-01" cType="1" res="-4.2894179932773113e-03" rms="3.8465487957000732e-01" purity="4.5827320218086243e-01" nType="0">
            <Node pos="l" depth="3" NCoef="0" IVar="-1" Cut="0.0000000000000000e+00" cType="1" res="-9.6498141065239906e-03" rms="3.8064083456993103e-01" purity="4.1588568687438965e-01" nType="-99"/>
            <Node pos="r" depth="3" NCoef="0" IVar="-1" Cut="0.0000000000000000e+00" cType="1" res="4.5569315552711487e-03" rms="3.8876661658287048e-01" purity="5.0551706552505493e-01" nType="-99"/>
          </Node>
          <Node pos="r" depth="2" NCoef="0" IVar="-1" Cut="0.0000000000000000e+00" cType="1" res="-3.2008431851863861e-02" rms="3.5675382614135742e-01" purity="2.7949738502502441e-01" nType="-99"/>
        </Node>
        <Node pos="r" depth="1" NCoef="0" IVar="5" Cut="7.7251663208007812e+01" cType="1" res="6.4528943039476871e-03" rms="3.9245426654815674e-01" purity="5.2701753377914429e-01" nType="0">
          <Node pos="l" depth="2" NCoef="0" IVar="5" Cut="7.2060806274414062e+01" cType="1" res="1.2300211936235428e-02" rms="4.0163949131965637e-01" purity="3.4330710768699646e-01" nType="0">
            <Node pos="l" depth="3" NCoef="0" IVar="-1" Cut="0.0000000000000000e+00" cType="1" res="4.9789268523454666e-03" rms="3.9597430825233459e-01" purity="3.2373231649398804e-01" nType="-99"/>
            <Node pos="r" depth="3" NCoef="0" IVar="-1" Cut="0.0000000000000000e+00" cType="1" res="2.2189589217305183e-02" rms="4.3137657642364502e-01" purity="4.5411899685859680e-01" nType="-99"/>
          </Node>
          <Node pos="r" depth="2" NCoef="0" IVar="4" Cut="1.2552001190185547e+02" cType="1" res="1.7021707026287913e-03" rms="3.8476482033729553e-01" purity="6.7627531290054321e-01" nType="0">
            <Node pos="l" depth="3" NCoef="0" IVar="-1" Cut="0.0000000000000000e+00" cType="1" res="-6.0302731581032276e-03" rms="4.2355218529701233e-01" purity="4.7554838657379150e-01" nType="-99"/>
            <Node pos="r" depth="3" NCoef="0" IVar="-1" Cut="0.0000000000000000e+00" cType="1" res="4.5362310484051704e-03" rms="3.6958727240562439e-01" purity="7.4907201528549194e-01" nType="-99"/>
          </Node>
        </Node>
      </Node>
    </BinaryTree>
    <BinaryTree type="DecisionTree" boostWeight="1.0000000000000000e+00" itree="127">
      <Node pos="s" depth="0" NCoef="0" IVar="2" Cut="6.5103533935546875e+02" cType="1" res="1.9206487340852618e-03" rms="3.8931432366371155e-01" purity="5.0178188085556030e-01" nType="0">
        <Node pos="l" depth="1" NCoef="0" IVar="7" Cut="-6.6658198833465576e-01" cType="1" res="3.7873820401728153e-03" rms="3.8847884535789490e-01" purity="4.9822446703910828e-01" nType="0">
          <Node pos="l" depth="2" NCoef="0" IVar="9" Cut="1.4664883613586426e+00" cType="1" res="1.3890441507101059e-02" rms="3.8501486182212830e-01" purity="4.2119273543357849e-01" nType="0">
            <Node pos="l" depth="3" NCoef="0" IVar="-1" Cut="0.0000000000000000e+00" cType="1" res="1.1740840971469879e-02" rms="3.8880592584609985e-01" purity="4.3328276276588440e-01" nType="-99"/>
            <Node pos="r" depth="3" NCoef="0" IVar="-1" Cut="0.0000000000000000e+00" cType="1" res="-1.3969376683235168e-02" rms="3.4940481185913086e-01" purity="3.1847062706947327e-01" nType="-99"/>
          </Node>
          <Node pos="r" depth="2" NCoef="0" IVar="3" Cut="1.9226809692382812e+02" cType="1" res="3.8506830605911091e-05" rms="3.8968971371650696e-01" purity="5.2680814266204834e-01" nType="0">
            <Node pos="l" depth="3" NCoef="0" IVar="-1" Cut="0.0000000000000000e+00" cType="1" res="-4.4389562681317329e-03" rms="3.9719411730766296e-01" purity="3.5161060094833374e-01" nType="-99"/>
            <Node pos="r" depth="3" NCoef="0" IVar="-1" Cut="0.0000000000000000e+00" cType="1" res="4.1034813039004803e-03" rms="3.8309854269027710e-01" purity="6.7561197280883789e-01" nType="-99"/>
          </Node>
        </Node>
        <Node pos="r" depth="1" NCoef="0" IVar="3" Cut="3.0543981933593750e+02" cType="1" res="-3.0891260132193565e-02" rms="4.0230581164360046e-01" purity="5.6431019306182861e-01" nType="0">
          <Node pos="l" depth="2" NCoef="0" IVar="-1" Cut="0.0000000000000000e+00" cType="1" res="-3.3458281308412552e-02" rms="3.8859695196151733e-01" purity="5.0671839714050293e-01" nType="-99"/>
          <Node pos="r" depth="2" NCoef="0" IVar="-1" Cut="0.0000000000000000e+00" cType="1" res="-3.6442903801798820e-03" rms="4.1338241100311279e-01" purity="6.1899000406265259e-01" nType="-99"/>
        </Node>
      </Node>
    </BinaryTree>
    <BinaryTree type="DecisionTree" boostWeight="1.0000000000000000e+00" itree="128">
      <Node pos="s" depth="0" NCoef="0" IVar="2" Cut="6.5103710937500000e+02" cType="1" res="7.1039068279787898e-04" rms="3.8999339938163757e-01" purity="5.0002354383468628e-01" nType="0">
        <Node pos="l" depth="1" NCoef="0" IVar="1" Cut="9.6053668212890625e+02" cType="1" res="-1.0299854911863804e-03" rms="3.8875141739845276e-01" purity="4.9312481284141541e-01" nType="0">
          <Node pos="l" depth="2" NCoef="0" IVar="6" Cut="6.8300139904022217e-01" cType="1" res="-1.4380128122866154e-02" rms="3.3937194943428040e-01" purity="1.4689633250236511e-01" nType="0">
            <Node pos="l" depth="3" NCoef="0" IVar="-1" Cut="0.0000000000000000e+00" cType="1" res="-1.9157186150550842e-02" rms="3.4839531779289246e-01" purity="1.5792356431484222e-01" nType="-99"/>
            <Node pos="r" depth="3" NCoef="0" IVar="-1" Cut="0.0000000000000000e+00" cType="1" res="1.2369867414236069e-02" rms="3.1608235836029053e-01" purity="1.2142558395862579e-01" nType="-99"/>
          </Node>
          <Node pos="r" depth="2" NCoef="0" IVar="2" Cut="5.4364733886718750e+02" cType="1" res="1.2386674061417580e-03" rms="3.9648723602294922e-01" purity="5.5196100473403931e-01" nType="0">
            <Node pos="l" depth="3" NCoef="0" IVar="-1" Cut="0.0000000000000000e+00" cType="1" res="1.9706715829670429e-03" rms="3.9664399623870850e-01" purity="5.5471193790435791e-01" nType="-99"/>
            <Node pos="r" depth="3" NCoef="0" IVar="-1" Cut="0.0000000000000000e+00" cType="1" res="-1.2597692199051380e-02" rms="3.9414110779762268e-01" purity="5.2127242088317871e-01" nType="-99"/>
          </Node>
        </Node>
        <Node pos="r" depth="1" NCoef="0" IVar="7" Cut="-1.3298109173774719e-01" cType="1" res="2.8402181342244148e-02" rms="4.0825125575065613e-01" purity="6.0979193449020386e-01" nType="0">
          <Node pos="l" depth="2" NCoef="0" IVar="-1" Cut="0.0000000000000000e+00" cType="1" res="3.2537333667278290e-02" rms="4.0072423219680786e-01" purity="6.3864123821258545e-01" nType="-99"/>
          <Node pos="r" depth="2" NCoef="0" IVar="-1" Cut="0.0000000000000000e+00" cType="1" res="1.0532269952818751e-03" rms="4.1331547498703003e-01" purity="5.8311808109283447e-01" nType="-99"/>
        </Node>
      </Node>
    </BinaryTree>
    <BinaryTree type="DecisionTree" boostWeight="1.0000000000000000e+00" itree="129">
      <Node pos="s" depth="0" NCoef="0" IVar="7" Cut="2.0000209808349609e+00" cType="1" res="1.3659298419952393e-03" rms="3.8979935646057129e-01" purity="5.0033706426620483e-01" nType="0">
        <Node pos="l" depth="1" NCoef="0" IVar="7" Cut="-1.1998904943466187e+00" cType="1" res="2.3616491816937923e-03" rms="3.9219298958778381e-01" purity="5.1227176189422607e-01" nType="0">
          <Node pos="l" depth="2" NCoef="0" IVar="4" Cut="1.5679272460937500e+02" cType="1" res="-8.8342921808362007e-03" rms="3.6048424243927002e-01" purity="2.9541778564453125e-01" nType="0">
            <Node pos="l" depth="3" NCoef="0" IVar="-1" Cut="0.0000000000000000e+00" cType="1" res="-1.2415205128490925e-02" rms="3.4044227004051208e-01" purity="2.1791939437389374e-01" nType="-99"/>
            <Node pos="r" depth="3" NCoef="0" IVar="-1" Cut="0.0000000000000000e+00" cType="1" res="9.0455748140811920e-03" rms="4.1989657282829285e-01" purity="5.5548179149627686e-01" nType="-99"/>
          </Node>
          <Node pos="r" depth="2" NCoef="0" IVar="6" Cut="-1.4394055604934692e+00" cType="1" res="4.1131433099508286e-03" rms="3.9689588546752930e-01" purity="5.4619646072387695e-01" nType="0">
            <Node pos="l" depth="3" NCoef="0" IVar="-1" Cut="0.0000000000000000e+00" cType="1" res="1.9668821245431900e-02" rms="3.7246379256248474e-01" purity="2.6738139986991882e-01" nType="-99"/>
            <Node pos="r" depth="3" NCoef="0" IVar="-1" Cut="0.0000000000000000e+00" cType="1" res="1.7041875980794430e-03" rms="3.9849278330802917e-01" purity="5.6550091505050659e-01" nType="-99"/>
          </Node>
        </Node>
        <Node pos="r" depth="1" NCoef="0" IVar="-1" Cut="0.0000000000000000e+00" cType="1" res="-2.3563165217638016e-02" rms="3.1238141655921936e-01" purity="1.5907523036003113e-01" nType="-99"/>
      </Node>
    </BinaryTree>
    <BinaryTree type="DecisionTree" boostWeight="1.0000000000000000e+00" itree="130">
      <Node pos="s" depth="0" NCoef="0" IVar="0" Cut="4.4703997802734375e+02" cType="1" res="4.0951073169708252e-03" rms="3.9030236005783081e-01" purity="5.0455236434936523e-01" nType="0">
        <Node pos="l" depth="1" NCoef="0" IVar="3" Cut="1.5338966369628906e+02" cType="1" res="9.3104708939790726e-03" rms="3.9883768558502197e-01" purity="3.6795368790626526e-01" nType="0">
          <Node pos="l" depth="2" NCoef="0" IVar="6" Cut="-1.1481027305126190e-01" cType="1" res="-3.6246608942747116e-03" rms="3.5462483763694763e-01" purity="1.8859714269638062e-01" nType="0">
            <Node pos="l" depth="3" NCoef="0" IVar="-1" Cut="0.0000000000000000e+00" cType="1" res="-1.8042856827378273e-02" rms="3.3178004622459412e-01" purity="1.6355884075164795e-01" nType="-99"/>
            <Node pos="r" depth="3" NCoef="0" IVar="-1" Cut="0.0000000000000000e+00" cType="1" res="8.8305426761507988e-03" rms="3.7138915061950684e-01" purity="2.0885299146175385e-01" nType="-99"/>
          </Node>
          <Node pos="r" depth="2" NCoef="0" IVar="7" Cut="1.4663053750991821e+00" cType="1" res="1.5836862847208977e-02" rms="4.1922828555107117e-01" purity="4.5844763517379761e-01" nType="0">
            <Node pos="l" depth="3" NCoef="0" IVar="-1" Cut="0.0000000000000000e+00" cType="1" res="1.0638933628797531e-02" rms="4.2446699738502502e-01" purity="4.8178401589393616e-01" nType="-99"/>
            <Node pos="r" depth="3" NCoef="0" IVar="-1" Cut="0.0000000000000000e+00" cType="1" res="-1.3555641286075115e-02" rms="3.5769805312156677e-01" purity="2.1299667656421661e-01" nType="-99"/>
          </Node>
        </Node>
        <Node pos="r" depth="1" NCoef="0" IVar="7" Cut="-1.1999006271362305e+00" cType="1" res="-3.5356490407139063e-03" rms="3.7733659148216248e-01" purity="7.0441401004791260e-01" nType="0">
          <Node pos="l" depth="2" NCoef="0" IVar="-1" Cut="0.0000000000000000e+00" cType="1" res="1.3974696397781372e-02" rms="4.0056061744689941e-01" purity="5.4378843307495117e-01" nType="-99"/>
          <Node pos="r" depth="2" NCoef="0" IVar="6" Cut="-1.1878567934036255e+00" cType="1" res="-6.7959022708237171e-03" rms="3.7435939908027649e-01" purity="7.2341853380203247e-01" nType="0">
            <Node pos="l" depth="3" NCoef="0" IVar="-1" Cut="0.0000000000000000e+00" cType="1" res="1.4874428510665894e-02" rms="4.1020512580871582e-01" purity="5.4499292373657227e-01" nType="-99"/>
            <Node pos="r" depth="3" NCoef="0" IVar="-1" Cut="0.0000000000000000e+00" cType="1" res="-7.1018603630363941e-03" rms="3.7092310190200806e-01" purity="7.3904579877853394e-01" nType="-99"/>
          </Node>
        </Node>
      </Node>
    </BinaryTree>
    <BinaryTree type="DecisionTree" boostWeight="1.0000000000000000e+00" itree="131">
      <Node pos="s" depth="0" NCoef="0" IVar="6" Cut="-6.5597492456436157e-01" cType="1" res="-2.4015740491449833e-03" rms="3.8775286078453064e-01" purity="4.9884030222892761e-01" nType="0">
        <Node pos="l" depth="1" NCoef="0" IVar="6" Cut="-7.5724887847900391e-01" cType="1" res="8.1589361652731895e-03" rms="3.8441553711891174e-01" purity="3.9885023236274719e-01" nType="0">
          <Node pos="l" depth="2" NCoef="0" IVar="9" Cut="-1.3329076766967773e-01" cType="1" res="2.1287798881530762e-03" rms="3.7888571619987488e-01" purity="3.7158384919166565e-01" nType="0">
            <Node pos="l" depth="3" NCoef="0" IVar="-1" Cut="0.0000000000000000e+00" cType="1" res="-5.3383070044219494e-03" rms="3.7623792886734009e-01" purity="3.4511056542396545e-01" nType="-99"/>
            <Node pos="r" depth="3" NCoef="0" IVar="-1" Cut="0.0000000000000000e+00" cType="1" res="8.7005989626049995e-03" rms="3.8149252533912659e-01" purity="4.0063846111297607e-01" nType="-99"/>
          </Node>
          <Node pos="r" depth="2" NCoef="0" IVar="-1" Cut="0.0000000000000000e+00" cType="1" res="2.8047276660799980e-02" rms="4.1599398851394653e-01" purity="5.7323729991912842e-01" nType="-99"/>
        </Node>
        <Node pos="r" depth="1" NCoef="0" IVar="1" Cut="1.6663222656250000e+03" cType="1" res="-5.8669960126280785e-03" rms="3.8877925276756287e-01" purity="5.3165191411972046e-01" nType="0">
          <Node pos="l" depth="2" NCoef="0" IVar="0" Cut="4.8436669921875000e+02" cType="1" res="-8.4696235135197639e-03" rms="4.0040633082389832e-01" purity="4.6434420347213745e-01" nType="0">
            <Node pos="l" depth="3" NCoef="0" IVar="-1" Cut="0.0000000000000000e+00" cType="1" res="-7.3588998056948185e-03" rms="4.0411534905433655e-01" purity="3.9137816429138184e-01" nType="-99"/>
            <Node pos="r" depth="3" NCoef="0" IVar="-1" Cut="0.0000000000000000e+00" cType="1" res="2.6811650022864342e-03" rms="3.8758653402328491e-01" purity="7.0637786388397217e-01" nType="-99"/>
          </Node>
          <Node pos="r" depth="2" NCoef="0" IVar="6" Cut="4.9381437897682190e-01" cType="1" res="5.2433074451982975e-03" rms="3.3440387248992920e-01" purity="8.1898057460784912e-01" nType="0">
            <Node pos="l" depth="3" NCoef="0" IVar="-1" Cut="0.0000000000000000e+00" cType="1" res="-3.8450837600976229e-03" rms="3.1877833604812622e-01" purity="8.4167248010635376e-01" nType="-99"/>
            <Node pos="r" depth="3" NCoef="0" IVar="-1" Cut="0.0000000000000000e+00" cType="1" res="1.7122333869338036e-02" rms="3.6290809512138367e-01" purity="7.7363467216491699e-01" nType="-99"/>
          </Node>
        </Node>
      </Node>
    </BinaryTree>
    <BinaryTree type="DecisionTree" boostWeight="1.0000000000000000e+00" itree="132">
      <Node pos="s" depth="0" NCoef="0" IVar="4" Cut="1.4475311279296875e+02" cType="1" res="3.5045261029154062e-03" rms="3.9214500784873962e-01" purity="5.0202387571334839e-01" nType="0">
        <Node pos="l" depth="1" NCoef="0" IVar="0" Cut="5.7298413085937500e+02" cType="1" res="9.0747289359569550e-03" rms="4.0152728557586670e-01" purity="3.7256297469139099e-01" nType="0">
          <Node pos="l" depth="2" NCoef="0" IVar="1" Cut="9.0041143798828125e+02" cType="1" res="1.1331782676279545e-02" rms="4.0033254027366638e-01" purity="3.2780185341835022e-01" nType="0">
            <Node pos="l" depth="3" NCoef="0" IVar="-1" Cut="0.0000000000000000e+00" cType="1" res="-7.3964684270322323e-03" rms="3.1435027718544006e-01" purity="1.2503322958946228e-01" nType="-99"/>
            <Node pos="r" depth="3" NCoef="0" IVar="-1" Cut="0.0000000000000000e+00" cType="1" res="8.7270997464656830e-03" rms="4.1208660602569580e-01" purity="3.5952842235565186e-01" nType="-99"/>
          </Node>
          <Node pos="r" depth="2" NCoef="0" IVar="1" Cut="1.6100646972656250e+03" cType="1" res="-6.6008199937641621e-03" rms="4.0938574075698853e-01" purity="6.8343502283096313e-01" nType="0">
            <Node pos="l" depth="3" NCoef="0" IVar="-1" Cut="0.0000000000000000e+00" cType="1" res="-1.3635325245559216e-02" rms="4.1314765810966492e-01" purity="6.5293467044830322e-01" nType="-99"/>
            <Node pos="r" depth="3" NCoef="0" IVar="-1" Cut="0.0000000000000000e+00" cType="1" res="7.0838467217981815e-03" rms="4.0424671769142151e-01" purity="7.1843153238296509e-01" nType="-99"/>
          </Node>
        </Node>
        <Node pos="r" depth="1" NCoef="0" IVar="8" Cut="9.3261450529098511e-01" cType="1" res="-5.5593363940715790e-03" rms="3.7620231509208679e-01" purity="7.1268326044082642e-01" nType="0">
          <Node pos="l" depth="2" NCoef="0" IVar="8" Cut="-1.0222687721252441e+00" cType="1" res="-1.9555527251213789e-03" rms="3.6960753798484802e-01" purity="7.3678159713745117e-01" nType="0">
            <Node pos="l" depth="3" NCoef="0" IVar="-1" Cut="0.0000000000000000e+00" cType="1" res="-1.5070698224008083e-02" rms="4.1159594058990479e-01" purity="5.7975965738296509e-01" nType="-99"/>
            <Node pos="r" depth="3" NCoef="0" IVar="-1" Cut="0.0000000000000000e+00" cType="1" res="2.2357469424605370e-03" rms="3.5959744453430176e-01" purity="7.7107387781143188e-01" nType="-99"/>
          </Node>
          <Node pos="r" depth="2" NCoef="0" IVar="7" Cut="3.9820009469985962e-01" cType="1" res="-2.2902330383658409e-02" rms="4.0599820017814636e-01" purity="5.9671157598495483e-01" nType="0">
            <Node pos="l" depth="3" NCoef="0" IVar="-1" Cut="0.0000000000000000e+00" cType="1" res="-2.2133249789476395e-02" rms="4.0092840790748596e-01" purity="6.0568857192993164e-01" nType="-99"/>
            <Node pos="r" depth="3" NCoef="0" IVar="-1" Cut="0.0000000000000000e+00" cType="1" res="-3.7300440017133951e-03" rms="4.1220766305923462e-01" purity="5.8450067043304443e-01" nType="-99"/>
          </Node>
        </Node>
      </Node>
    </BinaryTree>
    <BinaryTree type="DecisionTree" boostWeight="1.0000000000000000e+00" itree="133">
      <Node pos="s" depth="0" NCoef="0" IVar="6" Cut="1.7396409511566162e+00" cType="1" res="-4.6655824407935143e-03" rms="3.8566362857818604e-01" purity="4.9957028031349182e-01" nType="0">
        <Node pos="l" depth="1" NCoef="0" IVar="2" Cut="3.4031610107421875e+02" cType="1" res="-3.6809530574828386e-03" rms="3.8910996913909912e-01" purity="5.1328313350677490e-01" nType="0">
          <Node pos="l" depth="2" NCoef="0" IVar="1" Cut="9.9592517089843750e+02" cType="1" res="1.6263184370473027e-03" rms="3.9613237977027893e-01" purity="4.8139968514442444e-01" nType="0">
            <Node pos="l" depth="3" NCoef="0" IVar="-1" Cut="0.0000000000000000e+00" cType="1" res="-9.6289897337555885e-03" rms="3.6127969622612000e-01" purity="1.8430925905704498e-01" nType="-99"/>
            <Node pos="r" depth="3" NCoef="0" IVar="-1" Cut="0.0000000000000000e+00" cType="1" res="5.1077441312372684e-03" rms="4.1128003597259521e-01" purity="6.2075865268707275e-01" nType="-99"/>
          </Node>
          <Node pos="r" depth="2" NCoef="0" IVar="6" Cut="8.8164740800857544e-01" cType="1" res="-8.7370239198207855e-03" rms="3.8223141431808472e-01" purity="5.4365742206573486e-01" nType="0">
            <Node pos="l" depth="3" NCoef="0" IVar="-1" Cut="0.0000000000000000e+00" cType="1" res="-3.4139873459935188e-03" rms="3.8431021571159363e-01" purity="5.7006347179412842e-01" nType="-99"/>
            <Node pos="r" depth="3" NCoef="0" IVar="-1" Cut="0.0000000000000000e+00" cType="1" res="-2.2851197049021721e-02" rms="3.6713674664497375e-01" purity="3.6732786893844604e-01" nType="-99"/>
          </Node>
        </Node>
        <Node pos="r" depth="1" NCoef="0" IVar="-1" Cut="0.0000000000000000e+00" cType="1" res="-2.9162231832742691e-02" rms="2.8147560358047485e-01" purity="1.4604070782661438e-01" nType="-99"/>
      </Node>
    </BinaryTree>
    <BinaryTree type="DecisionTree" boostWeight="1.0000000000000000e+00" itree="134">
      <Node pos="s" depth="0" NCoef="0" IVar="9" Cut="1.3333277404308319e-01" cType="1" res="-1.0357386199757457e-03" rms="3.8759604096412659e-01" purity="5.0191026926040649e-01" nType="0">
        <Node pos="l" depth="1" NCoef="0" IVar="4" Cut="1.4443959045410156e+02" cType="1" res="5.1890709437429905e-03" rms="3.8987988233566284e-01" purity="5.1414072513580322e-01" nType="0">
          <Node pos="l" depth="2" NCoef="0" IVar="6" Cut="4.1530865430831909e-01" cType="1" res="1.0115955956280231e-02" rms="4.0173065662384033e-01" purity="3.8331702351570129e-01" nType="0">
            <Node pos="l" depth="3" NCoef="0" IVar="-1" Cut="0.0000000000000000e+00" cType="1" res="2.0863290410488844e-03" rms="4.0367448329925537e-01" purity="3.9844545722007751e-01" nType="-99"/>
            <Node pos="r" depth="3" NCoef="0" IVar="-1" Cut="0.0000000000000000e+00" cType="1" res="1.7045699059963226e-02" rms="3.9675876498222351e-01" purity="3.4829956293106079e-01" nType="-99"/>
          </Node>
          <Node pos="r" depth="2" NCoef="0" IVar="9" Cut="-2.8570312261581421e-01" cType="1" res="-2.6709500234574080e-03" rms="3.7005361914634705e-01" purity="7.2284811735153198e-01" nType="0">
            <Node pos="l" depth="3" NCoef="0" IVar="-1" Cut="0.0000000000000000e+00" cType="1" res="-5.2837696857750416e-03" rms="3.7606245279312134e-01" purity="7.0176935195922852e-01" nType="-99"/>
            <Node pos="r" depth="3" NCoef="0" IVar="-1" Cut="0.0000000000000000e+00" cType="1" res="7.5499792583286762e-03" rms="3.5364955663681030e-01" purity="7.7762413024902344e-01" nType="-99"/>
          </Node>
        </Node>
        <Node pos="r" depth="1" NCoef="0" IVar="6" Cut="1.4778045415878296e+00" cType="1" res="-8.4955161437392235e-03" rms="3.8470858335494995e-01" purity="4.8725330829620361e-01" nType="0">
          <Node pos="l" depth="2" NCoef="0" IVar="6" Cut="8.7343651056289673e-01" cType="1" res="-6.5301265567541122e-03" rms="3.9066016674041748e-01" purity="5.1500594615936279e-01" nType="0">
            <Node pos="l" depth="3" NCoef="0" IVar="-1" Cut="0.0000000000000000e+00" cType="1" res="-6.1010732315480709e-03" rms="3.9074265956878662e-01" purity="5.3250503540039062e-01" nType="-99"/>
            <Node pos="r" depth="3" NCoef="0" IVar="-1" Cut="0.0000000000000000e+00" cType="1" res="6.8891840055584908e-03" rms="3.8974308967590332e-01" purity="4.1440784931182861e-01" nType="-99"/>
          </Node>
          <Node pos="r" depth="2" NCoef="0" IVar="-1" Cut="0.0000000000000000e+00" cType="1" res="-3.1221913173794746e-02" rms="3.0122935771942139e-01" purity="1.4666618406772614e-01" nType="-99"/>
        </Node>
      </Node>
    </BinaryTree>
    <BinaryTree type="DecisionTree" boostWeight="1.0000000000000000e+00" itree="135">
      <Node pos="s" depth="0" NCoef="0" IVar="2" Cut="7.6126031494140625e+02" cType="1" res="2.6296809664927423e-04" rms="3.9068585634231567e-01" purity="4.9653443694114685e-01" nType="0">
        <Node pos="l" depth="1" NCoef="0" IVar="5" Cut="7.4440597534179688e+01" cType="1" res="1.2670165160670877e-03" rms="3.9023840427398682e-01" purity="4.9327212572097778e-01" nType="0">
          <Node pos="l" depth="2" NCoef="0" IVar="8" Cut="9.3328243494033813e-01" cType="1" res="8.3395484834909439e-03" rms="3.8920220732688904e-01" purity="3.0862402915954590e-01" nType="0">
            <Node pos="l" depth="3" NCoef="0" IVar="-1" Cut="0.0000000000000000e+00" cType="1" res="1.9934352021664381e-03" rms="3.9431193470954895e-01" purity="3.2397976517677307e-01" nType="-99"/>
            <Node pos="r" depth="3" NCoef="0" IVar="-1" Cut="0.0000000000000000e+00" cType="1" res="1.8889918923377991e-02" rms="3.7214940786361694e-01" purity="2.6021829247474670e-01" nType="-99"/>
          </Node>
          <Node pos="r" depth="2" NCoef="0" IVar="0" Cut="5.2219543457031250e+02" cType="1" res="-4.0175030007958412e-03" rms="3.9092734456062317e-01" purity="6.3123917579650879e-01" nType="0">
            <Node pos="l" depth="3" NCoef="0" IVar="-1" Cut="0.0000000000000000e+00" cType="1" res="-5.9523554518818855e-03" rms="4.1816717386245728e-01" purity="5.3517884016036987e-01" nType="-99"/>
            <Node pos="r" depth="3" NCoef="0" IVar="-1" Cut="0.0000000000000000e+00" cType="1" res="9.8864054307341576e-03" rms="3.1736180186271667e-01" purity="8.5699993371963501e-01" nType="-99"/>
          </Node>
        </Node>
        <Node pos="r" depth="1" NCoef="0" IVar="-1" Cut="0.0000000000000000e+00" cType="1" res="-2.1581290289759636e-02" rms="4.0531694889068604e-01" purity="6.1885488033294678e-01" nType="-99"/>
      </Node>
    </BinaryTree>
    <BinaryTree type="DecisionTree" boostWeight="1.0000000000000000e+00" itree="136">
      <Node pos="s" depth="0" NCoef="0" IVar="8" Cut="1.3330928981304169e-01" cType="1" res="-6.8584358086809516e-04" rms="3.8766038417816162e-01" purity="4.9777024984359741e-01" nType="0">
        <Node pos="l" depth="1" NCoef="0" IVar="9" Cut="1.7332789897918701e+00" cType="1" res="3.8757573347538710e-03" rms="3.8927015662193298e-01" purity="5.1226747035980225e-01" nType="0">
          <Node pos="l" depth="2" NCoef="0" IVar="2" Cut="4.9859826660156250e+02" cType="1" res="1.5341810649260879e-03" rms="3.9002272486686707e-01" purity="5.1708996295928955e-01" nType="0">
            <Node pos="l" depth="3" NCoef="0" IVar="-1" Cut="0.0000000000000000e+00" cType="1" res="-1.2726184213533998e-03" rms="3.8918238878250122e-01" purity="5.0254398584365845e-01" nType="-99"/>
            <Node pos="r" depth="3" NCoef="0" IVar="-1" Cut="0.0000000000000000e+00" cType="1" res="1.0798634029924870e-02" rms="3.9341783523559570e-01" purity="5.8282488584518433e-01" nType="-99"/>
          </Node>
          <Node pos="r" depth="2" NCoef="0" IVar="-1" Cut="0.0000000000000000e+00" cType="1" res="1.8969349563121796e-02" rms="3.7990233302116394e-01" purity="4.5901358127593994e-01" nType="-99"/>
        </Node>
        <Node pos="r" depth="1" NCoef="0" IVar="9" Cut="-1.7331248521804810e+00" cType="1" res="-6.2733013182878494e-03" rms="3.8560596108436584e-01" purity="4.8001274466514587e-01" nType="0">
          <Node pos="l" depth="2" NCoef="0" IVar="-1" Cut="0.0000000000000000e+00" cType="1" res="-2.6271726936101913e-02" rms="3.6398851871490479e-01" purity="3.3836001157760620e-01" nType="-99"/>
          <Node pos="r" depth="2" NCoef="0" IVar="6" Cut="-1.1880375146865845e+00" cType="1" res="-3.7856672424823046e-03" rms="3.8710024952888489e-01" purity="4.9086642265319824e-01" nType="0">
            <Node pos="l" depth="3" NCoef="0" IVar="-1" Cut="0.0000000000000000e+00" cType="1" res="-2.7433874085545540e-02" rms="3.2362374663352966e-01" purity="2.3834744095802307e-01" nType="-99"/>
            <Node pos="r" depth="3" NCoef="0" IVar="-1" Cut="0.0000000000000000e+00" cType="1" res="-4.1973474435508251e-04" rms="3.9289709925651550e-01" purity="5.1676517724990845e-01" nType="-99"/>
          </Node>
        </Node>
      </Node>
    </BinaryTree>
    <BinaryTree type="DecisionTree" boostWeight="1.0000000000000000e+00" itree="137">
      <Node pos="s" depth="0" NCoef="0" IVar="9" Cut="3.9999443292617798e-01" cType="1" res="-1.7993017099797726e-03" rms="3.8744741678237915e-01" purity="4.9899545311927795e-01" nType="0">
        <Node pos="l" depth="1" NCoef="0" IVar="6" Cut="-9.0948539972305298e-01" cType="1" res="-8.1702191382646561e-03" rms="3.8676449656486511e-01" purity="5.0657361745834351e-01" nType="0">
          <Node pos="l" depth="2" NCoef="0" IVar="9" Cut="-8.1899595260620117e-01" cType="1" res="7.9346001148223877e-03" rms="3.7116509675979614e-01" purity="3.3355638384819031e-01" nType="0">
            <Node pos="l" depth="3" NCoef="0" IVar="-1" Cut="0.0000000000000000e+00" cType="1" res="-1.2843117117881775e-02" rms="3.4810003638267517e-01" purity="2.4910666048526764e-01" nType="-99"/>
            <Node pos="r" depth="3" NCoef="0" IVar="-1" Cut="0.0000000000000000e+00" cType="1" res="2.0682899281382561e-02" rms="3.8980045914649963e-01" purity="4.1114717721939087e-01" nType="-99"/>
          </Node>
          <Node pos="r" depth="2" NCoef="0" IVar="1" Cut="1.0901937255859375e+03" cType="1" res="-1.1808198876678944e-02" rms="3.9010989665985107e-01" purity="5.4565709829330444e-01" nType="0">
            <Node pos="l" depth="3" NCoef="0" IVar="-1" Cut="0.0000000000000000e+00" cType="1" res="-1.6382226720452309e-02" rms="3.8955372571945190e-01" purity="2.3892220854759216e-01" nType="-99"/>
            <Node pos="r" depth="3" NCoef="0" IVar="-1" Cut="0.0000000000000000e+00" cType="1" res="-4.1621639393270016e-03" rms="3.9017564058303833e-01" purity="6.5894424915313721e-01" nType="-99"/>
          </Node>
        </Node>
        <Node pos="r" depth="1" NCoef="0" IVar="7" Cut="1.7333666086196899e+00" cType="1" res="8.4508629515767097e-03" rms="3.8832435011863708e-01" purity="4.8680296540260315e-01" nType="0">
          <Node pos="l" depth="2" NCoef="0" IVar="8" Cut="-6.6677600145339966e-01" cType="1" res="1.1469187214970589e-02" rms="3.9447036385536194e-01" purity="5.1154696941375732e-01" nType="0">
            <Node pos="l" depth="3" NCoef="0" IVar="-1" Cut="0.0000000000000000e+00" cType="1" res="1.8776964396238327e-02" rms="3.9858525991439819e-01" purity="4.8655092716217041e-01" nType="-99"/>
            <Node pos="r" depth="3" NCoef="0" IVar="-1" Cut="0.0000000000000000e+00" cType="1" res="3.3041832502931356e-03" rms="3.9281016588211060e-01" purity="5.2035850286483765e-01" nType="-99"/>
          </Node>
          <Node pos="r" depth="2" NCoef="0" IVar="-1" Cut="0.0000000000000000e+00" cType="1" res="-2.8054686263203621e-02" rms="2.9233470559120178e-01" purity="1.5958368778228760e-01" nType="-99"/>
        </Node>
      </Node>
    </BinaryTree>
    <BinaryTree type="DecisionTree" boostWeight="1.0000000000000000e+00" itree="138">
      <Node pos="s" depth="0" NCoef="0" IVar="7" Cut="1.2000490427017212e+00" cType="1" res="-7.6241197530180216e-04" rms="3.8761866092681885e-01" purity="4.9864554405212402e-01" nType="0">
        <Node pos="l" depth="1" NCoef="0" IVar="6" Cut="9.4834583997726440e-01" cType="1" res="-2.7242985088378191e-03" rms="3.9056545495986938e-01" purity="5.2618873119354248e-01" nType="0">
          <Node pos="l" depth="2" NCoef="0" IVar="8" Cut="-1.7333428859710693e+00" cType="1" res="-2.3138287360779941e-04" rms="3.9529764652252197e-01" purity="5.6303858757019043e-01" nType="0">
            <Node pos="l" depth="3" NCoef="0" IVar="-1" Cut="0.0000000000000000e+00" cType="1" res="1.7337344586849213e-02" rms="3.9109975099563599e-01" purity="3.5568422079086304e-01" nType="-99"/>
            <Node pos="r" depth="3" NCoef="0" IVar="-1" Cut="0.0000000000000000e+00" cType="1" res="-1.4261017786338925e-03" rms="3.9554557204246521e-01" purity="5.7887578010559082e-01" nType="-99"/>
          </Node>
          <Node pos="r" depth="2" NCoef="0" IVar="2" Cut="3.0684381103515625e+02" cType="1" res="-1.6395308077335358e-02" rms="3.6321669816970825e-01" purity="3.2410654425621033e-01" nType="0">
            <Node pos="l" depth="3" NCoef="0" IVar="-1" Cut="0.0000000000000000e+00" cType="1" res="3.5990003962069750e-03" rms="3.7670156359672546e-01" purity="3.2612735033035278e-01" nType="-99"/>
            <Node pos="r" depth="3" NCoef="0" IVar="-1" Cut="0.0000000000000000e+00" cType="1" res="-2.4185365065932274e-02" rms="3.5168138146400452e-01" purity="3.2256415486335754e-01" nType="-99"/>
          </Node>
        </Node>
        <Node pos="r" depth="1" NCoef="0" IVar="0" Cut="4.4441320800781250e+02" cType="1" res="1.1744271032512188e-02" rms="3.6803376674652100e-01" purity="3.2306236028671265e-01" nType="0">
          <Node pos="l" depth="2" NCoef="0" IVar="8" Cut="4.0052101016044617e-01" cType="1" res="1.9905359949916601e-03" rms="3.4960368275642395e-01" purity="2.0478999614715576e-01" nType="0">
            <Node pos="l" depth="3" NCoef="0" IVar="-1" Cut="0.0000000000000000e+00" cType="1" res="1.2343042530119419e-02" rms="3.6417168378829956e-01" purity="2.2859632968902588e-01" nType="-99"/>
            <Node pos="r" depth="3" NCoef="0" IVar="-1" Cut="0.0000000000000000e+00" cType="1" res="-1.2323241680860519e-02" rms="3.3032235503196716e-01" purity="1.7590105533599854e-01" nType="-99"/>
          </Node>
          <Node pos="r" depth="2" NCoef="0" IVar="-1" Cut="0.0000000000000000e+00" cType="1" res="1.7860159277915955e-02" rms="4.0060648322105408e-01" purity="5.5177521705627441e-01" nType="-99"/>
        </Node>
      </Node>
    </BinaryTree>
    <BinaryTree type="DecisionTree" boostWeight="1.0000000000000000e+00" itree="139">
      <Node pos="s" depth="0" NCoef="0" IVar="1" Cut="1.1048660888671875e+03" cType="1" res="4.0972296847030520e-04" rms="3.9107400178909302e-01" purity="5.0084900856018066e-01" nType="0">
        <Node pos="l" depth="1" NCoef="0" IVar="1" Cut="8.5807434082031250e+02" cType="1" res="1.0822514072060585e-02" rms="3.8863265514373779e-01" purity="2.3944662511348724e-01" nType="0">
          <Node pos="l" depth="2" NCoef="0" IVar="-1" Cut="0.0000000000000000e+00" cType="1" res="-4.0081553161144257e-02" rms="2.5520852208137512e-01" purity="7.3007807135581970e-02" nType="-99"/>
          <Node pos="r" depth="2" NCoef="0" IVar="7" Cut="-1.1998196840286255e+00" cType="1" res="1.6654146835207939e-02" rms="4.0172073245048523e-01" purity="2.6008576154708862e-01" nType="0">
            <Node pos="l" depth="3" NCoef="0" IVar="-1" Cut="0.0000000000000000e+00" cType="1" res="3.7688333541154861e-02" rms="3.6742666363716125e-01" purity="1.8148067593574524e-01" nType="-99"/>
            <Node pos="r" depth="3" NCoef="0" IVar="-1" Cut="0.0000000000000000e+00" cType="1" res="7.2824317030608654e-03" rms="4.0841415524482727e-01" purity="2.7667430043220520e-01" nType="-99"/>
          </Node>
        </Node>
        <Node pos="r" depth="1" NCoef="0" IVar="8" Cut="-1.7333230972290039e+00" cType="1" res="-4.5347618870437145e-03" rms="3.9213111996650696e-01" purity="6.2497520446777344e-01" nType="0">
          <Node pos="l" depth="2" NCoef="0" IVar="-1" Cut="0.0000000000000000e+00" cType="1" res="-1.5482289716601372e-02" rms="4.0252935886383057e-01" purity="3.7286174297332764e-01" nType="-99"/>
          <Node pos="r" depth="2" NCoef="0" IVar="6" Cut="-1.4399898052215576e+00" cType="1" res="-3.2661806326359510e-03" rms="3.9147010445594788e-01" purity="6.3990044593811035e-01" nType="0">
            <Node pos="l" depth="3" NCoef="0" IVar="-1" Cut="0.0000000000000000e+00" cType="1" res="-1.7531020566821098e-02" rms="3.7091585993766785e-01" purity="3.2529985904693604e-01" nType="-99"/>
            <Node pos="r" depth="3" NCoef="0" IVar="-1" Cut="0.0000000000000000e+00" cType="1" res="-1.2867603218182921e-03" rms="3.9251148700714111e-01" purity="6.5693658590316772e-01" nType="-99"/>
          </Node>
        </Node>
      </Node>
    </BinaryTree>
    <BinaryTree type="DecisionTree" boostWeight="1.0000000000000000e+00" itree="140">
      <Node pos="s" depth="0" NCoef="0" IVar="3" Cut="4.3087857055664062e+02" cType="1" res="1.4359662309288979e-03" rms="3.8816332817077637e-01" purity="4.9825802445411682e-01" nType="0">
        <Node pos="l" depth="1" NCoef="0" IVar="4" Cut="6.8077407836914062e+01" cType="1" res="2.3677555145695806e-04" rms="3.8787028193473816e-01" purity="4.9164223670959473e-01" nType="0">
          <Node pos="l" depth="2" NCoef="0" IVar="2" Cut="3.2915307617187500e+02" cType="1" res="-2.1740166470408440e-02" rms="3.0059885978698730e-01" purity="1.2488645315170288e-01" nType="0">
            <Node pos="l" depth="3" NCoef="0" IVar="-1" Cut="0.0000000000000000e+00" cType="1" res="-8.6333258077502251e-03" rms="3.1124854087829590e-01" purity="1.2244243174791336e-01" nType="-99"/>
            <Node pos="r" depth="3" NCoef="0" IVar="-1" Cut="0.0000000000000000e+00" cType="1" res="-3.1622365117073059e-02" rms="2.8982973098754883e-01" purity="1.2715631723403931e-01" nType="-99"/>
          </Node>
          <Node pos="r" depth="2" NCoef="0" IVar="7" Cut="-1.3323454558849335e-01" cType="1" res="1.9271854544058442e-03" rms="3.9373192191123962e-01" purity="5.1985216140747070e-01" nType="0">
            <Node pos="l" depth="3" NCoef="0" IVar="-1" Cut="0.0000000000000000e+00" cType="1" res="5.7398546487092972e-03" rms="3.9471656084060669e-01" purity="5.1841050386428833e-01" nType="-99"/>
            <Node pos="r" depth="3" NCoef="0" IVar="-1" Cut="0.0000000000000000e+00" cType="1" res="-2.5641156826168299e-03" rms="3.9280217885971069e-01" purity="5.2106750011444092e-01" nType="-99"/>
          </Node>
        </Node>
        <Node pos="r" depth="1" NCoef="0" IVar="-1" Cut="0.0000000000000000e+00" cType="1" res="2.1856011822819710e-02" rms="3.9498245716094971e-01" purity="6.8995130062103271e-01" nType="-99"/>
      </Node>
    </BinaryTree>
    <BinaryTree type="DecisionTree" boostWeight="1.0000000000000000e+00" itree="141">
      <Node pos="s" depth="0" NCoef="0" IVar="0" Cut="4.4703958129882812e+02" cType="1" res="2.8753895549016306e-06" rms="3.9118561148643494e-01" purity="4.9789753556251526e-01" nType="0">
        <Node pos="l" depth="1" NCoef="0" IVar="0" Cut="3.2100546264648438e+02" cType="1" res="4.2466572485864162e-03" rms="3.9911210536956787e-01" purity="3.5863509774208069e-01" nType="0">
          <Node pos="l" depth="2" NCoef="0" IVar="6" Cut="-3.7278422713279724e-01" cType="1" res="-1.8853727728128433e-02" rms="3.6327752470970154e-01" purity="2.2962248325347900e-01" nType="0">
            <Node pos="l" depth="3" NCoef="0" IVar="-1" Cut="0.0000000000000000e+00" cType="1" res="-4.5158356428146362e-02" rms="3.1035378575325012e-01" purity="1.4844545722007751e-01" nType="-99"/>
            <Node pos="r" depth="3" NCoef="0" IVar="-1" Cut="0.0000000000000000e+00" cType="1" res="1.2103393673896790e-03" rms="3.8760548830032349e-01" purity="2.7396968007087708e-01" nType="-99"/>
          </Node>
          <Node pos="r" depth="2" NCoef="0" IVar="3" Cut="1.5341430664062500e+02" cType="1" res="9.6314474940299988e-03" rms="4.0682360529899597e-01" purity="3.8870847225189209e-01" nType="0">
            <Node pos="l" depth="3" NCoef="0" IVar="-1" Cut="0.0000000000000000e+00" cType="1" res="-3.4024331253021955e-03" rms="3.5884958505630493e-01" purity="2.0074917376041412e-01" nType="-99"/>
            <Node pos="r" depth="3" NCoef="0" IVar="-1" Cut="0.0000000000000000e+00" cType="1" res="9.4478651881217957e-03" rms="4.2920932173728943e-01" purity="4.8527097702026367e-01" nType="-99"/>
          </Node>
        </Node>
        <Node pos="r" depth="1" NCoef="0" IVar="6" Cut="1.2043937444686890e+00" cType="1" res="-6.2349950894713402e-03" rms="3.7914773821830750e-01" purity="7.0259732007980347e-01" nType="0">
          <Node pos="l" depth="2" NCoef="0" IVar="5" Cut="1.1706203460693359e+02" cType="1" res="-8.9762080460786819e-03" rms="3.7687772512435913e-01" purity="7.1780860424041748e-01" nType="0">
            <Node pos="l" depth="3" NCoef="0" IVar="-1" Cut="0.0000000000000000e+00" cType="1" res="-9.0767415240406990e-03" rms="4.1572538018226624e-01" purity="6.2959766387939453e-01" nType="-99"/>
            <Node pos="r" depth="3" NCoef="0" IVar="-1" Cut="0.0000000000000000e+00" cType="1" res="4.1834022849798203e-03" rms="2.8083831071853638e-01" purity="8.9810311794281006e-01" nType="-99"/>
          </Node>
          <Node pos="r" depth="2" NCoef="0" IVar="-1" Cut="0.0000000000000000e+00" cType="1" res="1.5081015415489674e-02" rms="4.0325680375099182e-01" purity="5.2561485767364502e-01" nType="-99"/>
        </Node>
      </Node>
    </BinaryTree>
    <BinaryTree type="DecisionTree" boostWeight="1.0000000000000000e+00" itree="142">
      <Node pos="s" depth="0" NCoef="0" IVar="6" Cut="9.4901221990585327e-01" cType="1" res="-2.2881759796291590e-03" rms="3.8846176862716675e-01" purity="4.9681377410888672e-01" nType="0">
        <Node pos="l" depth="1" NCoef="0" IVar="6" Cut="-2.8483667969703674e-01" cType="1" res="-4.9859406426548958e-03" rms="3.9366257190704346e-01" purity="5.2933895587921143e-01" nType="0">
          <Node pos="l" depth="2" NCoef="0" IVar="9" Cut="-1.3324084877967834e-01" cType="1" res="2.9640221036970615e-03" rms="3.8841331005096436e-01" purity="4.6094286441802979e-01" nType="0">
            <Node pos="l" depth="3" NCoef="0" IVar="-1" Cut="0.0000000000000000e+00" cType="1" res="-2.3787189275026321e-03" rms="3.8627961277961731e-01" purity="4.3314459919929504e-01" nType="-99"/>
            <Node pos="r" depth="3" NCoef="0" IVar="-1" Cut="0.0000000000000000e+00" cType="1" res="6.3957888633012772e-03" rms="3.9049515128135681e-01" purity="4.8971241712570190e-01" nType="-99"/>
          </Node>
          <Node pos="r" depth="2" NCoef="0" IVar="9" Cut="9.3334072828292847e-01" cType="1" res="-1.1722216382622719e-02" rms="3.9793196320533752e-01" purity="5.8729332685470581e-01" nType="0">
            <Node pos="l" depth="3" NCoef="0" IVar="-1" Cut="0.0000000000000000e+00" cType="1" res="-1.0244616307318211e-02" rms="3.9575600624084473e-01" purity="5.9643942117691040e-01" nType="-99"/>
            <Node pos="r" depth="3" NCoef="0" IVar="-1" Cut="0.0000000000000000e+00" cType="1" res="1.2700814986601472e-03" rms="4.0445381402969360e-01" purity="5.5825048685073853e-01" nType="-99"/>
          </Node>
        </Node>
        <Node pos="r" depth="1" NCoef="0" IVar="7" Cut="-9.3342906236648560e-01" cType="1" res="1.1156032793223858e-02" rms="3.6112937331199646e-01" purity="3.3472573757171631e-01" nType="0">
          <Node pos="l" depth="2" NCoef="0" IVar="-1" Cut="0.0000000000000000e+00" cType="1" res="-1.7352066934108734e-02" rms="3.1794625520706177e-01" purity="1.7885756492614746e-01" nType="-99"/>
          <Node pos="r" depth="2" NCoef="0" IVar="7" Cut="4.8860526084899902e-01" cType="1" res="1.8211366608738899e-02" rms="3.7019145488739014e-01" purity="3.7134245038032532e-01" nType="0">
            <Node pos="l" depth="3" NCoef="0" IVar="-1" Cut="0.0000000000000000e+00" cType="1" res="2.2336764261126518e-02" rms="3.8873764872550964e-01" purity="4.4818943738937378e-01" nType="-99"/>
            <Node pos="r" depth="3" NCoef="0" IVar="-1" Cut="0.0000000000000000e+00" cType="1" res="1.0566937271505594e-04" rms="3.4728062152862549e-01" purity="2.8496769070625305e-01" nType="-99"/>
          </Node>
        </Node>
      </Node>
    </BinaryTree>
    <BinaryTree type="DecisionTree" boostWeight="1.0000000000000000e+00" itree="143">
      <Node pos="s" depth="0" NCoef="0" IVar="6" Cut="-3.7956780195236206e-01" cType="1" res="-1.4097513630986214e-03" rms="3.8599786162376404e-01" purity="5.0011509656906128e-01" nType="0">
        <Node pos="l" depth="1" NCoef="0" IVar="6" Cut="-6.0669934749603271e-01" cType="1" res="-8.5103912279009819e-03" rms="3.8189369440078735e-01" purity="4.3319776654243469e-01" nType="0">
          <Node pos="l" depth="2" NCoef="0" IVar="6" Cut="-1.8395572900772095e+00" cType="1" res="-3.6343601532280445e-03" rms="3.7789571285247803e-01" purity="3.9450314640998840e-01" nType="0">
            <Node pos="l" depth="3" NCoef="0" IVar="-1" Cut="0.0000000000000000e+00" cType="1" res="-3.7743270397186279e-02" rms="2.6841154694557190e-01" purity="1.3071958720684052e-01" nType="-99"/>
            <Node pos="r" depth="3" NCoef="0" IVar="-1" Cut="0.0000000000000000e+00" cType="1" res="4.0677626384422183e-04" rms="3.8957378268241882e-01" purity="4.2850473523139954e-01" nType="-99"/>
          </Node>
          <Node pos="r" depth="2" NCoef="0" IVar="1" Cut="1.3112150878906250e+03" cType="1" res="-2.4539489299058914e-02" rms="3.9432650804519653e-01" purity="5.6039971113204956e-01" nType="0">
            <Node pos="l" depth="3" NCoef="0" IVar="-1" Cut="0.0000000000000000e+00" cType="1" res="-2.1029680967330933e-02" rms="4.3020534515380859e-01" purity="3.6513978242874146e-01" nType="-99"/>
            <Node pos="r" depth="3" NCoef="0" IVar="-1" Cut="0.0000000000000000e+00" cType="1" res="-7.9530989751219749e-03" rms="3.5297706723213196e-01" purity="7.6186370849609375e-01" nType="-99"/>
          </Node>
        </Node>
        <Node pos="r" depth="1" NCoef="0" IVar="8" Cut="-1.7333419322967529e+00" cType="1" res="2.1578075829893351e-03" rms="3.8799446821212769e-01" purity="5.3373616933822632e-01" nType="0">
          <Node pos="l" depth="2" NCoef="0" IVar="-1" Cut="0.0000000000000000e+00" cType="1" res="-8.7359054014086723e-03" rms="3.6002406477928162e-01" purity="2.9675567150115967e-01" nType="-99"/>
          <Node pos="r" depth="2" NCoef="0" IVar="9" Cut="-3.9985606074333191e-01" cType="1" res="3.1524104997515678e-03" rms="3.8975620269775391e-01" purity="5.4943621158599854e-01" nType="0">
            <Node pos="l" depth="3" NCoef="0" IVar="-1" Cut="0.0000000000000000e+00" cType="1" res="-2.3098273668438196e-03" rms="3.9098778367042542e-01" purity="5.4064077138900757e-01" nType="-99"/>
            <Node pos="r" depth="3" NCoef="0" IVar="-1" Cut="0.0000000000000000e+00" cType="1" res="4.3426179327070713e-03" rms="3.8907462358474731e-01" purity="5.5396729707717896e-01" nType="-99"/>
          </Node>
        </Node>
      </Node>
    </BinaryTree>
    <BinaryTree type="DecisionTree" boostWeight="1.0000000000000000e+00" itree="144">
      <Node pos="s" depth="0" NCoef="0" IVar="9" Cut="-6.6664737462997437e-01" cType="1" res="1.5662171645089984e-03" rms="3.8909918069839478e-01" purity="5.0189495086669922e-01" nType="0">
        <Node pos="l" depth="1" NCoef="0" IVar="4" Cut="2.1612463378906250e+02" cType="1" res="1.1859614402055740e-02" rms="3.9417096972465515e-01" purity="4.6773689985275269e-01" nType="0">
          <Node pos="l" depth="2" NCoef="0" IVar="1" Cut="1.0678188476562500e+03" cType="1" res="1.6237767413258553e-02" rms="3.9745715260505676e-01" purity="4.3898588418960571e-01" nType="0">
            <Node pos="l" depth="3" NCoef="0" IVar="-1" Cut="0.0000000000000000e+00" cType="1" res="4.0811728686094284e-03" rms="3.6799481511116028e-01" purity="1.9557386636734009e-01" nType="-99"/>
            <Node pos="r" depth="3" NCoef="0" IVar="-1" Cut="0.0000000000000000e+00" cType="1" res="1.2910769321024418e-02" rms="4.1066786646842957e-01" purity="5.5512535572052002e-01" nType="-99"/>
          </Node>
          <Node pos="r" depth="2" NCoef="0" IVar="-1" Cut="0.0000000000000000e+00" cType="1" res="-2.3267112672328949e-02" rms="3.5914367437362671e-01" purity="7.3856824636459351e-01" nType="-99"/>
        </Node>
        <Node pos="r" depth="1" NCoef="0" IVar="9" Cut="4.8890459537506104e-01" cType="1" res="-2.9464091639965773e-03" rms="3.8676834106445312e-01" purity="5.1686984300613403e-01" nType="0">
          <Node pos="l" depth="2" NCoef="0" IVar="9" Cut="3.7883871793746948e-01" cType="1" res="2.1449080668389797e-03" rms="3.9099559187889099e-01" purity="5.6253331899642944e-01" nType="0">
            <Node pos="l" depth="3" NCoef="0" IVar="-1" Cut="0.0000000000000000e+00" cType="1" res="-1.0357716819271445e-03" rms="3.9016166329383850e-01" purity="5.5974590778350830e-01" nType="-99"/>
            <Node pos="r" depth="3" NCoef="0" IVar="-1" Cut="0.0000000000000000e+00" cType="1" res="2.3221032693982124e-02" rms="3.9696964621543884e-01" purity="5.8832514286041260e-01" nType="-99"/>
          </Node>
          <Node pos="r" depth="2" NCoef="0" IVar="7" Cut="4.0011653304100037e-01" cType="1" res="-7.9081179574131966e-03" rms="3.8253858685493469e-01" purity="4.7236880660057068e-01" nType="0">
            <Node pos="l" depth="3" NCoef="0" IVar="-1" Cut="0.0000000000000000e+00" cType="1" res="-4.4810771942138672e-04" rms="3.8552129268646240e-01" purity="5.2218645811080933e-01" nType="-99"/>
            <Node pos="r" depth="3" NCoef="0" IVar="-1" Cut="0.0000000000000000e+00" cType="1" res="-1.2863758020102978e-02" rms="3.7762138247489929e-01" purity="3.9554169774055481e-01" nType="-99"/>
          </Node>
        </Node>
      </Node>
    </BinaryTree>
    <BinaryTree type="DecisionTree" boostWeight="1.0000000000000000e+00" itree="145">
      <Node pos="s" depth="0" NCoef="0" IVar="9" Cut="1.7333316802978516e+00" cType="1" res="-3.2312925904989243e-03" rms="3.8577356934547424e-01" purity="4.9700069427490234e-01" nType="0">
        <Node pos="l" depth="1" NCoef="0" IVar="9" Cut="-1.0730022192001343e+00" cType="1" res="-1.1566419852897525e-03" rms="3.8791158795356750e-01" purity="5.1033437252044678e-01" nType="0">
          <Node pos="l" depth="2" NCoef="0" IVar="6" Cut="4.3238475918769836e-01" cType="1" res="9.0551776811480522e-03" rms="3.8762837648391724e-01" purity="4.3446511030197144e-01" nType="0">
            <Node pos="l" depth="3" NCoef="0" IVar="-1" Cut="0.0000000000000000e+00" cType="1" res="1.1435277760028839e-02" rms="3.9375898241996765e-01" purity="4.6257171034812927e-01" nType="-99"/>
            <Node pos="r" depth="3" NCoef="0" IVar="-1" Cut="0.0000000000000000e+00" cType="1" res="-8.9301709085702896e-03" rms="3.7013337016105652e-01" purity="3.6056116223335266e-01" nType="-99"/>
          </Node>
          <Node pos="r" depth="2" NCoef="0" IVar="5" Cut="1.1706203460693359e+02" cType="1" res="-4.0314919315278530e-03" rms="3.8794279098510742e-01" purity="5.3169322013854980e-01" nType="0">
            <Node pos="l" depth="3" NCoef="0" IVar="-1" Cut="0.0000000000000000e+00" cType="1" res="-4.9312771297991276e-03" rms="4.0259954333305359e-01" purity="4.3389207124710083e-01" nType="-99"/>
            <Node pos="r" depth="3" NCoef="0" IVar="-1" Cut="0.0000000000000000e+00" cType="1" res="6.3042980618774891e-03" rms="3.4161737561225891e-01" purity="8.1543487310409546e-01" nType="-99"/>
          </Node>
        </Node>
        <Node pos="r" depth="1" NCoef="0" IVar="7" Cut="-3.9970013499259949e-01" cType="1" res="-2.5140885263681412e-02" rms="3.6169996857643127e-01" purity="3.5618919134140015e-01" nType="0">
          <Node pos="l" depth="2" NCoef="0" IVar="-1" Cut="0.0000000000000000e+00" cType="1" res="-3.4885756671428680e-02" rms="3.5313087701797485e-01" purity="2.9155665636062622e-01" nType="-99"/>
          <Node pos="r" depth="2" NCoef="0" IVar="8" Cut="3.9885357022285461e-01" cType="1" res="-1.5138363465666771e-02" rms="3.6472108960151672e-01" purity="3.8295084238052368e-01" nType="0">
            <Node pos="l" depth="3" NCoef="0" IVar="-1" Cut="0.0000000000000000e+00" cType="1" res="6.0975598171353340e-04" rms="3.8024839758872986e-01" purity="4.5394808053970337e-01" nType="-99"/>
            <Node pos="r" depth="3" NCoef="0" IVar="-1" Cut="0.0000000000000000e+00" cType="1" res="-2.6767849922180176e-02" rms="3.4199959039688110e-01" purity="2.8927099704742432e-01" nType="-99"/>
          </Node>
        </Node>
      </Node>
    </BinaryTree>
    <BinaryTree type="DecisionTree" boostWeight="1.0000000000000000e+00" itree="146">
      <Node pos="s" depth="0" NCoef="0" IVar="6" Cut="-1.7194132804870605e+00" cType="1" res="8.1174290971830487e-04" rms="3.8954338431358337e-01" purity="4.9754500389099121e-01" nType="0">
        <Node pos="l" depth="1" NCoef="0" IVar="-1" Cut="0.0000000000000000e+00" cType="1" res="3.0626382678747177e-02" rms="3.3642753958702087e-01" purity="2.0195661485195160e-01" nType="-99"/>
        <Node pos="r" depth="1" NCoef="0" IVar="1" Cut="1.0948483886718750e+03" cType="1" res="-5.0761294551193714e-04" rms="3.9167374372482300e-01" purity="5.1061761379241943e-01" nType="0">
          <Node pos="l" depth="2" NCoef="0" IVar="4" Cut="1.0986718750000000e+02" cType="1" res="-6.5828613005578518e-03" rms="3.8134199380874634e-01" purity="2.2275711596012115e-01" nType="0">
            <Node pos="l" depth="3" NCoef="0" IVar="-1" Cut="0.0000000000000000e+00" cType="1" res="1.7361502395942807e-03" rms="3.6314308643341064e-01" purity="1.9141586124897003e-01" nType="-99"/>
            <Node pos="r" depth="3" NCoef="0" IVar="-1" Cut="0.0000000000000000e+00" cType="1" res="-1.6243165358901024e-02" rms="4.2595699429512024e-01" purity="3.0790576338768005e-01" nType="-99"/>
          </Node>
          <Node pos="r" depth="2" NCoef="0" IVar="0" Cut="4.4205505371093750e+02" cType="1" res="2.0520996768027544e-03" rms="3.9591825008392334e-01" purity="6.3190317153930664e-01" nType="0">
            <Node pos="l" depth="3" NCoef="0" IVar="-1" Cut="0.0000000000000000e+00" cType="1" res="7.1096848696470261e-03" rms="4.2391148209571838e-01" purity="5.0179851055145264e-01" nType="-99"/>
            <Node pos="r" depth="3" NCoef="0" IVar="-1" Cut="0.0000000000000000e+00" cType="1" res="-4.2181005701422691e-03" rms="3.7342301011085510e-01" purity="7.2917991876602173e-01" nType="-99"/>
          </Node>
        </Node>
      </Node>
    </BinaryTree>
    <BinaryTree type="DecisionTree" boostWeight="1.0000000000000000e+00" itree="147">
      <Node pos="s" depth="0" NCoef="0" IVar="7" Cut="1.4666275978088379e+00" cType="1" res="-8.9881941676139832e-04" rms="3.8728693127632141e-01" purity="4.9514752626419067e-01" nType="0">
        <Node pos="l" depth="1" NCoef="0" IVar="6" Cut="-1.7193326950073242e+00" cType="1" res="-2.9155255760997534e-03" rms="3.8927096128463745e-01" purity="5.1789712905883789e-01" nType="0">
          <Node pos="l" depth="2" NCoef="0" IVar="-1" Cut="0.0000000000000000e+00" cType="1" res="-2.6988077908754349e-02" rms="3.0660539865493774e-01" purity="1.5116871893405914e-01" nType="-99"/>
          <Node pos="r" depth="2" NCoef="0" IVar="6" Cut="1.0783210992813110e+00" cType="1" res="-1.9031300907954574e-03" rms="3.9217501878738403e-01" purity="5.3253489732742310e-01" nType="0">
            <Node pos="l" depth="3" NCoef="0" IVar="-1" Cut="0.0000000000000000e+00" cType="1" res="-2.4672206491231918e-03" rms="3.9640775322914124e-01" purity="5.6586587429046631e-01" nType="-99"/>
            <Node pos="r" depth="3" NCoef="0" IVar="-1" Cut="0.0000000000000000e+00" cType="1" res="7.8771449625492096e-03" rms="3.6422428488731384e-01" purity="3.2327246665954590e-01" nType="-99"/>
          </Node>
        </Node>
        <Node pos="r" depth="1" NCoef="0" IVar="5" Cut="7.2814041137695312e+01" cType="1" res="1.9293203949928284e-02" rms="3.6621910333633423e-01" purity="2.6736974716186523e-01" nType="0">
          <Node pos="l" depth="2" NCoef="0" IVar="-1" Cut="0.0000000000000000e+00" cType="1" res="4.4639962725341320e-03" rms="3.1030437350273132e-01" purity="1.4295125007629395e-01" nType="-99"/>
          <Node pos="r" depth="2" NCoef="0" IVar="-1" Cut="0.0000000000000000e+00" cType="1" res="2.0478248596191406e-02" rms="4.1056334972381592e-01" purity="3.8195234537124634e-01" nType="-99"/>
        </Node>
      </Node>
    </BinaryTree>
    <BinaryTree type="DecisionTree" boostWeight="1.0000000000000000e+00" itree="148">
      <Node pos="s" depth="0" NCoef="0" IVar="6" Cut="1.2100057601928711e+00" cType="1" res="-6.4708851277828217e-04" rms="3.8618710637092590e-01" purity="4.9752196669578552e-01" nType="0">
        <Node pos="l" depth="1" NCoef="0" IVar="8" Cut="-1.7333230972290039e+00" cType="1" res="-2.6963113341480494e-03" rms="3.8950446248054504e-01" purity="5.2386778593063354e-01" nType="0">
          <Node pos="l" depth="2" NCoef="0" IVar="3" Cut="1.8247473144531250e+02" cType="1" res="-2.0695462822914124e-02" rms="3.6032575368881226e-01" purity="2.8551092743873596e-01" nType="0">
            <Node pos="l" depth="3" NCoef="0" IVar="-1" Cut="0.0000000000000000e+00" cType="1" res="-5.0234408117830753e-03" rms="3.3092948794364929e-01" purity="1.8561309576034546e-01" nType="-99"/>
            <Node pos="r" depth="3" NCoef="0" IVar="-1" Cut="0.0000000000000000e+00" cType="1" res="-2.1905684843659401e-02" rms="3.9000472426414490e-01" purity="3.9750254154205322e-01" nType="-99"/>
          </Node>
          <Node pos="r" depth="2" NCoef="0" IVar="8" Cut="1.0730007886886597e+00" cType="1" res="-1.3390755048021674e-03" rms="3.9158299565315247e-01" purity="5.4184120893478394e-01" nType="0">
            <Node pos="l" depth="3" NCoef="0" IVar="-1" Cut="0.0000000000000000e+00" cType="1" res="-2.1412302739918232e-03" rms="3.9116695523262024e-01" purity="5.6929165124893188e-01" nType="-99"/>
            <Node pos="r" depth="3" NCoef="0" IVar="-1" Cut="0.0000000000000000e+00" cType="1" res="4.7127748839557171e-03" rms="3.9328977465629578e-01" purity="4.2099750041961670e-01" nType="-99"/>
          </Node>
        </Node>
        <Node pos="r" depth="1" NCoef="0" IVar="7" Cut="9.3381160497665405e-01" cType="1" res="1.6118366271257401e-02" rms="3.5745254158973694e-01" purity="2.8197664022445679e-01" nType="0">
          <Node pos="l" depth="2" NCoef="0" IVar="3" Cut="1.7015110778808594e+02" cType="1" res="2.7971589937806129e-02" rms="3.7521761655807495e-01" purity="3.2348826527595520e-01" nType="0">
            <Node pos="l" depth="3" NCoef="0" IVar="-1" Cut="0.0000000000000000e+00" cType="1" res="5.6174978613853455e-02" rms="3.7135830521583557e-01" purity="2.1421171724796295e-01" nType="-99"/>
            <Node pos="r" depth="3" NCoef="0" IVar="-1" Cut="0.0000000000000000e+00" cType="1" res="3.1513385474681854e-03" rms="3.7640425562858582e-01" purity="4.0472599864006042e-01" nType="-99"/>
          </Node>
          <Node pos="r" depth="2" NCoef="0" IVar="-1" Cut="0.0000000000000000e+00" cType="1" res="-1.8656590953469276e-02" rms="2.9648330807685852e-01" purity="1.6000460088253021e-01" nType="-99"/>
        </Node>
      </Node>
    </BinaryTree>
    <BinaryTree type="DecisionTree" boostWeight="1.0000000000000000e+00" itree="149">
      <Node pos="s" depth="0" NCoef="0" IVar="9" Cut="-1.4666507244110107e+00" cType="1" res="1.8189630936831236e-03" rms="3.8969886302947998e-01" purity="4.9851953983306885e-01" nType="0">
        <Node pos="l" depth="1" NCoef="0" IVar="7" Cut="1.3338753581047058e-01" cType="1" res="1.2672368437051773e-02" rms="3.8504391908645630e-01" purity="4.0485042333602905e-01" nType="0">
          <Node pos="l" depth="2" NCoef="0" IVar="7" Cut="-1.1237121820449829e+00" cType="1" res="2.4986525997519493e-02" rms="3.8696712255477905e-01" purity="4.1778582334518433e-01" nType="0">
            <Node pos="l" depth="3" NCoef="0" IVar="-1" Cut="0.0000000000000000e+00" cType="1" res="-2.1113976836204529e-03" rms="3.3384481072425842e-01" purity="2.2941403090953827e-01" nType="-99"/>
            <Node pos="r" depth="3" NCoef="0" IVar="-1" Cut="0.0000000000000000e+00" cType="1" res="2.3740610107779503e-02" rms="4.1114485263824463e-01" purity="5.1567047834396362e-01" nType="-99"/>
          </Node>
          <Node pos="r" depth="2" NCoef="0" IVar="-1" Cut="0.0000000000000000e+00" cType="1" res="-4.1898307390511036e-03" rms="3.8129243254661560e-01" purity="3.8495886325836182e-01" nType="-99"/>
        </Node>
        <Node pos="r" depth="1" NCoef="0" IVar="9" Cut="-8.5710728168487549e-01" cType="1" res="2.7809070888906717e-04" rms="3.9033076167106628e-01" purity="5.1181787252426147e-01" nType="0">
          <Node pos="l" depth="2" NCoef="0" IVar="7" Cut="-1.3318921625614166e-01" cType="1" res="-1.0304572060704231e-02" rms="3.8890364766120911e-01" purity="4.8771125078201294e-01" nType="0">
            <Node pos="l" depth="3" NCoef="0" IVar="-1" Cut="0.0000000000000000e+00" cType="1" res="-1.5416438691318035e-02" rms="3.8281202316284180e-01" purity="4.5577308535575867e-01" nType="-99"/>
            <Node pos="r" depth="3" NCoef="0" IVar="-1" Cut="0.0000000000000000e+00" cType="1" res="1.6820686869323254e-03" rms="3.9437773823738098e-01" purity="5.1911562681198120e-01" nType="-99"/>
          </Node>
          <Node pos="r" depth="2" NCoef="0" IVar="9" Cut="-6.8294686079025269e-01" cType="1" res="2.0602992735803127e-03" rms="3.9054238796234131e-01" purity="5.1587760448455811e-01" nType="0">
            <Node pos="l" depth="3" NCoef="0" IVar="-1" Cut="0.0000000000000000e+00" cType="1" res="1.4274036511778831e-02" rms="3.8641467690467834e-01" purity="5.6956124305725098e-01" nType="-99"/>
            <Node pos="r" depth="3" NCoef="0" IVar="-1" Cut="0.0000000000000000e+00" cType="1" res="4.8495648661628366e-04" rms="3.9078456163406372e-01" purity="5.1224780082702637e-01" nType="-99"/>
          </Node>
        </Node>
      </Node>
    </BinaryTree>
    <BinaryTree type="DecisionTree" boostWeight="1.0000000000000000e+00" itree="150">
      <Node pos="s" depth="0" NCoef="0" IVar="9" Cut="-9.3331986665725708e-01" cType="1" res="9.1214658459648490e-04" rms="3.9145407080650330e-01" purity="4.9633184075355530e-01" nType="0">
        <Node pos="l" depth="1" NCoef="0" IVar="5" Cut="9.8881210327148438e+01" cType="1" res="-8.6013823747634888e-03" rms="3.8996002078056335e-01" purity="4.2538022994995117e-01" nType="0">
          <Node pos="l" depth="2" NCoef="0" IVar="8" Cut="1.3360577821731567e-01" cType="1" res="1.1497766245156527e-03" rms="3.8887384533882141e-01" purity="3.4082436561584473e-01" nType="0">
            <Node pos="l" depth="3" NCoef="0" IVar="-1" Cut="0.0000000000000000e+00" cType="1" res="-5.1485751755535603e-03" rms="3.8216224312782288e-01" purity="3.2359996438026428e-01" nType="-99"/>
            <Node pos="r" depth="3" NCoef="0" IVar="-1" Cut="0.0000000000000000e+00" cType="1" res="9.6165062859654427e-03" rms="3.9850685000419617e-01" purity="3.6708155274391174e-01" nType="-99"/>
          </Node>
          <Node pos="r" depth="2" NCoef="0" IVar="9" Cut="-1.4665809869766235e+00" cType="1" res="-3.3789359033107758e-02" rms="3.9162975549697876e-01" purity="6.4379423856735229e-01" nType="0">
            <Node pos="l" depth="3" NCoef="0" IVar="-1" Cut="0.0000000000000000e+00" cType="1" res="-2.8132647275924683e-02" rms="4.0321442484855652e-01" purity="5.8577883243560791e-01" nType="-99"/>
            <Node pos="r" depth="3" NCoef="0" IVar="-1" Cut="0.0000000000000000e+00" cType="1" res="-1.6104167327284813e-02" rms="3.8089707493782043e-01" purity="6.9450253248214722e-01" nType="-99"/>
          </Node>
        </Node>
        <Node pos="r" depth="1" NCoef="0" IVar="2" Cut="3.3976498413085938e+02" cType="1" res="3.7743886932730675e-03" rms="3.9185726642608643e-01" purity="5.1767838001251221e-01" nType="0">
          <Node pos="l" depth="2" NCoef="0" IVar="0" Cut="4.4143383789062500e+02" cType="1" res="1.1906184256076813e-02" rms="4.0015792846679688e-01" purity="4.8704487085342407e-01" nType="0">
            <Node pos="l" depth="3" NCoef="0" IVar="-1" Cut="0.0000000000000000e+00" cType="1" res="1.1481656692922115e-02" rms="4.1107359528541565e-01" purity="3.8711696863174438e-01" nType="-99"/>
            <Node pos="r" depth="3" NCoef="0" IVar="-1" Cut="0.0000000000000000e+00" cType="1" res="-2.9810697305947542e-03" rms="3.7317642569541931e-01" purity="7.1832746267318726e-01" nType="-99"/>
          </Node>
          <Node pos="r" depth="2" NCoef="0" IVar="1" Cut="1.9510140380859375e+03" cType="1" res="-4.1732531972229481e-03" rms="3.8340440392494202e-01" purity="5.4761815071105957e-01" nType="0">
            <Node pos="l" depth="3" NCoef="0" IVar="-1" Cut="0.0000000000000000e+00" cType="1" res="-4.6050930395722389e-03" rms="3.9092111587524414e-01" purity="4.9906235933303833e-01" nType="-99"/>
            <Node pos="r" depth="3" NCoef="0" IVar="-1" Cut="0.0000000000000000e+00" cType="1" res="9.2943292111158371e-03" rms="3.3757421374320984e-01" purity="8.2082039117813110e-01" nType="-99"/>
          </Node>
        </Node>
      </Node>
    </BinaryTree>
    <BinaryTree type="DecisionTree" boostWeight="1.0000000000000000e+00" itree="151">
      <Node pos="s" depth="0" NCoef="0" IVar="8" Cut="9.3328183889389038e-01" cType="1" res="-8.5901259444653988e-04" rms="3.8802438974380493e-01" purity="4.9763786792755127e-01" nType="0">
        <Node pos="l" depth="1" NCoef="0" IVar="4" Cut="1.4890478515625000e+02" cType="1" res="-4.3474868871271610e-03" rms="3.8606870174407959e-01" purity="5.2231597900390625e-01" nType="0">
          <Node pos="l" depth="2" NCoef="0" IVar="4" Cut="7.3601943969726562e+01" cType="1" res="-1.0747207328677177e-02" rms="3.9786252379417419e-01" purity="3.8136830925941467e-01" nType="0">
            <Node pos="l" depth="3" NCoef="0" IVar="-1" Cut="0.0000000000000000e+00" cType="1" res="-2.3783976212143898e-02" rms="3.1754887104034424e-01" purity="1.4184199273586273e-01" nType="-99"/>
            <Node pos="r" depth="3" NCoef="0" IVar="-1" Cut="0.0000000000000000e+00" cType="1" res="-4.4368780218064785e-03" rms="4.1124784946441650e-01" purity="4.2677471041679382e-01" nType="-99"/>
          </Node>
          <Node pos="r" depth="2" NCoef="0" IVar="5" Cut="8.3531204223632812e+01" cType="1" res="5.9281620196998119e-03" rms="3.6610472202301025e-01" purity="7.4862724542617798e-01" nType="0">
            <Node pos="l" depth="3" NCoef="0" IVar="-1" Cut="0.0000000000000000e+00" cType="1" res="1.5873305499553680e-02" rms="4.1387805342674255e-01" purity="6.1852329969406128e-01" nType="-99"/>
            <Node pos="r" depth="3" NCoef="0" IVar="-1" Cut="0.0000000000000000e+00" cType="1" res="-6.6659849835559726e-04" rms="3.4991499781608582e-01" purity="7.8841978311538696e-01" nType="-99"/>
          </Node>
        </Node>
        <Node pos="r" depth="1" NCoef="0" IVar="4" Cut="1.8089614868164062e+02" cType="1" res="1.2069718912243843e-02" rms="3.9491939544677734e-01" purity="4.0617758035659790e-01" nType="0">
          <Node pos="l" depth="2" NCoef="0" IVar="6" Cut="1.2207710742950439e+00" cType="1" res="1.8908608704805374e-02" rms="3.9286127686500549e-01" purity="3.6987736821174622e-01" nType="0">
            <Node pos="l" depth="3" NCoef="0" IVar="-1" Cut="0.0000000000000000e+00" cType="1" res="1.5308398753404617e-02" rms="4.0674886107444763e-01" purity="4.0741783380508423e-01" nType="-99"/>
            <Node pos="r" depth="3" NCoef="0" IVar="-1" Cut="0.0000000000000000e+00" cType="1" res="-1.1533589102327824e-02" rms="2.9907074570655823e-01" purity="1.5429973602294922e-01" nType="-99"/>
          </Node>
          <Node pos="r" depth="2" NCoef="0" IVar="-1" Cut="0.0000000000000000e+00" cType="1" res="-1.8295394256711006e-02" rms="4.0459582209587097e-01" purity="6.2300187349319458e-01" nType="-99"/>
        </Node>
      </Node>
    </BinaryTree>
    <BinaryTree type="DecisionTree" boostWeight="1.0000000000000000e+00" itree="152">
      <Node pos="s" depth="0" NCoef="0" IVar="9" Cut="-9.3322306871414185e-01" cType="1" res="1.4608469791710377e-03" rms="3.8865643739700317e-01" purity="4.9913224577903748e-01" nType="0">
        <Node pos="l" depth="1" NCoef="0" IVar="6" Cut="1.6945715248584747e-01" cType="1" res="1.1327786371111870e-02" rms="3.9058223366737366e-01" purity="4.5087563991546631e-01" nType="0">
          <Node pos="l" depth="2" NCoef="0" IVar="2" Cut="4.5384259033203125e+02" cType="1" res="1.9083933904767036e-02" rms="3.9554801583290100e-01" purity="4.6338304877281189e-01" nType="0">
            <Node pos="l" depth="3" NCoef="0" IVar="-1" Cut="0.0000000000000000e+00" cType="1" res="1.7094437032938004e-02" rms="3.9344543218612671e-01" purity="4.5038813352584839e-01" nType="-99"/>
            <Node pos="r" depth="3" NCoef="0" IVar="-1" Cut="0.0000000000000000e+00" cType="1" res="-2.3585129529237747e-03" rms="4.0219774842262268e-01" purity="5.1020288467407227e-01" nType="-99"/>
          </Node>
          <Node pos="r" depth="2" NCoef="0" IVar="7" Cut="-6.6641467809677124e-01" cType="1" res="-2.2527924738824368e-03" rms="3.8135215640068054e-01" purity="4.2897579073905945e-01" nType="0">
            <Node pos="l" depth="3" NCoef="0" IVar="-1" Cut="0.0000000000000000e+00" cType="1" res="-1.5896359458565712e-02" rms="3.6078831553459167e-01" purity="2.9074528813362122e-01" nType="-99"/>
            <Node pos="r" depth="3" NCoef="0" IVar="-1" Cut="0.0000000000000000e+00" cType="1" res="3.7002481985837221e-03" rms="3.8938340544700623e-01" purity="4.8705214262008667e-01" nType="-99"/>
          </Node>
        </Node>
        <Node pos="r" depth="1" NCoef="0" IVar="9" Cut="2.0888662338256836e+00" cType="1" res="-1.6111441655084491e-03" rms="3.8800370693206787e-01" purity="5.1415652036666870e-01" nType="0">
          <Node pos="l" depth="2" NCoef="0" IVar="9" Cut="1.3693029880523682e+00" cType="1" res="-2.9203923986642621e-05" rms="3.9027419686317444e-01" purity="5.2629029750823975e-01" nType="0">
            <Node pos="l" depth="3" NCoef="0" IVar="-1" Cut="0.0000000000000000e+00" cType="1" res="-1.7821787623688579e-03" rms="3.8823726773262024e-01" purity="5.3765928745269775e-01" nType="-99"/>
            <Node pos="r" depth="3" NCoef="0" IVar="-1" Cut="0.0000000000000000e+00" cType="1" res="1.1211507022380829e-02" rms="4.0279966592788696e-01" purity="4.5254147052764893e-01" nType="-99"/>
          </Node>
          <Node pos="r" depth="2" NCoef="0" IVar="-1" Cut="0.0000000000000000e+00" cType="1" res="-1.8675241619348526e-02" rms="3.4886413812637329e-01" purity="3.2075837254524231e-01" nType="-99"/>
        </Node>
      </Node>
    </BinaryTree>
    <BinaryTree type="DecisionTree" boostWeight="1.0000000000000000e+00" itree="153">
      <Node pos="s" depth="0" NCoef="0" IVar="3" Cut="1.4206849670410156e+02" cType="1" res="6.9517195224761963e-03" rms="3.9089253544807434e-01" purity="5.0754719972610474e-01" nType="0">
        <Node pos="l" depth="1" NCoef="0" IVar="8" Cut="9.3295258283615112e-01" cType="1" res="1.7088187858462334e-02" rms="3.7820485234260559e-01" purity="2.4379880726337433e-01" nType="0">
          <Node pos="l" depth="2" NCoef="0" IVar="2" Cut="3.1761550903320312e+02" cType="1" res="9.3787219375371933e-03" rms="3.8122943043708801e-01" purity="2.4784538149833679e-01" nType="0">
            <Node pos="l" depth="3" NCoef="0" IVar="-1" Cut="0.0000000000000000e+00" cType="1" res="1.4046063646674156e-02" rms="3.9351961016654968e-01" purity="2.5958770513534546e-01" nType="-99"/>
            <Node pos="r" depth="3" NCoef="0" IVar="-1" Cut="0.0000000000000000e+00" cType="1" res="-2.1416319068521261e-03" rms="3.6645901203155518e-01" purity="2.3457154631614685e-01" nType="-99"/>
          </Node>
          <Node pos="r" depth="2" NCoef="0" IVar="6" Cut="1.6202092170715332e-01" cType="1" res="3.9206378161907196e-02" rms="3.6849591135978699e-01" purity="2.3218938708305359e-01" nType="0">
            <Node pos="l" depth="3" NCoef="0" IVar="-1" Cut="0.0000000000000000e+00" cType="1" res="5.1183342933654785e-02" rms="3.8590046763420105e-01" purity="2.7838861942291260e-01" nType="-99"/>
            <Node pos="r" depth="3" NCoef="0" IVar="-1" Cut="0.0000000000000000e+00" cType="1" res="1.0632590390741825e-02" rms="3.4778031706809998e-01" purity="1.8508677184581757e-01" nType="-99"/>
          </Node>
        </Node>
        <Node pos="r" depth="1" NCoef="0" IVar="7" Cut="-1.7333064079284668e+00" cType="1" res="3.9955615065991879e-03" rms="3.9446681737899780e-01" purity="5.8446568250656128e-01" nType="0">
          <Node pos="l" depth="2" NCoef="0" IVar="-1" Cut="0.0000000000000000e+00" cType="1" res="-2.3441337049007416e-02" rms="3.4939393401145935e-01" purity="2.4152445793151855e-01" nType="-99"/>
          <Node pos="r" depth="2" NCoef="0" IVar="0" Cut="4.4441247558593750e+02" cType="1" res="5.7649272494018078e-03" rms="3.9638167619705200e-01" purity="6.0066539049148560e-01" nType="0">
            <Node pos="l" depth="3" NCoef="0" IVar="-1" Cut="0.0000000000000000e+00" cType="1" res="6.7343628033995628e-03" rms="4.2081356048583984e-01" purity="4.5875298976898193e-01" nType="-99"/>
            <Node pos="r" depth="3" NCoef="0" IVar="-1" Cut="0.0000000000000000e+00" cType="1" res="-1.0711380746215582e-03" rms="3.6581441760063171e-01" purity="7.6557737588882446e-01" nType="-99"/>
          </Node>
        </Node>
      </Node>
    </BinaryTree>
    <BinaryTree type="DecisionTree" boostWeight="1.0000000000000000e+00" itree="154">
      <Node pos="s" depth="0" NCoef="0" IVar="9" Cut="-1.3334968686103821e-01" cType="1" res="8.7226864707190543e-05" rms="3.8841798901557922e-01" purity="4.9955269694328308e-01" nType="0">
        <Node pos="l" depth="1" NCoef="0" IVar="6" Cut="6.8026745319366455e-01" cType="1" res="-6.2847365625202656e-03" rms="3.8672068715095520e-01" purity="4.8764964938163757e-01" nType="0">
          <Node pos="l" depth="2" NCoef="0" IVar="2" Cut="5.0069393920898438e+02" cType="1" res="-9.7698671743273735e-03" rms="3.8789039850234985e-01" purity="5.1193618774414062e-01" nType="0">
            <Node pos="l" depth="3" NCoef="0" IVar="-1" Cut="0.0000000000000000e+00" cType="1" res="-4.0201372466981411e-03" rms="3.8895612955093384e-01" purity="5.0369620323181152e-01" nType="-99"/>
            <Node pos="r" depth="3" NCoef="0" IVar="-1" Cut="0.0000000000000000e+00" cType="1" res="-1.7611801624298096e-02" rms="3.8207152485847473e-01" purity="5.5266183614730835e-01" nType="-99"/>
          </Node>
          <Node pos="r" depth="2" NCoef="0" IVar="7" Cut="6.6669052839279175e-01" cType="1" res="6.9714882411062717e-03" rms="3.8194844126701355e-01" purity="3.9527234435081482e-01" nType="0">
            <Node pos="l" depth="3" NCoef="0" IVar="-1" Cut="0.0000000000000000e+00" cType="1" res="-4.9626450054347515e-03" rms="3.6870032548904419e-01" purity="4.0883594751358032e-01" nType="-99"/>
            <Node pos="r" depth="3" NCoef="0" IVar="-1" Cut="0.0000000000000000e+00" cType="1" res="3.1736280769109726e-02" rms="4.1298043727874756e-01" purity="3.5886827111244202e-01" nType="-99"/>
          </Node>
        </Node>
        <Node pos="r" depth="1" NCoef="0" IVar="8" Cut="1.3326270878314972e-01" cType="1" res="5.3952285088598728e-03" rms="3.8974669575691223e-01" purity="5.0946825742721558e-01" nType="0">
          <Node pos="l" depth="2" NCoef="0" IVar="6" Cut="4.1932436823844910e-01" cType="1" res="1.3359168544411659e-02" rms="3.9481645822525024e-01" purity="5.3695380687713623e-01" nType="0">
            <Node pos="l" depth="3" NCoef="0" IVar="-1" Cut="0.0000000000000000e+00" cType="1" res="1.3503127731382847e-02" rms="3.9687472581863403e-01" purity="5.7638835906982422e-01" nType="-99"/>
            <Node pos="r" depth="3" NCoef="0" IVar="-1" Cut="0.0000000000000000e+00" cType="1" res="-2.2224094718694687e-03" rms="3.8980957865715027e-01" purity="4.5174935460090637e-01" nType="-99"/>
          </Node>
          <Node pos="r" depth="2" NCoef="0" IVar="5" Cut="1.0450298309326172e+02" cType="1" res="-3.1998811755329370e-03" rms="3.8401481509208679e-01" purity="4.7980430722236633e-01" nType="0">
            <Node pos="l" depth="3" NCoef="0" IVar="-1" Cut="0.0000000000000000e+00" cType="1" res="-6.5702558495104313e-03" rms="3.9226025342941284e-01" purity="3.5973614454269409e-01" nType="-99"/>
            <Node pos="r" depth="3" NCoef="0" IVar="-1" Cut="0.0000000000000000e+00" cType="1" res="9.3256821855902672e-03" rms="3.6426514387130737e-01" purity="7.5009357929229736e-01" nType="-99"/>
          </Node>
        </Node>
      </Node>
    </BinaryTree>
    <BinaryTree type="DecisionTree" boostWeight="1.0000000000000000e+00" itree="155">
      <Node pos="s" depth="0" NCoef="0" IVar="8" Cut="-1.4666593074798584e+00" cType="1" res="1.1216948041692376e-03" rms="3.8927236199378967e-01" purity="5.0122094154357910e-01" nType="0">
        <Node pos="l" depth="1" NCoef="0" IVar="4" Cut="1.1497694396972656e+02" cType="1" res="2.5404499843716621e-02" rms="3.8583946228027344e-01" purity="3.4676656126976013e-01" nType="0">
          <Node pos="l" depth="2" NCoef="0" IVar="9" Cut="-3.9968562126159668e-01" cType="1" res="4.2751427739858627e-02" rms="3.7259301543235779e-01" purity="2.4675823748111725e-01" nType="0">
            <Node pos="l" depth="3" NCoef="0" IVar="-1" Cut="0.0000000000000000e+00" cType="1" res="1.8240805715322495e-02" rms="3.4831812977790833e-01" purity="1.9068516790866852e-01" nType="-99"/>
            <Node pos="r" depth="3" NCoef="0" IVar="-1" Cut="0.0000000000000000e+00" cType="1" res="4.4909473508596420e-02" rms="3.8996168971061707e-01" purity="2.9150819778442383e-01" nType="-99"/>
          </Node>
          <Node pos="r" depth="2" NCoef="0" IVar="-1" Cut="0.0000000000000000e+00" cType="1" res="2.2671811748296022e-03" rms="4.0065622329711914e-01" purity="4.7112631797790527e-01" nType="-99"/>
        </Node>
        <Node pos="r" depth="1" NCoef="0" IVar="7" Cut="6.6674447059631348e-01" cType="1" res="-1.8625977681949735e-03" rms="3.8958775997161865e-01" purity="5.2020293474197388e-01" nType="0">
          <Node pos="l" depth="2" NCoef="0" IVar="0" Cut="5.7768829345703125e+02" cType="1" res="-5.2963928319513798e-03" rms="3.8936111330986023e-01" purity="5.4963034391403198e-01" nType="0">
            <Node pos="l" depth="3" NCoef="0" IVar="-1" Cut="0.0000000000000000e+00" cType="1" res="-5.0229025073349476e-03" rms="3.9971372485160828e-01" purity="4.8377341032028198e-01" nType="-99"/>
            <Node pos="r" depth="3" NCoef="0" IVar="-1" Cut="0.0000000000000000e+00" cType="1" res="5.6981313973665237e-03" rms="3.4236216545104980e-01" purity="8.2545804977416992e-01" nType="-99"/>
          </Node>
          <Node pos="r" depth="2" NCoef="0" IVar="4" Cut="1.9150369262695312e+02" cType="1" res="7.3258881457149982e-03" rms="3.9004495739936829e-01" purity="4.4145831465721130e-01" nType="0">
            <Node pos="l" depth="3" NCoef="0" IVar="-1" Cut="0.0000000000000000e+00" cType="1" res="2.5497726164758205e-03" rms="3.9566737413406372e-01" purity="3.7574622035026550e-01" nType="-99"/>
            <Node pos="r" depth="3" NCoef="0" IVar="-1" Cut="0.0000000000000000e+00" cType="1" res="1.6251744702458382e-02" rms="3.6201730370521545e-01" purity="7.5033521652221680e-01" nType="-99"/>
          </Node>
        </Node>
      </Node>
    </BinaryTree>
    <BinaryTree type="DecisionTree" boostWeight="1.0000000000000000e+00" itree="156">
      <Node pos="s" depth="0" NCoef="0" IVar="6" Cut="1.2100057601928711e+00" cType="1" res="-1.9134477479383349e-03" rms="3.8817697763442993e-01" purity="4.9723616242408752e-01" nType="0">
        <Node pos="l" depth="1" NCoef="0" IVar="7" Cut="1.3334213197231293e-01" cType="1" res="6.6781904024537653e-05" rms="3.9463272690773010e-01" purity="5.2746510505676270e-01" nType="0">
          <Node pos="l" depth="2" NCoef="0" IVar="7" Cut="-1.4031387567520142e+00" cType="1" res="-5.5391169153153896e-03" rms="3.9189279079437256e-01" purity="5.2908658981323242e-01" nType="0">
            <Node pos="l" depth="3" NCoef="0" IVar="-1" Cut="0.0000000000000000e+00" cType="1" res="1.3337003998458385e-02" rms="3.6893719434738159e-01" purity="3.1358221173286438e-01" nType="-99"/>
            <Node pos="r" depth="3" NCoef="0" IVar="-1" Cut="0.0000000000000000e+00" cType="1" res="-6.8581327795982361e-03" rms="3.9652222394943237e-01" purity="5.7608920335769653e-01" nType="-99"/>
          </Node>
          <Node pos="r" depth="2" NCoef="0" IVar="1" Cut="1.4083581542968750e+03" cType="1" res="6.9467956200242043e-03" rms="3.9786165952682495e-01" purity="5.2547508478164673e-01" nType="0">
            <Node pos="l" depth="3" NCoef="0" IVar="-1" Cut="0.0000000000000000e+00" cType="1" res="7.7283601276576519e-03" rms="4.1437816619873047e-01" purity="4.0455052256584167e-01" nType="-99"/>
            <Node pos="r" depth="3" NCoef="0" IVar="-1" Cut="0.0000000000000000e+00" cType="1" res="-2.8869619127362967e-03" rms="3.6602321267127991e-01" purity="7.4305170774459839e-01" nType="-99"/>
          </Node>
        </Node>
        <Node pos="r" depth="1" NCoef="0" IVar="8" Cut="-6.6651093959808350e-01" cType="1" res="-1.8791435286402702e-02" rms="3.2755112648010254e-01" purity="2.3958715796470642e-01" nType="0">
          <Node pos="l" depth="2" NCoef="0" IVar="-1" Cut="0.0000000000000000e+00" cType="1" res="-4.9046695232391357e-02" rms="2.9040583968162537e-01" purity="1.5568481385707855e-01" nType="-99"/>
          <Node pos="r" depth="2" NCoef="0" IVar="9" Cut="1.3358666002750397e-01" cType="1" res="-6.6122855059802532e-03" rms="3.3802777528762817e-01" purity="2.6726105809211731e-01" nType="0">
            <Node pos="l" depth="3" NCoef="0" IVar="-1" Cut="0.0000000000000000e+00" cType="1" res="8.1942109391093254e-03" rms="3.5710954666137695e-01" purity="3.1544208526611328e-01" nType="-99"/>
            <Node pos="r" depth="3" NCoef="0" IVar="-1" Cut="0.0000000000000000e+00" cType="1" res="-1.7623517662286758e-02" rms="3.2083684206008911e-01" purity="2.2785638272762299e-01" nType="-99"/>
          </Node>
        </Node>
      </Node>
    </BinaryTree>
    <BinaryTree type="DecisionTree" boostWeight="1.0000000000000000e+00" itree="157">
      <Node pos="s" depth="0" NCoef="0" IVar="9" Cut="6.6664719581604004e-01" cType="1" res="-2.5890774559229612e-03" rms="3.8826721906661987e-01" purity="4.9313324689865112e-01" nType="0">
        <Node pos="l" depth="1" NCoef="0" IVar="9" Cut="-1.8094568252563477e+00" cType="1" res="1.3038648758083582e-03" rms="3.9099532365798950e-01" purity="5.1078480482101440e-01" nType="0">
          <Node pos="l" depth="2" NCoef="0" IVar="4" Cut="1.2014115142822266e+02" cType="1" res="-2.2646697238087654e-02" rms="3.6508849263191223e-01" purity="3.2226705551147461e-01" nType="0">
            <Node pos="l" depth="3" NCoef="0" IVar="-1" Cut="0.0000000000000000e+00" cType="1" res="-3.1007716432213783e-02" rms="3.2393106818199158e-01" purity="1.7587666213512421e-01" nType="-99"/>
            <Node pos="r" depth="3" NCoef="0" IVar="-1" Cut="0.0000000000000000e+00" cType="1" res="-1.5987172955647111e-03" rms="4.1073077917098999e-01" purity="5.0871497392654419e-01" nType="-99"/>
          </Node>
          <Node pos="r" depth="2" NCoef="0" IVar="4" Cut="1.4892147827148438e+02" cType="1" res="4.0678801015019417e-03" rms="3.9378169178962708e-01" purity="5.3254073858261108e-01" nType="0">
            <Node pos="l" depth="3" NCoef="0" IVar="-1" Cut="0.0000000000000000e+00" cType="1" res="5.2905911579728127e-03" rms="4.0928941965103149e-01" purity="4.0701293945312500e-01" nType="-99"/>
            <Node pos="r" depth="3" NCoef="0" IVar="-1" Cut="0.0000000000000000e+00" cType="1" res="-2.7025751769542694e-03" rms="3.6624553799629211e-01" purity="7.4251604080200195e-01" nType="-99"/>
          </Node>
        </Node>
        <Node pos="r" depth="1" NCoef="0" IVar="6" Cut="9.4901221990585327e-01" cType="1" res="-1.1670619249343872e-02" rms="3.8167291879653931e-01" purity="4.5195525884628296e-01" nType="0">
          <Node pos="l" depth="2" NCoef="0" IVar="6" Cut="-1.0859715193510056e-01" cType="1" res="-7.2620096616446972e-03" rms="3.9141654968261719e-01" purity="5.0673127174377441e-01" nType="0">
            <Node pos="l" depth="3" NCoef="0" IVar="-1" Cut="0.0000000000000000e+00" cType="1" res="-1.1523194611072540e-02" rms="3.8305565714836121e-01" purity="4.4600954651832581e-01" nType="-99"/>
            <Node pos="r" depth="3" NCoef="0" IVar="-1" Cut="0.0000000000000000e+00" cType="1" res="1.5474201645702124e-03" rms="3.9926666021347046e-01" purity="5.6674820184707642e-01" nType="-99"/>
          </Node>
          <Node pos="r" depth="2" NCoef="0" IVar="4" Cut="1.1334857940673828e+02" cType="1" res="-2.8942979872226715e-02" rms="3.4027573466300964e-01" purity="2.3734994232654572e-01" nType="0">
            <Node pos="l" depth="3" NCoef="0" IVar="-1" Cut="0.0000000000000000e+00" cType="1" res="-2.7321786619722843e-03" rms="3.1240046024322510e-01" purity="1.3773907721042633e-01" nType="-99"/>
            <Node pos="r" depth="3" NCoef="0" IVar="-1" Cut="0.0000000000000000e+00" cType="1" res="-3.8338784128427505e-02" rms="3.6675059795379639e-01" purity="3.4880903363227844e-01" nType="-99"/>
          </Node>
        </Node>
      </Node>
    </BinaryTree>
    <BinaryTree type="DecisionTree" boostWeight="1.0000000000000000e+00" itree="158">
      <Node pos="s" depth="0" NCoef="0" IVar="8" Cut="1.9999018907546997e+00" cType="1" res="1.6656989464536309e-03" rms="3.8775900006294250e-01" purity="5.0012218952178955e-01" nType="0">
        <Node pos="l" depth="1" NCoef="0" IVar="6" Cut="1.5005101263523102e-01" cType="1" res="3.3048812765628099e-03" rms="3.9006280899047852e-01" purity="5.1220780611038208e-01" nType="0">
          <Node pos="l" depth="2" NCoef="0" IVar="6" Cut="-4.0516853332519531e-01" cType="1" res="7.9807769507169724e-03" rms="3.9369082450866699e-01" purity="5.2605038881301880e-01" nType="0">
            <Node pos="l" depth="3" NCoef="0" IVar="-1" Cut="0.0000000000000000e+00" cType="1" res="1.4967946335673332e-03" rms="3.8865426182746887e-01" purity="4.4640788435935974e-01" nType="-99"/>
            <Node pos="r" depth="3" NCoef="0" IVar="-1" Cut="0.0000000000000000e+00" cType="1" res="1.0046653449535370e-02" rms="4.0058454871177673e-01" purity="6.3898575305938721e-01" nType="-99"/>
          </Node>
          <Node pos="r" depth="2" NCoef="0" IVar="7" Cut="-1.4665313959121704e+00" cType="1" res="-2.7607898227870464e-03" rms="3.8522103428840637e-01" purity="4.9425089359283447e-01" nType="0">
            <Node pos="l" depth="3" NCoef="0" IVar="-1" Cut="0.0000000000000000e+00" cType="1" res="-2.9857480898499489e-02" rms="3.0807465314865112e-01" purity="2.1296188235282898e-01" nType="-99"/>
            <Node pos="r" depth="3" NCoef="0" IVar="-1" Cut="0.0000000000000000e+00" cType="1" res="2.9330258257687092e-04" rms="3.9133051037788391e-01" purity="5.1985335350036621e-01" nType="-99"/>
          </Node>
        </Node>
        <Node pos="r" depth="1" NCoef="0" IVar="-1" Cut="0.0000000000000000e+00" cType="1" res="-2.8674833476543427e-02" rms="3.2597112655639648e-01" purity="2.1333061158657074e-01" nType="-99"/>
      </Node>
    </BinaryTree>
    <BinaryTree type="DecisionTree" boostWeight="1.0000000000000000e+00" itree="159">
      <Node pos="s" depth="0" NCoef="0" IVar="4" Cut="1.4892147827148438e+02" cType="1" res="2.2869557142257690e-03" rms="3.8924664258956909e-01" purity="4.9944934248924255e-01" nType="0">
        <Node pos="l" depth="1" NCoef="0" IVar="9" Cut="1.7332092523574829e+00" cType="1" res="-1.3102155644446611e-03" rms="3.9970445632934570e-01" purity="3.6628946661949158e-01" nType="0">
          <Node pos="l" depth="2" NCoef="0" IVar="4" Cut="9.2444427490234375e+01" cType="1" res="-3.8336017169058323e-03" rms="4.0118694305419922e-01" purity="3.7410643696784973e-01" nType="0">
            <Node pos="l" depth="3" NCoef="0" IVar="-1" Cut="0.0000000000000000e+00" cType="1" res="3.7654910702258348e-03" rms="3.7156298756599426e-01" purity="2.3253436386585236e-01" nType="-99"/>
            <Node pos="r" depth="3" NCoef="0" IVar="-1" Cut="0.0000000000000000e+00" cType="1" res="-5.4933466017246246e-03" rms="4.1935929656028748e-01" purity="4.6686688065528870e-01" nType="-99"/>
          </Node>
          <Node pos="r" depth="2" NCoef="0" IVar="5" Cut="6.4089248657226562e+01" cType="1" res="2.0998325198888779e-02" rms="3.8563308119773865e-01" purity="2.9718157649040222e-01" nType="0">
            <Node pos="l" depth="3" NCoef="0" IVar="-1" Cut="0.0000000000000000e+00" cType="1" res="4.2732447385787964e-02" rms="3.7322202324867249e-01" purity="2.4196204543113708e-01" nType="-99"/>
            <Node pos="r" depth="3" NCoef="0" IVar="-1" Cut="0.0000000000000000e+00" cType="1" res="-5.7244661729782820e-04" rms="3.9363205432891846e-01" purity="3.4016725420951843e-01" nType="-99"/>
          </Node>
        </Node>
        <Node pos="r" depth="1" NCoef="0" IVar="7" Cut="-6.6646009683609009e-01" cType="1" res="8.5518676787614822e-03" rms="3.7024530768394470e-01" purity="7.3136335611343384e-01" nType="0">
          <Node pos="l" depth="2" NCoef="0" IVar="8" Cut="4.0258499979972839e-01" cType="1" res="2.2163182497024536e-02" rms="3.9229986071586609e-01" purity="6.6298878192901611e-01" nType="0">
            <Node pos="l" depth="3" NCoef="0" IVar="-1" Cut="0.0000000000000000e+00" cType="1" res="2.1187234669923782e-02" rms="3.9066058397293091e-01" purity="6.9093292951583862e-01" nType="-99"/>
            <Node pos="r" depth="3" NCoef="0" IVar="-1" Cut="0.0000000000000000e+00" cType="1" res="-4.0006986819207668e-03" rms="3.9490658044815063e-01" purity="5.9313160181045532e-01" nType="-99"/>
          </Node>
          <Node pos="r" depth="2" NCoef="0" IVar="8" Cut="-9.3281316757202148e-01" cType="1" res="4.2412304319441319e-03" rms="3.6287501454353333e-01" purity="7.5301730632781982e-01" nType="0">
            <Node pos="l" depth="3" NCoef="0" IVar="-1" Cut="0.0000000000000000e+00" cType="1" res="-1.5139817260205746e-02" rms="3.8578021526336670e-01" purity="6.3869673013687134e-01" nType="-99"/>
            <Node pos="r" depth="3" NCoef="0" IVar="-1" Cut="0.0000000000000000e+00" cType="1" res="7.1204626001417637e-03" rms="3.5815083980560303e-01" purity="7.7457380294799805e-01" nType="-99"/>
          </Node>
        </Node>
      </Node>
    </BinaryTree>
    <BinaryTree type="DecisionTree" boostWeight="1.0000000000000000e+00" itree="160">
      <Node pos="s" depth="0" NCoef="0" IVar="1" Cut="1.0948471679687500e+03" cType="1" res="-2.9000439099036157e-04" rms="3.8825124502182007e-01" purity="5.0196063518524170e-01" nType="0">
        <Node pos="l" depth="1" NCoef="0" IVar="2" Cut="2.3398501586914062e+02" cType="1" res="-7.9348012804985046e-03" rms="3.7632602453231812e-01" purity="2.1872048079967499e-01" nType="0">
          <Node pos="l" depth="2" NCoef="0" IVar="3" Cut="1.5014358520507812e+02" cType="1" res="7.1928543038666248e-03" rms="4.1346302628517151e-01" purity="2.9144057631492615e-01" nType="0">
            <Node pos="l" depth="3" NCoef="0" IVar="-1" Cut="0.0000000000000000e+00" cType="1" res="1.9552959129214287e-02" rms="4.1172584891319275e-01" purity="2.6357707381248474e-01" nType="-99"/>
            <Node pos="r" depth="3" NCoef="0" IVar="-1" Cut="0.0000000000000000e+00" cType="1" res="-7.6117543503642082e-03" rms="4.1400507092475891e-01" purity="3.1774821877479553e-01" nType="-99"/>
          </Node>
          <Node pos="r" depth="2" NCoef="0" IVar="5" Cut="7.2422554016113281e+01" cType="1" res="-1.3401164673268795e-02" rms="3.6181512475013733e-01" purity="1.9244313240051270e-01" nType="0">
            <Node pos="l" depth="3" NCoef="0" IVar="-1" Cut="0.0000000000000000e+00" cType="1" res="-4.9757328815758228e-03" rms="3.4268602728843689e-01" purity="1.6516304016113281e-01" nType="-99"/>
            <Node pos="r" depth="3" NCoef="0" IVar="-1" Cut="0.0000000000000000e+00" cType="1" res="-1.8523531034588814e-02" rms="4.0537372231483459e-01" purity="2.6106590032577515e-01" nType="-99"/>
          </Node>
        </Node>
        <Node pos="r" depth="1" NCoef="0" IVar="2" Cut="4.5165948486328125e+02" cType="1" res="3.0262044165283442e-03" rms="3.9326560497283936e-01" purity="6.2482637166976929e-01" nType="0">
          <Node pos="l" depth="2" NCoef="0" IVar="1" Cut="1.1994364013671875e+03" cType="1" res="9.1111259534955025e-03" rms="3.9403074979782104e-01" purity="6.6417431831359863e-01" nType="0">
            <Node pos="l" depth="3" NCoef="0" IVar="-1" Cut="0.0000000000000000e+00" cType="1" res="-3.6702186334878206e-03" rms="4.4092130661010742e-01" purity="4.4347718358039856e-01" nType="-99"/>
            <Node pos="r" depth="3" NCoef="0" IVar="-1" Cut="0.0000000000000000e+00" cType="1" res="1.0039391927421093e-02" rms="3.7683737277984619e-01" purity="7.3823666572570801e-01" nType="-99"/>
          </Node>
          <Node pos="r" depth="2" NCoef="0" IVar="7" Cut="6.6678065061569214e-01" cType="1" res="-9.0487990528345108e-03" rms="3.9146283268928528e-01" purity="5.4674381017684937e-01" nType="0">
            <Node pos="l" depth="3" NCoef="0" IVar="-1" Cut="0.0000000000000000e+00" cType="1" res="-1.6646547010168433e-03" rms="3.9351525902748108e-01" purity="5.8441513776779175e-01" nType="-99"/>
            <Node pos="r" depth="3" NCoef="0" IVar="-1" Cut="0.0000000000000000e+00" cType="1" res="-1.9209405407309532e-02" rms="3.8403621315956116e-01" purity="4.2540803551673889e-01" nType="-99"/>
          </Node>
        </Node>
      </Node>
    </BinaryTree>
    <BinaryTree type="DecisionTree" boostWeight="1.0000000000000000e+00" itree="161">
      <Node pos="s" depth="0" NCoef="0" IVar="9" Cut="9.3333864212036133e-01" cType="1" res="2.2339159622788429e-03" rms="3.8605219125747681e-01" purity="5.0719386339187622e-01" nType="0">
        <Node pos="l" depth="1" NCoef="0" IVar="9" Cut="-1.9110819101333618e+00" cType="1" res="5.6748655624687672e-03" rms="3.8785594701766968e-01" purity="5.2839684486389160e-01" nType="0">
          <Node pos="l" depth="2" NCoef="0" IVar="4" Cut="1.1743950653076172e+02" cType="1" res="-1.9957078620791435e-02" rms="3.7411585450172424e-01" purity="3.1301325559616089e-01" nType="0">
            <Node pos="l" depth="3" NCoef="0" IVar="-1" Cut="0.0000000000000000e+00" cType="1" res="-5.1569221541285515e-03" rms="3.4480512142181396e-01" purity="1.9096027314662933e-01" nType="-99"/>
            <Node pos="r" depth="3" NCoef="0" IVar="-1" Cut="0.0000000000000000e+00" cType="1" res="-2.1983860060572624e-02" rms="4.0809985995292664e-01" purity="4.7022849321365356e-01" nType="-99"/>
          </Node>
          <Node pos="r" depth="2" NCoef="0" IVar="7" Cut="-1.4666428565979004e+00" cType="1" res="7.8210728242993355e-03" rms="3.8890776038169861e-01" purity="5.4643130302429199e-01" nType="0">
            <Node pos="l" depth="3" NCoef="0" IVar="-1" Cut="0.0000000000000000e+00" cType="1" res="2.1520484238862991e-02" rms="3.6805117130279541e-01" purity="3.3086484670639038e-01" nType="-99"/>
            <Node pos="r" depth="3" NCoef="0" IVar="-1" Cut="0.0000000000000000e+00" cType="1" res="3.6200406029820442e-03" rms="3.9091745018959045e-01" purity="5.6857246160507202e-01" nType="-99"/>
          </Node>
        </Node>
        <Node pos="r" depth="1" NCoef="0" IVar="7" Cut="-3.9996799826622009e-01" cType="1" res="-9.1609684750437737e-03" rms="3.7979531288146973e-01" purity="4.3697926402091980e-01" nType="0">
          <Node pos="l" depth="2" NCoef="0" IVar="9" Cut="1.5555741786956787e+00" cType="1" res="-3.2519921660423279e-02" rms="3.7146228551864624e-01" purity="3.6454451084136963e-01" nType="0">
            <Node pos="l" depth="3" NCoef="0" IVar="-1" Cut="0.0000000000000000e+00" cType="1" res="-3.4812770783901215e-02" rms="3.7504136562347412e-01" purity="3.9093375205993652e-01" nType="-99"/>
            <Node pos="r" depth="3" NCoef="0" IVar="-1" Cut="0.0000000000000000e+00" cType="1" res="-9.4070537015795708e-03" rms="3.6697497963905334e-01" purity="3.3919605612754822e-01" nType="-99"/>
          </Node>
          <Node pos="r" depth="2" NCoef="0" IVar="8" Cut="4.0018439292907715e-01" cType="1" res="3.3882883144542575e-04" rms="3.8272485136985779e-01" purity="4.6643748879432678e-01" nType="0">
            <Node pos="l" depth="3" NCoef="0" IVar="-1" Cut="0.0000000000000000e+00" cType="1" res="8.1346640363335609e-03" rms="3.9096567034721375e-01" purity="5.1985669136047363e-01" nType="-99"/>
            <Node pos="r" depth="3" NCoef="0" IVar="-1" Cut="0.0000000000000000e+00" cType="1" res="-1.0555706918239594e-02" rms="3.7118867039680481e-01" purity="3.9727509021759033e-01" nType="-99"/>
          </Node>
        </Node>
      </Node>
    </BinaryTree>
    <BinaryTree type="DecisionTree" boostWeight="1.0000000000000000e+00" itree="162">
      <Node pos="s" depth="0" NCoef="0" IVar="7" Cut="4.0004569292068481e-01" cType="1" res="-3.5771799739450216e-03" rms="3.8616853952407837e-01" purity="4.9800661206245422e-01" nType="0">
        <Node pos="l" depth="1" NCoef="0" IVar="7" Cut="-1.5808345079421997e+00" cType="1" res="7.0584530476480722e-05" rms="3.8651990890502930e-01" purity="5.2702808380126953e-01" nType="0">
          <Node pos="l" depth="2" NCoef="0" IVar="8" Cut="-6.6674792766571045e-01" cType="1" res="-2.0571023225784302e-02" rms="3.3481785655021667e-01" purity="2.1753279864788055e-01" nType="0">
            <Node pos="l" depth="3" NCoef="0" IVar="-1" Cut="0.0000000000000000e+00" cType="1" res="3.6149224615655839e-04" rms="3.4256821870803833e-01" purity="2.1099875867366791e-01" nType="-99"/>
            <Node pos="r" depth="3" NCoef="0" IVar="-1" Cut="0.0000000000000000e+00" cType="1" res="-2.6602499186992645e-02" rms="3.2887709140777588e-01" purity="2.2183986008167267e-01" nType="-99"/>
          </Node>
          <Node pos="r" depth="2" NCoef="0" IVar="1" Cut="1.4097268066406250e+03" cType="1" res="2.7101696468889713e-03" rms="3.9256247878074646e-01" purity="5.6660538911819458e-01" nType="0">
            <Node pos="l" depth="3" NCoef="0" IVar="-1" Cut="0.0000000000000000e+00" cType="1" res="-9.3480356736108661e-04" rms="4.1647401452064514e-01" purity="4.2476963996887207e-01" nType="-99"/>
            <Node pos="r" depth="3" NCoef="0" IVar="-1" Cut="0.0000000000000000e+00" cType="1" res="7.3171090334653854e-03" rms="3.5232380032539368e-01" purity="7.8582370281219482e-01" nType="-99"/>
          </Node>
        </Node>
        <Node pos="r" depth="1" NCoef="0" IVar="8" Cut="-1.4665572643280029e+00" cType="1" res="-1.0259812697768211e-02" rms="3.8543447852134705e-01" purity="4.4483983516693115e-01" nType="0">
          <Node pos="l" depth="2" NCoef="0" IVar="-1" Cut="0.0000000000000000e+00" cType="1" res="1.9403394311666489e-02" rms="3.8580104708671570e-01" purity="3.0773732066154480e-01" nType="-99"/>
          <Node pos="r" depth="2" NCoef="0" IVar="8" Cut="1.3777391910552979e+00" cType="1" res="-1.4297670684754848e-02" rms="3.8517752289772034e-01" purity="4.5962280035018921e-01" nType="0">
            <Node pos="l" depth="3" NCoef="0" IVar="-1" Cut="0.0000000000000000e+00" cType="1" res="-6.3461540266871452e-03" rms="3.9208731055259705e-01" purity="4.9713420867919922e-01" nType="-99"/>
            <Node pos="r" depth="3" NCoef="0" IVar="-1" Cut="0.0000000000000000e+00" cType="1" res="-2.8598062694072723e-02" rms="3.4384968876838684e-01" purity="2.5417396426200867e-01" nType="-99"/>
          </Node>
        </Node>
      </Node>
    </BinaryTree>
    <BinaryTree type="DecisionTree" boostWeight="1.0000000000000000e+00" itree="163">
      <Node pos="s" depth="0" NCoef="0" IVar="8" Cut="1.7332980632781982e+00" cType="1" res="-7.4157945346087217e-04" rms="3.8832232356071472e-01" purity="4.9855142831802368e-01" nType="0">
        <Node pos="l" depth="1" NCoef="0" IVar="8" Cut="1.3015513420104980e+00" cType="1" res="-2.1268560085445642e-03" rms="3.8904839754104614e-01" purity="5.1410567760467529e-01" nType="0">
          <Node pos="l" depth="2" NCoef="0" IVar="9" Cut="1.9999829530715942e+00" cType="1" res="-9.4198703300207853e-04" rms="3.8908928632736206e-01" purity="5.2242994308471680e-01" nType="0">
            <Node pos="l" depth="3" NCoef="0" IVar="-1" Cut="0.0000000000000000e+00" cType="1" res="-1.4256732538342476e-03" rms="3.8904899358749390e-01" purity="5.2884727716445923e-01" nType="-99"/>
            <Node pos="r" depth="3" NCoef="0" IVar="-1" Cut="0.0000000000000000e+00" cType="1" res="1.3361809775233269e-02" rms="3.8916724920272827e-01" purity="4.1019302606582642e-01" nType="-99"/>
          </Node>
          <Node pos="r" depth="2" NCoef="0" IVar="0" Cut="3.9997314453125000e+02" cType="1" res="-1.8816713243722916e-02" rms="3.8808792829513550e-01" purity="3.9685121178627014e-01" nType="0">
            <Node pos="l" depth="3" NCoef="0" IVar="-1" Cut="0.0000000000000000e+00" cType="1" res="-6.6984159639105201e-04" rms="3.7164968252182007e-01" purity="2.6348364353179932e-01" nType="-99"/>
            <Node pos="r" depth="3" NCoef="0" IVar="-1" Cut="0.0000000000000000e+00" cType="1" res="-2.0997388288378716e-02" rms="4.0214881300926208e-01" purity="5.2165639400482178e-01" nType="-99"/>
          </Node>
        </Node>
        <Node pos="r" depth="1" NCoef="0" IVar="6" Cut="1.6326352953910828e-01" cType="1" res="1.7656151205301285e-02" rms="3.7806639075279236e-01" purity="2.9197734594345093e-01" nType="0">
          <Node pos="l" depth="2" NCoef="0" IVar="-1" Cut="0.0000000000000000e+00" cType="1" res="5.2560860058292747e-04" rms="3.7921142578125000e-01" purity="2.9460337758064270e-01" nType="-99"/>
          <Node pos="r" depth="2" NCoef="0" IVar="-1" Cut="0.0000000000000000e+00" cType="1" res="2.7503671124577522e-02" rms="3.7608167529106140e-01" purity="2.8926265239715576e-01" nType="-99"/>
        </Node>
      </Node>
    </BinaryTree>
    <BinaryTree type="DecisionTree" boostWeight="1.0000000000000000e+00" itree="164">
      <Node pos="s" depth="0" NCoef="0" IVar="9" Cut="-2.2666332721710205e+00" cType="1" res="4.4717208947986364e-04" rms="3.8794669508934021e-01" purity="4.9851918220520020e-01" nType="0">
        <Node pos="l" depth="1" NCoef="0" IVar="-1" Cut="0.0000000000000000e+00" cType="1" res="2.5803525000810623e-02" rms="3.9706522226333618e-01" purity="3.2648190855979919e-01" nType="-99"/>
        <Node pos="r" depth="1" NCoef="0" IVar="8" Cut="9.3324249982833862e-01" cType="1" res="-6.6405930556356907e-04" rms="3.8760510087013245e-01" purity="5.0390923023223877e-01" nType="0">
          <Node pos="l" depth="2" NCoef="0" IVar="7" Cut="-3.9993324875831604e-01" cType="1" res="-2.7722863014787436e-03" rms="3.8781034946441650e-01" purity="5.2993959188461304e-01" nType="0">
            <Node pos="l" depth="3" NCoef="0" IVar="-1" Cut="0.0000000000000000e+00" cType="1" res="2.3450232110917568e-03" rms="3.8831409811973572e-01" purity="4.8873755335807800e-01" nType="-99"/>
            <Node pos="r" depth="3" NCoef="0" IVar="-1" Cut="0.0000000000000000e+00" cType="1" res="-4.2980564758181572e-03" rms="3.8746547698974609e-01" purity="5.5413872003555298e-01" nType="-99"/>
          </Node>
          <Node pos="r" depth="2" NCoef="0" IVar="6" Cut="-8.9044547080993652e-01" cType="1" res="7.0107411593198776e-03" rms="3.8675990700721741e-01" purity="4.0914800763130188e-01" nType="0">
            <Node pos="l" depth="3" NCoef="0" IVar="-1" Cut="0.0000000000000000e+00" cType="1" res="-1.4804937876760960e-02" rms="3.3571356534957886e-01" purity="2.4179258942604065e-01" nType="-99"/>
            <Node pos="r" depth="3" NCoef="0" IVar="-1" Cut="0.0000000000000000e+00" cType="1" res="7.4373520910739899e-03" rms="3.9519301056861877e-01" purity="4.3971398472785950e-01" nType="-99"/>
          </Node>
        </Node>
      </Node>
    </BinaryTree>
    <BinaryTree type="DecisionTree" boostWeight="1.0000000000000000e+00" itree="165">
      <Node pos="s" depth="0" NCoef="0" IVar="4" Cut="1.4430955505371094e+02" cType="1" res="-3.6451383493840694e-03" rms="3.8569563627243042e-01" purity="4.9319893121719360e-01" nType="0">
        <Node pos="l" depth="1" NCoef="0" IVar="8" Cut="-6.6668671369552612e-01" cType="1" res="-7.3149963282048702e-03" rms="3.9350506663322449e-01" purity="3.5283148288726807e-01" nType="0">
          <Node pos="l" depth="2" NCoef="0" IVar="5" Cut="7.6837020874023438e+01" cType="1" res="3.1116504687815905e-03" rms="3.8490390777587891e-01" purity="3.2840242981910706e-01" nType="0">
            <Node pos="l" depth="3" NCoef="0" IVar="-1" Cut="0.0000000000000000e+00" cType="1" res="-6.1196414753794670e-03" rms="3.6227476596832275e-01" purity="2.3366157710552216e-01" nType="-99"/>
            <Node pos="r" depth="3" NCoef="0" IVar="-1" Cut="0.0000000000000000e+00" cType="1" res="1.2771947309374809e-02" rms="4.1895058751106262e-01" purity="4.8503005504608154e-01" nType="-99"/>
          </Node>
          <Node pos="r" depth="2" NCoef="0" IVar="4" Cut="1.2186572265625000e+02" cType="1" res="-1.2014701031148434e-02" rms="3.9723157882690430e-01" purity="3.6384266614913940e-01" nType="0">
            <Node pos="l" depth="3" NCoef="0" IVar="-1" Cut="0.0000000000000000e+00" cType="1" res="-1.1279733851552010e-02" rms="3.8942468166351318e-01" purity="3.0416703224182129e-01" nType="-99"/>
            <Node pos="r" depth="3" NCoef="0" IVar="-1" Cut="0.0000000000000000e+00" cType="1" res="3.2901391386985779e-03" rms="4.2116898298263550e-01" purity="5.5817908048629761e-01" nType="-99"/>
          </Node>
        </Node>
        <Node pos="r" depth="1" NCoef="0" IVar="9" Cut="1.4666762351989746e+00" cType="1" res="2.1280415821820498e-03" rms="3.7300661206245422e-01" purity="7.1401578187942505e-01" nType="0">
          <Node pos="l" depth="2" NCoef="0" IVar="6" Cut="1.2160832881927490e+00" cType="1" res="5.5629550479352474e-03" rms="3.7085136771202087e-01" purity="7.2855508327484131e-01" nType="0">
            <Node pos="l" depth="3" NCoef="0" IVar="-1" Cut="0.0000000000000000e+00" cType="1" res="5.9663807041943073e-03" rms="3.6969903111457825e-01" purity="7.5031536817550659e-01" nType="-99"/>
            <Node pos="r" depth="3" NCoef="0" IVar="-1" Cut="0.0000000000000000e+00" cType="1" res="-1.7069829627871513e-02" rms="3.8329178094863892e-01" purity="4.5786780118942261e-01" nType="-99"/>
          </Node>
          <Node pos="r" depth="2" NCoef="0" IVar="-1" Cut="0.0000000000000000e+00" cType="1" res="-1.8157668411731720e-02" rms="3.9080107212066650e-01" purity="5.8079099655151367e-01" nType="-99"/>
        </Node>
      </Node>
    </BinaryTree>
    <BinaryTree type="DecisionTree" boostWeight="1.0000000000000000e+00" itree="166">
      <Node pos="s" depth="0" NCoef="0" IVar="6" Cut="-1.1677743196487427e+00" cType="1" res="2.1316888742148876e-03" rms="3.8825276494026184e-01" purity="4.9940678477287292e-01" nType="0">
        <Node pos="l" depth="1" NCoef="0" IVar="8" Cut="-9.3271368741989136e-01" cType="1" res="1.8938032910227776e-02" rms="3.5935717821121216e-01" purity="2.9179471731185913e-01" nType="0">
          <Node pos="l" depth="2" NCoef="0" IVar="-1" Cut="0.0000000000000000e+00" cType="1" res="-4.7865132801234722e-03" rms="3.2020723819732666e-01" purity="1.8553258478641510e-01" nType="-99"/>
          <Node pos="r" depth="2" NCoef="0" IVar="6" Cut="-1.6967887878417969e+00" cType="1" res="2.8266632929444313e-02" rms="3.7298727035522461e-01" purity="3.3290928602218628e-01" nType="0">
            <Node pos="l" depth="3" NCoef="0" IVar="-1" Cut="0.0000000000000000e+00" cType="1" res="1.0292550548911095e-02" rms="3.3070179820060730e-01" purity="2.0419250428676605e-01" nType="-99"/>
            <Node pos="r" depth="3" NCoef="0" IVar="-1" Cut="0.0000000000000000e+00" cType="1" res="2.5536639615893364e-02" rms="3.9443027973175049e-01" purity="4.0519574284553528e-01" nType="-99"/>
          </Node>
        </Node>
        <Node pos="r" depth="1" NCoef="0" IVar="6" Cut="1.0993900299072266e+00" cType="1" res="-9.7832329629454762e-05" rms="3.9187189936637878e-01" purity="5.2694851160049438e-01" nType="0">
          <Node pos="l" depth="2" NCoef="0" IVar="2" Cut="4.9859042358398438e+02" cType="1" res="-2.0419314969331026e-03" rms="3.9781025052070618e-01" purity="5.6728243827819824e-01" nType="0">
            <Node pos="l" depth="3" NCoef="0" IVar="-1" Cut="0.0000000000000000e+00" cType="1" res="-2.8355128597468138e-03" rms="3.9665994048118591e-01" purity="5.5817002058029175e-01" nType="-99"/>
            <Node pos="r" depth="3" NCoef="0" IVar="-1" Cut="0.0000000000000000e+00" cType="1" res="5.2245771512389183e-03" rms="4.0263512730598450e-01" purity="6.0716623067855835e-01" nType="-99"/>
          </Node>
          <Node pos="r" depth="2" NCoef="0" IVar="9" Cut="1.2000313997268677e+00" cType="1" res="1.1114423163235188e-02" rms="3.5548645257949829e-01" purity="2.9432955384254456e-01" nType="0">
            <Node pos="l" depth="3" NCoef="0" IVar="-1" Cut="0.0000000000000000e+00" cType="1" res="1.5180487185716629e-02" rms="3.6805728077888489e-01" purity="3.2719400525093079e-01" nType="-99"/>
            <Node pos="r" depth="3" NCoef="0" IVar="-1" Cut="0.0000000000000000e+00" cType="1" res="-1.7563970759510994e-02" rms="3.0976304411888123e-01" purity="1.8868802487850189e-01" nType="-99"/>
          </Node>
        </Node>
      </Node>
    </BinaryTree>
    <BinaryTree type="DecisionTree" boostWeight="1.0000000000000000e+00" itree="167">
      <Node pos="s" depth="0" NCoef="0" IVar="9" Cut="1.3335344195365906e-01" cType="1" res="5.3177343215793371e-04" rms="3.8663187623023987e-01" purity="5.0115621089935303e-01" nType="0">
        <Node pos="l" depth="1" NCoef="0" IVar="7" Cut="1.4667295217514038e+00" cType="1" res="-4.8214718699455261e-03" rms="3.8883385062217712e-01" purity="4.9891284108161926e-01" nType="0">
          <Node pos="l" depth="2" NCoef="0" IVar="7" Cut="6.5403079986572266e-01" cType="1" res="-3.1122190412133932e-03" rms="3.9094826579093933e-01" purity="5.2010852098464966e-01" nType="0">
            <Node pos="l" depth="3" NCoef="0" IVar="-1" Cut="0.0000000000000000e+00" cType="1" res="-4.2744642123579979e-03" rms="3.8813519477844238e-01" purity="5.1894867420196533e-01" nType="-99"/>
            <Node pos="r" depth="3" NCoef="0" IVar="-1" Cut="0.0000000000000000e+00" cType="1" res="7.3738554492592812e-03" rms="4.0292295813560486e-01" purity="5.2528196573257446e-01" nType="-99"/>
          </Node>
          <Node pos="r" depth="2" NCoef="0" IVar="-1" Cut="0.0000000000000000e+00" cType="1" res="-1.9626710563898087e-02" rms="3.6061784625053406e-01" purity="2.3342886567115784e-01" nType="-99"/>
        </Node>
        <Node pos="r" depth="1" NCoef="0" IVar="3" Cut="1.4741912841796875e+02" cType="1" res="6.7304642871022224e-03" rms="3.8397312164306641e-01" purity="5.0375384092330933e-01" nType="0">
          <Node pos="l" depth="2" NCoef="0" IVar="7" Cut="-6.6649591922760010e-01" cType="1" res="1.8979510292410851e-02" rms="3.7214341759681702e-01" purity="2.6215717196464539e-01" nType="0">
            <Node pos="l" depth="3" NCoef="0" IVar="-1" Cut="0.0000000000000000e+00" cType="1" res="3.6921564489603043e-02" rms="3.6986753344535828e-01" purity="2.6796185970306396e-01" nType="-99"/>
            <Node pos="r" depth="3" NCoef="0" IVar="-1" Cut="0.0000000000000000e+00" cType="1" res="6.2094563618302345e-03" rms="3.7244558334350586e-01" purity="2.6000925898551941e-01" nType="-99"/>
          </Node>
          <Node pos="r" depth="2" NCoef="0" IVar="1" Cut="1.3379797363281250e+03" cType="1" res="2.6489808224141598e-03" rms="3.8774880766868591e-01" purity="5.8425581455230713e-01" nType="0">
            <Node pos="l" depth="3" NCoef="0" IVar="-1" Cut="0.0000000000000000e+00" cType="1" res="-3.3742375671863556e-03" rms="4.1490566730499268e-01" purity="4.1154465079307556e-01" nType="-99"/>
            <Node pos="r" depth="3" NCoef="0" IVar="-1" Cut="0.0000000000000000e+00" cType="1" res="7.5645758770406246e-03" rms="3.6131593585014343e-01" purity="7.4014472961425781e-01" nType="-99"/>
          </Node>
        </Node>
      </Node>
    </BinaryTree>
    <BinaryTree type="DecisionTree" boostWeight="1.0000000000000000e+00" itree="168">
      <Node pos="s" depth="0" NCoef="0" IVar="8" Cut="-1.3334906101226807e-01" cType="1" res="9.7209162777289748e-04" rms="3.8848415017127991e-01" purity="5.0212919712066650e-01" nType="0">
        <Node pos="l" depth="1" NCoef="0" IVar="4" Cut="2.3062168884277344e+02" cType="1" res="-6.8968026898801327e-03" rms="3.8812813162803650e-01" purity="4.8629590868949890e-01" nType="0">
          <Node pos="l" depth="2" NCoef="0" IVar="1" Cut="1.0789385986328125e+03" cType="1" res="-4.8134541139006615e-03" rms="3.9124816656112671e-01" purity="4.6123251318931580e-01" nType="0">
            <Node pos="l" depth="3" NCoef="0" IVar="-1" Cut="0.0000000000000000e+00" cType="1" res="-1.0664945468306541e-02" rms="3.6646333336830139e-01" purity="2.0017357170581818e-01" nType="-99"/>
            <Node pos="r" depth="3" NCoef="0" IVar="-1" Cut="0.0000000000000000e+00" cType="1" res="-1.2498910655267537e-04" rms="4.0188479423522949e-01" purity="5.7945436239242554e-01" nType="-99"/>
          </Node>
          <Node pos="r" depth="2" NCoef="0" IVar="-1" Cut="0.0000000000000000e+00" cType="1" res="-2.5359300896525383e-02" rms="3.5005581378936768e-01" purity="7.6973968744277954e-01" nType="-99"/>
        </Node>
        <Node pos="r" depth="1" NCoef="0" IVar="7" Cut="1.7332966327667236e+00" cType="1" res="7.4485070072114468e-03" rms="3.8865742087364197e-01" purity="5.1516062021255493e-01" nType="0">
          <Node pos="l" depth="2" NCoef="0" IVar="8" Cut="1.5428180694580078e+00" cType="1" res="4.9044420011341572e-03" rms="3.9016696810722351e-01" purity="5.3264683485031128e-01" nType="0">
            <Node pos="l" depth="3" NCoef="0" IVar="-1" Cut="0.0000000000000000e+00" cType="1" res="5.0623747520148754e-03" rms="3.9290562272071838e-01" purity="5.7433569431304932e-01" nType="-99"/>
            <Node pos="r" depth="3" NCoef="0" IVar="-1" Cut="0.0000000000000000e+00" cType="1" res="-6.9950176402926445e-03" rms="3.7527519464492798e-01" purity="3.1638753414154053e-01" nType="-99"/>
          </Node>
          <Node pos="r" depth="2" NCoef="0" IVar="-1" Cut="0.0000000000000000e+00" cType="1" res="3.3960025757551193e-02" rms="3.6553797125816345e-01" purity="2.7525848150253296e-01" nType="-99"/>
        </Node>
      </Node>
    </BinaryTree>
    <BinaryTree type="DecisionTree" boostWeight="1.0000000000000000e+00" itree="169">
      <Node pos="s" depth="0" NCoef="0" IVar="9" Cut="-3.9988535642623901e-01" cType="1" res="-1.0834689601324499e-04" rms="3.8783693313598633e-01" purity="4.9896720051765442e-01" nType="0">
        <Node pos="l" depth="1" NCoef="0" IVar="4" Cut="9.0807304382324219e+01" cType="1" res="5.9713078662753105e-03" rms="3.8793790340423584e-01" purity="4.8552104830741882e-01" nType="0">
          <Node pos="l" depth="2" NCoef="0" IVar="0" Cut="4.3649273681640625e+02" cType="1" res="2.2256089374423027e-02" rms="3.7225043773651123e-01" purity="2.3546147346496582e-01" nType="0">
            <Node pos="l" depth="3" NCoef="0" IVar="-1" Cut="0.0000000000000000e+00" cType="1" res="8.3272419869899750e-03" rms="3.3550423383712769e-01" purity="1.5990161895751953e-01" nType="-99"/>
            <Node pos="r" depth="3" NCoef="0" IVar="-1" Cut="0.0000000000000000e+00" cType="1" res="2.8321241959929466e-02" rms="4.4025987386703491e-01" purity="3.9938488602638245e-01" nType="-99"/>
          </Node>
          <Node pos="r" depth="2" NCoef="0" IVar="6" Cut="-6.3878607749938965e-01" cType="1" res="3.5794157884083688e-04" rms="3.9304399490356445e-01" purity="5.7171660661697388e-01" nType="0">
            <Node pos="l" depth="3" NCoef="0" IVar="-1" Cut="0.0000000000000000e+00" cType="1" res="-1.2307676486670971e-02" rms="3.9200919866561890e-01" purity="4.2001783847808838e-01" nType="-99"/>
            <Node pos="r" depth="3" NCoef="0" IVar="-1" Cut="0.0000000000000000e+00" cType="1" res="4.8407125286757946e-03" rms="3.9317753911018372e-01" purity="6.2819921970367432e-01" nType="-99"/>
          </Node>
        </Node>
        <Node pos="r" depth="1" NCoef="0" IVar="9" Cut="1.1238703727722168e+00" cType="1" res="-3.8502684328705072e-03" rms="3.8772734999656677e-01" purity="5.0724309682846069e-01" nType="0">
          <Node pos="l" depth="2" NCoef="0" IVar="1" Cut="1.6094455566406250e+03" cType="1" res="-1.0147555731236935e-02" rms="3.8632166385650635e-01" purity="5.4174536466598511e-01" nType="0">
            <Node pos="l" depth="3" NCoef="0" IVar="-1" Cut="0.0000000000000000e+00" cType="1" res="-9.9934879690408707e-03" rms="3.9858731627464294e-01" purity="4.6025177836418152e-01" nType="-99"/>
            <Node pos="r" depth="3" NCoef="0" IVar="-1" Cut="0.0000000000000000e+00" cType="1" res="8.2812178879976273e-03" rms="3.4129488468170166e-01" purity="8.1465464830398560e-01" nType="-99"/>
          </Node>
          <Node pos="r" depth="2" NCoef="0" IVar="5" Cut="9.1206909179687500e+01" cType="1" res="1.0207813233137131e-02" rms="3.9048093557357788e-01" purity="4.3022012710571289e-01" nType="0">
            <Node pos="l" depth="3" NCoef="0" IVar="-1" Cut="0.0000000000000000e+00" cType="1" res="1.4517089352011681e-02" rms="3.8609802722930908e-01" purity="3.3845436573028564e-01" nType="-99"/>
            <Node pos="r" depth="3" NCoef="0" IVar="-1" Cut="0.0000000000000000e+00" cType="1" res="-8.3576971665024757e-03" rms="3.9834380149841309e-01" purity="6.1906558275222778e-01" nType="-99"/>
          </Node>
        </Node>
      </Node>
    </BinaryTree>
    <BinaryTree type="DecisionTree" boostWeight="1.0000000000000000e+00" itree="170">
      <Node pos="s" depth="0" NCoef="0" IVar="8" Cut="6.6661250591278076e-01" cType="1" res="1.1147727491334081e-05" rms="3.8802519440650940e-01" purity="4.9785050749778748e-01" nType="0">
        <Node pos="l" depth="1" NCoef="0" IVar="9" Cut="1.3333277404308319e-01" cType="1" res="3.9334334433078766e-03" rms="3.8871711492538452e-01" purity="5.2804511785507202e-01" nType="0">
          <Node pos="l" depth="2" NCoef="0" IVar="6" Cut="9.4834583997726440e-01" cType="1" res="9.4768954440951347e-03" rms="3.9119684696197510e-01" purity="5.2368617057800293e-01" nType="0">
            <Node pos="l" depth="3" NCoef="0" IVar="-1" Cut="0.0000000000000000e+00" cType="1" res="4.4584861025214195e-03" rms="3.9183551073074341e-01" purity="5.4530721902847290e-01" nType="-99"/>
            <Node pos="r" depth="3" NCoef="0" IVar="-1" Cut="0.0000000000000000e+00" cType="1" res="1.9230220466852188e-02" rms="3.8645783066749573e-01" purity="3.7973636388778687e-01" nType="-99"/>
          </Node>
          <Node pos="r" depth="2" NCoef="0" IVar="4" Cut="9.9544059753417969e+01" cType="1" res="-3.4145654644817114e-03" rms="3.8528269529342651e-01" purity="5.3382289409637451e-01" nType="0">
            <Node pos="l" depth="3" NCoef="0" IVar="-1" Cut="0.0000000000000000e+00" cType="1" res="-1.2454929761588573e-02" rms="3.6994996666908264e-01" purity="2.4060404300689697e-01" nType="-99"/>
            <Node pos="r" depth="3" NCoef="0" IVar="-1" Cut="0.0000000000000000e+00" cType="1" res="1.7154914094135165e-03" rms="3.9112582802772522e-01" purity="6.5190041065216064e-01" nType="-99"/>
          </Node>
        </Node>
        <Node pos="r" depth="1" NCoef="0" IVar="9" Cut="9.3322944641113281e-01" cType="1" res="-1.0134807787835598e-02" rms="3.8604480028152466e-01" purity="4.1974484920501709e-01" nType="0">
          <Node pos="l" depth="2" NCoef="0" IVar="7" Cut="9.3327921628952026e-01" cType="1" res="-1.6345128417015076e-02" rms="3.8642942905426025e-01" purity="4.4623649120330811e-01" nType="0">
            <Node pos="l" depth="3" NCoef="0" IVar="-1" Cut="0.0000000000000000e+00" cType="1" res="-7.8823799267411232e-03" rms="3.9109745621681213e-01" purity="4.8577478528022766e-01" nType="-99"/>
            <Node pos="r" depth="3" NCoef="0" IVar="-1" Cut="0.0000000000000000e+00" cType="1" res="-2.1247601136565208e-02" rms="3.6916494369506836e-01" purity="3.0704802274703979e-01" nType="-99"/>
          </Node>
          <Node pos="r" depth="2" NCoef="0" IVar="8" Cut="1.5808750391006470e+00" cType="1" res="6.1973989941179752e-03" rms="3.8455298542976379e-01" purity="3.5007587075233459e-01" nType="0">
            <Node pos="l" depth="3" NCoef="0" IVar="-1" Cut="0.0000000000000000e+00" cType="1" res="9.1088013723492622e-03" rms="4.0722173452377319e-01" purity="4.2316052317619324e-01" nType="-99"/>
            <Node pos="r" depth="3" NCoef="0" IVar="-1" Cut="0.0000000000000000e+00" cType="1" res="-7.1584843099117279e-03" rms="3.3752095699310303e-01" purity="2.1317136287689209e-01" nType="-99"/>
          </Node>
        </Node>
      </Node>
    </BinaryTree>
    <BinaryTree type="DecisionTree" boostWeight="1.0000000000000000e+00" itree="171">
      <Node pos="s" depth="0" NCoef="0" IVar="8" Cut="-1.3345320522785187e-01" cType="1" res="-1.2498262804001570e-03" rms="3.8620346784591675e-01" purity="4.9874022603034973e-01" nType="0">
        <Node pos="l" depth="1" NCoef="0" IVar="0" Cut="4.2176251220703125e+02" cType="1" res="-7.3724319227039814e-03" rms="3.8609984517097473e-01" purity="4.8413649201393127e-01" nType="0">
          <Node pos="l" depth="2" NCoef="0" IVar="0" Cut="3.1739462280273438e+02" cType="1" res="-1.3646033592522144e-02" rms="3.8649722933769226e-01" purity="3.1904017925262451e-01" nType="0">
            <Node pos="l" depth="3" NCoef="0" IVar="-1" Cut="0.0000000000000000e+00" cType="1" res="8.9522944763302803e-03" rms="3.7983733415603638e-01" purity="2.5005829334259033e-01" nType="-99"/>
            <Node pos="r" depth="3" NCoef="0" IVar="-1" Cut="0.0000000000000000e+00" cType="1" res="-1.2420782819390297e-02" rms="3.8780280947685242e-01" purity="3.3540076017379761e-01" nType="-99"/>
          </Node>
          <Node pos="r" depth="2" NCoef="0" IVar="7" Cut="9.3316704034805298e-01" cType="1" res="-3.5879222559742630e-04" rms="3.8553428649902344e-01" purity="6.6870772838592529e-01" nType="0">
            <Node pos="l" depth="3" NCoef="0" IVar="-1" Cut="0.0000000000000000e+00" cType="1" res="-3.8868354167789221e-03" rms="3.7826907634735107e-01" purity="6.8762242794036865e-01" nType="-99"/>
            <Node pos="r" depth="3" NCoef="0" IVar="-1" Cut="0.0000000000000000e+00" cType="1" res="1.7720263451337814e-02" rms="4.2432719469070435e-01" purity="5.5794435739517212e-01" nType="-99"/>
          </Node>
        </Node>
        <Node pos="r" depth="1" NCoef="0" IVar="6" Cut="6.7890286445617676e-01" cType="1" res="3.8046897388994694e-03" rms="3.8621583580970764e-01" purity="5.1079630851745605e-01" nType="0">
          <Node pos="l" depth="2" NCoef="0" IVar="6" Cut="5.1488769054412842e-01" cType="1" res="3.4467570367269218e-04" rms="3.8987600803375244e-01" purity="5.4916739463806152e-01" nType="0">
            <Node pos="l" depth="3" NCoef="0" IVar="-1" Cut="0.0000000000000000e+00" cType="1" res="1.7891710158437490e-03" rms="3.8996616005897522e-01" purity="5.4783493280410767e-01" nType="-99"/>
            <Node pos="r" depth="3" NCoef="0" IVar="-1" Cut="0.0000000000000000e+00" cType="1" res="-1.6465235501527786e-02" rms="3.8788262009620667e-01" purity="5.6398236751556396e-01" nType="-99"/>
          </Node>
          <Node pos="r" depth="2" NCoef="0" IVar="8" Cut="1.5426037311553955e+00" cType="1" res="1.3400805182754993e-02" rms="3.7571144104003906e-01" purity="4.0437677502632141e-01" nType="0">
            <Node pos="l" depth="3" NCoef="0" IVar="-1" Cut="0.0000000000000000e+00" cType="1" res="1.3287295587360859e-02" rms="3.8815358281135559e-01" purity="4.5431494712829590e-01" nType="-99"/>
            <Node pos="r" depth="3" NCoef="0" IVar="-1" Cut="0.0000000000000000e+00" cType="1" res="-1.2206999585032463e-02" rms="3.1618967652320862e-01" purity="1.9287925958633423e-01" nType="-99"/>
          </Node>
        </Node>
      </Node>
    </BinaryTree>
    <BinaryTree type="DecisionTree" boostWeight="1.0000000000000000e+00" itree="172">
      <Node pos="s" depth="0" NCoef="0" IVar="3" Cut="3.8992562866210938e+02" cType="1" res="4.5128148049116135e-03" rms="3.8751307129859924e-01" purity="5.0444108247756958e-01" nType="0">
        <Node pos="l" depth="1" NCoef="0" IVar="7" Cut="1.9999592304229736e+00" cType="1" res="5.5193006992340088e-03" rms="3.8743737339973450e-01" purity="4.9612399935722351e-01" nType="0">
          <Node pos="l" depth="2" NCoef="0" IVar="4" Cut="1.6205064392089844e+02" cType="1" res="6.4578037708997726e-03" rms="3.9018797874450684e-01" purity="5.0874668359756470e-01" nType="0">
            <Node pos="l" depth="3" NCoef="0" IVar="-1" Cut="0.0000000000000000e+00" cType="1" res="2.6503051631152630e-03" rms="4.0175092220306396e-01" purity="4.0694588422775269e-01" nType="-99"/>
            <Node pos="r" depth="3" NCoef="0" IVar="-1" Cut="0.0000000000000000e+00" cType="1" res="8.8337045162916183e-03" rms="3.6008185148239136e-01" purity="7.5939458608627319e-01" nType="-99"/>
          </Node>
          <Node pos="r" depth="2" NCoef="0" IVar="-1" Cut="0.0000000000000000e+00" cType="1" res="-1.8021745607256889e-02" rms="3.0333933234214783e-01" purity="1.5718127787113190e-01" nType="-99"/>
        </Node>
        <Node pos="r" depth="1" NCoef="0" IVar="-1" Cut="0.0000000000000000e+00" cType="1" res="-9.4180786982178688e-03" rms="3.8845765590667725e-01" purity="6.6394454240798950e-01" nType="-99"/>
      </Node>
    </BinaryTree>
    <BinaryTree type="DecisionTree" boostWeight="1.0000000000000000e+00" itree="173">
      <Node pos="s" depth="0" NCoef="0" IVar="8" Cut="1.4665775299072266e+00" cType="1" res="-2.4405173026025295e-03" rms="3.8572657108306885e-01" purity="4.9869692325592041e-01" nType="0">
        <Node pos="l" depth="1" NCoef="0" IVar="1" Cut="1.4052841796875000e+03" cType="1" res="-4.1548404842615128e-03" rms="3.8733947277069092e-01" purity="5.1879948377609253e-01" nType="0">
          <Node pos="l" depth="2" NCoef="0" IVar="0" Cut="4.5002795410156250e+02" cType="1" res="-7.1330978535115719e-03" rms="4.0419954061508179e-01" purity="3.7657231092453003e-01" nType="0">
            <Node pos="l" depth="3" NCoef="0" IVar="-1" Cut="0.0000000000000000e+00" cType="1" res="-1.8920977599918842e-03" rms="3.9918151497840881e-01" purity="3.2481265068054199e-01" nType="-99"/>
            <Node pos="r" depth="3" NCoef="0" IVar="-1" Cut="0.0000000000000000e+00" cType="1" res="-1.2386357411742210e-02" rms="4.2092764377593994e-01" purity="5.5716347694396973e-01" nType="-99"/>
          </Node>
          <Node pos="r" depth="2" NCoef="0" IVar="4" Cut="9.7457298278808594e+01" cType="1" res="8.6349016055464745e-04" rms="3.5707828402519226e-01" purity="7.5845080614089966e-01" nType="0">
            <Node pos="l" depth="3" NCoef="0" IVar="-1" Cut="0.0000000000000000e+00" cType="1" res="-2.5223419070243835e-02" rms="4.2994803190231323e-01" purity="4.3746370077133179e-01" nType="-99"/>
            <Node pos="r" depth="3" NCoef="0" IVar="-1" Cut="0.0000000000000000e+00" cType="1" res="3.9000944234430790e-03" rms="3.4997066855430603e-01" purity="7.8538310527801514e-01" nType="-99"/>
          </Node>
        </Node>
        <Node pos="r" depth="1" NCoef="0" IVar="9" Cut="-1.3320854306221008e-01" cType="1" res="1.1623542755842209e-02" rms="3.7193262577056885e-01" purity="3.3377820253372192e-01" nType="0">
          <Node pos="l" depth="2" NCoef="0" IVar="-1" Cut="0.0000000000000000e+00" cType="1" res="2.4148812517523766e-02" rms="3.9593186974525452e-01" purity="3.7467765808105469e-01" nType="-99"/>
          <Node pos="r" depth="2" NCoef="0" IVar="0" Cut="4.0246597290039062e+02" cType="1" res="-5.9629566967487335e-03" rms="3.5284382104873657e-01" purity="3.0472525954246521e-01" nType="0">
            <Node pos="l" depth="3" NCoef="0" IVar="-1" Cut="0.0000000000000000e+00" cType="1" res="-1.6273716464638710e-02" rms="3.0995157361030579e-01" purity="1.5998920798301697e-01" nType="-99"/>
            <Node pos="r" depth="3" NCoef="0" IVar="-1" Cut="0.0000000000000000e+00" cType="1" res="4.7167800366878510e-03" rms="3.9302641153335571e-01" purity="4.5910769701004028e-01" nType="-99"/>
          </Node>
        </Node>
      </Node>
    </BinaryTree>
    <BinaryTree type="DecisionTree" boostWeight="1.0000000000000000e+00" itree="174">
      <Node pos="s" depth="0" NCoef="0" IVar="7" Cut="-9.3323963880538940e-01" cType="1" res="1.3569634174928069e-03" rms="3.8899219036102295e-01" purity="4.9884152412414551e-01" nType="0">
        <Node pos="l" depth="1" NCoef="0" IVar="7" Cut="-1.6443250179290771e+00" cType="1" res="1.5152339823544025e-02" rms="3.8079291582107544e-01" purity="3.7589454650878906e-01" nType="0">
          <Node pos="l" depth="2" NCoef="0" IVar="1" Cut="1.2365227050781250e+03" cType="1" res="-9.7978580743074417e-03" rms="3.2476878166198730e-01" purity="2.2343941032886505e-01" nType="0">
            <Node pos="l" depth="3" NCoef="0" IVar="-1" Cut="0.0000000000000000e+00" cType="1" res="-3.2740227878093719e-02" rms="2.7540868520736694e-01" purity="9.4109117984771729e-02" nType="-99"/>
            <Node pos="r" depth="3" NCoef="0" IVar="-1" Cut="0.0000000000000000e+00" cType="1" res="1.4302168972790241e-02" rms="3.9014279842376709e-01" purity="4.3556347489356995e-01" nType="-99"/>
          </Node>
          <Node pos="r" depth="2" NCoef="0" IVar="7" Cut="-1.2379783391952515e+00" cType="1" res="2.7903607115149498e-02" rms="4.0586239099502563e-01" purity="4.5380961894989014e-01" nType="0">
            <Node pos="l" depth="3" NCoef="0" IVar="-1" Cut="0.0000000000000000e+00" cType="1" res="2.8332790359854698e-02" rms="4.0139737725257874e-01" purity="4.2144930362701416e-01" nType="-99"/>
            <Node pos="r" depth="3" NCoef="0" IVar="-1" Cut="0.0000000000000000e+00" cType="1" res="7.7714077197015285e-03" rms="4.0954557061195374e-01" purity="4.8510146141052246e-01" nType="-99"/>
          </Node>
        </Node>
        <Node pos="r" depth="1" NCoef="0" IVar="6" Cut="-1.7193748950958252e+00" cType="1" res="-2.0455464255064726e-03" rms="3.9091318845748901e-01" purity="5.2916526794433594e-01" nType="0">
          <Node pos="l" depth="2" NCoef="0" IVar="-1" Cut="0.0000000000000000e+00" cType="1" res="2.8288623318076134e-02" rms="3.5871267318725586e-01" purity="2.1724481880664825e-01" nType="-99"/>
          <Node pos="r" depth="2" NCoef="0" IVar="8" Cut="1.7332528829574585e+00" cType="1" res="-3.3150415401905775e-03" rms="3.9204192161560059e-01" purity="5.4114818572998047e-01" nType="0">
            <Node pos="l" depth="3" NCoef="0" IVar="-1" Cut="0.0000000000000000e+00" cType="1" res="-3.4763426519930363e-03" rms="3.9313256740570068e-01" purity="5.5596941709518433e-01" nType="-99"/>
            <Node pos="r" depth="3" NCoef="0" IVar="-1" Cut="0.0000000000000000e+00" cType="1" res="1.5449465252459049e-02" rms="3.7721133232116699e-01" purity="3.5595276951789856e-01" nType="-99"/>
          </Node>
        </Node>
      </Node>
    </BinaryTree>
    <BinaryTree type="DecisionTree" boostWeight="1.0000000000000000e+00" itree="175">
      <Node pos="s" depth="0" NCoef="0" IVar="6" Cut="-1.4398812055587769e+00" cType="1" res="2.6518679223954678e-03" rms="3.8640353083610535e-01" purity="5.0399696826934814e-01" nType="0">
        <Node pos="l" depth="1" NCoef="0" IVar="8" Cut="-6.6668558120727539e-01" cType="1" res="-1.6055328771471977e-02" rms="3.1206011772155762e-01" purity="2.0577917993068695e-01" nType="0">
          <Node pos="l" depth="2" NCoef="0" IVar="-1" Cut="0.0000000000000000e+00" cType="1" res="-4.1023842990398407e-02" rms="2.5745409727096558e-01" purity="1.4084100723266602e-01" nType="-99"/>
          <Node pos="r" depth="2" NCoef="0" IVar="-1" Cut="0.0000000000000000e+00" cType="1" res="-1.3522024964913726e-03" rms="3.3903855085372925e-01" purity="2.4364130198955536e-01" nType="-99"/>
        </Node>
        <Node pos="r" depth="1" NCoef="0" IVar="9" Cut="-1.7332997322082520e+00" cType="1" res="4.0105544030666351e-03" rms="3.9121830463409424e-01" purity="5.2565628290176392e-01" nType="0">
          <Node pos="l" depth="2" NCoef="0" IVar="6" Cut="-2.2839735448360443e-01" cType="1" res="2.4242760613560677e-02" rms="3.9763233065605164e-01" purity="4.1973346471786499e-01" nType="0">
            <Node pos="l" depth="3" NCoef="0" IVar="-1" Cut="0.0000000000000000e+00" cType="1" res="3.0168281868100166e-02" rms="4.0992572903633118e-01" purity="4.4421753287315369e-01" nType="-99"/>
            <Node pos="r" depth="3" NCoef="0" IVar="-1" Cut="0.0000000000000000e+00" cType="1" res="4.9346089363098145e-03" rms="3.8794404268264771e-01" purity="4.0264120697975159e-01" nType="-99"/>
          </Node>
          <Node pos="r" depth="2" NCoef="0" IVar="7" Cut="1.4667057991027832e+00" cType="1" res="2.1980998571962118e-03" rms="3.9058744907379150e-01" purity="5.3514510393142700e-01" nType="0">
            <Node pos="l" depth="3" NCoef="0" IVar="-1" Cut="0.0000000000000000e+00" cType="1" res="4.6130229020491242e-04" rms="3.9132210612297058e-01" purity="5.5876076221466064e-01" nType="-99"/>
            <Node pos="r" depth="3" NCoef="0" IVar="-1" Cut="0.0000000000000000e+00" cType="1" res="1.2802994810044765e-02" rms="3.8246268033981323e-01" purity="2.8775516152381897e-01" nType="-99"/>
          </Node>
        </Node>
      </Node>
    </BinaryTree>
    <BinaryTree type="DecisionTree" boostWeight="1.0000000000000000e+00" itree="176">
      <Node pos="s" depth="0" NCoef="0" IVar="7" Cut="-1.4665527343750000e+00" cType="1" res="1.7002463573589921e-03" rms="3.8920345902442932e-01" purity="5.0072520971298218e-01" nType="0">
        <Node pos="l" depth="1" NCoef="0" IVar="8" Cut="-1.3365207612514496e-01" cType="1" res="2.3334164172410965e-02" rms="3.6792066693305969e-01" purity="2.8078699111938477e-01" nType="0">
          <Node pos="l" depth="2" NCoef="0" IVar="9" Cut="-4.0044704079627991e-01" cType="1" res="4.5086942613124847e-02" rms="3.8558870553970337e-01" purity="3.0322116613388062e-01" nType="0">
            <Node pos="l" depth="3" NCoef="0" IVar="-1" Cut="0.0000000000000000e+00" cType="1" res="5.1296144723892212e-02" rms="3.9653649926185608e-01" purity="2.7805659174919128e-01" nType="-99"/>
            <Node pos="r" depth="3" NCoef="0" IVar="-1" Cut="0.0000000000000000e+00" cType="1" res="1.9867146387696266e-02" rms="3.7330669164657593e-01" purity="3.2878929376602173e-01" nType="-99"/>
          </Node>
          <Node pos="r" depth="2" NCoef="0" IVar="-1" Cut="0.0000000000000000e+00" cType="1" res="-2.9943848494440317e-03" rms="3.4263503551483154e-01" purity="2.5275224447250366e-01" nType="-99"/>
        </Node>
        <Node pos="r" depth="1" NCoef="0" IVar="9" Cut="6.6667431592941284e-01" cType="1" res="-4.6945022768341005e-04" rms="3.9120808243751526e-01" purity="5.2278310060501099e-01" nType="0">
          <Node pos="l" depth="2" NCoef="0" IVar="0" Cut="5.5312365722656250e+02" cType="1" res="-3.8801878690719604e-03" rms="3.9102157950401306e-01" purity="5.3842782974243164e-01" nType="0">
            <Node pos="l" depth="3" NCoef="0" IVar="-1" Cut="0.0000000000000000e+00" cType="1" res="-4.3778098188340664e-03" rms="4.0451994538307190e-01" purity="4.5811155438423157e-01" nType="-99"/>
            <Node pos="r" depth="3" NCoef="0" IVar="-1" Cut="0.0000000000000000e+00" cType="1" res="6.0812137089669704e-03" rms="3.4017714858055115e-01" purity="8.1528615951538086e-01" nType="-99"/>
          </Node>
          <Node pos="r" depth="2" NCoef="0" IVar="0" Cut="4.1908285522460938e+02" cType="1" res="7.0912064984440804e-03" rms="3.9151525497436523e-01" purity="4.8810306191444397e-01" nType="0">
            <Node pos="l" depth="3" NCoef="0" IVar="-1" Cut="0.0000000000000000e+00" cType="1" res="1.1254382319748402e-02" rms="3.9587497711181641e-01" purity="3.4180825948715210e-01" nType="-99"/>
            <Node pos="r" depth="3" NCoef="0" IVar="-1" Cut="0.0000000000000000e+00" cType="1" res="-2.9451251029968262e-03" rms="3.8622477650642395e-01" purity="6.5275156497955322e-01" nType="-99"/>
          </Node>
        </Node>
      </Node>
    </BinaryTree>
    <BinaryTree type="DecisionTree" boostWeight="1.0000000000000000e+00" itree="177">
      <Node pos="s" depth="0" NCoef="0" IVar="7" Cut="2.0000209808349609e+00" cType="1" res="-2.0515269134193659e-03" rms="3.8635373115539551e-01" purity="4.9778032302856445e-01" nType="0">
        <Node pos="l" depth="1" NCoef="0" IVar="7" Cut="1.5428253412246704e+00" cType="1" res="-3.4973272122442722e-03" rms="3.8743403553962708e-01" purity="5.0832492113113403e-01" nType="0">
          <Node pos="l" depth="2" NCoef="0" IVar="8" Cut="1.3331964612007141e-01" cType="1" res="-2.2618982475250959e-03" rms="3.8885092735290527e-01" purity="5.2029711008071899e-01" nType="0">
            <Node pos="l" depth="3" NCoef="0" IVar="-1" Cut="0.0000000000000000e+00" cType="1" res="1.5241225482895970e-03" rms="3.8929650187492371e-01" purity="5.2825736999511719e-01" nType="-99"/>
            <Node pos="r" depth="3" NCoef="0" IVar="-1" Cut="0.0000000000000000e+00" cType="1" res="-5.2288165315985680e-03" rms="3.8822272419929504e-01" purity="5.1043492555618286e-01" nType="-99"/>
          </Node>
          <Node pos="r" depth="2" NCoef="0" IVar="-1" Cut="0.0000000000000000e+00" cType="1" res="-2.1525019779801369e-02" rms="3.5466915369033813e-01" purity="2.5165832042694092e-01" nType="-99"/>
        </Node>
        <Node pos="r" depth="1" NCoef="0" IVar="-1" Cut="0.0000000000000000e+00" cType="1" res="3.1659800559282303e-02" rms="3.5481998324394226e-01" purity="2.2172246873378754e-01" nType="-99"/>
      </Node>
    </BinaryTree>
    <BinaryTree type="DecisionTree" boostWeight="1.0000000000000000e+00" itree="178">
      <Node pos="s" depth="0" NCoef="0" IVar="4" Cut="9.7346450805664062e+01" cType="1" res="1.4431735035032034e-03" rms="3.8614729046821594e-01" purity="5.0240385532379150e-01" nType="0">
        <Node pos="l" depth="1" NCoef="0" IVar="2" Cut="3.2913809204101562e+02" cType="1" res="-7.9507138580083847e-03" rms="3.6194857954978943e-01" purity="2.2282221913337708e-01" nType="0">
          <Node pos="l" depth="2" NCoef="0" IVar="8" Cut="-6.6618102788925171e-01" cType="1" res="6.0566561296582222e-03" rms="3.7262746691703796e-01" purity="2.2484429180622101e-01" nType="0">
            <Node pos="l" depth="3" NCoef="0" IVar="-1" Cut="0.0000000000000000e+00" cType="1" res="-1.3537722639739513e-02" rms="3.4346958994865417e-01" purity="1.8179270625114441e-01" nType="-99"/>
            <Node pos="r" depth="3" NCoef="0" IVar="-1" Cut="0.0000000000000000e+00" cType="1" res="1.1718465946614742e-02" rms="3.8465476036071777e-01" purity="2.4437794089317322e-01" nType="-99"/>
          </Node>
          <Node pos="r" depth="2" NCoef="0" IVar="6" Cut="1.6577763855457306e-01" cType="1" res="-2.3175597190856934e-02" rms="3.4933570027351379e-01" purity="2.2062434256076813e-01" nType="0">
            <Node pos="l" depth="3" NCoef="0" IVar="-1" Cut="0.0000000000000000e+00" cType="1" res="-2.3961197584867477e-02" rms="3.5202962160110474e-01" purity="2.2310794889926910e-01" nType="-99"/>
            <Node pos="r" depth="3" NCoef="0" IVar="-1" Cut="0.0000000000000000e+00" cType="1" res="-7.7746296301484108e-03" rms="3.4555968642234802e-01" purity="2.1758334338665009e-01" nType="-99"/>
          </Node>
        </Node>
        <Node pos="r" depth="1" NCoef="0" IVar="1" Cut="1.0902169189453125e+03" cType="1" res="5.2141956984996796e-03" rms="3.9538237452507019e-01" purity="6.1463731527328491e-01" nType="0">
          <Node pos="l" depth="2" NCoef="0" IVar="1" Cut="1.0211221923828125e+03" cType="1" res="2.2516349330544472e-02" rms="4.2491117119789124e-01" purity="3.2923385500907898e-01" nType="0">
            <Node pos="l" depth="3" NCoef="0" IVar="-1" Cut="0.0000000000000000e+00" cType="1" res="3.8859406486153603e-03" rms="4.1044390201568604e-01" purity="2.7609702944755554e-01" nType="-99"/>
            <Node pos="r" depth="3" NCoef="0" IVar="-1" Cut="0.0000000000000000e+00" cType="1" res="2.3360693827271461e-02" rms="4.4268783926963806e-01" purity="4.0056890249252319e-01" nType="-99"/>
          </Node>
          <Node pos="r" depth="2" NCoef="0" IVar="1" Cut="1.3665891113281250e+03" cType="1" res="1.5096290735527873e-03" rms="3.8866844773292542e-01" purity="6.7574512958526611e-01" nType="0">
            <Node pos="l" depth="3" NCoef="0" IVar="-1" Cut="0.0000000000000000e+00" cType="1" res="-5.2287233993411064e-03" rms="4.2851075530052185e-01" purity="5.3287529945373535e-01" nType="-99"/>
            <Node pos="r" depth="3" NCoef="0" IVar="-1" Cut="0.0000000000000000e+00" cType="1" res="6.5079755149781704e-03" rms="3.6089053750038147e-01" purity="7.6654553413391113e-01" nType="-99"/>
          </Node>
        </Node>
      </Node>
    </BinaryTree>
    <BinaryTree type="DecisionTree" boostWeight="1.0000000000000000e+00" itree="179">
      <Node pos="s" depth="0" NCoef="0" IVar="6" Cut="9.3906182050704956e-01" cType="1" res="7.8097899677231908e-04" rms="3.8715550303459167e-01" purity="4.9813708662986755e-01" nType="0">
        <Node pos="l" depth="1" NCoef="0" IVar="6" Cut="-8.3320230245590210e-01" cType="1" res="3.4183112438768148e-03" rms="3.9304450154304504e-01" purity="5.3668230772018433e-01" nType="0">
          <Node pos="l" depth="2" NCoef="0" IVar="7" Cut="-6.6646474599838257e-01" cType="1" res="-1.0981735773384571e-02" rms="3.6739498376846313e-01" purity="3.3055457472801208e-01" nType="0">
            <Node pos="l" depth="3" NCoef="0" IVar="-1" Cut="0.0000000000000000e+00" cType="1" res="-2.6179706677794456e-02" rms="3.3302912116050720e-01" purity="2.4236160516738892e-01" nType="-99"/>
            <Node pos="r" depth="3" NCoef="0" IVar="-1" Cut="0.0000000000000000e+00" cType="1" res="-4.3064184137620032e-04" rms="3.8207757472991943e-01" purity="3.7210151553153992e-01" nType="-99"/>
          </Node>
          <Node pos="r" depth="2" NCoef="0" IVar="8" Cut="-9.3340498208999634e-01" cType="1" res="7.5778602622449398e-03" rms="4.0005111694335938e-01" purity="5.9622365236282349e-01" nType="0">
            <Node pos="l" depth="3" NCoef="0" IVar="-1" Cut="0.0000000000000000e+00" cType="1" res="1.4585224911570549e-02" rms="4.0922564268112183e-01" purity="5.2555370330810547e-01" nType="-99"/>
            <Node pos="r" depth="3" NCoef="0" IVar="-1" Cut="0.0000000000000000e+00" cType="1" res="2.0618331618607044e-03" rms="3.9752963185310364e-01" purity="6.1448836326599121e-01" nType="-99"/>
          </Node>
        </Node>
        <Node pos="r" depth="1" NCoef="0" IVar="5" Cut="7.2857666015625000e+01" cType="1" res="-1.2595917098224163e-02" rms="3.5548666119575500e-01" purity="3.0263069272041321e-01" nType="0">
          <Node pos="l" depth="2" NCoef="0" IVar="3" Cut="1.7496029663085938e+02" cType="1" res="3.5373179707676172e-03" rms="3.1667789816856384e-01" purity="1.6261373460292816e-01" nType="0">
            <Node pos="l" depth="3" NCoef="0" IVar="-1" Cut="0.0000000000000000e+00" cType="1" res="-1.2930843979120255e-02" rms="2.7094733715057373e-01" purity="9.3490377068519592e-02" nType="-99"/>
            <Node pos="r" depth="3" NCoef="0" IVar="-1" Cut="0.0000000000000000e+00" cType="1" res="1.7518833279609680e-02" rms="3.7344542145729065e-01" purity="2.6525616645812988e-01" nType="-99"/>
          </Node>
          <Node pos="r" depth="2" NCoef="0" IVar="0" Cut="3.8689553833007812e+02" cType="1" res="-2.6597745716571808e-02" rms="3.8547167181968689e-01" purity="4.2414963245391846e-01" nType="0">
            <Node pos="l" depth="3" NCoef="0" IVar="-1" Cut="0.0000000000000000e+00" cType="1" res="-3.0688205733895302e-02" rms="3.5403880476951599e-01" purity="2.1789227426052094e-01" nType="-99"/>
            <Node pos="r" depth="3" NCoef="0" IVar="-1" Cut="0.0000000000000000e+00" cType="1" res="-7.0999148301780224e-03" rms="4.0735873579978943e-01" purity="5.8269685506820679e-01" nType="-99"/>
          </Node>
        </Node>
      </Node>
    </BinaryTree>
    <BinaryTree type="DecisionTree" boostWeight="1.0000000000000000e+00" itree="180">
      <Node pos="s" depth="0" NCoef="0" IVar="7" Cut="-1.3329948484897614e-01" cType="1" res="6.9270445965230465e-04" rms="3.8608464598655701e-01" purity="5.0110661983489990e-01" nType="0">
        <Node pos="l" depth="1" NCoef="0" IVar="9" Cut="9.3337959051132202e-01" cType="1" res="-5.8547365479171276e-03" rms="3.8551965355873108e-01" purity="4.8400822281837463e-01" nType="0">
          <Node pos="l" depth="2" NCoef="0" IVar="2" Cut="5.9285864257812500e+02" cType="1" res="-1.3063501100987196e-03" rms="3.8662338256835938e-01" purity="5.0089371204376221e-01" nType="0">
            <Node pos="l" depth="3" NCoef="0" IVar="-1" Cut="0.0000000000000000e+00" cType="1" res="-2.7583751361817122e-03" rms="3.8552221655845642e-01" purity="4.8970922827720642e-01" nType="-99"/>
            <Node pos="r" depth="3" NCoef="0" IVar="-1" Cut="0.0000000000000000e+00" cType="1" res="1.6470195725560188e-02" rms="3.9630493521690369e-01" purity="6.1194235086441040e-01" nType="-99"/>
          </Node>
          <Node pos="r" depth="2" NCoef="0" IVar="8" Cut="6.6659677028656006e-01" cType="1" res="-2.5102267041802406e-02" rms="3.8021168112754822e-01" purity="4.1255369782447815e-01" nType="0">
            <Node pos="l" depth="3" NCoef="0" IVar="-1" Cut="0.0000000000000000e+00" cType="1" res="-2.7224250137805939e-02" rms="3.7992489337921143e-01" purity="4.3704703450202942e-01" nType="-99"/>
            <Node pos="r" depth="3" NCoef="0" IVar="-1" Cut="0.0000000000000000e+00" cType="1" res="6.1204708181321621e-03" rms="3.7867099046707153e-01" purity="3.5869514942169189e-01" nType="-99"/>
          </Node>
        </Node>
        <Node pos="r" depth="1" NCoef="0" IVar="7" Cut="2.8575086593627930e-01" cType="1" res="5.9686973690986633e-03" rms="3.8645863533020020e-01" purity="5.1488459110260010e-01" nType="0">
          <Node pos="l" depth="2" NCoef="0" IVar="3" Cut="3.0519107055664062e+02" cType="1" res="1.3081065379083157e-02" rms="3.8168343901634216e-01" purity="6.2663990259170532e-01" nType="0">
            <Node pos="l" depth="3" NCoef="0" IVar="-1" Cut="0.0000000000000000e+00" cType="1" res="3.1319158151745796e-03" rms="3.8862624764442444e-01" purity="5.7898682355880737e-01" nType="-99"/>
            <Node pos="r" depth="3" NCoef="0" IVar="-1" Cut="0.0000000000000000e+00" cType="1" res="3.4075509756803513e-02" rms="3.5135948657989502e-01" purity="8.1315594911575317e-01" nType="-99"/>
          </Node>
          <Node pos="r" depth="2" NCoef="0" IVar="3" Cut="2.8327932739257812e+02" cType="1" res="3.0382876284420490e-03" rms="3.8837113976478577e-01" purity="4.6883964538574219e-01" nType="0">
            <Node pos="l" depth="3" NCoef="0" IVar="-1" Cut="0.0000000000000000e+00" cType="1" res="6.6676721908152103e-03" rms="3.8988909125328064e-01" purity="4.3219879269599915e-01" nType="-99"/>
            <Node pos="r" depth="3" NCoef="0" IVar="-1" Cut="0.0000000000000000e+00" cType="1" res="-2.1115969866514206e-02" rms="3.7934261560440063e-01" purity="6.4168053865432739e-01" nType="-99"/>
          </Node>
        </Node>
      </Node>
    </BinaryTree>
    <BinaryTree type="DecisionTree" boostWeight="1.0000000000000000e+00" itree="181">
      <Node pos="s" depth="0" NCoef="0" IVar="1" Cut="1.1041705322265625e+03" cType="1" res="3.1781082507222891e-03" rms="3.8860672712326050e-01" purity="5.0274777412414551e-01" nType="0">
        <Node pos="l" depth="1" NCoef="0" IVar="5" Cut="8.1077079772949219e+01" cType="1" res="1.0827789083123207e-02" rms="3.8366907835006714e-01" purity="2.3899650573730469e-01" nType="0">
          <Node pos="l" depth="2" NCoef="0" IVar="8" Cut="-1.3321809470653534e-01" cType="1" res="3.5077789798378944e-03" rms="3.6412134766578674e-01" purity="1.9786261022090912e-01" nType="0">
            <Node pos="l" depth="3" NCoef="0" IVar="-1" Cut="0.0000000000000000e+00" cType="1" res="1.3283637352287769e-02" rms="3.7127023935317993e-01" purity="2.0792382955551147e-01" nType="-99"/>
            <Node pos="r" depth="3" NCoef="0" IVar="-1" Cut="0.0000000000000000e+00" cType="1" res="-6.5497234463691711e-03" rms="3.5725420713424683e-01" purity="1.8898770213127136e-01" nType="-99"/>
          </Node>
          <Node pos="r" depth="2" NCoef="0" IVar="-1" Cut="0.0000000000000000e+00" cType="1" res="2.0023258402943611e-02" rms="4.4662016630172729e-01" purity="3.8862115144729614e-01" nType="-99"/>
        </Node>
        <Node pos="r" depth="1" NCoef="0" IVar="6" Cut="4.0697690844535828e-01" cType="1" res="-4.7466522664763033e-04" rms="3.9088967442512512e-01" purity="6.2869071960449219e-01" nType="0">
          <Node pos="l" depth="2" NCoef="0" IVar="7" Cut="-1.3327609002590179e-01" cType="1" res="-5.0762626342475414e-03" rms="3.9077451825141907e-01" purity="6.4973998069763184e-01" nType="0">
            <Node pos="l" depth="3" NCoef="0" IVar="-1" Cut="0.0000000000000000e+00" cType="1" res="1.5984299825504422e-03" rms="3.9400157332420349e-01" purity="6.4874291419982910e-01" nType="-99"/>
            <Node pos="r" depth="3" NCoef="0" IVar="-1" Cut="0.0000000000000000e+00" cType="1" res="-7.6708164997398853e-03" rms="3.8788691163063049e-01" purity="6.5058976411819458e-01" nType="-99"/>
          </Node>
          <Node pos="r" depth="2" NCoef="0" IVar="9" Cut="6.6673058271408081e-01" cType="1" res="8.9336223900318146e-03" rms="3.9095643162727356e-01" purity="5.8565425872802734e-01" nType="0">
            <Node pos="l" depth="3" NCoef="0" IVar="-1" Cut="0.0000000000000000e+00" cType="1" res="-6.3254404813051224e-04" rms="3.8446432352066040e-01" purity="6.0106527805328369e-01" nType="-99"/>
            <Node pos="r" depth="3" NCoef="0" IVar="-1" Cut="0.0000000000000000e+00" cType="1" res="1.7055114731192589e-02" rms="4.0231031179428101e-01" purity="5.5643075704574585e-01" nType="-99"/>
          </Node>
        </Node>
      </Node>
    </BinaryTree>
    <BinaryTree type="DecisionTree" boostWeight="1.0000000000000000e+00" itree="182">
      <Node pos="s" depth="0" NCoef="0" IVar="4" Cut="9.9455039978027344e+01" cType="1" res="-1.3437530724331737e-03" rms="3.8790589570999146e-01" purity="4.9805375933647156e-01" nType="0">
        <Node pos="l" depth="1" NCoef="0" IVar="5" Cut="5.9397953033447266e+01" cType="1" res="7.0357145741581917e-03" rms="3.7267392873764038e-01" purity="2.4850839376449585e-01" nType="0">
          <Node pos="l" depth="2" NCoef="0" IVar="5" Cut="5.4027725219726562e+01" cType="1" res="-7.4562802910804749e-03" rms="3.3153185248374939e-01" purity="1.6573494672775269e-01" nType="0">
            <Node pos="l" depth="3" NCoef="0" IVar="-1" Cut="0.0000000000000000e+00" cType="1" res="1.6056232154369354e-02" rms="3.4610298275947571e-01" purity="1.8500535190105438e-01" nType="-99"/>
            <Node pos="r" depth="3" NCoef="0" IVar="-1" Cut="0.0000000000000000e+00" cType="1" res="-2.6435919106006622e-02" rms="3.1543737649917603e-01" purity="1.4775180816650391e-01" nType="-99"/>
          </Node>
          <Node pos="r" depth="2" NCoef="0" IVar="8" Cut="-3.9995101094245911e-01" cType="1" res="1.6497453674674034e-02" rms="3.9695742726325989e-01" purity="3.0255070328712463e-01" nType="0">
            <Node pos="l" depth="3" NCoef="0" IVar="-1" Cut="0.0000000000000000e+00" cType="1" res="2.1946176886558533e-02" rms="4.0134173631668091e-01" purity="3.1117063760757446e-01" nType="-99"/>
            <Node pos="r" depth="3" NCoef="0" IVar="-1" Cut="0.0000000000000000e+00" cType="1" res="3.1503182835876942e-03" rms="3.9357554912567139e-01" purity="2.9678592085838318e-01" nType="-99"/>
          </Node>
        </Node>
        <Node pos="r" depth="1" NCoef="0" IVar="7" Cut="-1.1999641656875610e+00" cType="1" res="-5.1600160077214241e-03" rms="3.9458921551704407e-01" purity="6.1170428991317749e-01" nType="0">
          <Node pos="l" depth="2" NCoef="0" IVar="8" Cut="-3.9997228980064392e-01" cType="1" res="-2.1241007372736931e-02" rms="3.8586255908012390e-01" purity="4.0434575080871582e-01" nType="0">
            <Node pos="l" depth="3" NCoef="0" IVar="-1" Cut="0.0000000000000000e+00" cType="1" res="-2.4463310837745667e-03" rms="3.8741222023963928e-01" purity="4.1285952925682068e-01" nType="-99"/>
            <Node pos="r" depth="3" NCoef="0" IVar="-1" Cut="0.0000000000000000e+00" cType="1" res="-2.2090749815106392e-02" rms="3.8390943408012390e-01" purity="3.9706149697303772e-01" nType="-99"/>
          </Node>
          <Node pos="r" depth="2" NCoef="0" IVar="9" Cut="-1.3319280743598938e-01" cType="1" res="-3.0641148332506418e-03" rms="3.9566427469253540e-01" purity="6.3873010873794556e-01" nType="0">
            <Node pos="l" depth="3" NCoef="0" IVar="-1" Cut="0.0000000000000000e+00" cType="1" res="-6.6964477300643921e-03" rms="3.9835464954376221e-01" purity="6.3098901510238647e-01" nType="-99"/>
            <Node pos="r" depth="3" NCoef="0" IVar="-1" Cut="0.0000000000000000e+00" cType="1" res="1.8512923270463943e-03" rms="3.9339390397071838e-01" purity="6.4493519067764282e-01" nType="-99"/>
          </Node>
        </Node>
      </Node>
    </BinaryTree>
    <BinaryTree type="DecisionTree" boostWeight="1.0000000000000000e+00" itree="183">
      <Node pos="s" depth="0" NCoef="0" IVar="9" Cut="-1.9998785257339478e+00" cType="1" res="-1.0890536941587925e-03" rms="3.8733264803886414e-01" purity="4.9845829606056213e-01" nType="0">
        <Node pos="l" depth="1" NCoef="0" IVar="6" Cut="-9.1787427663803101e-02" cType="1" res="2.6846459135413170e-02" rms="3.7952521443367004e-01" purity="3.8298672437667847e-01" nType="0">
          <Node pos="l" depth="2" NCoef="0" IVar="-1" Cut="0.0000000000000000e+00" cType="1" res="2.8294317424297333e-02" rms="3.8445937633514404e-01" purity="3.8923707604408264e-01" nType="-99"/>
          <Node pos="r" depth="2" NCoef="0" IVar="-1" Cut="0.0000000000000000e+00" cType="1" res="7.8437784686684608e-03" rms="3.7364074587821960e-01" purity="3.7638378143310547e-01" nType="-99"/>
        </Node>
        <Node pos="r" depth="1" NCoef="0" IVar="3" Cut="2.4150581359863281e+02" cType="1" res="-2.7531026862561703e-03" rms="3.8772922754287720e-01" purity="5.0533664226531982e-01" nType="0">
          <Node pos="l" depth="2" NCoef="0" IVar="9" Cut="1.6571655273437500e+00" cType="1" res="5.9060956118628383e-04" rms="3.9362245798110962e-01" purity="4.2103040218353271e-01" nType="0">
            <Node pos="l" depth="3" NCoef="0" IVar="-1" Cut="0.0000000000000000e+00" cType="1" res="-1.1416644556447864e-03" rms="3.9522799849510193e-01" purity="4.3169045448303223e-01" nType="-99"/>
            <Node pos="r" depth="3" NCoef="0" IVar="-1" Cut="0.0000000000000000e+00" cType="1" res="1.2941334396600723e-02" rms="3.8065990805625916e-01" purity="3.3969110250473022e-01" nType="-99"/>
          </Node>
          <Node pos="r" depth="2" NCoef="0" IVar="7" Cut="-1.1999689340591431e+00" cType="1" res="-9.6750995144248009e-03" rms="3.7514060735702515e-01" purity="6.7986345291137695e-01" nType="0">
            <Node pos="l" depth="3" NCoef="0" IVar="-1" Cut="0.0000000000000000e+00" cType="1" res="-3.4548293799161911e-02" rms="3.7585106492042542e-01" purity="4.1970738768577576e-01" nType="-99"/>
            <Node pos="r" depth="3" NCoef="0" IVar="-1" Cut="0.0000000000000000e+00" cType="1" res="-3.8314114790409803e-03" rms="3.7478545308113098e-01" purity="7.0440858602523804e-01" nType="-99"/>
          </Node>
        </Node>
      </Node>
    </BinaryTree>
    <BinaryTree type="DecisionTree" boostWeight="1.0000000000000000e+00" itree="184">
      <Node pos="s" depth="0" NCoef="0" IVar="4" Cut="1.4476979064941406e+02" cType="1" res="-1.6683255671523511e-04" rms="3.8747826218605042e-01" purity="4.9975824356079102e-01" nType="0">
        <Node pos="l" depth="1" NCoef="0" IVar="3" Cut="1.3553475952148438e+02" cType="1" res="4.1951416060328484e-03" rms="3.9678674936294556e-01" purity="3.6765405535697937e-01" nType="0">
          <Node pos="l" depth="2" NCoef="0" IVar="4" Cut="1.0275891876220703e+02" cType="1" res="-8.7593412026762962e-03" rms="3.5735079646110535e-01" purity="2.0117960870265961e-01" nType="0">
            <Node pos="l" depth="3" NCoef="0" IVar="-1" Cut="0.0000000000000000e+00" cType="1" res="-2.7109144721180201e-03" rms="3.4021776914596558e-01" purity="1.6786055266857147e-01" nType="-99"/>
            <Node pos="r" depth="3" NCoef="0" IVar="-1" Cut="0.0000000000000000e+00" cType="1" res="-1.7968175932765007e-02" rms="4.2012688517570496e-01" purity="3.3908310532569885e-01" nType="-99"/>
          </Node>
          <Node pos="r" depth="2" NCoef="0" IVar="5" Cut="6.8001060485839844e+01" cType="1" res="1.0072187520563602e-02" rms="4.1330525279045105e-01" purity="4.4317832589149475e-01" nType="0">
            <Node pos="l" depth="3" NCoef="0" IVar="-1" Cut="0.0000000000000000e+00" cType="1" res="1.4778082258999348e-02" rms="4.1210711002349854e-01" purity="3.3245602250099182e-01" nType="-99"/>
            <Node pos="r" depth="3" NCoef="0" IVar="-1" Cut="0.0000000000000000e+00" cType="1" res="5.4765114327892661e-04" rms="4.1384091973304749e-01" purity="5.1617848873138428e-01" nType="-99"/>
          </Node>
        </Node>
        <Node pos="r" depth="1" NCoef="0" IVar="7" Cut="-6.6657048463821411e-01" cType="1" res="-7.1546565741300583e-03" rms="3.7197458744049072e-01" purity="7.1138739585876465e-01" nType="0">
          <Node pos="l" depth="2" NCoef="0" IVar="4" Cut="1.8760217285156250e+02" cType="1" res="-2.4719566106796265e-02" rms="3.8551852107048035e-01" purity="6.2008565664291382e-01" nType="0">
            <Node pos="l" depth="3" NCoef="0" IVar="-1" Cut="0.0000000000000000e+00" cType="1" res="-2.6200458407402039e-02" rms="3.9322417974472046e-01" purity="5.5226582288742065e-01" nType="-99"/>
            <Node pos="r" depth="3" NCoef="0" IVar="-1" Cut="0.0000000000000000e+00" cType="1" res="-4.0875859558582306e-03" rms="3.7609028816223145e-01" purity="6.9354277849197388e-01" nType="-99"/>
          </Node>
          <Node pos="r" depth="2" NCoef="0" IVar="6" Cut="4.3297266960144043e-01" cType="1" res="-1.8048920901492238e-03" rms="3.6758369207382202e-01" purity="7.3919528722763062e-01" nType="0">
            <Node pos="l" depth="3" NCoef="0" IVar="-1" Cut="0.0000000000000000e+00" cType="1" res="2.6157768443226814e-03" rms="3.6063393950462341e-01" purity="7.6594388484954834e-01" nType="-99"/>
            <Node pos="r" depth="3" NCoef="0" IVar="-1" Cut="0.0000000000000000e+00" cType="1" res="-9.6413539722561836e-03" rms="3.8300743699073792e-01" purity="6.7685490846633911e-01" nType="-99"/>
          </Node>
        </Node>
      </Node>
    </BinaryTree>
    <BinaryTree type="DecisionTree" boostWeight="1.0000000000000000e+00" itree="185">
      <Node pos="s" depth="0" NCoef="0" IVar="2" Cut="4.7971969604492188e+02" cType="1" res="2.9452625312842429e-04" rms="3.8501593470573425e-01" purity="5.0146484375000000e-01" nType="0">
        <Node pos="l" depth="1" NCoef="0" IVar="3" Cut="2.1280564880371094e+02" cType="1" res="-3.5897903144359589e-03" rms="3.8455128669738770e-01" purity="4.8314067721366882e-01" nType="0">
          <Node pos="l" depth="2" NCoef="0" IVar="1" Cut="1.0644077148437500e+03" cType="1" res="1.6378007130697370e-03" rms="3.9090126752853394e-01" purity="3.7114444375038147e-01" nType="0">
            <Node pos="l" depth="3" NCoef="0" IVar="-1" Cut="0.0000000000000000e+00" cType="1" res="-7.9051861539483070e-03" rms="3.6838296055793762e-01" purity="1.9919624924659729e-01" nType="-99"/>
            <Node pos="r" depth="3" NCoef="0" IVar="-1" Cut="0.0000000000000000e+00" cType="1" res="8.5329487919807434e-03" rms="4.1256144642829895e-01" purity="5.4949885606765747e-01" nType="-99"/>
          </Node>
          <Node pos="r" depth="2" NCoef="0" IVar="1" Cut="1.3444062500000000e+03" cType="1" res="-1.2188143096864223e-02" rms="3.7371328473091125e-01" purity="6.6735237836837769e-01" nType="0">
            <Node pos="l" depth="3" NCoef="0" IVar="-1" Cut="0.0000000000000000e+00" cType="1" res="-1.5157964080572128e-02" rms="4.2304956912994385e-01" purity="4.4403469562530518e-01" nType="-99"/>
            <Node pos="r" depth="3" NCoef="0" IVar="-1" Cut="0.0000000000000000e+00" cType="1" res="-2.1181043703109026e-03" rms="3.3923760056495667e-01" purity="8.0558735132217407e-01" nType="-99"/>
          </Node>
        </Node>
        <Node pos="r" depth="1" NCoef="0" IVar="9" Cut="-1.3334643840789795e-01" cType="1" res="1.5287619084119797e-02" rms="3.8643819093704224e-01" purity="5.7219445705413818e-01" nType="0">
          <Node pos="l" depth="2" NCoef="0" IVar="8" Cut="-6.6644769906997681e-01" cType="1" res="3.0632056295871735e-02" rms="3.8733446598052979e-01" purity="5.8297753334045410e-01" nType="0">
            <Node pos="l" depth="3" NCoef="0" IVar="-1" Cut="0.0000000000000000e+00" cType="1" res="-1.8049936043098569e-03" rms="3.9202350378036499e-01" purity="4.5020630955696106e-01" nType="-99"/>
            <Node pos="r" depth="3" NCoef="0" IVar="-1" Cut="0.0000000000000000e+00" cType="1" res="2.7455940842628479e-02" rms="3.8477632403373718e-01" purity="6.3331609964370728e-01" nType="-99"/>
          </Node>
          <Node pos="r" depth="2" NCoef="0" IVar="8" Cut="-6.6667282581329346e-01" cType="1" res="1.4837933704257011e-03" rms="3.8510805368423462e-01" purity="5.6249397993087769e-01" nType="0">
            <Node pos="l" depth="3" NCoef="0" IVar="-1" Cut="0.0000000000000000e+00" cType="1" res="1.7486063763499260e-02" rms="3.8224992156028748e-01" purity="5.7937794923782349e-01" nType="-99"/>
            <Node pos="r" depth="3" NCoef="0" IVar="-1" Cut="0.0000000000000000e+00" cType="1" res="-5.4035219363868237e-03" rms="3.8572415709495544e-01" purity="5.5616927146911621e-01" nType="-99"/>
          </Node>
        </Node>
      </Node>
    </BinaryTree>
    <BinaryTree type="DecisionTree" boostWeight="1.0000000000000000e+00" itree="186">
      <Node pos="s" depth="0" NCoef="0" IVar="2" Cut="3.5034805297851562e+02" cType="1" res="5.5013509700074792e-04" rms="3.8893577456474304e-01" purity="5.0045782327651978e-01" nType="0">
        <Node pos="l" depth="1" NCoef="0" IVar="4" Cut="7.7954956054687500e+01" cType="1" res="5.4475930519402027e-03" rms="3.9769467711448669e-01" purity="4.6786254644393921e-01" nType="0">
          <Node pos="l" depth="2" NCoef="0" IVar="9" Cut="-1.3328461349010468e-01" cType="1" res="2.3291436955332756e-02" rms="3.5186937451362610e-01" purity="1.7855234444141388e-01" nType="0">
            <Node pos="l" depth="3" NCoef="0" IVar="-1" Cut="0.0000000000000000e+00" cType="1" res="4.0315162390470505e-02" rms="3.7216466665267944e-01" purity="2.1052309870719910e-01" nType="-99"/>
            <Node pos="r" depth="3" NCoef="0" IVar="-1" Cut="0.0000000000000000e+00" cType="1" res="1.1505195870995522e-03" rms="3.3048295974731445e-01" purity="1.4900337159633636e-01" nType="-99"/>
          </Node>
          <Node pos="r" depth="2" NCoef="0" IVar="6" Cut="1.4751439094543457e+00" cType="1" res="2.2301708813756704e-03" rms="4.0532305836677551e-01" purity="5.2002805471420288e-01" nType="0">
            <Node pos="l" depth="3" NCoef="0" IVar="-1" Cut="0.0000000000000000e+00" cType="1" res="-7.9220160841941833e-05" rms="4.0784499049186707e-01" purity="5.4207897186279297e-01" nType="-99"/>
            <Node pos="r" depth="3" NCoef="0" IVar="-1" Cut="0.0000000000000000e+00" cType="1" res="2.3261206224560738e-02" rms="3.7323969602584839e-01" purity="2.6045215129852295e-01" nType="-99"/>
          </Node>
        </Node>
        <Node pos="r" depth="1" NCoef="0" IVar="0" Cut="5.9407952880859375e+02" cType="1" res="-4.9086688086390495e-03" rms="3.7885978817939758e-01" purity="5.3678923845291138e-01" nType="0">
          <Node pos="l" depth="2" NCoef="0" IVar="0" Cut="3.7001913452148438e+02" cType="1" res="-1.0138843208551407e-03" rms="3.8382777571678162e-01" purity="4.6335500478744507e-01" nType="0">
            <Node pos="l" depth="3" NCoef="0" IVar="-1" Cut="0.0000000000000000e+00" cType="1" res="-1.0249712504446507e-02" rms="3.7170240283012390e-01" purity="2.6950192451477051e-01" nType="-99"/>
            <Node pos="r" depth="3" NCoef="0" IVar="-1" Cut="0.0000000000000000e+00" cType="1" res="3.5060958471149206e-03" rms="3.8929110765457153e-01" purity="5.5548894405364990e-01" nType="-99"/>
          </Node>
          <Node pos="r" depth="2" NCoef="0" IVar="1" Cut="2.0023482666015625e+03" cType="1" res="-1.7349943518638611e-02" rms="3.6225420236587524e-01" purity="7.7136331796646118e-01" nType="0">
            <Node pos="l" depth="3" NCoef="0" IVar="-1" Cut="0.0000000000000000e+00" cType="1" res="-1.9431104883551598e-02" rms="3.7704914808273315e-01" purity="7.3462313413619995e-01" nType="-99"/>
            <Node pos="r" depth="3" NCoef="0" IVar="-1" Cut="0.0000000000000000e+00" cType="1" res="-3.2580853439867496e-03" rms="3.3699393272399902e-01" purity="8.2967150211334229e-01" nType="-99"/>
          </Node>
        </Node>
      </Node>
    </BinaryTree>
    <BinaryTree type="DecisionTree" boostWeight="1.0000000000000000e+00" itree="187">
      <Node pos="s" depth="0" NCoef="0" IVar="6" Cut="4.1520646214485168e-01" cType="1" res="-2.3535827640444040e-03" rms="3.8428923487663269e-01" purity="4.9922510981559753e-01" nType="0">
        <Node pos="l" depth="1" NCoef="0" IVar="8" Cut="1.9999496936798096e+00" cType="1" res="2.8748640324920416e-03" rms="3.8781133294105530e-01" purity="5.3661507368087769e-01" nType="0">
          <Node pos="l" depth="2" NCoef="0" IVar="9" Cut="-1.9998871088027954e+00" cType="1" res="1.5703961253166199e-03" rms="3.8765314221382141e-01" purity="5.4555404186248779e-01" nType="0">
            <Node pos="l" depth="3" NCoef="0" IVar="-1" Cut="0.0000000000000000e+00" cType="1" res="-1.7428474500775337e-02" rms="3.7191992998123169e-01" purity="3.3784979581832886e-01" nType="-99"/>
            <Node pos="r" depth="3" NCoef="0" IVar="-1" Cut="0.0000000000000000e+00" cType="1" res="2.0484032575041056e-03" rms="3.8846600055694580e-01" purity="5.5731362104415894e-01" nType="-99"/>
          </Node>
          <Node pos="r" depth="2" NCoef="0" IVar="-1" Cut="0.0000000000000000e+00" cType="1" res="2.4426141753792763e-02" rms="3.9029440283775330e-01" purity="3.1995683908462524e-01" nType="-99"/>
        </Node>
        <Node pos="r" depth="1" NCoef="0" IVar="7" Cut="4.0000471472740173e-01" cType="1" res="-1.3145197182893753e-02" rms="3.7668612599372864e-01" purity="4.2205151915550232e-01" nType="0">
          <Node pos="l" depth="2" NCoef="0" IVar="2" Cut="4.3911657714843750e+02" cType="1" res="-3.4564814995974302e-03" rms="3.7965792417526245e-01" purity="4.5996692776679993e-01" nType="0">
            <Node pos="l" depth="3" NCoef="0" IVar="-1" Cut="0.0000000000000000e+00" cType="1" res="2.6855717878788710e-03" rms="3.8309329748153687e-01" purity="4.4737792015075684e-01" nType="-99"/>
            <Node pos="r" depth="3" NCoef="0" IVar="-1" Cut="0.0000000000000000e+00" cType="1" res="-1.6013262793421745e-02" rms="3.6934652924537659e-01" purity="4.9438232183456421e-01" nType="-99"/>
          </Node>
          <Node pos="r" depth="2" NCoef="0" IVar="9" Cut="4.0010520815849304e-01" cType="1" res="-2.8705250471830368e-02" rms="3.7133508920669556e-01" purity="3.6115950345993042e-01" nType="0">
            <Node pos="l" depth="3" NCoef="0" IVar="-1" Cut="0.0000000000000000e+00" cType="1" res="-3.2602325081825256e-02" rms="3.7647032737731934e-01" purity="3.7794977426528931e-01" nType="-99"/>
            <Node pos="r" depth="3" NCoef="0" IVar="-1" Cut="0.0000000000000000e+00" cType="1" res="-6.9177784025669098e-03" rms="3.6527660489082336e-01" purity="3.4483534097671509e-01" nType="-99"/>
          </Node>
        </Node>
      </Node>
    </BinaryTree>
    <BinaryTree type="DecisionTree" boostWeight="1.0000000000000000e+00" itree="188">
      <Node pos="s" depth="0" NCoef="0" IVar="7" Cut="-1.4666497707366943e+00" cType="1" res="6.0896307695657015e-04" rms="3.8932067155838013e-01" purity="4.9827307462692261e-01" nType="0">
        <Node pos="l" depth="1" NCoef="0" IVar="5" Cut="7.1331230163574219e+01" cType="1" res="2.2257471457123756e-02" rms="3.6386808753013611e-01" purity="2.8171482682228088e-01" nType="0">
          <Node pos="l" depth="2" NCoef="0" IVar="-1" Cut="0.0000000000000000e+00" cType="1" res="2.7260615024715662e-03" rms="3.0639827251434326e-01" purity="1.3631124794483185e-01" nType="-99"/>
          <Node pos="r" depth="2" NCoef="0" IVar="7" Cut="-1.8475329875946045e+00" cType="1" res="3.8885585963726044e-02" rms="4.0535888075828552e-01" purity="4.0446895360946655e-01" nType="0">
            <Node pos="l" depth="3" NCoef="0" IVar="-1" Cut="0.0000000000000000e+00" cType="1" res="2.9686721041798592e-02" rms="3.9692503213882446e-01" purity="3.3914998173713684e-01" nType="-99"/>
            <Node pos="r" depth="3" NCoef="0" IVar="-1" Cut="0.0000000000000000e+00" cType="1" res="1.9858667626976967e-02" rms="4.1356018185615540e-01" purity="4.6984800696372986e-01" nType="-99"/>
          </Node>
        </Node>
        <Node pos="r" depth="1" NCoef="0" IVar="6" Cut="-1.4399898052215576e+00" cType="1" res="-1.6087936237454414e-03" rms="3.9176723361015320e-01" purity="5.2045810222625732e-01" nType="0">
          <Node pos="l" depth="2" NCoef="0" IVar="0" Cut="3.7733337402343750e+02" cType="1" res="2.3553473874926567e-02" rms="3.5491457581520081e-01" purity="2.6005521416664124e-01" nType="0">
            <Node pos="l" depth="3" NCoef="0" IVar="-1" Cut="0.0000000000000000e+00" cType="1" res="4.4119037687778473e-02" rms="3.2876038551330566e-01" purity="1.5302956104278564e-01" nType="-99"/>
            <Node pos="r" depth="3" NCoef="0" IVar="-1" Cut="0.0000000000000000e+00" cType="1" res="6.1417599208652973e-03" rms="3.7869334220886230e-01" purity="3.6699828505516052e-01" nType="-99"/>
          </Node>
          <Node pos="r" depth="2" NCoef="0" IVar="6" Cut="-1.0362296104431152e+00" cType="1" res="-3.4820116125047207e-03" rms="3.9430883526802063e-01" purity="5.3984391689300537e-01" nType="0">
            <Node pos="l" depth="3" NCoef="0" IVar="-1" Cut="0.0000000000000000e+00" cType="1" res="-1.6371844336390495e-02" rms="3.8110610842704773e-01" purity="3.8645780086517334e-01" nType="-99"/>
            <Node pos="r" depth="3" NCoef="0" IVar="-1" Cut="0.0000000000000000e+00" cType="1" res="-1.1432331521064043e-03" rms="3.9525970816612244e-01" purity="5.5169063806533813e-01" nType="-99"/>
          </Node>
        </Node>
      </Node>
    </BinaryTree>
    <BinaryTree type="DecisionTree" boostWeight="1.0000000000000000e+00" itree="189">
      <Node pos="s" depth="0" NCoef="0" IVar="9" Cut="-2.2665297985076904e+00" cType="1" res="3.8126454455778003e-04" rms="3.8693469762802124e-01" purity="5.0190114974975586e-01" nType="0">
        <Node pos="l" depth="1" NCoef="0" IVar="-1" Cut="0.0000000000000000e+00" cType="1" res="-2.0976806059479713e-02" rms="3.6531803011894226e-01" purity="2.8285896778106689e-01" nType="-99"/>
        <Node pos="r" depth="1" NCoef="0" IVar="5" Cut="1.9036662292480469e+02" cType="1" res="1.2513863621279597e-03" rms="3.8752296566963196e-01" purity="5.0839245319366455e-01" nType="0">
          <Node pos="l" depth="2" NCoef="0" IVar="5" Cut="1.1683987426757812e+02" cType="1" res="3.8978442898951471e-04" rms="3.9064228534698486e-01" purity="4.9371713399887085e-01" nType="0">
            <Node pos="l" depth="3" NCoef="0" IVar="-1" Cut="0.0000000000000000e+00" cType="1" res="2.0763610955327749e-03" rms="3.9878466725349426e-01" purity="4.2228522896766663e-01" nType="-99"/>
            <Node pos="r" depth="3" NCoef="0" IVar="-1" Cut="0.0000000000000000e+00" cType="1" res="-8.6322324350476265e-03" rms="3.5722395777702332e-01" purity="7.6964461803436279e-01" nType="-99"/>
          </Node>
          <Node pos="r" depth="2" NCoef="0" IVar="-1" Cut="0.0000000000000000e+00" cType="1" res="2.5061871856451035e-02" rms="2.9342600703239441e-01" purity="8.9258933067321777e-01" nType="-99"/>
        </Node>
      </Node>
    </BinaryTree>
    <BinaryTree type="DecisionTree" boostWeight="1.0000000000000000e+00" itree="190">
      <Node pos="s" depth="0" NCoef="0" IVar="4" Cut="1.9011550903320312e+02" cType="1" res="1.6856191214174032e-03" rms="3.8822671771049500e-01" purity="5.0206530094146729e-01" nType="0">
        <Node pos="l" depth="1" NCoef="0" IVar="9" Cut="-9.3320852518081665e-01" cType="1" res="3.8818344473838806e-03" rms="3.9653486013412476e-01" purity="4.4174408912658691e-01" nType="0">
          <Node pos="l" depth="2" NCoef="0" IVar="8" Cut="6.6650259494781494e-01" cType="1" res="1.4656512066721916e-02" rms="3.9360946416854858e-01" purity="4.0601831674575806e-01" nType="0">
            <Node pos="l" depth="3" NCoef="0" IVar="-1" Cut="0.0000000000000000e+00" cType="1" res="1.4151797629892826e-02" rms="3.9727765321731567e-01" purity="4.2206758260726929e-01" nType="-99"/>
            <Node pos="r" depth="3" NCoef="0" IVar="-1" Cut="0.0000000000000000e+00" cType="1" res="-5.3892033174633980e-03" rms="3.8118803501129150e-01" purity="3.5661962628364563e-01" nType="-99"/>
          </Node>
          <Node pos="r" depth="2" NCoef="0" IVar="7" Cut="-1.7332133054733276e+00" cType="1" res="4.3354107765480876e-04" rms="3.9740484952926636e-01" purity="4.5317766070365906e-01" nType="0">
            <Node pos="l" depth="3" NCoef="0" IVar="-1" Cut="0.0000000000000000e+00" cType="1" res="-1.7385238781571388e-02" rms="3.3020642399787903e-01" purity="1.9100120663642883e-01" nType="-99"/>
            <Node pos="r" depth="3" NCoef="0" IVar="-1" Cut="0.0000000000000000e+00" cType="1" res="1.0624042479321361e-03" rms="4.0103322267532349e-01" purity="4.6886697411537170e-01" nType="-99"/>
          </Node>
        </Node>
        <Node pos="r" depth="1" NCoef="0" IVar="8" Cut="-9.3261957168579102e-01" cType="1" res="-8.1581631675362587e-03" rms="3.4839370846748352e-01" purity="7.7243435382843018e-01" nType="0">
          <Node pos="l" depth="2" NCoef="0" IVar="-1" Cut="0.0000000000000000e+00" cType="1" res="-2.8347359970211983e-02" rms="3.8063535094261169e-01" purity="6.5425395965576172e-01" nType="-99"/>
          <Node pos="r" depth="2" NCoef="0" IVar="6" Cut="7.2148168087005615e-01" cType="1" res="-2.3425954859703779e-03" rms="3.4205821156501770e-01" purity="7.9329454898834229e-01" nType="0">
            <Node pos="l" depth="3" NCoef="0" IVar="-1" Cut="0.0000000000000000e+00" cType="1" res="2.7424797881394625e-03" rms="3.3444410562515259e-01" purity="8.1991219520568848e-01" nType="-99"/>
            <Node pos="r" depth="3" NCoef="0" IVar="-1" Cut="0.0000000000000000e+00" cType="1" res="-1.9584525376558304e-02" rms="3.7482208013534546e-01" purity="6.6773235797882080e-01" nType="-99"/>
          </Node>
        </Node>
      </Node>
    </BinaryTree>
    <BinaryTree type="DecisionTree" boostWeight="1.0000000000000000e+00" itree="191">
      <Node pos="s" depth="0" NCoef="0" IVar="6" Cut="-6.3898599147796631e-01" cType="1" res="-1.2415619567036629e-03" rms="3.8658007979393005e-01" purity="5.0065100193023682e-01" nType="0">
        <Node pos="l" depth="1" NCoef="0" IVar="1" Cut="1.0948645019531250e+03" cType="1" res="8.4555707871913910e-03" rms="3.7805333733558655e-01" purity="4.0538504719734192e-01" nType="0">
          <Node pos="l" depth="2" NCoef="0" IVar="7" Cut="-3.9985376596450806e-01" cType="1" res="-6.4219422638416290e-03" rms="3.3047375082969666e-01" purity="1.5713645517826080e-01" nType="0">
            <Node pos="l" depth="3" NCoef="0" IVar="-1" Cut="0.0000000000000000e+00" cType="1" res="-2.2983746603131294e-02" rms="3.0683353543281555e-01" purity="1.2383599579334259e-01" nType="-99"/>
            <Node pos="r" depth="3" NCoef="0" IVar="-1" Cut="0.0000000000000000e+00" cType="1" res="6.9154351949691772e-03" rms="3.4756860136985779e-01" purity="1.8385274708271027e-01" nType="-99"/>
          </Node>
          <Node pos="r" depth="2" NCoef="0" IVar="5" Cut="7.5400451660156250e+01" cType="1" res="1.6296671703457832e-02" rms="4.0064147114753723e-01" purity="5.3622287511825562e-01" nType="0">
            <Node pos="l" depth="3" NCoef="0" IVar="-1" Cut="0.0000000000000000e+00" cType="1" res="2.4334145709872246e-02" rms="4.0793359279632568e-01" purity="3.7161368131637573e-01" nType="-99"/>
            <Node pos="r" depth="3" NCoef="0" IVar="-1" Cut="0.0000000000000000e+00" cType="1" res="3.3038617111742496e-03" rms="3.9652869105339050e-01" purity="6.1765938997268677e-01" nType="-99"/>
          </Node>
        </Node>
        <Node pos="r" depth="1" NCoef="0" IVar="6" Cut="1.6048474237322807e-02" cType="1" res="-4.5516202226281166e-03" rms="3.8939264416694641e-01" purity="5.3316950798034668e-01" nType="0">
          <Node pos="l" depth="2" NCoef="0" IVar="7" Cut="1.3338665664196014e-01" cType="1" res="-1.5805238857865334e-02" rms="3.9424854516983032e-01" purity="5.9931856393814087e-01" nType="0">
            <Node pos="l" depth="3" NCoef="0" IVar="-1" Cut="0.0000000000000000e+00" cType="1" res="-1.6904525458812714e-02" rms="3.9474320411682129e-01" purity="5.9568828344345093e-01" nType="-99"/>
            <Node pos="r" depth="3" NCoef="0" IVar="-1" Cut="0.0000000000000000e+00" cType="1" res="-1.2557362206280231e-03" rms="3.9317834377288818e-01" purity="6.0399919748306274e-01" nType="-99"/>
          </Node>
          <Node pos="r" depth="2" NCoef="0" IVar="8" Cut="-4.0010482072830200e-01" cType="1" res="1.2356641236692667e-03" rms="3.8674423098564148e-01" purity="4.9915173649787903e-01" nType="0">
            <Node pos="l" depth="3" NCoef="0" IVar="-1" Cut="0.0000000000000000e+00" cType="1" res="-3.7769740447402000e-03" rms="3.8822767138481140e-01" purity="4.6136766672134399e-01" nType="-99"/>
            <Node pos="r" depth="3" NCoef="0" IVar="-1" Cut="0.0000000000000000e+00" cType="1" res="3.0485936440527439e-03" rms="3.8598406314849854e-01" purity="5.1730257272720337e-01" nType="-99"/>
          </Node>
        </Node>
      </Node>
    </BinaryTree>
    <BinaryTree type="DecisionTree" boostWeight="1.0000000000000000e+00" itree="192">
      <Node pos="s" depth="0" NCoef="0" IVar="7" Cut="6.6673296689987183e-01" cType="1" res="1.6506401589140296e-03" rms="3.8584735989570618e-01" purity="5.0363719463348389e-01" nType="0">
        <Node pos="l" depth="1" NCoef="0" IVar="8" Cut="3.9998146891593933e-01" cType="1" res="4.6186964027583599e-03" rms="3.8923925161361694e-01" purity="5.3748321533203125e-01" nType="0">
          <Node pos="l" depth="2" NCoef="0" IVar="3" Cut="1.3342425537109375e+02" cType="1" res="-7.7554921153932810e-04" rms="3.8806688785552979e-01" purity="5.4444563388824463e-01" nType="0">
            <Node pos="l" depth="3" NCoef="0" IVar="-1" Cut="0.0000000000000000e+00" cType="1" res="-1.1335310526192188e-02" rms="3.5744056105613708e-01" purity="2.1646627783775330e-01" nType="-99"/>
            <Node pos="r" depth="3" NCoef="0" IVar="-1" Cut="0.0000000000000000e+00" cType="1" res="1.4780622441321611e-03" rms="3.9404031634330750e-01" purity="6.1234748363494873e-01" nType="-99"/>
          </Node>
          <Node pos="r" depth="2" NCoef="0" IVar="2" Cut="3.5034759521484375e+02" cType="1" res="1.4888826757669449e-02" rms="3.9125603437423706e-01" purity="5.2422738075256348e-01" nType="0">
            <Node pos="l" depth="3" NCoef="0" IVar="-1" Cut="0.0000000000000000e+00" cType="1" res="1.9355932250618935e-02" rms="3.9987346529960632e-01" purity="5.0344824790954590e-01" nType="-99"/>
            <Node pos="r" depth="3" NCoef="0" IVar="-1" Cut="0.0000000000000000e+00" cType="1" res="-1.9898551981896162e-03" rms="3.8037073612213135e-01" purity="5.4802346229553223e-01" nType="-99"/>
          </Node>
        </Node>
        <Node pos="r" depth="1" NCoef="0" IVar="6" Cut="-3.9020085334777832e-01" cType="1" res="-6.7206053063273430e-03" rms="3.7598973512649536e-01" purity="4.0817630290985107e-01" nType="0">
          <Node pos="l" depth="2" NCoef="0" IVar="8" Cut="4.0007475018501282e-01" cType="1" res="-2.5540025904774666e-02" rms="3.5316368937492371e-01" purity="3.2018014788627625e-01" nType="0">
            <Node pos="l" depth="3" NCoef="0" IVar="-1" Cut="0.0000000000000000e+00" cType="1" res="-1.1143375188112259e-02" rms="3.5949578881263733e-01" purity="3.4624144434928894e-01" nType="-99"/>
            <Node pos="r" depth="3" NCoef="0" IVar="-1" Cut="0.0000000000000000e+00" cType="1" res="-3.0702840536832809e-02" rms="3.4171980619430542e-01" purity="2.7664247155189514e-01" nType="-99"/>
          </Node>
          <Node pos="r" depth="2" NCoef="0" IVar="6" Cut="1.1288408041000366e+00" cType="1" res="1.4756076270714402e-03" rms="3.8522136211395264e-01" purity="4.4650030136108398e-01" nType="0">
            <Node pos="l" depth="3" NCoef="0" IVar="-1" Cut="0.0000000000000000e+00" cType="1" res="3.6005792208015919e-03" rms="4.0264365077018738e-01" purity="5.1187634468078613e-01" nType="-99"/>
            <Node pos="r" depth="3" NCoef="0" IVar="-1" Cut="0.0000000000000000e+00" cType="1" res="-1.3301021419465542e-02" rms="3.1177353858947754e-01" purity="2.0430244505405426e-01" nType="-99"/>
          </Node>
        </Node>
      </Node>
    </BinaryTree>
    <BinaryTree type="DecisionTree" boostWeight="1.0000000000000000e+00" itree="193">
      <Node pos="s" depth="0" NCoef="0" IVar="8" Cut="-1.4666426181793213e+00" cType="1" res="9.1843912377953529e-04" rms="3.8785398006439209e-01" purity="5.0028347969055176e-01" nType="0">
        <Node pos="l" depth="1" NCoef="0" IVar="6" Cut="-1.0983154922723770e-01" cType="1" res="-8.9774383231997490e-03" rms="3.6657005548477173e-01" purity="3.1052199006080627e-01" nType="0">
          <Node pos="l" depth="2" NCoef="0" IVar="9" Cut="-3.9990189671516418e-01" cType="1" res="7.8528271988034248e-03" rms="3.7431982159614563e-01" purity="3.1267532706260681e-01" nType="0">
            <Node pos="l" depth="3" NCoef="0" IVar="-1" Cut="0.0000000000000000e+00" cType="1" res="-1.0123289190232754e-02" rms="3.4868034720420837e-01" purity="2.3438641428947449e-01" nType="-99"/>
            <Node pos="r" depth="3" NCoef="0" IVar="-1" Cut="0.0000000000000000e+00" cType="1" res="1.8499197438359261e-02" rms="3.9657565951347351e-01" purity="3.8874498009681702e-01" nType="-99"/>
          </Node>
          <Node pos="r" depth="2" NCoef="0" IVar="-1" Cut="0.0000000000000000e+00" cType="1" res="-1.8302487209439278e-02" rms="3.5739338397979736e-01" purity="3.0825933814048767e-01" nType="-99"/>
        </Node>
        <Node pos="r" depth="1" NCoef="0" IVar="7" Cut="-9.3316721916198730e-01" cType="1" res="2.0602876320481300e-03" rms="3.9021903276443481e-01" purity="5.2217942476272583e-01" nType="0">
          <Node pos="l" depth="2" NCoef="0" IVar="8" Cut="-4.4443368911743164e-02" cType="1" res="1.1423489078879356e-02" rms="3.8650768995285034e-01" purity="3.9174139499664307e-01" nType="0">
            <Node pos="l" depth="3" NCoef="0" IVar="-1" Cut="0.0000000000000000e+00" cType="1" res="1.6352515667676926e-02" rms="3.9909735321998596e-01" purity="4.3014472723007202e-01" nType="-99"/>
            <Node pos="r" depth="3" NCoef="0" IVar="-1" Cut="0.0000000000000000e+00" cType="1" res="-1.5820700209587812e-03" rms="3.7331229448318481e-01" purity="3.5427999496459961e-01" nType="-99"/>
          </Node>
          <Node pos="r" depth="2" NCoef="0" IVar="6" Cut="1.4967885613441467e-01" cType="1" res="-7.6259864727035165e-05" rms="3.9102953672409058e-01" purity="5.5194342136383057e-01" nType="0">
            <Node pos="l" depth="3" NCoef="0" IVar="-1" Cut="0.0000000000000000e+00" cType="1" res="-2.8689755126833916e-03" rms="3.8946801424026489e-01" purity="5.6605821847915649e-01" nType="-99"/>
            <Node pos="r" depth="3" NCoef="0" IVar="-1" Cut="0.0000000000000000e+00" cType="1" res="3.3231778070330620e-03" rms="3.9284586906433105e-01" purity="5.3488796949386597e-01" nType="-99"/>
          </Node>
        </Node>
      </Node>
    </BinaryTree>
    <BinaryTree type="DecisionTree" boostWeight="1.0000000000000000e+00" itree="194">
      <Node pos="s" depth="0" NCoef="0" IVar="9" Cut="2.2666602134704590e+00" cType="1" res="-4.2374767363071442e-03" rms="3.8625353574752808e-01" purity="4.9365618824958801e-01" nType="0">
        <Node pos="l" depth="1" NCoef="0" IVar="6" Cut="1.5005101263523102e-01" cType="1" res="-3.0498986598104239e-03" rms="3.8756549358367920e-01" purity="5.0045835971832275e-01" nType="0">
          <Node pos="l" depth="2" NCoef="0" IVar="4" Cut="9.6068489074707031e+01" cType="1" res="1.0248142061755061e-03" rms="3.8901153206825256e-01" purity="5.1988548040390015e-01" nType="0">
            <Node pos="l" depth="3" NCoef="0" IVar="-1" Cut="0.0000000000000000e+00" cType="1" res="8.0462452024221420e-03" rms="3.8477090001106262e-01" purity="2.5742694735527039e-01" nType="-99"/>
            <Node pos="r" depth="3" NCoef="0" IVar="-1" Cut="0.0000000000000000e+00" cType="1" res="-1.9367656204849482e-03" rms="3.9055097103118896e-01" purity="6.2059783935546875e-01" nType="-99"/>
          </Node>
          <Node pos="r" depth="2" NCoef="0" IVar="9" Cut="-1.3523529767990112e+00" cType="1" res="-8.3944760262966156e-03" rms="3.8559529185295105e-01" purity="4.7497698664665222e-01" nType="0">
            <Node pos="l" depth="3" NCoef="0" IVar="-1" Cut="0.0000000000000000e+00" cType="1" res="8.4384493529796600e-03" rms="3.8961568474769592e-01" purity="4.0440335869789124e-01" nType="-99"/>
            <Node pos="r" depth="3" NCoef="0" IVar="-1" Cut="0.0000000000000000e+00" cType="1" res="-7.7186827547848225e-03" rms="3.8486427068710327e-01" purity="4.8591238260269165e-01" nType="-99"/>
          </Node>
        </Node>
        <Node pos="r" depth="1" NCoef="0" IVar="-1" Cut="0.0000000000000000e+00" cType="1" res="-3.0431447550654411e-02" rms="3.3994954824447632e-01" purity="2.7813652157783508e-01" nType="-99"/>
      </Node>
    </BinaryTree>
    <BinaryTree type="DecisionTree" boostWeight="1.0000000000000000e+00" itree="195">
      <Node pos="s" depth="0" NCoef="0" IVar="8" Cut="1.7332918643951416e+00" cType="1" res="1.4794135931879282e-03" rms="3.8732230663299561e-01" purity="5.0230205059051514e-01" nType="0">
        <Node pos="l" depth="1" NCoef="0" IVar="4" Cut="1.9830270385742188e+02" cType="1" res="3.1855944544076920e-03" rms="3.8924911618232727e-01" purity="5.1952844858169556e-01" nType="0">
          <Node pos="l" depth="2" NCoef="0" IVar="4" Cut="7.1226402282714844e+01" cType="1" res="4.6831488725729287e-04" rms="3.9794188737869263e-01" purity="4.6122309565544128e-01" nType="0">
            <Node pos="l" depth="3" NCoef="0" IVar="-1" Cut="0.0000000000000000e+00" cType="1" res="1.7399694770574570e-02" rms="3.4823331236839294e-01" purity="1.7982275784015656e-01" nType="-99"/>
            <Node pos="r" depth="3" NCoef="0" IVar="-1" Cut="0.0000000000000000e+00" cType="1" res="-1.1252157855778933e-03" rms="4.0349888801574707e-01" purity="4.9538674950599670e-01" nType="-99"/>
          </Node>
          <Node pos="r" depth="2" NCoef="0" IVar="4" Cut="2.4066255187988281e+02" cType="1" res="1.6358703374862671e-02" rms="3.4370332956314087e-01" purity="8.0218714475631714e-01" nType="0">
            <Node pos="l" depth="3" NCoef="0" IVar="-1" Cut="0.0000000000000000e+00" cType="1" res="1.8941940739750862e-02" rms="3.5099178552627563e-01" purity="7.9001253843307495e-01" nType="-99"/>
            <Node pos="r" depth="3" NCoef="0" IVar="-1" Cut="0.0000000000000000e+00" cType="1" res="5.1704794168472290e-03" rms="3.3395513892173767e-01" purity="8.1761485338211060e-01" nType="-99"/>
          </Node>
        </Node>
        <Node pos="r" depth="1" NCoef="0" IVar="0" Cut="4.1908374023437500e+02" cType="1" res="-2.2852988913655281e-02" rms="3.5783466696739197e-01" purity="2.5663045048713684e-01" nType="0">
          <Node pos="l" depth="2" NCoef="0" IVar="-1" Cut="0.0000000000000000e+00" cType="1" res="-4.6457448042929173e-03" rms="3.2844781875610352e-01" purity="1.7334842681884766e-01" nType="-99"/>
          <Node pos="r" depth="2" NCoef="0" IVar="-1" Cut="0.0000000000000000e+00" cType="1" res="-3.0103432014584541e-02" rms="3.9781653881072998e-01" purity="3.8643214106559753e-01" nType="-99"/>
        </Node>
      </Node>
    </BinaryTree>
    <BinaryTree type="DecisionTree" boostWeight="1.0000000000000000e+00" itree="196">
      <Node pos="s" depth="0" NCoef="0" IVar="7" Cut="4.0000471472740173e-01" cType="1" res="3.3351313322782516e-03" rms="3.8981729745864868e-01" purity="5.0188028812408447e-01" nType="0">
        <Node pos="l" depth="1" NCoef="0" IVar="7" Cut="-1.7332941293716431e+00" cType="1" res="-1.6843028133735061e-03" rms="3.8838228583335876e-01" purity="5.2516144514083862e-01" nType="0">
          <Node pos="l" depth="2" NCoef="0" IVar="7" Cut="-2.1396491527557373e+00" cType="1" res="1.8841246142983437e-02" rms="3.4984904527664185e-01" purity="2.3473085463047028e-01" nType="0">
            <Node pos="l" depth="3" NCoef="0" IVar="-1" Cut="0.0000000000000000e+00" cType="1" res="-6.0958820395171642e-03" rms="3.2014262676239014e-01" purity="1.6259886324405670e-01" nType="-99"/>
            <Node pos="r" depth="3" NCoef="0" IVar="-1" Cut="0.0000000000000000e+00" cType="1" res="2.9453746974468231e-02" rms="3.6958360671997070e-01" purity="2.8925308585166931e-01" nType="-99"/>
          </Node>
          <Node pos="r" depth="2" NCoef="0" IVar="9" Cut="3.9990642666816711e-01" cType="1" res="-3.7540371995419264e-03" rms="3.9199805259704590e-01" purity="5.5444753170013428e-01" nType="0">
            <Node pos="l" depth="3" NCoef="0" IVar="-1" Cut="0.0000000000000000e+00" cType="1" res="-5.5745239369571209e-03" rms="3.9081478118896484e-01" purity="5.5551475286483765e-01" nType="-99"/>
            <Node pos="r" depth="3" NCoef="0" IVar="-1" Cut="0.0000000000000000e+00" cType="1" res="3.3111111260950565e-03" rms="3.9400798082351685e-01" purity="5.5248737335205078e-01" nType="-99"/>
          </Node>
        </Node>
        <Node pos="r" depth="1" NCoef="0" IVar="9" Cut="-1.7332121133804321e+00" cType="1" res="1.2469876557588577e-02" rms="3.9225059747695923e-01" purity="4.5951142907142639e-01" nType="0">
          <Node pos="l" depth="2" NCoef="0" IVar="-1" Cut="0.0000000000000000e+00" cType="1" res="-1.4186277054250240e-02" rms="3.7575721740722656e-01" purity="3.1557980179786682e-01" nType="-99"/>
          <Node pos="r" depth="2" NCoef="0" IVar="8" Cut="1.4665452241897583e+00" cType="1" res="1.5023393556475639e-02" rms="3.9335575699806213e-01" purity="4.7042763233184814e-01" nType="0">
            <Node pos="l" depth="3" NCoef="0" IVar="-1" Cut="0.0000000000000000e+00" cType="1" res="7.2376159951090813e-03" rms="3.9484444260597229e-01" purity="4.9414640665054321e-01" nType="-99"/>
            <Node pos="r" depth="3" NCoef="0" IVar="-1" Cut="0.0000000000000000e+00" cType="1" res="2.9693707823753357e-02" rms="3.8271194696426392e-01" purity="3.1770133972167969e-01" nType="-99"/>
          </Node>
        </Node>
      </Node>
    </BinaryTree>
    <BinaryTree type="DecisionTree" boostWeight="1.0000000000000000e+00" itree="197">
      <Node pos="s" depth="0" NCoef="0" IVar="2" Cut="3.4031704711914062e+02" cType="1" res="2.2534045274369419e-04" rms="3.8872244954109192e-01" purity="4.9854880571365356e-01" nType="0">
        <Node pos="l" depth="1" NCoef="0" IVar="2" Cut="2.2004756164550781e+02" cType="1" res="-6.1199194751679897e-03" rms="3.9543527364730835e-01" purity="4.5238351821899414e-01" nType="0">
          <Node pos="l" depth="2" NCoef="0" IVar="-1" Cut="0.0000000000000000e+00" cType="1" res="1.3519801199436188e-02" rms="4.1399917006492615e-01" purity="4.0237620472908020e-01" nType="-99"/>
          <Node pos="r" depth="2" NCoef="0" IVar="8" Cut="-6.6659259796142578e-01" cType="1" res="-1.0451214388012886e-02" rms="3.9240011572837830e-01" purity="4.5986142754554749e-01" nType="0">
            <Node pos="l" depth="3" NCoef="0" IVar="-1" Cut="0.0000000000000000e+00" cType="1" res="3.1394264660775661e-03" rms="3.8818028569221497e-01" purity="4.2999413609504700e-01" nType="-99"/>
            <Node pos="r" depth="3" NCoef="0" IVar="-1" Cut="0.0000000000000000e+00" cType="1" res="-1.1008800938725471e-02" rms="3.9401993155479431e-01" purity="4.7271949052810669e-01" nType="-99"/>
          </Node>
        </Node>
        <Node pos="r" depth="1" NCoef="0" IVar="3" Cut="2.3476086425781250e+02" cType="1" res="6.2490841373801231e-03" rms="3.8214325904846191e-01" purity="5.4237496852874756e-01" nType="0">
          <Node pos="l" depth="2" NCoef="0" IVar="8" Cut="1.4666281938552856e+00" cType="1" res="1.6184622421860695e-02" rms="3.8963764905929565e-01" purity="4.1788899898529053e-01" nType="0">
            <Node pos="l" depth="3" NCoef="0" IVar="-1" Cut="0.0000000000000000e+00" cType="1" res="1.3280649669468403e-02" rms="3.9422255754470825e-01" purity="4.3999025225639343e-01" nType="-99"/>
            <Node pos="r" depth="3" NCoef="0" IVar="-1" Cut="0.0000000000000000e+00" cType="1" res="-1.3211891055107117e-02" rms="3.4871411323547363e-01" purity="2.3969966173171997e-01" nType="-99"/>
          </Node>
          <Node pos="r" depth="2" NCoef="0" IVar="8" Cut="1.2000634670257568e+00" cType="1" res="-3.8356045261025429e-03" rms="3.7411323189735413e-01" purity="6.6872960329055786e-01" nType="0">
            <Node pos="l" depth="3" NCoef="0" IVar="-1" Cut="0.0000000000000000e+00" cType="1" res="-7.0329308509826660e-03" rms="3.6878234148025513e-01" purity="6.8507146835327148e-01" nType="-99"/>
            <Node pos="r" depth="3" NCoef="0" IVar="-1" Cut="0.0000000000000000e+00" cType="1" res="2.2857971489429474e-02" rms="4.0639764070510864e-01" purity="5.5651676654815674e-01" nType="-99"/>
          </Node>
        </Node>
      </Node>
    </BinaryTree>
    <BinaryTree type="DecisionTree" boostWeight="1.0000000000000000e+00" itree="198">
      <Node pos="s" depth="0" NCoef="0" IVar="7" Cut="-1.3324940204620361e-01" cType="1" res="-1.6785570187494159e-03" rms="3.8782748579978943e-01" purity="4.9652755260467529e-01" nType="0">
        <Node pos="l" depth="1" NCoef="0" IVar="9" Cut="-3.9999336004257202e-01" cType="1" res="-7.5192963704466820e-03" rms="3.8713511824607849e-01" purity="4.7942987084388733e-01" nType="0">
          <Node pos="l" depth="2" NCoef="0" IVar="9" Cut="-1.4285728931427002e+00" cType="1" res="-1.6719002276659012e-02" rms="3.8699731230735779e-01" purity="4.3258258700370789e-01" nType="0">
            <Node pos="l" depth="3" NCoef="0" IVar="-1" Cut="0.0000000000000000e+00" cType="1" res="2.7132141403853893e-03" rms="3.7963673472404480e-01" purity="3.9596924185752869e-01" nType="-99"/>
            <Node pos="r" depth="3" NCoef="0" IVar="-1" Cut="0.0000000000000000e+00" cType="1" res="-1.9015060737729073e-02" rms="3.9080470800399780e-01" purity="4.5447090268135071e-01" nType="-99"/>
          </Node>
          <Node pos="r" depth="2" NCoef="0" IVar="7" Cut="-1.4028800725936890e+00" cType="1" res="-9.2303589917719364e-04" rms="3.8709935545921326e-01" purity="5.1301968097686768e-01" nType="0">
            <Node pos="l" depth="3" NCoef="0" IVar="-1" Cut="0.0000000000000000e+00" cType="1" res="1.2362246401607990e-02" rms="3.6582595109939575e-01" purity="3.0935528874397278e-01" nType="-99"/>
            <Node pos="r" depth="3" NCoef="0" IVar="-1" Cut="0.0000000000000000e+00" cType="1" res="-3.5123936831951141e-03" rms="3.9233991503715515e-01" purity="5.6622469425201416e-01" nType="-99"/>
          </Node>
        </Node>
        <Node pos="r" depth="1" NCoef="0" IVar="1" Cut="1.1041705322265625e+03" cType="1" res="3.0512197408825159e-03" rms="3.8832286000251770e-01" purity="5.1037317514419556e-01" nType="0">
          <Node pos="l" depth="2" NCoef="0" IVar="8" Cut="-3.9947241544723511e-01" cType="1" res="-9.1424426063895226e-03" rms="3.7508836388587952e-01" purity="2.2640872001647949e-01" nType="0">
            <Node pos="l" depth="3" NCoef="0" IVar="-1" Cut="0.0000000000000000e+00" cType="1" res="-2.3208647966384888e-02" rms="3.5500001907348633e-01" purity="1.8937307596206665e-01" nType="-99"/>
            <Node pos="r" depth="3" NCoef="0" IVar="-1" Cut="0.0000000000000000e+00" cType="1" res="1.7404869431629777e-03" rms="3.8409566879272461e-01" purity="2.4473044276237488e-01" nType="-99"/>
          </Node>
          <Node pos="r" depth="2" NCoef="0" IVar="9" Cut="1.3333673775196075e-01" cType="1" res="8.5668200626969337e-03" rms="3.9403939247131348e-01" purity="6.3881969451904297e-01" nType="0">
            <Node pos="l" depth="3" NCoef="0" IVar="-1" Cut="0.0000000000000000e+00" cType="1" res="1.1663825251162052e-02" rms="3.9439135789871216e-01" purity="6.6063326597213745e-01" nType="-99"/>
            <Node pos="r" depth="3" NCoef="0" IVar="-1" Cut="0.0000000000000000e+00" cType="1" res="-1.2335157953202724e-03" rms="3.9338380098342896e-01" purity="6.1473214626312256e-01" nType="-99"/>
          </Node>
        </Node>
      </Node>
    </BinaryTree>
    <BinaryTree type="DecisionTree" boostWeight="1.0000000000000000e+00" itree="199">
      <Node pos="s" depth="0" NCoef="0" IVar="3" Cut="1.3782405090332031e+02" cType="1" res="-1.6073348233476281e-03" rms="3.8812386989593506e-01" purity="4.9592575430870056e-01" nType="0">
        <Node pos="l" depth="1" NCoef="0" IVar="9" Cut="-1.1998666524887085e+00" cType="1" res="1.1407532729208469e-02" rms="3.7055200338363647e-01" purity="2.2668671607971191e-01" nType="0">
          <Node pos="l" depth="2" NCoef="0" IVar="-1" Cut="0.0000000000000000e+00" cType="1" res="-1.2207730673253536e-02" rms="3.2880765199661255e-01" purity="1.6688035428524017e-01" nType="-99"/>
          <Node pos="r" depth="2" NCoef="0" IVar="8" Cut="-1.3359065353870392e-01" cType="1" res="1.7756110057234764e-02" rms="3.7980219721794128e-01" purity="2.4132551252841949e-01" nType="0">
            <Node pos="l" depth="3" NCoef="0" IVar="-1" Cut="0.0000000000000000e+00" cType="1" res="2.5019032880663872e-02" rms="3.9059585332870483e-01" purity="2.6381120085716248e-01" nType="-99"/>
            <Node pos="r" depth="3" NCoef="0" IVar="-1" Cut="0.0000000000000000e+00" cType="1" res="3.0068424530327320e-03" rms="3.7002646923065186e-01" purity="2.2263357043266296e-01" nType="-99"/>
          </Node>
        </Node>
        <Node pos="r" depth="1" NCoef="0" IVar="4" Cut="1.4890478515625000e+02" cType="1" res="-5.0527909770607948e-03" rms="3.9257186651229858e-01" purity="5.6720203161239624e-01" nType="0">
          <Node pos="l" depth="2" NCoef="0" IVar="5" Cut="7.3481781005859375e+01" cType="1" res="-1.0497833602130413e-02" rms="4.0909034013748169e-01" purity="4.3461889028549194e-01" nType="0">
            <Node pos="l" depth="3" NCoef="0" IVar="-1" Cut="0.0000000000000000e+00" cType="1" res="-1.3652858324348927e-02" rms="3.9610362052917480e-01" purity="3.1424704194068909e-01" nType="-99"/>
            <Node pos="r" depth="3" NCoef="0" IVar="-1" Cut="0.0000000000000000e+00" cType="1" res="2.8196797939017415e-04" rms="4.2018160223960876e-01" purity="5.4342561960220337e-01" nType="-99"/>
          </Node>
          <Node pos="r" depth="2" NCoef="0" IVar="6" Cut="9.6612268686294556e-01" cType="1" res="1.4319323236122727e-03" rms="3.7183949351310730e-01" purity="7.2510069608688354e-01" nType="0">
            <Node pos="l" depth="3" NCoef="0" IVar="-1" Cut="0.0000000000000000e+00" cType="1" res="-1.3527278788387775e-03" rms="3.6803582310676575e-01" purity="7.5016790628433228e-01" nType="-99"/>
            <Node pos="r" depth="3" NCoef="0" IVar="-1" Cut="0.0000000000000000e+00" cType="1" res="1.4520833268761635e-02" rms="3.9587584137916565e-01" purity="5.5574369430541992e-01" nType="-99"/>
          </Node>
        </Node>
      </Node>
    </BinaryTree>
    <BinaryTree type="DecisionTree" boostWeight="1.0000000000000000e+00" itree="200">
      <Node pos="s" depth="0" NCoef="0" IVar="6" Cut="6.8356883525848389e-01" cType="1" res="1.9297767430543900e-03" rms="3.8747158646583557e-01" purity="5.0070661306381226e-01" nType="0">
        <Node pos="l" depth="1" NCoef="0" IVar="3" Cut="1.4305850219726562e+02" cType="1" res="-1.3005761429667473e-03" rms="3.8896963000297546e-01" purity="5.3694057464599609e-01" nType="0">
          <Node pos="l" depth="2" NCoef="0" IVar="0" Cut="4.1504605102539062e+02" cType="1" res="-1.1308871209621429e-02" rms="3.6852812767028809e-01" purity="2.4740333855152130e-01" nType="0">
            <Node pos="l" depth="3" NCoef="0" IVar="-1" Cut="0.0000000000000000e+00" cType="1" res="-1.6713555902242661e-02" rms="3.3016046881675720e-01" purity="1.5882790088653564e-01" nType="-99"/>
            <Node pos="r" depth="3" NCoef="0" IVar="-1" Cut="0.0000000000000000e+00" cType="1" res="2.9551186598837376e-03" rms="4.2488381266593933e-01" purity="3.9659079909324646e-01" nType="-99"/>
          </Node>
          <Node pos="r" depth="2" NCoef="0" IVar="8" Cut="1.3325199484825134e-01" cType="1" res="1.3849554816260934e-03" rms="3.9423120021820068e-01" purity="6.1463224887847900e-01" nType="0">
            <Node pos="l" depth="3" NCoef="0" IVar="-1" Cut="0.0000000000000000e+00" cType="1" res="3.9662201888859272e-03" rms="3.9440053701400757e-01" purity="6.2117552757263184e-01" nType="-99"/>
            <Node pos="r" depth="3" NCoef="0" IVar="-1" Cut="0.0000000000000000e+00" cType="1" res="-3.2449953723698854e-03" rms="3.9391297101974487e-01" purity="6.0587501525878906e-01" nType="-99"/>
          </Node>
        </Node>
        <Node pos="r" depth="1" NCoef="0" IVar="8" Cut="1.1999500989913940e+00" cType="1" res="1.2267925776541233e-02" rms="3.8245460391044617e-01" purity="3.8474646210670471e-01" nType="0">
          <Node pos="l" depth="2" NCoef="0" IVar="3" Cut="2.0869905090332031e+02" cType="1" res="1.7755597829818726e-02" rms="3.9248165488243103e-01" purity="4.2014452815055847e-01" nType="0">
            <Node pos="l" depth="3" NCoef="0" IVar="-1" Cut="0.0000000000000000e+00" cType="1" res="2.0998768508434296e-02" rms="3.9428064227104187e-01" purity="3.2049372792243958e-01" nType="-99"/>
            <Node pos="r" depth="3" NCoef="0" IVar="-1" Cut="0.0000000000000000e+00" cType="1" res="3.1815090915188193e-04" rms="3.8926935195922852e-01" purity="5.6117582321166992e-01" nType="-99"/>
          </Node>
          <Node pos="r" depth="2" NCoef="0" IVar="-1" Cut="0.0000000000000000e+00" cType="1" res="-9.4178272411227226e-03" rms="3.3471748232841492e-01" purity="2.3193287849426270e-01" nType="-99"/>
        </Node>
      </Node>
    </BinaryTree>
    <BinaryTree type="DecisionTree" boostWeight="1.0000000000000000e+00" itree="201">
      <Node pos="s" depth="0" NCoef="0" IVar="7" Cut="-9.3322581052780151e-01" cType="1" res="4.4342144974507391e-04" rms="3.8631054759025574e-01" purity="4.9854624271392822e-01" nType="0">
        <Node pos="l" depth="1" NCoef="0" IVar="8" Cut="1.1998027563095093e+00" cType="1" res="9.7467899322509766e-03" rms="3.7836080789566040e-01" purity="3.7878403067588806e-01" nType="0">
          <Node pos="l" depth="2" NCoef="0" IVar="1" Cut="1.0595450439453125e+03" cType="1" res="1.4101955108344555e-02" rms="3.8602253794670105e-01" purity="4.0359437465667725e-01" nType="0">
            <Node pos="l" depth="3" NCoef="0" IVar="-1" Cut="0.0000000000000000e+00" cType="1" res="-4.3036835268139839e-03" rms="3.2795822620391846e-01" purity="1.4839187264442444e-01" nType="-99"/>
            <Node pos="r" depth="3" NCoef="0" IVar="-1" Cut="0.0000000000000000e+00" cType="1" res="1.3274420984089375e-02" rms="4.0875545144081116e-01" purity="5.1622444391250610e-01" nType="-99"/>
          </Node>
          <Node pos="r" depth="2" NCoef="0" IVar="-1" Cut="0.0000000000000000e+00" cType="1" res="-1.6653284430503845e-02" rms="3.1969478726387024e-01" purity="2.0958051085472107e-01" nType="-99"/>
        </Node>
        <Node pos="r" depth="1" NCoef="0" IVar="6" Cut="-6.4458471536636353e-01" cType="1" res="-1.8643155926838517e-03" rms="3.8822281360626221e-01" purity="5.2825379371643066e-01" nType="0">
          <Node pos="l" depth="2" NCoef="0" IVar="8" Cut="-1.3289326429367065e-01" cType="1" res="-8.9140282943844795e-03" rms="3.7990975379943848e-01" purity="4.1154521703720093e-01" nType="0">
            <Node pos="l" depth="3" NCoef="0" IVar="-1" Cut="0.0000000000000000e+00" cType="1" res="-1.2089227326214314e-02" rms="3.7540993094444275e-01" purity="4.0075582265853882e-01" nType="-99"/>
            <Node pos="r" depth="3" NCoef="0" IVar="-1" Cut="0.0000000000000000e+00" cType="1" res="1.7068703891709447e-04" rms="3.8422733545303345e-01" purity="4.2254737019538879e-01" nType="-99"/>
          </Node>
          <Node pos="r" depth="2" NCoef="0" IVar="6" Cut="1.8156814575195312e+00" cType="1" res="2.6925260317511857e-04" rms="3.9067879319190979e-01" purity="5.6357514858245850e-01" nType="0">
            <Node pos="l" depth="3" NCoef="0" IVar="-1" Cut="0.0000000000000000e+00" cType="1" res="8.3378120325505733e-04" rms="3.9479702711105347e-01" purity="5.8161211013793945e-01" nType="-99"/>
            <Node pos="r" depth="3" NCoef="0" IVar="-1" Cut="0.0000000000000000e+00" cType="1" res="-2.1224616095423698e-02" rms="2.8478437662124634e-01" purity="1.6772779822349548e-01" nType="-99"/>
          </Node>
        </Node>
      </Node>
    </BinaryTree>
    <BinaryTree type="DecisionTree" boostWeight="1.0000000000000000e+00" itree="202">
      <Node pos="s" depth="0" NCoef="0" IVar="6" Cut="-1.4534932374954224e+00" cType="1" res="3.1316225067712367e-04" rms="3.8708546757698059e-01" purity="4.9922168254852295e-01" nType="0">
        <Node pos="l" depth="1" NCoef="0" IVar="0" Cut="3.7379321289062500e+02" cType="1" res="2.7442665770649910e-02" rms="3.4878489375114441e-01" purity="2.4872714281082153e-01" nType="0">
          <Node pos="l" depth="2" NCoef="0" IVar="-1" Cut="0.0000000000000000e+00" cType="1" res="3.3121588639914989e-03" rms="2.8553280234336853e-01" purity="1.1673470586538315e-01" nType="-99"/>
          <Node pos="r" depth="2" NCoef="0" IVar="-1" Cut="0.0000000000000000e+00" cType="1" res="3.4589890390634537e-02" rms="3.9362320303916931e-01" purity="3.6139988899230957e-01" nType="-99"/>
        </Node>
        <Node pos="r" depth="1" NCoef="0" IVar="9" Cut="-6.6660749912261963e-01" cType="1" res="-1.7133870860561728e-03" rms="3.8971966505050659e-01" purity="5.1793342828750610e-01" nType="0">
          <Node pos="l" depth="2" NCoef="0" IVar="4" Cut="1.8479553222656250e+02" cType="1" res="-1.0894343256950378e-02" rms="3.8947576284408569e-01" purity="4.8089560866355896e-01" nType="0">
            <Node pos="l" depth="3" NCoef="0" IVar="-1" Cut="0.0000000000000000e+00" cType="1" res="-1.0289427824318409e-02" rms="3.9495587348937988e-01" purity="4.1497197747230530e-01" nType="-99"/>
            <Node pos="r" depth="3" NCoef="0" IVar="-1" Cut="0.0000000000000000e+00" cType="1" res="9.6765924245119095e-03" rms="3.6391907930374146e-01" purity="7.6525324583053589e-01" nType="-99"/>
          </Node>
          <Node pos="r" depth="2" NCoef="0" IVar="0" Cut="5.9407952880859375e+02" cType="1" res="2.0692334510385990e-03" rms="3.8975718617439270e-01" purity="5.3319323062896729e-01" nType="0">
            <Node pos="l" depth="3" NCoef="0" IVar="-1" Cut="0.0000000000000000e+00" cType="1" res="3.0898337718099356e-03" rms="3.9712834358215332e-01" purity="4.8273897171020508e-01" nType="-99"/>
            <Node pos="r" depth="3" NCoef="0" IVar="-1" Cut="0.0000000000000000e+00" cType="1" res="-1.1694046668708324e-02" rms="3.4684401750564575e-01" purity="8.0564743280410767e-01" nType="-99"/>
          </Node>
        </Node>
      </Node>
    </BinaryTree>
    <BinaryTree type="DecisionTree" boostWeight="1.0000000000000000e+00" itree="203">
      <Node pos="s" depth="0" NCoef="0" IVar="9" Cut="1.4666688442230225e+00" cType="1" res="1.0040376801043749e-03" rms="3.8739290833473206e-01" purity="5.0129103660583496e-01" nType="0">
        <Node pos="l" depth="1" NCoef="0" IVar="6" Cut="-3.7956780195236206e-01" cType="1" res="3.8366282824426889e-03" rms="3.8915914297103882e-01" purity="5.1786988973617554e-01" nType="0">
          <Node pos="l" depth="2" NCoef="0" IVar="5" Cut="7.3396797180175781e+01" cType="1" res="1.2076952494680882e-02" rms="3.8988310098648071e-01" purity="4.6611312031745911e-01" nType="0">
            <Node pos="l" depth="3" NCoef="0" IVar="-1" Cut="0.0000000000000000e+00" cType="1" res="1.6849191859364510e-02" rms="3.8400262594223022e-01" purity="2.9332670569419861e-01" nType="-99"/>
            <Node pos="r" depth="3" NCoef="0" IVar="-1" Cut="0.0000000000000000e+00" cType="1" res="2.2762038279324770e-03" rms="3.9390122890472412e-01" purity="5.9212857484817505e-01" nType="-99"/>
          </Node>
          <Node pos="r" depth="2" NCoef="0" IVar="9" Cut="1.0603094100952148e+00" cType="1" res="-5.8927794452756643e-04" rms="3.8869762420654297e-01" purity="5.4566860198974609e-01" nType="0">
            <Node pos="l" depth="3" NCoef="0" IVar="-1" Cut="0.0000000000000000e+00" cType="1" res="-1.9788597710430622e-03" rms="3.8874387741088867e-01" purity="5.4945462942123413e-01" nType="-99"/>
            <Node pos="r" depth="3" NCoef="0" IVar="-1" Cut="0.0000000000000000e+00" cType="1" res="1.3547947630286217e-02" rms="3.8766264915466309e-01" purity="5.1279312372207642e-01" nType="-99"/>
          </Node>
        </Node>
        <Node pos="r" depth="1" NCoef="0" IVar="8" Cut="-6.6685080528259277e-01" cType="1" res="-1.9231976941227913e-02" rms="3.7390917539596558e-01" purity="3.8285219669342041e-01" nType="0">
          <Node pos="l" depth="2" NCoef="0" IVar="-1" Cut="0.0000000000000000e+00" cType="1" res="-2.9965175315737724e-02" rms="3.8502955436706543e-01" purity="3.0011415481567383e-01" nType="-99"/>
          <Node pos="r" depth="2" NCoef="0" IVar="4" Cut="9.7411476135253906e+01" cType="1" res="-1.1204722337424755e-02" rms="3.7001258134841919e-01" purity="4.0860903263092041e-01" nType="0">
            <Node pos="l" depth="3" NCoef="0" IVar="-1" Cut="0.0000000000000000e+00" cType="1" res="-3.6070484668016434e-02" rms="3.0202850699424744e-01" purity="1.4389728009700775e-01" nType="-99"/>
            <Node pos="r" depth="3" NCoef="0" IVar="-1" Cut="0.0000000000000000e+00" cType="1" res="2.3654827382415533e-03" rms="3.9742621779441833e-01" purity="5.3456968069076538e-01" nType="-99"/>
          </Node>
        </Node>
      </Node>
    </BinaryTree>
    <BinaryTree type="DecisionTree" boostWeight="1.0000000000000000e+00" itree="204">
      <Node pos="s" depth="0" NCoef="0" IVar="6" Cut="1.4701749086380005e+00" cType="1" res="1.1327684624120593e-03" rms="3.8657507300376892e-01" purity="5.0049149990081787e-01" nType="0">
        <Node pos="l" depth="1" NCoef="0" IVar="7" Cut="-3.9992505311965942e-01" cType="1" res="-4.6159908379195258e-05" rms="3.8969999551773071e-01" purity="5.2126020193099976e-01" nType="0">
          <Node pos="l" depth="2" NCoef="0" IVar="7" Cut="-1.0856144428253174e+00" cType="1" res="6.4978040754795074e-03" rms="3.9226865768432617e-01" purity="4.8377475142478943e-01" nType="0">
            <Node pos="l" depth="3" NCoef="0" IVar="-1" Cut="0.0000000000000000e+00" cType="1" res="-5.0857034511864185e-03" rms="3.7881299853324890e-01" purity="3.4307754039764404e-01" nType="-99"/>
            <Node pos="r" depth="3" NCoef="0" IVar="-1" Cut="0.0000000000000000e+00" cType="1" res="1.0674090124666691e-02" rms="4.0177065134048462e-01" purity="5.8960968255996704e-01" nType="-99"/>
          </Node>
          <Node pos="r" depth="2" NCoef="0" IVar="1" Cut="1.1026463623046875e+03" cType="1" res="-3.7522851489484310e-03" rms="3.8818877935409546e-01" purity="5.4248976707458496e-01" nType="0">
            <Node pos="l" depth="3" NCoef="0" IVar="-1" Cut="0.0000000000000000e+00" cType="1" res="-1.0034447535872459e-02" rms="3.8567188382148743e-01" purity="2.4473042786121368e-01" nType="-99"/>
            <Node pos="r" depth="3" NCoef="0" IVar="-1" Cut="0.0000000000000000e+00" cType="1" res="7.6289102435112000e-04" rms="3.8909640908241272e-01" purity="6.6315728425979614e-01" nType="-99"/>
          </Node>
        </Node>
        <Node pos="r" depth="1" NCoef="0" IVar="8" Cut="1.3377033174037933e-01" cType="1" res="1.7092315480113029e-02" rms="3.4106910228729248e-01" purity="2.1933870017528534e-01" nType="0">
          <Node pos="l" depth="2" NCoef="0" IVar="-1" Cut="0.0000000000000000e+00" cType="1" res="-3.6405443097464740e-04" rms="3.4050858020782471e-01" purity="2.0377965271472931e-01" nType="-99"/>
          <Node pos="r" depth="2" NCoef="0" IVar="-1" Cut="0.0000000000000000e+00" cType="1" res="2.8725437819957733e-02" rms="3.4084847569465637e-01" purity="2.3232018947601318e-01" nType="-99"/>
        </Node>
      </Node>
    </BinaryTree>
    <BinaryTree type="DecisionTree" boostWeight="1.0000000000000000e+00" itree="205">
      <Node pos="s" depth="0" NCoef="0" IVar="3" Cut="2.4044898986816406e+02" cType="1" res="8.3347677718847990e-04" rms="3.8640016317367554e-01" purity="5.0136750936508179e-01" nType="0">
        <Node pos="l" depth="1" NCoef="0" IVar="3" Cut="1.3204235839843750e+02" cType="1" res="4.1852090507745743e-03" rms="3.9274120330810547e-01" purity="4.1798236966133118e-01" nType="0">
          <Node pos="l" depth="2" NCoef="0" IVar="4" Cut="9.2847160339355469e+01" cType="1" res="-5.1315659657120705e-03" rms="3.4950429201126099e-01" purity="1.9821843504905701e-01" nType="0">
            <Node pos="l" depth="3" NCoef="0" IVar="-1" Cut="0.0000000000000000e+00" cType="1" res="2.9049089644104242e-03" rms="3.2787865400314331e-01" purity="1.5647801756858826e-01" nType="-99"/>
            <Node pos="r" depth="3" NCoef="0" IVar="-1" Cut="0.0000000000000000e+00" cType="1" res="-1.4190578833222389e-02" rms="3.9190801978111267e-01" purity="2.8917241096496582e-01" nType="-99"/>
          </Node>
          <Node pos="r" depth="2" NCoef="0" IVar="0" Cut="4.3468881225585938e+02" cType="1" res="7.5275301933288574e-03" rms="4.0708258748054504e-01" purity="4.9682095646858215e-01" nType="0">
            <Node pos="l" depth="3" NCoef="0" IVar="-1" Cut="0.0000000000000000e+00" cType="1" res="8.6679933592677116e-03" rms="4.1443729400634766e-01" purity="3.7124490737915039e-01" nType="-99"/>
            <Node pos="r" depth="3" NCoef="0" IVar="-1" Cut="0.0000000000000000e+00" cType="1" res="-1.9165618577972054e-03" rms="3.9575365185737610e-01" purity="6.8198817968368530e-01" nType="-99"/>
          </Node>
        </Node>
        <Node pos="r" depth="1" NCoef="0" IVar="7" Cut="1.2000172138214111e+00" cType="1" res="-6.1540203168988228e-03" rms="3.7273725867271423e-01" purity="6.7520403861999512e-01" nType="0">
          <Node pos="l" depth="2" NCoef="0" IVar="8" Cut="-6.6670906543731689e-01" cType="1" res="-1.8367833690717816e-03" rms="3.7206417322158813e-01" purity="7.0118290185928345e-01" nType="0">
            <Node pos="l" depth="3" NCoef="0" IVar="-1" Cut="0.0000000000000000e+00" cType="1" res="-1.2878375127911568e-02" rms="3.8110333681106567e-01" purity="6.3352596759796143e-01" nType="-99"/>
            <Node pos="r" depth="3" NCoef="0" IVar="-1" Cut="0.0000000000000000e+00" cType="1" res="3.0587583314627409e-03" rms="3.6867862939834595e-01" purity="7.2466945648193359e-01" nType="-99"/>
          </Node>
          <Node pos="r" depth="2" NCoef="0" IVar="-1" Cut="0.0000000000000000e+00" cType="1" res="-2.8688820078969002e-02" rms="3.7660595774650574e-01" purity="4.2926254868507385e-01" nType="-99"/>
        </Node>
      </Node>
    </BinaryTree>
    <BinaryTree type="DecisionTree" boostWeight="1.0000000000000000e+00" itree="206">
      <Node pos="s" depth="0" NCoef="0" IVar="3" Cut="1.4284295654296875e+02" cType="1" res="-4.8038293607532978e-04" rms="3.8855859637260437e-01" purity="4.9832785129547119e-01" nType="0">
        <Node pos="l" depth="1" NCoef="0" IVar="8" Cut="3.9987158775329590e-01" cType="1" res="9.4907516613602638e-03" rms="3.7194457650184631e-01" purity="2.3304483294487000e-01" nType="0">
          <Node pos="l" depth="2" NCoef="0" IVar="5" Cut="7.0903778076171875e+01" cType="1" res="-3.5332897678017616e-03" rms="3.6674982309341431e-01" purity="2.2871758043766022e-01" nType="0">
            <Node pos="l" depth="3" NCoef="0" IVar="-1" Cut="0.0000000000000000e+00" cType="1" res="-1.8662262707948685e-02" rms="3.1732767820358276e-01" purity="1.3957421481609344e-01" nType="-99"/>
            <Node pos="r" depth="3" NCoef="0" IVar="-1" Cut="0.0000000000000000e+00" cType="1" res="1.5280099585652351e-02" rms="4.3509495258331299e-01" purity="3.7701684236526489e-01" nType="-99"/>
          </Node>
          <Node pos="r" depth="2" NCoef="0" IVar="8" Cut="1.5426657199859619e+00" cType="1" res="2.9915992170572281e-02" rms="3.7904819846153259e-01" purity="2.3983116447925568e-01" nType="0">
            <Node pos="l" depth="3" NCoef="0" IVar="-1" Cut="0.0000000000000000e+00" cType="1" res="2.8550894930958748e-02" rms="4.0135699510574341e-01" purity="2.7895209193229675e-01" nType="-99"/>
            <Node pos="r" depth="3" NCoef="0" IVar="-1" Cut="0.0000000000000000e+00" cType="1" res="8.0767776817083359e-03" rms="3.2416409254074097e-01" purity="1.5464150905609131e-01" nType="-99"/>
          </Node>
        </Node>
        <Node pos="r" depth="1" NCoef="0" IVar="7" Cut="-1.1998237371444702e+00" cType="1" res="-3.4218137152493000e-03" rms="3.9327734708786011e-01" purity="5.7658487558364868e-01" nType="0">
          <Node pos="l" depth="2" NCoef="0" IVar="2" Cut="4.2067239379882812e+02" cType="1" res="-2.1343529224395752e-02" rms="3.7900054454803467e-01" purity="3.4844738245010376e-01" nType="0">
            <Node pos="l" depth="3" NCoef="0" IVar="-1" Cut="0.0000000000000000e+00" cType="1" res="-5.7731270790100098e-03" rms="3.8434654474258423e-01" purity="3.6053982377052307e-01" nType="-99"/>
            <Node pos="r" depth="3" NCoef="0" IVar="-1" Cut="0.0000000000000000e+00" cType="1" res="-3.3791027963161469e-02" rms="3.6369132995605469e-01" purity="3.1867486238479614e-01" nType="-99"/>
          </Node>
          <Node pos="r" depth="2" NCoef="0" IVar="8" Cut="1.4665958881378174e+00" cType="1" res="-1.0867612436413765e-03" rms="3.9503961801528931e-01" purity="6.0630935430526733e-01" nType="0">
            <Node pos="l" depth="3" NCoef="0" IVar="-1" Cut="0.0000000000000000e+00" cType="1" res="3.7547355168499053e-04" rms="3.9477849006652832e-01" purity="6.2788474559783936e-01" nType="-99"/>
            <Node pos="r" depth="3" NCoef="0" IVar="-1" Cut="0.0000000000000000e+00" cType="1" res="-1.0991511866450310e-02" rms="3.9725500345230103e-01" purity="3.9048922061920166e-01" nType="-99"/>
          </Node>
        </Node>
      </Node>
    </BinaryTree>
    <BinaryTree type="DecisionTree" boostWeight="1.0000000000000000e+00" itree="207">
      <Node pos="s" depth="0" NCoef="0" IVar="9" Cut="2.2666609287261963e+00" cType="1" res="2.8768840711563826e-03" rms="3.8839712738990784e-01" purity="5.0274324417114258e-01" nType="0">
        <Node pos="l" depth="1" NCoef="0" IVar="3" Cut="1.4577171325683594e+02" cType="1" res="1.9450659165158868e-03" rms="3.8926210999488831e-01" purity="5.0641447305679321e-01" nType="0">
          <Node pos="l" depth="2" NCoef="0" IVar="2" Cut="3.1738314819335938e+02" cType="1" res="1.1896629817783833e-02" rms="3.8136339187622070e-01" purity="2.4691961705684662e-01" nType="0">
            <Node pos="l" depth="3" NCoef="0" IVar="-1" Cut="0.0000000000000000e+00" cType="1" res="1.7638489603996277e-02" rms="3.9546105265617371e-01" purity="2.6187959313392639e-01" nType="-99"/>
            <Node pos="r" depth="3" NCoef="0" IVar="-1" Cut="0.0000000000000000e+00" cType="1" res="-2.4544610641896725e-03" rms="3.6400419473648071e-01" purity="2.2982917726039886e-01" nType="-99"/>
          </Node>
          <Node pos="r" depth="2" NCoef="0" IVar="6" Cut="-1.4324108362197876e+00" cType="1" res="-1.1951468186452985e-03" rms="3.9166903495788574e-01" purity="5.8829796314239502e-01" nType="0">
            <Node pos="l" depth="3" NCoef="0" IVar="-1" Cut="0.0000000000000000e+00" cType="1" res="-1.9826076924800873e-02" rms="3.6236736178398132e-01" purity="2.5540480017662048e-01" nType="-99"/>
            <Node pos="r" depth="3" NCoef="0" IVar="-1" Cut="0.0000000000000000e+00" cType="1" res="3.1336108804680407e-04" rms="3.9341431856155396e-01" purity="6.0965341329574585e-01" nType="-99"/>
          </Node>
        </Node>
        <Node pos="r" depth="1" NCoef="0" IVar="-1" Cut="0.0000000000000000e+00" cType="1" res="2.1405547857284546e-02" rms="3.5978874564170837e-01" purity="3.9050024747848511e-01" nType="-99"/>
      </Node>
    </BinaryTree>
    <BinaryTree type="DecisionTree" boostWeight="1.0000000000000000e+00" itree="208">
      <Node pos="s" depth="0" NCoef="0" IVar="8" Cut="-4.0004134178161621e-01" cType="1" res="4.5500444248318672e-03" rms="3.8952189683914185e-01" purity="5.0351291894912720e-01" nType="0">
        <Node pos="l" depth="1" NCoef="0" IVar="5" Cut="7.6551040649414062e+01" cType="1" res="1.1221702210605145e-02" rms="3.9280128479003906e-01" purity="4.7606483101844788e-01" nType="0">
          <Node pos="l" depth="2" NCoef="0" IVar="5" Cut="7.0229347229003906e+01" cType="1" res="2.4079727008938789e-02" rms="3.9081329107284546e-01" purity="3.2058274745941162e-01" nType="0">
            <Node pos="l" depth="3" NCoef="0" IVar="-1" Cut="0.0000000000000000e+00" cType="1" res="1.0862228460609913e-02" rms="3.8260859251022339e-01" purity="2.8834968805313110e-01" nType="-99"/>
            <Node pos="r" depth="3" NCoef="0" IVar="-1" Cut="0.0000000000000000e+00" cType="1" res="3.4083463251590729e-02" rms="4.2054077982902527e-01" purity="4.5022481679916382e-01" nType="-99"/>
          </Node>
          <Node pos="r" depth="2" NCoef="0" IVar="5" Cut="1.0183885192871094e+02" cType="1" res="-1.9183862605132163e-04" rms="3.9420634508132935e-01" purity="6.1407983303070068e-01" nType="0">
            <Node pos="l" depth="3" NCoef="0" IVar="-1" Cut="0.0000000000000000e+00" cType="1" res="-1.0937551036477089e-02" rms="4.1715461015701294e-01" purity="4.6625348925590515e-01" nType="-99"/>
            <Node pos="r" depth="3" NCoef="0" IVar="-1" Cut="0.0000000000000000e+00" cType="1" res="9.1071110218763351e-03" rms="3.7596321105957031e-01" purity="7.2215634584426880e-01" nType="-99"/>
          </Node>
        </Node>
        <Node pos="r" depth="1" NCoef="0" IVar="8" Cut="-2.4766279757022858e-01" cType="1" res="6.9782685022801161e-04" rms="3.8756343722343445e-01" purity="5.1936149597167969e-01" nType="0">
          <Node pos="l" depth="2" NCoef="0" IVar="-1" Cut="0.0000000000000000e+00" cType="1" res="-1.0503890924155712e-02" rms="3.7787637114524841e-01" purity="5.8055388927459717e-01" nType="-99"/>
          <Node pos="r" depth="2" NCoef="0" IVar="8" Cut="4.2579703032970428e-02" cType="1" res="2.0475862547755241e-03" rms="3.8832610845565796e-01" purity="5.1428180932998657e-01" nType="0">
            <Node pos="l" depth="3" NCoef="0" IVar="-1" Cut="0.0000000000000000e+00" cType="1" res="9.6286395564675331e-03" rms="3.8839867711067200e-01" purity="6.1157584190368652e-01" nType="-99"/>
            <Node pos="r" depth="3" NCoef="0" IVar="-1" Cut="0.0000000000000000e+00" cType="1" res="-3.9323087548837066e-04" rms="3.8825953006744385e-01" purity="4.9345603585243225e-01" nType="-99"/>
          </Node>
        </Node>
      </Node>
    </BinaryTree>
    <BinaryTree type="DecisionTree" boostWeight="1.0000000000000000e+00" itree="209">
      <Node pos="s" depth="0" NCoef="0" IVar="3" Cut="4.1916351318359375e+02" cType="1" res="3.3967092167586088e-04" rms="3.8615754246711731e-01" purity="5.0144279003143311e-01" nType="0">
        <Node pos="l" depth="1" NCoef="0" IVar="1" Cut="1.1041718750000000e+03" cType="1" res="1.1087643215432763e-03" rms="3.8609135150909424e-01" purity="4.9626392126083374e-01" nType="0">
          <Node pos="l" depth="2" NCoef="0" IVar="6" Cut="-1.1744878292083740e+00" cType="1" res="-5.3976592607796192e-03" rms="3.7810277938842773e-01" purity="2.2555746138095856e-01" nType="0">
            <Node pos="l" depth="3" NCoef="0" IVar="-1" Cut="0.0000000000000000e+00" cType="1" res="2.3507323116064072e-02" rms="3.1260320544242859e-01" purity="1.2777970731258392e-01" nType="-99"/>
            <Node pos="r" depth="3" NCoef="0" IVar="-1" Cut="0.0000000000000000e+00" cType="1" res="-6.5303617157042027e-03" rms="3.8887378573417664e-01" purity="2.4372312426567078e-01" nType="-99"/>
          </Node>
          <Node pos="r" depth="2" NCoef="0" IVar="6" Cut="-1.1750954389572144e+00" cType="1" res="4.3156016618013382e-03" rms="3.8992854952812195e-01" purity="6.2968772649765015e-01" nType="0">
            <Node pos="l" depth="3" NCoef="0" IVar="-1" Cut="0.0000000000000000e+00" cType="1" res="-1.1878441087901592e-02" rms="3.7497127056121826e-01" purity="3.7506482005119324e-01" nType="-99"/>
            <Node pos="r" depth="3" NCoef="0" IVar="-1" Cut="0.0000000000000000e+00" cType="1" res="4.2879525572061539e-03" rms="3.9135947823524475e-01" purity="6.5587115287780762e-01" nType="-99"/>
          </Node>
        </Node>
        <Node pos="r" depth="1" NCoef="0" IVar="-1" Cut="0.0000000000000000e+00" cType="1" res="-1.3923333957791328e-02" rms="3.8739049434661865e-01" purity="6.4716702699661255e-01" nType="-99"/>
      </Node>
    </BinaryTree>
    <BinaryTree type="DecisionTree" boostWeight="1.0000000000000000e+00" itree="210">
      <Node pos="s" depth="0" NCoef="0" IVar="8" Cut="-6.6669207811355591e-01" cType="1" res="-3.6172412801533937e-03" rms="3.8802123069763184e-01" purity="4.9812042713165283e-01" nType="0">
        <Node pos="l" depth="1" NCoef="0" IVar="9" Cut="6.6605234146118164e-01" cType="1" res="6.6527742892503738e-03" rms="3.8866171240806580e-01" purity="4.5316815376281738e-01" nType="0">
          <Node pos="l" depth="2" NCoef="0" IVar="5" Cut="1.1706217956542969e+02" cType="1" res="1.1990116909146309e-02" rms="3.8912257552146912e-01" purity="4.6588474512100220e-01" nType="0">
            <Node pos="l" depth="3" NCoef="0" IVar="-1" Cut="0.0000000000000000e+00" cType="1" res="4.5811063610017300e-03" rms="3.9439886808395386e-01" purity="3.8236096501350403e-01" nType="-99"/>
            <Node pos="r" depth="3" NCoef="0" IVar="-1" Cut="0.0000000000000000e+00" cType="1" res="2.1759711205959320e-02" rms="3.6849334836006165e-01" purity="7.7339267730712891e-01" nType="-99"/>
          </Node>
          <Node pos="r" depth="2" NCoef="0" IVar="8" Cut="-1.0730575323104858e+00" cType="1" res="-8.8509181514382362e-03" rms="3.8690254092216492e-01" purity="4.1622963547706604e-01" nType="0">
            <Node pos="l" depth="3" NCoef="0" IVar="-1" Cut="0.0000000000000000e+00" cType="1" res="-1.6122931614518166e-02" rms="3.7979567050933838e-01" purity="3.4285435080528259e-01" nType="-99"/>
            <Node pos="r" depth="3" NCoef="0" IVar="-1" Cut="0.0000000000000000e+00" cType="1" res="9.5951082184910774e-03" rms="3.9659217000007629e-01" purity="5.3114354610443115e-01" nType="-99"/>
          </Node>
        </Node>
        <Node pos="r" depth="1" NCoef="0" IVar="7" Cut="1.7333512306213379e+00" cType="1" res="-7.9308729618787766e-03" rms="3.8767075538635254e-01" purity="5.1700133085250854e-01" nType="0">
          <Node pos="l" depth="2" NCoef="0" IVar="8" Cut="1.6443537473678589e+00" cType="1" res="-9.5772268250584602e-03" rms="3.8916516304016113e-01" purity="5.3332483768463135e-01" nType="0">
            <Node pos="l" depth="3" NCoef="0" IVar="-1" Cut="0.0000000000000000e+00" cType="1" res="-7.6936180703341961e-03" rms="3.8986396789550781e-01" purity="5.5940937995910645e-01" nType="-99"/>
            <Node pos="r" depth="3" NCoef="0" IVar="-1" Cut="0.0000000000000000e+00" cType="1" res="6.8198707886040211e-03" rms="3.8270780444145203e-01" purity="3.1451886892318726e-01" nType="-99"/>
          </Node>
          <Node pos="r" depth="2" NCoef="0" IVar="-1" Cut="0.0000000000000000e+00" cType="1" res="1.4337593689560890e-02" rms="3.6191150546073914e-01" purity="2.5586658716201782e-01" nType="-99"/>
        </Node>
      </Node>
    </BinaryTree>
    <BinaryTree type="DecisionTree" boostWeight="1.0000000000000000e+00" itree="211">
      <Node pos="s" depth="0" NCoef="0" IVar="1" Cut="1.4052860107421875e+03" cType="1" res="-2.3633742239326239e-03" rms="3.8549825549125671e-01" purity="4.9955075979232788e-01" nType="0">
        <Node pos="l" depth="1" NCoef="0" IVar="1" Cut="1.3476373291015625e+03" cType="1" res="-6.5927435643970966e-03" rms="3.9821588993072510e-01" purity="3.5973480343818665e-01" nType="0">
          <Node pos="l" depth="2" NCoef="0" IVar="2" Cut="3.8824606323242188e+02" cType="1" res="-8.6847711354494095e-03" rms="3.9689078927040100e-01" purity="3.3730870485305786e-01" nType="0">
            <Node pos="l" depth="3" NCoef="0" IVar="-1" Cut="0.0000000000000000e+00" cType="1" res="-3.1097694300115108e-03" rms="4.0548551082611084e-01" purity="3.6425530910491943e-01" nType="-99"/>
            <Node pos="r" depth="3" NCoef="0" IVar="-1" Cut="0.0000000000000000e+00" cType="1" res="-1.8173553049564362e-02" rms="3.5358512401580811e-01" purity="2.1164010465145111e-01" nType="-99"/>
          </Node>
          <Node pos="r" depth="2" NCoef="0" IVar="-1" Cut="0.0000000000000000e+00" cType="1" res="1.0250273160636425e-02" rms="4.1214171051979065e-01" purity="6.1285668611526489e-01" nType="-99"/>
        </Node>
        <Node pos="r" depth="1" NCoef="0" IVar="3" Cut="2.2423037719726562e+02" cType="1" res="5.1087602041661739e-03" rms="3.6181840300559998e-01" purity="7.4656724929809570e-01" nType="0">
          <Node pos="l" depth="2" NCoef="0" IVar="8" Cut="6.6618305444717407e-01" cType="1" res="2.1287018433213234e-02" rms="3.8336473703384399e-01" purity="7.2111755609512329e-01" nType="0">
            <Node pos="l" depth="3" NCoef="0" IVar="-1" Cut="0.0000000000000000e+00" cType="1" res="4.0839067660272121e-03" rms="3.7215808033943176e-01" purity="7.2980505228042603e-01" nType="-99"/>
            <Node pos="r" depth="3" NCoef="0" IVar="-1" Cut="0.0000000000000000e+00" cType="1" res="3.7281099706888199e-02" rms="4.0790939331054688e-01" purity="6.9897687435150146e-01" nType="-99"/>
          </Node>
          <Node pos="r" depth="2" NCoef="0" IVar="5" Cut="1.2018351745605469e+02" cType="1" res="-5.6013168068602681e-04" rms="3.5378336906433105e-01" purity="7.5548481941223145e-01" nType="0">
            <Node pos="l" depth="3" NCoef="0" IVar="-1" Cut="0.0000000000000000e+00" cType="1" res="3.8300601299852133e-03" rms="3.8512969017028809e-01" purity="6.7749959230422974e-01" nType="-99"/>
            <Node pos="r" depth="3" NCoef="0" IVar="-1" Cut="0.0000000000000000e+00" cType="1" res="-7.7207437716424465e-03" rms="3.1491011381149292e-01" purity="8.4267437458038330e-01" nType="-99"/>
          </Node>
        </Node>
      </Node>
    </BinaryTree>
    <BinaryTree type="DecisionTree" boostWeight="1.0000000000000000e+00" itree="212">
      <Node pos="s" depth="0" NCoef="0" IVar="7" Cut="6.6669827699661255e-01" cType="1" res="2.0027768332511187e-03" rms="3.8686749339103699e-01" purity="5.0354421138763428e-01" nType="0">
        <Node pos="l" depth="1" NCoef="0" IVar="7" Cut="-3.2373905181884766e-01" cType="1" res="-1.0159664088860154e-03" rms="3.8728064298629761e-01" purity="5.3241229057312012e-01" nType="0">
          <Node pos="l" depth="2" NCoef="0" IVar="9" Cut="1.1997970342636108e+00" cType="1" res="4.7415154986083508e-03" rms="3.8647669553756714e-01" purity="4.7182467579841614e-01" nType="0">
            <Node pos="l" depth="3" NCoef="0" IVar="-1" Cut="0.0000000000000000e+00" cType="1" res="1.1068673338741064e-03" rms="3.8531756401062012e-01" purity="4.8158025741577148e-01" nType="-99"/>
            <Node pos="r" depth="3" NCoef="0" IVar="-1" Cut="0.0000000000000000e+00" cType="1" res="1.4775044284760952e-02" rms="3.9247700572013855e-01" purity="4.1703557968139648e-01" nType="-99"/>
          </Node>
          <Node pos="r" depth="2" NCoef="0" IVar="3" Cut="3.3642965698242188e+02" cType="1" res="-7.2400909848511219e-03" rms="3.8805177807807922e-01" purity="5.9791058301925659e-01" nType="0">
            <Node pos="l" depth="3" NCoef="0" IVar="-1" Cut="0.0000000000000000e+00" cType="1" res="-7.3222243227064610e-03" rms="3.9313653111457825e-01" purity="5.6839722394943237e-01" nType="-99"/>
            <Node pos="r" depth="3" NCoef="0" IVar="-1" Cut="0.0000000000000000e+00" cType="1" res="1.4012046158313751e-02" rms="3.5272553563117981e-01" purity="7.8639346361160278e-01" nType="-99"/>
          </Node>
        </Node>
        <Node pos="r" depth="1" NCoef="0" IVar="4" Cut="8.9734542846679688e+01" cType="1" res="1.0263910517096519e-02" rms="3.8561385869979858e-01" purity="4.2454338073730469e-01" nType="0">
          <Node pos="l" depth="2" NCoef="0" IVar="0" Cut="4.0752496337890625e+02" cType="1" res="2.7774408459663391e-02" rms="3.5329982638359070e-01" purity="1.9757729768753052e-01" nType="0">
            <Node pos="l" depth="3" NCoef="0" IVar="-1" Cut="0.0000000000000000e+00" cType="1" res="4.3144887313246727e-03" rms="2.9646897315979004e-01" purity="1.1160677671432495e-01" nType="-99"/>
            <Node pos="r" depth="3" NCoef="0" IVar="-1" Cut="0.0000000000000000e+00" cType="1" res="4.0401279926300049e-02" rms="4.2030104994773865e-01" purity="3.2307669520378113e-01" nType="-99"/>
          </Node>
          <Node pos="r" depth="2" NCoef="0" IVar="3" Cut="2.3390658569335938e+02" cType="1" res="3.9894506335258484e-03" rms="3.9636427164077759e-01" purity="5.0587117671966553e-01" nType="0">
            <Node pos="l" depth="3" NCoef="0" IVar="-1" Cut="0.0000000000000000e+00" cType="1" res="-3.9820945821702480e-03" rms="3.9986500144004822e-01" purity="4.2002397775650024e-01" nType="-99"/>
            <Node pos="r" depth="3" NCoef="0" IVar="-1" Cut="0.0000000000000000e+00" cType="1" res="1.2863012962043285e-02" rms="3.9025050401687622e-01" purity="6.4030152559280396e-01" nType="-99"/>
          </Node>
        </Node>
      </Node>
    </BinaryTree>
    <BinaryTree type="DecisionTree" boostWeight="1.0000000000000000e+00" itree="213">
      <Node pos="s" depth="0" NCoef="0" IVar="7" Cut="1.7332985401153564e+00" cType="1" res="-4.1895429603755474e-03" rms="3.8555023074150085e-01" purity="4.9599179625511169e-01" nType="0">
        <Node pos="l" depth="1" NCoef="0" IVar="8" Cut="1.7332308292388916e+00" cType="1" res="-2.9306167270988226e-03" rms="3.8851860165596008e-01" purity="5.1432716846466064e-01" nType="0">
          <Node pos="l" depth="2" NCoef="0" IVar="8" Cut="6.5386635065078735e-01" cType="1" res="-4.1590253822505474e-03" rms="3.8906154036521912e-01" purity="5.2865737676620483e-01" nType="0">
            <Node pos="l" depth="3" NCoef="0" IVar="-1" Cut="0.0000000000000000e+00" cType="1" res="-7.6508335769176483e-04" rms="3.8755661249160767e-01" purity="5.4128140211105347e-01" nType="-99"/>
            <Node pos="r" depth="3" NCoef="0" IVar="-1" Cut="0.0000000000000000e+00" cType="1" res="-9.2821475118398666e-03" rms="3.9408707618713379e-01" purity="4.8462525010108948e-01" nType="-99"/>
          </Node>
          <Node pos="r" depth="2" NCoef="0" IVar="9" Cut="4.0029588341712952e-01" cType="1" res="1.3971920125186443e-02" rms="3.8056707382202148e-01" purity="3.1714767217636108e-01" nType="0">
            <Node pos="l" depth="3" NCoef="0" IVar="-1" Cut="0.0000000000000000e+00" cType="1" res="1.8360877409577370e-02" rms="3.9689627289772034e-01" purity="3.5485723614692688e-01" nType="-99"/>
            <Node pos="r" depth="3" NCoef="0" IVar="-1" Cut="0.0000000000000000e+00" cType="1" res="-2.1961906459182501e-03" rms="3.5822400450706482e-01" purity="2.6963597536087036e-01" nType="-99"/>
          </Node>
        </Node>
        <Node pos="r" depth="1" NCoef="0" IVar="3" Cut="1.5439239501953125e+02" cType="1" res="-2.4710016325116158e-02" rms="3.3278986811637878e-01" purity="1.9712544977664948e-01" nType="0">
          <Node pos="l" depth="2" NCoef="0" IVar="-1" Cut="0.0000000000000000e+00" cType="1" res="5.2398601546883583e-03" rms="3.1435722112655640e-01" purity="1.4161649346351624e-01" nType="-99"/>
          <Node pos="r" depth="2" NCoef="0" IVar="-1" Cut="0.0000000000000000e+00" cType="1" res="-3.3017825335264206e-02" rms="3.4480100870132446e-01" purity="2.4079422652721405e-01" nType="-99"/>
        </Node>
      </Node>
    </BinaryTree>
    <BinaryTree type="DecisionTree" boostWeight="1.0000000000000000e+00" itree="214">
      <Node pos="s" depth="0" NCoef="0" IVar="8" Cut="-1.2000184059143066e+00" cType="1" res="1.6400193271692842e-04" rms="3.8799059391021729e-01" purity="4.9826130270957947e-01" nType="0">
        <Node pos="l" depth="1" NCoef="0" IVar="5" Cut="1.1476654815673828e+02" cType="1" res="-1.2778407894074917e-02" rms="3.7129887938499451e-01" purity="3.5675638914108276e-01" nType="0">
          <Node pos="l" depth="2" NCoef="0" IVar="7" Cut="-1.1999437808990479e+00" cType="1" res="-1.9937688484787941e-02" rms="3.6690503358840942e-01" purity="2.7758207917213440e-01" nType="0">
            <Node pos="l" depth="3" NCoef="0" IVar="-1" Cut="0.0000000000000000e+00" cType="1" res="-4.0986515581607819e-02" rms="2.9158809781074524e-01" purity="1.2206084281206131e-01" nType="-99"/>
            <Node pos="r" depth="3" NCoef="0" IVar="-1" Cut="0.0000000000000000e+00" cType="1" res="-8.5975816473364830e-03" rms="3.8371667265892029e-01" purity="3.1781762838363647e-01" nType="-99"/>
          </Node>
          <Node pos="r" depth="2" NCoef="0" IVar="-1" Cut="0.0000000000000000e+00" cType="1" res="1.0497353971004486e-02" rms="3.8763165473937988e-01" purity="6.8619424104690552e-01" nType="-99"/>
        </Node>
        <Node pos="r" depth="1" NCoef="0" IVar="9" Cut="-1.1999006271362305e+00" cType="1" res="2.4993072729557753e-03" rms="3.9088091254234314e-01" purity="5.2379423379898071e-01" nType="0">
          <Node pos="l" depth="2" NCoef="0" IVar="6" Cut="6.7847478389739990e-01" cType="1" res="1.9232839345932007e-02" rms="3.9778450131416321e-01" purity="4.7172570228576660e-01" nType="0">
            <Node pos="l" depth="3" NCoef="0" IVar="-1" Cut="0.0000000000000000e+00" cType="1" res="1.6302125528454781e-02" rms="4.0502199530601501e-01" purity="5.0508159399032593e-01" nType="-99"/>
            <Node pos="r" depth="3" NCoef="0" IVar="-1" Cut="0.0000000000000000e+00" cType="1" res="-3.0820784159004688e-03" rms="3.6916726827621460e-01" purity="3.4984758496284485e-01" nType="-99"/>
          </Node>
          <Node pos="r" depth="2" NCoef="0" IVar="7" Cut="1.7332966327667236e+00" cType="1" res="-7.8015285544097424e-04" rms="3.8942933082580566e-01" purity="5.3399866819381714e-01" nType="0">
            <Node pos="l" depth="3" NCoef="0" IVar="-1" Cut="0.0000000000000000e+00" cType="1" res="2.3362642969004810e-04" rms="3.9170330762863159e-01" purity="5.5418568849563599e-01" nType="-99"/>
            <Node pos="r" depth="3" NCoef="0" IVar="-1" Cut="0.0000000000000000e+00" cType="1" res="-1.4600194059312344e-02" rms="3.5107883810997009e-01" purity="2.1516025066375732e-01" nType="-99"/>
          </Node>
        </Node>
      </Node>
    </BinaryTree>
    <BinaryTree type="DecisionTree" boostWeight="1.0000000000000000e+00" itree="215">
      <Node pos="s" depth="0" NCoef="0" IVar="2" Cut="7.6125891113281250e+02" cType="1" res="3.1616108026355505e-03" rms="3.8869124650955200e-01" purity="5.0100934505462646e-01" nType="0">
        <Node pos="l" depth="1" NCoef="0" IVar="9" Cut="1.9999749660491943e+00" cType="1" res="4.0976651944220066e-03" rms="3.8809886574745178e-01" purity="4.9823251366615295e-01" nType="0">
          <Node pos="l" depth="2" NCoef="0" IVar="2" Cut="2.5345480346679688e+02" cType="1" res="2.8149092104285955e-03" rms="3.8861936330795288e-01" purity="5.0521987676620483e-01" nType="0">
            <Node pos="l" depth="3" NCoef="0" IVar="-1" Cut="0.0000000000000000e+00" cType="1" res="8.5804862901568413e-03" rms="4.1031658649444580e-01" purity="4.3023827672004700e-01" nType="-99"/>
            <Node pos="r" depth="3" NCoef="0" IVar="-1" Cut="0.0000000000000000e+00" cType="1" res="1.6685566515661776e-04" rms="3.8356858491897583e-01" purity="5.2193361520767212e-01" nType="-99"/>
          </Node>
          <Node pos="r" depth="2" NCoef="0" IVar="7" Cut="1.3230402767658234e-01" cType="1" res="2.4803534150123596e-02" rms="3.7899795174598694e-01" purity="3.8544484972953796e-01" nType="0">
            <Node pos="l" depth="3" NCoef="0" IVar="-1" Cut="0.0000000000000000e+00" cType="1" res="2.7663277462124825e-02" rms="3.7928983569145203e-01" purity="4.2645603418350220e-01" nType="-99"/>
            <Node pos="r" depth="3" NCoef="0" IVar="-1" Cut="0.0000000000000000e+00" cType="1" res="4.7502890229225159e-03" rms="3.7783277034759521e-01" purity="3.4284093976020813e-01" nType="-99"/>
          </Node>
        </Node>
        <Node pos="r" depth="1" NCoef="0" IVar="-1" Cut="0.0000000000000000e+00" cType="1" res="-1.8636582419276237e-02" rms="4.0935418009757996e-01" purity="6.0866940021514893e-01" nType="-99"/>
      </Node>
    </BinaryTree>
    <BinaryTree type="DecisionTree" boostWeight="1.0000000000000000e+00" itree="216">
      <Node pos="s" depth="0" NCoef="0" IVar="1" Cut="2.0194638671875000e+03" cType="1" res="4.5162444002926350e-03" rms="3.8764187693595886e-01" purity="5.0433540344238281e-01" nType="0">
        <Node pos="l" depth="1" NCoef="0" IVar="2" Cut="6.2464831542968750e+02" cType="1" res="3.1598126515746117e-03" rms="3.8991615176200867e-01" purity="4.8429882526397705e-01" nType="0">
          <Node pos="l" depth="2" NCoef="0" IVar="2" Cut="4.8309619140625000e+02" cType="1" res="4.4075958430767059e-03" rms="3.8963875174522400e-01" purity="4.8595148324966431e-01" nType="0">
            <Node pos="l" depth="3" NCoef="0" IVar="-1" Cut="0.0000000000000000e+00" cType="1" res="1.0722912847995758e-03" rms="3.8756644725799561e-01" purity="4.8245590925216675e-01" nType="-99"/>
            <Node pos="r" depth="3" NCoef="0" IVar="-1" Cut="0.0000000000000000e+00" cType="1" res="1.5052323229610920e-02" rms="4.0334674715995789e-01" purity="5.1049304008483887e-01" nType="-99"/>
          </Node>
          <Node pos="r" depth="2" NCoef="0" IVar="-1" Cut="0.0000000000000000e+00" cType="1" res="-1.5914227813482285e-02" rms="3.9556542038917542e-01" purity="4.4245317578315735e-01" nType="-99"/>
        </Node>
        <Node pos="r" depth="1" NCoef="0" IVar="1" Cut="2.2662653808593750e+03" cType="1" res="2.5863459333777428e-02" rms="3.4921514987945557e-01" purity="8.1966644525527954e-01" nType="0">
          <Node pos="l" depth="2" NCoef="0" IVar="-1" Cut="0.0000000000000000e+00" cType="1" res="2.5940462946891785e-02" rms="3.5168957710266113e-01" purity="8.1890654563903809e-01" nType="-99"/>
          <Node pos="r" depth="2" NCoef="0" IVar="-1" Cut="0.0000000000000000e+00" cType="1" res="1.3531152158975601e-02" rms="3.4621343016624451e-01" purity="8.2052463293075562e-01" nType="-99"/>
        </Node>
      </Node>
    </BinaryTree>
    <BinaryTree type="DecisionTree" boostWeight="1.0000000000000000e+00" itree="217">
      <Node pos="s" depth="0" NCoef="0" IVar="6" Cut="1.7423242330551147e+00" cType="1" res="-1.3844107743352652e-03" rms="3.8430392742156982e-01" purity="5.0087642669677734e-01" nType="0">
        <Node pos="l" depth="1" NCoef="0" IVar="8" Cut="3.9984661340713501e-01" cType="1" res="-1.8141387045034207e-05" rms="3.8813427090644836e-01" purity="5.1614367961883545e-01" nType="0">
          <Node pos="l" depth="2" NCoef="0" IVar="2" Cut="4.8062939453125000e+02" cType="1" res="-5.2327439188957214e-03" rms="3.8690671324729919e-01" purity="5.2839511632919312e-01" nType="0">
            <Node pos="l" depth="3" NCoef="0" IVar="-1" Cut="0.0000000000000000e+00" cType="1" res="-1.3873185962438583e-03" rms="3.8636672496795654e-01" purity="5.2052068710327148e-01" nType="-99"/>
            <Node pos="r" depth="3" NCoef="0" IVar="-1" Cut="0.0000000000000000e+00" cType="1" res="-1.1643690988421440e-02" rms="3.8885182142257690e-01" purity="5.6074786186218262e-01" nType="-99"/>
          </Node>
          <Node pos="r" depth="2" NCoef="0" IVar="6" Cut="-1.0149564743041992e+00" cType="1" res="9.0417498722672462e-03" rms="3.9009207487106323e-01" purity="4.9485796689987183e-01" nType="0">
            <Node pos="l" depth="3" NCoef="0" IVar="-1" Cut="0.0000000000000000e+00" cType="1" res="-2.0782046020030975e-02" rms="3.2688829302787781e-01" purity="2.4430409073829651e-01" nType="-99"/>
            <Node pos="r" depth="3" NCoef="0" IVar="-1" Cut="0.0000000000000000e+00" cType="1" res="8.9019304141402245e-03" rms="3.9813652634620667e-01" purity="5.3101634979248047e-01" nType="-99"/>
          </Node>
        </Node>
        <Node pos="r" depth="1" NCoef="0" IVar="-1" Cut="0.0000000000000000e+00" cType="1" res="-3.6564286798238754e-02" rms="2.7219519019126892e-01" purity="1.2710522115230560e-01" nType="-99"/>
      </Node>
    </BinaryTree>
    <BinaryTree type="DecisionTree" boostWeight="1.0000000000000000e+00" itree="218">
      <Node pos="s" depth="0" NCoef="0" IVar="8" Cut="-1.7331929206848145e+00" cType="1" res="-7.2421552613377571e-04" rms="3.8769704103469849e-01" purity="4.9968785047531128e-01" nType="0">
        <Node pos="l" depth="1" NCoef="0" IVar="4" Cut="1.0898289489746094e+02" cType="1" res="2.6679564267396927e-02" rms="3.8536477088928223e-01" purity="3.0451199412345886e-01" nType="0">
          <Node pos="l" depth="2" NCoef="0" IVar="-1" Cut="0.0000000000000000e+00" cType="1" res="4.5037727802991867e-02" rms="3.7595447897911072e-01" purity="2.3710392415523529e-01" nType="-99"/>
          <Node pos="r" depth="2" NCoef="0" IVar="-1" Cut="0.0000000000000000e+00" cType="1" res="-3.3569165971130133e-03" rms="3.9423748850822449e-01" purity="3.8729506731033325e-01" nType="-99"/>
        </Node>
        <Node pos="r" depth="1" NCoef="0" IVar="8" Cut="4.2541512846946716e-01" cType="1" res="-2.8535609599202871e-03" rms="3.8779661059379578e-01" purity="5.1485347747802734e-01" nType="0">
          <Node pos="l" depth="2" NCoef="0" IVar="6" Cut="-8.3537615835666656e-02" cType="1" res="-8.2248756662011147e-03" rms="3.8819450139999390e-01" purity="5.4181444644927979e-01" nType="0">
            <Node pos="l" depth="3" NCoef="0" IVar="-1" Cut="0.0000000000000000e+00" cType="1" res="-1.1650649830698967e-02" rms="3.8783371448516846e-01" purity="5.1301544904708862e-01" nType="-99"/>
            <Node pos="r" depth="3" NCoef="0" IVar="-1" Cut="0.0000000000000000e+00" cType="1" res="3.6589003866538405e-04" rms="3.8831743597984314e-01" purity="5.6820839643478394e-01" nType="-99"/>
          </Node>
          <Node pos="r" depth="2" NCoef="0" IVar="8" Cut="2.1214623451232910e+00" cType="1" res="5.5149835534393787e-03" rms="3.8702741265296936e-01" purity="4.7284814715385437e-01" nType="0">
            <Node pos="l" depth="3" NCoef="0" IVar="-1" Cut="0.0000000000000000e+00" cType="1" res="5.7656439021229744e-03" rms="3.9118093252182007e-01" purity="4.9939319491386414e-01" nType="-99"/>
            <Node pos="r" depth="3" NCoef="0" IVar="-1" Cut="0.0000000000000000e+00" cType="1" res="-2.3316992446780205e-02" rms="3.4017729759216309e-01" purity="2.0357646048069000e-01" nType="-99"/>
          </Node>
        </Node>
      </Node>
    </BinaryTree>
    <BinaryTree type="DecisionTree" boostWeight="1.0000000000000000e+00" itree="219">
      <Node pos="s" depth="0" NCoef="0" IVar="9" Cut="-1.7333261966705322e+00" cType="1" res="2.8786510229110718e-03" rms="3.8779935240745544e-01" purity="5.0423389673233032e-01" nType="0">
        <Node pos="l" depth="1" NCoef="0" IVar="9" Cut="-2.2412497997283936e+00" cType="1" res="-1.3400293886661530e-02" rms="3.7154752016067505e-01" purity="3.4601539373397827e-01" nType="0">
          <Node pos="l" depth="2" NCoef="0" IVar="-1" Cut="0.0000000000000000e+00" cType="1" res="4.6809674240648746e-03" rms="3.8456732034683228e-01" purity="3.1549307703971863e-01" nType="-99"/>
          <Node pos="r" depth="2" NCoef="0" IVar="-1" Cut="0.0000000000000000e+00" cType="1" res="-1.7109857872128487e-02" rms="3.6278393864631653e-01" purity="3.6474052071571350e-01" nType="-99"/>
        </Node>
        <Node pos="r" depth="1" NCoef="0" IVar="0" Cut="4.4703997802734375e+02" cType="1" res="4.3050390668213367e-03" rms="3.8915857672691345e-01" purity="5.1809728145599365e-01" nType="0">
          <Node pos="l" depth="2" NCoef="0" IVar="0" Cut="3.0700225830078125e+02" cType="1" res="8.5222627967596054e-03" rms="4.0052211284637451e-01" purity="3.7628895044326782e-01" nType="0">
            <Node pos="l" depth="3" NCoef="0" IVar="-1" Cut="0.0000000000000000e+00" cType="1" res="-1.6186354681849480e-02" rms="3.6701437830924988e-01" purity="2.2312754392623901e-01" nType="-99"/>
            <Node pos="r" depth="3" NCoef="0" IVar="-1" Cut="0.0000000000000000e+00" cType="1" res="6.6288462840020657e-03" rms="4.0267553925514221e-01" purity="3.8702258467674255e-01" nType="-99"/>
          </Node>
          <Node pos="r" depth="2" NCoef="0" IVar="5" Cut="1.0450289916992188e+02" cType="1" res="-1.6790220979601145e-03" rms="3.7235766649246216e-01" purity="7.1931725740432739e-01" nType="0">
            <Node pos="l" depth="3" NCoef="0" IVar="-1" Cut="0.0000000000000000e+00" cType="1" res="-6.6631603986024857e-03" rms="4.1590446233749390e-01" purity="6.0313695669174194e-01" nType="-99"/>
            <Node pos="r" depth="3" NCoef="0" IVar="-1" Cut="0.0000000000000000e+00" cType="1" res="1.2363098561763763e-02" rms="3.0013695359230042e-01" purity="8.8263994455337524e-01" nType="-99"/>
          </Node>
        </Node>
      </Node>
    </BinaryTree>
    <BinaryTree type="DecisionTree" boostWeight="1.0000000000000000e+00" itree="220">
      <Node pos="s" depth="0" NCoef="0" IVar="3" Cut="2.4163658142089844e+02" cType="1" res="-1.7243159236386418e-03" rms="3.8474398851394653e-01" purity="5.0278669595718384e-01" nType="0">
        <Node pos="l" depth="1" NCoef="0" IVar="1" Cut="1.3578487548828125e+03" cType="1" res="-5.1921275444328785e-03" rms="3.8930225372314453e-01" purity="4.1422989964485168e-01" nType="0">
          <Node pos="l" depth="2" NCoef="0" IVar="0" Cut="3.6080874633789062e+02" cType="1" res="-9.0355584397912025e-03" rms="3.9464920759201050e-01" purity="3.2822319865226746e-01" nType="0">
            <Node pos="l" depth="3" NCoef="0" IVar="-1" Cut="0.0000000000000000e+00" cType="1" res="1.5731325838714838e-03" rms="3.6945265531539917e-01" purity="2.3539350926876068e-01" nType="-99"/>
            <Node pos="r" depth="3" NCoef="0" IVar="-1" Cut="0.0000000000000000e+00" cType="1" res="-1.0227169841527939e-02" rms="4.1247156262397766e-01" purity="3.9838853478431702e-01" nType="-99"/>
          </Node>
          <Node pos="r" depth="2" NCoef="0" IVar="3" Cut="2.1460786437988281e+02" cType="1" res="8.6164567619562149e-03" rms="3.6912390589714050e-01" purity="7.2323274612426758e-01" nType="0">
            <Node pos="l" depth="3" NCoef="0" IVar="-1" Cut="0.0000000000000000e+00" cType="1" res="1.0241043753921986e-02" rms="3.8249585032463074e-01" purity="6.9863659143447876e-01" nType="-99"/>
            <Node pos="r" depth="3" NCoef="0" IVar="-1" Cut="0.0000000000000000e+00" cType="1" res="-4.1380631737411022e-03" rms="3.4066021442413330e-01" purity="7.7198797464370728e-01" nType="-99"/>
          </Node>
        </Node>
        <Node pos="r" depth="1" NCoef="0" IVar="2" Cut="5.3710070800781250e+02" cType="1" res="5.4586390033364296e-03" rms="3.7502422928810120e-01" purity="6.8621641397476196e-01" nType="0">
          <Node pos="l" depth="2" NCoef="0" IVar="9" Cut="-6.6636008024215698e-01" cType="1" res="1.1362706311047077e-02" rms="3.6784678697586060e-01" purity="7.1129786968231201e-01" nType="0">
            <Node pos="l" depth="3" NCoef="0" IVar="-1" Cut="0.0000000000000000e+00" cType="1" res="1.9552094861865044e-02" rms="3.8000920414924622e-01" purity="6.9442820549011230e-01" nType="-99"/>
            <Node pos="r" depth="3" NCoef="0" IVar="-1" Cut="0.0000000000000000e+00" cType="1" res="3.1489944085478783e-03" rms="3.6251205205917358e-01" purity="7.1819967031478882e-01" nType="-99"/>
          </Node>
          <Node pos="r" depth="2" NCoef="0" IVar="8" Cut="1.3356858491897583e-01" cType="1" res="-1.3794939033687115e-02" rms="3.9692127704620361e-01" purity="6.0442388057708740e-01" nType="0">
            <Node pos="l" depth="3" NCoef="0" IVar="-1" Cut="0.0000000000000000e+00" cType="1" res="-7.9355516936630011e-04" rms="3.9253562688827515e-01" purity="6.2783235311508179e-01" nType="-99"/>
            <Node pos="r" depth="3" NCoef="0" IVar="-1" Cut="0.0000000000000000e+00" cType="1" res="-1.9298126921057701e-02" rms="4.0225082635879517e-01" purity="5.7213574647903442e-01" nType="-99"/>
          </Node>
        </Node>
      </Node>
    </BinaryTree>
    <BinaryTree type="DecisionTree" boostWeight="1.0000000000000000e+00" itree="221">
      <Node pos="s" depth="0" NCoef="0" IVar="8" Cut="1.9998898506164551e+00" cType="1" res="1.6074541490525007e-03" rms="3.8514831662178040e-01" purity="5.0624597072601318e-01" nType="0">
        <Node pos="l" depth="1" NCoef="0" IVar="7" Cut="-4.0002229809761047e-01" cType="1" res="2.7830395847558975e-03" rms="3.8729095458984375e-01" purity="5.1809537410736084e-01" nType="0">
          <Node pos="l" depth="2" NCoef="0" IVar="1" Cut="1.3148741455078125e+03" cType="1" res="-3.2508664298802614e-03" rms="3.8275140523910522e-01" purity="4.6775075793266296e-01" nType="0">
            <Node pos="l" depth="3" NCoef="0" IVar="-1" Cut="0.0000000000000000e+00" cType="1" res="-8.4659066051244736e-03" rms="3.8713949918746948e-01" purity="2.9638209939002991e-01" nType="-99"/>
            <Node pos="r" depth="3" NCoef="0" IVar="-1" Cut="0.0000000000000000e+00" cType="1" res="6.8732379004359245e-03" rms="3.7639859318733215e-01" purity="6.9679754972457886e-01" nType="-99"/>
          </Node>
          <Node pos="r" depth="2" NCoef="0" IVar="9" Cut="9.3339633941650391e-01" cType="1" res="6.1423834413290024e-03" rms="3.8975495100021362e-01" purity="5.4612445831298828e-01" nType="0">
            <Node pos="l" depth="3" NCoef="0" IVar="-1" Cut="0.0000000000000000e+00" cType="1" res="1.2124562636017799e-03" rms="3.8726481795310974e-01" purity="5.6486183404922485e-01" nType="-99"/>
            <Node pos="r" depth="3" NCoef="0" IVar="-1" Cut="0.0000000000000000e+00" cType="1" res="1.2234969064593315e-02" rms="3.9668470621109009e-01" purity="4.9127638339996338e-01" nType="-99"/>
          </Node>
        </Node>
        <Node pos="r" depth="1" NCoef="0" IVar="-1" Cut="0.0000000000000000e+00" cType="1" res="-2.1008269861340523e-02" rms="3.2844150066375732e-01" purity="2.2244918346405029e-01" nType="-99"/>
      </Node>
    </BinaryTree>
    <BinaryTree type="DecisionTree" boostWeight="1.0000000000000000e+00" itree="222">
      <Node pos="s" depth="0" NCoef="0" IVar="7" Cut="-9.3328952789306641e-01" cType="1" res="-1.8736165948212147e-03" rms="3.8787701725959778e-01" purity="4.9833181500434875e-01" nType="0">
        <Node pos="l" depth="1" NCoef="0" IVar="1" Cut="1.3061931152343750e+03" cType="1" res="1.0899111628532410e-02" rms="3.8565015792846680e-01" purity="3.7078115344047546e-01" nType="0">
          <Node pos="l" depth="2" NCoef="0" IVar="8" Cut="-4.0011143684387207e-01" cType="1" res="2.0814931020140648e-02" rms="3.7766736745834351e-01" purity="2.5371339917182922e-01" nType="0">
            <Node pos="l" depth="3" NCoef="0" IVar="-1" Cut="0.0000000000000000e+00" cType="1" res="-3.5914713516831398e-03" rms="3.5340794920921326e-01" purity="2.2185036540031433e-01" nType="-99"/>
            <Node pos="r" depth="3" NCoef="0" IVar="-1" Cut="0.0000000000000000e+00" cType="1" res="3.1139217317104340e-02" rms="3.9604631066322327e-01" purity="2.8113916516304016e-01" nType="-99"/>
          </Node>
          <Node pos="r" depth="2" NCoef="0" IVar="6" Cut="2.0610818266868591e-01" cType="1" res="-6.7188278771936893e-03" rms="3.9883255958557129e-01" purity="5.7878142595291138e-01" nType="0">
            <Node pos="l" depth="3" NCoef="0" IVar="-1" Cut="0.0000000000000000e+00" cType="1" res="5.1709432154893875e-03" rms="4.0546426177024841e-01" purity="6.2381297349929810e-01" nType="-99"/>
            <Node pos="r" depth="3" NCoef="0" IVar="-1" Cut="0.0000000000000000e+00" cType="1" res="-2.0250070840120316e-02" rms="3.8612949848175049e-01" purity="5.0330758094787598e-01" nType="-99"/>
          </Node>
        </Node>
        <Node pos="r" depth="1" NCoef="0" IVar="0" Cut="4.3884292602539062e+02" cType="1" res="-4.9156737513840199e-03" rms="3.8834357261657715e-01" purity="5.2871030569076538e-01" nType="0">
          <Node pos="l" depth="2" NCoef="0" IVar="2" Cut="2.4044242858886719e+02" cType="1" res="-1.1663693934679031e-02" rms="4.0012678503990173e-01" purity="3.6726361513137817e-01" nType="0">
            <Node pos="l" depth="3" NCoef="0" IVar="-1" Cut="0.0000000000000000e+00" cType="1" res="-1.7229020595550537e-02" rms="4.0152716636657715e-01" purity="3.2529079914093018e-01" nType="-99"/>
            <Node pos="r" depth="3" NCoef="0" IVar="-1" Cut="0.0000000000000000e+00" cType="1" res="-4.8824134282767773e-03" rms="3.9972779154777527e-01" purity="3.7603706121444702e-01" nType="-99"/>
          </Node>
          <Node pos="r" depth="2" NCoef="0" IVar="6" Cut="9.5702058076858521e-01" cType="1" res="3.3281040377914906e-03" rms="3.7327879667282104e-01" purity="7.2594302892684937e-01" nType="0">
            <Node pos="l" depth="3" NCoef="0" IVar="-1" Cut="0.0000000000000000e+00" cType="1" res="-2.6653759414330125e-04" rms="3.6901289224624634e-01" purity="7.4799865484237671e-01" nType="-99"/>
            <Node pos="r" depth="3" NCoef="0" IVar="-1" Cut="0.0000000000000000e+00" cType="1" res="1.6360539942979813e-02" rms="3.9836725592613220e-01" purity="5.8672887086868286e-01" nType="-99"/>
          </Node>
        </Node>
      </Node>
    </BinaryTree>
    <BinaryTree type="DecisionTree" boostWeight="1.0000000000000000e+00" itree="223">
      <Node pos="s" depth="0" NCoef="0" IVar="9" Cut="9.3332433700561523e-01" cType="1" res="1.5643655788153410e-03" rms="3.8930636644363403e-01" purity="4.9798896908760071e-01" nType="0">
        <Node pos="l" depth="1" NCoef="0" IVar="4" Cut="1.9830270385742188e+02" cType="1" res="4.0783374570310116e-03" rms="3.9011299610137939e-01" purity="5.1746749877929688e-01" nType="0">
          <Node pos="l" depth="2" NCoef="0" IVar="8" Cut="-1.3334906101226807e-01" cType="1" res="6.4935311675071716e-03" rms="3.9850631356239319e-01" purity="4.6327170729637146e-01" nType="0">
            <Node pos="l" depth="3" NCoef="0" IVar="-1" Cut="0.0000000000000000e+00" cType="1" res="8.1410612910985947e-03" rms="3.9963528513908386e-01" purity="4.5493125915527344e-01" nType="-99"/>
            <Node pos="r" depth="3" NCoef="0" IVar="-1" Cut="0.0000000000000000e+00" cType="1" res="3.7847235216759145e-04" rms="3.9735549688339233e-01" purity="4.7108522057533264e-01" nType="-99"/>
          </Node>
          <Node pos="r" depth="2" NCoef="0" IVar="5" Cut="1.5059486389160156e+02" cType="1" res="-8.2546882331371307e-03" rms="3.4381121397018433e-01" purity="7.9421478509902954e-01" nType="0">
            <Node pos="l" depth="3" NCoef="0" IVar="-1" Cut="0.0000000000000000e+00" cType="1" res="-1.2046473100781441e-02" rms="3.8100713491439819e-01" purity="7.2373157739639282e-01" nType="-99"/>
            <Node pos="r" depth="3" NCoef="0" IVar="-1" Cut="0.0000000000000000e+00" cType="1" res="1.4665804337710142e-03" rms="2.9492783546447754e-01" purity="8.7539529800415039e-01" nType="-99"/>
          </Node>
        </Node>
        <Node pos="r" depth="1" NCoef="0" IVar="8" Cut="1.4664202928543091e+00" cType="1" res="-6.8976008333265781e-03" rms="3.8645866513252258e-01" purity="4.3242469429969788e-01" nType="0">
          <Node pos="l" depth="2" NCoef="0" IVar="5" Cut="9.5625869750976562e+01" cType="1" res="-1.1872604489326477e-02" rms="3.9119055867195129e-01" purity="4.5821544528007507e-01" nType="0">
            <Node pos="l" depth="3" NCoef="0" IVar="-1" Cut="0.0000000000000000e+00" cType="1" res="-1.8318014917895198e-03" rms="3.9271068572998047e-01" purity="3.5776242613792419e-01" nType="-99"/>
            <Node pos="r" depth="3" NCoef="0" IVar="-1" Cut="0.0000000000000000e+00" cType="1" res="-2.1051708608865738e-02" rms="3.8730904459953308e-01" purity="6.6869997978210449e-01" nType="-99"/>
          </Node>
          <Node pos="r" depth="2" NCoef="0" IVar="-1" Cut="0.0000000000000000e+00" cType="1" res="1.7752734944224358e-02" rms="3.5587623715400696e-01" purity="2.8036031126976013e-01" nType="-99"/>
        </Node>
      </Node>
    </BinaryTree>
    <BinaryTree type="DecisionTree" boostWeight="1.0000000000000000e+00" itree="224">
      <Node pos="s" depth="0" NCoef="0" IVar="9" Cut="3.9994525909423828e-01" cType="1" res="-1.5330682508647442e-03" rms="3.8563472032546997e-01" purity="5.0231993198394775e-01" nType="0">
        <Node pos="l" depth="1" NCoef="0" IVar="8" Cut="-1.4666347503662109e+00" cType="1" res="-4.7053364105522633e-03" rms="3.8546025753021240e-01" purity="5.0889724493026733e-01" nType="0">
          <Node pos="l" depth="2" NCoef="0" IVar="6" Cut="-3.7294077873229980e-01" cType="1" res="1.3197942636907101e-02" rms="3.7799385190010071e-01" purity="3.4000653028488159e-01" nType="0">
            <Node pos="l" depth="3" NCoef="0" IVar="-1" Cut="0.0000000000000000e+00" cType="1" res="-5.4357992485165596e-03" rms="3.4806066751480103e-01" purity="2.5338321924209595e-01" nType="-99"/>
            <Node pos="r" depth="3" NCoef="0" IVar="-1" Cut="0.0000000000000000e+00" cType="1" res="1.7883846536278725e-02" rms="3.9745017886161804e-01" purity="4.0216252207756042e-01" nType="-99"/>
          </Node>
          <Node pos="r" depth="2" NCoef="0" IVar="6" Cut="-9.0996336936950684e-01" cType="1" res="-7.0419274270534515e-03" rms="3.8636288046836853e-01" purity="5.3093940019607544e-01" nType="0">
            <Node pos="l" depth="3" NCoef="0" IVar="-1" Cut="0.0000000000000000e+00" cType="1" res="4.8573650419712067e-03" rms="3.7203606963157654e-01" purity="3.6419609189033508e-01" nType="-99"/>
            <Node pos="r" depth="3" NCoef="0" IVar="-1" Cut="0.0000000000000000e+00" cType="1" res="-6.5410267561674118e-03" rms="3.8935032486915588e-01" purity="5.6729400157928467e-01" nType="-99"/>
          </Node>
        </Node>
        <Node pos="r" depth="1" NCoef="0" IVar="9" Cut="2.2284660339355469e+00" cType="1" res="3.6015701480209827e-03" rms="3.8586163520812988e-01" purity="4.9167391657829285e-01" nType="0">
          <Node pos="l" depth="2" NCoef="0" IVar="5" Cut="7.5840164184570312e+01" cType="1" res="6.0324114747345448e-03" rms="3.8691797852516174e-01" purity="5.0960654020309448e-01" nType="0">
            <Node pos="l" depth="3" NCoef="0" IVar="-1" Cut="0.0000000000000000e+00" cType="1" res="9.4198258593678474e-03" rms="3.8971164822578430e-01" purity="3.3216333389282227e-01" nType="-99"/>
            <Node pos="r" depth="3" NCoef="0" IVar="-1" Cut="0.0000000000000000e+00" cType="1" res="-2.6792733115144074e-04" rms="3.8459450006484985e-01" purity="6.4849328994750977e-01" nType="-99"/>
          </Node>
          <Node pos="r" depth="2" NCoef="0" IVar="-1" Cut="0.0000000000000000e+00" cType="1" res="-1.6817541792988777e-02" rms="3.7288305163383484e-01" purity="2.9275882244110107e-01" nType="-99"/>
        </Node>
      </Node>
    </BinaryTree>
    <BinaryTree type="DecisionTree" boostWeight="1.0000000000000000e+00" itree="225">
      <Node pos="s" depth="0" NCoef="0" IVar="8" Cut="-1.4666180610656738e+00" cType="1" res="6.5407087095081806e-04" rms="3.8547205924987793e-01" purity="5.0189846754074097e-01" nType="0">
        <Node pos="l" depth="1" NCoef="0" IVar="9" Cut="6.6662889719009399e-01" cType="1" res="-1.4443239197134972e-02" rms="3.6963605880737305e-01" purity="3.0492222309112549e-01" nType="0">
          <Node pos="l" depth="2" NCoef="0" IVar="7" Cut="1.3338765501976013e-01" cType="1" res="-3.5285777412354946e-03" rms="3.7452083826065063e-01" purity="3.2137927412986755e-01" nType="0">
            <Node pos="l" depth="3" NCoef="0" IVar="-1" Cut="0.0000000000000000e+00" cType="1" res="6.0871671885251999e-03" rms="3.7879487872123718e-01" purity="3.3381915092468262e-01" nType="-99"/>
            <Node pos="r" depth="3" NCoef="0" IVar="-1" Cut="0.0000000000000000e+00" cType="1" res="-1.7846643924713135e-02" rms="3.6576363444328308e-01" purity="2.9925358295440674e-01" nType="-99"/>
          </Node>
          <Node pos="r" depth="2" NCoef="0" IVar="-1" Cut="0.0000000000000000e+00" cType="1" res="-3.0550811439752579e-02" rms="3.5417804121971130e-01" purity="2.5980031490325928e-01" nType="-99"/>
        </Node>
        <Node pos="r" depth="1" NCoef="0" IVar="7" Cut="-1.3321182131767273e-01" cType="1" res="2.4185210932046175e-03" rms="3.8724216818809509e-01" purity="5.2491939067840576e-01" nType="0">
          <Node pos="l" depth="2" NCoef="0" IVar="6" Cut="-3.7419548630714417e-01" cType="1" res="-3.1513753347098827e-03" rms="3.8539615273475647e-01" purity="5.1150321960449219e-01" nType="0">
            <Node pos="l" depth="3" NCoef="0" IVar="-1" Cut="0.0000000000000000e+00" cType="1" res="-1.1623681522905827e-02" rms="3.7892815470695496e-01" purity="4.4987079501152039e-01" nType="-99"/>
            <Node pos="r" depth="3" NCoef="0" IVar="-1" Cut="0.0000000000000000e+00" cType="1" res="3.3489475026726723e-03" rms="3.8879141211509705e-01" purity="5.4660403728485107e-01" nType="-99"/>
          </Node>
          <Node pos="r" depth="2" NCoef="0" IVar="7" Cut="4.2548757791519165e-01" cType="1" res="6.7663621157407761e-03" rms="3.8862156867980957e-01" purity="5.3539204597473145e-01" nType="0">
            <Node pos="l" depth="3" NCoef="0" IVar="-1" Cut="0.0000000000000000e+00" cType="1" res="1.0639928281307220e-02" rms="3.8535690307617188e-01" purity="6.4570099115371704e-01" nType="-99"/>
            <Node pos="r" depth="3" NCoef="0" IVar="-1" Cut="0.0000000000000000e+00" cType="1" res="6.9961557164788246e-04" rms="3.9053279161453247e-01" purity="4.6667867898941040e-01" nType="-99"/>
          </Node>
        </Node>
      </Node>
    </BinaryTree>
    <BinaryTree type="DecisionTree" boostWeight="1.0000000000000000e+00" itree="226">
      <Node pos="s" depth="0" NCoef="0" IVar="7" Cut="1.7333285808563232e+00" cType="1" res="-3.7035526474937797e-04" rms="3.8837349414825439e-01" purity="4.9501705169677734e-01" nType="0">
        <Node pos="l" depth="1" NCoef="0" IVar="9" Cut="1.3341931998729706e-01" cType="1" res="-1.6313497908413410e-03" rms="3.9048990607261658e-01" purity="5.1125645637512207e-01" nType="0">
          <Node pos="l" depth="2" NCoef="0" IVar="0" Cut="4.4205456542968750e+02" cType="1" res="2.2139525972306728e-03" rms="3.9201417565345764e-01" purity="5.1795262098312378e-01" nType="0">
            <Node pos="l" depth="3" NCoef="0" IVar="-1" Cut="0.0000000000000000e+00" cType="1" res="5.0354488193988800e-03" rms="4.0486153960227966e-01" purity="3.7178266048431396e-01" nType="-99"/>
            <Node pos="r" depth="3" NCoef="0" IVar="-1" Cut="0.0000000000000000e+00" cType="1" res="-4.1479268111288548e-03" rms="3.7387245893478394e-01" purity="7.1474444866180420e-01" nType="-99"/>
          </Node>
          <Node pos="r" depth="2" NCoef="0" IVar="9" Cut="1.6571780443191528e+00" cType="1" res="-6.3253343105316162e-03" rms="3.8856953382492065e-01" purity="5.0308239459991455e-01" nType="0">
            <Node pos="l" depth="3" NCoef="0" IVar="-1" Cut="0.0000000000000000e+00" cType="1" res="-7.1903872303664684e-03" rms="3.8888362050056458e-01" purity="5.2643477916717529e-01" nType="-99"/>
            <Node pos="r" depth="3" NCoef="0" IVar="-1" Cut="0.0000000000000000e+00" cType="1" res="7.0787072181701660e-03" rms="3.8692516088485718e-01" purity="4.1730856895446777e-01" nType="-99"/>
          </Node>
        </Node>
        <Node pos="r" depth="1" NCoef="0" IVar="7" Cut="2.1396884918212891e+00" cType="1" res="1.9326275214552879e-02" rms="3.5309097170829773e-01" purity="2.4135918915271759e-01" nType="0">
          <Node pos="l" depth="2" NCoef="0" IVar="-1" Cut="0.0000000000000000e+00" cType="1" res="2.8850650414824486e-02" rms="3.7333759665489197e-01" purity="2.9530480504035950e-01" nType="-99"/>
          <Node pos="r" depth="2" NCoef="0" IVar="-1" Cut="0.0000000000000000e+00" cType="1" res="-5.4065287113189697e-03" rms="3.2341697812080383e-01" purity="1.7189142107963562e-01" nType="-99"/>
        </Node>
      </Node>
    </BinaryTree>
    <BinaryTree type="DecisionTree" boostWeight="1.0000000000000000e+00" itree="227">
      <Node pos="s" depth="0" NCoef="0" IVar="9" Cut="2.0000052452087402e+00" cType="1" res="1.6636925283819437e-04" rms="3.8652008771896362e-01" purity="5.0077986717224121e-01" nType="0">
        <Node pos="l" depth="1" NCoef="0" IVar="7" Cut="1.4667034149169922e+00" cType="1" res="1.3651588233187795e-03" rms="3.8785871863365173e-01" purity="5.0958985090255737e-01" nType="0">
          <Node pos="l" depth="2" NCoef="0" IVar="9" Cut="-1.8856316804885864e+00" cType="1" res="-3.2375927548855543e-04" rms="3.8917309045791626e-01" purity="5.3083986043930054e-01" nType="0">
            <Node pos="l" depth="3" NCoef="0" IVar="-1" Cut="0.0000000000000000e+00" cType="1" res="-1.1005335487425327e-02" rms="3.7162527441978455e-01" purity="3.4145852923393250e-01" nType="-99"/>
            <Node pos="r" depth="3" NCoef="0" IVar="-1" Cut="0.0000000000000000e+00" cType="1" res="5.3386803483590484e-04" rms="3.9036855101585388e-01" purity="5.4433703422546387e-01" nType="-99"/>
          </Node>
          <Node pos="r" depth="2" NCoef="0" IVar="3" Cut="2.1102433776855469e+02" cType="1" res="1.9131630659103394e-02" rms="3.7328940629959106e-01" purity="2.8605180978775024e-01" nType="0">
            <Node pos="l" depth="3" NCoef="0" IVar="-1" Cut="0.0000000000000000e+00" cType="1" res="5.4296003654599190e-03" rms="3.4900733828544617e-01" purity="2.1082441508769989e-01" nType="-99"/>
            <Node pos="r" depth="3" NCoef="0" IVar="-1" Cut="0.0000000000000000e+00" cType="1" res="2.7343649417161942e-02" rms="4.1576707363128662e-01" purity="4.3376305699348450e-01" nType="-99"/>
          </Node>
        </Node>
        <Node pos="r" depth="1" NCoef="0" IVar="6" Cut="1.6179113090038300e-01" cType="1" res="-2.0942389965057373e-02" rms="3.6148855090141296e-01" purity="3.4564989805221558e-01" nType="0">
          <Node pos="l" depth="2" NCoef="0" IVar="-1" Cut="0.0000000000000000e+00" cType="1" res="-6.7609846591949463e-03" rms="3.7300384044647217e-01" purity="3.6396127939224243e-01" nType="-99"/>
          <Node pos="r" depth="2" NCoef="0" IVar="-1" Cut="0.0000000000000000e+00" cType="1" res="-2.2682234644889832e-02" rms="3.4938511252403259e-01" purity="3.2751080393791199e-01" nType="-99"/>
        </Node>
      </Node>
    </BinaryTree>
    <BinaryTree type="DecisionTree" boostWeight="1.0000000000000000e+00" itree="228">
      <Node pos="s" depth="0" NCoef="0" IVar="6" Cut="1.4749945402145386e+00" cType="1" res="4.4256600085645914e-04" rms="3.8765645027160645e-01" purity="4.9857899546623230e-01" nType="0">
        <Node pos="l" depth="1" NCoef="0" IVar="5" Cut="7.9215942382812500e+01" cType="1" res="-1.2526310747489333e-03" rms="3.9097607135772705e-01" purity="5.1900112628936768e-01" nType="0">
          <Node pos="l" depth="2" NCoef="0" IVar="5" Cut="6.6694747924804688e+01" cType="1" res="-6.9105573929846287e-03" rms="3.9454022049903870e-01" purity="3.3133900165557861e-01" nType="0">
            <Node pos="l" depth="3" NCoef="0" IVar="-1" Cut="0.0000000000000000e+00" cType="1" res="-8.9396396651864052e-04" rms="3.8465610146522522e-01" purity="2.9538744688034058e-01" nType="-99"/>
            <Node pos="r" depth="3" NCoef="0" IVar="-1" Cut="0.0000000000000000e+00" cType="1" res="-1.0134297423064709e-02" rms="4.1279870271682739e-01" purity="4.0097081661224365e-01" nType="-99"/>
          </Node>
          <Node pos="r" depth="2" NCoef="0" IVar="8" Cut="-9.3339878320693970e-01" cType="1" res="3.6889431066811085e-03" rms="3.8776886463165283e-01" purity="6.8290328979492188e-01" nType="0">
            <Node pos="l" depth="3" NCoef="0" IVar="-1" Cut="0.0000000000000000e+00" cType="1" res="1.3142126612365246e-02" rms="4.1067647933959961e-01" purity="6.0101497173309326e-01" nType="-99"/>
            <Node pos="r" depth="3" NCoef="0" IVar="-1" Cut="0.0000000000000000e+00" cType="1" res="-4.8628071090206504e-04" rms="3.8183471560478210e-01" purity="7.0290875434875488e-01" nType="-99"/>
          </Node>
        </Node>
        <Node pos="r" depth="1" NCoef="0" IVar="6" Cut="1.9166468381881714e+00" cType="1" res="2.2483771666884422e-02" rms="3.4080320596694946e-01" purity="2.3304723203182220e-01" nType="0">
          <Node pos="l" depth="2" NCoef="0" IVar="-1" Cut="0.0000000000000000e+00" cType="1" res="2.8158731758594513e-02" rms="3.6781901121139526e-01" purity="2.7864685654640198e-01" nType="-99"/>
          <Node pos="r" depth="2" NCoef="0" IVar="-1" Cut="0.0000000000000000e+00" cType="1" res="2.6479822117835283e-03" rms="2.9030150175094604e-01" purity="1.5867701172828674e-01" nType="-99"/>
        </Node>
      </Node>
    </BinaryTree>
    <BinaryTree type="DecisionTree" boostWeight="1.0000000000000000e+00" itree="229">
      <Node pos="s" depth="0" NCoef="0" IVar="7" Cut="1.9999912977218628e+00" cType="1" res="1.6629800666123629e-03" rms="3.8718870282173157e-01" purity="5.0146675109863281e-01" nType="0">
        <Node pos="l" depth="1" NCoef="0" IVar="7" Cut="-1.4284483194351196e+00" cType="1" res="2.5173525791615248e-03" rms="3.8915857672691345e-01" purity="5.1377707719802856e-01" nType="0">
          <Node pos="l" depth="2" NCoef="0" IVar="0" Cut="4.1004034423828125e+02" cType="1" res="-1.2806988321244717e-02" rms="3.4034070372581482e-01" purity="2.5981155037879944e-01" nType="0">
            <Node pos="l" depth="3" NCoef="0" IVar="-1" Cut="0.0000000000000000e+00" cType="1" res="-2.2493040189146996e-02" rms="2.9635629057884216e-01" purity="1.3459034264087677e-01" nType="-99"/>
            <Node pos="r" depth="3" NCoef="0" IVar="-1" Cut="0.0000000000000000e+00" cType="1" res="1.4199630822986364e-03" rms="3.9270016551017761e-01" purity="4.3319451808929443e-01" nType="-99"/>
          </Node>
          <Node pos="r" depth="2" NCoef="0" IVar="9" Cut="2.2666780948638916e+00" cType="1" res="4.1626999154686928e-03" rms="3.9400526881217957e-01" purity="5.4104489088058472e-01" nType="0">
            <Node pos="l" depth="3" NCoef="0" IVar="-1" Cut="0.0000000000000000e+00" cType="1" res="2.0868184510618448e-03" rms="3.9448285102844238e-01" purity="5.4503279924392700e-01" nType="-99"/>
            <Node pos="r" depth="3" NCoef="0" IVar="-1" Cut="0.0000000000000000e+00" cType="1" res="2.1674741059541702e-02" rms="3.7808549404144287e-01" purity="4.1952675580978394e-01" nType="-99"/>
          </Node>
        </Node>
        <Node pos="r" depth="1" NCoef="0" IVar="-1" Cut="0.0000000000000000e+00" cType="1" res="-2.0053504034876823e-02" rms="3.2590976357460022e-01" purity="1.5454795956611633e-01" nType="-99"/>
      </Node>
    </BinaryTree>
    <BinaryTree type="DecisionTree" boostWeight="1.0000000000000000e+00" itree="230">
      <Node pos="s" depth="0" NCoef="0" IVar="9" Cut="2.2666208744049072e+00" cType="1" res="-8.9843937894329429e-04" rms="3.8762450218200684e-01" purity="4.9743691086769104e-01" nType="0">
        <Node pos="l" depth="1" NCoef="0" IVar="1" Cut="1.4083376464843750e+03" cType="1" res="1.4925508003216237e-04" rms="3.8887688517570496e-01" purity="5.0386267900466919e-01" nType="0">
          <Node pos="l" depth="2" NCoef="0" IVar="2" Cut="3.8457058715820312e+02" cType="1" res="4.7839586623013020e-03" rms="4.0288096666336060e-01" purity="3.7689384818077087e-01" nType="0">
            <Node pos="l" depth="3" NCoef="0" IVar="-1" Cut="0.0000000000000000e+00" cType="1" res="4.9913749098777771e-03" rms="4.0960419178009033e-01" purity="4.0242484211921692e-01" nType="-99"/>
            <Node pos="r" depth="3" NCoef="0" IVar="-1" Cut="0.0000000000000000e+00" cType="1" res="-5.7577127590775490e-03" rms="3.7537130713462830e-01" purity="2.7786719799041748e-01" nType="-99"/>
          </Node>
          <Node pos="r" depth="2" NCoef="0" IVar="7" Cut="1.1998683214187622e+00" cType="1" res="-8.4588630124926567e-03" rms="3.6127218604087830e-01" purity="7.3968416452407837e-01" nType="0">
            <Node pos="l" depth="3" NCoef="0" IVar="-1" Cut="0.0000000000000000e+00" cType="1" res="-9.0877274051308632e-03" rms="3.5673618316650391e-01" purity="7.5655525922775269e-01" nType="-99"/>
            <Node pos="r" depth="3" NCoef="0" IVar="-1" Cut="0.0000000000000000e+00" cType="1" res="1.1713902465999126e-02" rms="3.9854407310485840e-01" purity="5.8838123083114624e-01" nType="-99"/>
          </Node>
        </Node>
        <Node pos="r" depth="1" NCoef="0" IVar="-1" Cut="0.0000000000000000e+00" cType="1" res="-2.4539710953831673e-02" rms="3.4407213330268860e-01" purity="2.9434350132942200e-01" nType="-99"/>
      </Node>
    </BinaryTree>
    <BinaryTree type="DecisionTree" boostWeight="1.0000000000000000e+00" itree="231">
      <Node pos="s" depth="0" NCoef="0" IVar="8" Cut="-1.7333229780197144e+00" cType="1" res="-2.7614058926701546e-03" rms="3.8563764095306396e-01" purity="4.9745276570320129e-01" nType="0">
        <Node pos="l" depth="1" NCoef="0" IVar="0" Cut="4.2484710693359375e+02" cType="1" res="-1.8818693235516548e-02" rms="3.6225399374961853e-01" purity="2.6079034805297852e-01" nType="0">
          <Node pos="l" depth="2" NCoef="0" IVar="-1" Cut="0.0000000000000000e+00" cType="1" res="-2.9991518706083298e-02" rms="3.1913727521896362e-01" purity="1.3812647759914398e-01" nType="-99"/>
          <Node pos="r" depth="2" NCoef="0" IVar="-1" Cut="0.0000000000000000e+00" cType="1" res="3.9889463223516941e-03" rms="4.2103931307792664e-01" purity="4.5757195353507996e-01" nType="-99"/>
        </Node>
        <Node pos="r" depth="1" NCoef="0" IVar="9" Cut="-1.9999690055847168e+00" cType="1" res="-1.5424363082274795e-03" rms="3.8732793927192688e-01" purity="5.1541864871978760e-01" nType="0">
          <Node pos="l" depth="2" NCoef="0" IVar="-1" Cut="0.0000000000000000e+00" cType="1" res="1.1054621078073978e-02" rms="3.8955423235893250e-01" purity="3.5803312063217163e-01" nType="-99"/>
          <Node pos="r" depth="2" NCoef="0" IVar="8" Cut="-2.2223615646362305e-01" cType="1" res="-2.5267594028264284e-03" rms="3.8717982172966003e-01" purity="5.2418696880340576e-01" nType="0">
            <Node pos="l" depth="3" NCoef="0" IVar="-1" Cut="0.0000000000000000e+00" cType="1" res="-5.5028609931468964e-03" rms="3.9216467738151550e-01" purity="5.2443605661392212e-01" nType="-99"/>
            <Node pos="r" depth="3" NCoef="0" IVar="-1" Cut="0.0000000000000000e+00" cType="1" res="7.0110167143866420e-04" rms="3.8412034511566162e-01" purity="5.2403789758682251e-01" nType="-99"/>
          </Node>
        </Node>
      </Node>
    </BinaryTree>
    <BinaryTree type="DecisionTree" boostWeight="1.0000000000000000e+00" itree="232">
      <Node pos="s" depth="0" NCoef="0" IVar="8" Cut="-1.7333338260650635e+00" cType="1" res="-1.6213997150771320e-04" rms="3.8844662904739380e-01" purity="4.9556463956832886e-01" nType="0">
        <Node pos="l" depth="1" NCoef="0" IVar="4" Cut="1.0352316284179688e+02" cType="1" res="-1.8867084756493568e-02" rms="3.5312023758888245e-01" purity="2.4822215735912323e-01" nType="0">
          <Node pos="l" depth="2" NCoef="0" IVar="-1" Cut="0.0000000000000000e+00" cType="1" res="-6.0638026334345341e-03" rms="3.1629964709281921e-01" purity="1.6801027953624725e-01" nType="-99"/>
          <Node pos="r" depth="2" NCoef="0" IVar="-1" Cut="0.0000000000000000e+00" cType="1" res="-1.9428187981247902e-02" rms="3.8557437062263489e-01" purity="3.2716101408004761e-01" nType="-99"/>
        </Node>
        <Node pos="r" depth="1" NCoef="0" IVar="0" Cut="4.4703970336914062e+02" cType="1" res="1.2362800771370530e-03" rms="3.9092352986335754e-01" purity="5.1405650377273560e-01" nType="0">
          <Node pos="l" depth="2" NCoef="0" IVar="1" Cut="8.9674206542968750e+02" cType="1" res="4.3673682957887650e-03" rms="4.0094196796417236e-01" purity="3.7519350647926331e-01" nType="0">
            <Node pos="l" depth="3" NCoef="0" IVar="-1" Cut="0.0000000000000000e+00" cType="1" res="-2.2066935896873474e-02" rms="2.9475134611129761e-01" purity="1.1072737723588943e-01" nType="-99"/>
            <Node pos="r" depth="3" NCoef="0" IVar="-1" Cut="0.0000000000000000e+00" cType="1" res="4.6988022513687611e-03" rms="4.1231048107147217e-01" purity="4.0868377685546875e-01" nType="-99"/>
          </Node>
          <Node pos="r" depth="2" NCoef="0" IVar="9" Cut="6.6670268774032593e-01" cType="1" res="-3.3063725568354130e-03" rms="3.7586778402328491e-01" purity="7.1552193164825439e-01" nType="0">
            <Node pos="l" depth="3" NCoef="0" IVar="-1" Cut="0.0000000000000000e+00" cType="1" res="1.9491509301587939e-03" rms="3.7513756752014160e-01" purity="7.3352146148681641e-01" nType="-99"/>
            <Node pos="r" depth="3" NCoef="0" IVar="-1" Cut="0.0000000000000000e+00" cType="1" res="-1.2626432813704014e-02" rms="3.7725690007209778e-01" purity="6.7091166973114014e-01" nType="-99"/>
          </Node>
        </Node>
      </Node>
    </BinaryTree>
    <BinaryTree type="DecisionTree" boostWeight="1.0000000000000000e+00" itree="233">
      <Node pos="s" depth="0" NCoef="0" IVar="9" Cut="-1.4666357040405273e+00" cType="1" res="1.6939053311944008e-03" rms="3.8679292798042297e-01" purity="5.0257039070129395e-01" nType="0">
        <Node pos="l" depth="1" NCoef="0" IVar="9" Cut="-1.6571142673492432e+00" cType="1" res="-1.4136579819023609e-02" rms="3.7818789482116699e-01" purity="3.7327253818511963e-01" nType="0">
          <Node pos="l" depth="2" NCoef="0" IVar="8" Cut="-6.6650056838989258e-01" cType="1" res="-5.2989078685641289e-03" rms="3.7843295931816101e-01" purity="3.6681202054023743e-01" nType="0">
            <Node pos="l" depth="3" NCoef="0" IVar="-1" Cut="0.0000000000000000e+00" cType="1" res="1.0667857713997364e-02" rms="3.6446142196655273e-01" purity="3.2126355171203613e-01" nType="-99"/>
            <Node pos="r" depth="3" NCoef="0" IVar="-1" Cut="0.0000000000000000e+00" cType="1" res="-1.1681115254759789e-02" rms="3.8624465465545654e-01" purity="3.9481586217880249e-01" nType="-99"/>
          </Node>
          <Node pos="r" depth="2" NCoef="0" IVar="-1" Cut="0.0000000000000000e+00" cType="1" res="-2.9936496168375015e-02" rms="3.7569144368171692e-01" purity="3.9590796828269958e-01" nType="-99"/>
        </Node>
        <Node pos="r" depth="1" NCoef="0" IVar="6" Cut="-3.7451508641242981e-01" cType="1" res="3.8155678194016218e-03" rms="3.8788262009620667e-01" purity="5.1989936828613281e-01" nType="0">
          <Node pos="l" depth="2" NCoef="0" IVar="1" Cut="1.0838756103515625e+03" cType="1" res="1.4120497740805149e-02" rms="3.8988074660301208e-01" purity="4.7568321228027344e-01" nType="0">
            <Node pos="l" depth="3" NCoef="0" IVar="-1" Cut="0.0000000000000000e+00" cType="1" res="2.3069627583026886e-02" rms="3.8047945499420166e-01" purity="2.2285942733287811e-01" nType="-99"/>
            <Node pos="r" depth="3" NCoef="0" IVar="-1" Cut="0.0000000000000000e+00" cType="1" res="4.4442247599363327e-03" rms="3.9371427893638611e-01" purity="5.8627867698669434e-01" nType="-99"/>
          </Node>
          <Node pos="r" depth="2" NCoef="0" IVar="6" Cut="1.1370698213577271e+00" cType="1" res="-1.3909797416999936e-03" rms="3.8676473498344421e-01" purity="5.4223954677581787e-01" nType="0">
            <Node pos="l" depth="3" NCoef="0" IVar="-1" Cut="0.0000000000000000e+00" cType="1" res="-3.0269986018538475e-03" rms="3.9171016216278076e-01" purity="5.9675985574722290e-01" nType="-99"/>
            <Node pos="r" depth="3" NCoef="0" IVar="-1" Cut="0.0000000000000000e+00" cType="1" res="1.0055964812636375e-02" rms="3.6421892046928406e-01" purity="3.0609324574470520e-01" nType="-99"/>
          </Node>
        </Node>
      </Node>
    </BinaryTree>
    <BinaryTree type="DecisionTree" boostWeight="1.0000000000000000e+00" itree="234">
      <Node pos="s" depth="0" NCoef="0" IVar="6" Cut="1.5449889004230499e-01" cType="1" res="-5.5137911112979054e-04" rms="3.8626882433891296e-01" purity="4.9979749321937561e-01" nType="0">
        <Node pos="l" depth="1" NCoef="0" IVar="6" Cut="-1.5082101821899414e+00" cType="1" res="5.1852092146873474e-03" rms="3.8944926857948303e-01" purity="5.2088689804077148e-01" nType="0">
          <Node pos="l" depth="2" NCoef="0" IVar="9" Cut="-3.9922434091567993e-01" cType="1" res="-9.7569664940237999e-03" rms="3.2171690464019775e-01" purity="1.9839942455291748e-01" nType="0">
            <Node pos="l" depth="3" NCoef="0" IVar="-1" Cut="0.0000000000000000e+00" cType="1" res="-2.0831583067774773e-02" rms="3.0246627330780029e-01" purity="1.4556045830249786e-01" nType="-99"/>
            <Node pos="r" depth="3" NCoef="0" IVar="-1" Cut="0.0000000000000000e+00" cType="1" res="-1.2414040611474775e-05" rms="3.3687436580657959e-01" purity="2.4320648610591888e-01" nType="-99"/>
          </Node>
          <Node pos="r" depth="2" NCoef="0" IVar="6" Cut="-9.5397335290908813e-01" cType="1" res="7.0032295770943165e-03" rms="3.9686396718025208e-01" purity="5.6012409925460815e-01" nType="0">
            <Node pos="l" depth="3" NCoef="0" IVar="-1" Cut="0.0000000000000000e+00" cType="1" res="1.4793870039284229e-02" rms="3.8877224922180176e-01" purity="4.1096955537796021e-01" nType="-99"/>
            <Node pos="r" depth="3" NCoef="0" IVar="-1" Cut="0.0000000000000000e+00" cType="1" res="2.0304527133703232e-03" rms="3.9871171116828918e-01" purity="5.9632116556167603e-01" nType="-99"/>
          </Node>
        </Node>
        <Node pos="r" depth="1" NCoef="0" IVar="1" Cut="1.6367725830078125e+03" cType="1" res="-8.0626662820577621e-03" rms="3.8193413615226746e-01" purity="4.7218364477157593e-01" nType="0">
          <Node pos="l" depth="2" NCoef="0" IVar="7" Cut="-1.4666162729263306e+00" cType="1" res="-1.2508318759500980e-02" rms="3.9079898595809937e-01" purity="3.9655143022537231e-01" nType="0">
            <Node pos="l" depth="3" NCoef="0" IVar="-1" Cut="0.0000000000000000e+00" cType="1" res="-2.9480084776878357e-02" rms="3.0686458945274353e-01" purity="1.6964977979660034e-01" nType="-99"/>
            <Node pos="r" depth="3" NCoef="0" IVar="-1" Cut="0.0000000000000000e+00" cType="1" res="-6.4088865183293819e-03" rms="3.9845004677772522e-01" purity="4.2016538977622986e-01" nType="-99"/>
          </Node>
          <Node pos="r" depth="2" NCoef="0" IVar="5" Cut="1.0622001647949219e+02" cType="1" res="1.0594016872346401e-02" rms="3.4160679578781128e-01" purity="7.8958290815353394e-01" nType="0">
            <Node pos="l" depth="3" NCoef="0" IVar="-1" Cut="0.0000000000000000e+00" cType="1" res="1.8602587282657623e-02" rms="3.9432844519615173e-01" purity="6.8825906515121460e-01" nType="-99"/>
            <Node pos="r" depth="3" NCoef="0" IVar="-1" Cut="0.0000000000000000e+00" cType="1" res="-2.9566490557044744e-03" rms="3.0238986015319824e-01" purity="8.5431754589080811e-01" nType="-99"/>
          </Node>
        </Node>
      </Node>
    </BinaryTree>
    <BinaryTree type="DecisionTree" boostWeight="1.0000000000000000e+00" itree="235">
      <Node pos="s" depth="0" NCoef="0" IVar="6" Cut="1.2049012184143066e+00" cType="1" res="9.2638155911117792e-04" rms="3.8417491316795349e-01" purity="5.0418567657470703e-01" nType="0">
        <Node pos="l" depth="1" NCoef="0" IVar="6" Cut="-8.8383746147155762e-01" cType="1" res="3.4709384199231863e-03" rms="3.8981360197067261e-01" purity="5.3549546003341675e-01" nType="0">
          <Node pos="l" depth="2" NCoef="0" IVar="3" Cut="2.7076947021484375e+02" cType="1" res="-1.2540038675069809e-02" rms="3.6007973551750183e-01" purity="3.2284644246101379e-01" nType="0">
            <Node pos="l" depth="3" NCoef="0" IVar="-1" Cut="0.0000000000000000e+00" cType="1" res="-5.9990989975631237e-03" rms="3.5334789752960205e-01" purity="2.8564599156379700e-01" nType="-99"/>
            <Node pos="r" depth="3" NCoef="0" IVar="-1" Cut="0.0000000000000000e+00" cType="1" res="-2.1544553339481354e-02" rms="3.8919189572334290e-01" purity="4.9616324901580811e-01" nType="-99"/>
          </Node>
          <Node pos="r" depth="2" NCoef="0" IVar="3" Cut="3.9011541748046875e+02" cType="1" res="7.2571136988699436e-03" rms="3.9642450213432312e-01" purity="5.8578139543533325e-01" nType="0">
            <Node pos="l" depth="3" NCoef="0" IVar="-1" Cut="0.0000000000000000e+00" cType="1" res="3.4011439420282841e-03" rms="3.9678514003753662e-01" purity="5.7582736015319824e-01" nType="-99"/>
            <Node pos="r" depth="3" NCoef="0" IVar="-1" Cut="0.0000000000000000e+00" cType="1" res="2.2946203127503395e-02" rms="3.8989114761352539e-01" purity="7.3520994186401367e-01" nType="-99"/>
          </Node>
        </Node>
        <Node pos="r" depth="1" NCoef="0" IVar="6" Cut="1.8884898424148560e+00" cType="1" res="-2.0968707278370857e-02" rms="3.3091089129447937e-01" purity="2.3477514088153839e-01" nType="0">
          <Node pos="l" depth="2" NCoef="0" IVar="9" Cut="-1.3318741321563721e-01" cType="1" res="-1.2840367853641510e-02" rms="3.5887676477432251e-01" purity="2.8222972154617310e-01" nType="0">
            <Node pos="l" depth="3" NCoef="0" IVar="-1" Cut="0.0000000000000000e+00" cType="1" res="-2.2916138172149658e-02" rms="3.5875836014747620e-01" purity="2.8492647409439087e-01" nType="-99"/>
            <Node pos="r" depth="3" NCoef="0" IVar="-1" Cut="0.0000000000000000e+00" cType="1" res="-1.5475931577384472e-03" rms="3.5850274562835693e-01" purity="2.8066501021385193e-01" nType="-99"/>
          </Node>
          <Node pos="r" depth="2" NCoef="0" IVar="-1" Cut="0.0000000000000000e+00" cType="1" res="-4.7986313700675964e-02" rms="2.3778712749481201e-01" purity="1.0613040626049042e-01" nType="-99"/>
        </Node>
      </Node>
    </BinaryTree>
    <BinaryTree type="DecisionTree" boostWeight="1.0000000000000000e+00" itree="236">
      <Node pos="s" depth="0" NCoef="0" IVar="8" Cut="-1.4666639566421509e+00" cType="1" res="-1.0943223023787141e-03" rms="3.8636508584022522e-01" purity="5.0017988681793213e-01" nType="0">
        <Node pos="l" depth="1" NCoef="0" IVar="8" Cut="-1.9111063480377197e+00" cType="1" res="1.3855782337486744e-02" rms="3.7888208031654358e-01" purity="3.3451011776924133e-01" nType="0">
          <Node pos="l" depth="2" NCoef="0" IVar="-1" Cut="0.0000000000000000e+00" cType="1" res="-8.6956354789435863e-04" rms="3.6201331019401550e-01" purity="2.5191345810890198e-01" nType="-99"/>
          <Node pos="r" depth="2" NCoef="0" IVar="4" Cut="1.1174472808837891e+02" cType="1" res="2.6837727054953575e-02" rms="3.9244320988655090e-01" purity="4.0603825449943542e-01" nType="0">
            <Node pos="l" depth="3" NCoef="0" IVar="-1" Cut="0.0000000000000000e+00" cType="1" res="9.4757648184895515e-03" rms="3.7227985262870789e-01" purity="2.5945734977722168e-01" nType="-99"/>
            <Node pos="r" depth="3" NCoef="0" IVar="-1" Cut="0.0000000000000000e+00" cType="1" res="2.2560136392712593e-02" rms="4.0945908427238464e-01" purity="5.3887253999710083e-01" nType="-99"/>
          </Node>
        </Node>
        <Node pos="r" depth="1" NCoef="0" IVar="9" Cut="-2.2665297985076904e+00" cType="1" res="-2.9124475549906492e-03" rms="3.8722589612007141e-01" purity="5.2032750844955444e-01" nType="0">
          <Node pos="l" depth="2" NCoef="0" IVar="-1" Cut="0.0000000000000000e+00" cType="1" res="2.0779114216566086e-02" rms="3.9215669035911560e-01" purity="3.8173332810401917e-01" nType="-99"/>
          <Node pos="r" depth="2" NCoef="0" IVar="8" Cut="-6.5397596359252930e-01" cType="1" res="-3.9930967614054680e-03" rms="3.8701793551445007e-01" purity="5.2478158473968506e-01" nType="0">
            <Node pos="l" depth="3" NCoef="0" IVar="-1" Cut="0.0000000000000000e+00" cType="1" res="-8.6465841159224510e-03" rms="3.8744300603866577e-01" purity="5.1051259040832520e-01" nType="-99"/>
            <Node pos="r" depth="3" NCoef="0" IVar="-1" Cut="0.0000000000000000e+00" cType="1" res="-1.0385491186752915e-03" rms="3.8687074184417725e-01" purity="5.2847784757614136e-01" nType="-99"/>
          </Node>
        </Node>
      </Node>
    </BinaryTree>
    <BinaryTree type="DecisionTree" boostWeight="1.0000000000000000e+00" itree="237">
      <Node pos="s" depth="0" NCoef="0" IVar="9" Cut="-2.2666301727294922e+00" cType="1" res="-5.0110177835449576e-04" rms="3.8694784045219421e-01" purity="5.0044834613800049e-01" nType="0">
        <Node pos="l" depth="1" NCoef="0" IVar="-1" Cut="0.0000000000000000e+00" cType="1" res="-2.5646204128861427e-02" rms="3.5581901669502258e-01" purity="2.7601161599159241e-01" nType="-99"/>
        <Node pos="r" depth="1" NCoef="0" IVar="0" Cut="5.8882464599609375e+02" cType="1" res="5.1707972306758165e-04" rms="3.8777476549148560e-01" purity="5.0702077150344849e-01" nType="0">
          <Node pos="l" depth="2" NCoef="0" IVar="0" Cut="3.5501388549804688e+02" cType="1" res="2.9190031345933676e-03" rms="3.9535787701606750e-01" purity="4.5293784141540527e-01" nType="0">
            <Node pos="l" depth="3" NCoef="0" IVar="-1" Cut="0.0000000000000000e+00" cType="1" res="8.3009609952569008e-03" rms="3.8636106252670288e-01" purity="3.0065780878067017e-01" nType="-99"/>
            <Node pos="r" depth="3" NCoef="0" IVar="-1" Cut="0.0000000000000000e+00" cType="1" res="-1.1284187203273177e-03" rms="3.9969891309738159e-01" purity="5.2911722660064697e-01" nType="-99"/>
          </Node>
          <Node pos="r" depth="2" NCoef="0" IVar="5" Cut="7.9215942382812500e+01" cType="1" res="-1.2390079908072948e-02" rms="3.4388905763626099e-01" purity="7.9764473438262939e-01" nType="0">
            <Node pos="l" depth="3" NCoef="0" IVar="-1" Cut="0.0000000000000000e+00" cType="1" res="-2.0363828167319298e-02" rms="4.1111716628074646e-01" purity="6.3315773010253906e-01" nType="-99"/>
            <Node pos="r" depth="3" NCoef="0" IVar="-1" Cut="0.0000000000000000e+00" cType="1" res="-2.4500032886862755e-03" rms="3.0862495303153992e-01" purity="8.7114900350570679e-01" nType="-99"/>
          </Node>
        </Node>
      </Node>
    </BinaryTree>
    <BinaryTree type="DecisionTree" boostWeight="1.0000000000000000e+00" itree="238">
      <Node pos="s" depth="0" NCoef="0" IVar="9" Cut="6.6667431592941284e-01" cType="1" res="2.3603872396051884e-03" rms="3.8679426908493042e-01" purity="5.0066131353378296e-01" nType="0">
        <Node pos="l" depth="1" NCoef="0" IVar="8" Cut="9.3330830335617065e-01" cType="1" res="6.2275514937937260e-03" rms="3.8828113675117493e-01" purity="5.2255666255950928e-01" nType="0">
          <Node pos="l" depth="2" NCoef="0" IVar="5" Cut="7.9215919494628906e+01" cType="1" res="3.2241463195532560e-03" rms="3.8681885600090027e-01" purity="5.3922545909881592e-01" nType="0">
            <Node pos="l" depth="3" NCoef="0" IVar="-1" Cut="0.0000000000000000e+00" cType="1" res="-3.4341881982982159e-03" rms="3.9414080977439880e-01" purity="3.3847734332084656e-01" nType="-99"/>
            <Node pos="r" depth="3" NCoef="0" IVar="-1" Cut="0.0000000000000000e+00" cType="1" res="7.1733733639121056e-03" rms="3.8056463003158569e-01" purity="7.0378822088241577e-01" nType="-99"/>
          </Node>
          <Node pos="r" depth="2" NCoef="0" IVar="1" Cut="1.0678310546875000e+03" cType="1" res="1.8507672473788261e-02" rms="3.9396545290946960e-01" purity="4.5440253615379333e-01" nType="0">
            <Node pos="l" depth="3" NCoef="0" IVar="-1" Cut="0.0000000000000000e+00" cType="1" res="-1.8639357294887304e-03" rms="3.5320901870727539e-01" purity="1.8821130692958832e-01" nType="-99"/>
            <Node pos="r" depth="3" NCoef="0" IVar="-1" Cut="0.0000000000000000e+00" cType="1" res="1.6188995912671089e-02" rms="4.0926617383956909e-01" purity="5.6406295299530029e-01" nType="-99"/>
          </Node>
        </Node>
        <Node pos="r" depth="1" NCoef="0" IVar="5" Cut="9.7849983215332031e+01" cType="1" res="-6.8905306980013847e-03" rms="3.8305571675300598e-01" purity="4.4828379154205322e-01" nType="0">
          <Node pos="l" depth="2" NCoef="0" IVar="9" Cut="9.7144258022308350e-01" cType="1" res="1.5454283857252449e-04" rms="3.8592579960823059e-01" purity="3.4821856021881104e-01" nType="0">
            <Node pos="l" depth="3" NCoef="0" IVar="-1" Cut="0.0000000000000000e+00" cType="1" res="-1.4499174430966377e-02" rms="3.8984143733978271e-01" purity="3.6193165183067322e-01" nType="-99"/>
            <Node pos="r" depth="3" NCoef="0" IVar="-1" Cut="0.0000000000000000e+00" cType="1" res="4.6551092527806759e-03" rms="3.8450327515602112e-01" purity="3.4420078992843628e-01" nType="-99"/>
          </Node>
          <Node pos="r" depth="2" NCoef="0" IVar="7" Cut="4.0188363194465637e-01" cType="1" res="-2.2894769906997681e-02" rms="3.7596416473388672e-01" purity="6.7560124397277832e-01" nType="0">
            <Node pos="l" depth="3" NCoef="0" IVar="-1" Cut="0.0000000000000000e+00" cType="1" res="-7.3517751879990101e-03" rms="3.6569574475288391e-01" purity="7.1943902969360352e-01" nType="-99"/>
            <Node pos="r" depth="3" NCoef="0" IVar="-1" Cut="0.0000000000000000e+00" cType="1" res="-2.8371429070830345e-02" rms="3.9081475138664246e-01" purity="6.0620254278182983e-01" nType="-99"/>
          </Node>
        </Node>
      </Node>
    </BinaryTree>
    <BinaryTree type="DecisionTree" boostWeight="1.0000000000000000e+00" itree="239">
      <Node pos="s" depth="0" NCoef="0" IVar="9" Cut="2.2666013240814209e+00" cType="1" res="2.7230647392570972e-03" rms="3.8646227121353149e-01" purity="5.0401455163955688e-01" nType="0">
        <Node pos="l" depth="1" NCoef="0" IVar="9" Cut="-1.4606949687004089e-01" cType="1" res="1.6871660482138395e-03" rms="3.8695284724235535e-01" purity="5.0821828842163086e-01" nType="0">
          <Node pos="l" depth="2" NCoef="0" IVar="4" Cut="1.4019708251953125e+02" cType="1" res="6.7862654104828835e-03" rms="3.9083263278007507e-01" purity="4.9795603752136230e-01" nType="0">
            <Node pos="l" depth="3" NCoef="0" IVar="-1" Cut="0.0000000000000000e+00" cType="1" res="9.1247316449880600e-03" rms="4.0144214034080505e-01" purity="3.6578759551048279e-01" nType="-99"/>
            <Node pos="r" depth="3" NCoef="0" IVar="-1" Cut="0.0000000000000000e+00" cType="1" res="-3.2743958290666342e-03" rms="3.7373876571655273e-01" purity="7.0004779100418091e-01" nType="-99"/>
          </Node>
          <Node pos="r" depth="2" NCoef="0" IVar="9" Cut="1.2325787544250488e+00" cType="1" res="-2.8233043849468231e-03" rms="3.8343173265457153e-01" purity="5.1729589700698853e-01" nType="0">
            <Node pos="l" depth="3" NCoef="0" IVar="-1" Cut="0.0000000000000000e+00" cType="1" res="-4.9439989961683750e-03" rms="3.7951904535293579e-01" purity="5.4124379158020020e-01" nType="-99"/>
            <Node pos="r" depth="3" NCoef="0" IVar="-1" Cut="0.0000000000000000e+00" cType="1" res="6.2964237295091152e-03" rms="3.9372444152832031e-01" purity="4.5140320062637329e-01" nType="-99"/>
          </Node>
        </Node>
        <Node pos="r" depth="1" NCoef="0" IVar="-1" Cut="0.0000000000000000e+00" cType="1" res="2.4092197418212891e-02" rms="3.6954683065414429e-01" purity="3.7406003475189209e-01" nType="-99"/>
      </Node>
    </BinaryTree>
    <BinaryTree type="DecisionTree" boostWeight="1.0000000000000000e+00" itree="240">
      <Node pos="s" depth="0" NCoef="0" IVar="8" Cut="-1.4666740894317627e+00" cType="1" res="1.4044506242498755e-03" rms="3.8781601190567017e-01" purity="5.0106900930404663e-01" nType="0">
        <Node pos="l" depth="1" NCoef="0" IVar="4" Cut="1.4743078613281250e+02" cType="1" res="-1.9469570368528366e-02" rms="3.6036464571952820e-01" purity="3.0156040191650391e-01" nType="0">
          <Node pos="l" depth="2" NCoef="0" IVar="8" Cut="-1.7841699123382568e+00" cType="1" res="-1.1222235858440399e-02" rms="3.5382902622222900e-01" purity="2.3663449287414551e-01" nType="0">
            <Node pos="l" depth="3" NCoef="0" IVar="-1" Cut="0.0000000000000000e+00" cType="1" res="-2.5523283984512091e-03" rms="3.4525817632675171e-01" purity="2.0714572072029114e-01" nType="-99"/>
            <Node pos="r" depth="3" NCoef="0" IVar="-1" Cut="0.0000000000000000e+00" cType="1" res="-1.6597282141447067e-02" rms="3.6813735961914062e-01" purity="2.8904888033866882e-01" nType="-99"/>
          </Node>
          <Node pos="r" depth="2" NCoef="0" IVar="-1" Cut="0.0000000000000000e+00" cType="1" res="-2.6258014142513275e-02" rms="3.7774398922920227e-01" purity="4.9078515172004700e-01" nType="-99"/>
        </Node>
        <Node pos="r" depth="1" NCoef="0" IVar="8" Cut="5.6503236293792725e-01" cType="1" res="3.8180251140147448e-03" rms="3.9079388976097107e-01" purity="5.2413731813430786e-01" nType="0">
          <Node pos="l" depth="2" NCoef="0" IVar="6" Cut="-1.1680495738983154e+00" cType="1" res="9.1378968209028244e-03" rms="3.9474689960479736e-01" purity="5.6576389074325562e-01" nType="0">
            <Node pos="l" depth="3" NCoef="0" IVar="-1" Cut="0.0000000000000000e+00" cType="1" res="2.7518834918737411e-02" rms="3.9000847935676575e-01" purity="3.5670864582061768e-01" nType="-99"/>
            <Node pos="r" depth="3" NCoef="0" IVar="-1" Cut="0.0000000000000000e+00" cType="1" res="3.5016695037484169e-03" rms="3.9517924189567566e-01" purity="5.9189146757125854e-01" nType="-99"/>
          </Node>
          <Node pos="r" depth="2" NCoef="0" IVar="9" Cut="9.3337678909301758e-01" cType="1" res="-6.0068145394325256e-03" rms="3.8319212198257446e-01" purity="4.4726064801216125e-01" nType="0">
            <Node pos="l" depth="3" NCoef="0" IVar="-1" Cut="0.0000000000000000e+00" cType="1" res="-8.2467199536040425e-04" rms="3.8890239596366882e-01" purity="4.7976931929588318e-01" nType="-99"/>
            <Node pos="r" depth="3" NCoef="0" IVar="-1" Cut="0.0000000000000000e+00" cType="1" res="-1.2892523780465126e-02" rms="3.6720487475395203e-01" purity="3.6043363809585571e-01" nType="-99"/>
          </Node>
        </Node>
      </Node>
    </BinaryTree>
    <BinaryTree type="DecisionTree" boostWeight="1.0000000000000000e+00" itree="241">
      <Node pos="s" depth="0" NCoef="0" IVar="9" Cut="1.7333117723464966e+00" cType="1" res="-3.3291224390268326e-03" rms="3.8587710261344910e-01" purity="4.9913686513900757e-01" nType="0">
        <Node pos="l" depth="1" NCoef="0" IVar="2" Cut="6.2095214843750000e+02" cType="1" res="-1.8689613789319992e-03" rms="3.8765490055084229e-01" purity="5.1254737377166748e-01" nType="0">
          <Node pos="l" depth="2" NCoef="0" IVar="9" Cut="-1.9364821910858154e+00" cType="1" res="-3.3737684134393930e-03" rms="3.8638395071029663e-01" purity="5.0440263748168945e-01" nType="0">
            <Node pos="l" depth="3" NCoef="0" IVar="-1" Cut="0.0000000000000000e+00" cType="1" res="-1.8592277541756630e-02" rms="3.6390647292137146e-01" purity="3.1270110607147217e-01" nType="-99"/>
            <Node pos="r" depth="3" NCoef="0" IVar="-1" Cut="0.0000000000000000e+00" cType="1" res="-1.1851132148876786e-03" rms="3.8784685730934143e-01" purity="5.1772069931030273e-01" nType="-99"/>
          </Node>
          <Node pos="r" depth="2" NCoef="0" IVar="2" Cut="7.4122204589843750e+02" cType="1" res="1.6933679580688477e-02" rms="4.0272396802902222e-01" purity="6.1431592702865601e-01" nType="0">
            <Node pos="l" depth="3" NCoef="0" IVar="-1" Cut="0.0000000000000000e+00" cType="1" res="1.9517589360475540e-02" rms="3.9882776141166687e-01" purity="5.9626173973083496e-01" nType="-99"/>
            <Node pos="r" depth="3" NCoef="0" IVar="-1" Cut="0.0000000000000000e+00" cType="1" res="-2.5649515446275473e-03" rms="4.0735232830047607e-01" purity="6.4042228460311890e-01" nType="-99"/>
          </Node>
        </Node>
        <Node pos="r" depth="1" NCoef="0" IVar="9" Cut="1.9872850179672241e+00" cType="1" res="-1.9477410241961479e-02" rms="3.6525091528892517e-01" purity="3.5082688927650452e-01" nType="0">
          <Node pos="l" depth="2" NCoef="0" IVar="-1" Cut="0.0000000000000000e+00" cType="1" res="-3.7221614271402359e-02" rms="3.6100775003433228e-01" purity="3.5088962316513062e-01" nType="-99"/>
          <Node pos="r" depth="2" NCoef="0" IVar="9" Cut="2.3355817794799805e+00" cType="1" res="-2.5861030444502831e-03" rms="3.6591899394989014e-01" purity="3.5079836845397949e-01" nType="0">
            <Node pos="l" depth="3" NCoef="0" IVar="-1" Cut="0.0000000000000000e+00" cType="1" res="1.5341257676482201e-02" rms="3.9043271541595459e-01" purity="3.9640158414840698e-01" nType="-99"/>
            <Node pos="r" depth="3" NCoef="0" IVar="-1" Cut="0.0000000000000000e+00" cType="1" res="-2.5217331945896149e-02" rms="3.2986140251159668e-01" purity="2.9352393746376038e-01" nType="-99"/>
          </Node>
        </Node>
      </Node>
    </BinaryTree>
    <BinaryTree type="DecisionTree" boostWeight="1.0000000000000000e+00" itree="242">
      <Node pos="s" depth="0" NCoef="0" IVar="8" Cut="-1.9999954700469971e+00" cType="1" res="1.3572123134508729e-03" rms="3.8662603497505188e-01" purity="5.0156611204147339e-01" nType="0">
        <Node pos="l" depth="1" NCoef="0" IVar="-1" Cut="0.0000000000000000e+00" cType="1" res="2.0257489755749702e-02" rms="3.7281540036201477e-01" purity="2.5886574387550354e-01" nType="-99"/>
        <Node pos="r" depth="1" NCoef="0" IVar="7" Cut="-1.9998599290847778e+00" cType="1" res="2.3959038662724197e-04" rms="3.8720983266830444e-01" purity="5.1267969608306885e-01" nType="0">
          <Node pos="l" depth="2" NCoef="0" IVar="-1" Cut="0.0000000000000000e+00" cType="1" res="-2.1746821701526642e-02" rms="3.1126809120178223e-01" purity="1.5918803215026855e-01" nType="-99"/>
          <Node pos="r" depth="2" NCoef="0" IVar="7" Cut="-6.2846845388412476e-01" cType="1" res="1.0595787316560745e-03" rms="3.8952612876892090e-01" purity="5.2480459213256836e-01" nType="0">
            <Node pos="l" depth="3" NCoef="0" IVar="-1" Cut="0.0000000000000000e+00" cType="1" res="5.9139351360499859e-03" rms="3.9192160964012146e-01" purity="4.7879913449287415e-01" nType="-99"/>
            <Node pos="r" depth="3" NCoef="0" IVar="-1" Cut="0.0000000000000000e+00" cType="1" res="-1.0963382665067911e-03" rms="3.8868162035942078e-01" purity="5.4022634029388428e-01" nType="-99"/>
          </Node>
        </Node>
      </Node>
    </BinaryTree>
    <BinaryTree type="DecisionTree" boostWeight="1.0000000000000000e+00" itree="243">
      <Node pos="s" depth="0" NCoef="0" IVar="8" Cut="-9.3323040008544922e-01" cType="1" res="-6.8186235148459673e-04" rms="3.8526609539985657e-01" purity="4.9982565641403198e-01" nType="0">
        <Node pos="l" depth="1" NCoef="0" IVar="9" Cut="-3.9996629953384399e-01" cType="1" res="-1.2896711006760597e-02" rms="3.7284070253372192e-01" purity="3.8630688190460205e-01" nType="0">
          <Node pos="l" depth="2" NCoef="0" IVar="7" Cut="1.3338004052639008e-01" cType="1" res="-2.4271806702017784e-02" rms="3.5964661836624146e-01" purity="3.3945205807685852e-01" nType="0">
            <Node pos="l" depth="3" NCoef="0" IVar="-1" Cut="0.0000000000000000e+00" cType="1" res="-5.6065306998789310e-03" rms="3.6286029219627380e-01" purity="3.6176010966300964e-01" nType="-99"/>
            <Node pos="r" depth="3" NCoef="0" IVar="-1" Cut="0.0000000000000000e+00" cType="1" res="-4.0436409413814545e-02" rms="3.5038551688194275e-01" purity="2.9264384508132935e-01" nType="-99"/>
          </Node>
          <Node pos="r" depth="2" NCoef="0" IVar="6" Cut="7.0183545351028442e-01" cType="1" res="-4.1035362519323826e-03" rms="3.8249665498733521e-01" purity="4.2252656817436218e-01" nType="0">
            <Node pos="l" depth="3" NCoef="0" IVar="-1" Cut="0.0000000000000000e+00" cType="1" res="-6.5122866071760654e-03" rms="3.8463145494461060e-01" purity="4.6502313017845154e-01" nType="-99"/>
            <Node pos="r" depth="3" NCoef="0" IVar="-1" Cut="0.0000000000000000e+00" cType="1" res="1.1829020455479622e-02" rms="3.7499603629112244e-01" purity="2.8816753625869751e-01" nType="-99"/>
          </Node>
        </Node>
        <Node pos="r" depth="1" NCoef="0" IVar="6" Cut="9.4510704278945923e-01" cType="1" res="2.6142315473407507e-03" rms="3.8848513364791870e-01" purity="5.3045791387557983e-01" nType="0">
          <Node pos="l" depth="2" NCoef="0" IVar="8" Cut="-7.5545984506607056e-01" cType="1" res="-3.3166707726195455e-04" rms="3.9116609096527100e-01" purity="5.6457865238189697e-01" nType="0">
            <Node pos="l" depth="3" NCoef="0" IVar="-1" Cut="0.0000000000000000e+00" cType="1" res="1.8537690863013268e-02" rms="4.0290936827659607e-01" purity="6.0240900516510010e-01" nType="-99"/>
            <Node pos="r" depth="3" NCoef="0" IVar="-1" Cut="0.0000000000000000e+00" cType="1" res="-1.5673703746870160e-03" rms="3.9023843407630920e-01" purity="5.6190335750579834e-01" nType="-99"/>
          </Node>
          <Node pos="r" depth="2" NCoef="0" IVar="7" Cut="-3.9973548054695129e-01" cType="1" res="1.7112227156758308e-02" rms="3.7467461824417114e-01" purity="3.6253559589385986e-01" nType="0">
            <Node pos="l" depth="3" NCoef="0" IVar="-1" Cut="0.0000000000000000e+00" cType="1" res="-1.1998907662928104e-02" rms="3.5295656323432922e-01" purity="2.7076342701911926e-01" nType="-99"/>
            <Node pos="r" depth="3" NCoef="0" IVar="-1" Cut="0.0000000000000000e+00" cType="1" res="2.1968187764286995e-02" rms="3.8293644785881042e-01" purity="4.0270757675170898e-01" nType="-99"/>
          </Node>
        </Node>
      </Node>
    </BinaryTree>
    <BinaryTree type="DecisionTree" boostWeight="1.0000000000000000e+00" itree="244">
      <Node pos="s" depth="0" NCoef="0" IVar="8" Cut="-4.0003532171249390e-01" cType="1" res="-3.9852135814726353e-03" rms="3.8483145833015442e-01" purity="4.9658238887786865e-01" nType="0">
        <Node pos="l" depth="1" NCoef="0" IVar="0" Cut="5.8411187744140625e+02" cType="1" res="3.9304825477302074e-03" rms="3.8777434825897217e-01" purity="4.6940258145332336e-01" nType="0">
          <Node pos="l" depth="2" NCoef="0" IVar="8" Cut="-1.4285807609558105e+00" cType="1" res="8.2709155976772308e-03" rms="3.9162644743919373e-01" purity="4.2204597592353821e-01" nType="0">
            <Node pos="l" depth="3" NCoef="0" IVar="-1" Cut="0.0000000000000000e+00" cType="1" res="-4.5097363181412220e-03" rms="3.6556446552276611e-01" purity="2.7381062507629395e-01" nType="-99"/>
            <Node pos="r" depth="3" NCoef="0" IVar="-1" Cut="0.0000000000000000e+00" cType="1" res="9.1608008369803429e-03" rms="4.0269824862480164e-01" purity="4.8915347456932068e-01" nType="-99"/>
          </Node>
          <Node pos="r" depth="2" NCoef="0" IVar="7" Cut="-1.3377678394317627e-01" cType="1" res="-2.2411601617932320e-02" rms="3.6240801215171814e-01" purity="7.5680941343307495e-01" nType="0">
            <Node pos="l" depth="3" NCoef="0" IVar="-1" Cut="0.0000000000000000e+00" cType="1" res="-1.5415260568261147e-02" rms="3.5141086578369141e-01" purity="7.6095163822174072e-01" nType="-99"/>
            <Node pos="r" depth="3" NCoef="0" IVar="-1" Cut="0.0000000000000000e+00" cType="1" res="-1.9904388114809990e-02" rms="3.7394177913665771e-01" purity="7.5231975317001343e-01" nType="-99"/>
          </Node>
        </Node>
        <Node pos="r" depth="1" NCoef="0" IVar="0" Cut="5.8882550048828125e+02" cType="1" res="-8.6330203339457512e-03" rms="3.8301673531532288e-01" purity="5.1254141330718994e-01" nType="0">
          <Node pos="l" depth="2" NCoef="0" IVar="0" Cut="4.7879544067382812e+02" cType="1" res="-1.1967265978455544e-02" rms="3.9190274477005005e-01" purity="4.4731834530830383e-01" nType="0">
            <Node pos="l" depth="3" NCoef="0" IVar="-1" Cut="0.0000000000000000e+00" cType="1" res="-9.7203990444540977e-03" rms="3.9479380846023560e-01" purity="3.8259899616241455e-01" nType="-99"/>
            <Node pos="r" depth="3" NCoef="0" IVar="-1" Cut="0.0000000000000000e+00" cType="1" res="8.3232554607093334e-04" rms="3.8061586022377014e-01" purity="6.8915826082229614e-01" nType="-99"/>
          </Node>
          <Node pos="r" depth="2" NCoef="0" IVar="9" Cut="-1.3358001410961151e-01" cType="1" res="6.9925314746797085e-03" rms="3.3783924579620361e-01" purity="8.1820154190063477e-01" nType="0">
            <Node pos="l" depth="3" NCoef="0" IVar="-1" Cut="0.0000000000000000e+00" cType="1" res="-8.1553775817155838e-03" rms="3.3841595053672791e-01" purity="8.0992102622985840e-01" nType="-99"/>
            <Node pos="r" depth="3" NCoef="0" IVar="-1" Cut="0.0000000000000000e+00" cType="1" res="1.5875268727540970e-02" rms="3.3692789077758789e-01" purity="8.2416284084320068e-01" nType="-99"/>
          </Node>
        </Node>
      </Node>
    </BinaryTree>
    <BinaryTree type="DecisionTree" boostWeight="1.0000000000000000e+00" itree="245">
      <Node pos="s" depth="0" NCoef="0" IVar="9" Cut="2.0000052452087402e+00" cType="1" res="1.1709756217896938e-03" rms="3.8512998819351196e-01" purity="5.0222837924957275e-01" nType="0">
        <Node pos="l" depth="1" NCoef="0" IVar="8" Cut="1.4665554761886597e+00" cType="1" res="2.3038233630359173e-03" rms="3.8657587766647339e-01" purity="5.1192080974578857e-01" nType="0">
          <Node pos="l" depth="2" NCoef="0" IVar="1" Cut="2.0105635986328125e+03" cType="1" res="6.1198201728984714e-04" rms="3.8691222667694092e-01" purity="5.3073596954345703e-01" nType="0">
            <Node pos="l" depth="3" NCoef="0" IVar="-1" Cut="0.0000000000000000e+00" cType="1" res="-6.9687317591160536e-04" rms="3.9088419079780579e-01" purity="5.0743460655212402e-01" nType="-99"/>
            <Node pos="r" depth="3" NCoef="0" IVar="-1" Cut="0.0000000000000000e+00" cType="1" res="1.9182302057743073e-02" rms="3.2869872450828552e-01" purity="8.4085065126419067e-01" nType="-99"/>
          </Node>
          <Node pos="r" depth="2" NCoef="0" IVar="6" Cut="1.6888833045959473e-01" cType="1" res="1.7133682966232300e-02" rms="3.8329550623893738e-01" purity="3.4699618816375732e-01" nType="0">
            <Node pos="l" depth="3" NCoef="0" IVar="-1" Cut="0.0000000000000000e+00" cType="1" res="2.9065669514238834e-03" rms="3.8629353046417236e-01" purity="3.6274290084838867e-01" nType="-99"/>
            <Node pos="r" depth="3" NCoef="0" IVar="-1" Cut="0.0000000000000000e+00" cType="1" res="2.2263107821345329e-02" rms="3.7968122959136963e-01" purity="3.3053427934646606e-01" nType="-99"/>
          </Node>
        </Node>
        <Node pos="r" depth="1" NCoef="0" IVar="4" Cut="1.1734248352050781e+02" cType="1" res="-1.8735457211732864e-02" rms="3.5818877816200256e-01" purity="3.3191230893135071e-01" nType="0">
          <Node pos="l" depth="2" NCoef="0" IVar="-1" Cut="0.0000000000000000e+00" cType="1" res="-2.3389697074890137e-02" rms="3.2939627766609192e-01" purity="1.7203921079635620e-01" nType="-99"/>
          <Node pos="r" depth="2" NCoef="0" IVar="-1" Cut="0.0000000000000000e+00" cType="1" res="-4.7238180413842201e-03" rms="3.8852307200431824e-01" purity="5.1663422584533691e-01" nType="-99"/>
        </Node>
      </Node>
    </BinaryTree>
    <BinaryTree type="DecisionTree" boostWeight="1.0000000000000000e+00" itree="246">
      <Node pos="s" depth="0" NCoef="0" IVar="9" Cut="2.2666602134704590e+00" cType="1" res="4.8992550000548363e-04" rms="3.8694110512733459e-01" purity="4.9857100844383240e-01" nType="0">
        <Node pos="l" depth="1" NCoef="0" IVar="7" Cut="1.7332985401153564e+00" cType="1" res="-2.1976287825964391e-04" rms="3.8736259937286377e-01" purity="5.0375550985336304e-01" nType="0">
          <Node pos="l" depth="2" NCoef="0" IVar="9" Cut="-8.6985838413238525e-01" cType="1" res="-1.2773846974596381e-03" rms="3.8925015926361084e-01" purity="5.1996392011642456e-01" nType="0">
            <Node pos="l" depth="3" NCoef="0" IVar="-1" Cut="0.0000000000000000e+00" cType="1" res="4.8111574724316597e-03" rms="3.9713618159294128e-01" purity="4.6474915742874146e-01" nType="-99"/>
            <Node pos="r" depth="3" NCoef="0" IVar="-1" Cut="0.0000000000000000e+00" cType="1" res="-2.8526526875793934e-03" rms="3.8637381792068481e-01" purity="5.3950667381286621e-01" nType="-99"/>
          </Node>
          <Node pos="r" depth="2" NCoef="0" IVar="8" Cut="4.0015587210655212e-01" cType="1" res="1.6972690820693970e-02" rms="3.5483303666114807e-01" purity="2.4027520418167114e-01" nType="0">
            <Node pos="l" depth="3" NCoef="0" IVar="-1" Cut="0.0000000000000000e+00" cType="1" res="-1.6022933414205909e-03" rms="3.4134069085121155e-01" purity="2.2465498745441437e-01" nType="-99"/>
            <Node pos="r" depth="3" NCoef="0" IVar="-1" Cut="0.0000000000000000e+00" cType="1" res="3.1316619366407394e-02" rms="3.6801826953887939e-01" purity="2.5751328468322754e-01" nType="-99"/>
          </Node>
        </Node>
        <Node pos="r" depth="1" NCoef="0" IVar="-1" Cut="0.0000000000000000e+00" cType="1" res="1.6015043482184410e-02" rms="3.7308347225189209e-01" purity="3.3907932043075562e-01" nType="-99"/>
      </Node>
    </BinaryTree>
    <BinaryTree type="DecisionTree" boostWeight="1.0000000000000000e+00" itree="247">
      <Node pos="s" depth="0" NCoef="0" IVar="2" Cut="6.2094464111328125e+02" cType="1" res="3.6229551769793034e-03" rms="3.8811907172203064e-01" purity="5.0183135271072388e-01" nType="0">
        <Node pos="l" depth="1" NCoef="0" IVar="5" Cut="1.1493266296386719e+02" cType="1" res="5.1175984553992748e-03" rms="3.8682043552398682e-01" purity="4.9769356846809387e-01" nType="0">
          <Node pos="l" depth="2" NCoef="0" IVar="6" Cut="1.5590362250804901e-01" cType="1" res="7.9935621470212936e-03" rms="3.9836451411247253e-01" purity="4.0940919518470764e-01" nType="0">
            <Node pos="l" depth="3" NCoef="0" IVar="-1" Cut="0.0000000000000000e+00" cType="1" res="6.8032729905098677e-04" rms="3.9838311076164246e-01" purity="4.2316728830337524e-01" nType="-99"/>
            <Node pos="r" depth="3" NCoef="0" IVar="-1" Cut="0.0000000000000000e+00" cType="1" res="1.0729225352406502e-02" rms="3.9817094802856445e-01" purity="3.9209038019180298e-01" nType="-99"/>
          </Node>
          <Node pos="r" depth="2" NCoef="0" IVar="9" Cut="9.3301391601562500e-01" cType="1" res="-4.2136665433645248e-03" rms="3.4656393527984619e-01" purity="7.8413826227188110e-01" nType="0">
            <Node pos="l" depth="3" NCoef="0" IVar="-1" Cut="0.0000000000000000e+00" cType="1" res="1.9581534434109926e-03" rms="3.3917459845542908e-01" purity="8.0534231662750244e-01" nType="-99"/>
            <Node pos="r" depth="3" NCoef="0" IVar="-1" Cut="0.0000000000000000e+00" cType="1" res="-2.4947207421064377e-02" rms="3.7776109576225281e-01" purity="6.8483316898345947e-01" nType="-99"/>
          </Node>
        </Node>
        <Node pos="r" depth="1" NCoef="0" IVar="3" Cut="3.2550106811523438e+02" cType="1" res="-1.7042078077793121e-02" rms="4.0508353710174561e-01" purity="5.5904108285903931e-01" nType="0">
          <Node pos="l" depth="2" NCoef="0" IVar="-1" Cut="0.0000000000000000e+00" cType="1" res="-1.6563259065151215e-02" rms="4.0281707048416138e-01" purity="5.0874841213226318e-01" nType="-99"/>
          <Node pos="r" depth="2" NCoef="0" IVar="-1" Cut="0.0000000000000000e+00" cType="1" res="-2.1547360811382532e-03" rms="4.0746191143989563e-01" purity="6.2112021446228027e-01" nType="-99"/>
        </Node>
      </Node>
    </BinaryTree>
    <BinaryTree type="DecisionTree" boostWeight="1.0000000000000000e+00" itree="248">
      <Node pos="s" depth="0" NCoef="0" IVar="8" Cut="1.7332036495208740e+00" cType="1" res="-4.9683445831760764e-04" rms="3.8705793023109436e-01" purity="4.9868857860565186e-01" nType="0">
        <Node pos="l" depth="1" NCoef="0" IVar="8" Cut="4.3801018595695496e-01" cType="1" res="5.9142522513866425e-04" rms="3.8905379176139832e-01" purity="5.1610988378524780e-01" nType="0">
          <Node pos="l" depth="2" NCoef="0" IVar="9" Cut="1.9999401569366455e+00" cType="1" res="-2.3718297015875578e-03" rms="3.8673993945121765e-01" purity="5.1296216249465942e-01" nType="0">
            <Node pos="l" depth="3" NCoef="0" IVar="-1" Cut="0.0000000000000000e+00" cType="1" res="-2.3593313526362181e-03" rms="3.8658604025840759e-01" purity="5.1817131042480469e-01" nType="-99"/>
            <Node pos="r" depth="3" NCoef="0" IVar="-1" Cut="0.0000000000000000e+00" cType="1" res="1.2488263659179211e-02" rms="3.8892993330955505e-01" purity="4.1693043708801270e-01" nType="-99"/>
          </Node>
          <Node pos="r" depth="2" NCoef="0" IVar="6" Cut="-3.9020085334777832e-01" cType="1" res="7.2252559475600719e-03" rms="3.9410385489463806e-01" purity="5.2315670251846313e-01" nType="0">
            <Node pos="l" depth="3" NCoef="0" IVar="-1" Cut="0.0000000000000000e+00" cType="1" res="1.8345296382904053e-02" rms="4.0198183059692383e-01" purity="4.8549437522888184e-01" nType="-99"/>
            <Node pos="r" depth="3" NCoef="0" IVar="-1" Cut="0.0000000000000000e+00" cType="1" res="-9.9323014728724957e-04" rms="3.9049375057220459e-01" purity="5.3857952356338501e-01" nType="-99"/>
          </Node>
        </Node>
        <Node pos="r" depth="1" NCoef="0" IVar="7" Cut="1.3338254392147064e-01" cType="1" res="-1.5468483790755272e-02" rms="3.5813796520233154e-01" purity="2.5901600718498230e-01" nType="0">
          <Node pos="l" depth="2" NCoef="0" IVar="-1" Cut="0.0000000000000000e+00" cType="1" res="-1.7905144486576319e-03" rms="3.7370479106903076e-01" purity="2.8859567642211914e-01" nType="-99"/>
          <Node pos="r" depth="2" NCoef="0" IVar="-1" Cut="0.0000000000000000e+00" cType="1" res="-2.1833587437868118e-02" rms="3.4162232279777527e-01" purity="2.2986166179180145e-01" nType="-99"/>
        </Node>
      </Node>
    </BinaryTree>
    <BinaryTree type="DecisionTree" boostWeight="1.0000000000000000e+00" itree="249">
      <Node pos="s" depth="0" NCoef="0" IVar="7" Cut="1.7333439588546753e+00" cType="1" res="-1.6780503792688251e-03" rms="3.8696107268333435e-01" purity="4.9547412991523743e-01" nType="0">
        <Node pos="l" depth="1" NCoef="0" IVar="8" Cut="-6.6666567325592041e-01" cType="1" res="-3.2703836914151907e-03" rms="3.8869595527648926e-01" purity="5.1063174009323120e-01" nType="0">
          <Node pos="l" depth="2" NCoef="0" IVar="6" Cut="-9.0369039773941040e-01" cType="1" res="5.6110918521881104e-03" rms="3.9122876524925232e-01" purity="4.5606940984725952e-01" nType="0">
            <Node pos="l" depth="3" NCoef="0" IVar="-1" Cut="0.0000000000000000e+00" cType="1" res="-9.8977629095315933e-03" rms="3.4762060642242432e-01" purity="2.6476690173149109e-01" nType="-99"/>
            <Node pos="r" depth="3" NCoef="0" IVar="-1" Cut="0.0000000000000000e+00" cType="1" res="6.6223205067217350e-03" rms="4.0198719501495361e-01" purity="5.0742828845977783e-01" nType="-99"/>
          </Node>
          <Node pos="r" depth="2" NCoef="0" IVar="9" Cut="4.0008312463760376e-01" cType="1" res="-6.9456836208701134e-03" rms="3.8758343458175659e-01" purity="5.3321051597595215e-01" nType="0">
            <Node pos="l" depth="3" NCoef="0" IVar="-1" Cut="0.0000000000000000e+00" cType="1" res="-8.4322998300194740e-03" rms="3.8808146119117737e-01" purity="5.4361355304718018e-01" nType="-99"/>
            <Node pos="r" depth="3" NCoef="0" IVar="-1" Cut="0.0000000000000000e+00" cType="1" res="1.6399421729147434e-03" rms="3.8661992549896240e-01" purity="5.1707440614700317e-01" nType="-99"/>
          </Node>
        </Node>
        <Node pos="r" depth="1" NCoef="0" IVar="6" Cut="-6.9658517837524414e-02" cType="1" res="2.3423854261636734e-02" rms="3.5756871104240417e-01" purity="2.5652638077735901e-01" nType="0">
          <Node pos="l" depth="2" NCoef="0" IVar="-1" Cut="0.0000000000000000e+00" cType="1" res="-7.2875265032052994e-03" rms="3.3310398459434509e-01" purity="2.0304816961288452e-01" nType="-99"/>
          <Node pos="r" depth="2" NCoef="0" IVar="-1" Cut="0.0000000000000000e+00" cType="1" res="3.7500467151403427e-02" rms="3.7358209490776062e-01" purity="2.9811334609985352e-01" nType="-99"/>
        </Node>
      </Node>
    </BinaryTree>
    <BinaryTree type="DecisionTree" boostWeight="1.0000000000000000e+00" itree="250">
      <Node pos="s" depth="0" NCoef="0" IVar="7" Cut="-1.3331924378871918e-01" cType="1" res="6.3337145547848195e-05" rms="3.8438558578491211e-01" purity="4.9997100234031677e-01" nType="0">
        <Node pos="l" depth="1" NCoef="0" IVar="7" Cut="-1.0222026109695435e+00" cType="1" res="4.5004705898463726e-03" rms="3.8313102722167969e-01" purity="4.9372130632400513e-01" nType="0">
          <Node pos="l" depth="2" NCoef="0" IVar="8" Cut="-9.3267613649368286e-01" cType="1" res="-6.1236806213855743e-03" rms="3.6407259106636047e-01" purity="3.4347838163375854e-01" nType="0">
            <Node pos="l" depth="3" NCoef="0" IVar="-1" Cut="0.0000000000000000e+00" cType="1" res="-2.3217609152197838e-02" rms="3.3299672603607178e-01" purity="2.5202056765556335e-01" nType="-99"/>
            <Node pos="r" depth="3" NCoef="0" IVar="-1" Cut="0.0000000000000000e+00" cType="1" res="2.3584610316902399e-03" rms="3.7524065375328064e-01" purity="3.7969726324081421e-01" nType="-99"/>
          </Node>
          <Node pos="r" depth="2" NCoef="0" IVar="7" Cut="-8.5289049148559570e-01" cType="1" res="1.0983984917402267e-02" rms="3.9416867494583130e-01" purity="5.8540886640548706e-01" nType="0">
            <Node pos="l" depth="3" NCoef="0" IVar="-1" Cut="0.0000000000000000e+00" cType="1" res="2.4335836991667747e-02" rms="4.0188273787498474e-01" purity="5.6161385774612427e-01" nType="-99"/>
            <Node pos="r" depth="3" NCoef="0" IVar="-1" Cut="0.0000000000000000e+00" cType="1" res="3.8094741757959127e-03" rms="3.9256691932678223e-01" purity="5.8964425325393677e-01" nType="-99"/>
          </Node>
        </Node>
        <Node pos="r" depth="1" NCoef="0" IVar="6" Cut="1.2098968029022217e+00" cType="1" res="-3.6123651079833508e-03" rms="3.8538306951522827e-01" purity="5.0514811277389526e-01" nType="0">
          <Node pos="l" depth="2" NCoef="0" IVar="8" Cut="1.7332061529159546e+00" cType="1" res="-1.5190812991932034e-03" rms="3.9187481999397278e-01" purity="5.3725653886795044e-01" nType="0">
            <Node pos="l" depth="3" NCoef="0" IVar="-1" Cut="0.0000000000000000e+00" cType="1" res="-1.9292386714369059e-03" rms="3.9169225096702576e-01" purity="5.5274748802185059e-01" nType="-99"/>
            <Node pos="r" depth="3" NCoef="0" IVar="-1" Cut="0.0000000000000000e+00" cType="1" res="1.1852171272039413e-02" rms="3.9370909333229065e-01" purity="3.3927232027053833e-01" nType="-99"/>
          </Node>
          <Node pos="r" depth="2" NCoef="0" IVar="6" Cut="1.6641511917114258e+00" cType="1" res="-1.9785510376095772e-02" rms="3.3051505684852600e-01" purity="2.5707229971885681e-01" nType="0">
            <Node pos="l" depth="3" NCoef="0" IVar="-1" Cut="0.0000000000000000e+00" cType="1" res="-2.5002956390380859e-02" rms="3.3685985207557678e-01" purity="3.1213584542274475e-01" nType="-99"/>
            <Node pos="r" depth="3" NCoef="0" IVar="-1" Cut="0.0000000000000000e+00" cType="1" res="3.3313524909317493e-03" rms="3.1985950469970703e-01" purity="1.7884138226509094e-01" nType="-99"/>
          </Node>
        </Node>
      </Node>
    </BinaryTree>
    <BinaryTree type="DecisionTree" boostWeight="1.0000000000000000e+00" itree="251">
      <Node pos="s" depth="0" NCoef="0" IVar="7" Cut="-1.7332022190093994e+00" cType="1" res="2.6115132495760918e-03" rms="3.8766974210739136e-01" purity="5.0118404626846313e-01" nType="0">
        <Node pos="l" depth="1" NCoef="0" IVar="6" Cut="-8.7886132299900055e-02" cType="1" res="1.8479224294424057e-02" rms="3.4960007667541504e-01" purity="2.2240389883518219e-01" nType="0">
          <Node pos="l" depth="2" NCoef="0" IVar="-1" Cut="0.0000000000000000e+00" cType="1" res="3.0160903930664062e-02" rms="3.5919937491416931e-01" purity="2.5082141160964966e-01" nType="-99"/>
          <Node pos="r" depth="2" NCoef="0" IVar="-1" Cut="0.0000000000000000e+00" cType="1" res="1.9685430452227592e-03" rms="3.3928966522216797e-01" purity="1.9498093426227570e-01" nType="-99"/>
        </Node>
        <Node pos="r" depth="1" NCoef="0" IVar="7" Cut="-6.5385156869888306e-01" cType="1" res="1.6216774238273501e-03" rms="3.8990002870559692e-01" purity="5.1857453584671021e-01" nType="0">
          <Node pos="l" depth="2" NCoef="0" IVar="1" Cut="1.1048721923828125e+03" cType="1" res="-8.3679063245654106e-03" rms="3.8933813571929932e-01" purity="4.6343919634819031e-01" nType="0">
            <Node pos="l" depth="3" NCoef="0" IVar="-1" Cut="0.0000000000000000e+00" cType="1" res="-2.2235138341784477e-02" rms="3.5854619741439819e-01" purity="1.9044734537601471e-01" nType="-99"/>
            <Node pos="r" depth="3" NCoef="0" IVar="-1" Cut="0.0000000000000000e+00" cType="1" res="1.8599467584863305e-03" rms="4.0271523594856262e-01" purity="5.9380453824996948e-01" nType="-99"/>
          </Node>
          <Node pos="r" depth="2" NCoef="0" IVar="8" Cut="-9.3329566717147827e-01" cType="1" res="4.4801533222198486e-03" rms="3.9001357555389404e-01" purity="5.3435122966766357e-01" nType="0">
            <Node pos="l" depth="3" NCoef="0" IVar="-1" Cut="0.0000000000000000e+00" cType="1" res="9.6275024116039276e-03" rms="3.8953271508216858e-01" purity="4.5684060454368591e-01" nType="-99"/>
            <Node pos="r" depth="3" NCoef="0" IVar="-1" Cut="0.0000000000000000e+00" cType="1" res="1.2544776545837522e-03" rms="3.9008733630180359e-01" purity="5.5324894189834595e-01" nType="-99"/>
          </Node>
        </Node>
      </Node>
    </BinaryTree>
    <BinaryTree type="DecisionTree" boostWeight="1.0000000000000000e+00" itree="252">
      <Node pos="s" depth="0" NCoef="0" IVar="9" Cut="6.6669881343841553e-01" cType="1" res="-2.7848472818732262e-03" rms="3.8706982135772705e-01" purity="4.9667316675186157e-01" nType="0">
        <Node pos="l" depth="1" NCoef="0" IVar="6" Cut="1.7427111864089966e+00" cType="1" res="-7.2787497192621231e-03" rms="3.8902944326400757e-01" purity="5.0721192359924316e-01" nType="0">
          <Node pos="l" depth="2" NCoef="0" IVar="9" Cut="-6.5390229225158691e-01" cType="1" res="-8.7473727762699127e-03" rms="3.9071401953697205e-01" purity="5.1771974563598633e-01" nType="0">
            <Node pos="l" depth="3" NCoef="0" IVar="-1" Cut="0.0000000000000000e+00" cType="1" res="-1.1542971478775144e-03" rms="3.9266994595527649e-01" purity="4.7080805897712708e-01" nType="-99"/>
            <Node pos="r" depth="3" NCoef="0" IVar="-1" Cut="0.0000000000000000e+00" cType="1" res="-9.3369511887431145e-03" rms="3.8907340168952942e-01" purity="5.5477553606033325e-01" nType="-99"/>
          </Node>
          <Node pos="r" depth="2" NCoef="0" IVar="-1" Cut="0.0000000000000000e+00" cType="1" res="2.8740266337990761e-02" rms="3.3997106552124023e-01" purity="2.3329398036003113e-01" nType="-99"/>
        </Node>
        <Node pos="r" depth="1" NCoef="0" IVar="6" Cut="1.4765052795410156e+00" cType="1" res="7.2300322353839874e-03" rms="3.8247671723365784e-01" purity="4.7318699955940247e-01" nType="0">
          <Node pos="l" depth="2" NCoef="0" IVar="8" Cut="9.3325066566467285e-01" cType="1" res="1.0026698932051659e-02" rms="3.9056405425071716e-01" purity="5.0278675556182861e-01" nType="0">
            <Node pos="l" depth="3" NCoef="0" IVar="-1" Cut="0.0000000000000000e+00" cType="1" res="9.0523129329085350e-03" rms="3.9476436376571655e-01" purity="5.4324853420257568e-01" nType="-99"/>
            <Node pos="r" depth="3" NCoef="0" IVar="-1" Cut="0.0000000000000000e+00" cType="1" res="-2.4212265852838755e-03" rms="3.7629008293151855e-01" purity="3.7154173851013184e-01" nType="-99"/>
          </Node>
          <Node pos="r" depth="2" NCoef="0" IVar="-1" Cut="0.0000000000000000e+00" cType="1" res="-2.3483788594603539e-02" rms="2.7771750092506409e-01" purity="1.5054063498973846e-01" nType="-99"/>
        </Node>
      </Node>
    </BinaryTree>
    <BinaryTree type="DecisionTree" boostWeight="1.0000000000000000e+00" itree="253">
      <Node pos="s" depth="0" NCoef="0" IVar="6" Cut="-1.7193667888641357e+00" cType="1" res="2.8187877032905817e-03" rms="3.8678646087646484e-01" purity="5.0203037261962891e-01" nType="0">
        <Node pos="l" depth="1" NCoef="0" IVar="-1" Cut="0.0000000000000000e+00" cType="1" res="-2.0115697756409645e-02" rms="2.8926780819892883e-01" purity="1.4667226374149323e-01" nType="-99"/>
        <Node pos="r" depth="1" NCoef="0" IVar="9" Cut="9.3336075544357300e-01" cType="1" res="3.7157353945076466e-03" rms="3.9011499285697937e-01" purity="5.1608288288116455e-01" nType="0">
          <Node pos="l" depth="2" NCoef="0" IVar="4" Cut="1.9830270385742188e+02" cType="1" res="1.2417081743478775e-03" rms="3.9014500379562378e-01" purity="5.3245419263839722e-01" nType="0">
            <Node pos="l" depth="3" NCoef="0" IVar="-1" Cut="0.0000000000000000e+00" cType="1" res="1.9813096150755882e-03" rms="3.9991590380668640e-01" purity="4.7658610343933105e-01" nType="-99"/>
            <Node pos="r" depth="3" NCoef="0" IVar="-1" Cut="0.0000000000000000e+00" cType="1" res="-6.9758836179971695e-03" rms="3.3916062116622925e-01" purity="8.0078357458114624e-01" nType="-99"/>
          </Node>
          <Node pos="r" depth="2" NCoef="0" IVar="8" Cut="-1.3336499035358429e-01" cType="1" res="1.1637613177299500e-02" rms="3.8991332054138184e-01" purity="4.6366149187088013e-01" nType="0">
            <Node pos="l" depth="3" NCoef="0" IVar="-1" Cut="0.0000000000000000e+00" cType="1" res="5.1122816512361169e-04" rms="3.9194908738136292e-01" purity="4.7175309062004089e-01" nType="-99"/>
            <Node pos="r" depth="3" NCoef="0" IVar="-1" Cut="0.0000000000000000e+00" cType="1" res="1.2281455099582672e-02" rms="3.8843804597854614e-01" purity="4.5845565199851990e-01" nType="-99"/>
          </Node>
        </Node>
      </Node>
    </BinaryTree>
    <BinaryTree type="DecisionTree" boostWeight="1.0000000000000000e+00" itree="254">
      <Node pos="s" depth="0" NCoef="0" IVar="9" Cut="6.6665911674499512e-01" cType="1" res="1.2574834981933236e-03" rms="3.8826563954353333e-01" purity="5.0111544132232666e-01" nType="0">
        <Node pos="l" depth="1" NCoef="0" IVar="8" Cut="1.4665498733520508e+00" cType="1" res="3.9646741934120655e-03" rms="3.9010676741600037e-01" purity="5.1845079660415649e-01" nType="0">
          <Node pos="l" depth="2" NCoef="0" IVar="8" Cut="6.5378975868225098e-01" cType="1" res="5.9257042594254017e-03" rms="3.9052161574363708e-01" purity="5.3671544790267944e-01" nType="0">
            <Node pos="l" depth="3" NCoef="0" IVar="-1" Cut="0.0000000000000000e+00" cType="1" res="2.0508919842541218e-03" rms="3.8680088520050049e-01" purity="5.3690558671951294e-01" nType="-99"/>
            <Node pos="r" depth="3" NCoef="0" IVar="-1" Cut="0.0000000000000000e+00" cType="1" res="1.1295776814222336e-02" rms="4.0559667348861694e-01" purity="5.3591513633728027e-01" nType="-99"/>
          </Node>
          <Node pos="r" depth="2" NCoef="0" IVar="8" Cut="1.9745066165924072e+00" cType="1" res="-1.5871100127696991e-02" rms="3.8532474637031555e-01" purity="3.3370387554168701e-01" nType="0">
            <Node pos="l" depth="3" NCoef="0" IVar="-1" Cut="0.0000000000000000e+00" cType="1" res="-1.9743438810110092e-02" rms="3.9499205350875854e-01" purity="3.7165534496307373e-01" nType="-99"/>
            <Node pos="r" depth="3" NCoef="0" IVar="-1" Cut="0.0000000000000000e+00" cType="1" res="2.7735368348658085e-03" rms="3.7133777141571045e-01" purity="2.8389665484428406e-01" nType="-99"/>
          </Node>
        </Node>
        <Node pos="r" depth="1" NCoef="0" IVar="7" Cut="-6.6665017604827881e-01" cType="1" res="-5.2003287710249424e-03" rms="3.8376098871231079e-01" purity="4.5976346731185913e-01" nType="0">
          <Node pos="l" depth="2" NCoef="0" IVar="7" Cut="-1.0729565620422363e+00" cType="1" res="1.0634330101311207e-02" rms="3.7008041143417358e-01" purity="4.0639698505401611e-01" nType="0">
            <Node pos="l" depth="3" NCoef="0" IVar="-1" Cut="0.0000000000000000e+00" cType="1" res="-1.3585004024207592e-02" rms="3.4275975823402405e-01" purity="2.7382922172546387e-01" nType="-99"/>
            <Node pos="r" depth="3" NCoef="0" IVar="-1" Cut="0.0000000000000000e+00" cType="1" res="2.7765301987528801e-02" rms="3.9866587519645691e-01" purity="5.7091140747070312e-01" nType="-99"/>
          </Node>
          <Node pos="r" depth="2" NCoef="0" IVar="8" Cut="1.4662052392959595e+00" cType="1" res="-1.0009215213358402e-02" rms="3.8769215345382690e-01" purity="4.7597050666809082e-01" nType="0">
            <Node pos="l" depth="3" NCoef="0" IVar="-1" Cut="0.0000000000000000e+00" cType="1" res="-8.7100444361567497e-03" rms="3.9157861471176147e-01" purity="5.0230360031127930e-01" nType="-99"/>
            <Node pos="r" depth="3" NCoef="0" IVar="-1" Cut="0.0000000000000000e+00" cType="1" res="8.8843172416090965e-03" rms="3.6184659600257874e-01" purity="3.1237238645553589e-01" nType="-99"/>
          </Node>
        </Node>
      </Node>
    </BinaryTree>
    <BinaryTree type="DecisionTree" boostWeight="1.0000000000000000e+00" itree="255">
      <Node pos="s" depth="0" NCoef="0" IVar="8" Cut="3.9997670054435730e-01" cType="1" res="6.8433961132541299e-04" rms="3.8727876543998718e-01" purity="5.0265842676162720e-01" nType="0">
        <Node pos="l" depth="1" NCoef="0" IVar="7" Cut="1.4667100906372070e+00" cType="1" res="5.6483955122530460e-03" rms="3.8954043388366699e-01" purity="5.2421164512634277e-01" nType="0">
          <Node pos="l" depth="2" NCoef="0" IVar="7" Cut="4.4476032257080078e-02" cType="1" res="7.2042583487927914e-03" rms="3.9183884859085083e-01" purity="5.4581248760223389e-01" nType="0">
            <Node pos="l" depth="3" NCoef="0" IVar="-1" Cut="0.0000000000000000e+00" cType="1" res="9.6641614800319076e-04" rms="3.8907825946807861e-01" purity="5.1786458492279053e-01" nType="-99"/>
            <Node pos="r" depth="3" NCoef="0" IVar="-1" Cut="0.0000000000000000e+00" cType="1" res="9.9620269611477852e-03" rms="3.9560359716415405e-01" purity="5.8572655916213989e-01" nType="-99"/>
          </Node>
          <Node pos="r" depth="2" NCoef="0" IVar="-1" Cut="0.0000000000000000e+00" cType="1" res="-9.8356548696756363e-03" rms="3.5985732078552246e-01" purity="2.6133176684379578e-01" nType="-99"/>
        </Node>
        <Node pos="r" depth="1" NCoef="0" IVar="6" Cut="-1.1880480051040649e+00" cType="1" res="-8.0991126596927643e-03" rms="3.8308668136596680e-01" purity="4.6452182531356812e-01" nType="0">
          <Node pos="l" depth="2" NCoef="0" IVar="-1" Cut="0.0000000000000000e+00" cType="1" res="-2.8548305854201317e-02" rms="3.1769856810569763e-01" purity="2.0876583456993103e-01" nType="-99"/>
          <Node pos="r" depth="2" NCoef="0" IVar="1" Cut="1.6601060791015625e+03" cType="1" res="-5.3090830333530903e-03" rms="3.8939917087554932e-01" purity="4.9218359589576721e-01" nType="0">
            <Node pos="l" depth="3" NCoef="0" IVar="-1" Cut="0.0000000000000000e+00" cType="1" res="-1.0089328279718757e-03" rms="3.9811056852340698e-01" purity="4.3555089831352234e-01" nType="-99"/>
            <Node pos="r" depth="3" NCoef="0" IVar="-1" Cut="0.0000000000000000e+00" cType="1" res="-1.9639300182461739e-02" rms="3.4211286902427673e-01" purity="7.7438151836395264e-01" nType="-99"/>
          </Node>
        </Node>
      </Node>
    </BinaryTree>
    <BinaryTree type="DecisionTree" boostWeight="1.0000000000000000e+00" itree="256">
      <Node pos="s" depth="0" NCoef="0" IVar="4" Cut="9.9504882812500000e+01" cType="1" res="-1.5397478127852082e-03" rms="3.8829505443572998e-01" purity="4.9813893437385559e-01" nType="0">
        <Node pos="l" depth="1" NCoef="0" IVar="8" Cut="-1.7333256006240845e+00" cType="1" res="9.1144908219575882e-03" rms="3.7688019871711731e-01" purity="2.5545591115951538e-01" nType="0">
          <Node pos="l" depth="2" NCoef="0" IVar="-1" Cut="0.0000000000000000e+00" cType="1" res="4.0767274796962738e-02" rms="3.6675861477851868e-01" purity="2.2704452276229858e-01" nType="-99"/>
          <Node pos="r" depth="2" NCoef="0" IVar="4" Cut="6.4207252502441406e+01" cType="1" res="4.3953303247690201e-03" rms="3.7782669067382812e-01" purity="2.5892487168312073e-01" nType="0">
            <Node pos="l" depth="3" NCoef="0" IVar="-1" Cut="0.0000000000000000e+00" cType="1" res="-2.7456557378172874e-02" rms="2.9385000467300415e-01" purity="1.0693514347076416e-01" nType="-99"/>
            <Node pos="r" depth="3" NCoef="0" IVar="-1" Cut="0.0000000000000000e+00" cType="1" res="6.4692203886806965e-03" rms="3.9022183418273926e-01" purity="2.8511732816696167e-01" nType="-99"/>
          </Node>
        </Node>
        <Node pos="r" depth="1" NCoef="0" IVar="7" Cut="-6.6664755344390869e-01" cType="1" res="-6.4556309953331947e-03" rms="3.9335298538208008e-01" purity="6.1011326313018799e-01" nType="0">
          <Node pos="l" depth="2" NCoef="0" IVar="7" Cut="-1.3777453899383545e+00" cType="1" res="-2.2056283429265022e-02" rms="3.9771208167076111e-01" purity="5.0945460796356201e-01" nType="0">
            <Node pos="l" depth="3" NCoef="0" IVar="-1" Cut="0.0000000000000000e+00" cType="1" res="-4.4226953759789467e-03" rms="3.9077711105346680e-01" purity="3.6459571123123169e-01" nType="-99"/>
            <Node pos="r" depth="3" NCoef="0" IVar="-1" Cut="0.0000000000000000e+00" cType="1" res="-1.8534360453486443e-02" rms="4.0116941928863525e-01" purity="5.8765989542007446e-01" nType="-99"/>
          </Node>
          <Node pos="r" depth="2" NCoef="0" IVar="9" Cut="9.3333643674850464e-01" cType="1" res="-1.3553728349506855e-03" rms="3.9178267121315002e-01" purity="6.4302122592926025e-01" nType="0">
            <Node pos="l" depth="3" NCoef="0" IVar="-1" Cut="0.0000000000000000e+00" cType="1" res="1.6116340411826968e-03" rms="3.9022558927536011e-01" purity="6.6574007272720337e-01" nType="-99"/>
            <Node pos="r" depth="3" NCoef="0" IVar="-1" Cut="0.0000000000000000e+00" cType="1" res="-8.9415963739156723e-03" rms="3.9679008722305298e-01" purity="5.6527519226074219e-01" nType="-99"/>
          </Node>
        </Node>
      </Node>
    </BinaryTree>
    <BinaryTree type="DecisionTree" boostWeight="1.0000000000000000e+00" itree="257">
      <Node pos="s" depth="0" NCoef="0" IVar="8" Cut="1.1999695301055908e+00" cType="1" res="-9.2635845066979527e-04" rms="3.8709560036659241e-01" purity="4.9797743558883667e-01" nType="0">
        <Node pos="l" depth="1" NCoef="0" IVar="8" Cut="-5.1428925991058350e-01" cType="1" res="1.0134557960554957e-03" rms="3.8973009586334229e-01" purity="5.2528369426727295e-01" nType="0">
          <Node pos="l" depth="2" NCoef="0" IVar="1" Cut="1.3775715332031250e+03" cType="1" res="-5.3931246511638165e-03" rms="3.8903167843818665e-01" purity="4.4835859537124634e-01" nType="0">
            <Node pos="l" depth="3" NCoef="0" IVar="-1" Cut="0.0000000000000000e+00" cType="1" res="1.2032265076413751e-03" rms="3.9572447538375854e-01" purity="3.2971692085266113e-01" nType="-99"/>
            <Node pos="r" depth="3" NCoef="0" IVar="-1" Cut="0.0000000000000000e+00" cType="1" res="-1.3647072017192841e-02" rms="3.7524977326393127e-01" purity="6.7943483591079712e-01" nType="-99"/>
          </Node>
          <Node pos="r" depth="2" NCoef="0" IVar="6" Cut="-1.1876567602157593e+00" cType="1" res="5.0329151563346386e-03" rms="3.9011391997337341e-01" purity="5.7354617118835449e-01" nType="0">
            <Node pos="l" depth="3" NCoef="0" IVar="-1" Cut="0.0000000000000000e+00" cType="1" res="2.0703002810478210e-02" rms="3.8560235500335693e-01" purity="3.6915856599807739e-01" nType="-99"/>
            <Node pos="r" depth="3" NCoef="0" IVar="-1" Cut="0.0000000000000000e+00" cType="1" res="1.6364540206268430e-03" rms="3.9048320055007935e-01" purity="5.9436970949172974e-01" nType="-99"/>
          </Node>
        </Node>
        <Node pos="r" depth="1" NCoef="0" IVar="1" Cut="1.0501972656250000e+03" cType="1" res="-1.1766250245273113e-02" rms="3.7184420228004456e-01" purity="3.4538716077804565e-01" nType="0">
          <Node pos="l" depth="2" NCoef="0" IVar="-1" Cut="0.0000000000000000e+00" cType="1" res="-3.3633992075920105e-02" rms="2.9189500212669373e-01" purity="1.0998817533254623e-01" nType="-99"/>
          <Node pos="r" depth="2" NCoef="0" IVar="4" Cut="1.1704338836669922e+02" cType="1" res="-1.0011845733970404e-03" rms="4.0135729312896729e-01" purity="4.4830501079559326e-01" nType="0">
            <Node pos="l" depth="3" NCoef="0" IVar="-1" Cut="0.0000000000000000e+00" cType="1" res="1.8733808770775795e-02" rms="3.9646479487419128e-01" purity="3.3612084388732910e-01" nType="-99"/>
            <Node pos="r" depth="3" NCoef="0" IVar="-1" Cut="0.0000000000000000e+00" cType="1" res="-1.2670332565903664e-02" rms="4.0332096815109253e-01" purity="5.2253389358520508e-01" nType="-99"/>
          </Node>
        </Node>
      </Node>
    </BinaryTree>
    <BinaryTree type="DecisionTree" boostWeight="1.0000000000000000e+00" itree="258">
      <Node pos="s" depth="0" NCoef="0" IVar="6" Cut="1.2099982500076294e+00" cType="1" res="3.1510146800428629e-04" rms="3.8453847169876099e-01" purity="5.0327140092849731e-01" nType="0">
        <Node pos="l" depth="1" NCoef="0" IVar="6" Cut="-1.6291642189025879e+00" cType="1" res="2.3288470692932606e-03" rms="3.9017632603645325e-01" purity="5.3320318460464478e-01" nType="0">
          <Node pos="l" depth="2" NCoef="0" IVar="-1" Cut="0.0000000000000000e+00" cType="1" res="-2.7165263891220093e-02" rms="2.9611399769783020e-01" purity="1.4510649442672729e-01" nType="-99"/>
          <Node pos="r" depth="2" NCoef="0" IVar="7" Cut="-6.6664117574691772e-01" cType="1" res="3.9612101390957832e-03" rms="3.9460146427154541e-01" purity="5.5439060926437378e-01" nType="0">
            <Node pos="l" depth="3" NCoef="0" IVar="-1" Cut="0.0000000000000000e+00" cType="1" res="7.9596182331442833e-03" rms="3.9456099271774292e-01" purity="4.7630754113197327e-01" nType="-99"/>
            <Node pos="r" depth="3" NCoef="0" IVar="-1" Cut="0.0000000000000000e+00" cType="1" res="5.2636518375948071e-04" rms="3.9456915855407715e-01" purity="5.8258080482482910e-01" nType="-99"/>
          </Node>
        </Node>
        <Node pos="r" depth="1" NCoef="0" IVar="8" Cut="-6.6660022735595703e-01" cType="1" res="-1.6937848180532455e-02" rms="3.3183792233467102e-01" purity="2.4682769179344177e-01" nType="0">
          <Node pos="l" depth="2" NCoef="0" IVar="-1" Cut="0.0000000000000000e+00" cType="1" res="-4.1710168123245239e-02" rms="2.9349046945571899e-01" purity="1.4855885505676270e-01" nType="-99"/>
          <Node pos="r" depth="2" NCoef="0" IVar="8" Cut="8.1900703907012939e-01" cType="1" res="-8.2603050395846367e-03" rms="3.4290140867233276e-01" purity="2.7867960929870605e-01" nType="0">
            <Node pos="l" depth="3" NCoef="0" IVar="-1" Cut="0.0000000000000000e+00" cType="1" res="6.5992944873869419e-03" rms="3.6971893906593323e-01" purity="3.6972883343696594e-01" nType="-99"/>
            <Node pos="r" depth="3" NCoef="0" IVar="-1" Cut="0.0000000000000000e+00" cType="1" res="-3.2698478549718857e-02" rms="2.9784664511680603e-01" purity="1.4660184085369110e-01" nType="-99"/>
          </Node>
        </Node>
      </Node>
    </BinaryTree>
    <BinaryTree type="DecisionTree" boostWeight="1.0000000000000000e+00" itree="259">
      <Node pos="s" depth="0" NCoef="0" IVar="9" Cut="1.1999735832214355e+00" cType="1" res="5.4097203537821770e-03" rms="3.8782703876495361e-01" purity="5.0547516345977783e-01" nType="0">
        <Node pos="l" depth="1" NCoef="0" IVar="3" Cut="3.2422052001953125e+02" cType="1" res="8.2128550857305527e-03" rms="3.8946869969367981e-01" purity="5.2378654479980469e-01" nType="0">
          <Node pos="l" depth="2" NCoef="0" IVar="4" Cut="1.2827798461914062e+02" cType="1" res="1.0424517095088959e-02" rms="3.9111617207527161e-01" purity="5.0084084272384644e-01" nType="0">
            <Node pos="l" depth="3" NCoef="0" IVar="-1" Cut="0.0000000000000000e+00" cType="1" res="3.4007912036031485e-03" rms="3.9583739638328552e-01" purity="3.3601024746894836e-01" nType="-99"/>
            <Node pos="r" depth="3" NCoef="0" IVar="-1" Cut="0.0000000000000000e+00" cType="1" res="1.1005303822457790e-02" rms="3.8543465733528137e-01" purity="6.9366282224655151e-01" nType="-99"/>
          </Node>
          <Node pos="r" depth="2" NCoef="0" IVar="6" Cut="1.4477570354938507e-01" cType="1" res="-8.1720612943172455e-03" rms="3.7663498520851135e-01" purity="6.9377821683883667e-01" nType="0">
            <Node pos="l" depth="3" NCoef="0" IVar="-1" Cut="0.0000000000000000e+00" cType="1" res="6.0552163049578667e-03" rms="3.7537166476249695e-01" purity="7.1809589862823486e-01" nType="-99"/>
            <Node pos="r" depth="3" NCoef="0" IVar="-1" Cut="0.0000000000000000e+00" cType="1" res="-2.3706763982772827e-02" rms="3.7713071703910828e-01" purity="6.5780323743820190e-01" nType="-99"/>
          </Node>
        </Node>
        <Node pos="r" depth="1" NCoef="0" IVar="9" Cut="2.3428132534027100e+00" cType="1" res="-8.2307793200016022e-03" rms="3.7944176793098450e-01" purity="4.1636893153190613e-01" nType="0">
          <Node pos="l" depth="2" NCoef="0" IVar="9" Cut="2.0162701606750488e+00" cType="1" res="-1.3610028661787510e-02" rms="3.8109266757965088e-01" purity="4.3088093400001526e-01" nType="0">
            <Node pos="l" depth="3" NCoef="0" IVar="-1" Cut="0.0000000000000000e+00" cType="1" res="-5.6108767166733742e-03" rms="3.8108870387077332e-01" purity="4.5166698098182678e-01" nType="-99"/>
            <Node pos="r" depth="3" NCoef="0" IVar="-1" Cut="0.0000000000000000e+00" cType="1" res="-2.4595206603407860e-02" rms="3.8023820519447327e-01" purity="3.3433216810226440e-01" nType="-99"/>
          </Node>
          <Node pos="r" depth="2" NCoef="0" IVar="-1" Cut="0.0000000000000000e+00" cType="1" res="1.6650497913360596e-02" rms="3.6833643913269043e-01" purity="3.3326894044876099e-01" nType="-99"/>
        </Node>
      </Node>
    </BinaryTree>
    <BinaryTree type="DecisionTree" boostWeight="1.0000000000000000e+00" itree="260">
      <Node pos="s" depth="0" NCoef="0" IVar="8" Cut="-1.4666672945022583e+00" cType="1" res="3.2478324137628078e-03" rms="3.8819783926010132e-01" purity="5.0633209943771362e-01" nType="0">
        <Node pos="l" depth="1" NCoef="0" IVar="7" Cut="6.6605675220489502e-01" cType="1" res="1.7010895535349846e-02" rms="3.8767233490943909e-01" purity="3.2973134517669678e-01" nType="0">
          <Node pos="l" depth="2" NCoef="0" IVar="8" Cut="-1.8476246595382690e+00" cType="1" res="3.4895250573754311e-03" rms="3.8893252611160278e-01" purity="3.3851429820060730e-01" nType="0">
            <Node pos="l" depth="3" NCoef="0" IVar="-1" Cut="0.0000000000000000e+00" cType="1" res="-1.2011361308395863e-02" rms="3.6418446898460388e-01" purity="2.6530897617340088e-01" nType="-99"/>
            <Node pos="r" depth="3" NCoef="0" IVar="-1" Cut="0.0000000000000000e+00" cType="1" res="1.6022164374589920e-02" rms="4.1364002227783203e-01" purity="4.2017838358879089e-01" nType="-99"/>
          </Node>
          <Node pos="r" depth="2" NCoef="0" IVar="-1" Cut="0.0000000000000000e+00" cType="1" res="4.2285270988941193e-02" rms="3.8150840997695923e-01" purity="3.0491578578948975e-01" nType="-99"/>
        </Node>
        <Node pos="r" depth="1" NCoef="0" IVar="6" Cut="-1.6871957778930664e+00" cType="1" res="1.6201647231355309e-03" rms="3.8822767138481140e-01" purity="5.2721750736236572e-01" nType="0">
          <Node pos="l" depth="2" NCoef="0" IVar="-1" Cut="0.0000000000000000e+00" cType="1" res="2.8652651235461235e-02" rms="3.3758950233459473e-01" purity="2.1356353163719177e-01" nType="-99"/>
          <Node pos="r" depth="2" NCoef="0" IVar="8" Cut="2.1903648376464844e+00" cType="1" res="4.0199368959292769e-04" rms="3.9022049307823181e-01" purity="5.4076200723648071e-01" nType="0">
            <Node pos="l" depth="3" NCoef="0" IVar="-1" Cut="0.0000000000000000e+00" cType="1" res="-3.2529167947359383e-04" rms="3.9060965180397034e-01" purity="5.4996788501739502e-01" nType="-99"/>
            <Node pos="r" depth="3" NCoef="0" IVar="-1" Cut="0.0000000000000000e+00" cType="1" res="2.3091407492756844e-02" rms="3.7664702534675598e-01" purity="2.5071859359741211e-01" nType="-99"/>
          </Node>
        </Node>
      </Node>
    </BinaryTree>
    <BinaryTree type="DecisionTree" boostWeight="1.0000000000000000e+00" itree="261">
      <Node pos="s" depth="0" NCoef="0" IVar="9" Cut="-1.9999724626541138e+00" cType="1" res="-3.6970959044992924e-03" rms="3.8596966862678528e-01" purity="4.9706527590751648e-01" nType="0">
        <Node pos="l" depth="1" NCoef="0" IVar="7" Cut="-3.9986318349838257e-01" cType="1" res="1.6968501731753349e-02" rms="3.8832297921180725e-01" purity="3.5963097214698792e-01" nType="0">
          <Node pos="l" depth="2" NCoef="0" IVar="-1" Cut="0.0000000000000000e+00" cType="1" res="3.3261645585298538e-02" rms="3.8849443197250366e-01" purity="3.6463174223899841e-01" nType="-99"/>
          <Node pos="r" depth="2" NCoef="0" IVar="-1" Cut="0.0000000000000000e+00" cType="1" res="-4.6847467310726643e-03" rms="3.8655036687850952e-01" purity="3.5547360777854919e-01" nType="-99"/>
        </Node>
        <Node pos="r" depth="1" NCoef="0" IVar="5" Cut="1.5059297180175781e+02" cType="1" res="-4.9335234798491001e-03" rms="3.8579332828521729e-01" purity="5.0528800487518311e-01" nType="0">
          <Node pos="l" depth="2" NCoef="0" IVar="7" Cut="1.4666806459426880e+00" cType="1" res="-6.6174608655273914e-03" rms="3.9420166611671448e-01" purity="4.6207290887832642e-01" nType="0">
            <Node pos="l" depth="3" NCoef="0" IVar="-1" Cut="0.0000000000000000e+00" cType="1" res="-3.0710666906088591e-03" rms="3.9903718233108521e-01" purity="4.8709437251091003e-01" nType="-99"/>
            <Node pos="r" depth="3" NCoef="0" IVar="-1" Cut="0.0000000000000000e+00" cType="1" res="-1.7956268042325974e-02" rms="3.4264469146728516e-01" purity="2.1631215512752533e-01" nType="-99"/>
          </Node>
          <Node pos="r" depth="2" NCoef="0" IVar="0" Cut="4.2484509277343750e+02" cType="1" res="8.6608091369271278e-03" rms="3.0932599306106567e-01" purity="8.5416084527969360e-01" nType="0">
            <Node pos="l" depth="3" NCoef="0" IVar="-1" Cut="0.0000000000000000e+00" cType="1" res="-9.0005425736308098e-03" rms="3.8698199391365051e-01" purity="7.2556424140930176e-01" nType="-99"/>
            <Node pos="r" depth="3" NCoef="0" IVar="-1" Cut="0.0000000000000000e+00" cType="1" res="2.3594612255692482e-02" rms="2.6375398039817810e-01" purity="9.1544604301452637e-01" nType="-99"/>
          </Node>
        </Node>
      </Node>
    </BinaryTree>
    <BinaryTree type="DecisionTree" boostWeight="1.0000000000000000e+00" itree="262">
      <Node pos="s" depth="0" NCoef="0" IVar="2" Cut="3.5034664916992188e+02" cType="1" res="-7.6454167719930410e-04" rms="3.8685017824172974e-01" purity="4.9923142790794373e-01" nType="0">
        <Node pos="l" depth="1" NCoef="0" IVar="0" Cut="4.0318563842773438e+02" cType="1" res="5.6303893215954304e-03" rms="3.9581406116485596e-01" purity="4.6854165196418762e-01" nType="0">
          <Node pos="l" depth="2" NCoef="0" IVar="2" Cut="3.0739315795898438e+02" cType="1" res="1.2621255591511726e-02" rms="4.0179082751274109e-01" purity="3.3874061703681946e-01" nType="0">
            <Node pos="l" depth="3" NCoef="0" IVar="-1" Cut="0.0000000000000000e+00" cType="1" res="1.2553032487630844e-02" rms="4.0683212876319885e-01" purity="3.3935365080833435e-01" nType="-99"/>
            <Node pos="r" depth="3" NCoef="0" IVar="-1" Cut="0.0000000000000000e+00" cType="1" res="-7.9352613538503647e-03" rms="3.8362428545951843e-01" purity="3.3671405911445618e-01" nType="-99"/>
          </Node>
          <Node pos="r" depth="2" NCoef="0" IVar="1" Cut="1.2928350830078125e+03" cType="1" res="-3.7540267221629620e-03" rms="3.8744783401489258e-01" purity="6.4278429746627808e-01" nType="0">
            <Node pos="l" depth="3" NCoef="0" IVar="-1" Cut="0.0000000000000000e+00" cType="1" res="-8.2704555243253708e-03" rms="4.2847833037376404e-01" purity="4.8579534888267517e-01" nType="-99"/>
            <Node pos="r" depth="3" NCoef="0" IVar="-1" Cut="0.0000000000000000e+00" cType="1" res="1.1011680588126183e-02" rms="3.2258942723274231e-01" purity="8.5673910379409790e-01" nType="-99"/>
          </Node>
        </Node>
        <Node pos="r" depth="1" NCoef="0" IVar="6" Cut="6.8374133110046387e-01" cType="1" res="-7.7194338664412498e-03" rms="3.7673625349998474e-01" purity="5.3260850906372070e-01" nType="0">
          <Node pos="l" depth="2" NCoef="0" IVar="7" Cut="-1.1998958587646484e+00" cType="1" res="-1.7577294493094087e-03" rms="3.8217502832412720e-01" purity="5.7162922620773315e-01" nType="0">
            <Node pos="l" depth="3" NCoef="0" IVar="-1" Cut="0.0000000000000000e+00" cType="1" res="2.0862409844994545e-02" rms="3.9209792017936707e-01" purity="3.9700916409492493e-01" nType="-99"/>
            <Node pos="r" depth="3" NCoef="0" IVar="-1" Cut="0.0000000000000000e+00" cType="1" res="-4.3366453610360622e-03" rms="3.8053733110427856e-01" purity="5.9596413373947144e-01" nType="-99"/>
          </Node>
          <Node pos="r" depth="2" NCoef="0" IVar="4" Cut="1.3478439331054688e+02" cType="1" res="-2.9966657981276512e-02" rms="3.5482376813888550e-01" purity="3.8699540495872498e-01" nType="0">
            <Node pos="l" depth="3" NCoef="0" IVar="-1" Cut="0.0000000000000000e+00" cType="1" res="-3.5824377089738846e-02" rms="3.3248627185821533e-01" purity="1.9503690302371979e-01" nType="-99"/>
            <Node pos="r" depth="3" NCoef="0" IVar="-1" Cut="0.0000000000000000e+00" cType="1" res="-8.5448483005166054e-03" rms="3.7726050615310669e-01" purity="5.9933692216873169e-01" nType="-99"/>
          </Node>
        </Node>
      </Node>
    </BinaryTree>
    <BinaryTree type="DecisionTree" boostWeight="1.0000000000000000e+00" itree="263">
      <Node pos="s" depth="0" NCoef="0" IVar="1" Cut="1.6663328857421875e+03" cType="1" res="1.1755578452721238e-03" rms="3.8491860032081604e-01" purity="5.0229734182357788e-01" nType="0">
        <Node pos="l" depth="1" NCoef="0" IVar="2" Cut="5.5857037353515625e+02" cType="1" res="-2.4094225373119116e-03" rms="3.9330127835273743e-01" purity="4.3656027317047119e-01" nType="0">
          <Node pos="l" depth="2" NCoef="0" IVar="1" Cut="1.0475347900390625e+03" cType="1" res="-9.2668697470799088e-04" rms="3.9391025900840759e-01" purity="4.4404408335685730e-01" nType="0">
            <Node pos="l" depth="3" NCoef="0" IVar="-1" Cut="0.0000000000000000e+00" cType="1" res="-8.3807799965143204e-03" rms="3.6173549294471741e-01" purity="1.9246765971183777e-01" nType="-99"/>
            <Node pos="r" depth="3" NCoef="0" IVar="-1" Cut="0.0000000000000000e+00" cType="1" res="2.2912800777703524e-03" rms="4.0744733810424805e-01" purity="5.5703616142272949e-01" nType="-99"/>
          </Node>
          <Node pos="r" depth="2" NCoef="0" IVar="-1" Cut="0.0000000000000000e+00" cType="1" res="-2.2930959239602089e-02" rms="3.7707072496414185e-01" purity="2.6104894280433655e-01" nType="-99"/>
        </Node>
        <Node pos="r" depth="1" NCoef="0" IVar="8" Cut="-9.3328016996383667e-01" cType="1" res="1.7616091296076775e-02" rms="3.4338954091072083e-01" purity="8.0376416444778442e-01" nType="0">
          <Node pos="l" depth="2" NCoef="0" IVar="-1" Cut="0.0000000000000000e+00" cType="1" res="3.4018382430076599e-02" rms="3.8739094138145447e-01" purity="7.4639773368835449e-01" nType="-99"/>
          <Node pos="r" depth="2" NCoef="0" IVar="3" Cut="2.3485504150390625e+02" cType="1" res="1.0428293608129025e-02" rms="3.3286088705062866e-01" purity="8.1594008207321167e-01" nType="0">
            <Node pos="l" depth="3" NCoef="0" IVar="-1" Cut="0.0000000000000000e+00" cType="1" res="2.5038924068212509e-02" rms="3.4279608726501465e-01" purity="8.1013667583465576e-01" nType="-99"/>
            <Node pos="r" depth="3" NCoef="0" IVar="-1" Cut="0.0000000000000000e+00" cType="1" res="3.8841615896672010e-03" rms="3.2996433973312378e-01" purity="8.1745213270187378e-01" nType="-99"/>
          </Node>
        </Node>
      </Node>
    </BinaryTree>
    <BinaryTree type="DecisionTree" boostWeight="1.0000000000000000e+00" itree="264">
      <Node pos="s" depth="0" NCoef="0" IVar="2" Cut="3.3976394653320312e+02" cType="1" res="-6.4384547295048833e-04" rms="3.8556343317031860e-01" purity="4.9949619174003601e-01" nType="0">
        <Node pos="l" depth="1" NCoef="0" IVar="6" Cut="1.4751439094543457e+00" cType="1" res="-4.8800804652273655e-03" rms="3.9127010107040405e-01" purity="4.5374906063079834e-01" nType="0">
          <Node pos="l" depth="2" NCoef="0" IVar="7" Cut="-1.1998889446258545e+00" cType="1" res="-6.9982991553843021e-03" rms="3.9568388462066650e-01" purity="4.7528141736984253e-01" nType="0">
            <Node pos="l" depth="3" NCoef="0" IVar="-1" Cut="0.0000000000000000e+00" cType="1" res="7.4587729759514332e-03" rms="3.7234979867935181e-01" purity="3.1719258427619934e-01" nType="-99"/>
            <Node pos="r" depth="3" NCoef="0" IVar="-1" Cut="0.0000000000000000e+00" cType="1" res="-6.2260637059807777e-03" rms="3.9953556656837463e-01" purity="5.0286054611206055e-01" nType="-99"/>
          </Node>
          <Node pos="r" depth="2" NCoef="0" IVar="-1" Cut="0.0000000000000000e+00" cType="1" res="1.6058934852480888e-02" rms="3.3897024393081665e-01" purity="2.2055807709693909e-01" nType="-99"/>
        </Node>
        <Node pos="r" depth="1" NCoef="0" IVar="7" Cut="1.7332453727722168e+00" cType="1" res="3.3226588275283575e-03" rms="3.8009965419769287e-01" purity="5.4233050346374512e-01" nType="0">
          <Node pos="l" depth="2" NCoef="0" IVar="2" Cut="7.3908758544921875e+02" cType="1" res="9.6299289725720882e-04" rms="3.8005444407463074e-01" purity="5.5696445703506470e-01" nType="0">
            <Node pos="l" depth="3" NCoef="0" IVar="-1" Cut="0.0000000000000000e+00" cType="1" res="2.2246011067181826e-03" rms="3.7872689962387085e-01" purity="5.5373996496200562e-01" nType="-99"/>
            <Node pos="r" depth="3" NCoef="0" IVar="-1" Cut="0.0000000000000000e+00" cType="1" res="-2.1147323772311211e-02" rms="3.9953276515007019e-01" purity="6.1029160022735596e-01" nType="-99"/>
          </Node>
          <Node pos="r" depth="2" NCoef="0" IVar="-1" Cut="0.0000000000000000e+00" cType="1" res="3.5136278718709946e-02" rms="3.7849873304367065e-01" purity="2.8506281971931458e-01" nType="-99"/>
        </Node>
      </Node>
    </BinaryTree>
    <BinaryTree type="DecisionTree" boostWeight="1.0000000000000000e+00" itree="265">
      <Node pos="s" depth="0" NCoef="0" IVar="7" Cut="1.9999735355377197e+00" cType="1" res="1.6198947560042143e-04" rms="3.8454011082649231e-01" purity="5.0226694345474243e-01" nType="0">
        <Node pos="l" depth="1" NCoef="0" IVar="7" Cut="-5.1426565647125244e-01" cType="1" res="1.2423117877915502e-03" rms="3.8702711462974548e-01" purity="5.1456826925277710e-01" nType="0">
          <Node pos="l" depth="2" NCoef="0" IVar="1" Cut="1.3077856445312500e+03" cType="1" res="-5.3550135344266891e-03" rms="3.7946972250938416e-01" purity="4.3877509236335754e-01" nType="0">
            <Node pos="l" depth="3" NCoef="0" IVar="-1" Cut="0.0000000000000000e+00" cType="1" res="-7.5101992115378380e-03" rms="3.7806704640388489e-01" purity="2.8342702984809875e-01" nType="-99"/>
            <Node pos="r" depth="3" NCoef="0" IVar="-1" Cut="0.0000000000000000e+00" cType="1" res="2.0250075031071901e-03" rms="3.8130053877830505e-01" purity="6.5984600782394409e-01" nType="-99"/>
          </Node>
          <Node pos="r" depth="2" NCoef="0" IVar="7" Cut="-3.9452573657035828e-01" cType="1" res="4.4134911149740219e-03" rms="3.9056804776191711e-01" purity="5.5100023746490479e-01" nType="0">
            <Node pos="l" depth="3" NCoef="0" IVar="-1" Cut="0.0000000000000000e+00" cType="1" res="2.0826840773224831e-02" rms="3.9509278535842896e-01" purity="6.2425994873046875e-01" nType="-99"/>
            <Node pos="r" depth="3" NCoef="0" IVar="-1" Cut="0.0000000000000000e+00" cType="1" res="1.6070185229182243e-03" rms="3.9017766714096069e-01" purity="5.4593408107757568e-01" nType="-99"/>
          </Node>
        </Node>
        <Node pos="r" depth="1" NCoef="0" IVar="-1" Cut="0.0000000000000000e+00" cType="1" res="-2.7480592951178551e-02" rms="3.0406755208969116e-01" purity="1.5326036512851715e-01" nType="-99"/>
      </Node>
    </BinaryTree>
    <BinaryTree type="DecisionTree" boostWeight="1.0000000000000000e+00" itree="266">
      <Node pos="s" depth="0" NCoef="0" IVar="4" Cut="1.4888414001464844e+02" cType="1" res="-3.1207114807330072e-04" rms="3.8664394617080688e-01" purity="4.9881967902183533e-01" nType="0">
        <Node pos="l" depth="1" NCoef="0" IVar="4" Cut="1.3005798339843750e+02" cType="1" res="4.1419691406190395e-03" rms="3.9547318220138550e-01" purity="3.7779214978218079e-01" nType="0">
          <Node pos="l" depth="2" NCoef="0" IVar="7" Cut="4.0013286471366882e-01" cType="1" res="-1.0655446676537395e-03" rms="3.9091527462005615e-01" purity="3.3140078186988831e-01" nType="0">
            <Node pos="l" depth="3" NCoef="0" IVar="-1" Cut="0.0000000000000000e+00" cType="1" res="3.0151007231324911e-03" rms="3.9705088734626770e-01" purity="3.6382171511650085e-01" nType="-99"/>
            <Node pos="r" depth="3" NCoef="0" IVar="-1" Cut="0.0000000000000000e+00" cType="1" res="-7.8139808028936386e-03" rms="3.7953829765319824e-01" purity="2.7376094460487366e-01" nType="-99"/>
          </Node>
          <Node pos="r" depth="2" NCoef="0" IVar="5" Cut="1.1105231475830078e+02" cType="1" res="2.8200767934322357e-02" rms="4.1503542661666870e-01" purity="5.9212100505828857e-01" nType="0">
            <Node pos="l" depth="3" NCoef="0" IVar="-1" Cut="0.0000000000000000e+00" cType="1" res="2.3216271772980690e-02" rms="4.2101523280143738e-01" purity="5.5674588680267334e-01" nType="-99"/>
            <Node pos="r" depth="3" NCoef="0" IVar="-1" Cut="0.0000000000000000e+00" cType="1" res="-8.4377138409763575e-04" rms="3.9893895387649536e-01" purity="6.7606872320175171e-01" nType="-99"/>
          </Node>
        </Node>
        <Node pos="r" depth="1" NCoef="0" IVar="9" Cut="6.6670298576354980e-01" cType="1" res="-8.3645302802324295e-03" rms="3.7001135945320129e-01" purity="7.1762537956237793e-01" nType="0">
          <Node pos="l" depth="2" NCoef="0" IVar="8" Cut="-9.3322151899337769e-01" cType="1" res="-1.4065738767385483e-02" rms="3.6921855807304382e-01" purity="7.2517108917236328e-01" nType="0">
            <Node pos="l" depth="3" NCoef="0" IVar="-1" Cut="0.0000000000000000e+00" cType="1" res="-2.4437580257654190e-02" rms="3.9577287435531616e-01" purity="5.9309184551239014e-01" nType="-99"/>
            <Node pos="r" depth="3" NCoef="0" IVar="-1" Cut="0.0000000000000000e+00" cType="1" res="-6.8932236172258854e-03" rms="3.6313515901565552e-01" purity="7.5317788124084473e-01" nType="-99"/>
          </Node>
          <Node pos="r" depth="2" NCoef="0" IVar="8" Cut="-4.0015196800231934e-01" cType="1" res="5.4473606869578362e-03" rms="3.7156251072883606e-01" purity="6.9934493303298950e-01" nType="0">
            <Node pos="l" depth="3" NCoef="0" IVar="-1" Cut="0.0000000000000000e+00" cType="1" res="2.3732138797640800e-02" rms="3.8248327374458313e-01" purity="7.0947897434234619e-01" nType="-99"/>
            <Node pos="r" depth="3" NCoef="0" IVar="-1" Cut="0.0000000000000000e+00" cType="1" res="-6.0728937387466431e-03" rms="3.6544603109359741e-01" purity="6.9455134868621826e-01" nType="-99"/>
          </Node>
        </Node>
      </Node>
    </BinaryTree>
    <BinaryTree type="DecisionTree" boostWeight="1.0000000000000000e+00" itree="267">
      <Node pos="s" depth="0" NCoef="0" IVar="8" Cut="-1.4666672945022583e+00" cType="1" res="-2.3920738021843135e-04" rms="3.8285619020462036e-01" purity="5.0382322072982788e-01" nType="0">
        <Node pos="l" depth="1" NCoef="0" IVar="1" Cut="1.2603382568359375e+03" cType="1" res="-2.0480265840888023e-02" rms="3.5993626713752747e-01" purity="3.0207687616348267e-01" nType="0">
          <Node pos="l" depth="2" NCoef="0" IVar="-1" Cut="0.0000000000000000e+00" cType="1" res="-2.3556174710392952e-02" rms="3.3202490210533142e-01" purity="1.6728241741657257e-01" nType="-99"/>
          <Node pos="r" depth="2" NCoef="0" IVar="-1" Cut="0.0000000000000000e+00" cType="1" res="-3.7524646613746881e-03" rms="3.9787614345550537e-01" purity="5.0501555204391479e-01" nType="-99"/>
        </Node>
        <Node pos="r" depth="1" NCoef="0" IVar="7" Cut="-3.9992722868919373e-01" cType="1" res="2.0532959606498480e-03" rms="3.8529914617538452e-01" purity="5.2667301893234253e-01" nType="0">
          <Node pos="l" depth="2" NCoef="0" IVar="3" Cut="1.3781512451171875e+02" cType="1" res="-5.0172056071460247e-03" rms="3.8456347584724426e-01" purity="4.8207521438598633e-01" nType="0">
            <Node pos="l" depth="3" NCoef="0" IVar="-1" Cut="0.0000000000000000e+00" cType="1" res="7.5525338761508465e-03" rms="3.6887872219085693e-01" purity="2.2699713706970215e-01" nType="-99"/>
            <Node pos="r" depth="3" NCoef="0" IVar="-1" Cut="0.0000000000000000e+00" cType="1" res="-5.7547711767256260e-03" rms="3.8851562142372131e-01" purity="5.4960727691650391e-01" nType="-99"/>
          </Node>
          <Node pos="r" depth="2" NCoef="0" IVar="7" Cut="-2.4755075573921204e-01" cType="1" res="5.7683107443153858e-03" rms="3.8563317060470581e-01" purity="5.5010586977005005e-01" nType="0">
            <Node pos="l" depth="3" NCoef="0" IVar="-1" Cut="0.0000000000000000e+00" cType="1" res="-9.5362570136785507e-03" rms="3.8984498381614685e-01" purity="6.1624228954315186e-01" nType="-99"/>
            <Node pos="r" depth="3" NCoef="0" IVar="-1" Cut="0.0000000000000000e+00" cType="1" res="4.9987593665719032e-03" rms="3.8520899415016174e-01" purity="5.4427033662796021e-01" nType="-99"/>
          </Node>
        </Node>
      </Node>
    </BinaryTree>
    <BinaryTree type="DecisionTree" boostWeight="1.0000000000000000e+00" itree="268">
      <Node pos="s" depth="0" NCoef="0" IVar="9" Cut="-6.6651719808578491e-01" cType="1" res="1.1593340896070004e-03" rms="3.8724219799041748e-01" purity="4.9934884905815125e-01" nType="0">
        <Node pos="l" depth="1" NCoef="0" IVar="8" Cut="9.3316024541854858e-01" cType="1" res="-6.2980381771922112e-03" rms="3.8829353451728821e-01" purity="4.5258915424346924e-01" nType="0">
          <Node pos="l" depth="2" NCoef="0" IVar="8" Cut="-1.2000645399093628e+00" cType="1" res="-1.0665399022400379e-02" rms="3.8613697886466980e-01" purity="4.6506166458129883e-01" nType="0">
            <Node pos="l" depth="3" NCoef="0" IVar="-1" Cut="0.0000000000000000e+00" cType="1" res="8.0054709687829018e-03" rms="3.7259748578071594e-01" purity="3.2396209239959717e-01" nType="-99"/>
            <Node pos="r" depth="3" NCoef="0" IVar="-1" Cut="0.0000000000000000e+00" cType="1" res="-1.1481107212603092e-02" rms="3.9010849595069885e-01" purity="5.1014757156372070e-01" nType="-99"/>
          </Node>
          <Node pos="r" depth="2" NCoef="0" IVar="8" Cut="1.3775789737701416e+00" cType="1" res="1.2860867194831371e-02" rms="3.9704850316047668e-01" purity="3.9787429571151733e-01" nType="0">
            <Node pos="l" depth="3" NCoef="0" IVar="-1" Cut="0.0000000000000000e+00" cType="1" res="2.0391410216689110e-02" rms="4.0916135907173157e-01" purity="5.0198185443878174e-01" nType="-99"/>
            <Node pos="r" depth="3" NCoef="0" IVar="-1" Cut="0.0000000000000000e+00" cType="1" res="-3.6330970469862223e-03" rms="3.8513737916946411e-01" purity="3.0604821443557739e-01" nType="-99"/>
          </Node>
        </Node>
        <Node pos="r" depth="1" NCoef="0" IVar="6" Cut="4.2030104994773865e-01" cType="1" res="4.2818300426006317e-03" rms="3.8675841689109802e-01" purity="5.1892775297164917e-01" nType="0">
          <Node pos="l" depth="2" NCoef="0" IVar="3" Cut="3.3530459594726562e+02" cType="1" res="-3.2259273575618863e-04" rms="3.8993206620216370e-01" purity="5.5352824926376343e-01" nType="0">
            <Node pos="l" depth="3" NCoef="0" IVar="-1" Cut="0.0000000000000000e+00" cType="1" res="-2.1713937167078257e-03" rms="3.9310398697853088e-01" purity="5.2587080001831055e-01" nType="-99"/>
            <Node pos="r" depth="3" NCoef="0" IVar="-1" Cut="0.0000000000000000e+00" cType="1" res="1.5411825850605965e-02" rms="3.6543792486190796e-01" purity="7.5347310304641724e-01" nType="-99"/>
          </Node>
          <Node pos="r" depth="2" NCoef="0" IVar="4" Cut="9.0857810974121094e+01" cType="1" res="1.2664271518588066e-02" rms="3.8076993823051453e-01" purity="4.5593681931495667e-01" nType="0">
            <Node pos="l" depth="3" NCoef="0" IVar="-1" Cut="0.0000000000000000e+00" cType="1" res="-1.3688663020730019e-02" rms="3.2251155376434326e-01" purity="1.5416285395622253e-01" nType="-99"/>
            <Node pos="r" depth="3" NCoef="0" IVar="-1" Cut="0.0000000000000000e+00" cType="1" res="1.3916593976318836e-02" rms="3.9806777238845825e-01" purity="5.5777204036712646e-01" nType="-99"/>
          </Node>
        </Node>
      </Node>
    </BinaryTree>
    <BinaryTree type="DecisionTree" boostWeight="1.0000000000000000e+00" itree="269">
      <Node pos="s" depth="0" NCoef="0" IVar="0" Cut="4.3649197387695312e+02" cType="1" res="2.2479624021798372e-03" rms="3.8834694027900696e-01" purity="5.0315570831298828e-01" nType="0">
        <Node pos="l" depth="1" NCoef="0" IVar="2" Cut="3.9001608276367188e+02" cType="1" res="8.4209870547056198e-03" rms="3.9640524983406067e-01" purity="3.5860142111778259e-01" nType="0">
          <Node pos="l" depth="2" NCoef="0" IVar="0" Cut="3.9749203491210938e+02" cType="1" res="1.2965806759893894e-02" rms="4.0025219321250916e-01" purity="3.6332309246063232e-01" nType="0">
            <Node pos="l" depth="3" NCoef="0" IVar="-1" Cut="0.0000000000000000e+00" cType="1" res="1.1226254515349865e-02" rms="3.9824381470680237e-01" purity="3.3848571777343750e-01" nType="-99"/>
            <Node pos="r" depth="3" NCoef="0" IVar="-1" Cut="0.0000000000000000e+00" cType="1" res="-3.3690861891955137e-03" rms="4.0799182653427124e-01" purity="4.6687680482864380e-01" nType="-99"/>
          </Node>
          <Node pos="r" depth="2" NCoef="0" IVar="3" Cut="1.8903129577636719e+02" cType="1" res="-4.1739493608474731e-03" rms="3.8526374101638794e-01" purity="3.4551638364791870e-01" nType="0">
            <Node pos="l" depth="3" NCoef="0" IVar="-1" Cut="0.0000000000000000e+00" cType="1" res="-2.0688036456704140e-02" rms="3.1713390350341797e-01" purity="1.5673674643039703e-01" nType="-99"/>
            <Node pos="r" depth="3" NCoef="0" IVar="-1" Cut="0.0000000000000000e+00" cType="1" res="3.3458226826041937e-03" rms="4.1471365094184875e-01" purity="4.3960520625114441e-01" nType="-99"/>
          </Node>
        </Node>
        <Node pos="r" depth="1" NCoef="0" IVar="8" Cut="-1.1999328136444092e+00" cType="1" res="-5.8671925216913223e-03" rms="3.7733811140060425e-01" purity="6.9318908452987671e-01" nType="0">
          <Node pos="l" depth="2" NCoef="0" IVar="8" Cut="-1.6570786237716675e+00" cType="1" res="-2.2450139746069908e-02" rms="4.0328198671340942e-01" purity="5.5021452903747559e-01" nType="0">
            <Node pos="l" depth="3" NCoef="0" IVar="-1" Cut="0.0000000000000000e+00" cType="1" res="-1.5778859378769994e-03" rms="4.0439966320991516e-01" purity="4.9502775073051453e-01" nType="-99"/>
            <Node pos="r" depth="3" NCoef="0" IVar="-1" Cut="0.0000000000000000e+00" cType="1" res="-2.6621101424098015e-02" rms="4.0128350257873535e-01" purity="6.0357075929641724e-01" nType="-99"/>
          </Node>
          <Node pos="r" depth="2" NCoef="0" IVar="3" Cut="1.4577171325683594e+02" cType="1" res="-3.4331823699176311e-03" rms="3.7331646680831909e-01" purity="7.1417450904846191e-01" nType="0">
            <Node pos="l" depth="3" NCoef="0" IVar="-1" Cut="0.0000000000000000e+00" cType="1" res="7.7661178074777126e-03" rms="4.3245473504066467e-01" purity="4.3641644716262817e-01" nType="-99"/>
            <Node pos="r" depth="3" NCoef="0" IVar="-1" Cut="0.0000000000000000e+00" cType="1" res="-4.8406347632408142e-03" rms="3.6206272244453430e-01" purity="7.6206171512603760e-01" nType="-99"/>
          </Node>
        </Node>
      </Node>
    </BinaryTree>
    <BinaryTree type="DecisionTree" boostWeight="1.0000000000000000e+00" itree="270">
      <Node pos="s" depth="0" NCoef="0" IVar="6" Cut="-6.4497321844100952e-01" cType="1" res="-9.8817370599135756e-05" rms="3.8686114549636841e-01" purity="4.9990153312683105e-01" nType="0">
        <Node pos="l" depth="1" NCoef="0" IVar="9" Cut="-6.6652655601501465e-01" cType="1" res="1.3089162297546864e-02" rms="3.8190397620201111e-01" purity="4.0470603108406067e-01" nType="0">
          <Node pos="l" depth="2" NCoef="0" IVar="1" Cut="1.2045848388671875e+03" cType="1" res="-4.5363674871623516e-03" rms="3.7143710255622864e-01" purity="3.3507326245307922e-01" nType="0">
            <Node pos="l" depth="3" NCoef="0" IVar="-1" Cut="0.0000000000000000e+00" cType="1" res="-1.7568064853549004e-02" rms="3.3124867081642151e-01" purity="1.6435091197490692e-01" nType="-99"/>
            <Node pos="r" depth="3" NCoef="0" IVar="-1" Cut="0.0000000000000000e+00" cType="1" res="9.0262498706579208e-03" rms="4.1249909996986389e-01" purity="5.3384172916412354e-01" nType="-99"/>
          </Node>
          <Node pos="r" depth="2" NCoef="0" IVar="8" Cut="-3.9942830801010132e-01" cType="1" res="2.2835889831185341e-02" rms="3.8722637295722961e-01" purity="4.4321218132972717e-01" nType="0">
            <Node pos="l" depth="3" NCoef="0" IVar="-1" Cut="0.0000000000000000e+00" cType="1" res="2.3987494409084320e-02" rms="3.9804810285568237e-01" purity="4.3397921323776245e-01" nType="-99"/>
            <Node pos="r" depth="3" NCoef="0" IVar="-1" Cut="0.0000000000000000e+00" cType="1" res="9.2405360192060471e-03" rms="3.7932115793228149e-01" purity="4.4956895709037781e-01" nType="-99"/>
          </Node>
        </Node>
        <Node pos="r" depth="1" NCoef="0" IVar="8" Cut="1.1998921632766724e+00" cType="1" res="-4.4789002276957035e-03" rms="3.8839453458786011e-01" purity="5.3151851892471313e-01" nType="0">
          <Node pos="l" depth="2" NCoef="0" IVar="6" Cut="1.3234623670578003e+00" cType="1" res="-7.7731469646096230e-03" rms="3.8845041394233704e-01" purity="5.5636286735534668e-01" nType="0">
            <Node pos="l" depth="3" NCoef="0" IVar="-1" Cut="0.0000000000000000e+00" cType="1" res="-3.5196749959141016e-03" rms="3.9503946900367737e-01" purity="5.9432333707809448e-01" nType="-99"/>
            <Node pos="r" depth="3" NCoef="0" IVar="-1" Cut="0.0000000000000000e+00" cType="1" res="-2.1884093061089516e-02" rms="3.2682335376739502e-01" purity="2.3534567654132843e-01" nType="-99"/>
          </Node>
          <Node pos="r" depth="2" NCoef="0" IVar="9" Cut="-6.6622525453567505e-01" cType="1" res="1.2739215977489948e-02" rms="3.8764703273773193e-01" purity="4.0166401863098145e-01" nType="0">
            <Node pos="l" depth="3" NCoef="0" IVar="-1" Cut="0.0000000000000000e+00" cType="1" res="2.4649277329444885e-02" rms="4.0456590056419373e-01" purity="4.4704052805900574e-01" nType="-99"/>
            <Node pos="r" depth="3" NCoef="0" IVar="-1" Cut="0.0000000000000000e+00" cType="1" res="2.8729178011417389e-03" rms="3.8165223598480225e-01" purity="3.8705742359161377e-01" nType="-99"/>
          </Node>
        </Node>
      </Node>
    </BinaryTree>
    <BinaryTree type="DecisionTree" boostWeight="1.0000000000000000e+00" itree="271">
      <Node pos="s" depth="0" NCoef="0" IVar="7" Cut="4.0005663037300110e-01" cType="1" res="-1.4443451073020697e-03" rms="3.8565546274185181e-01" purity="4.9938052892684937e-01" nType="0">
        <Node pos="l" depth="1" NCoef="0" IVar="5" Cut="1.0621949005126953e+02" cType="1" res="-5.1454086787998676e-03" rms="3.8558375835418701e-01" purity="5.1942926645278931e-01" nType="0">
          <Node pos="l" depth="2" NCoef="0" IVar="4" Cut="1.4482521057128906e+02" cType="1" res="-9.4188814982771873e-03" rms="3.9754560589790344e-01" purity="4.0540349483489990e-01" nType="0">
            <Node pos="l" depth="3" NCoef="0" IVar="-1" Cut="0.0000000000000000e+00" cType="1" res="-3.2845675013959408e-03" rms="3.9704525470733643e-01" purity="3.4980860352516174e-01" nType="-99"/>
            <Node pos="r" depth="3" NCoef="0" IVar="-1" Cut="0.0000000000000000e+00" cType="1" res="-1.4940368011593819e-02" rms="3.9900010824203491e-01" purity="6.0790991783142090e-01" nType="-99"/>
          </Node>
          <Node pos="r" depth="2" NCoef="0" IVar="6" Cut="-8.6232781410217285e-01" cType="1" res="4.6120109036564827e-03" rms="3.5657981038093567e-01" purity="7.7977895736694336e-01" nType="0">
            <Node pos="l" depth="3" NCoef="0" IVar="-1" Cut="0.0000000000000000e+00" cType="1" res="2.2748297080397606e-02" rms="3.9906203746795654e-01" purity="6.8565851449966431e-01" nType="-99"/>
            <Node pos="r" depth="3" NCoef="0" IVar="-1" Cut="0.0000000000000000e+00" cType="1" res="-1.0202365228906274e-03" rms="3.4765851497650146e-01" purity="7.9757344722747803e-01" nType="-99"/>
          </Node>
        </Node>
        <Node pos="r" depth="1" NCoef="0" IVar="5" Cut="8.3531227111816406e+01" cType="1" res="5.3489282727241516e-03" rms="3.8569459319114685e-01" purity="4.6258121728897095e-01" nType="0">
          <Node pos="l" depth="2" NCoef="0" IVar="7" Cut="1.7714315652847290e+00" cType="1" res="1.2176198884844780e-02" rms="3.8568103313446045e-01" purity="3.0531758069992065e-01" nType="0">
            <Node pos="l" depth="3" NCoef="0" IVar="-1" Cut="0.0000000000000000e+00" cType="1" res="1.0894936509430408e-02" rms="4.0238070487976074e-01" purity="3.4725272655487061e-01" nType="-99"/>
            <Node pos="r" depth="3" NCoef="0" IVar="-1" Cut="0.0000000000000000e+00" cType="1" res="-1.1879251338541508e-02" rms="2.9488193988800049e-01" purity="1.1046019941568375e-01" nType="-99"/>
          </Node>
          <Node pos="r" depth="2" NCoef="0" IVar="0" Cut="4.3267996215820312e+02" cType="1" res="-2.5624034460633993e-03" rms="3.8555914163589478e-01" purity="6.4481574296951294e-01" nType="0">
            <Node pos="l" depth="3" NCoef="0" IVar="-1" Cut="0.0000000000000000e+00" cType="1" res="-5.4819225333631039e-03" rms="4.2150428891181946e-01" purity="4.8590269684791565e-01" nType="-99"/>
            <Node pos="r" depth="3" NCoef="0" IVar="-1" Cut="0.0000000000000000e+00" cType="1" res="3.3971162047237158e-03" rms="3.4739288687705994e-01" purity="7.9751288890838623e-01" nType="-99"/>
          </Node>
        </Node>
      </Node>
    </BinaryTree>
    <BinaryTree type="DecisionTree" boostWeight="1.0000000000000000e+00" itree="272">
      <Node pos="s" depth="0" NCoef="0" IVar="9" Cut="-2.2666277885437012e+00" cType="1" res="1.9883911591023207e-03" rms="3.8596773147583008e-01" purity="5.0329804420471191e-01" nType="0">
        <Node pos="l" depth="1" NCoef="0" IVar="-1" Cut="0.0000000000000000e+00" cType="1" res="-1.7189895734190941e-02" rms="3.6187422275543213e-01" purity="2.9325112700462341e-01" nType="-99"/>
        <Node pos="r" depth="1" NCoef="0" IVar="9" Cut="-1.0602804422378540e+00" cType="1" res="2.7561332099139690e-03" rms="3.8663998246192932e-01" purity="5.0958931446075439e-01" nType="0">
          <Node pos="l" depth="2" NCoef="0" IVar="7" Cut="-6.6651457548141479e-01" cType="1" res="1.2811014428734779e-02" rms="3.8726314902305603e-01" purity="4.7001188993453979e-01" nType="0">
            <Node pos="l" depth="3" NCoef="0" IVar="-1" Cut="0.0000000000000000e+00" cType="1" res="-4.8210541717708111e-03" rms="3.7260255217552185e-01" purity="3.3893105387687683e-01" nType="-99"/>
            <Node pos="r" depth="3" NCoef="0" IVar="-1" Cut="0.0000000000000000e+00" cType="1" res="1.3877150602638721e-02" rms="3.9336949586868286e-01" purity="5.2909094095230103e-01" nType="-99"/>
          </Node>
          <Node pos="r" depth="2" NCoef="0" IVar="5" Cut="1.0843190002441406e+02" cType="1" res="5.0005875527858734e-04" rms="3.8646408915519714e-01" purity="5.1846951246261597e-01" nType="0">
            <Node pos="l" depth="3" NCoef="0" IVar="-1" Cut="0.0000000000000000e+00" cType="1" res="-1.3638699892908335e-03" rms="3.9961612224578857e-01" purity="4.0797585248947144e-01" nType="-99"/>
            <Node pos="r" depth="3" NCoef="0" IVar="-1" Cut="0.0000000000000000e+00" cType="1" res="5.6172735057771206e-03" rms="3.5240966081619263e-01" purity="7.8674310445785522e-01" nType="-99"/>
          </Node>
        </Node>
      </Node>
    </BinaryTree>
    <BinaryTree type="DecisionTree" boostWeight="1.0000000000000000e+00" itree="273">
      <Node pos="s" depth="0" NCoef="0" IVar="6" Cut="-3.7999176979064941e-01" cType="1" res="1.4310852857306600e-03" rms="3.8633954524993896e-01" purity="5.0053715705871582e-01" nType="0">
        <Node pos="l" depth="1" NCoef="0" IVar="9" Cut="6.6655182838439941e-01" cType="1" res="-4.5007611624896526e-03" rms="3.7843272089958191e-01" purity="4.4421130418777466e-01" nType="0">
          <Node pos="l" depth="2" NCoef="0" IVar="4" Cut="1.4276960754394531e+02" cType="1" res="1.8631683196872473e-03" rms="3.8010945916175842e-01" purity="4.6529385447502136e-01" nType="0">
            <Node pos="l" depth="3" NCoef="0" IVar="-1" Cut="0.0000000000000000e+00" cType="1" res="-5.6084701791405678e-03" rms="3.7975433468818665e-01" purity="3.1191375851631165e-01" nType="-99"/>
            <Node pos="r" depth="3" NCoef="0" IVar="-1" Cut="0.0000000000000000e+00" cType="1" res="1.1727081611752510e-02" rms="3.8012677431106567e-01" purity="6.9864881038665771e-01" nType="-99"/>
          </Node>
          <Node pos="r" depth="2" NCoef="0" IVar="0" Cut="4.1274484252929688e+02" cType="1" res="-2.3897623643279076e-02" rms="3.7260577082633972e-01" purity="3.7995287775993347e-01" nType="0">
            <Node pos="l" depth="3" NCoef="0" IVar="-1" Cut="0.0000000000000000e+00" cType="1" res="-3.5114865750074387e-02" rms="3.3473810553550720e-01" purity="2.0702305436134338e-01" nType="-99"/>
            <Node pos="r" depth="3" NCoef="0" IVar="-1" Cut="0.0000000000000000e+00" cType="1" res="2.7695940807461739e-03" rms="4.1056415438652039e-01" purity="5.8147490024566650e-01" nType="-99"/>
          </Node>
        </Node>
        <Node pos="r" depth="1" NCoef="0" IVar="7" Cut="-1.3336931169033051e-01" cType="1" res="4.4805370271205902e-03" rms="3.9030689001083374e-01" purity="5.2949321269989014e-01" nType="0">
          <Node pos="l" depth="2" NCoef="0" IVar="4" Cut="9.4143310546875000e+01" cType="1" res="1.3121508061885834e-02" rms="3.8922911882400513e-01" purity="5.2697193622589111e-01" nType="0">
            <Node pos="l" depth="3" NCoef="0" IVar="-1" Cut="0.0000000000000000e+00" cType="1" res="2.3376762866973877e-02" rms="3.8302695751190186e-01" purity="2.7802893519401550e-01" nType="-99"/>
            <Node pos="r" depth="3" NCoef="0" IVar="-1" Cut="0.0000000000000000e+00" cType="1" res="3.5713417455554008e-03" rms="3.9124068617820740e-01" purity="6.1965674161911011e-01" nType="-99"/>
          </Node>
          <Node pos="r" depth="2" NCoef="0" IVar="6" Cut="1.2856072187423706e+00" cType="1" res="-2.2338335402309895e-03" rms="3.9101049304008484e-01" purity="5.3145235776901245e-01" nType="0">
            <Node pos="l" depth="3" NCoef="0" IVar="-1" Cut="0.0000000000000000e+00" cType="1" res="-3.3735563047230244e-03" rms="3.9689680933952332e-01" purity="5.7885479927062988e-01" nType="-99"/>
            <Node pos="r" depth="3" NCoef="0" IVar="-1" Cut="0.0000000000000000e+00" cType="1" res="1.2712136842310429e-02" rms="3.5522657632827759e-01" purity="2.6225206255912781e-01" nType="-99"/>
          </Node>
        </Node>
      </Node>
    </BinaryTree>
    <BinaryTree type="DecisionTree" boostWeight="1.0000000000000000e+00" itree="274">
      <Node pos="s" depth="0" NCoef="0" IVar="9" Cut="-9.3330758810043335e-01" cType="1" res="2.0166051399428397e-04" rms="3.8806658983230591e-01" purity="4.9796897172927856e-01" nType="0">
        <Node pos="l" depth="1" NCoef="0" IVar="8" Cut="-1.3344772160053253e-01" cType="1" res="-9.9049722775816917e-03" rms="3.8272026181221008e-01" purity="4.3494307994842529e-01" nType="0">
          <Node pos="l" depth="2" NCoef="0" IVar="7" Cut="-6.6602075099945068e-01" cType="1" res="-2.2417142987251282e-02" rms="3.7899020314216614e-01" purity="3.8771599531173706e-01" nType="0">
            <Node pos="l" depth="3" NCoef="0" IVar="-1" Cut="0.0000000000000000e+00" cType="1" res="-5.6012105196714401e-03" rms="3.6867722868919373e-01" purity="3.1888249516487122e-01" nType="-99"/>
            <Node pos="r" depth="3" NCoef="0" IVar="-1" Cut="0.0000000000000000e+00" cType="1" res="-2.0047819241881371e-02" rms="3.8481381535530090e-01" purity="4.2925566434860229e-01" nType="-99"/>
          </Node>
          <Node pos="r" depth="2" NCoef="0" IVar="5" Cut="7.1315956115722656e+01" cType="1" res="2.6054838672280312e-03" rms="3.8600856065750122e-01" purity="4.8216366767883301e-01" nType="0">
            <Node pos="l" depth="3" NCoef="0" IVar="-1" Cut="0.0000000000000000e+00" cType="1" res="1.8768498674035072e-02" rms="3.8353928923606873e-01" purity="3.3943077921867371e-01" nType="-99"/>
            <Node pos="r" depth="3" NCoef="0" IVar="-1" Cut="0.0000000000000000e+00" cType="1" res="-1.0872082784771919e-02" rms="3.8673040270805359e-01" purity="5.9031087160110474e-01" nType="-99"/>
          </Node>
        </Node>
        <Node pos="r" depth="1" NCoef="0" IVar="6" Cut="9.3905478715896606e-01" cType="1" res="3.2478668726980686e-03" rms="3.8961219787597656e-01" purity="5.1696532964706421e-01" nType="0">
          <Node pos="l" depth="2" NCoef="0" IVar="8" Cut="-9.3327236175537109e-01" cType="1" res="-6.6465683630667627e-05" rms="3.9299306273460388e-01" purity="5.5160695314407349e-01" nType="0">
            <Node pos="l" depth="3" NCoef="0" IVar="-1" Cut="0.0000000000000000e+00" cType="1" res="7.7306586317718029e-03" rms="3.8728210330009460e-01" purity="4.8561269044876099e-01" nType="-99"/>
            <Node pos="r" depth="3" NCoef="0" IVar="-1" Cut="0.0000000000000000e+00" cType="1" res="-2.1486780606210232e-03" rms="3.9442893862724304e-01" purity="5.6909173727035522e-01" nType="-99"/>
          </Node>
          <Node pos="r" depth="2" NCoef="0" IVar="8" Cut="-3.9946964383125305e-01" cType="1" res="1.8975526094436646e-02" rms="3.7274995446205139e-01" purity="3.5257866978645325e-01" nType="0">
            <Node pos="l" depth="3" NCoef="0" IVar="-1" Cut="0.0000000000000000e+00" cType="1" res="3.1166886910796165e-02" rms="3.8186690211296082e-01" purity="3.4687709808349609e-01" nType="-99"/>
            <Node pos="r" depth="3" NCoef="0" IVar="-1" Cut="0.0000000000000000e+00" cType="1" res="6.5727168694138527e-03" rms="3.6799582839012146e-01" purity="3.5523110628128052e-01" nType="-99"/>
          </Node>
        </Node>
      </Node>
    </BinaryTree>
    <BinaryTree type="DecisionTree" boostWeight="1.0000000000000000e+00" itree="275">
      <Node pos="s" depth="0" NCoef="0" IVar="6" Cut="6.8013036251068115e-01" cType="1" res="-1.9138829084113240e-03" rms="3.8888302445411682e-01" purity="4.9516704678535461e-01" nType="0">
        <Node pos="l" depth="1" NCoef="0" IVar="5" Cut="1.3234301757812500e+02" cType="1" res="1.4591857325285673e-03" rms="3.9380061626434326e-01" purity="5.3550714254379272e-01" nType="0">
          <Node pos="l" depth="2" NCoef="0" IVar="7" Cut="-1.7332100868225098e+00" cType="1" res="4.5707058161497116e-03" rms="4.0444201231002808e-01" purity="4.7984856367111206e-01" nType="0">
            <Node pos="l" depth="3" NCoef="0" IVar="-1" Cut="0.0000000000000000e+00" cType="1" res="2.9150679707527161e-02" rms="3.7743434309959412e-01" purity="2.3649610579013824e-01" nType="-99"/>
            <Node pos="r" depth="3" NCoef="0" IVar="-1" Cut="0.0000000000000000e+00" cType="1" res="1.4570170314982533e-03" rms="4.0613615512847900e-01" purity="4.9650207161903381e-01" nType="-99"/>
          </Node>
          <Node pos="r" depth="2" NCoef="0" IVar="0" Cut="4.4441778564453125e+02" cType="1" res="-1.4760460704565048e-02" rms="3.3239424228668213e-01" purity="8.2564240694046021e-01" nType="0">
            <Node pos="l" depth="3" NCoef="0" IVar="-1" Cut="0.0000000000000000e+00" cType="1" res="-1.8799785524606705e-02" rms="4.0251332521438599e-01" purity="7.1040010452270508e-01" nType="-99"/>
            <Node pos="r" depth="3" NCoef="0" IVar="-1" Cut="0.0000000000000000e+00" cType="1" res="-7.1276845410466194e-03" rms="2.7496066689491272e-01" purity="9.0315663814544678e-01" nType="-99"/>
          </Node>
        </Node>
        <Node pos="r" depth="1" NCoef="0" IVar="6" Cut="7.8106403350830078e-01" cType="1" res="-1.3041903264820576e-02" rms="3.7198221683502197e-01" purity="3.6208200454711914e-01" nType="0">
          <Node pos="l" depth="2" NCoef="0" IVar="-1" Cut="0.0000000000000000e+00" cType="1" res="1.6009679064154625e-02" rms="3.9881032705307007e-01" purity="5.6864672899246216e-01" nType="-99"/>
          <Node pos="r" depth="2" NCoef="0" IVar="6" Cut="1.3578237295150757e+00" cType="1" res="-1.9093774259090424e-02" rms="3.6724498867988586e-01" purity="3.2980856299400330e-01" nType="0">
            <Node pos="l" depth="3" NCoef="0" IVar="-1" Cut="0.0000000000000000e+00" cType="1" res="-2.1492293104529381e-02" rms="3.8263556361198425e-01" purity="4.0463876724243164e-01" nType="-99"/>
            <Node pos="r" depth="3" NCoef="0" IVar="-1" Cut="0.0000000000000000e+00" cType="1" res="-8.8141168816946447e-05" rms="3.4369087219238281e-01" purity="2.2524619102478027e-01" nType="-99"/>
          </Node>
        </Node>
      </Node>
    </BinaryTree>
    <BinaryTree type="DecisionTree" boostWeight="1.0000000000000000e+00" itree="276">
      <Node pos="s" depth="0" NCoef="0" IVar="4" Cut="1.4456727600097656e+02" cType="1" res="1.8002777360379696e-03" rms="3.8890469074249268e-01" purity="4.9829721450805664e-01" nType="0">
        <Node pos="l" depth="1" NCoef="0" IVar="7" Cut="-1.1998958587646484e+00" cType="1" res="8.4233358502388000e-03" rms="4.0029993653297424e-01" purity="3.7117514014244080e-01" nType="0">
          <Node pos="l" depth="2" NCoef="0" IVar="4" Cut="1.1312928771972656e+02" cType="1" res="-9.8946206271648407e-03" rms="3.4584236145019531e-01" purity="2.0871512591838837e-01" nType="0">
            <Node pos="l" depth="3" NCoef="0" IVar="-1" Cut="0.0000000000000000e+00" cType="1" res="-4.9191911239176989e-04" rms="3.3173841238021851e-01" purity="1.7240770161151886e-01" nType="-99"/>
            <Node pos="r" depth="3" NCoef="0" IVar="-1" Cut="0.0000000000000000e+00" cType="1" res="-2.1522874012589455e-02" rms="3.7914282083511353e-01" purity="3.0356767773628235e-01" nType="-99"/>
          </Node>
          <Node pos="r" depth="2" NCoef="0" IVar="9" Cut="1.4666672945022583e+00" cType="1" res="1.1670137755572796e-02" rms="4.0911138057708740e-01" purity="3.9997068047523499e-01" nType="0">
            <Node pos="l" depth="3" NCoef="0" IVar="-1" Cut="0.0000000000000000e+00" cType="1" res="5.0188056193292141e-03" rms="4.1130396723747253e-01" purity="4.0780565142631531e-01" nType="-99"/>
            <Node pos="r" depth="3" NCoef="0" IVar="-1" Cut="0.0000000000000000e+00" cType="1" res="2.0953355357050896e-02" rms="3.9534842967987061e-01" purity="3.5374653339385986e-01" nType="-99"/>
          </Node>
        </Node>
        <Node pos="r" depth="1" NCoef="0" IVar="0" Cut="4.3884304809570312e+02" cType="1" res="-9.1978581622242928e-03" rms="3.6894324421882629e-01" purity="7.0939403772354126e-01" nType="0">
          <Node pos="l" depth="2" NCoef="0" IVar="3" Cut="3.2064904785156250e+02" cType="1" res="-1.7944762483239174e-02" rms="4.1414564847946167e-01" purity="5.5387973785400391e-01" nType="0">
            <Node pos="l" depth="3" NCoef="0" IVar="-1" Cut="0.0000000000000000e+00" cType="1" res="-7.0866290479898453e-03" rms="4.1589641571044922e-01" purity="5.4941111803054810e-01" nType="-99"/>
            <Node pos="r" depth="3" NCoef="0" IVar="-1" Cut="0.0000000000000000e+00" cType="1" res="-2.6751922443509102e-02" rms="4.0370136499404907e-01" purity="5.7727891206741333e-01" nType="-99"/>
          </Node>
          <Node pos="r" depth="2" NCoef="0" IVar="6" Cut="-7.4895896017551422e-02" cType="1" res="-1.9856654107570648e-03" rms="3.2682910561561584e-01" purity="8.3762216567993164e-01" nType="0">
            <Node pos="l" depth="3" NCoef="0" IVar="-1" Cut="0.0000000000000000e+00" cType="1" res="-1.1994954198598862e-02" rms="3.3195915818214417e-01" purity="8.2747131586074829e-01" nType="-99"/>
            <Node pos="r" depth="3" NCoef="0" IVar="-1" Cut="0.0000000000000000e+00" cType="1" res="6.4659109339118004e-03" rms="3.2227113842964172e-01" purity="8.4596526622772217e-01" nType="-99"/>
          </Node>
        </Node>
      </Node>
    </BinaryTree>
    <BinaryTree type="DecisionTree" boostWeight="1.0000000000000000e+00" itree="277">
      <Node pos="s" depth="0" NCoef="0" IVar="6" Cut="9.3896007537841797e-01" cType="1" res="2.8261219267733395e-04" rms="3.8646808266639709e-01" purity="4.9801561236381531e-01" nType="0">
        <Node pos="l" depth="1" NCoef="0" IVar="6" Cut="4.0729284286499023e-01" cType="1" res="2.0881688687950373e-03" rms="3.9203813672065735e-01" purity="5.3451997041702271e-01" nType="0">
          <Node pos="l" depth="2" NCoef="0" IVar="6" Cut="-1.8712669610977173e+00" cType="1" res="-1.1019532103091478e-03" rms="3.8970690965652466e-01" purity="5.2596026659011841e-01" nType="0">
            <Node pos="l" depth="3" NCoef="0" IVar="-1" Cut="0.0000000000000000e+00" cType="1" res="3.1184930354356766e-02" rms="3.4412023425102234e-01" purity="1.8823966383934021e-01" nType="-99"/>
            <Node pos="r" depth="3" NCoef="0" IVar="-1" Cut="0.0000000000000000e+00" cType="1" res="-1.6026198863983154e-03" rms="3.9162364602088928e-01" purity="5.4152834415435791e-01" nType="-99"/>
          </Node>
          <Node pos="r" depth="2" NCoef="0" IVar="9" Cut="1.3390377163887024e-01" cType="1" res="1.4541784301400185e-02" rms="4.0076607465744019e-01" purity="5.6793540716171265e-01" nType="0">
            <Node pos="l" depth="3" NCoef="0" IVar="-1" Cut="0.0000000000000000e+00" cType="1" res="1.7090644687414169e-02" rms="3.9743161201477051e-01" purity="5.8749383687973022e-01" nType="-99"/>
            <Node pos="r" depth="3" NCoef="0" IVar="-1" Cut="0.0000000000000000e+00" cType="1" res="2.2119699860922992e-04" rms="4.0389692783355713e-01" purity="5.4658949375152588e-01" nType="-99"/>
          </Node>
        </Node>
        <Node pos="r" depth="1" NCoef="0" IVar="5" Cut="9.5716316223144531e+01" cType="1" res="-8.9415982365608215e-03" rms="3.5651433467864990e-01" purity="3.1152260303497314e-01" nType="0">
          <Node pos="l" depth="2" NCoef="0" IVar="5" Cut="6.5239509582519531e+01" cType="1" res="-1.7406869679689407e-02" rms="3.3325555920600891e-01" purity="1.9053579866886139e-01" nType="0">
            <Node pos="l" depth="3" NCoef="0" IVar="-1" Cut="0.0000000000000000e+00" cType="1" res="4.9481079913675785e-03" rms="3.1021615862846375e-01" purity="1.5412819385528564e-01" nType="-99"/>
            <Node pos="r" depth="3" NCoef="0" IVar="-1" Cut="0.0000000000000000e+00" cType="1" res="-2.8065757825970650e-02" rms="3.5301437973976135e-01" purity="2.2622446715831757e-01" nType="-99"/>
          </Node>
          <Node pos="r" depth="2" NCoef="0" IVar="8" Cut="1.3392178714275360e-01" cType="1" res="9.6547659486532211e-03" rms="4.0229672193527222e-01" purity="5.7730442285537720e-01" nType="0">
            <Node pos="l" depth="3" NCoef="0" IVar="-1" Cut="0.0000000000000000e+00" cType="1" res="-1.4758451143279672e-03" rms="3.8430663943290710e-01" purity="5.8555757999420166e-01" nType="-99"/>
            <Node pos="r" depth="3" NCoef="0" IVar="-1" Cut="0.0000000000000000e+00" cType="1" res="1.2967693619430065e-02" rms="4.1942146420478821e-01" purity="5.6892758607864380e-01" nType="-99"/>
          </Node>
        </Node>
      </Node>
    </BinaryTree>
    <BinaryTree type="DecisionTree" boostWeight="1.0000000000000000e+00" itree="278">
      <Node pos="s" depth="0" NCoef="0" IVar="6" Cut="9.4491535425186157e-01" cType="1" res="-2.4643158540129662e-03" rms="3.8572254776954651e-01" purity="4.9781495332717896e-01" nType="0">
        <Node pos="l" depth="1" NCoef="0" IVar="2" Cut="3.4565737915039062e+02" cType="1" res="-4.9272449687123299e-03" rms="3.9040669798851013e-01" purity="5.3037613630294800e-01" nType="0">
          <Node pos="l" depth="2" NCoef="0" IVar="3" Cut="1.0744508361816406e+02" cType="1" res="-1.0383448563516140e-02" rms="4.0131771564483643e-01" purity="4.8399525880813599e-01" nType="0">
            <Node pos="l" depth="3" NCoef="0" IVar="-1" Cut="0.0000000000000000e+00" cType="1" res="1.4378203079104424e-02" rms="3.6715653538703918e-01" purity="1.7958171665668488e-01" nType="-99"/>
            <Node pos="r" depth="3" NCoef="0" IVar="-1" Cut="0.0000000000000000e+00" cType="1" res="-8.2259373739361763e-03" rms="4.0492528676986694e-01" purity="5.1885181665420532e-01" nType="-99"/>
          </Node>
          <Node pos="r" depth="2" NCoef="0" IVar="7" Cut="-1.4664480686187744e+00" cType="1" res="2.8088426915928721e-04" rms="3.7962624430656433e-01" purity="5.7464820146560669e-01" nType="0">
            <Node pos="l" depth="3" NCoef="0" IVar="-1" Cut="0.0000000000000000e+00" cType="1" res="-2.2343324497342110e-02" rms="3.4332603216171265e-01" purity="2.8124597668647766e-01" nType="-99"/>
            <Node pos="r" depth="3" NCoef="0" IVar="-1" Cut="0.0000000000000000e+00" cType="1" res="1.8973170081153512e-03" rms="3.8231059908866882e-01" purity="5.9848004579544067e-01" nType="-99"/>
          </Node>
        </Node>
        <Node pos="r" depth="1" NCoef="0" IVar="6" Cut="1.2099088430404663e+00" cType="1" res="9.7739901393651962e-03" rms="3.6129915714263916e-01" purity="3.3601838350296021e-01" nType="0">
          <Node pos="l" depth="2" NCoef="0" IVar="9" Cut="3.9976114034652710e-01" cType="1" res="3.3651340752840042e-02" rms="4.0266361832618713e-01" purity="4.7063767910003662e-01" nType="0">
            <Node pos="l" depth="3" NCoef="0" IVar="-1" Cut="0.0000000000000000e+00" cType="1" res="1.1126906611025333e-02" rms="4.0103349089622498e-01" purity="4.7343236207962036e-01" nType="-99"/>
            <Node pos="r" depth="3" NCoef="0" IVar="-1" Cut="0.0000000000000000e+00" cType="1" res="3.4447699785232544e-02" rms="4.0368339419364929e-01" purity="4.6746572852134705e-01" nType="-99"/>
          </Node>
          <Node pos="r" depth="2" NCoef="0" IVar="1" Cut="1.1808312988281250e+03" cType="1" res="-3.5940653178840876e-03" rms="3.3518204092979431e-01" purity="2.6064991950988770e-01" nType="0">
            <Node pos="l" depth="3" NCoef="0" IVar="-1" Cut="0.0000000000000000e+00" cType="1" res="-1.6884114593267441e-02" rms="2.9164117574691772e-01" purity="1.1702488362789154e-01" nType="-99"/>
            <Node pos="r" depth="3" NCoef="0" IVar="-1" Cut="0.0000000000000000e+00" cType="1" res="7.5598671101033688e-03" rms="3.8077396154403687e-01" purity="4.3468895554542542e-01" nType="-99"/>
          </Node>
        </Node>
      </Node>
    </BinaryTree>
    <BinaryTree type="DecisionTree" boostWeight="1.0000000000000000e+00" itree="279">
      <Node pos="s" depth="0" NCoef="0" IVar="5" Cut="1.6686352539062500e+02" cType="1" res="-3.6857416853308678e-03" rms="3.8467302918434143e-01" purity="4.9974381923675537e-01" nType="0">
        <Node pos="l" depth="1" NCoef="0" IVar="9" Cut="-1.3333038985729218e-01" cType="1" res="-4.9234689213335514e-03" rms="3.9040455222129822e-01" purity="4.7046437859535217e-01" nType="0">
          <Node pos="l" depth="2" NCoef="0" IVar="7" Cut="1.1998515129089355e+00" cType="1" res="-9.4318483024835587e-03" rms="3.9094984531402588e-01" purity="4.5974069833755493e-01" nType="0">
            <Node pos="l" depth="3" NCoef="0" IVar="-1" Cut="0.0000000000000000e+00" cType="1" res="-4.1479738429188728e-03" rms="3.9466643333435059e-01" purity="4.8458662629127502e-01" nType="-99"/>
            <Node pos="r" depth="3" NCoef="0" IVar="-1" Cut="0.0000000000000000e+00" cType="1" res="-2.2865531966090202e-02" rms="3.6033204197883606e-01" purity="2.6876652240753174e-01" nType="-99"/>
          </Node>
          <Node pos="r" depth="2" NCoef="0" IVar="3" Cut="3.3630578613281250e+02" cType="1" res="-1.1629712535068393e-03" rms="3.8990926742553711e-01" purity="4.7940906882286072e-01" nType="0">
            <Node pos="l" depth="3" NCoef="0" IVar="-1" Cut="0.0000000000000000e+00" cType="1" res="6.7638640757650137e-04" rms="3.8981041312217712e-01" purity="4.6603554487228394e-01" nType="-99"/>
            <Node pos="r" depth="3" NCoef="0" IVar="-1" Cut="0.0000000000000000e+00" cType="1" res="-1.5948193147778511e-02" rms="3.9018526673316956e-01" purity="6.2307131290435791e-01" nType="-99"/>
          </Node>
        </Node>
        <Node pos="r" depth="1" NCoef="0" IVar="0" Cut="5.3301330566406250e+02" cType="1" res="1.1899834498763084e-02" rms="3.0293971300125122e-01" purity="8.6843341588973999e-01" nType="0">
          <Node pos="l" depth="2" NCoef="0" IVar="-1" Cut="0.0000000000000000e+00" cType="1" res="7.4952528811991215e-03" rms="3.4991300106048584e-01" purity="8.1272977590560913e-01" nType="-99"/>
          <Node pos="r" depth="2" NCoef="0" IVar="-1" Cut="0.0000000000000000e+00" cType="1" res="2.3282393813133240e-02" rms="2.3120780289173126e-01" purity="9.3799912929534912e-01" nType="-99"/>
        </Node>
      </Node>
    </BinaryTree>
    <BinaryTree type="DecisionTree" boostWeight="1.0000000000000000e+00" itree="280">
      <Node pos="s" depth="0" NCoef="0" IVar="8" Cut="1.9999594688415527e+00" cType="1" res="2.0713207777589560e-03" rms="3.8270866870880127e-01" purity="5.0583034753799438e-01" nType="0">
        <Node pos="l" depth="1" NCoef="0" IVar="2" Cut="6.2094372558593750e+02" cType="1" res="8.8823813712224364e-04" rms="3.8394594192504883e-01" purity="5.1604694128036499e-01" nType="0">
          <Node pos="l" depth="2" NCoef="0" IVar="2" Cut="5.6080853271484375e+02" cType="1" res="-3.9543400635011494e-04" rms="3.8236603140830994e-01" purity="5.0917017459869385e-01" nType="0">
            <Node pos="l" depth="3" NCoef="0" IVar="-1" Cut="0.0000000000000000e+00" cType="1" res="1.0227656457573175e-03" rms="3.8234150409698486e-01" purity="5.0931072235107422e-01" nType="-99"/>
            <Node pos="r" depth="3" NCoef="0" IVar="-1" Cut="0.0000000000000000e+00" cType="1" res="-3.1165910884737968e-02" rms="3.8004088401794434e-01" purity="5.0579440593719482e-01" nType="-99"/>
          </Node>
          <Node pos="r" depth="2" NCoef="0" IVar="6" Cut="2.1373371779918671e-01" cType="1" res="1.7028518021106720e-02" rms="4.0293410420417786e-01" purity="6.0251259803771973e-01" nType="0">
            <Node pos="l" depth="3" NCoef="0" IVar="-1" Cut="0.0000000000000000e+00" cType="1" res="-2.9738452285528183e-03" rms="4.0343406796455383e-01" purity="5.8765262365341187e-01" nType="-99"/>
            <Node pos="r" depth="3" NCoef="0" IVar="-1" Cut="0.0000000000000000e+00" cType="1" res="2.7903566136956215e-02" rms="4.0040716528892517e-01" purity="6.2218654155731201e-01" nType="-99"/>
          </Node>
        </Node>
        <Node pos="r" depth="1" NCoef="0" IVar="-1" Cut="0.0000000000000000e+00" cType="1" res="2.0928416401147842e-02" rms="3.5503277182579041e-01" purity="2.9278594255447388e-01" nType="-99"/>
      </Node>
    </BinaryTree>
    <BinaryTree type="DecisionTree" boostWeight="1.0000000000000000e+00" itree="281">
      <Node pos="s" depth="0" NCoef="0" IVar="2" Cut="4.7971969604492188e+02" cType="1" res="-1.0540983639657497e-03" rms="3.8403102755546570e-01" purity="5.0033634901046753e-01" nType="0">
        <Node pos="l" depth="1" NCoef="0" IVar="1" Cut="9.2574829101562500e+02" cType="1" res="1.8334687920287251e-03" rms="3.8265040516853333e-01" purity="4.9288627505302429e-01" nType="0">
          <Node pos="l" depth="2" NCoef="0" IVar="4" Cut="7.3832946777343750e+01" cType="1" res="-1.6318159177899361e-02" rms="3.1572505831718445e-01" purity="1.2315618991851807e-01" nType="0">
            <Node pos="l" depth="3" NCoef="0" IVar="-1" Cut="0.0000000000000000e+00" cType="1" res="1.2497873976826668e-02" rms="2.9351696372032166e-01" purity="1.0222642123699188e-01" nType="-99"/>
            <Node pos="r" depth="3" NCoef="0" IVar="-1" Cut="0.0000000000000000e+00" cType="1" res="-2.6979545131325722e-02" rms="3.2911047339439392e-01" purity="1.3776247203350067e-01" nType="-99"/>
          </Node>
          <Node pos="r" depth="2" NCoef="0" IVar="2" Cut="4.5307369995117188e+02" cType="1" res="4.2807352729141712e-03" rms="3.9073321223258972e-01" purity="5.4273456335067749e-01" nType="0">
            <Node pos="l" depth="3" NCoef="0" IVar="-1" Cut="0.0000000000000000e+00" cType="1" res="3.9000324904918671e-03" rms="3.9194685220718384e-01" purity="5.4193174839019775e-01" nType="-99"/>
            <Node pos="r" depth="3" NCoef="0" IVar="-1" Cut="0.0000000000000000e+00" cType="1" res="-1.8417989835143089e-02" rms="3.6948153376579285e-01" purity="5.5562585592269897e-01" nType="-99"/>
          </Node>
        </Node>
        <Node pos="r" depth="1" NCoef="0" IVar="7" Cut="9.3329328298568726e-01" cType="1" res="-1.3325932435691357e-02" rms="3.8960534334182739e-01" purity="5.3199845552444458e-01" nType="0">
          <Node pos="l" depth="2" NCoef="0" IVar="8" Cut="-6.6640084981918335e-01" cType="1" res="-8.4724444895982742e-03" rms="3.8995802402496338e-01" purity="5.7213705778121948e-01" nType="0">
            <Node pos="l" depth="3" NCoef="0" IVar="-1" Cut="0.0000000000000000e+00" cType="1" res="-1.5565937384963036e-02" rms="3.9207398891448975e-01" purity="4.8159474134445190e-01" nType="-99"/>
            <Node pos="r" depth="3" NCoef="0" IVar="-1" Cut="0.0000000000000000e+00" cType="1" res="-1.5921306330710649e-03" rms="3.8899469375610352e-01" purity="6.0589200258255005e-01" nType="-99"/>
          </Node>
          <Node pos="r" depth="2" NCoef="0" IVar="-1" Cut="0.0000000000000000e+00" cType="1" res="-2.5639148429036140e-02" rms="3.8664111495018005e-01" purity="3.1508830189704895e-01" nType="-99"/>
        </Node>
      </Node>
    </BinaryTree>
    <BinaryTree type="DecisionTree" boostWeight="1.0000000000000000e+00" itree="282">
      <Node pos="s" depth="0" NCoef="0" IVar="5" Cut="8.5091667175292969e+01" cType="1" res="2.3120217956602573e-03" rms="3.8735130429267883e-01" purity="5.0065022706985474e-01" nType="0">
        <Node pos="l" depth="1" NCoef="0" IVar="3" Cut="3.3639654541015625e+02" cType="1" res="7.1568605490028858e-03" rms="3.9138138294219971e-01" purity="3.4432676434516907e-01" nType="0">
          <Node pos="l" depth="2" NCoef="0" IVar="8" Cut="1.3328406214714050e-01" cType="1" res="4.8760655336081982e-03" rms="3.9001262187957764e-01" purity="3.2818520069122314e-01" nType="0">
            <Node pos="l" depth="3" NCoef="0" IVar="-1" Cut="0.0000000000000000e+00" cType="1" res="7.4119372293353081e-03" rms="3.9785450696945190e-01" purity="3.3981242775917053e-01" nType="-99"/>
            <Node pos="r" depth="3" NCoef="0" IVar="-1" Cut="0.0000000000000000e+00" cType="1" res="-1.9484763033688068e-03" rms="3.8039994239807129e-01" purity="3.1446030735969543e-01" nType="-99"/>
          </Node>
          <Node pos="r" depth="2" NCoef="0" IVar="-1" Cut="0.0000000000000000e+00" cType="1" res="2.0990401506423950e-02" rms="4.0770792961120605e-01" purity="5.5571514368057251e-01" nType="-99"/>
        </Node>
        <Node pos="r" depth="1" NCoef="0" IVar="7" Cut="-1.1999062299728394e+00" cType="1" res="-3.4427696373313665e-03" rms="3.8242936134338379e-01" purity="6.8633419275283813e-01" nType="0">
          <Node pos="l" depth="2" NCoef="0" IVar="7" Cut="-1.5808357000350952e+00" cType="1" res="1.8039390444755554e-02" rms="4.0548536181449890e-01" purity="5.2066397666931152e-01" nType="0">
            <Node pos="l" depth="3" NCoef="0" IVar="-1" Cut="0.0000000000000000e+00" cType="1" res="1.6948413103818893e-02" rms="4.2115208506584167e-01" purity="4.4734400510787964e-01" nType="-99"/>
            <Node pos="r" depth="3" NCoef="0" IVar="-1" Cut="0.0000000000000000e+00" cType="1" res="4.5759510248899460e-03" rms="3.8819971680641174e-01" purity="5.9715920686721802e-01" nType="-99"/>
          </Node>
          <Node pos="r" depth="2" NCoef="0" IVar="3" Cut="1.7659759521484375e+02" cType="1" res="-6.1867176555097103e-03" rms="3.7929585576057434e-01" purity="7.0749551057815552e-01" nType="0">
            <Node pos="l" depth="3" NCoef="0" IVar="-1" Cut="0.0000000000000000e+00" cType="1" res="-1.2100414372980595e-02" rms="4.3661454319953918e-01" purity="5.1875227689743042e-01" nType="-99"/>
            <Node pos="r" depth="3" NCoef="0" IVar="-1" Cut="0.0000000000000000e+00" cType="1" res="-1.6039308393374085e-03" rms="3.6284300684928894e-01" purity="7.5645107030868530e-01" nType="-99"/>
          </Node>
        </Node>
      </Node>
    </BinaryTree>
    <BinaryTree type="DecisionTree" boostWeight="1.0000000000000000e+00" itree="283">
      <Node pos="s" depth="0" NCoef="0" IVar="3" Cut="1.4358787536621094e+02" cType="1" res="9.9147460423409939e-04" rms="3.8695478439331055e-01" purity="5.0085347890853882e-01" nType="0">
        <Node pos="l" depth="1" NCoef="0" IVar="3" Cut="9.9834571838378906e+01" cType="1" res="9.5348339527845383e-03" rms="3.6795085668563843e-01" purity="2.4508856236934662e-01" nType="0">
          <Node pos="l" depth="2" NCoef="0" IVar="7" Cut="-1.3404992222785950e-01" cType="1" res="-1.5602095983922482e-02" rms="2.9464286565780640e-01" purity="1.1691125482320786e-01" nType="0">
            <Node pos="l" depth="3" NCoef="0" IVar="-1" Cut="0.0000000000000000e+00" cType="1" res="6.1673372983932495e-03" rms="3.1174507737159729e-01" purity="1.4463540911674500e-01" nType="-99"/>
            <Node pos="r" depth="3" NCoef="0" IVar="-1" Cut="0.0000000000000000e+00" cType="1" res="-3.8180813193321228e-02" rms="2.7552542090415955e-01" purity="9.0173028409481049e-02" nType="-99"/>
          </Node>
          <Node pos="r" depth="2" NCoef="0" IVar="3" Cut="1.2066929626464844e+02" cType="1" res="1.8960367888212204e-02" rms="3.9150416851043701e-01" purity="2.9315090179443359e-01" nType="0">
            <Node pos="l" depth="3" NCoef="0" IVar="-1" Cut="0.0000000000000000e+00" cType="1" res="2.4294920265674591e-02" rms="3.8731259107589722e-01" purity="2.6052972674369812e-01" nType="-99"/>
            <Node pos="r" depth="3" NCoef="0" IVar="-1" Cut="0.0000000000000000e+00" cType="1" res="4.7287708148360252e-03" rms="3.9429855346679688e-01" purity="3.1815740466117859e-01" nType="-99"/>
          </Node>
        </Node>
        <Node pos="r" depth="1" NCoef="0" IVar="2" Cut="4.9859042358398438e+02" cType="1" res="-1.5821213601157069e-03" rms="3.9246276021003723e-01" purity="5.7789993286132812e-01" nType="0">
          <Node pos="l" depth="2" NCoef="0" IVar="6" Cut="-1.1493767797946930e-01" cType="1" res="-4.7388365492224693e-03" rms="3.9210319519042969e-01" purity="5.7397621870040894e-01" nType="0">
            <Node pos="l" depth="3" NCoef="0" IVar="-1" Cut="0.0000000000000000e+00" cType="1" res="8.6062331683933735e-04" rms="3.9449325203895569e-01" purity="5.7006216049194336e-01" nType="-99"/>
            <Node pos="r" depth="3" NCoef="0" IVar="-1" Cut="0.0000000000000000e+00" cType="1" res="-6.3391267322003841e-03" rms="3.9002770185470581e-01" purity="5.7723832130432129e-01" nType="-99"/>
          </Node>
          <Node pos="r" depth="2" NCoef="0" IVar="7" Cut="-6.6625833511352539e-01" cType="1" res="1.1029129847884178e-02" rms="3.9364340901374817e-01" purity="5.9357541799545288e-01" nType="0">
            <Node pos="l" depth="3" NCoef="0" IVar="-1" Cut="0.0000000000000000e+00" cType="1" res="-9.3565015122294426e-03" rms="3.8453400135040283e-01" purity="4.7854751348495483e-01" nType="-99"/>
            <Node pos="r" depth="3" NCoef="0" IVar="-1" Cut="0.0000000000000000e+00" cType="1" res="1.1647578328847885e-02" rms="3.9588680863380432e-01" purity="6.2633049488067627e-01" nType="-99"/>
          </Node>
        </Node>
      </Node>
    </BinaryTree>
    <BinaryTree type="DecisionTree" boostWeight="1.0000000000000000e+00" itree="284">
      <Node pos="s" depth="0" NCoef="0" IVar="9" Cut="-1.4666460752487183e+00" cType="1" res="1.1529859621077776e-03" rms="3.8524076342582703e-01" purity="5.0069808959960938e-01" nType="0">
        <Node pos="l" depth="1" NCoef="0" IVar="8" Cut="1.3320122659206390e-01" cType="1" res="1.6717981547117233e-02" rms="3.8429218530654907e-01" purity="4.0437635779380798e-01" nType="0">
          <Node pos="l" depth="2" NCoef="0" IVar="9" Cut="-1.7841660976409912e+00" cType="1" res="3.9699771441519260e-03" rms="3.7181681394577026e-01" purity="3.8811004161834717e-01" nType="0">
            <Node pos="l" depth="3" NCoef="0" IVar="-1" Cut="0.0000000000000000e+00" cType="1" res="-4.2311996221542358e-03" rms="3.6490365862846375e-01" purity="3.3577913045883179e-01" nType="-99"/>
            <Node pos="r" depth="3" NCoef="0" IVar="-1" Cut="0.0000000000000000e+00" cType="1" res="1.3683860190212727e-02" rms="3.8270178437232971e-01" purity="4.7714471817016602e-01" nType="-99"/>
          </Node>
          <Node pos="r" depth="2" NCoef="0" IVar="7" Cut="-1.3350251317024231e-01" cType="1" res="3.5385999828577042e-02" rms="4.0113234519958496e-01" purity="4.2819660902023315e-01" nType="0">
            <Node pos="l" depth="3" NCoef="0" IVar="-1" Cut="0.0000000000000000e+00" cType="1" res="4.5917451381683350e-02" rms="4.0168216824531555e-01" purity="4.5377239584922791e-01" nType="-99"/>
            <Node pos="r" depth="3" NCoef="0" IVar="-1" Cut="0.0000000000000000e+00" cType="1" res="2.2402163594961166e-03" rms="3.9800253510475159e-01" purity="4.0330418944358826e-01" nType="-99"/>
          </Node>
        </Node>
        <Node pos="r" depth="1" NCoef="0" IVar="9" Cut="-2.4760925769805908e-01" cType="1" res="-1.0732301743701100e-03" rms="3.8532486557960510e-01" purity="5.1447468996047974e-01" nType="0">
          <Node pos="l" depth="2" NCoef="0" IVar="6" Cut="-6.2061536312103271e-01" cType="1" res="-1.0622446425259113e-02" rms="3.8783842325210571e-01" purity="5.1192843914031982e-01" nType="0">
            <Node pos="l" depth="3" NCoef="0" IVar="-1" Cut="0.0000000000000000e+00" cType="1" res="-2.2505465894937515e-02" rms="3.8042753934860229e-01" purity="3.5995617508888245e-01" nType="-99"/>
            <Node pos="r" depth="3" NCoef="0" IVar="-1" Cut="0.0000000000000000e+00" cType="1" res="-1.2556083966046572e-03" rms="3.9030453562736511e-01" purity="5.7036942243576050e-01" nType="-99"/>
          </Node>
          <Node pos="r" depth="2" NCoef="0" IVar="9" Cut="-1.0247988253831863e-01" cType="1" res="3.7477735895663500e-03" rms="3.8395941257476807e-01" purity="5.1576012372970581e-01" nType="0">
            <Node pos="l" depth="3" NCoef="0" IVar="-1" Cut="0.0000000000000000e+00" cType="1" res="1.9662970677018166e-02" rms="3.8374775648117065e-01" purity="6.1022925376892090e-01" nType="-99"/>
            <Node pos="r" depth="3" NCoef="0" IVar="-1" Cut="0.0000000000000000e+00" cType="1" res="1.0054443264380097e-03" rms="3.8389623165130615e-01" purity="5.0754177570343018e-01" nType="-99"/>
          </Node>
        </Node>
      </Node>
    </BinaryTree>
    <BinaryTree type="DecisionTree" boostWeight="1.0000000000000000e+00" itree="285">
      <Node pos="s" depth="0" NCoef="0" IVar="7" Cut="6.6669052839279175e-01" cType="1" res="-6.2265130691230297e-04" rms="3.8606718182563782e-01" purity="5.0098031759262085e-01" nType="0">
        <Node pos="l" depth="1" NCoef="0" IVar="8" Cut="1.9999516010284424e+00" cType="1" res="2.6330710388720036e-03" rms="3.8767805695533752e-01" purity="5.3566253185272217e-01" nType="0">
          <Node pos="l" depth="2" NCoef="0" IVar="3" Cut="4.1588583374023438e+02" cType="1" res="4.5512495562434196e-03" rms="3.8929054141044617e-01" purity="5.4701244831085205e-01" nType="0">
            <Node pos="l" depth="3" NCoef="0" IVar="-1" Cut="0.0000000000000000e+00" cType="1" res="1.9655418582260609e-03" rms="3.8906690478324890e-01" purity="5.3865540027618408e-01" nType="-99"/>
            <Node pos="r" depth="3" NCoef="0" IVar="-1" Cut="0.0000000000000000e+00" cType="1" res="2.2974343970417976e-02" rms="3.9257550239562988e-01" purity="7.2433042526245117e-01" nType="-99"/>
          </Node>
          <Node pos="r" depth="2" NCoef="0" IVar="-1" Cut="0.0000000000000000e+00" cType="1" res="-3.4607678651809692e-02" rms="3.3906820416450500e-01" purity="2.3923407495021820e-01" nType="-99"/>
        </Node>
        <Node pos="r" depth="1" NCoef="0" IVar="7" Cut="1.2762204408645630e+00" cType="1" res="-9.7348764538764954e-03" rms="3.8137471675872803e-01" purity="4.0391072630882263e-01" nType="0">
          <Node pos="l" depth="2" NCoef="0" IVar="5" Cut="9.7325485229492188e+01" cType="1" res="-2.1816115826368332e-02" rms="3.8976651430130005e-01" purity="4.9255606532096863e-01" nType="0">
            <Node pos="l" depth="3" NCoef="0" IVar="-1" Cut="0.0000000000000000e+00" cType="1" res="-1.8731186166405678e-02" rms="3.9330044388771057e-01" purity="3.5250258445739746e-01" nType="-99"/>
            <Node pos="r" depth="3" NCoef="0" IVar="-1" Cut="0.0000000000000000e+00" cType="1" res="-4.0316088125109673e-03" rms="3.8299965858459473e-01" purity="7.3650246858596802e-01" nType="-99"/>
          </Node>
          <Node pos="r" depth="2" NCoef="0" IVar="7" Cut="2.1469504833221436e+00" cType="1" res="4.6207383275032043e-03" rms="3.7064489722251892e-01" purity="2.9857727885246277e-01" nType="0">
            <Node pos="l" depth="3" NCoef="0" IVar="-1" Cut="0.0000000000000000e+00" cType="1" res="8.2087470218539238e-03" rms="3.8591778278350830e-01" purity="3.3947134017944336e-01" nType="-99"/>
            <Node pos="r" depth="3" NCoef="0" IVar="-1" Cut="0.0000000000000000e+00" cType="1" res="-2.1648546680808067e-02" rms="3.0466684699058533e-01" purity="1.4434917271137238e-01" nType="-99"/>
          </Node>
        </Node>
      </Node>
    </BinaryTree>
    <BinaryTree type="DecisionTree" boostWeight="1.0000000000000000e+00" itree="286">
      <Node pos="s" depth="0" NCoef="0" IVar="9" Cut="-3.9992266893386841e-01" cType="1" res="-1.6527152620255947e-03" rms="3.8586097955703735e-01" purity="4.9877068400382996e-01" nType="0">
        <Node pos="l" depth="1" NCoef="0" IVar="3" Cut="1.4284295654296875e+02" cType="1" res="6.3575981184840202e-03" rms="3.8899582624435425e-01" purity="4.8254096508026123e-01" nType="0">
          <Node pos="l" depth="2" NCoef="0" IVar="5" Cut="6.6723289489746094e+01" cType="1" res="-5.4190130904316902e-03" rms="3.6154904961585999e-01" purity="2.1272331476211548e-01" nType="0">
            <Node pos="l" depth="3" NCoef="0" IVar="-1" Cut="0.0000000000000000e+00" cType="1" res="1.1361359618604183e-02" rms="3.2603129744529724e-01" purity="1.6029712557792664e-01" nType="-99"/>
            <Node pos="r" depth="3" NCoef="0" IVar="-1" Cut="0.0000000000000000e+00" cType="1" res="-1.7406990751624107e-02" rms="4.0138238668441772e-01" purity="2.7988865971565247e-01" nType="-99"/>
          </Node>
          <Node pos="r" depth="2" NCoef="0" IVar="5" Cut="1.0843267059326172e+02" cType="1" res="9.9474722519516945e-03" rms="3.9691576361656189e-01" purity="5.6478971242904663e-01" nType="0">
            <Node pos="l" depth="3" NCoef="0" IVar="-1" Cut="0.0000000000000000e+00" cType="1" res="9.0302955359220505e-03" rms="4.1244718432426453e-01" purity="4.7682324051856995e-01" nType="-99"/>
            <Node pos="r" depth="3" NCoef="0" IVar="-1" Cut="0.0000000000000000e+00" cType="1" res="-9.5182633958756924e-04" rms="3.6210051178932190e-01" purity="7.4840533733367920e-01" nType="-99"/>
          </Node>
        </Node>
        <Node pos="r" depth="1" NCoef="0" IVar="7" Cut="-9.3323189020156860e-01" cType="1" res="-6.5483972430229187e-03" rms="3.8385012745857239e-01" purity="5.0868982076644897e-01" nType="0">
          <Node pos="l" depth="2" NCoef="0" IVar="4" Cut="1.2220218658447266e+02" cType="1" res="8.9852623641490936e-03" rms="3.8081344962120056e-01" purity="4.0019914507865906e-01" nType="0">
            <Node pos="l" depth="3" NCoef="0" IVar="-1" Cut="0.0000000000000000e+00" cType="1" res="1.8306851387023926e-02" rms="3.6849728226661682e-01" purity="2.6841923594474792e-01" nType="-99"/>
            <Node pos="r" depth="3" NCoef="0" IVar="-1" Cut="0.0000000000000000e+00" cType="1" res="-6.1957431025803089e-03" rms="3.9394205808639526e-01" purity="5.5478703975677490e-01" nType="-99"/>
          </Node>
          <Node pos="r" depth="2" NCoef="0" IVar="5" Cut="7.7251487731933594e+01" cType="1" res="-9.7879758104681969e-03" rms="3.8440132141113281e-01" purity="5.3131580352783203e-01" nType="0">
            <Node pos="l" depth="3" NCoef="0" IVar="-1" Cut="0.0000000000000000e+00" cType="1" res="-1.2946657836437225e-02" rms="3.8744539022445679e-01" purity="3.2374337315559387e-01" nType="-99"/>
            <Node pos="r" depth="3" NCoef="0" IVar="-1" Cut="0.0000000000000000e+00" cType="1" res="-1.2499348958954215e-03" rms="3.8190722465515137e-01" purity="6.8708366155624390e-01" nType="-99"/>
          </Node>
        </Node>
      </Node>
    </BinaryTree>
    <BinaryTree type="DecisionTree" boostWeight="1.0000000000000000e+00" itree="287">
      <Node pos="s" depth="0" NCoef="0" IVar="9" Cut="-1.4666403532028198e+00" cType="1" res="4.0489118546247482e-03" rms="3.8808754086494446e-01" purity="5.0134772062301636e-01" nType="0">
        <Node pos="l" depth="1" NCoef="0" IVar="2" Cut="4.3242422485351562e+02" cType="1" res="-1.3893470168113708e-02" rms="3.7754604220390320e-01" purity="3.7132617831230164e-01" nType="0">
          <Node pos="l" depth="2" NCoef="0" IVar="2" Cut="3.2174493408203125e+02" cType="1" res="-2.2619716823101044e-02" rms="3.6592379212379456e-01" purity="3.4708836674690247e-01" nType="0">
            <Node pos="l" depth="3" NCoef="0" IVar="-1" Cut="0.0000000000000000e+00" cType="1" res="-7.8849643468856812e-03" rms="3.7496086955070496e-01" purity="3.3640980720520020e-01" nType="-99"/>
            <Node pos="r" depth="3" NCoef="0" IVar="-1" Cut="0.0000000000000000e+00" cType="1" res="-2.9487792402505875e-02" rms="3.5017982125282288e-01" purity="3.6427623033523560e-01" nType="-99"/>
          </Node>
          <Node pos="r" depth="2" NCoef="0" IVar="-1" Cut="0.0000000000000000e+00" cType="1" res="6.4880806021392345e-03" rms="4.0733215212821960e-01" purity="4.3917551636695862e-01" nType="-99"/>
        </Node>
        <Node pos="r" depth="1" NCoef="0" IVar="4" Cut="2.7576812744140625e+02" cType="1" res="6.4485627226531506e-03" rms="3.8941308856010437e-01" purity="5.1873701810836792e-01" nType="0">
          <Node pos="l" depth="2" NCoef="0" IVar="9" Cut="1.1746215820312500e+00" cType="1" res="7.9483529552817345e-03" rms="3.9085122942924500e-01" purity="5.0943332910537720e-01" nType="0">
            <Node pos="l" depth="3" NCoef="0" IVar="-1" Cut="0.0000000000000000e+00" cType="1" res="3.2537209335714579e-03" rms="3.9178013801574707e-01" purity="5.3064757585525513e-01" nType="-99"/>
            <Node pos="r" depth="3" NCoef="0" IVar="-1" Cut="0.0000000000000000e+00" cType="1" res="1.2568464502692223e-02" rms="3.8713970780372620e-01" purity="4.2973971366882324e-01" nType="-99"/>
          </Node>
          <Node pos="r" depth="2" NCoef="0" IVar="-1" Cut="0.0000000000000000e+00" cType="1" res="-3.4472521394491196e-02" rms="3.4132403135299683e-01" purity="7.9329782724380493e-01" nType="-99"/>
        </Node>
      </Node>
    </BinaryTree>
    <BinaryTree type="DecisionTree" boostWeight="1.0000000000000000e+00" itree="288">
      <Node pos="s" depth="0" NCoef="0" IVar="9" Cut="-1.9999699592590332e+00" cType="1" res="2.0288564264774323e-03" rms="3.8708803057670593e-01" purity="5.0170356035232544e-01" nType="0">
        <Node pos="l" depth="1" NCoef="0" IVar="3" Cut="1.8519361877441406e+02" cType="1" res="2.3773562163114548e-02" rms="3.8537621498107910e-01" purity="3.5603883862495422e-01" nType="0">
          <Node pos="l" depth="2" NCoef="0" IVar="-1" Cut="0.0000000000000000e+00" cType="1" res="3.9714816957712173e-02" rms="3.6980074644088745e-01" purity="2.7283889055252075e-01" nType="-99"/>
          <Node pos="r" depth="2" NCoef="0" IVar="-1" Cut="0.0000000000000000e+00" cType="1" res="-4.1819480247795582e-03" rms="4.0070527791976929e-01" purity="4.5357698202133179e-01" nType="-99"/>
        </Node>
        <Node pos="r" depth="1" NCoef="0" IVar="6" Cut="4.0738290548324585e-01" cType="1" res="7.8183191362768412e-04" rms="3.8714894652366638e-01" purity="5.1005715131759644e-01" nType="0">
          <Node pos="l" depth="2" NCoef="0" IVar="7" Cut="-3.9993324875831604e-01" cType="1" res="-2.4520666338503361e-03" rms="3.8965168595314026e-01" purity="5.3600674867630005e-01" nType="0">
            <Node pos="l" depth="3" NCoef="0" IVar="-1" Cut="0.0000000000000000e+00" cType="1" res="-5.9314109385013580e-03" rms="3.8598167896270752e-01" purity="4.8945400118827820e-01" nType="-99"/>
            <Node pos="r" depth="3" NCoef="0" IVar="-1" Cut="0.0000000000000000e+00" cType="1" res="8.8816031347960234e-04" rms="3.9166787266731262e-01" purity="5.6242531538009644e-01" nType="-99"/>
          </Node>
          <Node pos="r" depth="2" NCoef="0" IVar="7" Cut="-3.9997968077659607e-01" cType="1" res="7.0260642096400261e-03" rms="3.8219270110130310e-01" purity="4.5995208621025085e-01" nType="0">
            <Node pos="l" depth="3" NCoef="0" IVar="-1" Cut="0.0000000000000000e+00" cType="1" res="1.2174469418823719e-02" rms="3.8285994529724121e-01" purity="4.2001706361770630e-01" nType="-99"/>
            <Node pos="r" depth="3" NCoef="0" IVar="-1" Cut="0.0000000000000000e+00" cType="1" res="1.3071956345811486e-03" rms="3.8176855444908142e-01" purity="4.7904565930366516e-01" nType="-99"/>
          </Node>
        </Node>
      </Node>
    </BinaryTree>
    <BinaryTree type="DecisionTree" boostWeight="1.0000000000000000e+00" itree="289">
      <Node pos="s" depth="0" NCoef="0" IVar="9" Cut="-1.4666415452957153e+00" cType="1" res="-1.5082273166626692e-03" rms="3.8692232966423035e-01" purity="4.9600434303283691e-01" nType="0">
        <Node pos="l" depth="1" NCoef="0" IVar="4" Cut="1.2660439300537109e+02" cType="1" res="1.3347846455872059e-02" rms="3.8916578888893127e-01" purity="4.0040352940559387e-01" nType="0">
          <Node pos="l" depth="2" NCoef="0" IVar="6" Cut="-3.7956780195236206e-01" cType="1" res="-1.2979083694517612e-03" rms="3.7082669138908386e-01" purity="2.6038101315498352e-01" nType="0">
            <Node pos="l" depth="3" NCoef="0" IVar="-1" Cut="0.0000000000000000e+00" cType="1" res="-1.9470574334263802e-02" rms="3.3427843451499939e-01" purity="1.8120582401752472e-01" nType="-99"/>
            <Node pos="r" depth="3" NCoef="0" IVar="-1" Cut="0.0000000000000000e+00" cType="1" res="9.3934070318937302e-03" rms="3.9363077282905579e-01" purity="3.1575399637222290e-01" nType="-99"/>
          </Node>
          <Node pos="r" depth="2" NCoef="0" IVar="9" Cut="-1.9110628366470337e+00" cType="1" res="3.3532116562128067e-02" rms="4.1225633025169373e-01" purity="5.9337770938873291e-01" nType="0">
            <Node pos="l" depth="3" NCoef="0" IVar="-1" Cut="0.0000000000000000e+00" cType="1" res="1.7618980258703232e-02" rms="4.1902613639831543e-01" purity="5.4561823606491089e-01" nType="-99"/>
            <Node pos="r" depth="3" NCoef="0" IVar="-1" Cut="0.0000000000000000e+00" cType="1" res="2.2135967388749123e-02" rms="4.0572285652160645e-01" purity="6.3859874010086060e-01" nType="-99"/>
          </Node>
        </Node>
        <Node pos="r" depth="1" NCoef="0" IVar="9" Cut="-1.2634689807891846e+00" cType="1" res="-3.6418500822037458e-03" rms="3.8655218482017517e-01" purity="5.0973451137542725e-01" nType="0">
          <Node pos="l" depth="2" NCoef="0" IVar="-1" Cut="0.0000000000000000e+00" cType="1" res="-2.2825345396995544e-02" rms="3.8383695483207703e-01" purity="4.3699705600738525e-01" nType="-99"/>
          <Node pos="r" depth="2" NCoef="0" IVar="8" Cut="-1.4666045904159546e+00" cType="1" res="-2.3537857923656702e-03" rms="3.8660678267478943e-01" purity="5.1268291473388672e-01" nType="0">
            <Node pos="l" depth="3" NCoef="0" IVar="-1" Cut="0.0000000000000000e+00" cType="1" res="7.6223993673920631e-03" rms="3.9367154240608215e-01" purity="3.5096451640129089e-01" nType="-99"/>
            <Node pos="r" depth="3" NCoef="0" IVar="-1" Cut="0.0000000000000000e+00" cType="1" res="-2.5859652087092400e-03" rms="3.8577580451965332e-01" purity="5.3081560134887695e-01" nType="-99"/>
          </Node>
        </Node>
      </Node>
    </BinaryTree>
    <BinaryTree type="DecisionTree" boostWeight="1.0000000000000000e+00" itree="290">
      <Node pos="s" depth="0" NCoef="0" IVar="7" Cut="-1.9999485015869141e+00" cType="1" res="-9.2896842397749424e-04" rms="3.8647401332855225e-01" purity="5.0127542018890381e-01" nType="0">
        <Node pos="l" depth="1" NCoef="0" IVar="-1" Cut="0.0000000000000000e+00" cType="1" res="-3.2059501856565475e-02" rms="2.9556584358215332e-01" purity="1.3910815119743347e-01" nType="-99"/>
        <Node pos="r" depth="1" NCoef="0" IVar="6" Cut="-9.0356516838073730e-01" cType="1" res="1.9756867550313473e-04" rms="3.8919776678085327e-01" purity="5.1383733749389648e-01" nType="0">
          <Node pos="l" depth="2" NCoef="0" IVar="4" Cut="1.2014240264892578e+02" cType="1" res="-9.8448200151324272e-03" rms="3.6034080386161804e-01" purity="3.3057856559753418e-01" nType="0">
            <Node pos="l" depth="3" NCoef="0" IVar="-1" Cut="0.0000000000000000e+00" cType="1" res="-1.8863286823034286e-02" rms="3.1974056363105774e-01" purity="1.5919166803359985e-01" nType="-99"/>
            <Node pos="r" depth="3" NCoef="0" IVar="-1" Cut="0.0000000000000000e+00" cType="1" res="1.5249140560626984e-03" rms="3.9836516976356506e-01" purity="5.1148450374603271e-01" nType="-99"/>
          </Node>
          <Node pos="r" depth="2" NCoef="0" IVar="6" Cut="1.5454077720642090e-01" cType="1" res="2.2479956969618797e-03" rms="3.9479911327362061e-01" purity="5.5125463008880615e-01" nType="0">
            <Node pos="l" depth="3" NCoef="0" IVar="-1" Cut="0.0000000000000000e+00" cType="1" res="5.5320928804576397e-03" rms="4.0032052993774414e-01" purity="6.1690407991409302e-01" nType="-99"/>
            <Node pos="r" depth="3" NCoef="0" IVar="-1" Cut="0.0000000000000000e+00" cType="1" res="-2.5447283405810595e-03" rms="3.8953939080238342e-01" purity="4.9072158336639404e-01" nType="-99"/>
          </Node>
        </Node>
      </Node>
    </BinaryTree>
    <BinaryTree type="DecisionTree" boostWeight="1.0000000000000000e+00" itree="291">
      <Node pos="s" depth="0" NCoef="0" IVar="7" Cut="-1.1998771429061890e+00" cType="1" res="1.2732787290588021e-03" rms="3.8726574182510376e-01" purity="4.9745801091194153e-01" nType="0">
        <Node pos="l" depth="1" NCoef="0" IVar="3" Cut="1.7044618225097656e+02" cType="1" res="-1.4948103576898575e-02" rms="3.5441735386848450e-01" purity="2.8122323751449585e-01" nType="0">
          <Node pos="l" depth="2" NCoef="0" IVar="3" Cut="1.1968846893310547e+02" cType="1" res="4.3114051222801208e-03" rms="3.3449053764343262e-01" purity="1.8875119090080261e-01" nType="0">
            <Node pos="l" depth="3" NCoef="0" IVar="-1" Cut="0.0000000000000000e+00" cType="1" res="2.3176504299044609e-02" rms="3.0751127004623413e-01" purity="1.4644360542297363e-01" nType="-99"/>
            <Node pos="r" depth="3" NCoef="0" IVar="-1" Cut="0.0000000000000000e+00" cType="1" res="-6.5881223417818546e-03" rms="3.5299283266067505e-01" purity="2.2075608372688293e-01" nType="-99"/>
          </Node>
          <Node pos="r" depth="2" NCoef="0" IVar="4" Cut="1.5678546142578125e+02" cType="1" res="-3.2314237207174301e-02" rms="3.7061271071434021e-01" purity="3.6460444331169128e-01" nType="0">
            <Node pos="l" depth="3" NCoef="0" IVar="-1" Cut="0.0000000000000000e+00" cType="1" res="-2.9283482581377029e-02" rms="3.5085254907608032e-01" purity="2.5077420473098755e-01" nType="-99"/>
            <Node pos="r" depth="3" NCoef="0" IVar="-1" Cut="0.0000000000000000e+00" cType="1" res="-1.0382922366261482e-02" rms="3.9603257179260254e-01" purity="5.2344721555709839e-01" nType="-99"/>
          </Node>
        </Node>
        <Node pos="r" depth="1" NCoef="0" IVar="5" Cut="8.5091667175292969e+01" cType="1" res="3.6874173674732447e-03" rms="3.9186170697212219e-01" purity="5.2963900566101074e-01" nType="0">
          <Node pos="l" depth="2" NCoef="0" IVar="5" Cut="5.6684074401855469e+01" cType="1" res="9.4840265810489655e-03" rms="4.0201660990715027e-01" purity="3.7797465920448303e-01" nType="0">
            <Node pos="l" depth="3" NCoef="0" IVar="-1" Cut="0.0000000000000000e+00" cType="1" res="-1.1537085287272930e-02" rms="3.6894509196281433e-01" purity="2.5263872742652893e-01" nType="-99"/>
            <Node pos="r" depth="3" NCoef="0" IVar="-1" Cut="0.0000000000000000e+00" cType="1" res="1.0607452131807804e-02" rms="4.1173833608627319e-01" purity="4.1825723648071289e-01" nType="-99"/>
          </Node>
          <Node pos="r" depth="2" NCoef="0" IVar="9" Cut="-6.6640657186508179e-01" cType="1" res="-3.0964259058237076e-03" rms="3.7952002882957458e-01" purity="7.0713365077972412e-01" nType="0">
            <Node pos="l" depth="3" NCoef="0" IVar="-1" Cut="0.0000000000000000e+00" cType="1" res="-9.5905130729079247e-03" rms="3.8881829380989075e-01" purity="6.7210501432418823e-01" nType="-99"/>
            <Node pos="r" depth="3" NCoef="0" IVar="-1" Cut="0.0000000000000000e+00" cType="1" res="6.1105383792892098e-04" rms="3.7607046961784363e-01" purity="7.1962064504623413e-01" nType="-99"/>
          </Node>
        </Node>
      </Node>
    </BinaryTree>
    <BinaryTree type="DecisionTree" boostWeight="1.0000000000000000e+00" itree="292">
      <Node pos="s" depth="0" NCoef="0" IVar="9" Cut="-1.9999690055847168e+00" cType="1" res="-1.6208278248086572e-03" rms="3.8471472263336182e-01" purity="5.0011336803436279e-01" nType="0">
        <Node pos="l" depth="1" NCoef="0" IVar="5" Cut="6.9618171691894531e+01" cType="1" res="2.4325720965862274e-02" rms="3.8627111911773682e-01" purity="3.7093058228492737e-01" nType="0">
          <Node pos="l" depth="2" NCoef="0" IVar="-1" Cut="0.0000000000000000e+00" cType="1" res="9.8333333153277636e-04" rms="3.4836021065711975e-01" purity="2.0630514621734619e-01" nType="-99"/>
          <Node pos="r" depth="2" NCoef="0" IVar="-1" Cut="0.0000000000000000e+00" cType="1" res="2.6258161291480064e-02" rms="4.1392749547958374e-01" purity="5.0650638341903687e-01" nType="-99"/>
        </Node>
        <Node pos="r" depth="1" NCoef="0" IVar="7" Cut="-1.7333009243011475e+00" cType="1" res="-3.1908689998090267e-03" rms="3.8456419110298157e-01" purity="5.0793033838272095e-01" nType="0">
          <Node pos="l" depth="2" NCoef="0" IVar="6" Cut="-8.7254695594310760e-02" cType="1" res="1.9079688936471939e-02" rms="3.5262265801429749e-01" purity="2.4874079227447510e-01" nType="0">
            <Node pos="l" depth="3" NCoef="0" IVar="-1" Cut="0.0000000000000000e+00" cType="1" res="2.8856478631496429e-02" rms="3.7659093737602234e-01" purity="2.7391663193702698e-01" nType="-99"/>
            <Node pos="r" depth="3" NCoef="0" IVar="-1" Cut="0.0000000000000000e+00" cType="1" res="3.3720075152814388e-03" rms="3.2868218421936035e-01" purity="2.2593590617179871e-01" nType="-99"/>
          </Node>
          <Node pos="r" depth="2" NCoef="0" IVar="8" Cut="-3.9995676279067993e-01" cType="1" res="-4.5226537622511387e-03" rms="3.8634994626045227e-01" purity="5.2342993021011353e-01" nType="0">
            <Node pos="l" depth="3" NCoef="0" IVar="-1" Cut="0.0000000000000000e+00" cType="1" res="-7.9491417855024338e-03" rms="3.9050257205963135e-01" purity="4.8981878161430359e-01" nType="-99"/>
            <Node pos="r" depth="3" NCoef="0" IVar="-1" Cut="0.0000000000000000e+00" cType="1" res="-2.4326911079697311e-04" rms="3.8403806090354919e-01" purity="5.4147177934646606e-01" nType="-99"/>
          </Node>
        </Node>
      </Node>
    </BinaryTree>
    <BinaryTree type="DecisionTree" boostWeight="1.0000000000000000e+00" itree="293">
      <Node pos="s" depth="0" NCoef="0" IVar="7" Cut="6.6666620969772339e-01" cType="1" res="-1.5136274741962552e-03" rms="3.8625031709671021e-01" purity="4.9489206075668335e-01" nType="0">
        <Node pos="l" depth="1" NCoef="0" IVar="4" Cut="1.9832226562500000e+02" cType="1" res="-5.3244796581566334e-03" rms="3.8703453540802002e-01" purity="5.2282887697219849e-01" nType="0">
          <Node pos="l" depth="2" NCoef="0" IVar="7" Cut="1.7143091559410095e-01" cType="1" res="-8.3536664023995399e-03" rms="3.9555940032005310e-01" purity="4.6372613310813904e-01" nType="0">
            <Node pos="l" depth="3" NCoef="0" IVar="-1" Cut="0.0000000000000000e+00" cType="1" res="-2.9845617245882750e-03" rms="3.9337202906608582e-01" purity="4.5056015253067017e-01" nType="-99"/>
            <Node pos="r" depth="3" NCoef="0" IVar="-1" Cut="0.0000000000000000e+00" cType="1" res="-1.2932400219142437e-02" rms="4.0298309922218323e-01" purity="5.1061677932739258e-01" nType="-99"/>
          </Node>
          <Node pos="r" depth="2" NCoef="0" IVar="5" Cut="1.0843195343017578e+02" cType="1" res="9.0068010613322258e-03" rms="3.4348741173744202e-01" purity="8.0244773626327515e-01" nType="0">
            <Node pos="l" depth="3" NCoef="0" IVar="-1" Cut="0.0000000000000000e+00" cType="1" res="1.4984365552663803e-02" rms="3.9573442935943604e-01" purity="7.0574438571929932e-01" nType="-99"/>
            <Node pos="r" depth="3" NCoef="0" IVar="-1" Cut="0.0000000000000000e+00" cType="1" res="1.7441993113607168e-03" rms="3.1469228863716125e-01" purity="8.4949707984924316e-01" nType="-99"/>
          </Node>
        </Node>
        <Node pos="r" depth="1" NCoef="0" IVar="8" Cut="-6.6661250591278076e-01" cType="1" res="8.6301742121577263e-03" rms="3.8397076725959778e-01" purity="4.2052927613258362e-01" nType="0">
          <Node pos="l" depth="2" NCoef="0" IVar="5" Cut="6.9426338195800781e+01" cType="1" res="-1.2017302215099335e-02" rms="3.7262767553329468e-01" purity="3.2392805814743042e-01" nType="0">
            <Node pos="l" depth="3" NCoef="0" IVar="-1" Cut="0.0000000000000000e+00" cType="1" res="8.7954271584749222e-03" rms="3.4884822368621826e-01" purity="1.9822014868259430e-01" nType="-99"/>
            <Node pos="r" depth="3" NCoef="0" IVar="-1" Cut="0.0000000000000000e+00" cType="1" res="-1.7715286463499069e-02" rms="3.8848394155502319e-01" purity="4.1703379154205322e-01" nType="-99"/>
          </Node>
          <Node pos="r" depth="2" NCoef="0" IVar="8" Cut="4.8891296982765198e-01" cType="1" res="1.4932631514966488e-02" rms="3.8714769482612610e-01" purity="4.5001590251922607e-01" nType="0">
            <Node pos="l" depth="3" NCoef="0" IVar="-1" Cut="0.0000000000000000e+00" cType="1" res="2.1330699324607849e-02" rms="3.9814609289169312e-01" purity="5.3759300708770752e-01" nType="-99"/>
            <Node pos="r" depth="3" NCoef="0" IVar="-1" Cut="0.0000000000000000e+00" cType="1" res="-7.1582896634936333e-04" rms="3.7653258442878723e-01" purity="3.7334182858467102e-01" nType="-99"/>
          </Node>
        </Node>
      </Node>
    </BinaryTree>
    <BinaryTree type="DecisionTree" boostWeight="1.0000000000000000e+00" itree="294">
      <Node pos="s" depth="0" NCoef="0" IVar="7" Cut="4.0007492899894714e-01" cType="1" res="1.8819446268025786e-04" rms="3.8886520266532898e-01" purity="4.9837708473205566e-01" nType="0">
        <Node pos="l" depth="1" NCoef="0" IVar="3" Cut="2.3480358886718750e+02" cType="1" res="-3.9674374274909496e-03" rms="3.8747507333755493e-01" purity="5.1970016956329346e-01" nType="0">
          <Node pos="l" depth="2" NCoef="0" IVar="7" Cut="-2.0379436016082764e+00" cType="1" res="-8.2807447761297226e-03" rms="3.9376899600028992e-01" purity="4.1956764459609985e-01" nType="0">
            <Node pos="l" depth="3" NCoef="0" IVar="-1" Cut="0.0000000000000000e+00" cType="1" res="1.9017377868294716e-02" rms="3.2543325424194336e-01" purity="1.6623587906360626e-01" nType="-99"/>
            <Node pos="r" depth="3" NCoef="0" IVar="-1" Cut="0.0000000000000000e+00" cType="1" res="-6.2708090990781784e-03" rms="3.9786976575851440e-01" purity="4.3656849861145020e-01" nType="-99"/>
          </Node>
          <Node pos="r" depth="2" NCoef="0" IVar="8" Cut="-3.9976745843887329e-01" cType="1" res="3.6518184933811426e-03" rms="3.7597897648811340e-01" purity="6.9657963514328003e-01" nType="0">
            <Node pos="l" depth="3" NCoef="0" IVar="-1" Cut="0.0000000000000000e+00" cType="1" res="1.0558804497122765e-02" rms="3.8133332133293152e-01" purity="6.7605894804000854e-01" nType="-99"/>
            <Node pos="r" depth="3" NCoef="0" IVar="-1" Cut="0.0000000000000000e+00" cType="1" res="-2.7950955554842949e-03" rms="3.7248370051383972e-01" purity="7.0908081531524658e-01" nType="-99"/>
          </Node>
        </Node>
        <Node pos="r" depth="1" NCoef="0" IVar="6" Cut="-1.4536623954772949e+00" cType="1" res="7.6770032756030560e-03" rms="3.9124646782875061e-01" purity="4.5995095372200012e-01" nType="0">
          <Node pos="l" depth="2" NCoef="0" IVar="-1" Cut="0.0000000000000000e+00" cType="1" res="3.6956597119569778e-02" rms="3.4127125144004822e-01" purity="2.3684553802013397e-01" nType="-99"/>
          <Node pos="r" depth="2" NCoef="0" IVar="2" Cut="4.9131399536132812e+02" cType="1" res="5.3414218127727509e-03" rms="3.9465770125389099e-01" purity="4.7676408290863037e-01" nType="0">
            <Node pos="l" depth="3" NCoef="0" IVar="-1" Cut="0.0000000000000000e+00" cType="1" res="1.1843807296827435e-03" rms="3.9132693409919739e-01" purity="4.6689474582672119e-01" nType="-99"/>
            <Node pos="r" depth="3" NCoef="0" IVar="-1" Cut="0.0000000000000000e+00" cType="1" res="1.3311249203979969e-02" rms="4.0937513113021851e-01" purity="5.2261120080947876e-01" nType="-99"/>
          </Node>
        </Node>
      </Node>
    </BinaryTree>
    <BinaryTree type="DecisionTree" boostWeight="1.0000000000000000e+00" itree="295">
      <Node pos="s" depth="0" NCoef="0" IVar="9" Cut="-1.4666460752487183e+00" cType="1" res="1.3395996065810323e-03" rms="3.8501167297363281e-01" purity="5.0176167488098145e-01" nType="0">
        <Node pos="l" depth="1" NCoef="0" IVar="9" Cut="-2.2285549640655518e+00" cType="1" res="-1.0884883813560009e-02" rms="3.7491136789321899e-01" purity="3.8778445124626160e-01" nType="0">
          <Node pos="l" depth="2" NCoef="0" IVar="-1" Cut="0.0000000000000000e+00" cType="1" res="-2.1279672160744667e-02" rms="3.5577946901321411e-01" purity="2.9769226908683777e-01" nType="-99"/>
          <Node pos="r" depth="2" NCoef="0" IVar="8" Cut="1.3321770727634430e-01" cType="1" res="-4.0092528797686100e-03" rms="3.8128548860549927e-01" purity="4.2000460624694824e-01" nType="0">
            <Node pos="l" depth="3" NCoef="0" IVar="-1" Cut="0.0000000000000000e+00" cType="1" res="4.0129618719220161e-03" rms="3.6992222070693970e-01" purity="4.2632320523262024e-01" nType="-99"/>
            <Node pos="r" depth="3" NCoef="0" IVar="-1" Cut="0.0000000000000000e+00" cType="1" res="-1.3096235692501068e-02" rms="3.9851427078247070e-01" purity="4.0974551439285278e-01" nType="-99"/>
          </Node>
        </Node>
        <Node pos="r" depth="1" NCoef="0" IVar="9" Cut="1.7840914726257324e+00" cType="1" res="3.0263285152614117e-03" rms="3.8635423779487610e-01" purity="5.1748818159103394e-01" nType="0">
          <Node pos="l" depth="2" NCoef="0" IVar="8" Cut="-1.4665879011154175e+00" cType="1" res="1.5287697315216064e-03" rms="3.8624244928359985e-01" purity="5.2964228391647339e-01" nType="0">
            <Node pos="l" depth="3" NCoef="0" IVar="-1" Cut="0.0000000000000000e+00" cType="1" res="1.0994655080139637e-02" rms="3.8050520420074463e-01" purity="3.7798401713371277e-01" nType="-99"/>
            <Node pos="r" depth="3" NCoef="0" IVar="-1" Cut="0.0000000000000000e+00" cType="1" res="-1.4470587484538555e-04" rms="3.8687071204185486e-01" purity="5.4739212989807129e-01" nType="-99"/>
          </Node>
          <Node pos="r" depth="2" NCoef="0" IVar="7" Cut="1.3419567048549652e-01" cType="1" res="1.7553629353642464e-02" rms="3.8713642954826355e-01" purity="3.9958551526069641e-01" nType="0">
            <Node pos="l" depth="3" NCoef="0" IVar="-1" Cut="0.0000000000000000e+00" cType="1" res="2.5207422673702240e-02" rms="3.9159846305847168e-01" purity="4.4724240899085999e-01" nType="-99"/>
            <Node pos="r" depth="3" NCoef="0" IVar="-1" Cut="0.0000000000000000e+00" cType="1" res="-2.8137885965406895e-03" rms="3.8125818967819214e-01" purity="3.5016143321990967e-01" nType="-99"/>
          </Node>
        </Node>
      </Node>
    </BinaryTree>
    <BinaryTree type="DecisionTree" boostWeight="1.0000000000000000e+00" itree="296">
      <Node pos="s" depth="0" NCoef="0" IVar="9" Cut="1.3338331878185272e-01" cType="1" res="1.6885764198377728e-03" rms="3.8575917482376099e-01" purity="5.0221544504165649e-01" nType="0">
        <Node pos="l" depth="1" NCoef="0" IVar="6" Cut="1.2098780870437622e+00" cType="1" res="8.1010628491640091e-03" rms="3.8954141736030579e-01" purity="5.1440429687500000e-01" nType="0">
          <Node pos="l" depth="2" NCoef="0" IVar="4" Cut="9.7183288574218750e+01" cType="1" res="5.8713294565677643e-03" rms="3.9170697331428528e-01" purity="5.3401511907577515e-01" nType="0">
            <Node pos="l" depth="3" NCoef="0" IVar="-1" Cut="0.0000000000000000e+00" cType="1" res="9.7585087642073631e-03" rms="3.9000174403190613e-01" purity="2.8099241852760315e-01" nType="-99"/>
            <Node pos="r" depth="3" NCoef="0" IVar="-1" Cut="0.0000000000000000e+00" cType="1" res="1.5014929231256247e-03" rms="3.9233911037445068e-01" purity="6.3636535406112671e-01" nType="-99"/>
          </Node>
          <Node pos="r" depth="2" NCoef="0" IVar="-1" Cut="0.0000000000000000e+00" cType="1" res="2.3401431739330292e-02" rms="3.6698189377784729e-01" purity="3.2264927029609680e-01" nType="-99"/>
        </Node>
        <Node pos="r" depth="1" NCoef="0" IVar="4" Cut="1.4347654724121094e+02" cType="1" res="-5.9352228417992592e-03" rms="3.8107326626777649e-01" purity="4.8772421479225159e-01" nType="0">
          <Node pos="l" depth="2" NCoef="0" IVar="7" Cut="4.0006902813911438e-01" cType="1" res="-1.1997780762612820e-02" rms="3.8424077630043030e-01" purity="3.4456780552864075e-01" nType="0">
            <Node pos="l" depth="3" NCoef="0" IVar="-1" Cut="0.0000000000000000e+00" cType="1" res="-2.3723882623016834e-03" rms="3.9278891682624817e-01" purity="3.9246615767478943e-01" nType="-99"/>
            <Node pos="r" depth="3" NCoef="0" IVar="-1" Cut="0.0000000000000000e+00" cType="1" res="-1.6685951501131058e-02" rms="3.7086135149002075e-01" purity="2.7349239587783813e-01" nType="-99"/>
          </Node>
          <Node pos="r" depth="2" NCoef="0" IVar="4" Cut="2.2795761108398438e+02" cType="1" res="3.5081771202385426e-03" rms="3.7589147686958313e-01" purity="7.1071302890777588e-01" nType="0">
            <Node pos="l" depth="3" NCoef="0" IVar="-1" Cut="0.0000000000000000e+00" cType="1" res="6.4285299740731716e-03" rms="3.8056510686874390e-01" purity="6.9584739208221436e-01" nType="-99"/>
            <Node pos="r" depth="3" NCoef="0" IVar="-1" Cut="0.0000000000000000e+00" cType="1" res="-1.5828454867005348e-02" rms="3.5623025894165039e-01" purity="7.6840496063232422e-01" nType="-99"/>
          </Node>
        </Node>
      </Node>
    </BinaryTree>
    <BinaryTree type="DecisionTree" boostWeight="1.0000000000000000e+00" itree="297">
      <Node pos="s" depth="0" NCoef="0" IVar="8" Cut="-1.7333338260650635e+00" cType="1" res="2.1489590872079134e-03" rms="3.8659408688545227e-01" purity="4.9957334995269775e-01" nType="0">
        <Node pos="l" depth="1" NCoef="0" IVar="6" Cut="1.5520575642585754e-01" cType="1" res="-1.3739828951656818e-02" rms="3.6228483915328979e-01" purity="2.5964546203613281e-01" nType="0">
          <Node pos="l" depth="2" NCoef="0" IVar="-1" Cut="0.0000000000000000e+00" cType="1" res="6.6560867708176374e-04" rms="3.6986809968948364e-01" purity="2.9951092600822449e-01" nType="-99"/>
          <Node pos="r" depth="2" NCoef="0" IVar="-1" Cut="0.0000000000000000e+00" cType="1" res="-2.8486723080277443e-02" rms="3.4876137971878052e-01" purity="1.9688495993614197e-01" nType="-99"/>
        </Node>
        <Node pos="r" depth="1" NCoef="0" IVar="7" Cut="-4.0000686049461365e-01" cType="1" res="3.3273480366915464e-03" rms="3.8831049203872681e-01" purity="5.1736754179000854e-01" nType="0">
          <Node pos="l" depth="2" NCoef="0" IVar="7" Cut="-1.1999837160110474e+00" cType="1" res="-2.7087554335594177e-03" rms="3.8423797488212585e-01" purity="4.7291347384452820e-01" nType="0">
            <Node pos="l" depth="3" NCoef="0" IVar="-1" Cut="0.0000000000000000e+00" cType="1" res="8.5270898416638374e-03" rms="3.7045407295227051e-01" purity="3.4345868229866028e-01" nType="-99"/>
            <Node pos="r" depth="3" NCoef="0" IVar="-1" Cut="0.0000000000000000e+00" cType="1" res="-7.3346118442714214e-03" rms="3.9189937710762024e-01" purity="5.4950839281082153e-01" nType="-99"/>
          </Node>
          <Node pos="r" depth="2" NCoef="0" IVar="5" Cut="8.3531204223632812e+01" cType="1" res="6.5263626165688038e-03" rms="3.9041376113891602e-01" purity="5.4092729091644287e-01" nType="0">
            <Node pos="l" depth="3" NCoef="0" IVar="-1" Cut="0.0000000000000000e+00" cType="1" res="7.0173619315028191e-03" rms="4.0035992860794067e-01" purity="3.7902069091796875e-01" nType="-99"/>
            <Node pos="r" depth="3" NCoef="0" IVar="-1" Cut="0.0000000000000000e+00" cType="1" res="1.0778371943160892e-03" rms="3.7957185506820679e-01" purity="7.1178054809570312e-01" nType="-99"/>
          </Node>
        </Node>
      </Node>
    </BinaryTree>
    <BinaryTree type="DecisionTree" boostWeight="1.0000000000000000e+00" itree="298">
      <Node pos="s" depth="0" NCoef="0" IVar="9" Cut="-1.9999690055847168e+00" cType="1" res="1.0614140192046762e-03" rms="3.8688591122627258e-01" purity="4.9960982799530029e-01" nType="0">
        <Node pos="l" depth="1" NCoef="0" IVar="9" Cut="-2.3047368526458740e+00" cType="1" res="-2.3935029283165932e-02" rms="3.6631760001182556e-01" purity="3.1392607092857361e-01" nType="0">
          <Node pos="l" depth="2" NCoef="0" IVar="-1" Cut="0.0000000000000000e+00" cType="1" res="-2.0668437704443932e-02" rms="3.5593906044960022e-01" purity="2.7132919430732727e-01" nType="-99"/>
          <Node pos="r" depth="2" NCoef="0" IVar="-1" Cut="0.0000000000000000e+00" cType="1" res="-1.2758074328303337e-02" rms="3.7626770138740540e-01" purity="3.5614499449729919e-01" nType="-99"/>
        </Node>
        <Node pos="r" depth="1" NCoef="0" IVar="7" Cut="1.2000172138214111e+00" cType="1" res="2.4273013696074486e-03" rms="3.8793200254440308e-01" purity="5.0975620746612549e-01" nType="0">
          <Node pos="l" depth="2" NCoef="0" IVar="7" Cut="-1.3331103324890137e-01" cType="1" res="4.4721331505570561e-05" rms="3.8912391662597656e-01" purity="5.3789305686950684e-01" nType="0">
            <Node pos="l" depth="3" NCoef="0" IVar="-1" Cut="0.0000000000000000e+00" cType="1" res="4.0094284340739250e-03" rms="3.8606560230255127e-01" purity="5.0636172294616699e-01" nType="-99"/>
            <Node pos="r" depth="3" NCoef="0" IVar="-1" Cut="0.0000000000000000e+00" cType="1" res="-4.2514349333941936e-03" rms="3.9234885573387146e-01" purity="5.7252323627471924e-01" nType="-99"/>
          </Node>
          <Node pos="r" depth="2" NCoef="0" IVar="2" Cut="3.1762268066406250e+02" cType="1" res="1.7285829409956932e-02" rms="3.8007771968841553e-01" purity="3.3428582549095154e-01" nType="0">
            <Node pos="l" depth="3" NCoef="0" IVar="-1" Cut="0.0000000000000000e+00" cType="1" res="2.3303395137190819e-02" rms="3.8123613595962524e-01" purity="3.2028585672378540e-01" nType="-99"/>
            <Node pos="r" depth="3" NCoef="0" IVar="-1" Cut="0.0000000000000000e+00" cType="1" res="3.0419772956520319e-03" rms="3.7861341238021851e-01" purity="3.4615331888198853e-01" nType="-99"/>
          </Node>
        </Node>
      </Node>
    </BinaryTree>
    <BinaryTree type="DecisionTree" boostWeight="1.0000000000000000e+00" itree="299">
      <Node pos="s" depth="0" NCoef="0" IVar="9" Cut="-2.2666332721710205e+00" cType="1" res="-3.4135540481656790e-03" rms="3.8726362586021423e-01" purity="4.9661219120025635e-01" nType="0">
        <Node pos="l" depth="1" NCoef="0" IVar="-1" Cut="0.0000000000000000e+00" cType="1" res="2.1685592830181122e-02" rms="3.8368719816207886e-01" purity="3.4860771894454956e-01" nType="-99"/>
        <Node pos="r" depth="1" NCoef="0" IVar="7" Cut="6.6669231653213501e-01" cType="1" res="-4.5043630525469780e-03" rms="3.8732632994651794e-01" purity="5.0129973888397217e-01" nType="0">
          <Node pos="l" depth="2" NCoef="0" IVar="8" Cut="-1.4666672945022583e+00" cType="1" res="-1.4406732516363263e-03" rms="3.8842645287513733e-01" purity="5.3518325090408325e-01" nType="0">
            <Node pos="l" depth="3" NCoef="0" IVar="-1" Cut="0.0000000000000000e+00" cType="1" res="9.2713376507163048e-03" rms="3.9140149950981140e-01" purity="3.6910322308540344e-01" nType="-99"/>
            <Node pos="r" depth="3" NCoef="0" IVar="-1" Cut="0.0000000000000000e+00" cType="1" res="-2.2103150840848684e-03" rms="3.8801246881484985e-01" purity="5.5579090118408203e-01" nType="-99"/>
          </Node>
          <Node pos="r" depth="2" NCoef="0" IVar="2" Cut="4.3079660034179688e+02" cType="1" res="-1.3075584545731544e-02" rms="3.8410204648971558e-01" purity="4.0650469064712524e-01" nType="0">
            <Node pos="l" depth="3" NCoef="0" IVar="-1" Cut="0.0000000000000000e+00" cType="1" res="-3.7805258762091398e-03" rms="3.8455587625503540e-01" purity="4.0598756074905396e-01" nType="-99"/>
            <Node pos="r" depth="3" NCoef="0" IVar="-1" Cut="0.0000000000000000e+00" cType="1" res="-2.3433972150087357e-02" rms="3.8183155655860901e-01" purity="4.0807268023490906e-01" nType="-99"/>
          </Node>
        </Node>
      </Node>
    </BinaryTree>
    <BinaryTree type="DecisionTree" boostWeight="1.0000000000000000e+00" itree="300">
      <Node pos="s" depth="0" NCoef="0" IVar="8" Cut="1.9998933076858521e+00" cType="1" res="1.6967948758974671e-03" rms="3.8606625795364380e-01" purity="5.0473332405090332e-01" nType="0">
        <Node pos="l" depth="1" NCoef="0" IVar="6" Cut="1.4132201671600342e-01" cType="1" res="4.5791736920364201e-04" rms="3.8699764013290405e-01" purity="5.1511245965957642e-01" nType="0">
          <Node pos="l" depth="2" NCoef="0" IVar="7" Cut="1.2000359296798706e+00" cType="1" res="5.5565605871379375e-03" rms="3.8929042220115662e-01" purity="5.3142762184143066e-01" nType="0">
            <Node pos="l" depth="3" NCoef="0" IVar="-1" Cut="0.0000000000000000e+00" cType="1" res="5.4022781550884247e-03" rms="3.9170369505882263e-01" purity="5.6052422523498535e-01" nType="-99"/>
            <Node pos="r" depth="3" NCoef="0" IVar="-1" Cut="0.0000000000000000e+00" cType="1" res="-1.0344519279897213e-02" rms="3.7026607990264893e-01" purity="3.1578457355499268e-01" nType="-99"/>
          </Node>
          <Node pos="r" depth="2" NCoef="0" IVar="9" Cut="-1.7330880165100098e+00" cType="1" res="-6.0208812355995178e-03" rms="3.8396680355072021e-01" purity="4.9438098073005676e-01" nType="0">
            <Node pos="l" depth="3" NCoef="0" IVar="-1" Cut="0.0000000000000000e+00" cType="1" res="1.5204166993498802e-02" rms="3.7620052695274353e-01" purity="4.0067368745803833e-01" nType="-99"/>
            <Node pos="r" depth="3" NCoef="0" IVar="-1" Cut="0.0000000000000000e+00" cType="1" res="-5.7166023179888725e-03" rms="3.8456037640571594e-01" purity="5.0291889905929565e-01" nType="-99"/>
          </Node>
        </Node>
        <Node pos="r" depth="1" NCoef="0" IVar="-1" Cut="0.0000000000000000e+00" cType="1" res="2.2730562835931778e-02" rms="3.6360326409339905e-01" purity="2.7346184849739075e-01" nType="-99"/>
      </Node>
    </BinaryTree>
    <BinaryTree type="DecisionTree" boostWeight="1.0000000000000000e+00" itree="301">
      <Node pos="s" depth="0" NCoef="0" IVar="9" Cut="-9.3332213163375854e-01" cType="1" res="-5.1096482202410698e-03" rms="3.8510248064994812e-01" purity="4.9314913153648376e-01" nType="0">
        <Node pos="l" depth="1" NCoef="0" IVar="4" Cut="9.1652015686035156e+01" cType="1" res="-1.4652588404715061e-02" rms="3.8120090961456299e-01" purity="4.2686423659324646e-01" nType="0">
          <Node pos="l" depth="2" NCoef="0" IVar="4" Cut="7.7843917846679688e+01" cType="1" res="-3.2076630741357803e-02" rms="3.3915466070175171e-01" purity="1.7709161341190338e-01" nType="0">
            <Node pos="l" depth="3" NCoef="0" IVar="-1" Cut="0.0000000000000000e+00" cType="1" res="-6.8136947229504585e-03" rms="3.3626317977905273e-01" purity="1.6255605220794678e-01" nType="-99"/>
            <Node pos="r" depth="3" NCoef="0" IVar="-1" Cut="0.0000000000000000e+00" cType="1" res="-4.5955818146467209e-02" rms="3.4024393558502197e-01" purity="1.9801606237888336e-01" nType="-99"/>
          </Node>
          <Node pos="r" depth="2" NCoef="0" IVar="9" Cut="-2.0888640880584717e+00" cType="1" res="-7.8222537413239479e-03" rms="3.9625957608222961e-01" purity="5.2477669715881348e-01" nType="0">
            <Node pos="l" depth="3" NCoef="0" IVar="-1" Cut="0.0000000000000000e+00" cType="1" res="-1.7089361324906349e-02" rms="3.8982623815536499e-01" purity="4.0426614880561829e-01" nType="-99"/>
            <Node pos="r" depth="3" NCoef="0" IVar="-1" Cut="0.0000000000000000e+00" cType="1" res="-2.2240150719881058e-03" rms="3.9749702811241150e-01" purity="5.5065816640853882e-01" nType="-99"/>
          </Node>
        </Node>
        <Node pos="r" depth="1" NCoef="0" IVar="8" Cut="-1.3294449448585510e-01" cType="1" res="-2.1942448802292347e-03" rms="3.8623955845832825e-01" purity="5.1339942216873169e-01" nType="0">
          <Node pos="l" depth="2" NCoef="0" IVar="7" Cut="3.9997076988220215e-01" cType="1" res="-8.6907241493463516e-03" rms="3.8675114512443542e-01" purity="5.1422780752182007e-01" nType="0">
            <Node pos="l" depth="3" NCoef="0" IVar="-1" Cut="0.0000000000000000e+00" cType="1" res="-9.4211800023913383e-03" rms="3.8306763768196106e-01" purity="5.3246158361434937e-01" nType="-99"/>
            <Node pos="r" depth="3" NCoef="0" IVar="-1" Cut="0.0000000000000000e+00" cType="1" res="2.3050878662616014e-03" rms="3.9422893524169922e-01" purity="4.7527217864990234e-01" nType="-99"/>
          </Node>
          <Node pos="r" depth="2" NCoef="0" IVar="7" Cut="1.4665241241455078e+00" cType="1" res="2.8195416089147329e-03" rms="3.8576948642730713e-01" purity="5.1276010274887085e-01" nType="0">
            <Node pos="l" depth="3" NCoef="0" IVar="-1" Cut="0.0000000000000000e+00" cType="1" res="3.7672035396099091e-03" rms="3.9067107439041138e-01" purity="5.4421406984329224e-01" nType="-99"/>
            <Node pos="r" depth="3" NCoef="0" IVar="-1" Cut="0.0000000000000000e+00" cType="1" res="-1.8286334350705147e-02" rms="3.3836004137992859e-01" purity="2.3518346250057220e-01" nType="-99"/>
          </Node>
        </Node>
      </Node>
    </BinaryTree>
    <BinaryTree type="DecisionTree" boostWeight="1.0000000000000000e+00" itree="302">
      <Node pos="s" depth="0" NCoef="0" IVar="8" Cut="1.9999018907546997e+00" cType="1" res="-6.1630958225578070e-04" rms="3.8373064994812012e-01" purity="4.9792405962944031e-01" nType="0">
        <Node pos="l" depth="1" NCoef="0" IVar="3" Cut="4.1863491821289062e+02" cType="1" res="2.4080004368443042e-04" rms="3.8555717468261719e-01" purity="5.1011079549789429e-01" nType="0">
          <Node pos="l" depth="2" NCoef="0" IVar="9" Cut="-1.1999840736389160e+00" cType="1" res="1.0430088732391596e-03" rms="3.8475087285041809e-01" purity="5.0546079874038696e-01" nType="0">
            <Node pos="l" depth="3" NCoef="0" IVar="-1" Cut="0.0000000000000000e+00" cType="1" res="-5.9919818304479122e-03" rms="3.7925225496292114e-01" purity="4.0352132916450500e-01" nType="-99"/>
            <Node pos="r" depth="3" NCoef="0" IVar="-1" Cut="0.0000000000000000e+00" cType="1" res="1.9775244873017073e-03" rms="3.8580831885337830e-01" purity="5.2579641342163086e-01" nType="-99"/>
          </Node>
          <Node pos="r" depth="2" NCoef="0" IVar="-1" Cut="0.0000000000000000e+00" cType="1" res="-1.4163306914269924e-02" rms="4.0729123353958130e-01" purity="6.4320451021194458e-01" nType="-99"/>
        </Node>
        <Node pos="r" depth="1" NCoef="0" IVar="-1" Cut="0.0000000000000000e+00" cType="1" res="-1.5685025602579117e-02" rms="3.3907032012939453e-01" purity="2.2137776017189026e-01" nType="-99"/>
      </Node>
    </BinaryTree>
    <BinaryTree type="DecisionTree" boostWeight="1.0000000000000000e+00" itree="303">
      <Node pos="s" depth="0" NCoef="0" IVar="9" Cut="-2.2666332721710205e+00" cType="1" res="1.6562952660024166e-03" rms="3.8486510515213013e-01" purity="5.0254637002944946e-01" nType="0">
        <Node pos="l" depth="1" NCoef="0" IVar="-1" Cut="0.0000000000000000e+00" cType="1" res="2.1842192858457565e-02" rms="3.8899526000022888e-01" purity="3.3223348855972290e-01" nType="-99"/>
        <Node pos="r" depth="1" NCoef="0" IVar="7" Cut="-1.1999090909957886e+00" cType="1" res="7.5179716804996133e-04" rms="3.8469907641410828e-01" purity="5.0793230533599854e-01" nType="0">
          <Node pos="l" depth="2" NCoef="0" IVar="3" Cut="1.9619958496093750e+02" cType="1" res="-1.0301354341208935e-02" rms="3.6092886328697205e-01" purity="2.9852968454360962e-01" nType="0">
            <Node pos="l" depth="3" NCoef="0" IVar="-1" Cut="0.0000000000000000e+00" cType="1" res="-1.5679526841267943e-03" rms="3.4235718846321106e-01" purity="2.2878852486610413e-01" nType="-99"/>
            <Node pos="r" depth="3" NCoef="0" IVar="-1" Cut="0.0000000000000000e+00" cType="1" res="-1.4390372671186924e-02" rms="3.8632476329803467e-01" purity="4.0120327472686768e-01" nType="-99"/>
          </Node>
          <Node pos="r" depth="2" NCoef="0" IVar="7" Cut="-1.0094426870346069e+00" cType="1" res="2.3521438706666231e-03" rms="3.8799393177032471e-01" purity="5.3825098276138306e-01" nType="0">
            <Node pos="l" depth="3" NCoef="0" IVar="-1" Cut="0.0000000000000000e+00" cType="1" res="-1.1731171049177647e-02" rms="3.9242181181907654e-01" purity="4.7198271751403809e-01" nType="-99"/>
            <Node pos="r" depth="3" NCoef="0" IVar="-1" Cut="0.0000000000000000e+00" cType="1" res="2.2405989002436399e-03" rms="3.8774052262306213e-01" purity="5.4157346487045288e-01" nType="-99"/>
          </Node>
        </Node>
      </Node>
    </BinaryTree>
    <BinaryTree type="DecisionTree" boostWeight="1.0000000000000000e+00" itree="304">
      <Node pos="s" depth="0" NCoef="0" IVar="6" Cut="1.4749945402145386e+00" cType="1" res="1.2842204887419939e-03" rms="3.8669276237487793e-01" purity="5.0215601921081543e-01" nType="0">
        <Node pos="l" depth="1" NCoef="0" IVar="6" Cut="-1.7553457021713257e+00" cType="1" res="2.4586785584688187e-03" rms="3.9164069294929504e-01" purity="5.2350735664367676e-01" nType="0">
          <Node pos="l" depth="2" NCoef="0" IVar="-1" Cut="0.0000000000000000e+00" cType="1" res="2.1562641486525536e-02" rms="3.3209475874900818e-01" purity="1.9976644217967987e-01" nType="-99"/>
          <Node pos="r" depth="2" NCoef="0" IVar="6" Cut="-1.2938277721405029e+00" cType="1" res="1.6330374637618661e-03" rms="3.9390701055526733e-01" purity="5.3700911998748779e-01" nType="0">
            <Node pos="l" depth="3" NCoef="0" IVar="-1" Cut="0.0000000000000000e+00" cType="1" res="-1.4984471723437309e-02" rms="3.4693172574043274e-01" purity="2.7438631653785706e-01" nType="-99"/>
            <Node pos="r" depth="3" NCoef="0" IVar="-1" Cut="0.0000000000000000e+00" cType="1" res="1.8848802428692579e-03" rms="3.9657947421073914e-01" purity="5.5318528413772583e-01" nType="-99"/>
          </Node>
        </Node>
        <Node pos="r" depth="1" NCoef="0" IVar="8" Cut="-1.3321988284587860e-01" cType="1" res="-1.5387450344860554e-02" rms="3.0751574039459229e-01" purity="1.9906972348690033e-01" nType="0">
          <Node pos="l" depth="2" NCoef="0" IVar="-1" Cut="0.0000000000000000e+00" cType="1" res="-2.9753562062978745e-02" rms="2.8594693541526794e-01" purity="1.5876707434654236e-01" nType="-99"/>
          <Node pos="r" depth="2" NCoef="0" IVar="-1" Cut="0.0000000000000000e+00" cType="1" res="-5.1240124739706516e-03" rms="3.1993478536605835e-01" purity="2.2435751557350159e-01" nType="-99"/>
        </Node>
      </Node>
    </BinaryTree>
    <BinaryTree type="DecisionTree" boostWeight="1.0000000000000000e+00" itree="305">
      <Node pos="s" depth="0" NCoef="0" IVar="2" Cut="4.8062939453125000e+02" cType="1" res="-4.1120499372482300e-04" rms="3.8572263717651367e-01" purity="4.9812942743301392e-01" nType="0">
        <Node pos="l" depth="1" NCoef="0" IVar="2" Cut="2.5345362854003906e+02" cType="1" res="-2.9105318244546652e-03" rms="3.8413348793983459e-01" purity="4.8300954699516296e-01" nType="0">
          <Node pos="l" depth="2" NCoef="0" IVar="0" Cut="4.2049972534179688e+02" cType="1" res="8.5291741415858269e-03" rms="4.0360012650489807e-01" purity="4.1885730624198914e-01" nType="0">
            <Node pos="l" depth="3" NCoef="0" IVar="-1" Cut="0.0000000000000000e+00" cType="1" res="1.1295760050415993e-02" rms="4.0394029021263123e-01" purity="3.3887085318565369e-01" nType="-99"/>
            <Node pos="r" depth="3" NCoef="0" IVar="-1" Cut="0.0000000000000000e+00" cType="1" res="-1.0100286453962326e-02" rms="4.0168696641921997e-01" purity="6.1703532934188843e-01" nType="-99"/>
          </Node>
          <Node pos="r" depth="2" NCoef="0" IVar="1" Cut="1.6801649169921875e+03" cType="1" res="-6.2675122171640396e-03" rms="3.7816524505615234e-01" purity="5.0183498859405518e-01" nType="0">
            <Node pos="l" depth="3" NCoef="0" IVar="-1" Cut="0.0000000000000000e+00" cType="1" res="-5.6899781338870525e-03" rms="3.8872596621513367e-01" purity="4.5537322759628296e-01" nType="-99"/>
            <Node pos="r" depth="3" NCoef="0" IVar="-1" Cut="0.0000000000000000e+00" cType="1" res="1.8369710072875023e-02" rms="2.6723763346672058e-01" purity="9.0971952676773071e-01" nType="-99"/>
          </Node>
        </Node>
        <Node pos="r" depth="1" NCoef="0" IVar="6" Cut="-7.4371963739395142e-02" cType="1" res="9.6670668572187424e-03" rms="3.9190372824668884e-01" purity="5.5909878015518188e-01" nType="0">
          <Node pos="l" depth="2" NCoef="0" IVar="0" Cut="5.4193371582031250e+02" cType="1" res="3.0900429934263229e-02" rms="3.9737939834594727e-01" purity="5.7162189483642578e-01" nType="0">
            <Node pos="l" depth="3" NCoef="0" IVar="-1" Cut="0.0000000000000000e+00" cType="1" res="2.5150993838906288e-02" rms="4.0664285421371460e-01" purity="4.5920097827911377e-01" nType="-99"/>
            <Node pos="r" depth="3" NCoef="0" IVar="-1" Cut="0.0000000000000000e+00" cType="1" res="1.0723100975155830e-02" rms="3.8341176509857178e-01" purity="7.3059684038162231e-01" nType="-99"/>
          </Node>
          <Node pos="r" depth="2" NCoef="0" IVar="6" Cut="7.4665969610214233e-01" cType="1" res="-1.0109848342835903e-02" rms="3.8568389415740967e-01" purity="5.4743462800979614e-01" nType="0">
            <Node pos="l" depth="3" NCoef="0" IVar="-1" Cut="0.0000000000000000e+00" cType="1" res="1.2241592630743980e-03" rms="3.9402353763580322e-01" purity="6.3881874084472656e-01" nType="-99"/>
            <Node pos="r" depth="3" NCoef="0" IVar="-1" Cut="0.0000000000000000e+00" cType="1" res="-2.5363976135849953e-02" rms="3.6648038029670715e-01" purity="3.5755637288093567e-01" nType="-99"/>
          </Node>
        </Node>
      </Node>
    </BinaryTree>
    <BinaryTree type="DecisionTree" boostWeight="1.0000000000000000e+00" itree="306">
      <Node pos="s" depth="0" NCoef="0" IVar="1" Cut="1.4052841796875000e+03" cType="1" res="2.1845775190740824e-03" rms="3.8782650232315063e-01" purity="4.9866688251495361e-01" nType="0">
        <Node pos="l" depth="1" NCoef="0" IVar="9" Cut="1.7333207130432129e+00" cType="1" res="5.8519113808870316e-03" rms="4.0167370438575745e-01" purity="3.7176185846328735e-01" nType="0">
          <Node pos="l" depth="2" NCoef="0" IVar="1" Cut="1.2035208740234375e+03" cType="1" res="8.3478288725018501e-03" rms="4.0432643890380859e-01" purity="3.8464879989624023e-01" nType="0">
            <Node pos="l" depth="3" NCoef="0" IVar="-1" Cut="0.0000000000000000e+00" cType="1" res="1.4382274821400642e-03" rms="3.9760807156562805e-01" purity="2.9394996166229248e-01" nType="-99"/>
            <Node pos="r" depth="3" NCoef="0" IVar="-1" Cut="0.0000000000000000e+00" cType="1" res="1.2068955227732658e-02" rms="4.1772645711898804e-01" purity="5.7412075996398926e-01" nType="-99"/>
          </Node>
          <Node pos="r" depth="2" NCoef="0" IVar="-1" Cut="0.0000000000000000e+00" cType="1" res="-1.3074642047286034e-02" rms="3.7416991591453552e-01" purity="2.4702842533588409e-01" nType="-99"/>
        </Node>
        <Node pos="r" depth="1" NCoef="0" IVar="8" Cut="-6.6679966449737549e-01" cType="1" res="-4.6413578093051910e-03" rms="3.6054065823554993e-01" purity="7.3487263917922974e-01" nType="0">
          <Node pos="l" depth="2" NCoef="0" IVar="0" Cut="5.4967968750000000e+02" cType="1" res="-2.4087104946374893e-02" rms="3.7785953283309937e-01" purity="6.6033154726028442e-01" nType="0">
            <Node pos="l" depth="3" NCoef="0" IVar="-1" Cut="0.0000000000000000e+00" cType="1" res="-3.4104205667972565e-02" rms="3.9317560195922852e-01" purity="5.4536247253417969e-01" nType="-99"/>
            <Node pos="r" depth="3" NCoef="0" IVar="-1" Cut="0.0000000000000000e+00" cType="1" res="2.0418495405465364e-03" rms="3.6071908473968506e-01" purity="7.6919859647750854e-01" nType="-99"/>
          </Node>
          <Node pos="r" depth="2" NCoef="0" IVar="6" Cut="9.6956068277359009e-01" cType="1" res="1.5402960125356913e-03" rms="3.5463482141494751e-01" purity="7.5856864452362061e-01" nType="0">
            <Node pos="l" depth="3" NCoef="0" IVar="-1" Cut="0.0000000000000000e+00" cType="1" res="-1.2675215257331729e-03" rms="3.5137039422988892e-01" purity="7.7519303560256958e-01" nType="-99"/>
            <Node pos="r" depth="3" NCoef="0" IVar="-1" Cut="0.0000000000000000e+00" cType="1" res="1.4577251859009266e-02" rms="3.7517580389976501e-01" purity="6.4673477411270142e-01" nType="-99"/>
          </Node>
        </Node>
      </Node>
    </BinaryTree>
    <BinaryTree type="DecisionTree" boostWeight="1.0000000000000000e+00" itree="307">
      <Node pos="s" depth="0" NCoef="0" IVar="7" Cut="-1.7332901954650879e+00" cType="1" res="2.2481551859527826e-03" rms="3.8639074563980103e-01" purity="5.0094860792160034e-01" nType="0">
        <Node pos="l" depth="1" NCoef="0" IVar="6" Cut="-6.8738378584384918e-02" cType="1" res="-1.3590792194008827e-02" rms="3.3515280485153198e-01" purity="2.0160311460494995e-01" nType="0">
          <Node pos="l" depth="2" NCoef="0" IVar="-1" Cut="0.0000000000000000e+00" cType="1" res="-2.2865980863571167e-02" rms="3.3876636624336243e-01" purity="1.9385774433612823e-01" nType="-99"/>
          <Node pos="r" depth="2" NCoef="0" IVar="-1" Cut="0.0000000000000000e+00" cType="1" res="-9.5543405041098595e-04" rms="3.3134520053863525e-01" purity="2.0863719284534454e-01" nType="-99"/>
        </Node>
        <Node pos="r" depth="1" NCoef="0" IVar="7" Cut="1.9364764690399170e+00" cType="1" res="3.2074842602014542e-03" rms="3.8925686478614807e-01" purity="5.1907932758331299e-01" nType="0">
          <Node pos="l" depth="2" NCoef="0" IVar="1" Cut="1.1048668212890625e+03" cType="1" res="2.2805572953075171e-03" rms="3.9132288098335266e-01" purity="5.3240156173706055e-01" nType="0">
            <Node pos="l" depth="3" NCoef="0" IVar="-1" Cut="0.0000000000000000e+00" cType="1" res="-3.1210668385028839e-03" rms="3.9144697785377502e-01" purity="2.4819156527519226e-01" nType="-99"/>
            <Node pos="r" depth="3" NCoef="0" IVar="-1" Cut="0.0000000000000000e+00" cType="1" res="3.4575541503727436e-03" rms="3.9122980833053589e-01" purity="6.5441519021987915e-01" nType="-99"/>
          </Node>
          <Node pos="r" depth="2" NCoef="0" IVar="-1" Cut="0.0000000000000000e+00" cType="1" res="2.1815808489918709e-02" rms="3.3880195021629333e-01" purity="2.1937738358974457e-01" nType="-99"/>
        </Node>
      </Node>
    </BinaryTree>
    <BinaryTree type="DecisionTree" boostWeight="1.0000000000000000e+00" itree="308">
      <Node pos="s" depth="0" NCoef="0" IVar="3" Cut="4.1844512939453125e+02" cType="1" res="-1.0710037313401699e-03" rms="3.8674858212471008e-01" purity="4.9800550937652588e-01" nType="0">
        <Node pos="l" depth="1" NCoef="0" IVar="4" Cut="6.7462699890136719e+01" cType="1" res="-3.1701574334874749e-04" rms="3.8685011863708496e-01" purity="4.9252125620841980e-01" nType="0">
          <Node pos="l" depth="2" NCoef="0" IVar="7" Cut="1.3333670794963837e-01" cType="1" res="1.3601087033748627e-02" rms="3.2386651635169983e-01" purity="1.5412247180938721e-01" nType="0">
            <Node pos="l" depth="3" NCoef="0" IVar="-1" Cut="0.0000000000000000e+00" cType="1" res="-1.2750682653859258e-03" rms="3.1927713751792908e-01" purity="1.4338137209415436e-01" nType="-99"/>
            <Node pos="r" depth="3" NCoef="0" IVar="-1" Cut="0.0000000000000000e+00" cType="1" res="3.1530540436506271e-02" rms="3.2820370793342590e-01" purity="1.6640579700469971e-01" nType="-99"/>
          </Node>
          <Node pos="r" depth="2" NCoef="0" IVar="4" Cut="2.3279446411132812e+02" cType="1" res="-1.3690572232007980e-03" rms="3.9117878675460815e-01" purity="5.1810014247894287e-01" nType="0">
            <Node pos="l" depth="3" NCoef="0" IVar="-1" Cut="0.0000000000000000e+00" cType="1" res="-1.5994886634871364e-03" rms="3.9523410797119141e-01" purity="4.9325656890869141e-01" nType="-99"/>
            <Node pos="r" depth="3" NCoef="0" IVar="-1" Cut="0.0000000000000000e+00" cType="1" res="1.0121972300112247e-02" rms="3.3963972330093384e-01" purity="8.0999839305877686e-01" nType="-99"/>
          </Node>
        </Node>
        <Node pos="r" depth="1" NCoef="0" IVar="-1" Cut="0.0000000000000000e+00" cType="1" res="-1.4081060886383057e-02" rms="3.8336032629013062e-01" purity="6.4902132749557495e-01" nType="-99"/>
      </Node>
    </BinaryTree>
    <BinaryTree type="DecisionTree" boostWeight="1.0000000000000000e+00" itree="309">
      <Node pos="s" depth="0" NCoef="0" IVar="9" Cut="-1.1998779773712158e+00" cType="1" res="7.7072720159776509e-05" rms="3.8551604747772217e-01" purity="4.9981492757797241e-01" nType="0">
        <Node pos="l" depth="1" NCoef="0" IVar="9" Cut="-1.8855571746826172e+00" cType="1" res="1.3659298419952393e-02" rms="3.8802811503410339e-01" purity="4.3499538302421570e-01" nType="0">
          <Node pos="l" depth="2" NCoef="0" IVar="9" Cut="-2.3209097385406494e+00" cType="1" res="-1.0879463516175747e-02" rms="3.7202149629592896e-01" purity="3.3562096953392029e-01" nType="0">
            <Node pos="l" depth="3" NCoef="0" IVar="-1" Cut="0.0000000000000000e+00" cType="1" res="3.2619766425341368e-03" rms="3.7311083078384399e-01" purity="3.2932242751121521e-01" nType="-99"/>
            <Node pos="r" depth="3" NCoef="0" IVar="-1" Cut="0.0000000000000000e+00" cType="1" res="-1.5152983367443085e-02" rms="3.7084707617759705e-01" purity="3.4012511372566223e-01" nType="-99"/>
          </Node>
          <Node pos="r" depth="2" NCoef="0" IVar="4" Cut="9.0927047729492188e+01" cType="1" res="2.8011916205286980e-02" rms="3.9638790488243103e-01" purity="4.9311903119087219e-01" nType="0">
            <Node pos="l" depth="3" NCoef="0" IVar="-1" Cut="0.0000000000000000e+00" cType="1" res="4.9456883221864700e-02" rms="4.0537819266319275e-01" purity="2.7530491352081299e-01" nType="-99"/>
            <Node pos="r" depth="3" NCoef="0" IVar="-1" Cut="0.0000000000000000e+00" cType="1" res="9.3779740855097771e-03" rms="3.9232912659645081e-01" purity="5.6944262981414795e-01" nType="-99"/>
          </Node>
        </Node>
        <Node pos="r" depth="1" NCoef="0" IVar="2" Cut="3.4565957641601562e+02" cType="1" res="-2.8725543525069952e-03" rms="3.8490501046180725e-01" purity="5.1389163732528687e-01" nType="0">
          <Node pos="l" depth="2" NCoef="0" IVar="8" Cut="3.9994594454765320e-01" cType="1" res="3.9167972281575203e-03" rms="3.9614322781562805e-01" purity="4.8248654603958130e-01" nType="0">
            <Node pos="l" depth="3" NCoef="0" IVar="-1" Cut="0.0000000000000000e+00" cType="1" res="6.4349523745477200e-03" rms="4.0025284886360168e-01" purity="5.1132839918136597e-01" nType="-99"/>
            <Node pos="r" depth="3" NCoef="0" IVar="-1" Cut="0.0000000000000000e+00" cType="1" res="-4.3365489691495895e-03" rms="3.8895788788795471e-01" purity="4.3433704972267151e-01" nType="-99"/>
          </Node>
          <Node pos="r" depth="2" NCoef="0" IVar="4" Cut="1.9206568908691406e+02" cType="1" res="-9.9631063640117645e-03" rms="3.7267473340034485e-01" purity="5.4669004678726196e-01" nType="0">
            <Node pos="l" depth="3" NCoef="0" IVar="-1" Cut="0.0000000000000000e+00" cType="1" res="-9.9116172641515732e-03" rms="3.8249620795249939e-01" purity="4.5877861976623535e-01" nType="-99"/>
            <Node pos="r" depth="3" NCoef="0" IVar="-1" Cut="0.0000000000000000e+00" cType="1" res="3.3892649225890636e-03" rms="3.4366017580032349e-01" purity="7.8979092836380005e-01" nType="-99"/>
          </Node>
        </Node>
      </Node>
    </BinaryTree>
    <BinaryTree type="DecisionTree" boostWeight="1.0000000000000000e+00" itree="310">
      <Node pos="s" depth="0" NCoef="0" IVar="2" Cut="3.5034759521484375e+02" cType="1" res="-3.6067084874957800e-03" rms="3.8361662626266479e-01" purity="4.9769702553749084e-01" nType="0">
        <Node pos="l" depth="1" NCoef="0" IVar="1" Cut="1.2060548095703125e+03" cType="1" res="-9.4174006953835487e-03" rms="3.8826766610145569e-01" purity="4.5723810791969299e-01" nType="0">
          <Node pos="l" depth="2" NCoef="0" IVar="2" Cut="3.0739135742187500e+02" cType="1" res="-1.5849238261580467e-02" rms="3.9733538031578064e-01" purity="3.0219388008117676e-01" nType="0">
            <Node pos="l" depth="3" NCoef="0" IVar="-1" Cut="0.0000000000000000e+00" cType="1" res="-6.2590483576059341e-03" rms="4.0354335308074951e-01" purity="3.1926375627517700e-01" nType="-99"/>
            <Node pos="r" depth="3" NCoef="0" IVar="-1" Cut="0.0000000000000000e+00" cType="1" res="-2.5099640712141991e-02" rms="3.6988857388496399e-01" purity="2.3202784359455109e-01" nType="-99"/>
          </Node>
          <Node pos="r" depth="2" NCoef="0" IVar="2" Cut="2.9308410644531250e+02" cType="1" res="3.7566625978797674e-03" rms="3.6864954233169556e-01" purity="7.7480870485305786e-01" nType="0">
            <Node pos="l" depth="3" NCoef="0" IVar="-1" Cut="0.0000000000000000e+00" cType="1" res="1.3221108354628086e-02" rms="3.6668646335601807e-01" purity="7.9894143342971802e-01" nType="-99"/>
            <Node pos="r" depth="3" NCoef="0" IVar="-1" Cut="0.0000000000000000e+00" cType="1" res="-5.8314199559390545e-03" rms="3.6984419822692871e-01" purity="7.5497215986251831e-01" nType="-99"/>
          </Node>
        </Node>
        <Node pos="r" depth="1" NCoef="0" IVar="9" Cut="6.6666144132614136e-01" cType="1" res="2.6754767168313265e-03" rms="3.7842351198196411e-01" purity="5.4143887758255005e-01" nType="0">
          <Node pos="l" depth="2" NCoef="0" IVar="7" Cut="-9.3321532011032104e-01" cType="1" res="-2.5752577930688858e-03" rms="3.7754204869270325e-01" purity="5.5266886949539185e-01" nType="0">
            <Node pos="l" depth="3" NCoef="0" IVar="-1" Cut="0.0000000000000000e+00" cType="1" res="1.0317800566554070e-02" rms="3.7910923361778259e-01" purity="4.0672612190246582e-01" nType="-99"/>
            <Node pos="r" depth="3" NCoef="0" IVar="-1" Cut="0.0000000000000000e+00" cType="1" res="-4.6852775849401951e-03" rms="3.7704047560691833e-01" purity="5.8781152963638306e-01" nType="-99"/>
          </Node>
          <Node pos="r" depth="2" NCoef="0" IVar="0" Cut="5.6937695312500000e+02" cType="1" res="1.4582305215299129e-02" rms="3.8014626502990723e-01" purity="5.1597326993942261e-01" nType="0">
            <Node pos="l" depth="3" NCoef="0" IVar="-1" Cut="0.0000000000000000e+00" cType="1" res="1.6081629320979118e-02" rms="3.8583940267562866e-01" purity="4.2991858720779419e-01" nType="-99"/>
            <Node pos="r" depth="3" NCoef="0" IVar="-1" Cut="0.0000000000000000e+00" cType="1" res="-8.6400453001260757e-03" rms="3.6303088068962097e-01" purity="7.4879294633865356e-01" nType="-99"/>
          </Node>
        </Node>
      </Node>
    </BinaryTree>
    <BinaryTree type="DecisionTree" boostWeight="1.0000000000000000e+00" itree="311">
      <Node pos="s" depth="0" NCoef="0" IVar="6" Cut="-1.4322339296340942e+00" cType="1" res="2.5580022484064102e-03" rms="3.8643392920494080e-01" purity="5.0133913755416870e-01" nType="0">
        <Node pos="l" depth="1" NCoef="0" IVar="3" Cut="2.0120199584960938e+02" cType="1" res="-1.6721239313483238e-02" rms="3.2235011458396912e-01" purity="1.9922521710395813e-01" nType="0">
          <Node pos="l" depth="2" NCoef="0" IVar="-1" Cut="0.0000000000000000e+00" cType="1" res="7.3704225942492485e-03" rms="2.9834961891174316e-01" purity="1.4756868779659271e-01" nType="-99"/>
          <Node pos="r" depth="2" NCoef="0" IVar="-1" Cut="0.0000000000000000e+00" cType="1" res="-3.8072623312473297e-02" rms="3.5538002848625183e-01" purity="2.8532019257545471e-01" nType="-99"/>
        </Node>
        <Node pos="r" depth="1" NCoef="0" IVar="6" Cut="-1.2306809425354004e+00" cType="1" res="4.0042237378656864e-03" rms="3.9077931642532349e-01" purity="5.2400207519531250e-01" nType="0">
          <Node pos="l" depth="2" NCoef="0" IVar="-1" Cut="0.0000000000000000e+00" cType="1" res="2.6154333725571632e-02" rms="3.8344851136207581e-01" purity="3.9803010225296021e-01" nType="-99"/>
          <Node pos="r" depth="2" NCoef="0" IVar="7" Cut="1.9999749660491943e+00" cType="1" res="2.6567664463073015e-03" rms="3.9099010825157166e-01" purity="5.2876526117324829e-01" nType="0">
            <Node pos="l" depth="3" NCoef="0" IVar="-1" Cut="0.0000000000000000e+00" cType="1" res="1.1597217526286840e-03" rms="3.9212909340858459e-01" purity="5.3972858190536499e-01" nType="-99"/>
            <Node pos="r" depth="3" NCoef="0" IVar="-1" Cut="0.0000000000000000e+00" cType="1" res="2.2033201530575752e-02" rms="3.5761514306068420e-01" purity="2.2890047729015350e-01" nType="-99"/>
          </Node>
        </Node>
      </Node>
    </BinaryTree>
    <BinaryTree type="DecisionTree" boostWeight="1.0000000000000000e+00" itree="312">
      <Node pos="s" depth="0" NCoef="0" IVar="4" Cut="9.7389739990234375e+01" cType="1" res="-4.5424592681229115e-03" rms="3.8325774669647217e-01" purity="4.9524825811386108e-01" nType="0">
        <Node pos="l" depth="1" NCoef="0" IVar="2" Cut="4.9859329223632812e+02" cType="1" res="-1.3684321194887161e-02" rms="3.5844442248344421e-01" purity="2.2241559624671936e-01" nType="0">
          <Node pos="l" depth="2" NCoef="0" IVar="2" Cut="4.2748931884765625e+02" cType="1" res="-8.7021952494978905e-03" rms="3.5677352547645569e-01" purity="2.1728537976741791e-01" nType="0">
            <Node pos="l" depth="3" NCoef="0" IVar="-1" Cut="0.0000000000000000e+00" cType="1" res="-3.5159173421561718e-03" rms="3.6005428433418274e-01" purity="2.1942532062530518e-01" nType="-99"/>
            <Node pos="r" depth="3" NCoef="0" IVar="-1" Cut="0.0000000000000000e+00" cType="1" res="-2.8583597391843796e-02" rms="3.3086639642715454e-01" purity="2.0190636813640594e-01" nType="-99"/>
          </Node>
          <Node pos="r" depth="2" NCoef="0" IVar="-1" Cut="0.0000000000000000e+00" cType="1" res="-3.0419271439313889e-02" rms="3.6787581443786621e-01" purity="2.5754991173744202e-01" nType="-99"/>
        </Node>
        <Node pos="r" depth="1" NCoef="0" IVar="6" Cut="1.2049012184143066e+00" cType="1" res="-8.0009712837636471e-04" rms="3.9290237426757812e-01" purity="6.0693645477294922e-01" nType="0">
          <Node pos="l" depth="2" NCoef="0" IVar="9" Cut="-1.3320854306221008e-01" cType="1" res="-3.6559880245476961e-03" rms="3.9397540688514709e-01" purity="6.3075238466262817e-01" nType="0">
            <Node pos="l" depth="3" NCoef="0" IVar="-1" Cut="0.0000000000000000e+00" cType="1" res="2.6780255138874054e-03" rms="3.9159664511680603e-01" purity="6.2705808877944946e-01" nType="-99"/>
            <Node pos="r" depth="3" NCoef="0" IVar="-1" Cut="0.0000000000000000e+00" cType="1" res="-6.8364231847226620e-03" rms="3.9596277475357056e-01" purity="6.3406217098236084e-01" nType="-99"/>
          </Node>
          <Node pos="r" depth="2" NCoef="0" IVar="7" Cut="1.3116745650768280e-01" cType="1" res="2.4920353665947914e-02" rms="3.8214251399040222e-01" purity="3.9244797825813293e-01" nType="0">
            <Node pos="l" depth="3" NCoef="0" IVar="-1" Cut="0.0000000000000000e+00" cType="1" res="5.0259148702025414e-03" rms="3.7327298521995544e-01" purity="3.8444486260414124e-01" nType="-99"/>
            <Node pos="r" depth="3" NCoef="0" IVar="-1" Cut="0.0000000000000000e+00" cType="1" res="2.9308369383215904e-02" rms="3.9041450619697571e-01" purity="4.0087616443634033e-01" nType="-99"/>
          </Node>
        </Node>
      </Node>
    </BinaryTree>
    <BinaryTree type="DecisionTree" boostWeight="1.0000000000000000e+00" itree="313">
      <Node pos="s" depth="0" NCoef="0" IVar="8" Cut="9.3315106630325317e-01" cType="1" res="3.5168756730854511e-03" rms="3.8677737116813660e-01" purity="4.9875822663307190e-01" nType="0">
        <Node pos="l" depth="1" NCoef="0" IVar="2" Cut="3.5034786987304688e+02" cType="1" res="5.9899976477026939e-03" rms="3.8780307769775391e-01" purity="5.2770704030990601e-01" nType="0">
          <Node pos="l" depth="2" NCoef="0" IVar="2" Cut="2.2864019775390625e+02" cType="1" res="7.8309321543201804e-04" rms="3.9566394686698914e-01" purity="4.8333236575126648e-01" nType="0">
            <Node pos="l" depth="3" NCoef="0" IVar="-1" Cut="0.0000000000000000e+00" cType="1" res="1.2902521528303623e-02" rms="4.1944685578346252e-01" purity="4.2619493603706360e-01" nType="-99"/>
            <Node pos="r" depth="3" NCoef="0" IVar="-1" Cut="0.0000000000000000e+00" cType="1" res="-2.3818113841116428e-03" rms="3.9034813642501831e-01" purity="4.9531441926956177e-01" nType="-99"/>
          </Node>
          <Node pos="r" depth="2" NCoef="0" IVar="6" Cut="6.7991769313812256e-01" cType="1" res="1.1358813382685184e-02" rms="3.7945252656936646e-01" purity="5.7346153259277344e-01" nType="0">
            <Node pos="l" depth="3" NCoef="0" IVar="-1" Cut="0.0000000000000000e+00" cType="1" res="1.0220394469797611e-02" rms="3.8128709793090820e-01" purity="6.0898113250732422e-01" nType="-99"/>
            <Node pos="r" depth="3" NCoef="0" IVar="-1" Cut="0.0000000000000000e+00" cType="1" res="-2.5978770572692156e-03" rms="3.7162649631500244e-01" purity="4.3094301223754883e-01" nType="-99"/>
          </Node>
        </Node>
        <Node pos="r" depth="1" NCoef="0" IVar="9" Cut="-9.3317055702209473e-01" cType="1" res="-5.8315666392445564e-03" rms="3.8273096084594727e-01" purity="3.8933125138282776e-01" nType="0">
          <Node pos="l" depth="2" NCoef="0" IVar="-1" Cut="0.0000000000000000e+00" cType="1" res="-1.8141841515898705e-02" rms="3.8013523817062378e-01" purity="3.3168926835060120e-01" nType="-99"/>
          <Node pos="r" depth="2" NCoef="0" IVar="8" Cut="2.0886383056640625e+00" cType="1" res="-7.2663044556975365e-04" rms="3.8317736983299255e-01" purity="4.0319651365280151e-01" nType="0">
            <Node pos="l" depth="3" NCoef="0" IVar="-1" Cut="0.0000000000000000e+00" cType="1" res="-4.0219319052994251e-03" rms="3.8829147815704346e-01" purity="4.3025889992713928e-01" nType="-99"/>
            <Node pos="r" depth="3" NCoef="0" IVar="-1" Cut="0.0000000000000000e+00" cType="1" res="2.0109683275222778e-02" rms="3.5626465082168579e-01" purity="2.7256718277931213e-01" nType="-99"/>
          </Node>
        </Node>
      </Node>
    </BinaryTree>
    <BinaryTree type="DecisionTree" boostWeight="1.0000000000000000e+00" itree="314">
      <Node pos="s" depth="0" NCoef="0" IVar="8" Cut="-1.3334906101226807e-01" cType="1" res="8.9052459225058556e-04" rms="3.8317197561264038e-01" purity="5.0046628713607788e-01" nType="0">
        <Node pos="l" depth="1" NCoef="0" IVar="8" Cut="-1.0222256183624268e+00" cType="1" res="6.7862328141927719e-03" rms="3.8377323746681213e-01" purity="4.9887064099311829e-01" nType="0">
          <Node pos="l" depth="2" NCoef="0" IVar="0" Cut="4.4704006958007812e+02" cType="1" res="-2.8901309706270695e-03" rms="3.6878728866577148e-01" purity="3.9050185680389404e-01" nType="0">
            <Node pos="l" depth="3" NCoef="0" IVar="-1" Cut="0.0000000000000000e+00" cType="1" res="-8.8236704468727112e-03" rms="3.5857287049293518e-01" purity="2.5480976700782776e-01" nType="-99"/>
            <Node pos="r" depth="3" NCoef="0" IVar="-1" Cut="0.0000000000000000e+00" cType="1" res="8.3220964297652245e-03" rms="3.8521620631217957e-01" purity="6.2432056665420532e-01" nType="-99"/>
          </Node>
          <Node pos="r" depth="2" NCoef="0" IVar="1" Cut="1.3803787841796875e+03" cType="1" res="1.3879316858947277e-02" rms="3.9424607157707214e-01" purity="5.7830840349197388e-01" nType="0">
            <Node pos="l" depth="3" NCoef="0" IVar="-1" Cut="0.0000000000000000e+00" cType="1" res="1.4989371411502361e-02" rms="4.1913422942161560e-01" purity="4.5037415623664856e-01" nType="-99"/>
            <Node pos="r" depth="3" NCoef="0" IVar="-1" Cut="0.0000000000000000e+00" cType="1" res="-3.1037323642522097e-03" rms="3.5311231017112732e-01" purity="7.6921927928924561e-01" nType="-99"/>
          </Node>
        </Node>
        <Node pos="r" depth="1" NCoef="0" IVar="8" Cut="1.5428184270858765e+00" cType="1" res="-4.1095111519098282e-03" rms="3.8259011507034302e-01" purity="5.0181949138641357e-01" nType="0">
          <Node pos="l" depth="2" NCoef="0" IVar="4" Cut="1.9186276245117188e+02" cType="1" res="-6.8924315273761749e-03" rms="3.8473775982856750e-01" purity="5.4103553295135498e-01" nType="0">
            <Node pos="l" depth="3" NCoef="0" IVar="-1" Cut="0.0000000000000000e+00" cType="1" res="-7.0639802142977715e-03" rms="3.9680501818656921e-01" purity="4.6651136875152588e-01" nType="-99"/>
            <Node pos="r" depth="3" NCoef="0" IVar="-1" Cut="0.0000000000000000e+00" cType="1" res="8.1586856395006180e-03" rms="3.3545336127281189e-01" purity="8.1879329681396484e-01" nType="-99"/>
          </Node>
          <Node pos="r" depth="2" NCoef="0" IVar="4" Cut="8.5067382812500000e+01" cType="1" res="9.1004502028226852e-03" rms="3.7194266915321350e-01" purity="3.1566905975341797e-01" nType="0">
            <Node pos="l" depth="3" NCoef="0" IVar="-1" Cut="0.0000000000000000e+00" cType="1" res="4.2722746729850769e-02" rms="3.3699363470077515e-01" purity="1.6610494256019592e-01" nType="-99"/>
            <Node pos="r" depth="3" NCoef="0" IVar="-1" Cut="0.0000000000000000e+00" cType="1" res="-1.9374602707102895e-03" rms="3.8435965776443481e-01" purity="3.7546941637992859e-01" nType="-99"/>
          </Node>
        </Node>
      </Node>
    </BinaryTree>
    <BinaryTree type="DecisionTree" boostWeight="1.0000000000000000e+00" itree="315">
      <Node pos="s" depth="0" NCoef="0" IVar="7" Cut="-1.9998666048049927e+00" cType="1" res="6.8088239058852196e-03" rms="3.8801479339599609e-01" purity="5.0724112987518311e-01" nType="0">
        <Node pos="l" depth="1" NCoef="0" IVar="-1" Cut="0.0000000000000000e+00" cType="1" res="-1.7174858599901199e-02" rms="3.0636420845985413e-01" purity="1.5668518841266632e-01" nType="-99"/>
        <Node pos="r" depth="1" NCoef="0" IVar="7" Cut="-6.2846744060516357e-01" cType="1" res="7.6651503331959248e-03" rms="3.9048030972480774e-01" purity="5.1924580335617065e-01" nType="0">
          <Node pos="l" depth="2" NCoef="0" IVar="3" Cut="2.8932870483398438e+02" cType="1" res="1.7805898562073708e-02" rms="3.9416629076004028e-01" purity="4.6966391801834106e-01" nType="0">
            <Node pos="l" depth="3" NCoef="0" IVar="-1" Cut="0.0000000000000000e+00" cType="1" res="1.4959095045924187e-02" rms="3.9540147781372070e-01" purity="4.4588309526443481e-01" nType="-99"/>
            <Node pos="r" depth="3" NCoef="0" IVar="-1" Cut="0.0000000000000000e+00" cType="1" res="-7.0057841949164867e-03" rms="3.8616263866424561e-01" purity="5.9855037927627563e-01" nType="-99"/>
          </Node>
          <Node pos="r" depth="2" NCoef="0" IVar="9" Cut="-1.9997820854187012e+00" cType="1" res="4.2052869684994221e-03" rms="3.8915428519248962e-01" purity="5.3616237640380859e-01" nType="0">
            <Node pos="l" depth="3" NCoef="0" IVar="-1" Cut="0.0000000000000000e+00" cType="1" res="1.3662444427609444e-02" rms="3.9702317118644714e-01" purity="3.9352887868881226e-01" nType="-99"/>
            <Node pos="r" depth="3" NCoef="0" IVar="-1" Cut="0.0000000000000000e+00" cType="1" res="2.2119572386145592e-03" rms="3.8873103260993958e-01" purity="5.4340064525604248e-01" nType="-99"/>
          </Node>
        </Node>
      </Node>
    </BinaryTree>
    <BinaryTree type="DecisionTree" boostWeight="1.0000000000000000e+00" itree="316">
      <Node pos="s" depth="0" NCoef="0" IVar="6" Cut="1.5480633080005646e-01" cType="1" res="-8.2429056055843830e-04" rms="3.8839915394783020e-01" purity="4.9779209494590759e-01" nType="0">
        <Node pos="l" depth="1" NCoef="0" IVar="7" Cut="4.0009811520576477e-01" cType="1" res="-4.8013213090598583e-03" rms="3.8936278223991394e-01" purity="5.0703299045562744e-01" nType="0">
          <Node pos="l" depth="2" NCoef="0" IVar="3" Cut="2.4236073303222656e+02" cType="1" res="-9.6239689737558365e-03" rms="3.8803640007972717e-01" purity="5.2496129274368286e-01" nType="0">
            <Node pos="l" depth="3" NCoef="0" IVar="-1" Cut="0.0000000000000000e+00" cType="1" res="-1.0230556130409241e-02" rms="3.9563184976577759e-01" purity="4.2932969331741333e-01" nType="-99"/>
            <Node pos="r" depth="3" NCoef="0" IVar="-1" Cut="0.0000000000000000e+00" cType="1" res="2.7548957150429487e-03" rms="3.7155812978744507e-01" purity="7.2174364328384399e-01" nType="-99"/>
          </Node>
          <Node pos="r" depth="2" NCoef="0" IVar="7" Cut="1.5429027080535889e+00" cType="1" res="4.7927154228091240e-03" rms="3.9181163907051086e-01" purity="4.7136694192886353e-01" nType="0">
            <Node pos="l" depth="3" NCoef="0" IVar="-1" Cut="0.0000000000000000e+00" cType="1" res="8.2207368686795235e-03" rms="4.0565556287765503e-01" purity="5.4304349422454834e-01" nType="-99"/>
            <Node pos="r" depth="3" NCoef="0" IVar="-1" Cut="0.0000000000000000e+00" cType="1" res="-1.8612561747431755e-02" rms="3.3832666277885437e-01" purity="2.2487370669841766e-01" nType="-99"/>
          </Node>
        </Node>
        <Node pos="r" depth="1" NCoef="0" IVar="2" Cut="3.2609075927734375e+02" cType="1" res="4.2289649136364460e-03" rms="3.8711234927177429e-01" purity="4.8605051636695862e-01" nType="0">
          <Node pos="l" depth="2" NCoef="0" IVar="4" Cut="1.2501551818847656e+02" cType="1" res="-2.4698746856302023e-03" rms="3.9684480428695679e-01" purity="4.3325516581535339e-01" nType="0">
            <Node pos="l" depth="3" NCoef="0" IVar="-1" Cut="0.0000000000000000e+00" cType="1" res="6.1798067763447762e-03" rms="3.9909830689430237e-01" purity="2.9966178536415100e-01" nType="-99"/>
            <Node pos="r" depth="3" NCoef="0" IVar="-1" Cut="0.0000000000000000e+00" cType="1" res="-1.2277211993932724e-02" rms="3.9309859275817871e-01" purity="6.1868643760681152e-01" nType="-99"/>
          </Node>
          <Node pos="r" depth="2" NCoef="0" IVar="6" Cut="5.3266155719757080e-01" cType="1" res="9.5656150951981544e-03" rms="3.7909552454948425e-01" purity="5.2811008691787720e-01" nType="0">
            <Node pos="l" depth="3" NCoef="0" IVar="-1" Cut="0.0000000000000000e+00" cType="1" res="-3.3812338951975107e-03" rms="3.7412330508232117e-01" purity="6.3969033956527710e-01" nType="-99"/>
            <Node pos="r" depth="3" NCoef="0" IVar="-1" Cut="0.0000000000000000e+00" cType="1" res="1.2395909056067467e-02" rms="3.8160613179206848e-01" purity="4.6572437882423401e-01" nType="-99"/>
          </Node>
        </Node>
      </Node>
    </BinaryTree>
    <BinaryTree type="DecisionTree" boostWeight="1.0000000000000000e+00" itree="317">
      <Node pos="s" depth="0" NCoef="0" IVar="6" Cut="-1.6967858076095581e+00" cType="1" res="-2.0991743076592684e-03" rms="3.8531935214996338e-01" purity="4.9930557608604431e-01" nType="0">
        <Node pos="l" depth="1" NCoef="0" IVar="-1" Cut="0.0000000000000000e+00" cType="1" res="1.8892589956521988e-02" rms="3.2690736651420593e-01" purity="2.1078528463840485e-01" nType="-99"/>
        <Node pos="r" depth="1" NCoef="0" IVar="6" Cut="-1.2685170173645020e+00" cType="1" res="-3.0786863062530756e-03" rms="3.8770094513893127e-01" purity="5.1222848892211914e-01" nType="0">
          <Node pos="l" depth="2" NCoef="0" IVar="0" Cut="3.9825973510742188e+02" cType="1" res="-2.5943690910935402e-02" rms="3.4773173928260803e-01" purity="2.7155533432960510e-01" nType="0">
            <Node pos="l" depth="3" NCoef="0" IVar="-1" Cut="0.0000000000000000e+00" cType="1" res="-3.8544800132513046e-02" rms="3.0014330148696899e-01" purity="1.2016947567462921e-01" nType="-99"/>
            <Node pos="r" depth="3" NCoef="0" IVar="-1" Cut="0.0000000000000000e+00" cType="1" res="-5.1575712859630585e-03" rms="3.9068782329559326e-01" purity="4.3029341101646423e-01" nType="-99"/>
          </Node>
          <Node pos="r" depth="2" NCoef="0" IVar="4" Cut="1.4430955505371094e+02" cType="1" res="-1.7753227148205042e-03" rms="3.8981544971466064e-01" purity="5.2594751119613647e-01" nType="0">
            <Node pos="l" depth="3" NCoef="0" IVar="-1" Cut="0.0000000000000000e+00" cType="1" res="1.2214784510433674e-03" rms="4.0503442287445068e-01" purity="3.9174804091453552e-01" nType="-99"/>
            <Node pos="r" depth="3" NCoef="0" IVar="-1" Cut="0.0000000000000000e+00" cType="1" res="-5.5691096931695938e-03" rms="3.6503764986991882e-01" purity="7.3282182216644287e-01" nType="-99"/>
          </Node>
        </Node>
      </Node>
    </BinaryTree>
    <BinaryTree type="DecisionTree" boostWeight="1.0000000000000000e+00" itree="318">
      <Node pos="s" depth="0" NCoef="0" IVar="7" Cut="-1.3329948484897614e-01" cType="1" res="-1.8814688082784414e-03" rms="3.8572102785110474e-01" purity="4.9687695503234863e-01" nType="0">
        <Node pos="l" depth="1" NCoef="0" IVar="8" Cut="-1.3331970572471619e-01" cType="1" res="-6.5864240750670433e-03" rms="3.8492882251739502e-01" purity="4.7935217618942261e-01" nType="0">
          <Node pos="l" depth="2" NCoef="0" IVar="9" Cut="-1.7332214117050171e+00" cType="1" res="-1.5636235475540161e-02" rms="3.8508263230323792e-01" purity="4.5692250132560730e-01" nType="0">
            <Node pos="l" depth="3" NCoef="0" IVar="-1" Cut="0.0000000000000000e+00" cType="1" res="1.3864438049495220e-02" rms="3.7129533290863037e-01" purity="3.5226640105247498e-01" nType="-99"/>
            <Node pos="r" depth="3" NCoef="0" IVar="-1" Cut="0.0000000000000000e+00" cType="1" res="-1.3431207276880741e-02" rms="3.8668936491012573e-01" purity="4.7126847505569458e-01" nType="-99"/>
          </Node>
          <Node pos="r" depth="2" NCoef="0" IVar="7" Cut="-1.0221796035766602e+00" cType="1" res="2.5743616279214621e-03" rms="3.8455623388290405e-01" purity="5.0205683708190918e-01" nType="0">
            <Node pos="l" depth="3" NCoef="0" IVar="-1" Cut="0.0000000000000000e+00" cType="1" res="-1.0607678443193436e-02" rms="3.6004099249839783e-01" purity="3.2093316316604614e-01" nType="-99"/>
            <Node pos="r" depth="3" NCoef="0" IVar="-1" Cut="0.0000000000000000e+00" cType="1" res="7.5390324927866459e-03" rms="3.9650633931159973e-01" purity="5.9705072641372681e-01" nType="-99"/>
          </Node>
        </Node>
        <Node pos="r" depth="1" NCoef="0" IVar="9" Cut="-1.4666715860366821e+00" cType="1" res="1.8981780158355832e-03" rms="3.8631477952003479e-01" purity="5.1095521450042725e-01" nType="0">
          <Node pos="l" depth="2" NCoef="0" IVar="7" Cut="7.0420956611633301e-01" cType="1" res="-1.6853127628564835e-02" rms="3.8609877228736877e-01" purity="3.8289752602577209e-01" nType="0">
            <Node pos="l" depth="3" NCoef="0" IVar="-1" Cut="0.0000000000000000e+00" cType="1" res="-2.1467631682753563e-02" rms="3.9928340911865234e-01" purity="4.3609437346458435e-01" nType="-99"/>
            <Node pos="r" depth="3" NCoef="0" IVar="-1" Cut="0.0000000000000000e+00" cType="1" res="1.0551464511081576e-03" rms="3.7121486663818359e-01" purity="3.2841977477073669e-01" nType="-99"/>
          </Node>
          <Node pos="r" depth="2" NCoef="0" IVar="7" Cut="5.6511157751083374e-01" cType="1" res="4.0531558915972710e-03" rms="3.8628128170967102e-01" purity="5.2567213773727417e-01" nType="0">
            <Node pos="l" depth="3" NCoef="0" IVar="-1" Cut="0.0000000000000000e+00" cType="1" res="7.6998742297291756e-03" rms="3.8766840100288391e-01" purity="6.2632852792739868e-01" nType="-99"/>
            <Node pos="r" depth="3" NCoef="0" IVar="-1" Cut="0.0000000000000000e+00" cType="1" res="-1.6107746632769704e-03" rms="3.8499853014945984e-01" purity="4.4146984815597534e-01" nType="-99"/>
          </Node>
        </Node>
      </Node>
    </BinaryTree>
    <BinaryTree type="DecisionTree" boostWeight="1.0000000000000000e+00" itree="319">
      <Node pos="s" depth="0" NCoef="0" IVar="8" Cut="1.7332333326339722e+00" cType="1" res="2.4524473119527102e-03" rms="3.8470476865768433e-01" purity="5.0241971015930176e-01" nType="0">
        <Node pos="l" depth="1" NCoef="0" IVar="9" Cut="1.7333316802978516e+00" cType="1" res="3.7268595770001411e-03" rms="3.8669314980506897e-01" purity="5.1937532424926758e-01" nType="0">
          <Node pos="l" depth="2" NCoef="0" IVar="8" Cut="1.5173383951187134e+00" cType="1" res="2.2186054848134518e-03" rms="3.8617974519729614e-01" purity="5.2875894308090210e-01" nType="0">
            <Node pos="l" depth="3" NCoef="0" IVar="-1" Cut="0.0000000000000000e+00" cType="1" res="8.5058843251317739e-04" rms="3.8617914915084839e-01" purity="5.3187364339828491e-01" nType="-99"/>
            <Node pos="r" depth="3" NCoef="0" IVar="-1" Cut="0.0000000000000000e+00" cType="1" res="1.9703725352883339e-02" rms="3.8509806990623474e-01" purity="4.3357557058334351e-01" nType="-99"/>
          </Node>
          <Node pos="r" depth="2" NCoef="0" IVar="7" Cut="-3.9987736940383911e-01" cType="1" res="1.9761808216571808e-02" rms="3.9175096154212952e-01" purity="4.1961392760276794e-01" nType="0">
            <Node pos="l" depth="3" NCoef="0" IVar="-1" Cut="0.0000000000000000e+00" cType="1" res="2.8770426288247108e-02" rms="3.9693745970726013e-01" purity="3.9913508296012878e-01" nType="-99"/>
            <Node pos="r" depth="3" NCoef="0" IVar="-1" Cut="0.0000000000000000e+00" cType="1" res="5.3935609757900238e-03" rms="3.8864618539810181e-01" purity="4.2973497509956360e-01" nType="-99"/>
          </Node>
        </Node>
        <Node pos="r" depth="1" NCoef="0" IVar="0" Cut="4.1832400512695312e+02" cType="1" res="-1.5421912074089050e-02" rms="3.5516592860221863e-01" purity="2.6460686326026917e-01" nType="0">
          <Node pos="l" depth="2" NCoef="0" IVar="-1" Cut="0.0000000000000000e+00" cType="1" res="1.3858937891200185e-03" rms="3.3120876550674438e-01" purity="1.7801938951015472e-01" nType="-99"/>
          <Node pos="r" depth="2" NCoef="0" IVar="-1" Cut="0.0000000000000000e+00" cType="1" res="-2.5433886796236038e-02" rms="3.8823300600051880e-01" purity="4.0016007423400879e-01" nType="-99"/>
        </Node>
      </Node>
    </BinaryTree>
    <BinaryTree type="DecisionTree" boostWeight="1.0000000000000000e+00" itree="320">
      <Node pos="s" depth="0" NCoef="0" IVar="8" Cut="-1.2000143527984619e+00" cType="1" res="-4.8257862217724323e-03" rms="3.8390034437179565e-01" purity="4.9417358636856079e-01" nType="0">
        <Node pos="l" depth="1" NCoef="0" IVar="5" Cut="9.1253715515136719e+01" cType="1" res="1.2269239872694016e-02" rms="3.8113933801651001e-01" purity="3.7381514906883240e-01" nType="0">
          <Node pos="l" depth="2" NCoef="0" IVar="6" Cut="1.8400523066520691e-01" cType="1" res="4.8495167866349220e-03" rms="3.6756139993667603e-01" purity="2.6546490192413330e-01" nType="0">
            <Node pos="l" depth="3" NCoef="0" IVar="-1" Cut="0.0000000000000000e+00" cType="1" res="-6.4640138298273087e-03" rms="3.6212360858917236e-01" purity="2.6688471436500549e-01" nType="-99"/>
            <Node pos="r" depth="3" NCoef="0" IVar="-1" Cut="0.0000000000000000e+00" cType="1" res="2.1188668906688690e-02" rms="3.7504363059997559e-01" purity="2.6317596435546875e-01" nType="-99"/>
          </Node>
          <Node pos="r" depth="2" NCoef="0" IVar="-1" Cut="0.0000000000000000e+00" cType="1" res="1.6874834895133972e-02" rms="4.0770900249481201e-01" purity="6.0101783275604248e-01" nType="-99"/>
        </Node>
        <Node pos="r" depth="1" NCoef="0" IVar="6" Cut="1.4707406759262085e+00" cType="1" res="-8.0687263980507851e-03" rms="3.8433608412742615e-01" purity="5.1700574159622192e-01" nType="0">
          <Node pos="l" depth="2" NCoef="0" IVar="8" Cut="3.2376301288604736e-01" cType="1" res="-6.4129140228033066e-03" rms="3.8879609107971191e-01" purity="5.4018443822860718e-01" nType="0">
            <Node pos="l" depth="3" NCoef="0" IVar="-1" Cut="0.0000000000000000e+00" cType="1" res="-7.7451877295970917e-03" rms="3.8559263944625854e-01" purity="5.7613688707351685e-01" nType="-99"/>
            <Node pos="r" depth="3" NCoef="0" IVar="-1" Cut="0.0000000000000000e+00" cType="1" res="-2.2623113181907684e-05" rms="3.9243248105049133e-01" purity="4.9792146682739258e-01" nType="-99"/>
          </Node>
          <Node pos="r" depth="2" NCoef="0" IVar="9" Cut="3.9999130368232727e-01" cType="1" res="-3.1431447714567184e-02" rms="3.1381183862686157e-01" purity="1.8996544182300568e-01" nType="0">
            <Node pos="l" depth="3" NCoef="0" IVar="-1" Cut="0.0000000000000000e+00" cType="1" res="-4.3956410139799118e-02" rms="3.0326107144355774e-01" purity="2.0467126369476318e-01" nType="-99"/>
            <Node pos="r" depth="3" NCoef="0" IVar="-1" Cut="0.0000000000000000e+00" cType="1" res="-6.3785198144614697e-03" rms="3.2273995876312256e-01" purity="1.7442502081394196e-01" nType="-99"/>
          </Node>
        </Node>
      </Node>
    </BinaryTree>
    <BinaryTree type="DecisionTree" boostWeight="1.0000000000000000e+00" itree="321">
      <Node pos="s" depth="0" NCoef="0" IVar="7" Cut="2.0000073909759521e+00" cType="1" res="1.1297684395685792e-03" rms="3.8396751880645752e-01" purity="5.0003033876419067e-01" nType="0">
        <Node pos="l" depth="1" NCoef="0" IVar="9" Cut="-2.2666332721710205e+00" cType="1" res="1.8910783110186458e-03" rms="3.8635820150375366e-01" purity="5.1206284761428833e-01" nType="0">
          <Node pos="l" depth="2" NCoef="0" IVar="-1" Cut="0.0000000000000000e+00" cType="1" res="-1.7615059390664101e-02" rms="3.6475488543510437e-01" purity="2.9682874679565430e-01" nType="-99"/>
          <Node pos="r" depth="2" NCoef="0" IVar="2" Cut="5.0069046020507812e+02" cType="1" res="2.6758275926113129e-03" rms="3.8695666193962097e-01" purity="5.1848375797271729e-01" nType="0">
            <Node pos="l" depth="3" NCoef="0" IVar="-1" Cut="0.0000000000000000e+00" cType="1" res="2.2193626500666142e-04" rms="3.8528767228126526e-01" purity="5.0548511743545532e-01" nType="-99"/>
            <Node pos="r" depth="3" NCoef="0" IVar="-1" Cut="0.0000000000000000e+00" cType="1" res="8.6586391553282738e-03" rms="3.9448735117912292e-01" purity="5.7930129766464233e-01" nType="-99"/>
          </Node>
        </Node>
        <Node pos="r" depth="1" NCoef="0" IVar="-1" Cut="0.0000000000000000e+00" cType="1" res="-1.9693767651915550e-02" rms="3.0585661530494690e-01" purity="1.5126594901084900e-01" nType="-99"/>
      </Node>
    </BinaryTree>
    <BinaryTree type="DecisionTree" boostWeight="1.0000000000000000e+00" itree="322">
      <Node pos="s" depth="0" NCoef="0" IVar="6" Cut="6.8026095628738403e-01" cType="1" res="-6.0986884636804461e-04" rms="3.8598680496215820e-01" purity="4.9559432268142700e-01" nType="0">
        <Node pos="l" depth="1" NCoef="0" IVar="7" Cut="-9.3324446678161621e-01" cType="1" res="3.6711366847157478e-03" rms="3.9249172806739807e-01" purity="5.3534835577011108e-01" nType="0">
          <Node pos="l" depth="2" NCoef="0" IVar="9" Cut="3.9991852641105652e-01" cType="1" res="1.5680989250540733e-02" rms="3.8851097226142883e-01" purity="4.1061371564865112e-01" nType="0">
            <Node pos="l" depth="3" NCoef="0" IVar="-1" Cut="0.0000000000000000e+00" cType="1" res="1.6664359718561172e-02" rms="3.9204400777816772e-01" purity="4.2237246036529541e-01" nType="-99"/>
            <Node pos="r" depth="3" NCoef="0" IVar="-1" Cut="0.0000000000000000e+00" cType="1" res="-5.8632227592170238e-03" rms="3.7841054797172546e-01" purity="3.8117146492004395e-01" nType="-99"/>
          </Node>
          <Node pos="r" depth="2" NCoef="0" IVar="2" Cut="3.4565957641601562e+02" cType="1" res="6.6811486613005400e-04" rms="3.9342352747917175e-01" purity="5.6653779745101929e-01" nType="0">
            <Node pos="l" depth="3" NCoef="0" IVar="-1" Cut="0.0000000000000000e+00" cType="1" res="-3.5621407441794872e-03" rms="4.0418866276741028e-01" purity="5.1641482114791870e-01" nType="-99"/>
            <Node pos="r" depth="3" NCoef="0" IVar="-1" Cut="0.0000000000000000e+00" cType="1" res="4.3845558539032936e-03" rms="3.8332539796829224e-01" purity="6.1190879344940186e-01" nType="-99"/>
          </Node>
        </Node>
        <Node pos="r" depth="1" NCoef="0" IVar="7" Cut="-6.6617083549499512e-01" cType="1" res="-1.4781034551560879e-02" rms="3.6326494812965393e-01" purity="3.6399880051612854e-01" nType="0">
          <Node pos="l" depth="2" NCoef="0" IVar="4" Cut="1.1561502838134766e+02" cType="1" res="-2.9479870572686195e-02" rms="3.3054694533348083e-01" purity="2.4904112517833710e-01" nType="0">
            <Node pos="l" depth="3" NCoef="0" IVar="-1" Cut="0.0000000000000000e+00" cType="1" res="-1.8524168059229851e-02" rms="2.9875865578651428e-01" purity="1.2220625579357147e-01" nType="-99"/>
            <Node pos="r" depth="3" NCoef="0" IVar="-1" Cut="0.0000000000000000e+00" cType="1" res="-2.8172066435217857e-02" rms="3.6181655526161194e-01" purity="3.8812789320945740e-01" nType="-99"/>
          </Node>
          <Node pos="r" depth="2" NCoef="0" IVar="7" Cut="-5.9186532162129879e-03" cType="1" res="-9.9011827260255814e-03" rms="3.7336587905883789e-01" purity="4.0216353535652161e-01" nType="0">
            <Node pos="l" depth="3" NCoef="0" IVar="-1" Cut="0.0000000000000000e+00" cType="1" res="6.9136684760451317e-03" rms="3.9638870954513550e-01" purity="4.9782940745353699e-01" nType="-99"/>
            <Node pos="r" depth="3" NCoef="0" IVar="-1" Cut="0.0000000000000000e+00" cType="1" res="-1.2765580788254738e-02" rms="3.6369708180427551e-01" purity="3.6493596434593201e-01" nType="-99"/>
          </Node>
        </Node>
      </Node>
    </BinaryTree>
    <BinaryTree type="DecisionTree" boostWeight="1.0000000000000000e+00" itree="323">
      <Node pos="s" depth="0" NCoef="0" IVar="5" Cut="1.2018346405029297e+02" cType="1" res="2.3397472687065601e-03" rms="3.8647854328155518e-01" purity="4.9801671504974365e-01" nType="0">
        <Node pos="l" depth="1" NCoef="0" IVar="9" Cut="2.2666208744049072e+00" cType="1" res="4.9246479757130146e-03" rms="3.9644175767898560e-01" purity="4.2000940442085266e-01" nType="0">
          <Node pos="l" depth="2" NCoef="0" IVar="8" Cut="1.4664605855941772e+00" cType="1" res="5.9199859388172626e-03" rms="3.9851555228233337e-01" purity="4.2450082302093506e-01" nType="0">
            <Node pos="l" depth="3" NCoef="0" IVar="-1" Cut="0.0000000000000000e+00" cType="1" res="2.4535800330340862e-03" rms="4.0045356750488281e-01" purity="4.4169414043426514e-01" nType="-99"/>
            <Node pos="r" depth="3" NCoef="0" IVar="-1" Cut="0.0000000000000000e+00" cType="1" res="1.4805302955210209e-02" rms="3.8305178284645081e-01" purity="2.9311454296112061e-01" nType="-99"/>
          </Node>
          <Node pos="r" depth="2" NCoef="0" IVar="-1" Cut="0.0000000000000000e+00" cType="1" res="-1.7008490860462189e-02" rms="3.3179610967636108e-01" purity="2.9395312070846558e-01" nType="-99"/>
        </Node>
        <Node pos="r" depth="1" NCoef="0" IVar="4" Cut="1.6367236328125000e+02" cType="1" res="-7.2989542968571186e-03" rms="3.4664288163185120e-01" purity="7.8889405727386475e-01" nType="0">
          <Node pos="l" depth="2" NCoef="0" IVar="-1" Cut="0.0000000000000000e+00" cType="1" res="-1.5010512433946133e-02" rms="3.8398241996765137e-01" purity="6.9780397415161133e-01" nType="-99"/>
          <Node pos="r" depth="2" NCoef="0" IVar="4" Cut="2.0495175170898438e+02" cType="1" res="-2.3879003711044788e-03" rms="3.3318853378295898e-01" purity="8.1911092996597290e-01" nType="0">
            <Node pos="l" depth="3" NCoef="0" IVar="-1" Cut="0.0000000000000000e+00" cType="1" res="5.7796481996774673e-03" rms="3.5108613967895508e-01" purity="7.9722243547439575e-01" nType="-99"/>
            <Node pos="r" depth="3" NCoef="0" IVar="-1" Cut="0.0000000000000000e+00" cType="1" res="-1.0580594651401043e-02" rms="3.1696009635925293e-01" purity="8.3770948648452759e-01" nType="-99"/>
          </Node>
        </Node>
      </Node>
    </BinaryTree>
    <BinaryTree type="DecisionTree" boostWeight="1.0000000000000000e+00" itree="324">
      <Node pos="s" depth="0" NCoef="0" IVar="7" Cut="-1.1998803615570068e+00" cType="1" res="-3.6436558002606034e-04" rms="3.8574036955833435e-01" purity="4.9672257900238037e-01" nType="0">
        <Node pos="l" depth="1" NCoef="0" IVar="8" Cut="-1.2000162601470947e+00" cType="1" res="1.6517646610736847e-02" rms="3.7128284573554993e-01" purity="3.1743344664573669e-01" nType="0">
          <Node pos="l" depth="2" NCoef="0" IVar="-1" Cut="0.0000000000000000e+00" cType="1" res="-1.3630235567688942e-02" rms="3.2845756411552429e-01" purity="1.9801238179206848e-01" nType="-99"/>
          <Node pos="r" depth="2" NCoef="0" IVar="7" Cut="-1.7331631183624268e+00" cType="1" res="2.5866463780403137e-02" rms="3.8229796290397644e-01" purity="3.5206267237663269e-01" nType="0">
            <Node pos="l" depth="3" NCoef="0" IVar="-1" Cut="0.0000000000000000e+00" cType="1" res="8.0254999920725822e-03" rms="3.5116383433341980e-01" purity="2.4582894146442413e-01" nType="-99"/>
            <Node pos="r" depth="3" NCoef="0" IVar="-1" Cut="0.0000000000000000e+00" cType="1" res="2.3460661992430687e-02" rms="4.0288615226745605e-01" purity="4.2873239517211914e-01" nType="-99"/>
          </Node>
        </Node>
        <Node pos="r" depth="1" NCoef="0" IVar="9" Cut="1.9998991489410400e+00" cType="1" res="-3.0034098308533430e-03" rms="3.8788533210754395e-01" purity="5.2474951744079590e-01" nType="0">
          <Node pos="l" depth="2" NCoef="0" IVar="8" Cut="-1.4665725231170654e+00" cType="1" res="-2.0780591294169426e-03" rms="3.8834494352340698e-01" purity="5.3469073772430420e-01" nType="0">
            <Node pos="l" depth="3" NCoef="0" IVar="-1" Cut="0.0000000000000000e+00" cType="1" res="5.6707025505602360e-03" rms="3.9259549975395203e-01" purity="3.6506929993629456e-01" nType="-99"/>
            <Node pos="r" depth="3" NCoef="0" IVar="-1" Cut="0.0000000000000000e+00" cType="1" res="-2.1088558714836836e-03" rms="3.8786745071411133e-01" purity="5.5293357372283936e-01" nType="-99"/>
          </Node>
          <Node pos="r" depth="2" NCoef="0" IVar="-1" Cut="0.0000000000000000e+00" cType="1" res="-1.2739866971969604e-02" rms="3.7950700521469116e-01" purity="3.5311731696128845e-01" nType="-99"/>
        </Node>
      </Node>
    </BinaryTree>
    <BinaryTree type="DecisionTree" boostWeight="1.0000000000000000e+00" itree="325">
      <Node pos="s" depth="0" NCoef="0" IVar="7" Cut="9.3336302042007446e-01" cType="1" res="3.0187278753146529e-04" rms="3.8542196154594421e-01" purity="4.9964591860771179e-01" nType="0">
        <Node pos="l" depth="1" NCoef="0" IVar="8" Cut="-1.7333230972290039e+00" cType="1" res="-2.4642331991344690e-03" rms="3.8550701737403870e-01" purity="5.2966183423995972e-01" nType="0">
          <Node pos="l" depth="2" NCoef="0" IVar="9" Cut="-1.3332894444465637e-01" cType="1" res="-2.6399195194244385e-02" rms="3.5015732049942017e-01" purity="2.8088742494583130e-01" nType="0">
            <Node pos="l" depth="3" NCoef="0" IVar="-1" Cut="0.0000000000000000e+00" cType="1" res="-2.6656143367290497e-02" rms="3.3089479804039001e-01" purity="2.4153842031955719e-01" nType="-99"/>
            <Node pos="r" depth="3" NCoef="0" IVar="-1" Cut="0.0000000000000000e+00" cType="1" res="-1.1167240329086781e-02" rms="3.7016603350639343e-01" purity="3.2465869188308716e-01" nType="-99"/>
          </Node>
          <Node pos="r" depth="2" NCoef="0" IVar="3" Cut="1.4643858337402344e+02" cType="1" res="-6.8859121529385448e-04" rms="3.8794231414794922e-01" purity="5.4811745882034302e-01" nType="0">
            <Node pos="l" depth="3" NCoef="0" IVar="-1" Cut="0.0000000000000000e+00" cType="1" res="-8.5821244865655899e-03" rms="3.7729966640472412e-01" purity="2.5266912579536438e-01" nType="-99"/>
            <Node pos="r" depth="3" NCoef="0" IVar="-1" Cut="0.0000000000000000e+00" cType="1" res="1.7505948198959231e-03" rms="3.9084696769714355e-01" purity="6.3204199075698853e-01" nType="-99"/>
          </Node>
        </Node>
        <Node pos="r" depth="1" NCoef="0" IVar="3" Cut="1.2042360687255859e+02" cType="1" res="1.1726616881787777e-02" rms="3.8485994935035706e-01" purity="3.7567234039306641e-01" nType="0">
          <Node pos="l" depth="2" NCoef="0" IVar="-1" Cut="0.0000000000000000e+00" cType="1" res="4.3808177113533020e-02" rms="3.3975169062614441e-01" purity="1.6678114235401154e-01" nType="-99"/>
          <Node pos="r" depth="2" NCoef="0" IVar="6" Cut="9.4729214906692505e-01" cType="1" res="5.9809028171002865e-03" rms="3.9311945438385010e-01" purity="4.1799056529998779e-01" nType="0">
            <Node pos="l" depth="3" NCoef="0" IVar="-1" Cut="0.0000000000000000e+00" cType="1" res="6.6333981230854988e-03" rms="4.0391960740089417e-01" purity="4.5813706517219543e-01" nType="-99"/>
            <Node pos="r" depth="3" NCoef="0" IVar="-1" Cut="0.0000000000000000e+00" cType="1" res="-1.2557219713926315e-02" rms="3.3904379606246948e-01" purity="2.3599451780319214e-01" nType="-99"/>
          </Node>
        </Node>
      </Node>
    </BinaryTree>
    <BinaryTree type="DecisionTree" boostWeight="1.0000000000000000e+00" itree="326">
      <Node pos="s" depth="0" NCoef="0" IVar="5" Cut="1.2018337249755859e+02" cType="1" res="-1.2845464516431093e-03" rms="3.8382899761199951e-01" purity="4.9728214740753174e-01" nType="0">
        <Node pos="l" depth="1" NCoef="0" IVar="9" Cut="-1.3329644501209259e-01" cType="1" res="-3.8030860014259815e-03" rms="3.9435425400733948e-01" purity="4.1465771198272705e-01" nType="0">
          <Node pos="l" depth="2" NCoef="0" IVar="3" Cut="1.3608137512207031e+02" cType="1" res="1.3888982357457280e-03" rms="3.9497566223144531e-01" purity="4.2011415958404541e-01" nType="0">
            <Node pos="l" depth="3" NCoef="0" IVar="-1" Cut="0.0000000000000000e+00" cType="1" res="-1.1464577168226242e-02" rms="3.5607612133026123e-01" purity="1.9553652405738831e-01" nType="-99"/>
            <Node pos="r" depth="3" NCoef="0" IVar="-1" Cut="0.0000000000000000e+00" cType="1" res="4.0523279458284378e-03" rms="4.0700367093086243e-01" purity="4.9517369270324707e-01" nType="-99"/>
          </Node>
          <Node pos="r" depth="2" NCoef="0" IVar="8" Cut="9.3323230743408203e-01" cType="1" res="-8.3322934806346893e-03" rms="3.9375546574592590e-01" purity="4.0989783406257629e-01" nType="0">
            <Node pos="l" depth="3" NCoef="0" IVar="-1" Cut="0.0000000000000000e+00" cType="1" res="-2.0985193550586700e-03" rms="4.0110206604003906e-01" purity="4.4860306382179260e-01" nType="-99"/>
            <Node pos="r" depth="3" NCoef="0" IVar="-1" Cut="0.0000000000000000e+00" cType="1" res="-1.6333283856511116e-02" rms="3.6961066722869873e-01" purity="2.8978696465492249e-01" nType="-99"/>
          </Node>
        </Node>
        <Node pos="r" depth="1" NCoef="0" IVar="8" Cut="-1.1998472213745117e+00" cType="1" res="7.8695211559534073e-03" rms="3.4270659089088440e-01" purity="7.9759502410888672e-01" nType="0">
          <Node pos="l" depth="2" NCoef="0" IVar="-1" Cut="0.0000000000000000e+00" cType="1" res="1.8343895673751831e-02" rms="3.7837454676628113e-01" purity="6.9515550136566162e-01" nType="-99"/>
          <Node pos="r" depth="2" NCoef="0" IVar="8" Cut="7.0437431335449219e-01" cType="1" res="5.1821796223521233e-03" rms="3.3766254782676697e-01" purity="8.1101542711257935e-01" nType="0">
            <Node pos="l" depth="3" NCoef="0" IVar="-1" Cut="0.0000000000000000e+00" cType="1" res="9.3301449669525027e-04" rms="3.2827246189117432e-01" purity="8.3112466335296631e-01" nType="-99"/>
            <Node pos="r" depth="3" NCoef="0" IVar="-1" Cut="0.0000000000000000e+00" cType="1" res="1.1989790946245193e-02" rms="3.6189708113670349e-01" purity="7.5592839717864990e-01" nType="-99"/>
          </Node>
        </Node>
      </Node>
    </BinaryTree>
    <BinaryTree type="DecisionTree" boostWeight="1.0000000000000000e+00" itree="327">
      <Node pos="s" depth="0" NCoef="0" IVar="6" Cut="1.7418864965438843e+00" cType="1" res="-1.2530409730970860e-04" rms="3.8626369833946228e-01" purity="4.9806258082389832e-01" nType="0">
        <Node pos="l" depth="1" NCoef="0" IVar="2" Cut="7.5905358886718750e+02" cType="1" res="-1.1986034223809838e-03" rms="3.8837179541587830e-01" purity="5.1152288913726807e-01" nType="0">
          <Node pos="l" depth="2" NCoef="0" IVar="1" Cut="9.8048883056640625e+02" cType="1" res="-4.5026410953141749e-04" rms="3.8792467117309570e-01" purity="5.0868701934814453e-01" nType="0">
            <Node pos="l" depth="3" NCoef="0" IVar="-1" Cut="0.0000000000000000e+00" cType="1" res="-1.2404333800077438e-02" rms="3.4176826477050781e-01" purity="1.6146291792392731e-01" nType="-99"/>
            <Node pos="r" depth="3" NCoef="0" IVar="-1" Cut="0.0000000000000000e+00" cType="1" res="1.5860978746786714e-03" rms="3.9602053165435791e-01" purity="5.7466971874237061e-01" nType="-99"/>
          </Node>
          <Node pos="r" depth="2" NCoef="0" IVar="-1" Cut="0.0000000000000000e+00" cType="1" res="-1.6825295984745026e-02" rms="4.0356758236885071e-01" purity="6.1625081300735474e-01" nType="-99"/>
        </Node>
        <Node pos="r" depth="1" NCoef="0" IVar="-1" Cut="0.0000000000000000e+00" cType="1" res="2.8369383886456490e-02" rms="3.3059424161911011e-01" purity="1.7482593655586243e-01" nType="-99"/>
      </Node>
    </BinaryTree>
    <BinaryTree type="DecisionTree" boostWeight="1.0000000000000000e+00" itree="328">
      <Node pos="s" depth="0" NCoef="0" IVar="3" Cut="2.2033171081542969e+02" cType="1" res="1.4843202661722898e-03" rms="3.8688886165618896e-01" purity="5.0168675184249878e-01" nType="0">
        <Node pos="l" depth="1" NCoef="0" IVar="4" Cut="1.6327362060546875e+02" cType="1" res="6.0211191885173321e-03" rms="3.9298653602600098e-01" purity="3.9294418692588806e-01" nType="0">
          <Node pos="l" depth="2" NCoef="0" IVar="5" Cut="7.6855598449707031e+01" cType="1" res="3.7738101091235876e-03" rms="3.9341133832931519e-01" purity="3.5415610671043396e-01" nType="0">
            <Node pos="l" depth="3" NCoef="0" IVar="-1" Cut="0.0000000000000000e+00" cType="1" res="8.2846591249108315e-03" rms="3.8035410642623901e-01" purity="2.5224584341049194e-01" nType="-99"/>
            <Node pos="r" depth="3" NCoef="0" IVar="-1" Cut="0.0000000000000000e+00" cType="1" res="-4.4232523068785667e-03" rms="4.1157773137092590e-01" purity="5.0389742851257324e-01" nType="-99"/>
          </Node>
          <Node pos="r" depth="2" NCoef="0" IVar="-1" Cut="0.0000000000000000e+00" cType="1" res="1.5949787572026253e-02" rms="3.8913503289222717e-01" purity="7.0105791091918945e-01" nType="-99"/>
        </Node>
        <Node pos="r" depth="1" NCoef="0" IVar="2" Cut="6.6595062255859375e+02" cType="1" res="-5.1924339495599270e-03" rms="3.7763684988021851e-01" purity="6.6172206401824951e-01" nType="0">
          <Node pos="l" depth="2" NCoef="0" IVar="7" Cut="-1.3329948484897614e-01" cType="1" res="-3.1848303042352200e-03" rms="3.7543809413909912e-01" purity="6.6841745376586914e-01" nType="0">
            <Node pos="l" depth="3" NCoef="0" IVar="-1" Cut="0.0000000000000000e+00" cType="1" res="-7.6942234300076962e-03" rms="3.7554934620857239e-01" purity="6.4466392993927002e-01" nType="-99"/>
            <Node pos="r" depth="3" NCoef="0" IVar="-1" Cut="0.0000000000000000e+00" cType="1" res="1.9762499723583460e-03" rms="3.7524238228797913e-01" purity="6.8667894601821899e-01" nType="-99"/>
          </Node>
          <Node pos="r" depth="2" NCoef="0" IVar="-1" Cut="0.0000000000000000e+00" cType="1" res="-1.5850488096475601e-02" rms="3.9907583594322205e-01" purity="5.9247767925262451e-01" nType="-99"/>
        </Node>
      </Node>
    </BinaryTree>
    <BinaryTree type="DecisionTree" boostWeight="1.0000000000000000e+00" itree="329">
      <Node pos="s" depth="0" NCoef="0" IVar="7" Cut="-1.4666162729263306e+00" cType="1" res="4.3493215925991535e-03" rms="3.8693314790725708e-01" purity="5.0510978698730469e-01" nType="0">
        <Node pos="l" depth="1" NCoef="0" IVar="1" Cut="1.0513972167968750e+03" cType="1" res="-1.4361135661602020e-02" rms="3.4118703007698059e-01" purity="2.3882573843002319e-01" nType="0">
          <Node pos="l" depth="2" NCoef="0" IVar="-1" Cut="0.0000000000000000e+00" cType="1" res="1.5996515750885010e-02" rms="2.9872030019760132e-01" purity="1.2179996073246002e-01" nType="-99"/>
          <Node pos="r" depth="2" NCoef="0" IVar="9" Cut="-1.3381969928741455e-01" cType="1" res="-3.1501654535531998e-02" rms="3.6364090442657471e-01" purity="3.1031587719917297e-01" nType="0">
            <Node pos="l" depth="3" NCoef="0" IVar="-1" Cut="0.0000000000000000e+00" cType="1" res="-2.6885321363806725e-02" rms="3.6598768830299377e-01" purity="2.8897160291671753e-01" nType="-99"/>
            <Node pos="r" depth="3" NCoef="0" IVar="-1" Cut="0.0000000000000000e+00" cType="1" res="-1.4308386482298374e-02" rms="3.6089202761650085e-01" purity="3.3267170190811157e-01" nType="-99"/>
          </Node>
        </Node>
        <Node pos="r" depth="1" NCoef="0" IVar="9" Cut="-1.1999784708023071e+00" cType="1" res="6.1307465657591820e-03" rms="3.9096301794052124e-01" purity="5.3046274185180664e-01" nType="0">
          <Node pos="l" depth="2" NCoef="0" IVar="5" Cut="7.3457305908203125e+01" cType="1" res="2.0364843308925629e-02" rms="3.9823812246322632e-01" purity="4.7239401936531067e-01" nType="0">
            <Node pos="l" depth="3" NCoef="0" IVar="-1" Cut="0.0000000000000000e+00" cType="1" res="2.3347780108451843e-02" rms="3.9106574654579163e-01" purity="3.4022134542465210e-01" nType="-99"/>
            <Node pos="r" depth="3" NCoef="0" IVar="-1" Cut="0.0000000000000000e+00" cType="1" res="4.6724989078938961e-03" rms="4.0386205911636353e-01" purity="5.8602058887481689e-01" nType="-99"/>
          </Node>
          <Node pos="r" depth="2" NCoef="0" IVar="7" Cut="-6.5390342473983765e-01" cType="1" res="3.2167008612304926e-03" rms="3.8939270377159119e-01" purity="5.4235070943832397e-01" nType="0">
            <Node pos="l" depth="3" NCoef="0" IVar="-1" Cut="0.0000000000000000e+00" cType="1" res="7.5380932539701462e-03" rms="3.9903834462165833e-01" purity="5.2295494079589844e-01" nType="-99"/>
            <Node pos="r" depth="3" NCoef="0" IVar="-1" Cut="0.0000000000000000e+00" cType="1" res="7.4404373299330473e-04" rms="3.8705861568450928e-01" purity="5.4691386222839355e-01" nType="-99"/>
          </Node>
        </Node>
      </Node>
    </BinaryTree>
    <BinaryTree type="DecisionTree" boostWeight="1.0000000000000000e+00" itree="330">
      <Node pos="s" depth="0" NCoef="0" IVar="9" Cut="1.7333328723907471e+00" cType="1" res="-1.8180168699473143e-03" rms="3.8636898994445801e-01" purity="4.9742004275321960e-01" nType="0">
        <Node pos="l" depth="1" NCoef="0" IVar="7" Cut="-1.1998889446258545e+00" cType="1" res="-3.6664833314716816e-03" rms="3.8710299134254456e-01" purity="5.0752973556518555e-01" nType="0">
          <Node pos="l" depth="2" NCoef="0" IVar="6" Cut="-8.8135093450546265e-01" cType="1" res="1.1614649556577206e-02" rms="3.6525443196296692e-01" purity="3.3218386769294739e-01" nType="0">
            <Node pos="l" depth="3" NCoef="0" IVar="-1" Cut="0.0000000000000000e+00" cType="1" res="-1.3740830123424530e-02" rms="3.0772849917411804e-01" purity="1.8324238061904907e-01" nType="-99"/>
            <Node pos="r" depth="3" NCoef="0" IVar="-1" Cut="0.0000000000000000e+00" cType="1" res="1.2815923430025578e-02" rms="3.7951982021331787e-01" purity="3.7404394149780273e-01" nType="-99"/>
          </Node>
          <Node pos="r" depth="2" NCoef="0" IVar="5" Cut="7.8109680175781250e+01" cType="1" res="-6.1422567814588547e-03" rms="3.9047145843505859e-01" purity="5.3593844175338745e-01" nType="0">
            <Node pos="l" depth="3" NCoef="0" IVar="-1" Cut="0.0000000000000000e+00" cType="1" res="1.0268588084727526e-03" rms="4.0225011110305786e-01" purity="3.5348364710807800e-01" nType="-99"/>
            <Node pos="r" depth="3" NCoef="0" IVar="-1" Cut="0.0000000000000000e+00" cType="1" res="-8.5520222783088684e-03" rms="3.8063231110572815e-01" purity="6.8247169256210327e-01" nType="-99"/>
          </Node>
        </Node>
        <Node pos="r" depth="1" NCoef="0" IVar="9" Cut="2.1904749870300293e+00" cType="1" res="1.6967028379440308e-02" rms="3.7831711769104004e-01" purity="3.9468023180961609e-01" nType="0">
          <Node pos="l" depth="2" NCoef="0" IVar="9" Cut="1.9510070085525513e+00" cType="1" res="2.7846192941069603e-02" rms="3.8827249407768250e-01" purity="4.3312093615531921e-01" nType="0">
            <Node pos="l" depth="3" NCoef="0" IVar="-1" Cut="0.0000000000000000e+00" cType="1" res="7.6331254094839096e-03" rms="3.7674605846405029e-01" purity="4.3728557229042053e-01" nType="-99"/>
            <Node pos="r" depth="3" NCoef="0" IVar="-1" Cut="0.0000000000000000e+00" cType="1" res="3.0508151277899742e-02" rms="3.9956003427505493e-01" purity="4.2864045500755310e-01" nType="-99"/>
          </Node>
          <Node pos="r" depth="2" NCoef="0" IVar="-1" Cut="0.0000000000000000e+00" cType="1" res="1.2545037316158414e-03" rms="3.6337524652481079e-01" purity="3.4086221456527710e-01" nType="-99"/>
        </Node>
      </Node>
    </BinaryTree>
    <BinaryTree type="DecisionTree" boostWeight="1.0000000000000000e+00" itree="331">
      <Node pos="s" depth="0" NCoef="0" IVar="0" Cut="4.4205532836914062e+02" cType="1" res="2.4177930317819118e-03" rms="3.8733357191085815e-01" purity="5.0062465667724609e-01" nType="0">
        <Node pos="l" depth="1" NCoef="0" IVar="0" Cut="3.4735189819335938e+02" cType="1" res="7.2835450991988182e-03" rms="3.9526733756065369e-01" purity="3.6156854033470154e-01" nType="0">
          <Node pos="l" depth="2" NCoef="0" IVar="8" Cut="-1.1997865438461304e+00" cType="1" res="-3.4259823150932789e-03" rms="3.7629479169845581e-01" purity="2.6799941062927246e-01" nType="0">
            <Node pos="l" depth="3" NCoef="0" IVar="-1" Cut="0.0000000000000000e+00" cType="1" res="-2.3543579503893852e-02" rms="3.1082630157470703e-01" purity="1.5535104274749756e-01" nType="-99"/>
            <Node pos="r" depth="3" NCoef="0" IVar="-1" Cut="0.0000000000000000e+00" cType="1" res="1.0873450664803386e-03" rms="3.8846012949943542e-01" purity="2.9166692495346069e-01" nType="-99"/>
          </Node>
          <Node pos="r" depth="2" NCoef="0" IVar="3" Cut="2.2204391479492188e+02" cType="1" res="1.4904245734214783e-02" rms="4.0806010365486145e-01" purity="4.2815065383911133e-01" nType="0">
            <Node pos="l" depth="3" NCoef="0" IVar="-1" Cut="0.0000000000000000e+00" cType="1" res="1.4980236999690533e-02" rms="4.0519705414772034e-01" purity="3.5952517390251160e-01" nType="-99"/>
            <Node pos="r" depth="3" NCoef="0" IVar="-1" Cut="0.0000000000000000e+00" cType="1" res="-2.3776567541062832e-03" rms="4.1320729255676270e-01" purity="5.6852281093597412e-01" nType="-99"/>
          </Node>
        </Node>
        <Node pos="r" depth="1" NCoef="0" IVar="9" Cut="-1.1998978853225708e+00" cType="1" res="-4.4974037446081638e-03" rms="3.7566158175468445e-01" purity="6.9825088977813721e-01" nType="0">
          <Node pos="l" depth="2" NCoef="0" IVar="9" Cut="-1.7332367897033691e+00" cType="1" res="-2.0203398540616035e-02" rms="3.9444184303283691e-01" purity="6.1235910654067993e-01" nType="0">
            <Node pos="l" depth="3" NCoef="0" IVar="-1" Cut="0.0000000000000000e+00" cType="1" res="1.1073857313022017e-03" rms="4.0937402844429016e-01" purity="5.8059138059616089e-01" nType="-99"/>
            <Node pos="r" depth="3" NCoef="0" IVar="-1" Cut="0.0000000000000000e+00" cType="1" res="-2.7715520933270454e-02" rms="3.7822261452674866e-01" purity="6.4307636022567749e-01" nType="-99"/>
          </Node>
          <Node pos="r" depth="2" NCoef="0" IVar="7" Cut="1.1999372243881226e+00" cType="1" res="-1.6806832281872630e-03" rms="3.7212324142456055e-01" purity="7.1365469694137573e-01" nType="0">
            <Node pos="l" depth="3" NCoef="0" IVar="-1" Cut="0.0000000000000000e+00" cType="1" res="-3.3787412103265524e-03" rms="3.6895871162414551e-01" purity="7.3422372341156006e-01" nType="-99"/>
            <Node pos="r" depth="3" NCoef="0" IVar="-1" Cut="0.0000000000000000e+00" cType="1" res="1.2002361938357353e-02" rms="3.9470514655113220e-01" purity="5.5698060989379883e-01" nType="-99"/>
          </Node>
        </Node>
      </Node>
    </BinaryTree>
    <BinaryTree type="DecisionTree" boostWeight="1.0000000000000000e+00" itree="332">
      <Node pos="s" depth="0" NCoef="0" IVar="9" Cut="1.9999586343765259e+00" cType="1" res="-2.6535538490861654e-03" rms="3.8418576121330261e-01" purity="4.9895092844963074e-01" nType="0">
        <Node pos="l" depth="1" NCoef="0" IVar="3" Cut="2.3480358886718750e+02" cType="1" res="-3.8308342918753624e-03" rms="3.8413166999816895e-01" purity="5.0645071268081665e-01" nType="0">
          <Node pos="l" depth="2" NCoef="0" IVar="7" Cut="1.4666755199432373e+00" cType="1" res="-7.5489617884159088e-03" rms="3.9083471894264221e-01" purity="4.0743413567543030e-01" nType="0">
            <Node pos="l" depth="3" NCoef="0" IVar="-1" Cut="0.0000000000000000e+00" cType="1" res="-6.6394098103046417e-03" rms="3.9401081204414368e-01" purity="4.2630329728126526e-01" nType="-99"/>
            <Node pos="r" depth="3" NCoef="0" IVar="-1" Cut="0.0000000000000000e+00" cType="1" res="1.4831784181296825e-02" rms="3.6086964607238770e-01" purity="2.4280396103858948e-01" nType="-99"/>
          </Node>
          <Node pos="r" depth="2" NCoef="0" IVar="7" Cut="1.1994578838348389e+00" cType="1" res="2.9517377261072397e-03" rms="3.7149691581726074e-01" purity="6.8707573413848877e-01" nType="0">
            <Node pos="l" depth="3" NCoef="0" IVar="-1" Cut="0.0000000000000000e+00" cType="1" res="3.9528887718915939e-03" rms="3.6862832307815552e-01" purity="7.1146708726882935e-01" nType="-99"/>
            <Node pos="r" depth="3" NCoef="0" IVar="-1" Cut="0.0000000000000000e+00" cType="1" res="-1.3560433872044086e-02" rms="3.9713075757026672e-01" purity="4.5275840163230896e-01" nType="-99"/>
          </Node>
        </Node>
        <Node pos="r" depth="1" NCoef="0" IVar="5" Cut="6.8769287109375000e+01" cType="1" res="1.6686093062162399e-02" rms="3.8455739617347717e-01" purity="3.7574911117553711e-01" nType="0">
          <Node pos="l" depth="2" NCoef="0" IVar="-1" Cut="0.0000000000000000e+00" cType="1" res="2.7403883635997772e-02" rms="3.7191066145896912e-01" purity="2.4908335506916046e-01" nType="-99"/>
          <Node pos="r" depth="2" NCoef="0" IVar="-1" Cut="0.0000000000000000e+00" cType="1" res="2.1128829102963209e-03" rms="3.9397707581520081e-01" purity="4.7803696990013123e-01" nType="-99"/>
        </Node>
      </Node>
    </BinaryTree>
    <BinaryTree type="DecisionTree" boostWeight="1.0000000000000000e+00" itree="333">
      <Node pos="s" depth="0" NCoef="0" IVar="0" Cut="4.3468817138671875e+02" cType="1" res="5.8538187295198441e-04" rms="3.8681533932685852e-01" purity="4.9924641847610474e-01" nType="0">
        <Node pos="l" depth="1" NCoef="0" IVar="3" Cut="1.8807600402832031e+02" cType="1" res="5.5628814734518528e-03" rms="3.9408186078071594e-01" purity="3.5356333851814270e-01" nType="0">
          <Node pos="l" depth="2" NCoef="0" IVar="0" Cut="3.2565603637695312e+02" cType="1" res="-2.6815584860742092e-03" rms="3.7326374650001526e-01" purity="2.3336219787597656e-01" nType="0">
            <Node pos="l" depth="3" NCoef="0" IVar="-1" Cut="0.0000000000000000e+00" cType="1" res="1.9899982959032059e-02" rms="3.6066162586212158e-01" purity="1.9455513358116150e-01" nType="-99"/>
            <Node pos="r" depth="3" NCoef="0" IVar="-1" Cut="0.0000000000000000e+00" cType="1" res="-8.0111073330044746e-03" rms="3.7713071703910828e-01" purity="2.4688251316547394e-01" nType="-99"/>
          </Node>
          <Node pos="r" depth="2" NCoef="0" IVar="9" Cut="1.4660525321960449e+00" cType="1" res="1.4689370989799500e-02" rms="4.1572314500808716e-01" purity="4.8662441968917847e-01" nType="0">
            <Node pos="l" depth="3" NCoef="0" IVar="-1" Cut="0.0000000000000000e+00" cType="1" res="1.0657349601387978e-02" rms="4.1850462555885315e-01" purity="5.0186121463775635e-01" nType="-99"/>
            <Node pos="r" depth="3" NCoef="0" IVar="-1" Cut="0.0000000000000000e+00" cType="1" res="-9.0380394831299782e-03" rms="3.9310118556022644e-01" purity="3.7316730618476868e-01" nType="-99"/>
          </Node>
        </Node>
        <Node pos="r" depth="1" NCoef="0" IVar="1" Cut="1.1339180908203125e+03" cType="1" res="-5.8557004667818546e-03" rms="3.7710693478584290e-01" purity="6.8776613473892212e-01" nType="0">
          <Node pos="l" depth="2" NCoef="0" IVar="-1" Cut="0.0000000000000000e+00" cType="1" res="-1.8680160865187645e-02" rms="4.2064628005027771e-01" purity="3.1287211179733276e-01" nType="-99"/>
          <Node pos="r" depth="2" NCoef="0" IVar="3" Cut="1.4746330261230469e+02" cType="1" res="-2.9621343128383160e-03" rms="3.7217584252357483e-01" purity="7.2668451070785522e-01" nType="0">
            <Node pos="l" depth="3" NCoef="0" IVar="-1" Cut="0.0000000000000000e+00" cType="1" res="-9.5640476793050766e-03" rms="4.1203594207763672e-01" purity="4.5508366823196411e-01" nType="-99"/>
            <Node pos="r" depth="3" NCoef="0" IVar="-1" Cut="0.0000000000000000e+00" cType="1" res="-7.1596272755414248e-04" rms="3.6625042557716370e-01" purity="7.6441645622253418e-01" nType="-99"/>
          </Node>
        </Node>
      </Node>
    </BinaryTree>
    <BinaryTree type="DecisionTree" boostWeight="1.0000000000000000e+00" itree="334">
      <Node pos="s" depth="0" NCoef="0" IVar="4" Cut="9.9465583801269531e+01" cType="1" res="-2.2048641403671354e-04" rms="3.8553813099861145e-01" purity="5.0074881315231323e-01" nType="0">
        <Node pos="l" depth="1" NCoef="0" IVar="4" Cut="8.2991882324218750e+01" cType="1" res="7.3379371315240860e-03" rms="3.7876522541046143e-01" purity="2.5199872255325317e-01" nType="0">
          <Node pos="l" depth="2" NCoef="0" IVar="8" Cut="6.6651874780654907e-01" cType="1" res="-8.8348705321550369e-03" rms="3.4933787584304810e-01" purity="1.8428488075733185e-01" nType="0">
            <Node pos="l" depth="3" NCoef="0" IVar="-1" Cut="0.0000000000000000e+00" cType="1" res="-1.4965754933655262e-02" rms="3.5270461440086365e-01" purity="1.8393599987030029e-01" nType="-99"/>
            <Node pos="r" depth="3" NCoef="0" IVar="-1" Cut="0.0000000000000000e+00" cType="1" res="1.0454582050442696e-02" rms="3.4171545505523682e-01" purity="1.8496656417846680e-01" nType="-99"/>
          </Node>
          <Node pos="r" depth="2" NCoef="0" IVar="9" Cut="9.3313050270080566e-01" cType="1" res="2.9019910842180252e-02" rms="4.1396516561508179e-01" purity="3.4277886152267456e-01" nType="0">
            <Node pos="l" depth="3" NCoef="0" IVar="-1" Cut="0.0000000000000000e+00" cType="1" res="1.0819208808243275e-02" rms="4.1075360774993896e-01" purity="3.4767749905586243e-01" nType="-99"/>
            <Node pos="r" depth="3" NCoef="0" IVar="-1" Cut="0.0000000000000000e+00" cType="1" res="3.9475794881582260e-02" rms="4.2127710580825806e-01" purity="3.2894659042358398e-01" nType="-99"/>
          </Node>
        </Node>
        <Node pos="r" depth="1" NCoef="0" IVar="8" Cut="1.4666477441787720e+00" cType="1" res="-3.6691678687930107e-03" rms="3.8854035735130310e-01" purity="6.1424601078033447e-01" nType="0">
          <Node pos="l" depth="2" NCoef="0" IVar="8" Cut="-1.7840392589569092e+00" cType="1" res="-1.1991347419098020e-03" rms="3.8831520080566406e-01" purity="6.3480210304260254e-01" nType="0">
            <Node pos="l" depth="3" NCoef="0" IVar="-1" Cut="0.0000000000000000e+00" cType="1" res="1.6127893701195717e-02" rms="3.9629200100898743e-01" purity="3.8536271452903748e-01" nType="-99"/>
            <Node pos="r" depth="3" NCoef="0" IVar="-1" Cut="0.0000000000000000e+00" cType="1" res="-1.8408056348562241e-03" rms="3.8774609565734863e-01" purity="6.5062099695205688e-01" nType="-99"/>
          </Node>
          <Node pos="r" depth="2" NCoef="0" IVar="6" Cut="-4.8840206116437912e-02" cType="1" res="-3.0030850321054459e-02" rms="3.8996195793151855e-01" purity="3.9485943317413330e-01" nType="0">
            <Node pos="l" depth="3" NCoef="0" IVar="-1" Cut="0.0000000000000000e+00" cType="1" res="-3.9906680583953857e-02" rms="3.8477164506912231e-01" purity="3.4894505143165588e-01" nType="-99"/>
            <Node pos="r" depth="3" NCoef="0" IVar="-1" Cut="0.0000000000000000e+00" cType="1" res="-2.6936621870845556e-03" rms="3.9180278778076172e-01" purity="4.2890045046806335e-01" nType="-99"/>
          </Node>
        </Node>
      </Node>
    </BinaryTree>
    <BinaryTree type="DecisionTree" boostWeight="1.0000000000000000e+00" itree="335">
      <Node pos="s" depth="0" NCoef="0" IVar="8" Cut="-1.7333338260650635e+00" cType="1" res="1.2271465675439686e-04" rms="3.8728091120719910e-01" purity="4.9799829721450806e-01" nType="0">
        <Node pos="l" depth="1" NCoef="0" IVar="0" Cut="4.2484027099609375e+02" cType="1" res="2.0007282495498657e-02" rms="3.8090407848358154e-01" purity="2.9941171407699585e-01" nType="0">
          <Node pos="l" depth="2" NCoef="0" IVar="-1" Cut="0.0000000000000000e+00" cType="1" res="4.2063705623149872e-03" rms="3.4026139974594116e-01" purity="1.7228673398494720e-01" nType="-99"/>
          <Node pos="r" depth="2" NCoef="0" IVar="-1" Cut="0.0000000000000000e+00" cType="1" res="2.4136735126376152e-02" rms="4.3406647443771362e-01" purity="4.9115929007530212e-01" nType="-99"/>
        </Node>
        <Node pos="r" depth="1" NCoef="0" IVar="8" Cut="4.2538723349571228e-01" cType="1" res="-1.4315327862277627e-03" rms="3.8773193955421448e-01" purity="5.1352053880691528e-01" nType="0">
          <Node pos="l" depth="2" NCoef="0" IVar="9" Cut="1.1998084783554077e+00" cType="1" res="-5.1506245508790016e-03" rms="3.8902720808982849e-01" purity="5.4394227266311646e-01" nType="0">
            <Node pos="l" depth="3" NCoef="0" IVar="-1" Cut="0.0000000000000000e+00" cType="1" res="-1.9424351630732417e-03" rms="3.8821902871131897e-01" purity="5.5662673711776733e-01" nType="-99"/>
            <Node pos="r" depth="3" NCoef="0" IVar="-1" Cut="0.0000000000000000e+00" cType="1" res="-1.0935932397842407e-02" rms="3.9324074983596802e-01" purity="4.7375980019569397e-01" nType="-99"/>
          </Node>
          <Node pos="r" depth="2" NCoef="0" IVar="4" Cut="2.2449391174316406e+02" cType="1" res="4.4135451316833496e-03" rms="3.8561499118804932e-01" purity="4.6570855379104614e-01" nType="0">
            <Node pos="l" depth="3" NCoef="0" IVar="-1" Cut="0.0000000000000000e+00" cType="1" res="4.5748674310743809e-03" rms="3.8813212513923645e-01" purity="4.3963086605072021e-01" nType="-99"/>
            <Node pos="r" depth="3" NCoef="0" IVar="-1" Cut="0.0000000000000000e+00" cType="1" res="-1.8756058067083359e-02" rms="3.5598516464233398e-01" purity="7.4840414524078369e-01" nType="-99"/>
          </Node>
        </Node>
      </Node>
    </BinaryTree>
    <BinaryTree type="DecisionTree" boostWeight="1.0000000000000000e+00" itree="336">
      <Node pos="s" depth="0" NCoef="0" IVar="7" Cut="1.2000164985656738e+00" cType="1" res="-1.5528429066762328e-03" rms="3.8413104414939880e-01" purity="4.9992212653160095e-01" nType="0">
        <Node pos="l" depth="1" NCoef="0" IVar="3" Cut="3.2651831054687500e+02" cType="1" res="7.0203520590439439e-04" rms="3.8670822978019714e-01" purity="5.3102487325668335e-01" nType="0">
          <Node pos="l" depth="2" NCoef="0" IVar="1" Cut="1.6611315917968750e+03" cType="1" res="-1.8200590275228024e-03" rms="3.8836151361465454e-01" purity="5.0266695022583008e-01" nType="0">
            <Node pos="l" depth="3" NCoef="0" IVar="-1" Cut="0.0000000000000000e+00" cType="1" res="-2.5917380116879940e-03" rms="3.9582875370979309e-01" purity="4.5769459009170532e-01" nType="-99"/>
            <Node pos="r" depth="3" NCoef="0" IVar="-1" Cut="0.0000000000000000e+00" cType="1" res="1.3346285559237003e-02" rms="3.2774817943572998e-01" purity="8.3352190256118774e-01" nType="-99"/>
          </Node>
          <Node pos="r" depth="2" NCoef="0" IVar="4" Cut="1.4912632751464844e+02" cType="1" res="1.8088603392243385e-02" rms="3.7465116381645203e-01" purity="7.2651606798171997e-01" nType="0">
            <Node pos="l" depth="3" NCoef="0" IVar="-1" Cut="0.0000000000000000e+00" cType="1" res="2.1755564957857132e-02" rms="4.2058953642845154e-01" purity="5.7929545640945435e-01" nType="-99"/>
            <Node pos="r" depth="3" NCoef="0" IVar="-1" Cut="0.0000000000000000e+00" cType="1" res="7.0254202000796795e-03" rms="3.5248509049415588e-01" purity="7.9037916660308838e-01" nType="-99"/>
          </Node>
        </Node>
        <Node pos="r" depth="1" NCoef="0" IVar="8" Cut="1.2001575231552124e+00" cType="1" res="-1.6445476561784744e-02" rms="3.6630666255950928e-01" purity="2.9450011253356934e-01" nType="0">
          <Node pos="l" depth="2" NCoef="0" IVar="7" Cut="1.8857097625732422e+00" cType="1" res="-9.6189826726913452e-03" rms="3.7929233908653259e-01" purity="3.2844701409339905e-01" nType="0">
            <Node pos="l" depth="3" NCoef="0" IVar="-1" Cut="0.0000000000000000e+00" cType="1" res="-1.1550842784345150e-02" rms="3.9250895380973816e-01" purity="3.7596440315246582e-01" nType="-99"/>
            <Node pos="r" depth="3" NCoef="0" IVar="-1" Cut="0.0000000000000000e+00" cType="1" res="6.0673397965729237e-03" rms="3.4950074553489685e-01" purity="2.2935275733470917e-01" nType="-99"/>
          </Node>
          <Node pos="r" depth="2" NCoef="0" IVar="-1" Cut="0.0000000000000000e+00" cType="1" res="-3.5403657704591751e-02" rms="3.1157693266868591e-01" purity="1.6732594370841980e-01" nType="-99"/>
        </Node>
      </Node>
    </BinaryTree>
    <BinaryTree type="DecisionTree" boostWeight="1.0000000000000000e+00" itree="337">
      <Node pos="s" depth="0" NCoef="0" IVar="7" Cut="6.6666620969772339e-01" cType="1" res="6.1364436987787485e-04" rms="3.8296625018119812e-01" purity="5.0078296661376953e-01" nType="0">
        <Node pos="l" depth="1" NCoef="0" IVar="9" Cut="-4.0001091361045837e-01" cType="1" res="-2.5191819295287132e-03" rms="3.8190898299217224e-01" purity="5.2916872501373291e-01" nType="0">
          <Node pos="l" depth="2" NCoef="0" IVar="1" Cut="1.4052955322265625e+03" cType="1" res="-1.0540980845689774e-02" rms="3.8028526306152344e-01" purity="4.8509460687637329e-01" nType="0">
            <Node pos="l" depth="3" NCoef="0" IVar="-1" Cut="0.0000000000000000e+00" cType="1" res="-1.0762619785964489e-02" rms="3.8843747973442078e-01" purity="3.5225969552993774e-01" nType="-99"/>
            <Node pos="r" depth="3" NCoef="0" IVar="-1" Cut="0.0000000000000000e+00" cType="1" res="1.2339743552729487e-03" rms="3.6404550075531006e-01" purity="7.3646789789199829e-01" nType="-99"/>
          </Node>
          <Node pos="r" depth="2" NCoef="0" IVar="6" Cut="1.4793155193328857e+00" cType="1" res="2.5572960730642080e-03" rms="3.8284611701965332e-01" purity="5.5706030130386353e-01" nType="0">
            <Node pos="l" depth="3" NCoef="0" IVar="-1" Cut="0.0000000000000000e+00" cType="1" res="2.6975516229867935e-03" rms="3.8699880242347717e-01" purity="5.8119004964828491e-01" nType="-99"/>
            <Node pos="r" depth="3" NCoef="0" IVar="-1" Cut="0.0000000000000000e+00" cType="1" res="-1.7970358952879906e-02" rms="3.1509056687355042e-01" purity="2.0436681807041168e-01" nType="-99"/>
          </Node>
        </Node>
        <Node pos="r" depth="1" NCoef="0" IVar="9" Cut="-1.4665282964706421e+00" cType="1" res="9.2254532501101494e-03" rms="3.8572663068771362e-01" purity="4.2275360226631165e-01" nType="0">
          <Node pos="l" depth="2" NCoef="0" IVar="-1" Cut="0.0000000000000000e+00" cType="1" res="2.6136422529816628e-02" rms="3.8441050052642822e-01" purity="3.7616476416587830e-01" nType="-99"/>
          <Node pos="r" depth="2" NCoef="0" IVar="0" Cut="4.4704235839843750e+02" cType="1" res="5.5063110776245594e-03" rms="3.8573920726776123e-01" purity="4.2876344919204712e-01" nType="0">
            <Node pos="l" depth="3" NCoef="0" IVar="-1" Cut="0.0000000000000000e+00" cType="1" res="-1.4264323981478810e-03" rms="3.8405987620353699e-01" purity="2.9432919621467590e-01" nType="-99"/>
            <Node pos="r" depth="3" NCoef="0" IVar="-1" Cut="0.0000000000000000e+00" cType="1" res="1.1584342457354069e-02" rms="3.8821539282798767e-01" purity="6.5501654148101807e-01" nType="-99"/>
          </Node>
        </Node>
      </Node>
    </BinaryTree>
    <BinaryTree type="DecisionTree" boostWeight="1.0000000000000000e+00" itree="338">
      <Node pos="s" depth="0" NCoef="0" IVar="6" Cut="4.1454133391380310e-01" cType="1" res="1.6299659619107842e-03" rms="3.8614884018898010e-01" purity="5.0107973814010620e-01" nType="0">
        <Node pos="l" depth="1" NCoef="0" IVar="5" Cut="8.5092346191406250e+01" cType="1" res="-2.7690888382494450e-03" rms="3.8717171549797058e-01" purity="5.2789962291717529e-01" nType="0">
          <Node pos="l" depth="2" NCoef="0" IVar="6" Cut="1.1265549808740616e-01" cType="1" res="-8.6582619696855545e-03" rms="3.9464062452316284e-01" purity="3.5939255356788635e-01" nType="0">
            <Node pos="l" depth="3" NCoef="0" IVar="-1" Cut="0.0000000000000000e+00" cType="1" res="-8.2882028073072433e-03" rms="3.8630101084709167e-01" purity="3.3479019999504089e-01" nType="-99"/>
            <Node pos="r" depth="3" NCoef="0" IVar="-1" Cut="0.0000000000000000e+00" cType="1" res="6.4324103295803070e-03" rms="4.3128168582916260e-01" purity="4.7563391923904419e-01" nType="-99"/>
          </Node>
          <Node pos="r" depth="2" NCoef="0" IVar="7" Cut="1.2001919746398926e+00" cType="1" res="3.6940313875675201e-03" rms="3.7870001792907715e-01" purity="7.1282905340194702e-01" nType="0">
            <Node pos="l" depth="3" NCoef="0" IVar="-1" Cut="0.0000000000000000e+00" cType="1" res="5.2246736595407128e-04" rms="3.7300848960876465e-01" purity="7.3442590236663818e-01" nType="-99"/>
            <Node pos="r" depth="3" NCoef="0" IVar="-1" Cut="0.0000000000000000e+00" cType="1" res="1.5710042789578438e-02" rms="4.2047733068466187e-01" purity="5.4113507270812988e-01" nType="-99"/>
          </Node>
        </Node>
        <Node pos="r" depth="1" NCoef="0" IVar="4" Cut="1.7708998107910156e+02" cType="1" res="1.0350696742534637e-02" rms="3.8396412134170532e-01" purity="4.4791179895401001e-01" nType="0">
          <Node pos="l" depth="2" NCoef="0" IVar="8" Cut="-1.3368114829063416e-01" cType="1" res="1.5008760616183281e-02" rms="3.8886678218841553e-01" purity="3.7995195388793945e-01" nType="0">
            <Node pos="l" depth="3" NCoef="0" IVar="-1" Cut="0.0000000000000000e+00" cType="1" res="1.9669665023684502e-02" rms="3.9247682690620422e-01" purity="4.0092301368713379e-01" nType="-99"/>
            <Node pos="r" depth="3" NCoef="0" IVar="-1" Cut="0.0000000000000000e+00" cType="1" res="3.5063493996858597e-03" rms="3.8603940606117249e-01" purity="3.6541536450386047e-01" nType="-99"/>
          </Node>
          <Node pos="r" depth="2" NCoef="0" IVar="1" Cut="1.7582856445312500e+03" cType="1" res="-7.4172443710267544e-03" rms="3.6411169171333313e-01" purity="7.0714110136032104e-01" nType="0">
            <Node pos="l" depth="3" NCoef="0" IVar="-1" Cut="0.0000000000000000e+00" cType="1" res="-1.1344394646584988e-02" rms="3.8565415143966675e-01" purity="6.3786631822586060e-01" nType="-99"/>
            <Node pos="r" depth="3" NCoef="0" IVar="-1" Cut="0.0000000000000000e+00" cType="1" res="9.3896361067891121e-03" rms="3.2100456953048706e-01" purity="8.3166575431823730e-01" nType="-99"/>
          </Node>
        </Node>
      </Node>
    </BinaryTree>
    <BinaryTree type="DecisionTree" boostWeight="1.0000000000000000e+00" itree="339">
      <Node pos="s" depth="0" NCoef="0" IVar="7" Cut="9.3338924646377563e-01" cType="1" res="4.5853573828935623e-03" rms="3.8883748650550842e-01" purity="5.0142610073089600e-01" nType="0">
        <Node pos="l" depth="1" NCoef="0" IVar="0" Cut="5.8410992431640625e+02" cType="1" res="7.6540280133485794e-03" rms="3.9119336009025574e-01" purity="5.3603488206863403e-01" nType="0">
          <Node pos="l" depth="2" NCoef="0" IVar="3" Cut="1.3994790649414062e+02" cType="1" res="1.0313976556062698e-02" rms="4.0078580379486084e-01" purity="4.7722464799880981e-01" nType="0">
            <Node pos="l" depth="3" NCoef="0" IVar="-1" Cut="0.0000000000000000e+00" cType="1" res="1.4895206317305565e-02" rms="3.7729918956756592e-01" purity="2.3896445333957672e-01" nType="-99"/>
            <Node pos="r" depth="3" NCoef="0" IVar="-1" Cut="0.0000000000000000e+00" cType="1" res="4.3691354803740978e-03" rms="4.0752828121185303e-01" purity="5.4879152774810791e-01" nType="-99"/>
          </Node>
          <Node pos="r" depth="2" NCoef="0" IVar="5" Cut="7.8109741210937500e+01" cType="1" res="-5.0556757487356663e-03" rms="3.4137526154518127e-01" purity="8.1704080104827881e-01" nType="0">
            <Node pos="l" depth="3" NCoef="0" IVar="-1" Cut="0.0000000000000000e+00" cType="1" res="-1.3164262287318707e-02" rms="4.2557728290557861e-01" purity="6.4851963520050049e-01" nType="-99"/>
            <Node pos="r" depth="3" NCoef="0" IVar="-1" Cut="0.0000000000000000e+00" cType="1" res="2.2503742948174477e-03" rms="3.0099737644195557e-01" purity="8.8426935672760010e-01" nType="-99"/>
          </Node>
        </Node>
        <Node pos="r" depth="1" NCoef="0" IVar="9" Cut="3.9995971322059631e-01" cType="1" res="-8.2044070586562157e-03" rms="3.7859305739402771e-01" purity="3.5718157887458801e-01" nType="0">
          <Node pos="l" depth="2" NCoef="0" IVar="9" Cut="-3.6190262436866760e-01" cType="1" res="-1.8646223470568657e-02" rms="3.8533011078834534e-01" purity="3.6245387792587280e-01" nType="0">
            <Node pos="l" depth="3" NCoef="0" IVar="-1" Cut="0.0000000000000000e+00" cType="1" res="-3.5748598165810108e-03" rms="3.8769820332527161e-01" purity="3.5783636569976807e-01" nType="-99"/>
            <Node pos="r" depth="3" NCoef="0" IVar="-1" Cut="0.0000000000000000e+00" cType="1" res="-2.6768077164888382e-02" rms="3.8039723038673401e-01" purity="3.7005144357681274e-01" nType="-99"/>
          </Node>
          <Node pos="r" depth="2" NCoef="0" IVar="6" Cut="6.8358504772186279e-01" cType="1" res="3.8534689228981733e-03" rms="3.7029483914375305e-01" purity="3.5109323263168335e-01" nType="0">
            <Node pos="l" depth="3" NCoef="0" IVar="-1" Cut="0.0000000000000000e+00" cType="1" res="1.0584284551441669e-02" rms="3.8809016346931458e-01" purity="4.1535645723342896e-01" nType="-99"/>
            <Node pos="r" depth="3" NCoef="0" IVar="-1" Cut="0.0000000000000000e+00" cType="1" res="-1.9688526168465614e-02" rms="3.2697078585624695e-01" purity="2.1220740675926208e-01" nType="-99"/>
          </Node>
        </Node>
      </Node>
    </BinaryTree>
    <BinaryTree type="DecisionTree" boostWeight="1.0000000000000000e+00" itree="340">
      <Node pos="s" depth="0" NCoef="0" IVar="7" Cut="-9.3321996927261353e-01" cType="1" res="-1.6006522346287966e-03" rms="3.8720288872718811e-01" purity="4.9745646119117737e-01" nType="0">
        <Node pos="l" depth="1" NCoef="0" IVar="9" Cut="-1.4665212631225586e+00" cType="1" res="1.0206680744886398e-02" rms="3.7924104928970337e-01" purity="3.7662625312805176e-01" nType="0">
          <Node pos="l" depth="2" NCoef="0" IVar="-1" Cut="0.0000000000000000e+00" cType="1" res="-9.7055574879050255e-03" rms="3.4629315137863159e-01" purity="2.5623416900634766e-01" nType="-99"/>
          <Node pos="r" depth="2" NCoef="0" IVar="8" Cut="-1.3353717327117920e-01" cType="1" res="1.4762591570615768e-02" rms="3.8528984785079956e-01" purity="4.0054723620414734e-01" nType="0">
            <Node pos="l" depth="3" NCoef="0" IVar="-1" Cut="0.0000000000000000e+00" cType="1" res="1.7598537728190422e-02" rms="3.9545693993568420e-01" purity="4.1297459602355957e-01" nType="-99"/>
            <Node pos="r" depth="3" NCoef="0" IVar="-1" Cut="0.0000000000000000e+00" cType="1" res="1.3861401239410043e-03" rms="3.7300527095794678e-01" purity="3.8644182682037354e-01" nType="-99"/>
          </Node>
        </Node>
        <Node pos="r" depth="1" NCoef="0" IVar="9" Cut="1.4667202234268188e+00" cType="1" res="-4.4511570595204830e-03" rms="3.8904690742492676e-01" purity="5.2662706375122070e-01" nType="0">
          <Node pos="l" depth="2" NCoef="0" IVar="5" Cut="8.5091720581054688e+01" cType="1" res="-7.1577001363039017e-03" rms="3.8841953873634338e-01" purity="5.3880310058593750e-01" nType="0">
            <Node pos="l" depth="3" NCoef="0" IVar="-1" Cut="0.0000000000000000e+00" cType="1" res="-7.6720714569091797e-03" rms="3.9675182104110718e-01" purity="3.6712074279785156e-01" nType="-99"/>
            <Node pos="r" depth="3" NCoef="0" IVar="-1" Cut="0.0000000000000000e+00" cType="1" res="-1.1296432930976152e-03" rms="3.7944114208221436e-01" purity="7.1813184022903442e-01" nType="-99"/>
          </Node>
          <Node pos="r" depth="2" NCoef="0" IVar="9" Cut="2.2285923957824707e+00" cType="1" res="1.3255744241178036e-02" rms="3.9266678690910339e-01" purity="4.4696849584579468e-01" nType="0">
            <Node pos="l" depth="3" NCoef="0" IVar="-1" Cut="0.0000000000000000e+00" cType="1" res="1.6153378412127495e-02" rms="3.9959666132926941e-01" purity="4.8050925135612488e-01" nType="-99"/>
            <Node pos="r" depth="3" NCoef="0" IVar="-1" Cut="0.0000000000000000e+00" cType="1" res="-1.5477157197892666e-02" rms="3.7016335129737854e-01" purity="3.5253906250000000e-01" nType="-99"/>
          </Node>
        </Node>
      </Node>
    </BinaryTree>
    <BinaryTree type="DecisionTree" boostWeight="1.0000000000000000e+00" itree="341">
      <Node pos="s" depth="0" NCoef="0" IVar="9" Cut="9.3333864212036133e-01" cType="1" res="-8.3131826249882579e-04" rms="3.8614782691001892e-01" purity="4.9810025095939636e-01" nType="0">
        <Node pos="l" depth="1" NCoef="0" IVar="4" Cut="2.3862973022460938e+02" cType="1" res="2.1760030649602413e-03" rms="3.8741415739059448e-01" purity="5.1923000812530518e-01" nType="0">
          <Node pos="l" depth="2" NCoef="0" IVar="5" Cut="7.6928756713867188e+01" cType="1" res="3.4612647723406553e-03" rms="3.9053621888160706e-01" purity="4.9811851978302002e-01" nType="0">
            <Node pos="l" depth="3" NCoef="0" IVar="-1" Cut="0.0000000000000000e+00" cType="1" res="-8.0739427357912064e-04" rms="3.8967955112457275e-01" purity="3.1869003176689148e-01" nType="-99"/>
            <Node pos="r" depth="3" NCoef="0" IVar="-1" Cut="0.0000000000000000e+00" cType="1" res="4.8525715246796608e-03" rms="3.9122009277343750e-01" purity="6.5100866556167603e-01" nType="-99"/>
          </Node>
          <Node pos="r" depth="2" NCoef="0" IVar="7" Cut="-1.3448186218738556e-01" cType="1" res="-1.4571503736078739e-02" rms="3.4371370077133179e-01" purity="7.9432123899459839e-01" nType="0">
            <Node pos="l" depth="3" NCoef="0" IVar="-1" Cut="0.0000000000000000e+00" cType="1" res="-4.3999967165291309e-03" rms="3.4737169742584229e-01" purity="7.8868490457534790e-01" nType="-99"/>
            <Node pos="r" depth="3" NCoef="0" IVar="-1" Cut="0.0000000000000000e+00" cType="1" res="-2.0482016727328300e-02" rms="3.4025919437408447e-01" purity="7.9927450418472290e-01" nType="-99"/>
          </Node>
        </Node>
        <Node pos="r" depth="1" NCoef="0" IVar="7" Cut="-1.3326236605644226e-01" cType="1" res="-1.0747314430773258e-02" rms="3.8177493214607239e-01" purity="4.2842951416969299e-01" nType="0">
          <Node pos="l" depth="2" NCoef="0" IVar="7" Cut="-1.0221207141876221e+00" cType="1" res="-6.3398323254659772e-04" rms="3.9020419120788574e-01" purity="4.3361917138099670e-01" nType="0">
            <Node pos="l" depth="3" NCoef="0" IVar="-1" Cut="0.0000000000000000e+00" cType="1" res="-1.3236942701041698e-02" rms="3.6642712354660034e-01" purity="2.4485635757446289e-01" nType="-99"/>
            <Node pos="r" depth="3" NCoef="0" IVar="-1" Cut="0.0000000000000000e+00" cType="1" res="5.3002671338617802e-03" rms="4.0271091461181641e-01" purity="5.4020351171493530e-01" nType="-99"/>
          </Node>
          <Node pos="r" depth="2" NCoef="0" IVar="1" Cut="1.4083364257812500e+03" cType="1" res="-1.7371620982885361e-02" rms="3.7600395083427429e-01" purity="4.2503020167350769e-01" nType="0">
            <Node pos="l" depth="3" NCoef="0" IVar="-1" Cut="0.0000000000000000e+00" cType="1" res="-1.6074106097221375e-02" rms="3.7542101740837097e-01" purity="3.0507802963256836e-01" nType="-99"/>
            <Node pos="r" depth="3" NCoef="0" IVar="-1" Cut="0.0000000000000000e+00" cType="1" res="-1.4178294222801924e-03" rms="3.7685757875442505e-01" purity="6.9348460435867310e-01" nType="-99"/>
          </Node>
        </Node>
      </Node>
    </BinaryTree>
    <BinaryTree type="DecisionTree" boostWeight="1.0000000000000000e+00" itree="342">
      <Node pos="s" depth="0" NCoef="0" IVar="4" Cut="9.9465583801269531e+01" cType="1" res="3.7290609907358885e-03" rms="3.8720488548278809e-01" purity="5.0037688016891479e-01" nType="0">
        <Node pos="l" depth="1" NCoef="0" IVar="0" Cut="4.3468856811523438e+02" cType="1" res="-4.4804443605244160e-03" rms="3.6923053860664368e-01" purity="2.3910182714462280e-01" nType="0">
          <Node pos="l" depth="2" NCoef="0" IVar="5" Cut="6.4096908569335938e+01" cType="1" res="-1.1035410687327385e-02" rms="3.3562272787094116e-01" purity="1.5825209021568298e-01" nType="0">
            <Node pos="l" depth="3" NCoef="0" IVar="-1" Cut="0.0000000000000000e+00" cType="1" res="-1.8124352209270000e-03" rms="3.1099864840507507e-01" purity="1.2826924026012421e-01" nType="-99"/>
            <Node pos="r" depth="3" NCoef="0" IVar="-1" Cut="0.0000000000000000e+00" cType="1" res="-1.5983708202838898e-02" rms="3.6558032035827637e-01" purity="1.9830758869647980e-01" nType="-99"/>
          </Node>
          <Node pos="r" depth="2" NCoef="0" IVar="4" Cut="8.3010734558105469e+01" cType="1" res="9.2487102374434471e-03" rms="4.3089169263839722e-01" purity="4.0843886137008667e-01" nType="0">
            <Node pos="l" depth="3" NCoef="0" IVar="-1" Cut="0.0000000000000000e+00" cType="1" res="1.7753323540091515e-02" rms="4.2343389987945557e-01" purity="3.5320469737052917e-01" nType="-99"/>
            <Node pos="r" depth="3" NCoef="0" IVar="-1" Cut="0.0000000000000000e+00" cType="1" res="-1.0126546025276184e-02" rms="4.3910187482833862e-01" purity="4.8305273056030273e-01" nType="-99"/>
          </Node>
        </Node>
        <Node pos="r" depth="1" NCoef="0" IVar="3" Cut="1.8742399597167969e+02" cType="1" res="7.4284812435507774e-03" rms="3.9498162269592285e-01" purity="6.1811429262161255e-01" nType="0">
          <Node pos="l" depth="2" NCoef="0" IVar="9" Cut="-6.6687065362930298e-01" cType="1" res="2.1946340799331665e-02" rms="4.2239144444465637e-01" purity="4.8002803325653076e-01" nType="0">
            <Node pos="l" depth="3" NCoef="0" IVar="-1" Cut="0.0000000000000000e+00" cType="1" res="2.3919699713587761e-02" rms="4.2238032817840576e-01" purity="4.6625503897666931e-01" nType="-99"/>
            <Node pos="r" depth="3" NCoef="0" IVar="-1" Cut="0.0000000000000000e+00" cType="1" res="7.4412790127098560e-03" rms="4.2210808396339417e-01" purity="4.8632839322090149e-01" nType="-99"/>
          </Node>
          <Node pos="r" depth="2" NCoef="0" IVar="6" Cut="1.6623342037200928e-01" cType="1" res="7.2085839929059148e-04" rms="3.8146671652793884e-01" purity="6.8191367387771606e-01" nType="0">
            <Node pos="l" depth="3" NCoef="0" IVar="-1" Cut="0.0000000000000000e+00" cType="1" res="-3.1785909086465836e-03" rms="3.8083142042160034e-01" purity="6.8883830308914185e-01" nType="-99"/>
            <Node pos="r" depth="3" NCoef="0" IVar="-1" Cut="0.0000000000000000e+00" cType="1" res="5.3330222144722939e-03" rms="3.8220223784446716e-01" purity="6.7259627580642700e-01" nType="-99"/>
          </Node>
        </Node>
      </Node>
    </BinaryTree>
    <BinaryTree type="DecisionTree" boostWeight="1.0000000000000000e+00" itree="343">
      <Node pos="s" depth="0" NCoef="0" IVar="8" Cut="-1.7332152128219604e+00" cType="1" res="-6.6539080580696464e-04" rms="3.8779920339584351e-01" purity="4.9876251816749573e-01" nType="0">
        <Node pos="l" depth="1" NCoef="0" IVar="2" Cut="3.3977859497070312e+02" cType="1" res="-2.1036548539996147e-02" rms="3.5078585147857666e-01" purity="2.6182782649993896e-01" nType="0">
          <Node pos="l" depth="2" NCoef="0" IVar="-1" Cut="0.0000000000000000e+00" cType="1" res="-5.1074903458356857e-03" rms="3.5554939508438110e-01" purity="2.5639706850051880e-01" nType="-99"/>
          <Node pos="r" depth="2" NCoef="0" IVar="-1" Cut="0.0000000000000000e+00" cType="1" res="-2.7859412133693695e-02" rms="3.4402593970298767e-01" purity="2.6851588487625122e-01" nType="-99"/>
        </Node>
        <Node pos="r" depth="1" NCoef="0" IVar="1" Cut="1.0887791748046875e+03" cType="1" res="8.6497067240998149e-04" rms="3.9039519429206848e-01" purity="5.1656198501586914e-01" nType="0">
          <Node pos="l" depth="2" NCoef="0" IVar="1" Cut="9.9252001953125000e+02" cType="1" res="9.2889750376343727e-03" rms="3.8689747452735901e-01" purity="2.4075829982757568e-01" nType="0">
            <Node pos="l" depth="3" NCoef="0" IVar="-1" Cut="0.0000000000000000e+00" cType="1" res="-2.8508841060101986e-03" rms="3.5661679506301880e-01" purity="1.7746190726757050e-01" nType="-99"/>
            <Node pos="r" depth="3" NCoef="0" IVar="-1" Cut="0.0000000000000000e+00" cType="1" res="1.5894155949354172e-02" rms="4.2428112030029297e-01" purity="3.2754182815551758e-01" nType="-99"/>
          </Node>
          <Node pos="r" depth="2" NCoef="0" IVar="6" Cut="-6.5624558925628662e-01" cType="1" res="-2.5964430533349514e-03" rms="3.9177083969116211e-01" purity="6.2988936901092529e-01" nType="0">
            <Node pos="l" depth="3" NCoef="0" IVar="-1" Cut="0.0000000000000000e+00" cType="1" res="5.7622394524514675e-03" rms="4.0589129924774170e-01" purity="5.3264629840850830e-01" nType="-99"/>
            <Node pos="r" depth="3" NCoef="0" IVar="-1" Cut="0.0000000000000000e+00" cType="1" res="-3.9858552627265453e-03" rms="3.8751536607742310e-01" purity="6.5806406736373901e-01" nType="-99"/>
          </Node>
        </Node>
      </Node>
    </BinaryTree>
    <BinaryTree type="DecisionTree" boostWeight="1.0000000000000000e+00" itree="344">
      <Node pos="s" depth="0" NCoef="0" IVar="1" Cut="1.3944957275390625e+03" cType="1" res="-1.0497599141672254e-03" rms="3.8394647836685181e-01" purity="5.0229120254516602e-01" nType="0">
        <Node pos="l" depth="1" NCoef="0" IVar="2" Cut="4.4609283447265625e+02" cType="1" res="-4.8212320543825626e-03" rms="3.9738702774047852e-01" purity="3.5906323790550232e-01" nType="0">
          <Node pos="l" depth="2" NCoef="0" IVar="0" Cut="4.0387878417968750e+02" cType="1" res="-2.7413391508162022e-03" rms="4.0140599012374878e-01" purity="3.7541455030441284e-01" nType="0">
            <Node pos="l" depth="3" NCoef="0" IVar="-1" Cut="0.0000000000000000e+00" cType="1" res="1.4657949795946479e-03" rms="3.8800689578056335e-01" purity="3.0034670233726501e-01" nType="-99"/>
            <Node pos="r" depth="3" NCoef="0" IVar="-1" Cut="0.0000000000000000e+00" cType="1" res="-6.4362580887973309e-03" rms="4.2356139421463013e-01" purity="5.0597232580184937e-01" nType="-99"/>
          </Node>
          <Node pos="r" depth="2" NCoef="0" IVar="7" Cut="-1.3275873661041260e-01" cType="1" res="-2.5610778480768204e-02" rms="3.5405105352401733e-01" purity="1.9562394917011261e-01" nType="0">
            <Node pos="l" depth="3" NCoef="0" IVar="-1" Cut="0.0000000000000000e+00" cType="1" res="-3.3874809741973877e-02" rms="3.2795894145965576e-01" purity="1.7483043670654297e-01" nType="-99"/>
            <Node pos="r" depth="3" NCoef="0" IVar="-1" Cut="0.0000000000000000e+00" cType="1" res="-6.8035982549190521e-03" rms="3.7377178668975830e-01" purity="2.1307513117790222e-01" nType="-99"/>
          </Node>
        </Node>
        <Node pos="r" depth="1" NCoef="0" IVar="6" Cut="4.6370312571525574e-01" cType="1" res="5.3373337723314762e-03" rms="3.5995191335678101e-01" purity="7.4485176801681519e-01" nType="0">
          <Node pos="l" depth="2" NCoef="0" IVar="9" Cut="-1.4666625261306763e+00" cType="1" res="2.4332839529961348e-04" rms="3.5608661174774170e-01" purity="7.5914609432220459e-01" nType="0">
            <Node pos="l" depth="3" NCoef="0" IVar="-1" Cut="0.0000000000000000e+00" cType="1" res="-2.1671826019883156e-02" rms="3.8849759101867676e-01" purity="6.5127784013748169e-01" nType="-99"/>
            <Node pos="r" depth="3" NCoef="0" IVar="-1" Cut="0.0000000000000000e+00" cType="1" res="2.9705313500016928e-03" rms="3.5223409533500671e-01" purity="7.7077043056488037e-01" nType="-99"/>
          </Node>
          <Node pos="r" depth="2" NCoef="0" IVar="7" Cut="1.3336385786533356e-01" cType="1" res="1.8018024042248726e-02" rms="3.6909309029579163e-01" purity="7.0926845073699951e-01" nType="0">
            <Node pos="l" depth="3" NCoef="0" IVar="-1" Cut="0.0000000000000000e+00" cType="1" res="2.6828919071704149e-03" rms="3.6589348316192627e-01" purity="6.9249153137207031e-01" nType="-99"/>
            <Node pos="r" depth="3" NCoef="0" IVar="-1" Cut="0.0000000000000000e+00" cType="1" res="2.3433968424797058e-02" rms="3.7197032570838928e-01" purity="7.2783315181732178e-01" nType="-99"/>
          </Node>
        </Node>
      </Node>
    </BinaryTree>
    <BinaryTree type="DecisionTree" boostWeight="1.0000000000000000e+00" itree="345">
      <Node pos="s" depth="0" NCoef="0" IVar="7" Cut="1.4667071104049683e+00" cType="1" res="-2.3704863269813359e-04" rms="3.8429966568946838e-01" purity="5.0122362375259399e-01" nType="0">
        <Node pos="l" depth="1" NCoef="0" IVar="6" Cut="4.1530266404151917e-01" cType="1" res="1.7639738507568836e-03" rms="3.8765871524810791e-01" purity="5.2624291181564331e-01" nType="0">
          <Node pos="l" depth="2" NCoef="0" IVar="9" Cut="1.3333277404308319e-01" cType="1" res="5.0349673256278038e-03" rms="3.9075013995170593e-01" purity="5.5950832366943359e-01" nType="0">
            <Node pos="l" depth="3" NCoef="0" IVar="-1" Cut="0.0000000000000000e+00" cType="1" res="1.6983516979962587e-04" rms="3.8977289199829102e-01" purity="5.4367685317993164e-01" nType="-99"/>
            <Node pos="r" depth="3" NCoef="0" IVar="-1" Cut="0.0000000000000000e+00" cType="1" res="7.3949266225099564e-03" rms="3.9196917414665222e-01" purity="5.8080619573593140e-01" nType="-99"/>
          </Node>
          <Node pos="r" depth="2" NCoef="0" IVar="6" Cut="1.7779465913772583e+00" cType="1" res="-5.0486582331359386e-03" rms="3.8104945421218872e-01" purity="4.5695975422859192e-01" nType="0">
            <Node pos="l" depth="3" NCoef="0" IVar="-1" Cut="0.0000000000000000e+00" cType="1" res="-1.7904635751619935e-03" rms="3.9120614528656006e-01" purity="4.9401384592056274e-01" nType="-99"/>
            <Node pos="r" depth="3" NCoef="0" IVar="-1" Cut="0.0000000000000000e+00" cType="1" res="-2.4533865973353386e-02" rms="2.8167340159416199e-01" purity="1.4775361120700836e-01" nType="-99"/>
          </Node>
        </Node>
        <Node pos="r" depth="1" NCoef="0" IVar="6" Cut="-3.5624352097511292e-01" cType="1" res="-2.1607941016554832e-02" rms="3.4567773342132568e-01" purity="2.3401825129985809e-01" nType="0">
          <Node pos="l" depth="2" NCoef="0" IVar="-1" Cut="0.0000000000000000e+00" cType="1" res="-1.5903740131761879e-04" rms="3.3596798777580261e-01" purity="2.1472503244876862e-01" nType="-99"/>
          <Node pos="r" depth="2" NCoef="0" IVar="4" Cut="1.1286742401123047e+02" cType="1" res="-3.3559065312147141e-02" rms="3.5040974617004395e-01" purity="2.4478256702423096e-01" nType="0">
            <Node pos="l" depth="3" NCoef="0" IVar="-1" Cut="0.0000000000000000e+00" cType="1" res="-2.0334081724286079e-02" rms="3.1116202473640442e-01" purity="1.3142940402030945e-01" nType="-99"/>
            <Node pos="r" depth="3" NCoef="0" IVar="-1" Cut="0.0000000000000000e+00" cType="1" res="-2.7313737198710442e-02" rms="3.8944056630134583e-01" purity="3.7228801846504211e-01" nType="-99"/>
          </Node>
        </Node>
      </Node>
    </BinaryTree>
    <BinaryTree type="DecisionTree" boostWeight="1.0000000000000000e+00" itree="346">
      <Node pos="s" depth="0" NCoef="0" IVar="6" Cut="-1.4324108362197876e+00" cType="1" res="-1.6909680562093854e-04" rms="3.8727268576622009e-01" purity="4.9608385562896729e-01" nType="0">
        <Node pos="l" depth="1" NCoef="0" IVar="6" Cut="-1.8732202053070068e+00" cType="1" res="-2.7335761114954948e-02" rms="3.0516469478607178e-01" purity="1.7863555252552032e-01" nType="0">
          <Node pos="l" depth="2" NCoef="0" IVar="-1" Cut="0.0000000000000000e+00" cType="1" res="-5.1044691354036331e-02" rms="2.7454939484596252e-01" purity="1.0524994879961014e-01" nType="-99"/>
          <Node pos="r" depth="2" NCoef="0" IVar="-1" Cut="0.0000000000000000e+00" cType="1" res="-1.2319272384047508e-02" rms="3.2171839475631714e-01" purity="2.2337979078292847e-01" nType="-99"/>
        </Node>
        <Node pos="r" depth="1" NCoef="0" IVar="2" Cut="4.9859140014648438e+02" cType="1" res="1.8102010944858193e-03" rms="3.9251083135604858e-01" purity="5.1921236515045166e-01" nType="0">
          <Node pos="l" depth="2" NCoef="0" IVar="0" Cut="3.6389837646484375e+02" cType="1" res="4.3081692419946194e-03" rms="3.9148494601249695e-01" purity="5.1278465986251831e-01" nType="0">
            <Node pos="l" depth="3" NCoef="0" IVar="-1" Cut="0.0000000000000000e+00" cType="1" res="1.0248431935906410e-02" rms="3.9886638522148132e-01" purity="3.2829317450523376e-01" nType="-99"/>
            <Node pos="r" depth="3" NCoef="0" IVar="-1" Cut="0.0000000000000000e+00" cType="1" res="-1.2487899512052536e-03" rms="3.8739395141601562e-01" purity="6.1004126071929932e-01" nType="-99"/>
          </Node>
          <Node pos="r" depth="2" NCoef="0" IVar="9" Cut="9.3317288160324097e-01" cType="1" res="-1.0202461853623390e-02" rms="3.9718788862228394e-01" purity="5.5012297630310059e-01" nType="0">
            <Node pos="l" depth="3" NCoef="0" IVar="-1" Cut="0.0000000000000000e+00" cType="1" res="-1.0907052084803581e-02" rms="3.9588665962219238e-01" purity="5.5825847387313843e-01" nType="-99"/>
            <Node pos="r" depth="3" NCoef="0" IVar="-1" Cut="0.0000000000000000e+00" cType="1" res="6.8563525564968586e-03" rms="4.0051850676536560e-01" purity="5.2442342042922974e-01" nType="-99"/>
          </Node>
        </Node>
      </Node>
    </BinaryTree>
    <BinaryTree type="DecisionTree" boostWeight="1.0000000000000000e+00" itree="347">
      <Node pos="s" depth="0" NCoef="0" IVar="7" Cut="1.2000164985656738e+00" cType="1" res="-9.0580485993996263e-04" rms="3.8750988245010376e-01" purity="4.9919438362121582e-01" nType="0">
        <Node pos="l" depth="1" NCoef="0" IVar="5" Cut="7.9215888977050781e+01" cType="1" res="-3.4428650978952646e-03" rms="3.8872024416923523e-01" purity="5.2719527482986450e-01" nType="0">
          <Node pos="l" depth="2" NCoef="0" IVar="9" Cut="1.4666892290115356e+00" cType="1" res="2.4219865445047617e-03" rms="3.9728015661239624e-01" purity="3.5260435938835144e-01" nType="0">
            <Node pos="l" depth="3" NCoef="0" IVar="-1" Cut="0.0000000000000000e+00" cType="1" res="2.2193188488017768e-04" rms="3.9825248718261719e-01" purity="3.5381406545639038e-01" nType="-99"/>
            <Node pos="r" depth="3" NCoef="0" IVar="-1" Cut="0.0000000000000000e+00" cType="1" res="9.8101701587438583e-03" rms="3.9101660251617432e-01" purity="3.4517574310302734e-01" nType="-99"/>
          </Node>
          <Node pos="r" depth="2" NCoef="0" IVar="6" Cut="-1.1744471788406372e+00" cType="1" res="-8.6473478004336357e-03" rms="3.8088750839233398e-01" purity="6.8212771415710449e-01" nType="0">
            <Node pos="l" depth="3" NCoef="0" IVar="-1" Cut="0.0000000000000000e+00" cType="1" res="-2.7252199128270149e-02" rms="3.9272415637969971e-01" purity="4.0181112289428711e-01" nType="-99"/>
            <Node pos="r" depth="3" NCoef="0" IVar="-1" Cut="0.0000000000000000e+00" cType="1" res="-3.7074238061904907e-03" rms="3.7955650687217712e-01" purity="7.0930576324462891e-01" nType="-99"/>
          </Node>
        </Node>
        <Node pos="r" depth="1" NCoef="0" IVar="4" Cut="1.2500910949707031e+02" cType="1" res="1.5435116365551949e-02" rms="3.7921503186225891e-01" purity="3.1884363293647766e-01" nType="0">
          <Node pos="l" depth="2" NCoef="0" IVar="7" Cut="1.8857330083847046e+00" cType="1" res="3.1152285635471344e-02" rms="3.6499017477035522e-01" purity="2.2108988463878632e-01" nType="0">
            <Node pos="l" depth="3" NCoef="0" IVar="-1" Cut="0.0000000000000000e+00" cType="1" res="3.5173151642084122e-02" rms="3.9494013786315918e-01" purity="2.7482208609580994e-01" nType="-99"/>
            <Node pos="r" depth="3" NCoef="0" IVar="-1" Cut="0.0000000000000000e+00" cType="1" res="-4.1510892333462834e-04" rms="2.9738068580627441e-01" purity="1.1894424259662628e-01" nType="-99"/>
          </Node>
          <Node pos="r" depth="2" NCoef="0" IVar="0" Cut="4.1948812866210938e+02" cType="1" res="-8.5586262866854668e-03" rms="3.9876317977905273e-01" purity="4.6807393431663513e-01" nType="0">
            <Node pos="l" depth="3" NCoef="0" IVar="-1" Cut="0.0000000000000000e+00" cType="1" res="-1.8534077331423759e-02" rms="3.9603736996650696e-01" purity="2.8055721521377563e-01" nType="-99"/>
            <Node pos="r" depth="3" NCoef="0" IVar="-1" Cut="0.0000000000000000e+00" cType="1" res="7.5891073793172836e-03" rms="4.0028151869773865e-01" purity="6.5434849262237549e-01" nType="-99"/>
          </Node>
        </Node>
      </Node>
    </BinaryTree>
    <BinaryTree type="DecisionTree" boostWeight="1.0000000000000000e+00" itree="348">
      <Node pos="s" depth="0" NCoef="0" IVar="6" Cut="-1.1876537799835205e+00" cType="1" res="5.8095279382541776e-04" rms="3.8678014278411865e-01" purity="4.9730190634727478e-01" nType="0">
        <Node pos="l" depth="1" NCoef="0" IVar="9" Cut="1.3354110717773438e-01" cType="1" res="2.5825113058090210e-02" rms="3.6679977178573608e-01" purity="2.8255587816238403e-01" nType="0">
          <Node pos="l" depth="2" NCoef="0" IVar="7" Cut="-4.0034884214401245e-01" cType="1" res="3.9490707218647003e-02" rms="3.7683036923408508e-01" purity="2.8699126839637756e-01" nType="0">
            <Node pos="l" depth="3" NCoef="0" IVar="-1" Cut="0.0000000000000000e+00" cType="1" res="5.6767862290143967e-02" rms="3.7373903393745422e-01" purity="2.8561791777610779e-01" nType="-99"/>
            <Node pos="r" depth="3" NCoef="0" IVar="-1" Cut="0.0000000000000000e+00" cType="1" res="1.3543412089347839e-02" rms="3.7806203961372375e-01" purity="2.8816846013069153e-01" nType="-99"/>
          </Node>
          <Node pos="r" depth="2" NCoef="0" IVar="-1" Cut="0.0000000000000000e+00" cType="1" res="4.0005473420023918e-03" rms="3.4985086321830750e-01" purity="2.7576363086700439e-01" nType="-99"/>
        </Node>
        <Node pos="r" depth="1" NCoef="0" IVar="2" Cut="6.5103533935546875e+02" cType="1" res="-2.5964980013668537e-03" rms="3.8910633325576782e-01" purity="5.2433174848556519e-01" nType="0">
          <Node pos="l" depth="2" NCoef="0" IVar="6" Cut="9.0109550952911377e-01" cType="1" res="-3.9564534090459347e-03" rms="3.8839235901832581e-01" purity="5.1707476377487183e-01" nType="0">
            <Node pos="l" depth="3" NCoef="0" IVar="-1" Cut="0.0000000000000000e+00" cType="1" res="-1.0774683905765414e-03" rms="3.9742246270179749e-01" purity="5.6930959224700928e-01" nType="-99"/>
            <Node pos="r" depth="3" NCoef="0" IVar="-1" Cut="0.0000000000000000e+00" cType="1" res="-9.9898688495159149e-03" rms="3.4977224469184875e-01" purity="3.0796685814857483e-01" nType="-99"/>
          </Node>
          <Node pos="r" depth="2" NCoef="0" IVar="4" Cut="1.4902677917480469e+02" cType="1" res="1.7384054139256477e-02" rms="3.9891487360000610e-01" purity="6.3095164299011230e-01" nType="0">
            <Node pos="l" depth="3" NCoef="0" IVar="-1" Cut="0.0000000000000000e+00" cType="1" res="1.9916326273232698e-03" rms="4.1403669118881226e-01" purity="5.1358473300933838e-01" nType="-99"/>
            <Node pos="r" depth="3" NCoef="0" IVar="-1" Cut="0.0000000000000000e+00" cType="1" res="1.9295463338494301e-02" rms="3.8409185409545898e-01" purity="7.3862105607986450e-01" nType="-99"/>
          </Node>
        </Node>
      </Node>
    </BinaryTree>
    <BinaryTree type="DecisionTree" boostWeight="1.0000000000000000e+00" itree="349">
      <Node pos="s" depth="0" NCoef="0" IVar="1" Cut="1.0880919189453125e+03" cType="1" res="7.3078053537756205e-04" rms="3.8525539636611938e-01" purity="5.0154876708984375e-01" nType="0">
        <Node pos="l" depth="1" NCoef="0" IVar="6" Cut="6.8856614828109741e-01" cType="1" res="-8.5077369585633278e-03" rms="3.7107235193252563e-01" purity="2.1449221670627594e-01" nType="0">
          <Node pos="l" depth="2" NCoef="0" IVar="9" Cut="-6.6665089130401611e-01" cType="1" res="-1.6647635027766228e-02" rms="3.8397514820098877e-01" purity="2.3277403414249420e-01" nType="0">
            <Node pos="l" depth="3" NCoef="0" IVar="-1" Cut="0.0000000000000000e+00" cType="1" res="2.1391949849203229e-04" rms="3.7478926777839661e-01" purity="2.2128191590309143e-01" nType="-99"/>
            <Node pos="r" depth="3" NCoef="0" IVar="-1" Cut="0.0000000000000000e+00" cType="1" res="-1.6022296622395515e-02" rms="3.8852533698081970e-01" purity="2.3896212875843048e-01" nType="-99"/>
          </Node>
          <Node pos="r" depth="2" NCoef="0" IVar="7" Cut="4.0091386437416077e-01" cType="1" res="1.1079071089625359e-02" rms="3.3720791339874268e-01" purity="1.7050111293792725e-01" nType="0">
            <Node pos="l" depth="3" NCoef="0" IVar="-1" Cut="0.0000000000000000e+00" cType="1" res="2.7086352929472923e-02" rms="3.6258864402770996e-01" purity="2.1274891495704651e-01" nType="-99"/>
            <Node pos="r" depth="3" NCoef="0" IVar="-1" Cut="0.0000000000000000e+00" cType="1" res="-1.7771227285265923e-02" rms="2.9884499311447144e-01" purity="1.1596630513668060e-01" nType="-99"/>
          </Node>
        </Node>
        <Node pos="r" depth="1" NCoef="0" IVar="9" Cut="-1.4666414260864258e+00" cType="1" res="4.6179946511983871e-03" rms="3.9100411534309387e-01" purity="6.2233126163482666e-01" nType="0">
          <Node pos="l" depth="2" NCoef="0" IVar="1" Cut="1.3376459960937500e+03" cType="1" res="2.5253942236304283e-02" rms="4.0967798233032227e-01" purity="5.3433370590209961e-01" nType="0">
            <Node pos="l" depth="3" NCoef="0" IVar="-1" Cut="0.0000000000000000e+00" cType="1" res="2.5635085999965668e-02" rms="4.1990011930465698e-01" purity="4.3975746631622314e-01" nType="-99"/>
            <Node pos="r" depth="3" NCoef="0" IVar="-1" Cut="0.0000000000000000e+00" cType="1" res="4.3751066550612450e-03" rms="3.9892855286598206e-01" purity="6.2375354766845703e-01" nType="-99"/>
          </Node>
          <Node pos="r" depth="2" NCoef="0" IVar="9" Cut="5.6509727239608765e-01" cType="1" res="1.9395628478378057e-03" rms="3.8843417167663574e-01" purity="6.3375282287597656e-01" nType="0">
            <Node pos="l" depth="3" NCoef="0" IVar="-1" Cut="0.0000000000000000e+00" cType="1" res="-2.2425628267228603e-03" rms="3.8427105545997620e-01" purity="6.5261572599411011e-01" nType="-99"/>
            <Node pos="r" depth="3" NCoef="0" IVar="-1" Cut="0.0000000000000000e+00" cType="1" res="7.0880646817386150e-03" rms="3.9533591270446777e-01" purity="6.0125827789306641e-01" nType="-99"/>
          </Node>
        </Node>
      </Node>
    </BinaryTree>
    <BinaryTree type="DecisionTree" boostWeight="1.0000000000000000e+00" itree="350">
      <Node pos="s" depth="0" NCoef="0" IVar="7" Cut="-3.9996284246444702e-01" cType="1" res="1.3335411204025149e-03" rms="3.8532954454421997e-01" purity="5.0106751918792725e-01" nType="0">
        <Node pos="l" depth="1" NCoef="0" IVar="9" Cut="-1.4666324853897095e+00" cType="1" res="-5.1301019266247749e-03" rms="3.8023710250854492e-01" purity="4.4978553056716919e-01" nType="0">
          <Node pos="l" depth="2" NCoef="0" IVar="8" Cut="-4.0001198649406433e-01" cType="1" res="-2.8743403032422066e-02" rms="3.6373794078826904e-01" purity="3.2146048545837402e-01" nType="0">
            <Node pos="l" depth="3" NCoef="0" IVar="-1" Cut="0.0000000000000000e+00" cType="1" res="-1.3209220953285694e-02" rms="3.6623972654342651e-01" purity="2.8553250432014465e-01" nType="-99"/>
            <Node pos="r" depth="3" NCoef="0" IVar="-1" Cut="0.0000000000000000e+00" cType="1" res="-2.6076842099428177e-02" rms="3.6094498634338379e-01" purity="3.5686007142066956e-01" nType="-99"/>
          </Node>
          <Node pos="r" depth="2" NCoef="0" IVar="9" Cut="1.1745086908340454e+00" cType="1" res="-1.1123799486085773e-03" rms="3.8282865285873413e-01" purity="4.7161957621574402e-01" nType="0">
            <Node pos="l" depth="3" NCoef="0" IVar="-1" Cut="0.0000000000000000e+00" cType="1" res="2.2993851453065872e-03" rms="3.8546064496040344e-01" purity="4.9405410885810852e-01" nType="-99"/>
            <Node pos="r" depth="3" NCoef="0" IVar="-1" Cut="0.0000000000000000e+00" cType="1" res="-1.5364640392363071e-02" rms="3.6964747309684753e-01" purity="3.6773952841758728e-01" nType="-99"/>
          </Node>
        </Node>
        <Node pos="r" depth="1" NCoef="0" IVar="1" Cut="1.1026463623046875e+03" cType="1" res="4.7822287306189537e-03" rms="3.8797521591186523e-01" purity="5.2842915058135986e-01" nType="0">
          <Node pos="l" depth="2" NCoef="0" IVar="4" Cut="8.4854347229003906e+01" cType="1" res="1.3313211500644684e-02" rms="3.8845917582511902e-01" purity="2.5157469511032104e-01" nType="0">
            <Node pos="l" depth="3" NCoef="0" IVar="-1" Cut="0.0000000000000000e+00" cType="1" res="-1.0985956527292728e-02" rms="3.1819552183151245e-01" purity="1.3141812384128571e-01" nType="-99"/>
            <Node pos="r" depth="3" NCoef="0" IVar="-1" Cut="0.0000000000000000e+00" cType="1" res="1.7102776095271111e-02" rms="4.2689758539199829e-01" purity="3.2905733585357666e-01" nType="-99"/>
          </Node>
          <Node pos="r" depth="2" NCoef="0" IVar="2" Cut="6.4788854980468750e+02" cType="1" res="1.0357929859310389e-03" rms="3.8770318031311035e-01" purity="6.5001153945922852e-01" nType="0">
            <Node pos="l" depth="3" NCoef="0" IVar="-1" Cut="0.0000000000000000e+00" cType="1" res="-9.1622624313458800e-04" rms="3.8530063629150391e-01" purity="6.5208184719085693e-01" nType="-99"/>
            <Node pos="r" depth="3" NCoef="0" IVar="-1" Cut="0.0000000000000000e+00" cType="1" res="1.5002661384642124e-02" rms="4.1058838367462158e-01" purity="6.2891030311584473e-01" nType="-99"/>
          </Node>
        </Node>
      </Node>
    </BinaryTree>
    <BinaryTree type="DecisionTree" boostWeight="1.0000000000000000e+00" itree="351">
      <Node pos="s" depth="0" NCoef="0" IVar="4" Cut="2.4771231079101562e+02" cType="1" res="3.0093111563473940e-03" rms="3.8615822792053223e-01" purity="5.0175881385803223e-01" nType="0">
        <Node pos="l" depth="1" NCoef="0" IVar="4" Cut="1.1592758178710938e+02" cType="1" res="1.4706095680594444e-03" rms="3.8981196284294128e-01" purity="4.7891500592231750e-01" nType="0">
          <Node pos="l" depth="2" NCoef="0" IVar="4" Cut="1.0651438140869141e+02" cType="1" res="1.1107323691248894e-02" rms="3.9089173078536987e-01" purity="3.0619588494300842e-01" nType="0">
            <Node pos="l" depth="3" NCoef="0" IVar="-1" Cut="0.0000000000000000e+00" cType="1" res="4.8776669427752495e-03" rms="3.8321763277053833e-01" purity="2.7097275853157043e-01" nType="-99"/>
            <Node pos="r" depth="3" NCoef="0" IVar="-1" Cut="0.0000000000000000e+00" cType="1" res="1.7257384955883026e-02" rms="4.2607155442237854e-01" purity="4.7944861650466919e-01" nType="-99"/>
          </Node>
          <Node pos="r" depth="2" NCoef="0" IVar="2" Cut="6.0742102050781250e+02" cType="1" res="-7.1576875634491444e-03" rms="3.8863992691040039e-01" purity="6.3356024026870728e-01" nType="0">
            <Node pos="l" depth="3" NCoef="0" IVar="-1" Cut="0.0000000000000000e+00" cType="1" res="-3.3230765257030725e-03" rms="3.8807043433189392e-01" purity="6.3587045669555664e-01" nType="-99"/>
            <Node pos="r" depth="3" NCoef="0" IVar="-1" Cut="0.0000000000000000e+00" cType="1" res="-1.9646355882287025e-02" rms="3.9445802569389343e-01" purity="6.0642611980438232e-01" nType="-99"/>
          </Node>
        </Node>
        <Node pos="r" depth="1" NCoef="0" IVar="8" Cut="-1.3013353943824768e-01" cType="1" res="2.4785524234175682e-02" rms="3.2937222719192505e-01" purity="8.2505178451538086e-01" nType="0">
          <Node pos="l" depth="2" NCoef="0" IVar="-1" Cut="0.0000000000000000e+00" cType="1" res="2.5194978341460228e-02" rms="3.2244074344635010e-01" purity="8.2866489887237549e-01" nType="-99"/>
          <Node pos="r" depth="2" NCoef="0" IVar="-1" Cut="0.0000000000000000e+00" cType="1" res="1.6466926783323288e-02" rms="3.3505341410636902e-01" purity="8.2198131084442139e-01" nType="-99"/>
        </Node>
      </Node>
    </BinaryTree>
    <BinaryTree type="DecisionTree" boostWeight="1.0000000000000000e+00" itree="352">
      <Node pos="s" depth="0" NCoef="0" IVar="9" Cut="-2.2665774822235107e+00" cType="1" res="-2.6878225617110729e-04" rms="3.8342648744583130e-01" purity="5.0193351507186890e-01" nType="0">
        <Node pos="l" depth="1" NCoef="0" IVar="-1" Cut="0.0000000000000000e+00" cType="1" res="1.9989008083939552e-02" rms="3.7560716271400452e-01" purity="3.5215529799461365e-01" nType="-99"/>
        <Node pos="r" depth="1" NCoef="0" IVar="9" Cut="-1.5427005290985107e+00" cType="1" res="-1.1852555908262730e-03" rms="3.8364157080650330e-01" purity="5.0677371025085449e-01" nType="0">
          <Node pos="l" depth="2" NCoef="0" IVar="1" Cut="1.3734161376953125e+03" cType="1" res="-1.8609600141644478e-02" rms="3.7149330973625183e-01" purity="3.9216357469558716e-01" nType="0">
            <Node pos="l" depth="3" NCoef="0" IVar="-1" Cut="0.0000000000000000e+00" cType="1" res="-2.5574197992682457e-02" rms="3.5946843028068542e-01" purity="2.5568494200706482e-01" nType="-99"/>
            <Node pos="r" depth="3" NCoef="0" IVar="-1" Cut="0.0000000000000000e+00" cType="1" res="1.2110704556107521e-02" rms="3.9141663908958435e-01" purity="6.6139692068099976e-01" nType="-99"/>
          </Node>
          <Node pos="r" depth="2" NCoef="0" IVar="7" Cut="1.7333641052246094e+00" cType="1" res="3.5482092062011361e-04" rms="3.8465887308120728e-01" purity="5.1690369844436646e-01" nType="0">
            <Node pos="l" depth="3" NCoef="0" IVar="-1" Cut="0.0000000000000000e+00" cType="1" res="-7.9505087342113256e-04" rms="3.8574555516242981e-01" purity="5.3348749876022339e-01" nType="-99"/>
            <Node pos="r" depth="3" NCoef="0" IVar="-1" Cut="0.0000000000000000e+00" cType="1" res="2.0525416359305382e-02" rms="3.6589729785919189e-01" purity="2.5115105509757996e-01" nType="-99"/>
          </Node>
        </Node>
      </Node>
    </BinaryTree>
    <BinaryTree type="DecisionTree" boostWeight="1.0000000000000000e+00" itree="353">
      <Node pos="s" depth="0" NCoef="0" IVar="3" Cut="3.2173553466796875e+02" cType="1" res="2.0127354655414820e-03" rms="3.8891550898551941e-01" purity="4.9921232461929321e-01" nType="0">
        <Node pos="l" depth="1" NCoef="0" IVar="9" Cut="1.7333611249923706e+00" cType="1" res="4.8206634819507599e-03" rms="3.9018636941909790e-01" purity="4.7575879096984863e-01" nType="0">
          <Node pos="l" depth="2" NCoef="0" IVar="8" Cut="1.7332490682601929e+00" cType="1" res="7.2737531736493111e-03" rms="3.9131966233253479e-01" purity="4.8864969611167908e-01" nType="0">
            <Node pos="l" depth="3" NCoef="0" IVar="-1" Cut="0.0000000000000000e+00" cType="1" res="3.4648105502128601e-03" rms="3.9217025041580200e-01" purity="5.0142949819564819e-01" nType="-99"/>
            <Node pos="r" depth="3" NCoef="0" IVar="-1" Cut="0.0000000000000000e+00" cType="1" res="2.3249074816703796e-02" rms="3.7907221913337708e-01" purity="3.2120573520660400e-01" nType="-99"/>
          </Node>
          <Node pos="r" depth="2" NCoef="0" IVar="4" Cut="1.0079962158203125e+02" cType="1" res="-2.1231258288025856e-02" rms="3.7695747613906860e-01" purity="3.3885666728019714e-01" nType="0">
            <Node pos="l" depth="3" NCoef="0" IVar="-1" Cut="0.0000000000000000e+00" cType="1" res="-1.0989374713972211e-03" rms="3.4163823723793030e-01" purity="2.0176416635513306e-01" nType="-99"/>
            <Node pos="r" depth="3" NCoef="0" IVar="-1" Cut="0.0000000000000000e+00" cType="1" res="-2.2263834252953529e-02" rms="4.0089407563209534e-01" purity="4.4225212931632996e-01" nType="-99"/>
          </Node>
        </Node>
        <Node pos="r" depth="1" NCoef="0" IVar="6" Cut="-3.3282804489135742e-01" cType="1" res="-1.8413614481687546e-02" rms="3.7891682982444763e-01" purity="6.6982573270797729e-01" nType="0">
          <Node pos="l" depth="2" NCoef="0" IVar="-1" Cut="0.0000000000000000e+00" cType="1" res="-3.7125483504496515e-04" rms="3.8813689351081848e-01" purity="6.4374774694442749e-01" nType="-99"/>
          <Node pos="r" depth="2" NCoef="0" IVar="2" Cut="4.6618426513671875e+02" cType="1" res="-2.7847312390804291e-02" rms="3.7360733747482300e-01" purity="6.8360972404479980e-01" nType="0">
            <Node pos="l" depth="3" NCoef="0" IVar="-1" Cut="0.0000000000000000e+00" cType="1" res="-3.5308010876178741e-02" rms="3.5756245255470276e-01" purity="7.1600550413131714e-01" nType="-99"/>
            <Node pos="r" depth="3" NCoef="0" IVar="-1" Cut="0.0000000000000000e+00" cType="1" res="-1.2288840487599373e-02" rms="3.8282755017280579e-01" purity="6.6367703676223755e-01" nType="-99"/>
          </Node>
        </Node>
      </Node>
    </BinaryTree>
    <BinaryTree type="DecisionTree" boostWeight="1.0000000000000000e+00" itree="354">
      <Node pos="s" depth="0" NCoef="0" IVar="9" Cut="-1.3328497111797333e-01" cType="1" res="-1.8983287736773491e-03" rms="3.8535755872726440e-01" purity="4.9714490771293640e-01" nType="0">
        <Node pos="l" depth="1" NCoef="0" IVar="1" Cut="1.4097268066406250e+03" cType="1" res="-8.9252535253763199e-03" rms="3.8470157980918884e-01" purity="4.8509085178375244e-01" nType="0">
          <Node pos="l" depth="2" NCoef="0" IVar="2" Cut="2.9228704833984375e+02" cType="1" res="-1.4627772383391857e-02" rms="3.9485052227973938e-01" purity="3.5249918699264526e-01" nType="0">
            <Node pos="l" depth="3" NCoef="0" IVar="-1" Cut="0.0000000000000000e+00" cType="1" res="-2.1236408501863480e-03" rms="4.0929290652275085e-01" purity="3.9071691036224365e-01" nType="-99"/>
            <Node pos="r" depth="3" NCoef="0" IVar="-1" Cut="0.0000000000000000e+00" cType="1" res="-1.5829462558031082e-02" rms="3.8140809535980225e-01" purity="3.1882706284523010e-01" nType="-99"/>
          </Node>
          <Node pos="r" depth="2" NCoef="0" IVar="5" Cut="8.3531204223632812e+01" cType="1" res="1.8026655307039618e-03" rms="3.6460277438163757e-01" purity="7.3453027009963989e-01" nType="0">
            <Node pos="l" depth="3" NCoef="0" IVar="-1" Cut="0.0000000000000000e+00" cType="1" res="-7.2930725291371346e-03" rms="4.2068028450012207e-01" purity="5.5475419759750366e-01" nType="-99"/>
            <Node pos="r" depth="3" NCoef="0" IVar="-1" Cut="0.0000000000000000e+00" cType="1" res="5.8951261453330517e-03" rms="3.4163489937782288e-01" purity="8.0031007528305054e-01" nType="-99"/>
          </Node>
        </Node>
        <Node pos="r" depth="1" NCoef="0" IVar="8" Cut="-1.4666764736175537e+00" cType="1" res="3.9474568329751492e-03" rms="3.8580489158630371e-01" purity="5.0717276334762573e-01" nType="0">
          <Node pos="l" depth="2" NCoef="0" IVar="-1" Cut="0.0000000000000000e+00" cType="1" res="-1.4911762438714504e-02" rms="3.6310842633247375e-01" purity="3.1788820028305054e-01" nType="-99"/>
          <Node pos="r" depth="2" NCoef="0" IVar="9" Cut="1.4607447385787964e-01" cType="1" res="6.4766602590680122e-03" rms="3.8785845041275024e-01" purity="5.2566540241241455e-01" nType="0">
            <Node pos="l" depth="3" NCoef="0" IVar="-1" Cut="0.0000000000000000e+00" cType="1" res="1.6435313969850540e-02" rms="3.9124247431755066e-01" purity="6.1495411396026611e-01" nType="-99"/>
            <Node pos="r" depth="3" NCoef="0" IVar="-1" Cut="0.0000000000000000e+00" cType="1" res="1.9068162655457854e-03" rms="3.8708519935607910e-01" purity="5.0803738832473755e-01" nType="-99"/>
          </Node>
        </Node>
      </Node>
    </BinaryTree>
    <BinaryTree type="DecisionTree" boostWeight="1.0000000000000000e+00" itree="355">
      <Node pos="s" depth="0" NCoef="0" IVar="1" Cut="1.0972496337890625e+03" cType="1" res="-1.2156713055446744e-03" rms="3.8817095756530762e-01" purity="4.9762150645256042e-01" nType="0">
        <Node pos="l" depth="1" NCoef="0" IVar="2" Cut="2.3415502929687500e+02" cType="1" res="7.5427768751978874e-03" rms="3.8429561257362366e-01" purity="2.3409920930862427e-01" nType="0">
          <Node pos="l" depth="2" NCoef="0" IVar="3" Cut="1.4775341796875000e+02" cType="1" res="-1.3257372193038464e-02" rms="4.0569335222244263e-01" purity="2.7411404252052307e-01" nType="0">
            <Node pos="l" depth="3" NCoef="0" IVar="-1" Cut="0.0000000000000000e+00" cType="1" res="6.5800938755273819e-03" rms="4.0120419859886169e-01" purity="2.5406485795974731e-01" nType="-99"/>
            <Node pos="r" depth="3" NCoef="0" IVar="-1" Cut="0.0000000000000000e+00" cType="1" res="-2.0016960799694061e-02" rms="4.0865403413772583e-01" purity="2.9301765561103821e-01" nType="-99"/>
          </Node>
          <Node pos="r" depth="2" NCoef="0" IVar="1" Cut="1.0264748535156250e+03" cType="1" res="1.4592132531106472e-02" rms="3.7650746107101440e-01" purity="2.2053782641887665e-01" nType="0">
            <Node pos="l" depth="3" NCoef="0" IVar="-1" Cut="0.0000000000000000e+00" cType="1" res="4.7384714707732201e-03" rms="3.5492756962776184e-01" purity="1.7548561096191406e-01" nType="-99"/>
            <Node pos="r" depth="3" NCoef="0" IVar="-1" Cut="0.0000000000000000e+00" cType="1" res="1.9945751875638962e-02" rms="4.1542404890060425e-01" purity="3.0982655286788940e-01" nType="-99"/>
          </Node>
        </Node>
        <Node pos="r" depth="1" NCoef="0" IVar="8" Cut="-1.7333675622940063e+00" cType="1" res="-5.2385628223419189e-03" rms="3.8987210392951965e-01" purity="6.1866146326065063e-01" nType="0">
          <Node pos="l" depth="2" NCoef="0" IVar="-1" Cut="0.0000000000000000e+00" cType="1" res="1.1455532163381577e-02" rms="3.9762011170387268e-01" purity="4.2033815383911133e-01" nType="-99"/>
          <Node pos="r" depth="2" NCoef="0" IVar="7" Cut="-9.3332690000534058e-01" cType="1" res="-6.8061202764511108e-03" rms="3.8931134343147278e-01" purity="6.3155496120452881e-01" nType="0">
            <Node pos="l" depth="3" NCoef="0" IVar="-1" Cut="0.0000000000000000e+00" cType="1" res="3.6343424580991268e-03" rms="3.9965108036994934e-01" purity="5.0959366559982300e-01" nType="-99"/>
            <Node pos="r" depth="3" NCoef="0" IVar="-1" Cut="0.0000000000000000e+00" cType="1" res="-6.3249105587601662e-03" rms="3.8704326748847961e-01" purity="6.5726166963577271e-01" nType="-99"/>
          </Node>
        </Node>
      </Node>
    </BinaryTree>
    <BinaryTree type="DecisionTree" boostWeight="1.0000000000000000e+00" itree="356">
      <Node pos="s" depth="0" NCoef="0" IVar="9" Cut="-2.2666277885437012e+00" cType="1" res="1.3149504084140062e-03" rms="3.8745740056037903e-01" purity="5.0009822845458984e-01" nType="0">
        <Node pos="l" depth="1" NCoef="0" IVar="-1" Cut="0.0000000000000000e+00" cType="1" res="-2.2224081680178642e-02" rms="3.6424076557159424e-01" purity="2.8800806403160095e-01" nType="-99"/>
        <Node pos="r" depth="1" NCoef="0" IVar="9" Cut="-1.7840564250946045e+00" cType="1" res="2.2542960941791534e-03" rms="3.8807237148284912e-01" purity="5.0627326965332031e-01" nType="0">
          <Node pos="l" depth="2" NCoef="0" IVar="-1" Cut="0.0000000000000000e+00" cType="1" res="1.8456008285284042e-02" rms="3.9223811030387878e-01" purity="4.1683778166770935e-01" nType="-99"/>
          <Node pos="r" depth="2" NCoef="0" IVar="6" Cut="-1.0968522727489471e-01" cType="1" res="9.1011240147054195e-04" rms="3.8780176639556885e-01" purity="5.1107406616210938e-01" nType="0">
            <Node pos="l" depth="3" NCoef="0" IVar="-1" Cut="0.0000000000000000e+00" cType="1" res="-3.4815217368304729e-03" rms="3.8699531555175781e-01" purity="4.9304252862930298e-01" nType="-99"/>
            <Node pos="r" depth="3" NCoef="0" IVar="-1" Cut="0.0000000000000000e+00" cType="1" res="3.8892119191586971e-03" rms="3.8837623596191406e-01" purity="5.2553409337997437e-01" nType="-99"/>
          </Node>
        </Node>
      </Node>
    </BinaryTree>
    <BinaryTree type="DecisionTree" boostWeight="1.0000000000000000e+00" itree="357">
      <Node pos="s" depth="0" NCoef="0" IVar="7" Cut="-1.4666260480880737e+00" cType="1" res="2.3564393632113934e-03" rms="3.8456407189369202e-01" purity="5.0586789846420288e-01" nType="0">
        <Node pos="l" depth="1" NCoef="0" IVar="6" Cut="-1.0990812629461288e-01" cType="1" res="-1.2491819448769093e-02" rms="3.4030190110206604e-01" purity="2.4720519781112671e-01" nType="0">
          <Node pos="l" depth="2" NCoef="0" IVar="-1" Cut="0.0000000000000000e+00" cType="1" res="-2.4691060185432434e-02" rms="3.3258977532386780e-01" purity="2.3024253547191620e-01" nType="-99"/>
          <Node pos="r" depth="2" NCoef="0" IVar="-1" Cut="0.0000000000000000e+00" cType="1" res="4.1488632559776306e-03" rms="3.4650325775146484e-01" purity="2.6323881745338440e-01" nType="-99"/>
        </Node>
        <Node pos="r" depth="1" NCoef="0" IVar="6" Cut="6.8461602926254272e-01" cType="1" res="3.7790702190250158e-03" rms="3.8851049542427063e-01" purity="5.3065067529678345e-01" nType="0">
          <Node pos="l" depth="2" NCoef="0" IVar="9" Cut="-3.9988136291503906e-01" cType="1" res="6.9579798728227615e-03" rms="3.9189803600311279e-01" purity="5.7031667232513428e-01" nType="0">
            <Node pos="l" depth="3" NCoef="0" IVar="-1" Cut="0.0000000000000000e+00" cType="1" res="9.9085466936230659e-03" rms="3.9614030718803406e-01" purity="5.4796868562698364e-01" nType="-99"/>
            <Node pos="r" depth="3" NCoef="0" IVar="-1" Cut="0.0000000000000000e+00" cType="1" res="9.4003346748650074e-04" rms="3.8905337452888489e-01" purity="5.8464872837066650e-01" nType="-99"/>
          </Node>
          <Node pos="r" depth="2" NCoef="0" IVar="6" Cut="1.5911175012588501e+00" cType="1" res="-6.9680018350481987e-03" rms="3.7663403153419495e-01" purity="3.9655029773712158e-01" nType="0">
            <Node pos="l" depth="3" NCoef="0" IVar="-1" Cut="0.0000000000000000e+00" cType="1" res="-9.5316860824823380e-03" rms="3.8790670037269592e-01" purity="4.4664466381072998e-01" nType="-99"/>
            <Node pos="r" depth="3" NCoef="0" IVar="-1" Cut="0.0000000000000000e+00" cType="1" res="1.7135651782155037e-02" rms="3.3505222201347351e-01" purity="2.2969458997249603e-01" nType="-99"/>
          </Node>
        </Node>
      </Node>
    </BinaryTree>
    <BinaryTree type="DecisionTree" boostWeight="1.0000000000000000e+00" itree="358">
      <Node pos="s" depth="0" NCoef="0" IVar="8" Cut="-1.9999650716781616e+00" cType="1" res="3.6255779559724033e-04" rms="3.8348069787025452e-01" purity="5.0042212009429932e-01" nType="0">
        <Node pos="l" depth="1" NCoef="0" IVar="-1" Cut="0.0000000000000000e+00" cType="1" res="-2.2374104708433151e-02" rms="3.3563083410263062e-01" purity="2.1194726228713989e-01" nType="-99"/>
        <Node pos="r" depth="1" NCoef="0" IVar="8" Cut="2.8570720553398132e-01" cType="1" res="1.6238293610513210e-03" rms="3.8539335131645203e-01" purity="5.1306855678558350e-01" nType="0">
          <Node pos="l" depth="2" NCoef="0" IVar="6" Cut="4.1905885934829712e-01" cType="1" res="-2.1714358590543270e-03" rms="3.8519424200057983e-01" purity="5.3447085618972778e-01" nType="0">
            <Node pos="l" depth="3" NCoef="0" IVar="-1" Cut="0.0000000000000000e+00" cType="1" res="1.6112085431814194e-03" rms="3.8768699765205383e-01" purity="5.6028383970260620e-01" nType="-99"/>
            <Node pos="r" depth="3" NCoef="0" IVar="-1" Cut="0.0000000000000000e+00" cType="1" res="-9.0332822874188423e-03" rms="3.7879723310470581e-01" purity="4.7141957283020020e-01" nType="-99"/>
          </Node>
          <Node pos="r" depth="2" NCoef="0" IVar="6" Cut="6.8855965137481689e-01" cType="1" res="6.7799477837979794e-03" rms="3.8560387492179871e-01" purity="4.8399209976196289e-01" nType="0">
            <Node pos="l" depth="3" NCoef="0" IVar="-1" Cut="0.0000000000000000e+00" cType="1" res="6.6708930535241961e-04" rms="3.9158308506011963e-01" purity="5.2247929573059082e-01" nType="-99"/>
            <Node pos="r" depth="3" NCoef="0" IVar="-1" Cut="0.0000000000000000e+00" cType="1" res="1.5297329053282738e-02" rms="3.6954516172409058e-01" purity="3.8602355122566223e-01" nType="-99"/>
          </Node>
        </Node>
      </Node>
    </BinaryTree>
    <BinaryTree type="DecisionTree" boostWeight="1.0000000000000000e+00" itree="359">
      <Node pos="s" depth="0" NCoef="0" IVar="1" Cut="1.1048660888671875e+03" cType="1" res="2.1280969958752394e-03" rms="3.8588622212409973e-01" purity="5.0268399715423584e-01" nType="0">
        <Node pos="l" depth="1" NCoef="0" IVar="6" Cut="1.4772764444351196e+00" cType="1" res="-5.8778338134288788e-03" rms="3.7638032436370850e-01" purity="2.2690224647521973e-01" nType="0">
          <Node pos="l" depth="2" NCoef="0" IVar="5" Cut="6.7814506530761719e+01" cType="1" res="-1.0495068505406380e-02" rms="3.8251355290412903e-01" purity="2.3747673630714417e-01" nType="0">
            <Node pos="l" depth="3" NCoef="0" IVar="-1" Cut="0.0000000000000000e+00" cType="1" res="-1.5149604529142380e-02" rms="3.4471198916435242e-01" purity="1.6742645204067230e-01" nType="-99"/>
            <Node pos="r" depth="3" NCoef="0" IVar="-1" Cut="0.0000000000000000e+00" cType="1" res="6.0041894903406501e-04" rms="4.2527493834495544e-01" purity="3.2610884308815002e-01" nType="-99"/>
          </Node>
          <Node pos="r" depth="2" NCoef="0" IVar="-1" Cut="0.0000000000000000e+00" cType="1" res="4.0193907916545868e-02" rms="3.1707209348678589e-01" purity="1.3734857738018036e-01" nType="-99"/>
        </Node>
        <Node pos="r" depth="1" NCoef="0" IVar="9" Cut="-1.3332714140415192e-01" cType="1" res="5.8169551193714142e-03" rms="3.9013302326202393e-01" purity="6.2975478172302246e-01" nType="0">
          <Node pos="l" depth="2" NCoef="0" IVar="9" Cut="-1.7840977907180786e+00" cType="1" res="-5.8984663337469101e-04" rms="3.9306759834289551e-01" purity="6.1430811882019043e-01" nType="0">
            <Node pos="l" depth="3" NCoef="0" IVar="-1" Cut="0.0000000000000000e+00" cType="1" res="1.1614641174674034e-02" rms="4.0598961710929871e-01" purity="5.1400256156921387e-01" nType="-99"/>
            <Node pos="r" depth="3" NCoef="0" IVar="-1" Cut="0.0000000000000000e+00" cType="1" res="-2.8436488937586546e-03" rms="3.9047950506210327e-01" purity="6.3312256336212158e-01" nType="-99"/>
          </Node>
          <Node pos="r" depth="2" NCoef="0" IVar="0" Cut="4.4703997802734375e+02" cType="1" res="1.0987600311636925e-02" rms="3.8767123222351074e-01" purity="6.4222109317779541e-01" nType="0">
            <Node pos="l" depth="3" NCoef="0" IVar="-1" Cut="0.0000000000000000e+00" cType="1" res="1.0543486103415489e-02" rms="4.1315841674804688e-01" purity="5.1540929079055786e-01" nType="-99"/>
            <Node pos="r" depth="3" NCoef="0" IVar="-1" Cut="0.0000000000000000e+00" cType="1" res="3.8097065407782793e-03" rms="3.6650294065475464e-01" purity="7.4094468355178833e-01" nType="-99"/>
          </Node>
        </Node>
      </Node>
    </BinaryTree>
    <BinaryTree type="DecisionTree" boostWeight="1.0000000000000000e+00" itree="360">
      <Node pos="s" depth="0" NCoef="0" IVar="8" Cut="-1.9999954700469971e+00" cType="1" res="8.0163481470663100e-05" rms="3.8708409667015076e-01" purity="5.0240939855575562e-01" nType="0">
        <Node pos="l" depth="1" NCoef="0" IVar="-1" Cut="0.0000000000000000e+00" cType="1" res="1.7669513821601868e-02" rms="3.6085775494575500e-01" purity="2.8458169102668762e-01" nType="-99"/>
        <Node pos="r" depth="1" NCoef="0" IVar="2" Cut="7.4322729492187500e+02" cType="1" res="-1.0256738169118762e-03" rms="3.8826063275337219e-01" purity="5.1283669471740723e-01" nType="0">
          <Node pos="l" depth="2" NCoef="0" IVar="7" Cut="6.6675555706024170e-01" cType="1" res="-1.0287420445820317e-04" rms="3.8774320483207703e-01" purity="5.1015633344650269e-01" nType="0">
            <Node pos="l" depth="3" NCoef="0" IVar="-1" Cut="0.0000000000000000e+00" cType="1" res="-1.9165425328537822e-03" rms="3.8641944527626038e-01" purity="5.3909361362457275e-01" nType="-99"/>
            <Node pos="r" depth="3" NCoef="0" IVar="-1" Cut="0.0000000000000000e+00" cType="1" res="5.0470177084207535e-03" rms="3.9122840762138367e-01" purity="4.3125614523887634e-01" nType="-99"/>
          </Node>
          <Node pos="r" depth="2" NCoef="0" IVar="-1" Cut="0.0000000000000000e+00" cType="1" res="-1.9569808617234230e-02" rms="4.0473151206970215e-01" purity="6.0728174448013306e-01" nType="-99"/>
        </Node>
      </Node>
    </BinaryTree>
    <BinaryTree type="DecisionTree" boostWeight="1.0000000000000000e+00" itree="361">
      <Node pos="s" depth="0" NCoef="0" IVar="9" Cut="1.7333328723907471e+00" cType="1" res="5.4858828661963344e-05" rms="3.8692018389701843e-01" purity="4.9803462624549866e-01" nType="0">
        <Node pos="l" depth="1" NCoef="0" IVar="8" Cut="-1.4665536880493164e+00" cType="1" res="1.6993688186630607e-03" rms="3.8867592811584473e-01" purity="5.1003515720367432e-01" nType="0">
          <Node pos="l" depth="2" NCoef="0" IVar="9" Cut="2.2207276523113251e-01" cType="1" res="-1.4991363510489464e-02" rms="3.6429864168167114e-01" purity="3.0762165784835815e-01" nType="0">
            <Node pos="l" depth="3" NCoef="0" IVar="-1" Cut="0.0000000000000000e+00" cType="1" res="-2.0433602854609489e-02" rms="3.5731419920921326e-01" purity="2.7642998099327087e-01" nType="-99"/>
            <Node pos="r" depth="3" NCoef="0" IVar="-1" Cut="0.0000000000000000e+00" cType="1" res="7.5070392340421677e-03" rms="3.7627056241035461e-01" purity="3.6878085136413574e-01" nType="-99"/>
          </Node>
          <Node pos="r" depth="2" NCoef="0" IVar="7" Cut="-1.4666255712509155e+00" cType="1" res="3.6237116437405348e-03" rms="3.9134311676025391e-01" purity="5.3337222337722778e-01" nType="0">
            <Node pos="l" depth="3" NCoef="0" IVar="-1" Cut="0.0000000000000000e+00" cType="1" res="1.9390210509300232e-02" rms="3.6986407637596130e-01" purity="3.2611683011054993e-01" nType="-99"/>
            <Node pos="r" depth="3" NCoef="0" IVar="-1" Cut="0.0000000000000000e+00" cType="1" res="8.8369613513350487e-04" rms="3.9332172274589539e-01" purity="5.5377417802810669e-01" nType="-99"/>
          </Node>
        </Node>
        <Node pos="r" depth="1" NCoef="0" IVar="2" Cut="3.2609539794921875e+02" cType="1" res="-1.7490074038505554e-02" rms="3.6720883846282959e-01" purity="3.7000331282615662e-01" nType="0">
          <Node pos="l" depth="2" NCoef="0" IVar="-1" Cut="0.0000000000000000e+00" cType="1" res="-2.0441688597202301e-02" rms="3.6699995398521423e-01" purity="3.0790734291076660e-01" nType="-99"/>
          <Node pos="r" depth="2" NCoef="0" IVar="-1" Cut="0.0000000000000000e+00" cType="1" res="-4.8692580312490463e-03" rms="3.6706680059432983e-01" purity="4.2242020368576050e-01" nType="-99"/>
        </Node>
      </Node>
    </BinaryTree>
    <BinaryTree type="DecisionTree" boostWeight="1.0000000000000000e+00" itree="362">
      <Node pos="s" depth="0" NCoef="0" IVar="7" Cut="1.7333641052246094e+00" cType="1" res="-1.8221101490780711e-03" rms="3.8450837135314941e-01" purity="5.0247371196746826e-01" nType="0">
        <Node pos="l" depth="1" NCoef="0" IVar="8" Cut="6.6661608219146729e-01" cType="1" res="-2.5890697725117207e-04" rms="3.8794332742691040e-01" purity="5.2090448141098022e-01" nType="0">
          <Node pos="l" depth="2" NCoef="0" IVar="8" Cut="-1.6444064378738403e+00" cType="1" res="-3.7752320058643818e-03" rms="3.8662901520729065e-01" purity="5.4073303937911987e-01" nType="0">
            <Node pos="l" depth="3" NCoef="0" IVar="-1" Cut="0.0000000000000000e+00" cType="1" res="1.0340107604861259e-02" rms="3.7227922677993774e-01" purity="3.2115364074707031e-01" nType="-99"/>
            <Node pos="r" depth="3" NCoef="0" IVar="-1" Cut="0.0000000000000000e+00" cType="1" res="-3.9983554743230343e-03" rms="3.8835677504539490e-01" purity="5.6867998838424683e-01" nType="-99"/>
          </Node>
          <Node pos="r" depth="2" NCoef="0" IVar="7" Cut="6.5400028228759766e-01" cType="1" res="8.8268816471099854e-03" rms="3.9117252826690674e-01" purity="4.6966966986656189e-01" nType="0">
            <Node pos="l" depth="3" NCoef="0" IVar="-1" Cut="0.0000000000000000e+00" cType="1" res="2.3697956930845976e-03" rms="3.8867315649986267e-01" purity="4.8048457503318787e-01" nType="-99"/>
            <Node pos="r" depth="3" NCoef="0" IVar="-1" Cut="0.0000000000000000e+00" cType="1" res="1.4331394806504250e-02" rms="3.9716860651969910e-01" purity="4.4210612773895264e-01" nType="-99"/>
          </Node>
        </Node>
        <Node pos="r" depth="1" NCoef="0" IVar="6" Cut="-6.7731983959674835e-02" cType="1" res="-2.7548918500542641e-02" rms="3.2167816162109375e-01" purity="1.9914436340332031e-01" nType="0">
          <Node pos="l" depth="2" NCoef="0" IVar="-1" Cut="0.0000000000000000e+00" cType="1" res="-2.9728634282946587e-02" rms="3.0126863718032837e-01" purity="1.7698116600513458e-01" nType="-99"/>
          <Node pos="r" depth="2" NCoef="0" IVar="-1" Cut="0.0000000000000000e+00" cType="1" res="-1.6703216359019279e-02" rms="3.3733451366424561e-01" purity="2.1730336546897888e-01" nType="-99"/>
        </Node>
      </Node>
    </BinaryTree>
    <BinaryTree type="DecisionTree" boostWeight="1.0000000000000000e+00" itree="363">
      <Node pos="s" depth="0" NCoef="0" IVar="5" Cut="8.3530998229980469e+01" cType="1" res="-2.1548504009842873e-03" rms="3.8318061828613281e-01" purity="5.0044012069702148e-01" nType="0">
        <Node pos="l" depth="1" NCoef="0" IVar="3" Cut="3.3530459594726562e+02" cType="1" res="-8.5787763819098473e-03" rms="3.8395053148269653e-01" purity="3.2742258906364441e-01" nType="0">
          <Node pos="l" depth="2" NCoef="0" IVar="9" Cut="3.9999595284461975e-01" cType="1" res="-1.0275026783347130e-02" rms="3.8151425123214722e-01" purity="3.1127277016639709e-01" nType="0">
            <Node pos="l" depth="3" NCoef="0" IVar="-1" Cut="0.0000000000000000e+00" cType="1" res="-1.0811862535774708e-02" rms="3.8195210695266724e-01" purity="3.0926197767257690e-01" nType="-99"/>
            <Node pos="r" depth="3" NCoef="0" IVar="-1" Cut="0.0000000000000000e+00" cType="1" res="-4.0430456283502281e-04" rms="3.8064837455749512e-01" purity="3.1430709362030029e-01" nType="-99"/>
          </Node>
          <Node pos="r" depth="2" NCoef="0" IVar="-1" Cut="0.0000000000000000e+00" cType="1" res="7.8420611098408699e-03" rms="4.1448310017585754e-01" purity="5.4332149028778076e-01" nType="-99"/>
        </Node>
        <Node pos="r" depth="1" NCoef="0" IVar="7" Cut="-1.4661829471588135e+00" cType="1" res="4.7870175912976265e-03" rms="3.8222557306289673e-01" purity="6.8740749359130859e-01" nType="0">
          <Node pos="l" depth="2" NCoef="0" IVar="-1" Cut="0.0000000000000000e+00" cType="1" res="2.1790139377117157e-02" rms="4.0701124072074890e-01" purity="4.8449409008026123e-01" nType="-99"/>
          <Node pos="r" depth="2" NCoef="0" IVar="7" Cut="-8.5672360658645630e-01" cType="1" res="2.1513954270631075e-03" rms="3.8000881671905518e-01" purity="7.0398020744323730e-01" nType="0">
            <Node pos="l" depth="3" NCoef="0" IVar="-1" Cut="0.0000000000000000e+00" cType="1" res="-1.4828803017735481e-02" rms="4.1192197799682617e-01" purity="6.1714702844619751e-01" nType="-99"/>
            <Node pos="r" depth="3" NCoef="0" IVar="-1" Cut="0.0000000000000000e+00" cType="1" res="4.0155723690986633e-03" rms="3.7531217932701111e-01" purity="7.1579867601394653e-01" nType="-99"/>
          </Node>
        </Node>
      </Node>
    </BinaryTree>
    <BinaryTree type="DecisionTree" boostWeight="1.0000000000000000e+00" itree="364">
      <Node pos="s" depth="0" NCoef="0" IVar="9" Cut="1.4666672945022583e+00" cType="1" res="2.6141318958252668e-03" rms="3.8555517792701721e-01" purity="5.0447922945022583e-01" nType="0">
        <Node pos="l" depth="1" NCoef="0" IVar="8" Cut="1.9997456073760986e+00" cType="1" res="4.7566602006554604e-03" rms="3.8709113001823425e-01" purity="5.1924377679824829e-01" nType="0">
          <Node pos="l" depth="2" NCoef="0" IVar="6" Cut="4.2093628644943237e-01" cType="1" res="5.7045109570026398e-03" rms="3.8866972923278809e-01" purity="5.2979773283004761e-01" nType="0">
            <Node pos="l" depth="3" NCoef="0" IVar="-1" Cut="0.0000000000000000e+00" cType="1" res="5.8494727127254009e-03" rms="3.8934886455535889e-01" purity="5.6083536148071289e-01" nType="-99"/>
            <Node pos="r" depth="3" NCoef="0" IVar="-1" Cut="0.0000000000000000e+00" cType="1" res="-8.2821300020441413e-04" rms="3.8708269596099854e-01" purity="4.6159780025482178e-01" nType="-99"/>
          </Node>
          <Node pos="r" depth="2" NCoef="0" IVar="-1" Cut="0.0000000000000000e+00" cType="1" res="-1.4665204100310802e-02" rms="3.4388393163681030e-01" purity="2.5220164656639099e-01" nType="-99"/>
        </Node>
        <Node pos="r" depth="1" NCoef="0" IVar="1" Cut="1.0514494628906250e+03" cType="1" res="-1.2532649561762810e-02" rms="3.7416720390319824e-01" purity="4.0009984374046326e-01" nType="0">
          <Node pos="l" depth="2" NCoef="0" IVar="-1" Cut="0.0000000000000000e+00" cType="1" res="-2.8178352862596512e-02" rms="3.0898562073707581e-01" purity="1.3272580504417419e-01" nType="-99"/>
          <Node pos="r" depth="2" NCoef="0" IVar="5" Cut="7.1735244750976562e+01" cType="1" res="-4.4923741370439529e-03" rms="3.9725998044013977e-01" purity="5.0841253995895386e-01" nType="0">
            <Node pos="l" depth="3" NCoef="0" IVar="-1" Cut="0.0000000000000000e+00" cType="1" res="1.4306154102087021e-02" rms="3.9320161938667297e-01" purity="4.1030696034431458e-01" nType="-99"/>
            <Node pos="r" depth="3" NCoef="0" IVar="-1" Cut="0.0000000000000000e+00" cType="1" res="-1.2147159315645695e-02" rms="3.9865246415138245e-01" purity="5.6222003698348999e-01" nType="-99"/>
          </Node>
        </Node>
      </Node>
    </BinaryTree>
    <BinaryTree type="DecisionTree" boostWeight="1.0000000000000000e+00" itree="365">
      <Node pos="s" depth="0" NCoef="0" IVar="8" Cut="-3.9999622106552124e-01" cType="1" res="-8.7908432760741562e-05" rms="3.8512945175170898e-01" purity="5.0055789947509766e-01" nType="0">
        <Node pos="l" depth="1" NCoef="0" IVar="6" Cut="-3.7431493401527405e-01" cType="1" res="5.6647858582437038e-03" rms="3.8619935512542725e-01" purity="4.7264572978019714e-01" nType="0">
          <Node pos="l" depth="2" NCoef="0" IVar="8" Cut="-6.2857800722122192e-01" cType="1" res="-6.1120274476706982e-03" rms="3.7771958112716675e-01" purity="3.9831703901290894e-01" nType="0">
            <Node pos="l" depth="3" NCoef="0" IVar="-1" Cut="0.0000000000000000e+00" cType="1" res="-1.0041029192507267e-02" rms="3.7026795744895935e-01" purity="3.6443826556205750e-01" nType="-99"/>
            <Node pos="r" depth="3" NCoef="0" IVar="-1" Cut="0.0000000000000000e+00" cType="1" res="1.8042616546154022e-02" rms="4.0616321563720703e-01" purity="5.4302930831909180e-01" nType="-99"/>
          </Node>
          <Node pos="r" depth="2" NCoef="0" IVar="5" Cut="1.3234327697753906e+02" cType="1" res="1.2943188659846783e-02" rms="3.9117100834846497e-01" purity="5.1858294010162354e-01" nType="0">
            <Node pos="l" depth="3" NCoef="0" IVar="-1" Cut="0.0000000000000000e+00" cType="1" res="1.0565162636339664e-02" rms="3.9758256077766418e-01" purity="4.7115096449851990e-01" nType="-99"/>
            <Node pos="r" depth="3" NCoef="0" IVar="-1" Cut="0.0000000000000000e+00" cType="1" res="-1.0405911132693291e-02" rms="3.4992060065269470e-01" purity="7.9857629537582397e-01" nType="-99"/>
          </Node>
        </Node>
        <Node pos="r" depth="1" NCoef="0" IVar="6" Cut="-3.7956780195236206e-01" cType="1" res="-3.4827932249754667e-03" rms="3.8445627689361572e-01" purity="5.1702988147735596e-01" nType="0">
          <Node pos="l" depth="2" NCoef="0" IVar="2" Cut="3.3580957031250000e+02" cType="1" res="5.2107903175055981e-03" rms="3.8707467913627625e-01" purity="4.7619187831878662e-01" nType="0">
            <Node pos="l" depth="3" NCoef="0" IVar="-1" Cut="0.0000000000000000e+00" cType="1" res="1.2531790882349014e-02" rms="4.0243664383888245e-01" purity="4.3888068199157715e-01" nType="-99"/>
            <Node pos="r" depth="3" NCoef="0" IVar="-1" Cut="0.0000000000000000e+00" cType="1" res="-5.3162248805165291e-03" rms="3.7192693352699280e-01" purity="5.1049160957336426e-01" nType="-99"/>
          </Node>
          <Node pos="r" depth="2" NCoef="0" IVar="4" Cut="1.8191183471679688e+02" cType="1" res="-7.5164749287068844e-03" rms="3.8316833972930908e-01" purity="5.3597813844680786e-01" nType="0">
            <Node pos="l" depth="3" NCoef="0" IVar="-1" Cut="0.0000000000000000e+00" cType="1" res="-7.6624755747616291e-03" rms="3.9528149366378784e-01" purity="4.5272096991539001e-01" nType="-99"/>
            <Node pos="r" depth="3" NCoef="0" IVar="-1" Cut="0.0000000000000000e+00" cType="1" res="6.6257324069738388e-03" rms="3.4066581726074219e-01" purity="8.0489867925643921e-01" nType="-99"/>
          </Node>
        </Node>
      </Node>
    </BinaryTree>
    <BinaryTree type="DecisionTree" boostWeight="1.0000000000000000e+00" itree="366">
      <Node pos="s" depth="0" NCoef="0" IVar="9" Cut="6.6669881343841553e-01" cType="1" res="2.0731700351461768e-04" rms="3.8416653871536255e-01" purity="5.0303125381469727e-01" nType="0">
        <Node pos="l" depth="1" NCoef="0" IVar="9" Cut="-1.4793013334274292e+00" cType="1" res="4.1234893724322319e-03" rms="3.8513484597206116e-01" purity="5.2435350418090820e-01" nType="0">
          <Node pos="l" depth="2" NCoef="0" IVar="8" Cut="-1.1999555826187134e+00" cType="1" res="-1.0584271512925625e-02" rms="3.8204711675643921e-01" purity="3.7281951308250427e-01" nType="0">
            <Node pos="l" depth="3" NCoef="0" IVar="-1" Cut="0.0000000000000000e+00" cType="1" res="1.2718658894300461e-02" rms="3.6104571819305420e-01" purity="2.6016589999198914e-01" nType="-99"/>
            <Node pos="r" depth="3" NCoef="0" IVar="-1" Cut="0.0000000000000000e+00" cType="1" res="-1.1585019528865814e-02" rms="3.8731333613395691e-01" purity="4.0389028191566467e-01" nType="-99"/>
          </Node>
          <Node pos="r" depth="2" NCoef="0" IVar="6" Cut="-9.0349388122558594e-01" cType="1" res="7.0383879356086254e-03" rms="3.8567727804183960e-01" purity="5.5438572168350220e-01" nType="0">
            <Node pos="l" depth="3" NCoef="0" IVar="-1" Cut="0.0000000000000000e+00" cType="1" res="1.7078602686524391e-02" rms="3.8054355978965759e-01" purity="3.9562186598777771e-01" nType="-99"/>
            <Node pos="r" depth="3" NCoef="0" IVar="-1" Cut="0.0000000000000000e+00" cType="1" res="2.2709968034178019e-03" rms="3.8665583729743958e-01" purity="5.8786785602569580e-01" nType="-99"/>
          </Node>
        </Node>
        <Node pos="r" depth="1" NCoef="0" IVar="9" Cut="1.3778110742568970e+00" cType="1" res="-9.0160137042403221e-03" rms="3.8171756267547607e-01" purity="4.5281329751014709e-01" nType="0">
          <Node pos="l" depth="2" NCoef="0" IVar="9" Cut="1.0391943454742432e+00" cType="1" res="-1.8005851656198502e-02" rms="3.8005843758583069e-01" purity="4.8886364698410034e-01" nType="0">
            <Node pos="l" depth="3" NCoef="0" IVar="-1" Cut="0.0000000000000000e+00" cType="1" res="-6.0862023383378983e-03" rms="3.8566601276397705e-01" purity="5.1073634624481201e-01" nType="-99"/>
            <Node pos="r" depth="3" NCoef="0" IVar="-1" Cut="0.0000000000000000e+00" cType="1" res="-2.0709073171019554e-02" rms="3.7195736169815063e-01" purity="4.5911622047424316e-01" nType="-99"/>
          </Node>
          <Node pos="r" depth="2" NCoef="0" IVar="6" Cut="4.1951876878738403e-01" cType="1" res="1.1489668395370245e-03" rms="3.8333103060722351e-01" purity="4.1205045580863953e-01" nType="0">
            <Node pos="l" depth="3" NCoef="0" IVar="-1" Cut="0.0000000000000000e+00" cType="1" res="7.7688680030405521e-03" rms="3.9345833659172058e-01" purity="4.6182575821876526e-01" nType="-99"/>
            <Node pos="r" depth="3" NCoef="0" IVar="-1" Cut="0.0000000000000000e+00" cType="1" res="-1.2038378044962883e-02" rms="3.6578980088233948e-01" purity="3.3212113380432129e-01" nType="-99"/>
          </Node>
        </Node>
      </Node>
    </BinaryTree>
    <BinaryTree type="DecisionTree" boostWeight="1.0000000000000000e+00" itree="367">
      <Node pos="s" depth="0" NCoef="0" IVar="8" Cut="-1.1999889612197876e+00" cType="1" res="-3.4800611902028322e-03" rms="3.8526147603988647e-01" purity="4.9586760997772217e-01" nType="0">
        <Node pos="l" depth="1" NCoef="0" IVar="7" Cut="3.9957949519157410e-01" cType="1" res="-1.6535175964236259e-02" rms="3.6971357464790344e-01" purity="3.3973893523216248e-01" nType="0">
          <Node pos="l" depth="2" NCoef="0" IVar="3" Cut="1.9110231018066406e+02" cType="1" res="-2.8425322845578194e-02" rms="3.6330002546310425e-01" purity="3.4843927621841431e-01" nType="0">
            <Node pos="l" depth="3" NCoef="0" IVar="-1" Cut="0.0000000000000000e+00" cType="1" res="-3.1887754797935486e-02" rms="3.3404049277305603e-01" purity="2.0513227581977844e-01" nType="-99"/>
            <Node pos="r" depth="3" NCoef="0" IVar="-1" Cut="0.0000000000000000e+00" cType="1" res="-8.6758211255073547e-03" rms="3.9237856864929199e-01" purity="5.0561612844467163e-01" nType="-99"/>
          </Node>
          <Node pos="r" depth="2" NCoef="0" IVar="-1" Cut="0.0000000000000000e+00" cType="1" res="6.7731356248259544e-03" rms="3.8212797045707703e-01" purity="3.2062852382659912e-01" nType="-99"/>
        </Node>
        <Node pos="r" depth="1" NCoef="0" IVar="6" Cut="1.4101330935955048e-01" cType="1" res="-1.1257522273808718e-03" rms="3.8795226812362671e-01" purity="5.2402323484420776e-01" nType="0">
          <Node pos="l" depth="2" NCoef="0" IVar="7" Cut="9.3334263563156128e-01" cType="1" res="-6.9164079613983631e-03" rms="3.9132690429687500e-01" purity="5.3509861230850220e-01" nType="0">
            <Node pos="l" depth="3" NCoef="0" IVar="-1" Cut="0.0000000000000000e+00" cType="1" res="-1.5996182337403297e-03" rms="3.9291375875473022e-01" purity="5.7264304161071777e-01" nType="-99"/>
            <Node pos="r" depth="3" NCoef="0" IVar="-1" Cut="0.0000000000000000e+00" cType="1" res="-1.8837250769138336e-02" rms="3.8295567035675049e-01" purity="3.5615578293800354e-01" nType="-99"/>
          </Node>
          <Node pos="r" depth="2" NCoef="0" IVar="8" Cut="1.4664324522018433e+00" cType="1" res="5.7485559955239296e-03" rms="3.8379418849945068e-01" purity="5.1087522506713867e-01" nType="0">
            <Node pos="l" depth="3" NCoef="0" IVar="-1" Cut="0.0000000000000000e+00" cType="1" res="1.3875946169719100e-03" rms="3.8476791977882385e-01" purity="5.4002046585083008e-01" nType="-99"/>
            <Node pos="r" depth="3" NCoef="0" IVar="-1" Cut="0.0000000000000000e+00" cType="1" res="1.9675584509968758e-02" rms="3.7715968489646912e-01" purity="3.3606487512588501e-01" nType="-99"/>
          </Node>
        </Node>
      </Node>
    </BinaryTree>
    <BinaryTree type="DecisionTree" boostWeight="1.0000000000000000e+00" itree="368">
      <Node pos="s" depth="0" NCoef="0" IVar="2" Cut="3.5034664916992188e+02" cType="1" res="3.1940382905304432e-03" rms="3.8596928119659424e-01" purity="5.0346094369888306e-01" nType="0">
        <Node pos="l" depth="1" NCoef="0" IVar="9" Cut="1.4664390087127686e+00" cType="1" res="9.0916510671377182e-03" rms="3.9376056194305420e-01" purity="4.7277221083641052e-01" nType="0">
          <Node pos="l" depth="2" NCoef="0" IVar="7" Cut="9.3316859006881714e-01" cType="1" res="5.6509040296077728e-03" rms="3.9414587616920471e-01" purity="4.8373252153396606e-01" nType="0">
            <Node pos="l" depth="3" NCoef="0" IVar="-1" Cut="0.0000000000000000e+00" cType="1" res="6.8240649998188019e-03" rms="3.9898586273193359e-01" purity="5.1596421003341675e-01" nType="-99"/>
            <Node pos="r" depth="3" NCoef="0" IVar="-1" Cut="0.0000000000000000e+00" cType="1" res="-1.1219607666134834e-02" rms="3.7162446975708008e-01" purity="3.4395644068717957e-01" nType="-99"/>
          </Node>
          <Node pos="r" depth="2" NCoef="0" IVar="-1" Cut="0.0000000000000000e+00" cType="1" res="2.1406432613730431e-02" rms="3.9041817188262939e-01" purity="3.9988863468170166e-01" nType="-99"/>
        </Node>
        <Node pos="r" depth="1" NCoef="0" IVar="7" Cut="9.3339014053344727e-01" cType="1" res="-3.3761700615286827e-03" rms="3.7699130177497864e-01" purity="5.3764963150024414e-01" nType="0">
          <Node pos="l" depth="2" NCoef="0" IVar="7" Cut="-1.3776224851608276e+00" cType="1" res="-6.1252927407622337e-03" rms="3.7606790661811829e-01" purity="5.6967389583587646e-01" nType="0">
            <Node pos="l" depth="3" NCoef="0" IVar="-1" Cut="0.0000000000000000e+00" cType="1" res="1.1908490210771561e-02" rms="3.6121737957000732e-01" purity="3.0869445204734802e-01" nType="-99"/>
            <Node pos="r" depth="3" NCoef="0" IVar="-1" Cut="0.0000000000000000e+00" cType="1" res="-6.0693514533340931e-03" rms="3.7782937288284302e-01" purity="6.0295039415359497e-01" nType="-99"/>
          </Node>
          <Node pos="r" depth="2" NCoef="0" IVar="7" Cut="1.3778072595596313e+00" cType="1" res="8.6961574852466583e-03" rms="3.8078498840332031e-01" purity="3.9702033996582031e-01" nType="0">
            <Node pos="l" depth="3" NCoef="0" IVar="-1" Cut="0.0000000000000000e+00" cType="1" res="1.6209553927183151e-02" rms="3.9975768327713013e-01" purity="5.2341961860656738e-01" nType="-99"/>
            <Node pos="r" depth="3" NCoef="0" IVar="-1" Cut="0.0000000000000000e+00" cType="1" res="-6.1329933814704418e-03" rms="3.6008134484291077e-01" purity="2.7098736166954041e-01" nType="-99"/>
          </Node>
        </Node>
      </Node>
    </BinaryTree>
    <BinaryTree type="DecisionTree" boostWeight="1.0000000000000000e+00" itree="369">
      <Node pos="s" depth="0" NCoef="0" IVar="7" Cut="-1.1999641656875610e+00" cType="1" res="3.5308743827044964e-04" rms="3.8387838006019592e-01" purity="4.9868452548980713e-01" nType="0">
        <Node pos="l" depth="1" NCoef="0" IVar="7" Cut="-1.3523424863815308e+00" cType="1" res="-1.4455425553023815e-02" rms="3.5444626212120056e-01" purity="2.9922431707382202e-01" nType="0">
          <Node pos="l" depth="2" NCoef="0" IVar="8" Cut="6.6647392511367798e-01" cType="1" res="-2.0796516910195351e-02" rms="3.4511825442314148e-01" purity="2.6395624876022339e-01" nType="0">
            <Node pos="l" depth="3" NCoef="0" IVar="-1" Cut="0.0000000000000000e+00" cType="1" res="-8.8249556720256805e-03" rms="3.5898920893669128e-01" purity="2.9806226491928101e-01" nType="-99"/>
            <Node pos="r" depth="3" NCoef="0" IVar="-1" Cut="0.0000000000000000e+00" cType="1" res="-4.2962610721588135e-02" rms="2.9554811120033264e-01" purity="1.5652079880237579e-01" nType="-99"/>
          </Node>
          <Node pos="r" depth="2" NCoef="0" IVar="-1" Cut="0.0000000000000000e+00" cType="1" res="5.8725150302052498e-03" rms="3.8604447245597839e-01" purity="4.2944768071174622e-01" nType="-99"/>
        </Node>
        <Node pos="r" depth="1" NCoef="0" IVar="7" Cut="1.0857075452804565e+00" cType="1" res="2.6234260294586420e-03" rms="3.8814353942871094e-01" purity="5.2926433086395264e-01" nType="0">
          <Node pos="l" depth="2" NCoef="0" IVar="2" Cut="6.5103533935546875e+02" cType="1" res="5.6873494759202003e-03" rms="3.9072164893150330e-01" purity="5.7661759853363037e-01" nType="0">
            <Node pos="l" depth="3" NCoef="0" IVar="-1" Cut="0.0000000000000000e+00" cType="1" res="2.3292966652661562e-03" rms="3.9034852385520935e-01" purity="5.6877887248992920e-01" nType="-99"/>
            <Node pos="r" depth="3" NCoef="0" IVar="-1" Cut="0.0000000000000000e+00" cType="1" res="1.9370520487427711e-02" rms="3.9458775520324707e-01" purity="6.8046164512634277e-01" nType="-99"/>
          </Node>
          <Node pos="r" depth="2" NCoef="0" IVar="1" Cut="1.3945197753906250e+03" cType="1" res="-1.1643373407423496e-02" rms="3.7557700276374817e-01" purity="3.0876946449279785e-01" nType="0">
            <Node pos="l" depth="3" NCoef="0" IVar="-1" Cut="0.0000000000000000e+00" cType="1" res="-2.3296438157558441e-03" rms="3.6650049686431885e-01" purity="2.2857742011547089e-01" nType="-99"/>
            <Node pos="r" depth="3" NCoef="0" IVar="-1" Cut="0.0000000000000000e+00" cType="1" res="-2.2227866575121880e-02" rms="3.9983701705932617e-01" purity="5.4271930456161499e-01" nType="-99"/>
          </Node>
        </Node>
      </Node>
    </BinaryTree>
    <BinaryTree type="DecisionTree" boostWeight="1.0000000000000000e+00" itree="370">
      <Node pos="s" depth="0" NCoef="0" IVar="7" Cut="6.6663765907287598e-01" cType="1" res="-2.0768032409250736e-03" rms="3.8415825366973877e-01" purity="4.9866810441017151e-01" nType="0">
        <Node pos="l" depth="1" NCoef="0" IVar="6" Cut="-9.1005581617355347e-01" cType="1" res="1.3626540312543511e-03" rms="3.8772565126419067e-01" purity="5.3394240140914917e-01" nType="0">
          <Node pos="l" depth="2" NCoef="0" IVar="7" Cut="-6.5385639667510986e-01" cType="1" res="1.3497747480869293e-02" rms="3.7196293473243713e-01" purity="3.7221345305442810e-01" nType="0">
            <Node pos="l" depth="3" NCoef="0" IVar="-1" Cut="0.0000000000000000e+00" cType="1" res="-1.0721524246037006e-02" rms="3.3687755465507507e-01" purity="2.4443300068378448e-01" nType="-99"/>
            <Node pos="r" depth="3" NCoef="0" IVar="-1" Cut="0.0000000000000000e+00" cType="1" res="2.1627342328429222e-02" rms="3.9465460181236267e-01" purity="4.6613967418670654e-01" nType="-99"/>
          </Node>
          <Node pos="r" depth="2" NCoef="0" IVar="6" Cut="1.0330517292022705e+00" cType="1" res="-1.2319620000198483e-03" rms="3.9096456766128540e-01" purity="5.6852185726165771e-01" nType="0">
            <Node pos="l" depth="3" NCoef="0" IVar="-1" Cut="0.0000000000000000e+00" cType="1" res="-2.7235713787376881e-03" rms="3.9450562000274658e-01" purity="6.1157155036926270e-01" nType="-99"/>
            <Node pos="r" depth="3" NCoef="0" IVar="-1" Cut="0.0000000000000000e+00" cType="1" res="1.0618683882057667e-02" rms="3.7164148688316345e-01" purity="3.4494090080261230e-01" nType="-99"/>
          </Node>
        </Node>
        <Node pos="r" depth="1" NCoef="0" IVar="0" Cut="5.4941278076171875e+02" cType="1" res="-1.1699862778186798e-02" rms="3.7382844090461731e-01" purity="3.9997604489326477e-01" nType="0">
          <Node pos="l" depth="2" NCoef="0" IVar="0" Cut="4.7815139770507812e+02" cType="1" res="-1.7776465043425560e-02" rms="3.7230265140533447e-01" purity="3.2843083143234253e-01" nType="0">
            <Node pos="l" depth="3" NCoef="0" IVar="-1" Cut="0.0000000000000000e+00" cType="1" res="-1.5478696674108505e-02" rms="3.6860769987106323e-01" purity="2.8429818153381348e-01" nType="-99"/>
            <Node pos="r" depth="3" NCoef="0" IVar="-1" Cut="0.0000000000000000e+00" cType="1" res="4.1311541572213173e-03" rms="3.9236670732498169e-01" purity="5.8712780475616455e-01" nType="-99"/>
          </Node>
          <Node pos="r" depth="2" NCoef="0" IVar="-1" Cut="0.0000000000000000e+00" cType="1" res="1.0214382782578468e-02" rms="3.7938961386680603e-01" purity="7.2003853321075439e-01" nType="-99"/>
        </Node>
      </Node>
    </BinaryTree>
    <BinaryTree type="DecisionTree" boostWeight="1.0000000000000000e+00" itree="371">
      <Node pos="s" depth="0" NCoef="0" IVar="9" Cut="1.7332962751388550e+00" cType="1" res="1.7273217672482133e-03" rms="3.8473796844482422e-01" purity="5.0244861841201782e-01" nType="0">
        <Node pos="l" depth="1" NCoef="0" IVar="8" Cut="-1.1999301910400391e+00" cType="1" res="3.6105585750192404e-03" rms="3.8613960146903992e-01" purity="5.1623314619064331e-01" nType="0">
          <Node pos="l" depth="2" NCoef="0" IVar="7" Cut="-3.9989200234413147e-01" cType="1" res="1.5433153137564659e-02" rms="3.8339477777481079e-01" purity="3.8275471329689026e-01" nType="0">
            <Node pos="l" depth="3" NCoef="0" IVar="-1" Cut="0.0000000000000000e+00" cType="1" res="2.2986115887761116e-02" rms="3.8340148329734802e-01" purity="3.6814573407173157e-01" nType="-99"/>
            <Node pos="r" depth="3" NCoef="0" IVar="-1" Cut="0.0000000000000000e+00" cType="1" res="1.3156119966879487e-03" rms="3.8285648822784424e-01" purity="3.9453616738319397e-01" nType="-99"/>
          </Node>
          <Node pos="r" depth="2" NCoef="0" IVar="7" Cut="9.3336302042007446e-01" cType="1" res="1.3991917949169874e-03" rms="3.8661071658134460e-01" purity="5.4119968414306641e-01" nType="0">
            <Node pos="l" depth="3" NCoef="0" IVar="-1" Cut="0.0000000000000000e+00" cType="1" res="-9.8082027398049831e-04" rms="3.8751575350761414e-01" purity="5.7126790285110474e-01" nType="-99"/>
            <Node pos="r" depth="3" NCoef="0" IVar="-1" Cut="0.0000000000000000e+00" cType="1" res="9.0381726622581482e-03" rms="3.8256433606147766e-01" purity="4.1540130972862244e-01" nType="-99"/>
          </Node>
        </Node>
        <Node pos="r" depth="1" NCoef="0" IVar="6" Cut="-3.7290772795677185e-01" cType="1" res="-1.8858999013900757e-02" rms="3.6844220757484436e-01" purity="3.5176521539688110e-01" nType="0">
          <Node pos="l" depth="2" NCoef="0" IVar="-1" Cut="0.0000000000000000e+00" cType="1" res="4.8920153640210629e-03" rms="3.6440172791481018e-01" purity="3.2516849040985107e-01" nType="-99"/>
          <Node pos="r" depth="2" NCoef="0" IVar="6" Cut="5.3363996744155884e-01" cType="1" res="-3.0686883255839348e-02" rms="3.6969229578971863e-01" purity="3.6403423547744751e-01" nType="0">
            <Node pos="l" depth="3" NCoef="0" IVar="-1" Cut="0.0000000000000000e+00" cType="1" res="-2.6784677058458328e-02" rms="3.9442425966262817e-01" purity="4.6789872646331787e-01" nType="-99"/>
            <Node pos="r" depth="3" NCoef="0" IVar="-1" Cut="0.0000000000000000e+00" cType="1" res="-1.4669816941022873e-02" rms="3.4604492783546448e-01" purity="2.7252045273780823e-01" nType="-99"/>
          </Node>
        </Node>
      </Node>
    </BinaryTree>
    <BinaryTree type="DecisionTree" boostWeight="1.0000000000000000e+00" itree="372">
      <Node pos="s" depth="0" NCoef="0" IVar="9" Cut="-2.2666301727294922e+00" cType="1" res="7.2233361424878240e-04" rms="3.8569045066833496e-01" purity="5.0088942050933838e-01" nType="0">
        <Node pos="l" depth="1" NCoef="0" IVar="-1" Cut="0.0000000000000000e+00" cType="1" res="-1.9656056538224220e-02" rms="3.5620635747909546e-01" purity="2.7226576209068298e-01" nType="-99"/>
        <Node pos="r" depth="1" NCoef="0" IVar="9" Cut="1.5936363935470581e+00" cType="1" res="1.5236205654218793e-03" rms="3.8649082183837891e-01" purity="5.0758475065231323e-01" nType="0">
          <Node pos="l" depth="2" NCoef="0" IVar="9" Cut="8.5834634304046631e-01" cType="1" res="-3.4468961530365050e-04" rms="3.8656124472618103e-01" purity="5.1992642879486084e-01" nType="0">
            <Node pos="l" depth="3" NCoef="0" IVar="-1" Cut="0.0000000000000000e+00" cType="1" res="1.0640608379617333e-03" rms="3.8761091232299805e-01" purity="5.2800858020782471e-01" nType="-99"/>
            <Node pos="r" depth="3" NCoef="0" IVar="-1" Cut="0.0000000000000000e+00" cType="1" res="-6.7700026556849480e-03" rms="3.8113528490066528e-01" purity="4.7962507605552673e-01" nType="-99"/>
          </Node>
          <Node pos="r" depth="2" NCoef="0" IVar="3" Cut="1.3874391174316406e+02" cType="1" res="1.6114918515086174e-02" rms="3.8562917709350586e-01" purity="4.1119778156280518e-01" nType="0">
            <Node pos="l" depth="3" NCoef="0" IVar="-1" Cut="0.0000000000000000e+00" cType="1" res="-1.6307089477777481e-02" rms="3.2031875848770142e-01" purity="1.6545011103153229e-01" nType="-99"/>
            <Node pos="r" depth="3" NCoef="0" IVar="-1" Cut="0.0000000000000000e+00" cType="1" res="1.7185224220156670e-02" rms="4.0414112806320190e-01" purity="4.9189746379852295e-01" nType="-99"/>
          </Node>
        </Node>
      </Node>
    </BinaryTree>
    <BinaryTree type="DecisionTree" boostWeight="1.0000000000000000e+00" itree="373">
      <Node pos="s" depth="0" NCoef="0" IVar="8" Cut="9.3330484628677368e-01" cType="1" res="4.6669473522342741e-04" rms="3.8791227340698242e-01" purity="4.9788254499435425e-01" nType="0">
        <Node pos="l" depth="1" NCoef="0" IVar="5" Cut="1.0489542388916016e+02" cType="1" res="3.3243261277675629e-03" rms="3.9022496342658997e-01" purity="5.2708792686462402e-01" nType="0">
          <Node pos="l" depth="2" NCoef="0" IVar="0" Cut="5.7768621826171875e+02" cType="1" res="7.8832525759935379e-03" rms="4.0392768383026123e-01" purity="4.1989168524742126e-01" nType="0">
            <Node pos="l" depth="3" NCoef="0" IVar="-1" Cut="0.0000000000000000e+00" cType="1" res="6.7956256680190563e-03" rms="4.0591028332710266e-01" purity="3.7155893445014954e-01" nType="-99"/>
            <Node pos="r" depth="3" NCoef="0" IVar="-1" Cut="0.0000000000000000e+00" cType="1" res="-7.5187874026596546e-03" rms="3.9089426398277283e-01" purity="7.1871358156204224e-01" nType="-99"/>
          </Node>
          <Node pos="r" depth="2" NCoef="0" IVar="1" Cut="1.4237421875000000e+03" cType="1" res="-6.9089806638658047e-03" rms="3.5734787583351135e-01" purity="7.6770853996276855e-01" nType="0">
            <Node pos="l" depth="3" NCoef="0" IVar="-1" Cut="0.0000000000000000e+00" cType="1" res="-1.4219239354133606e-02" rms="4.1992145776748657e-01" purity="6.2687528133392334e-01" nType="-99"/>
            <Node pos="r" depth="3" NCoef="0" IVar="-1" Cut="0.0000000000000000e+00" cType="1" res="2.3435393813997507e-03" rms="3.1816735863685608e-01" purity="8.4363192319869995e-01" nType="-99"/>
          </Node>
        </Node>
        <Node pos="r" depth="1" NCoef="0" IVar="5" Cut="1.0083621215820312e+02" cType="1" res="-1.0329405777156353e-02" rms="3.7885305285453796e-01" purity="3.8754501938819885e-01" nType="0">
          <Node pos="l" depth="2" NCoef="0" IVar="5" Cut="7.9048355102539062e+01" cType="1" res="-1.8801191821694374e-02" rms="3.7360450625419617e-01" purity="2.7366077899932861e-01" nType="0">
            <Node pos="l" depth="3" NCoef="0" IVar="-1" Cut="0.0000000000000000e+00" cType="1" res="-9.7707435488700867e-03" rms="3.6003026366233826e-01" purity="2.3003098368644714e-01" nType="-99"/>
            <Node pos="r" depth="3" NCoef="0" IVar="-1" Cut="0.0000000000000000e+00" cType="1" res="-1.9721025601029396e-02" rms="4.0742629766464233e-01" purity="3.9077857136726379e-01" nType="-99"/>
          </Node>
          <Node pos="r" depth="2" NCoef="0" IVar="5" Cut="1.2383535766601562e+02" cType="1" res="1.0269655846059322e-02" rms="3.9055544137954712e-01" purity="6.6445338726043701e-01" nType="0">
            <Node pos="l" depth="3" NCoef="0" IVar="-1" Cut="0.0000000000000000e+00" cType="1" res="1.5520791523158550e-02" rms="4.0321370959281921e-01" purity="6.0445386171340942e-01" nType="-99"/>
            <Node pos="r" depth="3" NCoef="0" IVar="-1" Cut="0.0000000000000000e+00" cType="1" res="-2.1551288664340973e-03" rms="3.7886270880699158e-01" purity="7.1585625410079956e-01" nType="-99"/>
          </Node>
        </Node>
      </Node>
    </BinaryTree>
    <BinaryTree type="DecisionTree" boostWeight="1.0000000000000000e+00" itree="374">
      <Node pos="s" depth="0" NCoef="0" IVar="6" Cut="1.4142742753028870e-01" cType="1" res="-6.4984528580680490e-04" rms="3.8541600108146667e-01" purity="4.9746417999267578e-01" nType="0">
        <Node pos="l" depth="1" NCoef="0" IVar="7" Cut="-9.3317121267318726e-01" cType="1" res="-4.4758310541510582e-03" rms="3.8485312461853027e-01" purity="5.0839346647262573e-01" nType="0">
          <Node pos="l" depth="2" NCoef="0" IVar="9" Cut="-4.0000745654106140e-01" cType="1" res="1.1104961857199669e-02" rms="3.8004076480865479e-01" purity="4.0356454253196716e-01" nType="0">
            <Node pos="l" depth="3" NCoef="0" IVar="-1" Cut="0.0000000000000000e+00" cType="1" res="-3.6967401392757893e-03" rms="3.6996176838874817e-01" purity="3.5354596376419067e-01" nType="-99"/>
            <Node pos="r" depth="3" NCoef="0" IVar="-1" Cut="0.0000000000000000e+00" cType="1" res="1.7435086891055107e-02" rms="3.8846847414970398e-01" purity="4.4957801699638367e-01" nType="-99"/>
          </Node>
          <Node pos="r" depth="2" NCoef="0" IVar="7" Cut="6.6674274206161499e-01" cType="1" res="-8.7317097932100296e-03" rms="3.8604786992073059e-01" purity="5.3702735900878906e-01" nType="0">
            <Node pos="l" depth="3" NCoef="0" IVar="-1" Cut="0.0000000000000000e+00" cType="1" res="-3.0302407685667276e-03" rms="3.8948971033096313e-01" purity="5.9414905309677124e-01" nType="-99"/>
            <Node pos="r" depth="3" NCoef="0" IVar="-1" Cut="0.0000000000000000e+00" cType="1" res="-1.2433881871402264e-02" rms="3.7764087319374084e-01" purity="4.0243387222290039e-01" nType="-99"/>
          </Node>
        </Node>
        <Node pos="r" depth="1" NCoef="0" IVar="2" Cut="4.9859252929687500e+02" cType="1" res="4.1275671683251858e-03" rms="3.8606449961662292e-01" purity="4.8381704092025757e-01" nType="0">
          <Node pos="l" depth="2" NCoef="0" IVar="3" Cut="2.8550747680664062e+02" cType="1" res="-5.4295308655127883e-04" rms="3.8487777113914490e-01" purity="4.6717202663421631e-01" nType="0">
            <Node pos="l" depth="3" NCoef="0" IVar="-1" Cut="0.0000000000000000e+00" cType="1" res="2.6249154470860958e-03" rms="3.8850417733192444e-01" purity="4.3744063377380371e-01" nType="-99"/>
            <Node pos="r" depth="3" NCoef="0" IVar="-1" Cut="0.0000000000000000e+00" cType="1" res="-2.5186318904161453e-02" rms="3.5628661513328552e-01" purity="6.7942261695861816e-01" nType="-99"/>
          </Node>
          <Node pos="r" depth="2" NCoef="0" IVar="1" Cut="1.6021065673828125e+03" cType="1" res="2.5969753041863441e-02" rms="3.9082646369934082e-01" purity="5.6165921688079834e-01" nType="0">
            <Node pos="l" depth="3" NCoef="0" IVar="-1" Cut="0.0000000000000000e+00" cType="1" res="3.9074487984180450e-02" rms="4.0061086416244507e-01" purity="3.4443226456642151e-01" nType="-99"/>
            <Node pos="r" depth="3" NCoef="0" IVar="-1" Cut="0.0000000000000000e+00" cType="1" res="3.1978492625057697e-03" rms="3.8317003846168518e-01" purity="6.9546842575073242e-01" nType="-99"/>
          </Node>
        </Node>
      </Node>
    </BinaryTree>
    <BinaryTree type="DecisionTree" boostWeight="1.0000000000000000e+00" itree="375">
      <Node pos="s" depth="0" NCoef="0" IVar="9" Cut="-2.2666332721710205e+00" cType="1" res="4.0439441800117493e-03" rms="3.8705348968505859e-01" purity="5.0303548574447632e-01" nType="0">
        <Node pos="l" depth="1" NCoef="0" IVar="-1" Cut="0.0000000000000000e+00" cType="1" res="1.8729103729128838e-02" rms="3.7224265933036804e-01" purity="3.5520231723785400e-01" nType="-99"/>
        <Node pos="r" depth="1" NCoef="0" IVar="9" Cut="2.3174579143524170e+00" cType="1" res="3.3055373933166265e-03" rms="3.8752073049545288e-01" purity="5.0801306962966919e-01" nType="0">
          <Node pos="l" depth="2" NCoef="0" IVar="6" Cut="-1.4394055604934692e+00" cType="1" res="2.5729008484631777e-03" rms="3.8810616731643677e-01" purity="5.1237380504608154e-01" nType="0">
            <Node pos="l" depth="3" NCoef="0" IVar="-1" Cut="0.0000000000000000e+00" cType="1" res="1.7459308728575706e-02" rms="3.4718319773674011e-01" purity="2.4543499946594238e-01" nType="-99"/>
            <Node pos="r" depth="3" NCoef="0" IVar="-1" Cut="0.0000000000000000e+00" cType="1" res="7.9947721678763628e-04" rms="3.9100337028503418e-01" purity="5.3262424468994141e-01" nType="-99"/>
          </Node>
          <Node pos="r" depth="2" NCoef="0" IVar="-1" Cut="0.0000000000000000e+00" cType="1" res="1.9834987819194794e-02" rms="3.6685621738433838e-01" purity="3.6409428715705872e-01" nType="-99"/>
        </Node>
      </Node>
    </BinaryTree>
    <BinaryTree type="DecisionTree" boostWeight="1.0000000000000000e+00" itree="376">
      <Node pos="s" depth="0" NCoef="0" IVar="6" Cut="-9.0351778268814087e-01" cType="1" res="-4.3244348489679396e-04" rms="3.8404291868209839e-01" purity="5.0262707471847534e-01" nType="0">
        <Node pos="l" depth="1" NCoef="0" IVar="9" Cut="-1.3322065770626068e-01" cType="1" res="-1.3810314238071442e-02" rms="3.4900194406509399e-01" purity="3.2107192277908325e-01" nType="0">
          <Node pos="l" depth="2" NCoef="0" IVar="5" Cut="7.5399932861328125e+01" cType="1" res="-5.3250258788466454e-03" rms="3.5745638608932495e-01" purity="3.0491486191749573e-01" nType="0">
            <Node pos="l" depth="3" NCoef="0" IVar="-1" Cut="0.0000000000000000e+00" cType="1" res="9.1150430962443352e-03" rms="3.3029592037200928e-01" purity="1.7622631788253784e-01" nType="-99"/>
            <Node pos="r" depth="3" NCoef="0" IVar="-1" Cut="0.0000000000000000e+00" cType="1" res="-1.3416818343102932e-02" rms="3.8283878564834595e-01" purity="4.3761774897575378e-01" nType="-99"/>
          </Node>
          <Node pos="r" depth="2" NCoef="0" IVar="5" Cut="9.5051902770996094e+01" cType="1" res="-2.3558896034955978e-02" rms="3.3876639604568481e-01" purity="3.3963450789451599e-01" nType="0">
            <Node pos="l" depth="3" NCoef="0" IVar="-1" Cut="0.0000000000000000e+00" cType="1" res="-3.1550083309412003e-02" rms="3.1455385684967041e-01" purity="1.9794654846191406e-01" nType="-99"/>
            <Node pos="r" depth="3" NCoef="0" IVar="-1" Cut="0.0000000000000000e+00" cType="1" res="3.9700255729258060e-03" rms="3.7814360857009888e-01" purity="6.0459572076797485e-01" nType="-99"/>
          </Node>
        </Node>
        <Node pos="r" depth="1" NCoef="0" IVar="7" Cut="1.4666100740432739e+00" cType="1" res="2.2737283725291491e-03" rms="3.9069360494613647e-01" purity="5.3935337066650391e-01" nType="0">
          <Node pos="l" depth="2" NCoef="0" IVar="9" Cut="-1.4666357040405273e+00" cType="1" res="4.7828938113525510e-04" rms="3.9166954159736633e-01" purity="5.6277114152908325e-01" nType="0">
            <Node pos="l" depth="3" NCoef="0" IVar="-1" Cut="0.0000000000000000e+00" cType="1" res="9.6666561439633369e-03" rms="4.0288037061691284e-01" purity="4.7325637936592102e-01" nType="-99"/>
            <Node pos="r" depth="3" NCoef="0" IVar="-1" Cut="0.0000000000000000e+00" cType="1" res="-9.7374088363721967e-04" rms="3.9013502001762390e-01" purity="5.7448649406433105e-01" nType="-99"/>
          </Node>
          <Node pos="r" depth="2" NCoef="0" IVar="6" Cut="-2.2093057632446289e-02" cType="1" res="2.0462118089199066e-02" rms="3.8018855452537537e-01" purity="3.0212351679801941e-01" nType="0">
            <Node pos="l" depth="3" NCoef="0" IVar="-1" Cut="0.0000000000000000e+00" cType="1" res="3.7901710718870163e-02" rms="4.0331491827964783e-01" purity="3.6556127667427063e-01" nType="-99"/>
            <Node pos="r" depth="3" NCoef="0" IVar="-1" Cut="0.0000000000000000e+00" cType="1" res="2.2762022126698866e-05" rms="3.6553546786308289e-01" purity="2.6804971694946289e-01" nType="-99"/>
          </Node>
        </Node>
      </Node>
    </BinaryTree>
    <BinaryTree type="DecisionTree" boostWeight="1.0000000000000000e+00" itree="377">
      <Node pos="s" depth="0" NCoef="0" IVar="3" Cut="2.3375553894042969e+02" cType="1" res="-1.3742173323407769e-03" rms="3.8385173678398132e-01" purity="4.9810329079627991e-01" nType="0">
        <Node pos="l" depth="1" NCoef="0" IVar="8" Cut="-3.9992108941078186e-01" cType="1" res="-4.3238038197159767e-03" rms="3.8819926977157593e-01" purity="3.9968881011009216e-01" nType="0">
          <Node pos="l" depth="2" NCoef="0" IVar="3" Cut="2.0773605346679688e+02" cType="1" res="-1.3448408804833889e-02" rms="3.8071674108505249e-01" purity="3.6432266235351562e-01" nType="0">
            <Node pos="l" depth="3" NCoef="0" IVar="-1" Cut="0.0000000000000000e+00" cType="1" res="-1.2248944491147995e-02" rms="3.7906473875045776e-01" purity="3.2320168614387512e-01" nType="-99"/>
            <Node pos="r" depth="3" NCoef="0" IVar="-1" Cut="0.0000000000000000e+00" cType="1" res="7.4003003537654877e-03" rms="3.8811272382736206e-01" purity="5.7594513893127441e-01" nType="-99"/>
          </Node>
          <Node pos="r" depth="2" NCoef="0" IVar="9" Cut="-1.7331427335739136e+00" cType="1" res="1.0855942964553833e-03" rms="3.9246767759323120e-01" purity="4.2065516114234924e-01" nType="0">
            <Node pos="l" depth="3" NCoef="0" IVar="-1" Cut="0.0000000000000000e+00" cType="1" res="-1.8019147217273712e-02" rms="3.7256833910942078e-01" purity="2.8317129611968994e-01" nType="-99"/>
            <Node pos="r" depth="3" NCoef="0" IVar="-1" Cut="0.0000000000000000e+00" cType="1" res="2.1084658801555634e-03" rms="3.9397299289703369e-01" purity="4.3193191289901733e-01" nType="-99"/>
          </Node>
        </Node>
        <Node pos="r" depth="1" NCoef="0" IVar="4" Cut="1.9841641235351562e+02" cType="1" res="4.0412233211100101e-03" rms="3.7567844986915588e-01" purity="6.7879229784011841e-01" nType="0">
          <Node pos="l" depth="2" NCoef="0" IVar="9" Cut="-9.3300151824951172e-01" cType="1" res="9.9050151184201241e-03" rms="3.9121368527412415e-01" purity="6.1666369438171387e-01" nType="0">
            <Node pos="l" depth="3" NCoef="0" IVar="-1" Cut="0.0000000000000000e+00" cType="1" res="1.6588101163506508e-02" rms="4.0681642293930054e-01" purity="5.8329433202743530e-01" nType="-99"/>
            <Node pos="r" depth="3" NCoef="0" IVar="-1" Cut="0.0000000000000000e+00" cType="1" res="2.9206275939941406e-03" rms="3.8603898882865906e-01" purity="6.2712186574935913e-01" nType="-99"/>
          </Node>
          <Node pos="r" depth="2" NCoef="0" IVar="8" Cut="6.6625678539276123e-01" cType="1" res="-5.2445749752223492e-03" rms="3.4946683049201965e-01" purity="7.7717798948287964e-01" nType="0">
            <Node pos="l" depth="3" NCoef="0" IVar="-1" Cut="0.0000000000000000e+00" cType="1" res="1.2772572226822376e-03" rms="3.4090587496757507e-01" purity="8.0180597305297852e-01" nType="-99"/>
            <Node pos="r" depth="3" NCoef="0" IVar="-1" Cut="0.0000000000000000e+00" cType="1" res="-2.1663013845682144e-02" rms="3.7863445281982422e-01" purity="6.8532884120941162e-01" nType="-99"/>
          </Node>
        </Node>
      </Node>
    </BinaryTree>
    <BinaryTree type="DecisionTree" boostWeight="1.0000000000000000e+00" itree="378">
      <Node pos="s" depth="0" NCoef="0" IVar="7" Cut="6.6667330265045166e-01" cType="1" res="9.6111535094678402e-04" rms="3.8583847880363464e-01" purity="4.9940463900566101e-01" nType="0">
        <Node pos="l" depth="1" NCoef="0" IVar="9" Cut="-1.9999172687530518e+00" cType="1" res="-2.2903138305991888e-03" rms="3.8584244251251221e-01" purity="5.2805405855178833e-01" nType="0">
          <Node pos="l" depth="2" NCoef="0" IVar="-1" Cut="0.0000000000000000e+00" cType="1" res="1.7049644142389297e-02" rms="3.8712191581726074e-01" purity="3.9159750938415527e-01" nType="-99"/>
          <Node pos="r" depth="2" NCoef="0" IVar="6" Cut="-1.1680486202239990e+00" cType="1" res="-3.9806552231311798e-03" rms="3.8569980859756470e-01" purity="5.3638762235641479e-01" nType="0">
            <Node pos="l" depth="3" NCoef="0" IVar="-1" Cut="0.0000000000000000e+00" cType="1" res="9.7752027213573456e-03" rms="3.6841431260108948e-01" purity="3.1957674026489258e-01" nType="-99"/>
            <Node pos="r" depth="3" NCoef="0" IVar="-1" Cut="0.0000000000000000e+00" cType="1" res="-3.9781299419701099e-03" rms="3.8775023818016052e-01" purity="5.6343454122543335e-01" nType="-99"/>
          </Node>
        </Node>
        <Node pos="r" depth="1" NCoef="0" IVar="8" Cut="4.0002992749214172e-01" cType="1" res="9.7276689484715462e-03" rms="3.8569122552871704e-01" purity="4.2215952277183533e-01" nType="0">
          <Node pos="l" depth="2" NCoef="0" IVar="6" Cut="-3.4571382403373718e-01" cType="1" res="2.0079145208001137e-02" rms="3.9439547061920166e-01" purity="4.5632755756378174e-01" nType="0">
            <Node pos="l" depth="3" NCoef="0" IVar="-1" Cut="0.0000000000000000e+00" cType="1" res="2.0684802439063787e-03" rms="3.8614785671234131e-01" purity="3.6554458737373352e-01" nType="-99"/>
            <Node pos="r" depth="3" NCoef="0" IVar="-1" Cut="0.0000000000000000e+00" cType="1" res="1.8707571551203728e-02" rms="3.9838731288909912e-01" purity="5.0427907705307007e-01" nType="-99"/>
          </Node>
          <Node pos="r" depth="2" NCoef="0" IVar="9" Cut="-1.3328415155410767e-01" cType="1" res="-3.7404291797429323e-03" rms="3.7363418936729431e-01" purity="3.7770426273345947e-01" nType="0">
            <Node pos="l" depth="3" NCoef="0" IVar="-1" Cut="0.0000000000000000e+00" cType="1" res="-1.4211409725248814e-02" rms="3.8315269351005554e-01" purity="3.9091446995735168e-01" nType="-99"/>
            <Node pos="r" depth="3" NCoef="0" IVar="-1" Cut="0.0000000000000000e+00" cType="1" res="4.4103567488491535e-03" rms="3.6784422397613525e-01" purity="3.7033572793006897e-01" nType="-99"/>
          </Node>
        </Node>
      </Node>
    </BinaryTree>
    <BinaryTree type="DecisionTree" boostWeight="1.0000000000000000e+00" itree="379">
      <Node pos="s" depth="0" NCoef="0" IVar="9" Cut="-9.3333953619003296e-01" cType="1" res="2.2987965494394302e-03" rms="3.8526749610900879e-01" purity="5.0306552648544312e-01" nType="0">
        <Node pos="l" depth="1" NCoef="0" IVar="6" Cut="4.1344162821769714e-01" cType="1" res="-5.3243748843669891e-03" rms="3.8382974267005920e-01" purity="4.3464851379394531e-01" nType="0">
          <Node pos="l" depth="2" NCoef="0" IVar="4" Cut="9.1652015686035156e+01" cType="1" res="3.2295216806232929e-03" rms="3.8731285929679871e-01" purity="4.6541836857795715e-01" nType="0">
            <Node pos="l" depth="3" NCoef="0" IVar="-1" Cut="0.0000000000000000e+00" cType="1" res="1.3611685484647751e-02" rms="3.6771905422210693e-01" purity="2.4364185333251953e-01" nType="-99"/>
            <Node pos="r" depth="3" NCoef="0" IVar="-1" Cut="0.0000000000000000e+00" cType="1" res="-1.5989894745871425e-03" rms="3.9452865719795227e-01" purity="5.5178636312484741e-01" nType="-99"/>
          </Node>
          <Node pos="r" depth="2" NCoef="0" IVar="7" Cut="1.2887036800384521e-01" cType="1" res="-2.7985101565718651e-02" rms="3.7350004911422729e-01" purity="3.5313391685485840e-01" nType="0">
            <Node pos="l" depth="3" NCoef="0" IVar="-1" Cut="0.0000000000000000e+00" cType="1" res="-1.0660506784915924e-02" rms="3.7681069970130920e-01" purity="3.6090528964996338e-01" nType="-99"/>
            <Node pos="r" depth="3" NCoef="0" IVar="-1" Cut="0.0000000000000000e+00" cType="1" res="-2.9985139146447182e-02" rms="3.6827683448791504e-01" purity="3.4257662296295166e-01" nType="-99"/>
          </Node>
        </Node>
        <Node pos="r" depth="1" NCoef="0" IVar="9" Cut="2.0888130664825439e+00" cType="1" res="4.5746481046080589e-03" rms="3.8566645979881287e-01" purity="5.2349102497100830e-01" nType="0">
          <Node pos="l" depth="2" NCoef="0" IVar="8" Cut="-1.3337561488151550e-01" cType="1" res="6.0825459659099579e-03" rms="3.8689127564430237e-01" purity="5.3550606966018677e-01" nType="0">
            <Node pos="l" depth="3" NCoef="0" IVar="-1" Cut="0.0000000000000000e+00" cType="1" res="1.5053292736411095e-04" rms="3.8683614134788513e-01" purity="5.2938210964202881e-01" nType="-99"/>
            <Node pos="r" depth="3" NCoef="0" IVar="-1" Cut="0.0000000000000000e+00" cType="1" res="7.0630908012390137e-03" rms="3.8687312602996826e-01" purity="5.4024595022201538e-01" nType="-99"/>
          </Node>
          <Node pos="r" depth="2" NCoef="0" IVar="-1" Cut="0.0000000000000000e+00" cType="1" res="-1.4013472013175488e-02" rms="3.6456000804901123e-01" purity="3.3035281300544739e-01" nType="-99"/>
        </Node>
      </Node>
    </BinaryTree>
    <BinaryTree type="DecisionTree" boostWeight="1.0000000000000000e+00" itree="380">
      <Node pos="s" depth="0" NCoef="0" IVar="8" Cut="6.6649204492568970e-01" cType="1" res="-2.2784795146435499e-03" rms="3.8417431712150574e-01" purity="4.9584415555000305e-01" nType="0">
        <Node pos="l" depth="1" NCoef="0" IVar="3" Cut="3.2173553466796875e+02" cType="1" res="2.3659390863031149e-03" rms="3.8614386320114136e-01" purity="5.2821719646453857e-01" nType="0">
          <Node pos="l" depth="2" NCoef="0" IVar="6" Cut="9.4822663068771362e-01" cType="1" res="4.5292293652892113e-03" rms="3.9028763771057129e-01" purity="5.0079035758972168e-01" nType="0">
            <Node pos="l" depth="3" NCoef="0" IVar="-1" Cut="0.0000000000000000e+00" cType="1" res="1.1109623592346907e-03" rms="3.9241686463356018e-01" purity="5.2941471338272095e-01" nType="-99"/>
            <Node pos="r" depth="3" NCoef="0" IVar="-1" Cut="0.0000000000000000e+00" cType="1" res="1.4604357071220875e-02" rms="3.7795576453208923e-01" purity="3.4293937683105469e-01" nType="-99"/>
          </Node>
          <Node pos="r" depth="2" NCoef="0" IVar="8" Cut="-4.8866745829582214e-01" cType="1" res="-1.1941516771912575e-02" rms="3.5720109939575195e-01" purity="7.0961159467697144e-01" nType="0">
            <Node pos="l" depth="3" NCoef="0" IVar="-1" Cut="0.0000000000000000e+00" cType="1" res="-1.8785953521728516e-02" rms="3.7939292192459106e-01" purity="6.2132912874221802e-01" nType="-99"/>
            <Node pos="r" depth="3" NCoef="0" IVar="-1" Cut="0.0000000000000000e+00" cType="1" res="-7.6000759145244956e-04" rms="3.4157529473304749e-01" purity="7.6693004369735718e-01" nType="-99"/>
          </Node>
        </Node>
        <Node pos="r" depth="1" NCoef="0" IVar="9" Cut="-9.3322187662124634e-01" cType="1" res="-1.4449662528932095e-02" rms="3.7869426608085632e-01" purity="4.1100722551345825e-01" nType="0">
          <Node pos="l" depth="2" NCoef="0" IVar="6" Cut="-9.2145740985870361e-02" cType="1" res="-3.4886896610260010e-02" rms="3.7262299656867981e-01" purity="3.5540065169334412e-01" nType="0">
            <Node pos="l" depth="3" NCoef="0" IVar="-1" Cut="0.0000000000000000e+00" cType="1" res="-7.7507440000772476e-03" rms="3.8071233034133911e-01" purity="3.6432173848152161e-01" nType="-99"/>
            <Node pos="r" depth="3" NCoef="0" IVar="-1" Cut="0.0000000000000000e+00" cType="1" res="-3.9381034672260284e-02" rms="3.6292678117752075e-01" purity="3.4657272696495056e-01" nType="-99"/>
          </Node>
          <Node pos="r" depth="2" NCoef="0" IVar="9" Cut="1.7332495450973511e+00" cType="1" res="-9.4616832211613655e-03" rms="3.7999448180198669e-01" purity="4.2457872629165649e-01" nType="0">
            <Node pos="l" depth="3" NCoef="0" IVar="-1" Cut="0.0000000000000000e+00" cType="1" res="-3.3335010521113873e-03" rms="3.8589090108871460e-01" purity="4.5313310623168945e-01" nType="-99"/>
            <Node pos="r" depth="3" NCoef="0" IVar="-1" Cut="0.0000000000000000e+00" cType="1" res="-3.1672853976488113e-02" rms="3.3565357327461243e-01" purity="2.3030641674995422e-01" nType="-99"/>
          </Node>
        </Node>
      </Node>
    </BinaryTree>
    <BinaryTree type="DecisionTree" boostWeight="1.0000000000000000e+00" itree="381">
      <Node pos="s" depth="0" NCoef="0" IVar="1" Cut="1.3748276367187500e+03" cType="1" res="1.6722547588869929e-03" rms="3.8337200880050659e-01" purity="5.0549387931823730e-01" nType="0">
        <Node pos="l" depth="1" NCoef="0" IVar="1" Cut="1.3474497070312500e+03" cType="1" res="-2.7365665882825851e-03" rms="3.9658418297767639e-01" purity="3.5376080870628357e-01" nType="0">
          <Node pos="l" depth="2" NCoef="0" IVar="6" Cut="1.5012840926647186e-01" cType="1" res="-4.7956635244190693e-03" rms="3.9494544267654419e-01" purity="3.4276789426803589e-01" nType="0">
            <Node pos="l" depth="3" NCoef="0" IVar="-1" Cut="0.0000000000000000e+00" cType="1" res="1.4462810941040516e-03" rms="4.0111199021339417e-01" purity="3.6585560441017151e-01" nType="-99"/>
            <Node pos="r" depth="3" NCoef="0" IVar="-1" Cut="0.0000000000000000e+00" cType="1" res="-8.8818650692701340e-03" rms="3.8681358098983765e-01" purity="3.1355431675910950e-01" nType="-99"/>
          </Node>
          <Node pos="r" depth="2" NCoef="0" IVar="-1" Cut="0.0000000000000000e+00" cType="1" res="2.6588898152112961e-02" rms="4.3009614944458008e-01" purity="6.0870766639709473e-01" nType="-99"/>
        </Node>
        <Node pos="r" depth="1" NCoef="0" IVar="7" Cut="-4.0013614296913147e-01" cType="1" res="8.5700107738375664e-03" rms="3.6162644624710083e-01" purity="7.4288564920425415e-01" nType="0">
          <Node pos="l" depth="2" NCoef="0" IVar="5" Cut="1.2928399658203125e+02" cType="1" res="1.8716426566243172e-02" rms="3.7110525369644165e-01" purity="7.1427631378173828e-01" nType="0">
            <Node pos="l" depth="3" NCoef="0" IVar="-1" Cut="0.0000000000000000e+00" cType="1" res="1.9102642312645912e-02" rms="3.8652205467224121e-01" purity="6.6725486516952515e-01" nType="-99"/>
            <Node pos="r" depth="3" NCoef="0" IVar="-1" Cut="0.0000000000000000e+00" cType="1" res="-5.0348108634352684e-03" rms="3.3489072322845459e-01" purity="8.1368952989578247e-01" nType="-99"/>
          </Node>
          <Node pos="r" depth="2" NCoef="0" IVar="2" Cut="4.5391754150390625e+02" cType="1" res="3.5210449714213610e-03" rms="3.5670834779739380e-01" purity="7.5712198019027710e-01" nType="0">
            <Node pos="l" depth="3" NCoef="0" IVar="-1" Cut="0.0000000000000000e+00" cType="1" res="1.1067754589021206e-02" rms="3.1940621137619019e-01" purity="8.4845030307769775e-01" nType="-99"/>
            <Node pos="r" depth="3" NCoef="0" IVar="-1" Cut="0.0000000000000000e+00" cType="1" res="-3.4816605038940907e-03" rms="3.9137426018714905e-01" purity="6.6265773773193359e-01" nType="-99"/>
          </Node>
        </Node>
      </Node>
    </BinaryTree>
    <BinaryTree type="DecisionTree" boostWeight="1.0000000000000000e+00" itree="382">
      <Node pos="s" depth="0" NCoef="0" IVar="8" Cut="-6.6663908958435059e-01" cType="1" res="-1.0400095488876104e-03" rms="3.8541337847709656e-01" purity="4.9900338053703308e-01" nType="0">
        <Node pos="l" depth="1" NCoef="0" IVar="6" Cut="-3.7479096651077271e-01" cType="1" res="-1.3251307420432568e-02" rms="3.8124120235443115e-01" purity="4.2368197441101074e-01" nType="0">
          <Node pos="l" depth="2" NCoef="0" IVar="6" Cut="-7.1482062339782715e-01" cType="1" res="-2.2531658411026001e-02" rms="3.6703404784202576e-01" purity="3.5822495818138123e-01" nType="0">
            <Node pos="l" depth="3" NCoef="0" IVar="-1" Cut="0.0000000000000000e+00" cType="1" res="-2.2606942802667618e-02" rms="3.5289254784584045e-01" purity="2.7814966440200806e-01" nType="-99"/>
            <Node pos="r" depth="3" NCoef="0" IVar="-1" Cut="0.0000000000000000e+00" cType="1" res="-4.4346502982079983e-03" rms="3.9446961879730225e-01" purity="5.2518361806869507e-01" nType="-99"/>
          </Node>
          <Node pos="r" depth="2" NCoef="0" IVar="6" Cut="2.2970929741859436e-01" cType="1" res="-7.1458611637353897e-03" rms="3.9018565416336060e-01" purity="4.6674546599388123e-01" nType="0">
            <Node pos="l" depth="3" NCoef="0" IVar="-1" Cut="0.0000000000000000e+00" cType="1" res="2.0500905811786652e-03" rms="4.0266820788383484e-01" purity="5.8305394649505615e-01" nType="-99"/>
            <Node pos="r" depth="3" NCoef="0" IVar="-1" Cut="0.0000000000000000e+00" cType="1" res="-1.0157646611332893e-02" rms="3.8080272078514099e-01" purity="3.8333269953727722e-01" nType="-99"/>
          </Node>
        </Node>
        <Node pos="r" depth="1" NCoef="0" IVar="8" Cut="1.9745615720748901e+00" cType="1" res="3.7718028761446476e-03" rms="3.8693922758102417e-01" purity="5.2868342399597168e-01" nType="0">
          <Node pos="l" depth="2" NCoef="0" IVar="8" Cut="1.4714708328247070e+00" cType="1" res="5.1920558325946331e-03" rms="3.8960233330726624e-01" purity="5.4853308200836182e-01" nType="0">
            <Node pos="l" depth="3" NCoef="0" IVar="-1" Cut="0.0000000000000000e+00" cType="1" res="1.9294992089271545e-03" rms="3.8936096429824829e-01" purity="5.6319999694824219e-01" nType="-99"/>
            <Node pos="r" depth="3" NCoef="0" IVar="-1" Cut="0.0000000000000000e+00" cType="1" res="1.8159428611397743e-02" rms="3.9129745960235596e-01" purity="4.0113109350204468e-01" nType="-99"/>
          </Node>
          <Node pos="r" depth="2" NCoef="0" IVar="-1" Cut="0.0000000000000000e+00" cType="1" res="-1.4033485203981400e-02" rms="3.4320294857025146e-01" purity="2.2694046795368195e-01" nType="-99"/>
        </Node>
      </Node>
    </BinaryTree>
    <BinaryTree type="DecisionTree" boostWeight="1.0000000000000000e+00" itree="383">
      <Node pos="s" depth="0" NCoef="0" IVar="7" Cut="1.4667100906372070e+00" cType="1" res="1.1326279491186142e-03" rms="3.8513907790184021e-01" purity="5.0126576423645020e-01" nType="0">
        <Node pos="l" depth="1" NCoef="0" IVar="9" Cut="2.2665045261383057e+00" cType="1" res="-3.3349992008879781e-04" rms="3.8668859004974365e-01" purity="5.2436143159866333e-01" nType="0">
          <Node pos="l" depth="2" NCoef="0" IVar="7" Cut="8.5718142986297607e-01" cType="1" res="-1.3329016510397196e-03" rms="3.8689234852790833e-01" purity="5.2835708856582642e-01" nType="0">
            <Node pos="l" depth="3" NCoef="0" IVar="-1" Cut="0.0000000000000000e+00" cType="1" res="7.6351000461727381e-04" rms="3.8738793134689331e-01" purity="5.3882950544357300e-01" nType="-99"/>
            <Node pos="r" depth="3" NCoef="0" IVar="-1" Cut="0.0000000000000000e+00" cType="1" res="-1.1201162822544575e-02" rms="3.8329806923866272e-01" purity="4.6089982986450195e-01" nType="-99"/>
          </Node>
          <Node pos="r" depth="2" NCoef="0" IVar="-1" Cut="0.0000000000000000e+00" cType="1" res="2.2288313135504723e-02" rms="3.7879079580307007e-01" purity="3.9745330810546875e-01" nType="-99"/>
        </Node>
        <Node pos="r" depth="1" NCoef="0" IVar="3" Cut="1.5798484802246094e+02" cType="1" res="1.5997530892491341e-02" rms="3.6873248219490051e-01" purity="2.6710125803947449e-01" nType="0">
          <Node pos="l" depth="2" NCoef="0" IVar="-1" Cut="0.0000000000000000e+00" cType="1" res="4.8819728195667267e-02" rms="3.5258978605270386e-01" purity="2.0792557299137115e-01" nType="-99"/>
          <Node pos="r" depth="2" NCoef="0" IVar="-1" Cut="0.0000000000000000e+00" cType="1" res="-7.6469699852168560e-03" rms="3.7843444943428040e-01" purity="3.1266009807586670e-01" nType="-99"/>
        </Node>
      </Node>
    </BinaryTree>
    <BinaryTree type="DecisionTree" boostWeight="1.0000000000000000e+00" itree="384">
      <Node pos="s" depth="0" NCoef="0" IVar="3" Cut="2.2153791809082031e+02" cType="1" res="1.6749439237173647e-04" rms="3.8561505079269409e-01" purity="5.0252407789230347e-01" nType="0">
        <Node pos="l" depth="1" NCoef="0" IVar="5" Cut="1.3058567810058594e+02" cType="1" res="-3.8140292745083570e-03" rms="3.8918781280517578e-01" purity="3.8623452186584473e-01" nType="0">
          <Node pos="l" depth="2" NCoef="0" IVar="7" Cut="-6.6663646697998047e-01" cType="1" res="-5.6866505183279514e-03" rms="3.9176115393638611e-01" purity="3.5082295536994934e-01" nType="0">
            <Node pos="l" depth="3" NCoef="0" IVar="-1" Cut="0.0000000000000000e+00" cType="1" res="3.0749530997127295e-03" rms="3.7525868415832520e-01" purity="3.0494061112403870e-01" nType="-99"/>
            <Node pos="r" depth="3" NCoef="0" IVar="-1" Cut="0.0000000000000000e+00" cType="1" res="-6.2548983842134476e-03" rms="3.9847159385681152e-01" purity="3.7026870250701904e-01" nType="-99"/>
          </Node>
          <Node pos="r" depth="2" NCoef="0" IVar="-1" Cut="0.0000000000000000e+00" cType="1" res="1.2997974641621113e-02" rms="3.5842522978782654e-01" purity="7.8303313255310059e-01" nType="-99"/>
        </Node>
        <Node pos="r" depth="1" NCoef="0" IVar="8" Cut="-9.3334406614303589e-01" cType="1" res="6.0512246564030647e-03" rms="3.8019761443138123e-01" purity="6.7437189817428589e-01" nType="0">
          <Node pos="l" depth="2" NCoef="0" IVar="3" Cut="2.9508831787109375e+02" cType="1" res="2.1232184022665024e-02" rms="3.9942610263824463e-01" purity="5.8932471275329590e-01" nType="0">
            <Node pos="l" depth="3" NCoef="0" IVar="-1" Cut="0.0000000000000000e+00" cType="1" res="1.9041998311877251e-02" rms="4.0817511081695557e-01" purity="5.7720965147018433e-01" nType="-99"/>
            <Node pos="r" depth="3" NCoef="0" IVar="-1" Cut="0.0000000000000000e+00" cType="1" res="4.6842284500598907e-03" rms="3.8560131192207336e-01" purity="6.0739541053771973e-01" nType="-99"/>
          </Node>
          <Node pos="r" depth="2" NCoef="0" IVar="9" Cut="-1.4665687084197998e+00" cType="1" res="2.5669618044048548e-03" rms="3.7555894255638123e-01" purity="6.9389158487319946e-01" nType="0">
            <Node pos="l" depth="3" NCoef="0" IVar="-1" Cut="0.0000000000000000e+00" cType="1" res="-9.5186354592442513e-03" rms="4.0397036075592041e-01" purity="5.8646601438522339e-01" nType="-99"/>
            <Node pos="r" depth="3" NCoef="0" IVar="-1" Cut="0.0000000000000000e+00" cType="1" res="3.2392507418990135e-03" rms="3.7232008576393127e-01" purity="7.0545178651809692e-01" nType="-99"/>
          </Node>
        </Node>
      </Node>
    </BinaryTree>
    <BinaryTree type="DecisionTree" boostWeight="1.0000000000000000e+00" itree="385">
      <Node pos="s" depth="0" NCoef="0" IVar="1" Cut="1.0948471679687500e+03" cType="1" res="-6.2623491976410151e-04" rms="3.8621842861175537e-01" purity="4.9932089447975159e-01" nType="0">
        <Node pos="l" depth="1" NCoef="0" IVar="1" Cut="1.0386862792968750e+03" cType="1" res="5.7162051089107990e-03" rms="3.7870213389396667e-01" purity="2.2619780898094177e-01" nType="0">
          <Node pos="l" depth="2" NCoef="0" IVar="7" Cut="4.0004897117614746e-01" cType="1" res="-3.2399923657067120e-04" rms="3.6228883266448975e-01" purity="1.9259104132652283e-01" nType="0">
            <Node pos="l" depth="3" NCoef="0" IVar="-1" Cut="0.0000000000000000e+00" cType="1" res="6.6666416823863983e-03" rms="3.7897741794586182e-01" purity="2.1421259641647339e-01" nType="-99"/>
            <Node pos="r" depth="3" NCoef="0" IVar="-1" Cut="0.0000000000000000e+00" cType="1" res="-1.3666337355971336e-02" rms="3.3145192265510559e-01" purity="1.5592081844806671e-01" nType="-99"/>
          </Node>
          <Node pos="r" depth="2" NCoef="0" IVar="-1" Cut="0.0000000000000000e+00" cType="1" res="1.5030389651656151e-02" rms="4.2748045921325684e-01" purity="3.3627170324325562e-01" nType="-99"/>
        </Node>
        <Node pos="r" depth="1" NCoef="0" IVar="6" Cut="-1.1881079673767090e+00" cType="1" res="-3.4063458442687988e-03" rms="3.8943481445312500e-01" purity="6.1904025077819824e-01" nType="0">
          <Node pos="l" depth="2" NCoef="0" IVar="2" Cut="3.9699685668945312e+02" cType="1" res="-2.8810154646635056e-02" rms="3.7131762504577637e-01" purity="3.5708123445510864e-01" nType="0">
            <Node pos="l" depth="3" NCoef="0" IVar="-1" Cut="0.0000000000000000e+00" cType="1" res="-2.2500941529870033e-02" rms="3.8151457905769348e-01" purity="4.1869464516639709e-01" nType="-99"/>
            <Node pos="r" depth="3" NCoef="0" IVar="-1" Cut="0.0000000000000000e+00" cType="1" res="-1.4703487977385521e-02" rms="3.5762223601341248e-01" purity="2.7825722098350525e-01" nType="-99"/>
          </Node>
          <Node pos="r" depth="2" NCoef="0" IVar="6" Cut="-8.0844050645828247e-01" cType="1" res="-8.4309617523103952e-04" rms="3.9112460613250732e-01" purity="6.4547193050384521e-01" nType="0">
            <Node pos="l" depth="3" NCoef="0" IVar="-1" Cut="0.0000000000000000e+00" cType="1" res="1.0558848269283772e-02" rms="4.0714323520660400e-01" purity="5.9990519285202026e-01" nType="-99"/>
            <Node pos="r" depth="3" NCoef="0" IVar="-1" Cut="0.0000000000000000e+00" cType="1" res="-1.8366703297942877e-03" rms="3.8929364085197449e-01" purity="6.5042233467102051e-01" nType="-99"/>
          </Node>
        </Node>
      </Node>
    </BinaryTree>
    <BinaryTree type="DecisionTree" boostWeight="1.0000000000000000e+00" itree="386">
      <Node pos="s" depth="0" NCoef="0" IVar="7" Cut="-9.3321877717971802e-01" cType="1" res="-3.0933865346014500e-03" rms="3.8472843170166016e-01" purity="4.9653980135917664e-01" nType="0">
        <Node pos="l" depth="1" NCoef="0" IVar="3" Cut="2.0939392089843750e+02" cType="1" res="-1.9475279375910759e-02" rms="3.6807996034622192e-01" purity="3.4195986390113831e-01" nType="0">
          <Node pos="l" depth="2" NCoef="0" IVar="3" Cut="1.7934211730957031e+02" cType="1" res="-1.1932584457099438e-02" rms="3.5518601536750793e-01" purity="2.6939666271209717e-01" nType="0">
            <Node pos="l" depth="3" NCoef="0" IVar="-1" Cut="0.0000000000000000e+00" cType="1" res="-3.0097577255219221e-03" rms="3.5098889470100403e-01" purity="2.3646821081638336e-01" nType="-99"/>
            <Node pos="r" depth="3" NCoef="0" IVar="-1" Cut="0.0000000000000000e+00" cType="1" res="-2.4566432461142540e-02" rms="3.6764022707939148e-01" purity="3.7985098361968994e-01" nType="-99"/>
          </Node>
          <Node pos="r" depth="2" NCoef="0" IVar="7" Cut="-1.2886513471603394e+00" cType="1" res="-3.3106170594692230e-02" rms="3.8993254303932190e-01" purity="4.7309342026710510e-01" nType="0">
            <Node pos="l" depth="3" NCoef="0" IVar="-1" Cut="0.0000000000000000e+00" cType="1" res="-3.0363831669092178e-02" rms="3.6334523558616638e-01" purity="3.6130928993225098e-01" nType="-99"/>
            <Node pos="r" depth="3" NCoef="0" IVar="-1" Cut="0.0000000000000000e+00" cType="1" res="-1.1762397363781929e-02" rms="4.1625067591667175e-01" purity="5.9362083673477173e-01" nType="-99"/>
          </Node>
        </Node>
        <Node pos="r" depth="1" NCoef="0" IVar="9" Cut="-1.9999637603759766e+00" cType="1" res="7.2806596290320158e-04" rms="3.8841009140014648e-01" purity="5.3259909152984619e-01" nType="0">
          <Node pos="l" depth="2" NCoef="0" IVar="-1" Cut="0.0000000000000000e+00" cType="1" res="1.4913127757608891e-02" rms="4.0030929446220398e-01" purity="3.9649564027786255e-01" nType="-99"/>
          <Node pos="r" depth="2" NCoef="0" IVar="7" Cut="-7.5543844699859619e-01" cType="1" res="-4.4685407192446291e-04" rms="3.8773113489151001e-01" purity="5.3984493017196655e-01" nType="0">
            <Node pos="l" depth="3" NCoef="0" IVar="-1" Cut="0.0000000000000000e+00" cType="1" res="-1.4118452556431293e-02" rms="4.0060675144195557e-01" purity="4.9967470765113831e-01" nType="-99"/>
            <Node pos="r" depth="3" NCoef="0" IVar="-1" Cut="0.0000000000000000e+00" cType="1" res="5.4552650544792414e-04" rms="3.8694956898689270e-01" purity="5.4212218523025513e-01" nType="-99"/>
          </Node>
        </Node>
      </Node>
    </BinaryTree>
    <BinaryTree type="DecisionTree" boostWeight="1.0000000000000000e+00" itree="387">
      <Node pos="s" depth="0" NCoef="0" IVar="0" Cut="4.4441311645507812e+02" cType="1" res="3.5372280981391668e-03" rms="3.8487905263900757e-01" purity="5.0436639785766602e-01" nType="0">
        <Node pos="l" depth="1" NCoef="0" IVar="5" Cut="7.8978126525878906e+01" cType="1" res="7.7881133183836937e-03" rms="3.9493283629417419e-01" purity="3.6452096700668335e-01" nType="0">
          <Node pos="l" depth="2" NCoef="0" IVar="6" Cut="-3.7999176979064941e-01" cType="1" res="3.3412139600841329e-05" rms="3.6633431911468506e-01" purity="2.2046594321727753e-01" nType="0">
            <Node pos="l" depth="3" NCoef="0" IVar="-1" Cut="0.0000000000000000e+00" cType="1" res="1.2102962471544743e-02" rms="3.5550880432128906e-01" purity="2.0207951962947845e-01" nType="-99"/>
            <Node pos="r" depth="3" NCoef="0" IVar="-1" Cut="0.0000000000000000e+00" cType="1" res="-6.0862321406602859e-03" rms="3.7235310673713684e-01" purity="2.3141901195049286e-01" nType="-99"/>
          </Node>
          <Node pos="r" depth="2" NCoef="0" IVar="8" Cut="-1.4666748046875000e+00" cType="1" res="1.6637563705444336e-02" rms="4.2505246400833130e-01" purity="5.2891260385513306e-01" nType="0">
            <Node pos="l" depth="3" NCoef="0" IVar="-1" Cut="0.0000000000000000e+00" cType="1" res="3.6866072565317154e-02" rms="4.1189995408058167e-01" purity="3.9537206292152405e-01" nType="-99"/>
            <Node pos="r" depth="3" NCoef="0" IVar="-1" Cut="0.0000000000000000e+00" cType="1" res="6.2807155773043633e-03" rms="4.2631563544273376e-01" purity="5.4510319232940674e-01" nType="-99"/>
          </Node>
        </Node>
        <Node pos="r" depth="1" NCoef="0" IVar="1" Cut="1.1419029541015625e+03" cType="1" res="-2.5245100259780884e-03" rms="3.6998575925827026e-01" purity="7.0378506183624268e-01" nType="0">
          <Node pos="l" depth="2" NCoef="0" IVar="-1" Cut="0.0000000000000000e+00" cType="1" res="-1.5442037023603916e-02" rms="4.2737296223640442e-01" purity="3.2902625203132629e-01" nType="-99"/>
          <Node pos="r" depth="2" NCoef="0" IVar="3" Cut="1.4719456481933594e+02" cType="1" res="-3.1168096029432490e-05" rms="3.6379361152648926e-01" purity="7.4042594432830811e-01" nType="0">
            <Node pos="l" depth="3" NCoef="0" IVar="-1" Cut="0.0000000000000000e+00" cType="1" res="1.1664181016385555e-02" rms="4.1645151376724243e-01" purity="5.0205528736114502e-01" nType="-99"/>
            <Node pos="r" depth="3" NCoef="0" IVar="-1" Cut="0.0000000000000000e+00" cType="1" res="-2.2722063586115837e-03" rms="3.5576140880584717e-01" purity="7.7354472875595093e-01" nType="-99"/>
          </Node>
        </Node>
      </Node>
    </BinaryTree>
    <BinaryTree type="DecisionTree" boostWeight="1.0000000000000000e+00" itree="388">
      <Node pos="s" depth="0" NCoef="0" IVar="9" Cut="-1.3333038985729218e-01" cType="1" res="-3.0484127346426249e-03" rms="3.8502964377403259e-01" purity="4.9801379442214966e-01" nType="0">
        <Node pos="l" depth="1" NCoef="0" IVar="6" Cut="-9.0990376472473145e-01" cType="1" res="2.5659534148871899e-03" rms="3.8768339157104492e-01" purity="4.9732127785682678e-01" nType="0">
          <Node pos="l" depth="2" NCoef="0" IVar="3" Cut="2.0291065979003906e+02" cType="1" res="1.6192568466067314e-02" rms="3.7046635150909424e-01" purity="3.2302585244178772e-01" nType="0">
            <Node pos="l" depth="3" NCoef="0" IVar="-1" Cut="0.0000000000000000e+00" cType="1" res="-4.7731683589518070e-03" rms="3.4318220615386963e-01" purity="1.8714767694473267e-01" nType="-99"/>
            <Node pos="r" depth="3" NCoef="0" IVar="-1" Cut="0.0000000000000000e+00" cType="1" res="2.8639355674386024e-02" rms="4.0308552980422974e-01" purity="5.0967168807983398e-01" nType="-99"/>
          </Node>
          <Node pos="r" depth="2" NCoef="0" IVar="3" Cut="2.3539437866210938e+02" cType="1" res="-8.5941277211531997e-04" rms="3.9181780815124512e-01" purity="5.4113447666168213e-01" nType="0">
            <Node pos="l" depth="3" NCoef="0" IVar="-1" Cut="0.0000000000000000e+00" cType="1" res="3.1591523438692093e-03" rms="4.0106478333473206e-01" purity="4.5686042308807373e-01" nType="-99"/>
            <Node pos="r" depth="3" NCoef="0" IVar="-1" Cut="0.0000000000000000e+00" cType="1" res="-8.4907431155443192e-03" rms="3.7398138642311096e-01" purity="6.9593858718872070e-01" nType="-99"/>
          </Node>
        </Node>
        <Node pos="r" depth="1" NCoef="0" IVar="9" Cut="1.6825194358825684e+00" cType="1" res="-7.7934921719133854e-03" rms="3.8270825147628784e-01" purity="4.9859911203384399e-01" nType="0">
          <Node pos="l" depth="2" NCoef="0" IVar="8" Cut="1.7332841157913208e+00" cType="1" res="-1.1139252223074436e-02" rms="3.8154134154319763e-01" purity="5.2228027582168579e-01" nType="0">
            <Node pos="l" depth="3" NCoef="0" IVar="-1" Cut="0.0000000000000000e+00" cType="1" res="-8.8856695219874382e-03" rms="3.8259786367416382e-01" purity="5.3836762905120850e-01" nType="-99"/>
            <Node pos="r" depth="3" NCoef="0" IVar="-1" Cut="0.0000000000000000e+00" cType="1" res="1.1173669248819351e-02" rms="3.6693581938743591e-01" purity="3.1993612647056580e-01" nType="-99"/>
          </Node>
          <Node pos="r" depth="2" NCoef="0" IVar="5" Cut="9.1207077026367188e+01" cType="1" res="8.1560034304857254e-03" rms="3.8782620429992676e-01" purity="3.8570931553840637e-01" nType="0">
            <Node pos="l" depth="3" NCoef="0" IVar="-1" Cut="0.0000000000000000e+00" cType="1" res="1.4414168894290924e-02" rms="3.8341659307479858e-01" purity="3.1533914804458618e-01" nType="-99"/>
            <Node pos="r" depth="3" NCoef="0" IVar="-1" Cut="0.0000000000000000e+00" cType="1" res="-1.3681748881936073e-02" rms="3.9679270982742310e-01" purity="5.5697405338287354e-01" nType="-99"/>
          </Node>
        </Node>
      </Node>
    </BinaryTree>
    <BinaryTree type="DecisionTree" boostWeight="1.0000000000000000e+00" itree="389">
      <Node pos="s" depth="0" NCoef="0" IVar="9" Cut="9.3335217237472534e-01" cType="1" res="2.6154704391956329e-03" rms="3.8725420832633972e-01" purity="5.0233972072601318e-01" nType="0">
        <Node pos="l" depth="1" NCoef="0" IVar="7" Cut="-1.9998575448989868e+00" cType="1" res="-8.2560320151969790e-04" rms="3.8711509108543396e-01" purity="5.1698428392410278e-01" nType="0">
          <Node pos="l" depth="2" NCoef="0" IVar="-1" Cut="0.0000000000000000e+00" cType="1" res="2.6608126237988472e-02" rms="3.4062406420707703e-01" purity="2.3603597283363342e-01" nType="-99"/>
          <Node pos="r" depth="2" NCoef="0" IVar="7" Cut="-8.5702514648437500e-01" cType="1" res="-2.0354976877570152e-03" rms="3.8874626159667969e-01" purity="5.2782058715820312e-01" nType="0">
            <Node pos="l" depth="3" NCoef="0" IVar="-1" Cut="0.0000000000000000e+00" cType="1" res="-1.0237485170364380e-02" rms="3.8416397571563721e-01" purity="4.1835963726043701e-01" nType="-99"/>
            <Node pos="r" depth="3" NCoef="0" IVar="-1" Cut="0.0000000000000000e+00" cType="1" res="7.7128940029069781e-04" rms="3.8974353671073914e-01" purity="5.5348765850067139e-01" nType="-99"/>
          </Node>
        </Node>
        <Node pos="r" depth="1" NCoef="0" IVar="6" Cut="-1.1661571264266968e+00" cType="1" res="1.3742445968091488e-02" rms="3.8749453425407410e-01" purity="4.5498540997505188e-01" nType="0">
          <Node pos="l" depth="2" NCoef="0" IVar="-1" Cut="0.0000000000000000e+00" cType="1" res="3.9580035954713821e-02" rms="3.6074367165565491e-01" purity="2.7321663498878479e-01" nType="-99"/>
          <Node pos="r" depth="2" NCoef="0" IVar="7" Cut="-9.3183845281600952e-01" cType="1" res="9.9957594648003578e-03" rms="3.9035427570343018e-01" purity="4.7639563679695129e-01" nType="0">
            <Node pos="l" depth="3" NCoef="0" IVar="-1" Cut="0.0000000000000000e+00" cType="1" res="-7.5355852022767067e-03" rms="3.7026721239089966e-01" purity="3.1089714169502258e-01" nType="-99"/>
            <Node pos="r" depth="3" NCoef="0" IVar="-1" Cut="0.0000000000000000e+00" cType="1" res="8.7170619517564774e-03" rms="3.9372137188911438e-01" purity="5.0596517324447632e-01" nType="-99"/>
          </Node>
        </Node>
      </Node>
    </BinaryTree>
    <BinaryTree type="DecisionTree" boostWeight="1.0000000000000000e+00" itree="390">
      <Node pos="s" depth="0" NCoef="0" IVar="9" Cut="-1.4666461944580078e+00" cType="1" res="2.7249511331319809e-03" rms="3.8351953029632568e-01" purity="5.0250345468521118e-01" nType="0">
        <Node pos="l" depth="1" NCoef="0" IVar="6" Cut="6.8015676736831665e-01" cType="1" res="-9.0728923678398132e-03" rms="3.7192904949188232e-01" purity="3.8545212149620056e-01" nType="0">
          <Node pos="l" depth="2" NCoef="0" IVar="3" Cut="2.2128547668457031e+02" cType="1" res="-2.9253088869154453e-03" rms="3.8131278753280640e-01" purity="4.2452788352966309e-01" nType="0">
            <Node pos="l" depth="3" NCoef="0" IVar="-1" Cut="0.0000000000000000e+00" cType="1" res="-6.8770134821534157e-03" rms="3.6210051178932190e-01" purity="3.2162657380104065e-01" nType="-99"/>
            <Node pos="r" depth="3" NCoef="0" IVar="-1" Cut="0.0000000000000000e+00" cType="1" res="5.4192948155105114e-03" rms="4.1154560446739197e-01" purity="5.9884709119796753e-01" nType="-99"/>
          </Node>
          <Node pos="r" depth="2" NCoef="0" IVar="-1" Cut="0.0000000000000000e+00" cType="1" res="-2.5510940700769424e-02" rms="3.3290383219718933e-01" purity="2.3718820512294769e-01" nType="-99"/>
        </Node>
        <Node pos="r" depth="1" NCoef="0" IVar="9" Cut="-1.0602973699569702e+00" cType="1" res="4.3542650528252125e-03" rms="3.8506439328193665e-01" purity="5.1866853237152100e-01" nType="0">
          <Node pos="l" depth="2" NCoef="0" IVar="8" Cut="3.9981991052627563e-01" cType="1" res="2.1439459174871445e-02" rms="3.8691502809524536e-01" purity="5.1570373773574829e-01" nType="0">
            <Node pos="l" depth="3" NCoef="0" IVar="-1" Cut="0.0000000000000000e+00" cType="1" res="8.2503324374556541e-03" rms="3.8642498850822449e-01" purity="5.0883376598358154e-01" nType="-99"/>
            <Node pos="r" depth="3" NCoef="0" IVar="-1" Cut="0.0000000000000000e+00" cType="1" res="2.5374757125973701e-02" rms="3.8730359077453613e-01" purity="5.2962487936019897e-01" nType="-99"/>
          </Node>
          <Node pos="r" depth="2" NCoef="0" IVar="9" Cut="1.5132129192352295e+00" cType="1" res="2.5481279008090496e-03" rms="3.8482391834259033e-01" purity="5.1898193359375000e-01" nType="0">
            <Node pos="l" depth="3" NCoef="0" IVar="-1" Cut="0.0000000000000000e+00" cType="1" res="2.9202811419963837e-03" rms="3.8637429475784302e-01" purity="5.4144173860549927e-01" nType="-99"/>
            <Node pos="r" depth="3" NCoef="0" IVar="-1" Cut="0.0000000000000000e+00" cType="1" res="-5.6590964086353779e-03" rms="3.7541797757148743e-01" purity="3.8728082180023193e-01" nType="-99"/>
          </Node>
        </Node>
      </Node>
    </BinaryTree>
    <BinaryTree type="DecisionTree" boostWeight="1.0000000000000000e+00" itree="391">
      <Node pos="s" depth="0" NCoef="0" IVar="9" Cut="1.7333328723907471e+00" cType="1" res="-1.8684740643948317e-03" rms="3.8332474231719971e-01" purity="4.9960982799530029e-01" nType="0">
        <Node pos="l" depth="1" NCoef="0" IVar="9" Cut="1.0857194662094116e+00" cType="1" res="-3.6696416791528463e-03" rms="3.8286846876144409e-01" purity="5.0997745990753174e-01" nType="0">
          <Node pos="l" depth="2" NCoef="0" IVar="7" Cut="6.6670858860015869e-01" cType="1" res="-2.0364592783153057e-03" rms="3.8399964570999146e-01" purity="5.1659870147705078e-01" nType="0">
            <Node pos="l" depth="3" NCoef="0" IVar="-1" Cut="0.0000000000000000e+00" cType="1" res="2.7179854805581272e-04" rms="3.8414356112480164e-01" purity="5.4525667428970337e-01" nType="-99"/>
            <Node pos="r" depth="3" NCoef="0" IVar="-1" Cut="0.0000000000000000e+00" cType="1" res="-6.4316312782466412e-03" rms="3.8345399498939514e-01" purity="4.2775467038154602e-01" nType="-99"/>
          </Node>
          <Node pos="r" depth="2" NCoef="0" IVar="8" Cut="9.3365007638931274e-01" cType="1" res="-1.5628114342689514e-02" rms="3.7426450848579407e-01" purity="4.6149611473083496e-01" nType="0">
            <Node pos="l" depth="3" NCoef="0" IVar="-1" Cut="0.0000000000000000e+00" cType="1" res="-4.6181855723261833e-03" rms="3.7802913784980774e-01" purity="5.1256787776947021e-01" nType="-99"/>
            <Node pos="r" depth="3" NCoef="0" IVar="-1" Cut="0.0000000000000000e+00" cType="1" res="-3.0640294775366783e-02" rms="3.6071866750717163e-01" purity="2.9968404769897461e-01" nType="-99"/>
          </Node>
        </Node>
        <Node pos="r" depth="1" NCoef="0" IVar="2" Cut="3.2609539794921875e+02" cType="1" res="1.6688402742147446e-02" rms="3.8750740885734558e-01" purity="3.9279490709304810e-01" nType="0">
          <Node pos="l" depth="2" NCoef="0" IVar="-1" Cut="0.0000000000000000e+00" cType="1" res="2.2752273827791214e-02" rms="3.9844578504562378e-01" purity="3.6492830514907837e-01" nType="-99"/>
          <Node pos="r" depth="2" NCoef="0" IVar="-1" Cut="0.0000000000000000e+00" cType="1" res="9.5261604292318225e-04" rms="3.7669503688812256e-01" purity="4.1798105835914612e-01" nType="-99"/>
        </Node>
      </Node>
    </BinaryTree>
    <BinaryTree type="DecisionTree" boostWeight="1.0000000000000000e+00" itree="392">
      <Node pos="s" depth="0" NCoef="0" IVar="9" Cut="-1.9998743534088135e+00" cType="1" res="1.2892747763544321e-03" rms="3.8571196794509888e-01" purity="4.9826911091804504e-01" nType="0">
        <Node pos="l" depth="1" NCoef="0" IVar="7" Cut="-1.3326092064380646e-01" cType="1" res="-1.9902469590306282e-02" rms="3.6378222703933716e-01" purity="3.0768895149230957e-01" nType="0">
          <Node pos="l" depth="2" NCoef="0" IVar="-1" Cut="0.0000000000000000e+00" cType="1" res="-2.6761259883642197e-02" rms="3.5601779818534851e-01" purity="2.8297278285026550e-01" nType="-99"/>
          <Node pos="r" depth="2" NCoef="0" IVar="-1" Cut="0.0000000000000000e+00" cType="1" res="-1.8791678594425321e-03" rms="3.7094780802726746e-01" purity="3.3354455232620239e-01" nType="-99"/>
        </Node>
        <Node pos="r" depth="1" NCoef="0" IVar="7" Cut="1.1999891996383667e+00" cType="1" res="2.4523490574210882e-03" rms="3.8684594631195068e-01" purity="5.0872880220413208e-01" nType="0">
          <Node pos="l" depth="2" NCoef="0" IVar="2" Cut="4.9859042358398438e+02" cType="1" res="7.6182273915037513e-04" rms="3.8809072971343994e-01" purity="5.3783786296844482e-01" nType="0">
            <Node pos="l" depth="3" NCoef="0" IVar="-1" Cut="0.0000000000000000e+00" cType="1" res="2.0506870932877064e-03" rms="3.8692781329154968e-01" purity="5.2927494049072266e-01" nType="-99"/>
            <Node pos="r" depth="3" NCoef="0" IVar="-1" Cut="0.0000000000000000e+00" cType="1" res="-6.6005419939756393e-03" rms="3.9340677857398987e-01" purity="5.7874661684036255e-01" nType="-99"/>
          </Node>
          <Node pos="r" depth="2" NCoef="0" IVar="6" Cut="-1.1025571823120117e-01" cType="1" res="1.3076481409370899e-02" rms="3.7875691056251526e-01" purity="3.2579240202903748e-01" nType="0">
            <Node pos="l" depth="3" NCoef="0" IVar="-1" Cut="0.0000000000000000e+00" cType="1" res="2.5824133306741714e-02" rms="3.8533884286880493e-01" purity="3.3586806058883667e-01" nType="-99"/>
            <Node pos="r" depth="3" NCoef="0" IVar="-1" Cut="0.0000000000000000e+00" cType="1" res="-2.7657670434564352e-03" rms="3.7286490201950073e-01" purity="3.1828048825263977e-01" nType="-99"/>
          </Node>
        </Node>
      </Node>
    </BinaryTree>
    <BinaryTree type="DecisionTree" boostWeight="1.0000000000000000e+00" itree="393">
      <Node pos="s" depth="0" NCoef="0" IVar="9" Cut="-1.4665913581848145e+00" cType="1" res="8.8631385006010532e-04" rms="3.8678351044654846e-01" purity="4.9862605333328247e-01" nType="0">
        <Node pos="l" depth="1" NCoef="0" IVar="1" Cut="1.3112768554687500e+03" cType="1" res="1.9190406426787376e-02" rms="3.8924446702003479e-01" purity="4.0647941827774048e-01" nType="0">
          <Node pos="l" depth="2" NCoef="0" IVar="1" Cut="1.0434672851562500e+03" cType="1" res="3.5108793526887894e-02" rms="3.8525947928428650e-01" purity="2.9307931661605835e-01" nType="0">
            <Node pos="l" depth="3" NCoef="0" IVar="-1" Cut="0.0000000000000000e+00" cType="1" res="9.3032456934452057e-03" rms="3.2660204172134399e-01" purity="1.5443253517150879e-01" nType="-99"/>
            <Node pos="r" depth="3" NCoef="0" IVar="-1" Cut="0.0000000000000000e+00" cType="1" res="3.3301204442977905e-02" rms="4.2772749066352844e-01" purity="4.1104307770729065e-01" nType="-99"/>
          </Node>
          <Node pos="r" depth="2" NCoef="0" IVar="-1" Cut="0.0000000000000000e+00" cType="1" res="-5.4965200833976269e-03" rms="3.9459979534149170e-01" purity="6.0586339235305786e-01" nType="-99"/>
        </Node>
        <Node pos="r" depth="1" NCoef="0" IVar="7" Cut="-6.6662615537643433e-01" cType="1" res="-1.7237483989447355e-03" rms="3.8636070489883423e-01" purity="5.1176565885543823e-01" nType="0">
          <Node pos="l" depth="2" NCoef="0" IVar="5" Cut="7.2817321777343750e+01" cType="1" res="-1.4634047634899616e-02" rms="3.7837222218513489e-01" purity="4.1371729969978333e-01" nType="0">
            <Node pos="l" depth="3" NCoef="0" IVar="-1" Cut="0.0000000000000000e+00" cType="1" res="-1.8462305888533592e-02" rms="3.4776812791824341e-01" purity="2.2128291428089142e-01" nType="-99"/>
            <Node pos="r" depth="3" NCoef="0" IVar="-1" Cut="0.0000000000000000e+00" cType="1" res="-4.5395535416901112e-03" rms="3.9882236719131470e-01" purity="5.5245310068130493e-01" nType="-99"/>
          </Node>
          <Node pos="r" depth="2" NCoef="0" IVar="6" Cut="-8.8615655899047852e-01" cType="1" res="2.6264546904712915e-03" rms="3.8891899585723877e-01" purity="5.4480367898941040e-01" nType="0">
            <Node pos="l" depth="3" NCoef="0" IVar="-1" Cut="0.0000000000000000e+00" cType="1" res="-9.7357276827096939e-03" rms="3.7184053659439087e-01" purity="3.6653703451156616e-01" nType="-99"/>
            <Node pos="r" depth="3" NCoef="0" IVar="-1" Cut="0.0000000000000000e+00" cType="1" res="3.6047513131052256e-03" rms="3.9176389575004578e-01" purity="5.7605445384979248e-01" nType="-99"/>
          </Node>
        </Node>
      </Node>
    </BinaryTree>
    <BinaryTree type="DecisionTree" boostWeight="1.0000000000000000e+00" itree="394">
      <Node pos="s" depth="0" NCoef="0" IVar="4" Cut="2.8675219726562500e+02" cType="1" res="-2.3805743549019098e-03" rms="3.8554555177688599e-01" purity="4.9728694558143616e-01" nType="0">
        <Node pos="l" depth="1" NCoef="0" IVar="6" Cut="-1.7049120664596558e+00" cType="1" res="-3.2021221704781055e-03" rms="3.8673463463783264e-01" purity="4.8756429553031921e-01" nType="0">
          <Node pos="l" depth="2" NCoef="0" IVar="-1" Cut="0.0000000000000000e+00" cType="1" res="-2.6040213182568550e-02" rms="2.9300323128700256e-01" purity="1.5264052152633667e-01" nType="-99"/>
          <Node pos="r" depth="2" NCoef="0" IVar="6" Cut="-1.2758824825286865e+00" cType="1" res="-2.2727025207132101e-03" rms="3.9014008641242981e-01" purity="5.0158464908599854e-01" nType="0">
            <Node pos="l" depth="3" NCoef="0" IVar="-1" Cut="0.0000000000000000e+00" cType="1" res="1.0919125750660896e-02" rms="3.7222939729690552e-01" purity="3.0488392710685730e-01" nType="-99"/>
            <Node pos="r" depth="3" NCoef="0" IVar="-1" Cut="0.0000000000000000e+00" cType="1" res="-2.1476959809660912e-03" rms="3.9118590950965881e-01" purity="5.1362383365631104e-01" nType="-99"/>
          </Node>
        </Node>
        <Node pos="r" depth="1" NCoef="0" IVar="-1" Cut="0.0000000000000000e+00" cType="1" res="2.0209558308124542e-02" rms="3.4246131777763367e-01" purity="8.2120507955551147e-01" nType="-99"/>
      </Node>
    </BinaryTree>
    <BinaryTree type="DecisionTree" boostWeight="1.0000000000000000e+00" itree="395">
      <Node pos="s" depth="0" NCoef="0" IVar="9" Cut="1.2000160217285156e+00" cType="1" res="-2.0747889357153326e-04" rms="3.8665926456451416e-01" purity="4.9584111571311951e-01" nType="0">
        <Node pos="l" depth="1" NCoef="0" IVar="9" Cut="1.0095210075378418e+00" cType="1" res="2.3941274266690016e-03" rms="3.8836377859115601e-01" purity="5.1408869028091431e-01" nType="0">
          <Node pos="l" depth="2" NCoef="0" IVar="5" Cut="8.5091705322265625e+01" cType="1" res="3.6436959635466337e-04" rms="3.8793006539344788e-01" purity="5.1393568515777588e-01" nType="0">
            <Node pos="l" depth="3" NCoef="0" IVar="-1" Cut="0.0000000000000000e+00" cType="1" res="4.0659853257238865e-03" rms="3.9393368363380432e-01" purity="3.5723069310188293e-01" nType="-99"/>
            <Node pos="r" depth="3" NCoef="0" IVar="-1" Cut="0.0000000000000000e+00" cType="1" res="-4.6471394598484039e-03" rms="3.8069987297058105e-01" purity="6.9640171527862549e-01" nType="-99"/>
          </Node>
          <Node pos="r" depth="2" NCoef="0" IVar="-1" Cut="0.0000000000000000e+00" cType="1" res="2.5130826979875565e-02" rms="3.9414978027343750e-01" purity="5.1674193143844604e-01" nType="-99"/>
        </Node>
        <Node pos="r" depth="1" NCoef="0" IVar="3" Cut="1.3128511047363281e+02" cType="1" res="-1.2844086624681950e-02" rms="3.7801611423492432e-01" purity="4.0720814466476440e-01" nType="0">
          <Node pos="l" depth="2" NCoef="0" IVar="-1" Cut="0.0000000000000000e+00" cType="1" res="1.2581891380250454e-02" rms="3.4764364361763000e-01" purity="1.9509501755237579e-01" nType="-99"/>
          <Node pos="r" depth="2" NCoef="0" IVar="8" Cut="-9.3280839920043945e-01" cType="1" res="-2.0631866529583931e-02" rms="3.8588809967041016e-01" purity="4.6771147847175598e-01" nType="0">
            <Node pos="l" depth="3" NCoef="0" IVar="-1" Cut="0.0000000000000000e+00" cType="1" res="2.1398460958153009e-03" rms="3.8838464021682739e-01" purity="4.0569096803665161e-01" nType="-99"/>
            <Node pos="r" depth="3" NCoef="0" IVar="-1" Cut="0.0000000000000000e+00" cType="1" res="-1.7176061868667603e-02" rms="3.8503995537757874e-01" purity="4.8302489519119263e-01" nType="-99"/>
          </Node>
        </Node>
      </Node>
    </BinaryTree>
    <BinaryTree type="DecisionTree" boostWeight="1.0000000000000000e+00" itree="396">
      <Node pos="s" depth="0" NCoef="0" IVar="1" Cut="1.1048668212890625e+03" cType="1" res="-2.1750808227807283e-03" rms="3.8440680503845215e-01" purity="4.9805074930191040e-01" nType="0">
        <Node pos="l" depth="1" NCoef="0" IVar="4" Cut="8.5063819885253906e+01" cType="1" res="-1.0716459713876247e-02" rms="3.7321710586547852e-01" purity="2.1862240135669708e-01" nType="0">
          <Node pos="l" depth="2" NCoef="0" IVar="8" Cut="1.3338138163089752e-01" cType="1" res="1.6449855174869299e-03" rms="3.2366797327995300e-01" purity="1.4140816032886505e-01" nType="0">
            <Node pos="l" depth="3" NCoef="0" IVar="-1" Cut="0.0000000000000000e+00" cType="1" res="1.2587678618729115e-02" rms="3.4055197238922119e-01" purity="1.6121780872344971e-01" nType="-99"/>
            <Node pos="r" depth="3" NCoef="0" IVar="-1" Cut="0.0000000000000000e+00" cType="1" res="-1.3197386637330055e-02" rms="3.0087879300117493e-01" purity="1.1697862297296524e-01" nType="-99"/>
          </Node>
          <Node pos="r" depth="2" NCoef="0" IVar="7" Cut="6.6615450382232666e-01" cType="1" res="-1.9454665482044220e-02" rms="4.0437066555023193e-01" purity="2.7320456504821777e-01" nType="0">
            <Node pos="l" depth="3" NCoef="0" IVar="-1" Cut="0.0000000000000000e+00" cType="1" res="-1.6880212351679802e-02" rms="4.1031822562217712e-01" purity="2.8825560212135315e-01" nType="-99"/>
            <Node pos="r" depth="3" NCoef="0" IVar="-1" Cut="0.0000000000000000e+00" cType="1" res="3.3104354515671730e-03" rms="3.8904795050621033e-01" purity="2.3807074129581451e-01" nType="-99"/>
          </Node>
        </Node>
        <Node pos="r" depth="1" NCoef="0" IVar="0" Cut="4.4704034423828125e+02" cType="1" res="1.7945296131074429e-03" rms="3.8943403959274292e-01" purity="6.2791520357131958e-01" nType="0">
          <Node pos="l" depth="2" NCoef="0" IVar="1" Cut="1.1851677246093750e+03" cType="1" res="8.4562031552195549e-03" rms="4.1499483585357666e-01" purity="5.0275236368179321e-01" nType="0">
            <Node pos="l" depth="3" NCoef="0" IVar="-1" Cut="0.0000000000000000e+00" cType="1" res="-7.7539319172501564e-03" rms="4.1569119691848755e-01" purity="3.8140490651130676e-01" nType="-99"/>
            <Node pos="r" depth="3" NCoef="0" IVar="-1" Cut="0.0000000000000000e+00" cType="1" res="8.9499177411198616e-03" rms="4.1453731060028076e-01" purity="5.4039263725280762e-01" nType="-99"/>
          </Node>
          <Node pos="r" depth="2" NCoef="0" IVar="6" Cut="-1.1192963123321533e+00" cType="1" res="-3.5204531159251928e-03" rms="3.6768200993537903e-01" purity="7.2777581214904785e-01" nType="0">
            <Node pos="l" depth="3" NCoef="0" IVar="-1" Cut="0.0000000000000000e+00" cType="1" res="-2.3903563618659973e-02" rms="3.9493885636329651e-01" purity="4.8751011490821838e-01" nType="-99"/>
            <Node pos="r" depth="3" NCoef="0" IVar="-1" Cut="0.0000000000000000e+00" cType="1" res="-2.0410376600921154e-04" rms="3.6495265364646912e-01" purity="7.4941951036453247e-01" nType="-99"/>
          </Node>
        </Node>
      </Node>
    </BinaryTree>
    <BinaryTree type="DecisionTree" boostWeight="1.0000000000000000e+00" itree="397">
      <Node pos="s" depth="0" NCoef="0" IVar="7" Cut="1.3334213197231293e-01" cType="1" res="-3.3850616309791803e-03" rms="3.8363862037658691e-01" purity="4.9721896648406982e-01" nType="0">
        <Node pos="l" depth="1" NCoef="0" IVar="7" Cut="-6.3572609797120094e-03" cType="1" res="1.7966892337426543e-03" rms="3.8584935665130615e-01" purity="5.0983601808547974e-01" nType="0">
          <Node pos="l" depth="2" NCoef="0" IVar="8" Cut="1.7331993579864502e+00" cType="1" res="1.2184559454908594e-04" rms="3.8634181022644043e-01" purity="4.9490979313850403e-01" nType="0">
            <Node pos="l" depth="3" NCoef="0" IVar="-1" Cut="0.0000000000000000e+00" cType="1" res="1.0943925008177757e-03" rms="3.8829311728477478e-01" purity="5.0996476411819458e-01" nType="-99"/>
            <Node pos="r" depth="3" NCoef="0" IVar="-1" Cut="0.0000000000000000e+00" cType="1" res="-1.8077075481414795e-02" rms="3.5215836763381958e-01" purity="2.4998587369918823e-01" nType="-99"/>
          </Node>
          <Node pos="r" depth="2" NCoef="0" IVar="-1" Cut="0.0000000000000000e+00" cType="1" res="1.1070366017520428e-02" rms="3.8111051917076111e-01" purity="6.4278465509414673e-01" nType="-99"/>
        </Node>
        <Node pos="r" depth="1" NCoef="0" IVar="5" Cut="1.2946496582031250e+02" cType="1" res="-9.7802104428410530e-03" rms="3.8079527020454407e-01" purity="4.8164746165275574e-01" nType="0">
          <Node pos="l" depth="2" NCoef="0" IVar="9" Cut="1.4667192697525024e+00" cType="1" res="-1.3358909636735916e-02" rms="3.8914278149604797e-01" purity="4.1161301732063293e-01" nType="0">
            <Node pos="l" depth="3" NCoef="0" IVar="-1" Cut="0.0000000000000000e+00" cType="1" res="-1.0479500517249107e-02" rms="3.9158356189727783e-01" purity="4.2052674293518066e-01" nType="-99"/>
            <Node pos="r" depth="3" NCoef="0" IVar="-1" Cut="0.0000000000000000e+00" cType="1" res="1.9889047835022211e-03" rms="3.7555959820747375e-01" purity="3.6449900269508362e-01" nType="-99"/>
          </Node>
          <Node pos="r" depth="2" NCoef="0" IVar="6" Cut="-5.2679151296615601e-02" cType="1" res="7.0948954671621323e-03" rms="3.3816203474998474e-01" purity="8.1189000606536865e-01" nType="0">
            <Node pos="l" depth="3" NCoef="0" IVar="-1" Cut="0.0000000000000000e+00" cType="1" res="-7.3729828000068665e-03" rms="3.4539633989334106e-01" purity="7.8603130578994751e-01" nType="-99"/>
            <Node pos="r" depth="3" NCoef="0" IVar="-1" Cut="0.0000000000000000e+00" cType="1" res="1.7022967338562012e-02" rms="3.3168870210647583e-01" purity="8.3263349533081055e-01" nType="-99"/>
          </Node>
        </Node>
      </Node>
    </BinaryTree>
    <BinaryTree type="DecisionTree" boostWeight="1.0000000000000000e+00" itree="398">
      <Node pos="s" depth="0" NCoef="0" IVar="9" Cut="-6.6665655374526978e-01" cType="1" res="-2.9254835098981857e-03" rms="3.8433808088302612e-01" purity="4.9397107958793640e-01" nType="0">
        <Node pos="l" depth="1" NCoef="0" IVar="1" Cut="1.0867282714843750e+03" cType="1" res="5.4122712463140488e-03" rms="3.8301697373390198e-01" purity="4.6564033627510071e-01" nType="0">
          <Node pos="l" depth="2" NCoef="0" IVar="6" Cut="-3.7966272234916687e-01" cType="1" res="-7.6959691941738129e-03" rms="3.5176357626914978e-01" purity="1.9203431904315948e-01" nType="0">
            <Node pos="l" depth="3" NCoef="0" IVar="-1" Cut="0.0000000000000000e+00" cType="1" res="4.4619631953537464e-03" rms="3.3359605073928833e-01" purity="1.6771876811981201e-01" nType="-99"/>
            <Node pos="r" depth="3" NCoef="0" IVar="-1" Cut="0.0000000000000000e+00" cType="1" res="-1.2319395318627357e-02" rms="3.6560174822807312e-01" purity="2.1188993752002716e-01" nType="-99"/>
          </Node>
          <Node pos="r" depth="2" NCoef="0" IVar="5" Cut="7.9216094970703125e+01" cType="1" res="1.1416658759117126e-02" rms="3.9636641740798950e-01" purity="5.9096884727478027e-01" nType="0">
            <Node pos="l" depth="3" NCoef="0" IVar="-1" Cut="0.0000000000000000e+00" cType="1" res="1.3932292349636555e-02" rms="4.1566541790962219e-01" purity="4.5207068324089050e-01" nType="-99"/>
            <Node pos="r" depth="3" NCoef="0" IVar="-1" Cut="0.0000000000000000e+00" cType="1" res="2.2298586554825306e-03" rms="3.8341858983039856e-01" purity="6.7897158861160278e-01" nType="-99"/>
          </Node>
        </Node>
        <Node pos="r" depth="1" NCoef="0" IVar="8" Cut="1.4665529727935791e+00" cType="1" res="-6.5613817423582077e-03" rms="3.8485619425773621e-01" purity="5.0632548332214355e-01" nType="0">
          <Node pos="l" depth="2" NCoef="0" IVar="9" Cut="4.8891115188598633e-01" cType="1" res="-9.5501272007822990e-03" rms="3.8633409142494202e-01" purity="5.2833122014999390e-01" nType="0">
            <Node pos="l" depth="3" NCoef="0" IVar="-1" Cut="0.0000000000000000e+00" cType="1" res="-2.8983105439692736e-03" rms="3.8859993219375610e-01" purity="5.6898325681686401e-01" nType="-99"/>
            <Node pos="r" depth="3" NCoef="0" IVar="-1" Cut="0.0000000000000000e+00" cType="1" res="-9.8807374015450478e-03" rms="3.8390183448791504e-01" purity="4.8626911640167236e-01" nType="-99"/>
          </Node>
          <Node pos="r" depth="2" NCoef="0" IVar="5" Cut="7.2915130615234375e+01" cType="1" res="1.6808336600661278e-02" rms="3.7227192521095276e-01" purity="3.3425703644752502e-01" nType="0">
            <Node pos="l" depth="3" NCoef="0" IVar="-1" Cut="0.0000000000000000e+00" cType="1" res="-2.7748310822062194e-04" rms="3.3063384890556335e-01" purity="1.8025949597358704e-01" nType="-99"/>
            <Node pos="r" depth="3" NCoef="0" IVar="-1" Cut="0.0000000000000000e+00" cType="1" res="1.9793622195720673e-02" rms="4.0587106347084045e-01" purity="4.7450733184814453e-01" nType="-99"/>
          </Node>
        </Node>
      </Node>
    </BinaryTree>
    <BinaryTree type="DecisionTree" boostWeight="1.0000000000000000e+00" itree="399">
      <Node pos="s" depth="0" NCoef="0" IVar="6" Cut="1.4772684574127197e+00" cType="1" res="4.3236901983618736e-03" rms="3.8572582602500916e-01" purity="5.0016993284225464e-01" nType="0">
        <Node pos="l" depth="1" NCoef="0" IVar="8" Cut="-1.3338907063007355e-01" cType="1" res="3.0045015737414360e-03" rms="3.8892030715942383e-01" purity="5.2011096477508545e-01" nType="0">
          <Node pos="l" depth="2" NCoef="0" IVar="9" Cut="-6.6667217016220093e-01" cType="1" res="7.8950468450784683e-03" rms="3.9050734043121338e-01" purity="5.1462686061859131e-01" nType="0">
            <Node pos="l" depth="3" NCoef="0" IVar="-1" Cut="0.0000000000000000e+00" cType="1" res="-1.7397609772160649e-03" rms="3.8534608483314514e-01" purity="4.4432711601257324e-01" nType="-99"/>
            <Node pos="r" depth="3" NCoef="0" IVar="-1" Cut="0.0000000000000000e+00" cType="1" res="8.4927212446928024e-03" rms="3.9295163750648499e-01" purity="5.4970496892929077e-01" nType="-99"/>
          </Node>
          <Node pos="r" depth="2" NCoef="0" IVar="7" Cut="-3.9988470077514648e-01" cType="1" res="-1.2187766842544079e-03" rms="3.8749492168426514e-01" purity="5.2484685182571411e-01" nType="0">
            <Node pos="l" depth="3" NCoef="0" IVar="-1" Cut="0.0000000000000000e+00" cType="1" res="-8.7468633428215981e-03" rms="3.8598382472991943e-01" purity="4.6022102236747742e-01" nType="-99"/>
            <Node pos="r" depth="3" NCoef="0" IVar="-1" Cut="0.0000000000000000e+00" cType="1" res="2.6642496231943369e-03" rms="3.8803791999816895e-01" purity="5.5317598581314087e-01" nType="-99"/>
          </Node>
        </Node>
        <Node pos="r" depth="1" NCoef="0" IVar="6" Cut="1.9181612730026245e+00" cType="1" res="2.1709505468606949e-02" rms="3.4036180377006531e-01" purity="2.3736302554607391e-01" nType="0">
          <Node pos="l" depth="2" NCoef="0" IVar="-1" Cut="0.0000000000000000e+00" cType="1" res="3.0393965542316437e-02" rms="3.6832979321479797e-01" purity="2.9449898004531860e-01" nType="-99"/>
          <Node pos="r" depth="2" NCoef="0" IVar="-1" Cut="0.0000000000000000e+00" cType="1" res="-5.6895585730671883e-03" rms="2.8836783766746521e-01" purity="1.4648303389549255e-01" nType="-99"/>
        </Node>
      </Node>
    </BinaryTree>
    <BinaryTree type="DecisionTree" boostWeight="1.0000000000000000e+00" itree="400">
      <Node pos="s" depth="0" NCoef="0" IVar="8" Cut="1.9999496936798096e+00" cType="1" res="2.6581840938888490e-04" rms="3.8483580946922302e-01" purity="4.9875006079673767e-01" nType="0">
        <Node pos="l" depth="1" NCoef="0" IVar="8" Cut="-1.6571377515792847e+00" cType="1" res="-8.3810195792466402e-04" rms="3.8598221540451050e-01" purity="5.0941658020019531e-01" nType="0">
          <Node pos="l" depth="2" NCoef="0" IVar="8" Cut="-2.0925049781799316e+00" cType="1" res="2.1493067964911461e-02" rms="3.7700545787811279e-01" purity="3.2275900244712830e-01" nType="0">
            <Node pos="l" depth="3" NCoef="0" IVar="-1" Cut="0.0000000000000000e+00" cType="1" res="-3.0348426662385464e-04" rms="3.4802207350730896e-01" purity="2.4767054617404938e-01" nType="-99"/>
            <Node pos="r" depth="3" NCoef="0" IVar="-1" Cut="0.0000000000000000e+00" cType="1" res="2.5365293025970459e-02" rms="3.9696422219276428e-01" purity="3.8026967644691467e-01" nType="-99"/>
          </Node>
          <Node pos="r" depth="2" NCoef="0" IVar="9" Cut="-1.3331869244575500e-01" cType="1" res="-2.8794680256396532e-03" rms="3.8672807812690735e-01" purity="5.2647960186004639e-01" nType="0">
            <Node pos="l" depth="3" NCoef="0" IVar="-1" Cut="0.0000000000000000e+00" cType="1" res="-5.1845428533852100e-03" rms="3.8631862401962280e-01" purity="5.2132105827331543e-01" nType="-99"/>
            <Node pos="r" depth="3" NCoef="0" IVar="-1" Cut="0.0000000000000000e+00" cType="1" res="8.9966400992125273e-04" rms="3.8702034950256348e-01" purity="5.3080701828002930e-01" nType="-99"/>
          </Node>
        </Node>
        <Node pos="r" depth="1" NCoef="0" IVar="-1" Cut="0.0000000000000000e+00" cType="1" res="1.8912803381681442e-02" rms="3.5853189229965210e-01" purity="2.6981404423713684e-01" nType="-99"/>
      </Node>
    </BinaryTree>
    <BinaryTree type="DecisionTree" boostWeight="1.0000000000000000e+00" itree="401">
      <Node pos="s" depth="0" NCoef="0" IVar="7" Cut="1.3339626789093018e-01" cType="1" res="1.4426220441237092e-03" rms="3.8693392276763916e-01" purity="4.9899786710739136e-01" nType="0">
        <Node pos="l" depth="1" NCoef="0" IVar="3" Cut="3.3674563598632812e+02" cType="1" res="6.4816768281161785e-03" rms="3.8746407628059387e-01" purity="5.1551514863967896e-01" nType="0">
          <Node pos="l" depth="2" NCoef="0" IVar="9" Cut="1.3333213329315186e-01" cType="1" res="4.2665544897317886e-03" rms="3.8865691423416138e-01" purity="4.9086573719978333e-01" nType="0">
            <Node pos="l" depth="3" NCoef="0" IVar="-1" Cut="0.0000000000000000e+00" cType="1" res="-1.0181552497670054e-03" rms="3.8421058654785156e-01" purity="4.8168939352035522e-01" nType="-99"/>
            <Node pos="r" depth="3" NCoef="0" IVar="-1" Cut="0.0000000000000000e+00" cType="1" res="8.0445557832717896e-03" rms="3.9457181096076965e-01" purity="5.0353157520294189e-01" nType="-99"/>
          </Node>
          <Node pos="r" depth="2" NCoef="0" IVar="4" Cut="1.9251368713378906e+02" cType="1" res="2.4522801861166954e-02" rms="3.7712439894676208e-01" purity="7.1627289056777954e-01" nType="0">
            <Node pos="l" depth="3" NCoef="0" IVar="-1" Cut="0.0000000000000000e+00" cType="1" res="2.8051927685737610e-02" rms="4.1236805915832520e-01" purity="6.3495463132858276e-01" nType="-99"/>
            <Node pos="r" depth="3" NCoef="0" IVar="-1" Cut="0.0000000000000000e+00" cType="1" res="2.1751855092588812e-04" rms="3.3613702654838562e-01" purity="7.9828703403472900e-01" nType="-99"/>
          </Node>
        </Node>
        <Node pos="r" depth="1" NCoef="0" IVar="8" Cut="-1.4665499925613403e+00" cType="1" res="-4.8061101697385311e-03" rms="3.8618415594100952e-01" purity="4.7851541638374329e-01" nType="0">
          <Node pos="l" depth="2" NCoef="0" IVar="-1" Cut="0.0000000000000000e+00" cType="1" res="-1.9204782322049141e-02" rms="3.6943823099136353e-01" purity="2.8143933415412903e-01" nType="-99"/>
          <Node pos="r" depth="2" NCoef="0" IVar="8" Cut="1.5808095932006836e+00" cType="1" res="-2.6440559886395931e-03" rms="3.8773131370544434e-01" purity="4.9797457456588745e-01" nType="0">
            <Node pos="l" depth="3" NCoef="0" IVar="-1" Cut="0.0000000000000000e+00" cType="1" res="2.1765817655250430e-04" rms="3.9222559332847595e-01" purity="5.2786606550216675e-01" nType="-99"/>
            <Node pos="r" depth="3" NCoef="0" IVar="-1" Cut="0.0000000000000000e+00" cType="1" res="-1.9272657111287117e-02" rms="3.4993815422058105e-01" purity="2.6539215445518494e-01" nType="-99"/>
          </Node>
        </Node>
      </Node>
    </BinaryTree>
    <BinaryTree type="DecisionTree" boostWeight="1.0000000000000000e+00" itree="402">
      <Node pos="s" depth="0" NCoef="0" IVar="7" Cut="1.7333302497863770e+00" cType="1" res="1.1097628157585859e-03" rms="3.8589066267013550e-01" purity="4.9917063117027283e-01" nType="0">
        <Node pos="l" depth="1" NCoef="0" IVar="5" Cut="7.8109680175781250e+01" cType="1" res="2.4981035385280848e-03" rms="3.8936451077461243e-01" purity="5.1760464906692505e-01" nType="0">
          <Node pos="l" depth="2" NCoef="0" IVar="8" Cut="-9.3325716257095337e-01" cType="1" res="8.4217991679906845e-03" rms="3.9386016130447388e-01" purity="3.3800128102302551e-01" nType="0">
            <Node pos="l" depth="3" NCoef="0" IVar="-1" Cut="0.0000000000000000e+00" cType="1" res="-6.3405875116586685e-03" rms="3.6221662163734436e-01" purity="2.5209236145019531e-01" nType="-99"/>
            <Node pos="r" depth="3" NCoef="0" IVar="-1" Cut="0.0000000000000000e+00" cType="1" res="8.6124530062079430e-03" rms="4.0312999486923218e-01" purity="3.6496719717979431e-01" nType="-99"/>
          </Node>
          <Node pos="r" depth="2" NCoef="0" IVar="8" Cut="-1.3344998657703400e-01" cType="1" res="-2.5420293677598238e-03" rms="3.8542646169662476e-01" purity="6.7041879892349243e-01" nType="0">
            <Node pos="l" depth="3" NCoef="0" IVar="-1" Cut="0.0000000000000000e+00" cType="1" res="-6.9267842918634415e-03" rms="3.9098441600799561e-01" purity="6.4848405122756958e-01" nType="-99"/>
            <Node pos="r" depth="3" NCoef="0" IVar="-1" Cut="0.0000000000000000e+00" cType="1" res="2.5584790855646133e-03" rms="3.8081482052803040e-01" purity="6.8792647123336792e-01" nType="-99"/>
          </Node>
        </Node>
        <Node pos="r" depth="1" NCoef="0" IVar="8" Cut="4.0004429221153259e-01" cType="1" res="-2.1967353299260139e-02" rms="3.2184135913848877e-01" purity="1.9275934994220734e-01" nType="0">
          <Node pos="l" depth="2" NCoef="0" IVar="-1" Cut="0.0000000000000000e+00" cType="1" res="-3.2900918275117874e-02" rms="3.1152766942977905e-01" purity="1.8363182246685028e-01" nType="-99"/>
          <Node pos="r" depth="2" NCoef="0" IVar="-1" Cut="0.0000000000000000e+00" cType="1" res="1.3929762644693255e-04" rms="3.3218589425086975e-01" purity="2.0347936451435089e-01" nType="-99"/>
        </Node>
      </Node>
    </BinaryTree>
    <BinaryTree type="DecisionTree" boostWeight="1.0000000000000000e+00" itree="403">
      <Node pos="s" depth="0" NCoef="0" IVar="4" Cut="9.7379203796386719e+01" cType="1" res="6.1653763987123966e-04" rms="3.8587582111358643e-01" purity="4.9801427125930786e-01" nType="0">
        <Node pos="l" depth="1" NCoef="0" IVar="8" Cut="3.9985111355781555e-01" cType="1" res="1.1411352083086967e-02" rms="3.7298429012298584e-01" purity="2.4924820661544800e-01" nType="0">
          <Node pos="l" depth="2" NCoef="0" IVar="2" Cut="4.5827624511718750e+02" cType="1" res="2.1040593273937702e-03" rms="3.7537679076194763e-01" purity="2.4945789575576782e-01" nType="0">
            <Node pos="l" depth="3" NCoef="0" IVar="-1" Cut="0.0000000000000000e+00" cType="1" res="5.8206869289278984e-03" rms="3.7536385655403137e-01" purity="2.4561612308025360e-01" nType="-99"/>
            <Node pos="r" depth="3" NCoef="0" IVar="-1" Cut="0.0000000000000000e+00" cType="1" res="-1.7615772783756256e-02" rms="3.7406060099601746e-01" purity="2.6810690760612488e-01" nType="-99"/>
          </Node>
          <Node pos="r" depth="2" NCoef="0" IVar="6" Cut="7.0745849609375000e-01" cType="1" res="2.5679649785161018e-02" rms="3.6883068084716797e-01" purity="2.4892674386501312e-01" nType="0">
            <Node pos="l" depth="3" NCoef="0" IVar="-1" Cut="0.0000000000000000e+00" cType="1" res="2.7985764667391777e-02" rms="3.9493152499198914e-01" purity="3.0147323012351990e-01" nType="-99"/>
            <Node pos="r" depth="3" NCoef="0" IVar="-1" Cut="0.0000000000000000e+00" cType="1" res="-1.0813897475600243e-02" rms="2.9658266901969910e-01" purity="1.2711778283119202e-01" nType="-99"/>
          </Node>
        </Node>
        <Node pos="r" depth="1" NCoef="0" IVar="8" Cut="-1.4666607379913330e+00" cType="1" res="-3.9781616069376469e-03" rms="3.9114373922348022e-01" purity="6.0389888286590576e-01" nType="0">
          <Node pos="l" depth="2" NCoef="0" IVar="9" Cut="-1.3325373828411102e-01" cType="1" res="-2.2763313725590706e-02" rms="3.8721379637718201e-01" purity="3.9145508408546448e-01" nType="0">
            <Node pos="l" depth="3" NCoef="0" IVar="-1" Cut="0.0000000000000000e+00" cType="1" res="-6.9064977578818798e-03" rms="3.8136464357376099e-01" purity="3.6898085474967957e-01" nType="-99"/>
            <Node pos="r" depth="3" NCoef="0" IVar="-1" Cut="0.0000000000000000e+00" cType="1" res="-2.2628298029303551e-02" rms="3.9325699210166931e-01" purity="4.1676640510559082e-01" nType="-99"/>
          </Node>
          <Node pos="r" depth="2" NCoef="0" IVar="6" Cut="1.2100057601928711e+00" cType="1" res="-2.1045331377536058e-03" rms="3.9148411154747009e-01" purity="6.2508797645568848e-01" nType="0">
            <Node pos="l" depth="3" NCoef="0" IVar="-1" Cut="0.0000000000000000e+00" cType="1" res="-7.5625910540111363e-05" rms="3.9366057515144348e-01" purity="6.5230393409729004e-01" nType="-99"/>
            <Node pos="r" depth="3" NCoef="0" IVar="-1" Cut="0.0000000000000000e+00" cType="1" res="-1.4626380056142807e-02" rms="3.6840301752090454e-01" purity="3.5268396139144897e-01" nType="-99"/>
          </Node>
        </Node>
      </Node>
    </BinaryTree>
    <BinaryTree type="DecisionTree" boostWeight="1.0000000000000000e+00" itree="404">
      <Node pos="s" depth="0" NCoef="0" IVar="8" Cut="1.4666249752044678e+00" cType="1" res="2.2993157617747784e-03" rms="3.8481214642524719e-01" purity="5.0050091743469238e-01" nType="0">
        <Node pos="l" depth="1" NCoef="0" IVar="9" Cut="-1.9999783039093018e+00" cType="1" res="4.0288618765771389e-03" rms="3.8690680265426636e-01" purity="5.2271521091461182e-01" nType="0">
          <Node pos="l" depth="2" NCoef="0" IVar="6" Cut="-7.9340919852256775e-02" cType="1" res="2.4690167978405952e-02" rms="3.7961208820343018e-01" purity="3.7021550536155701e-01" nType="0">
            <Node pos="l" depth="3" NCoef="0" IVar="-1" Cut="0.0000000000000000e+00" cType="1" res="1.2123569846153259e-02" rms="3.7548044323921204e-01" purity="3.4447765350341797e-01" nType="-99"/>
            <Node pos="r" depth="3" NCoef="0" IVar="-1" Cut="0.0000000000000000e+00" cType="1" res="2.1473543718457222e-02" rms="3.8363459706306458e-01" purity="3.9656621217727661e-01" nType="-99"/>
          </Node>
          <Node pos="r" depth="2" NCoef="0" IVar="3" Cut="4.1922985839843750e+02" cType="1" res="2.7999312151223421e-03" rms="3.8730162382125854e-01" purity="5.3178590536117554e-01" nType="0">
            <Node pos="l" depth="3" NCoef="0" IVar="-1" Cut="0.0000000000000000e+00" cType="1" res="2.5879247114062309e-03" rms="3.8756161928176880e-01" purity="5.2670431137084961e-01" nType="-99"/>
            <Node pos="r" depth="3" NCoef="0" IVar="-1" Cut="0.0000000000000000e+00" cType="1" res="-1.8301323056221008e-02" rms="3.7888309359550476e-01" purity="6.7077624797821045e-01" nType="-99"/>
          </Node>
        </Node>
        <Node pos="r" depth="1" NCoef="0" IVar="6" Cut="-6.2892633676528931e-01" cType="1" res="-1.2828356586396694e-02" rms="3.6563190817832947e-01" purity="3.0620113015174866e-01" nType="0">
          <Node pos="l" depth="2" NCoef="0" IVar="-1" Cut="0.0000000000000000e+00" cType="1" res="1.3310053385794163e-02" rms="3.5852569341659546e-01" purity="2.5663730502128601e-01" nType="-99"/>
          <Node pos="r" depth="2" NCoef="0" IVar="6" Cut="1.8723504245281219e-01" cType="1" res="-2.2757783532142639e-02" rms="3.6750292778015137e-01" purity="3.2314068078994751e-01" nType="0">
            <Node pos="l" depth="3" NCoef="0" IVar="-1" Cut="0.0000000000000000e+00" cType="1" res="-2.2122496739029884e-02" rms="3.9572978019714355e-01" purity="4.0481075644493103e-01" nType="-99"/>
            <Node pos="r" depth="3" NCoef="0" IVar="-1" Cut="0.0000000000000000e+00" cType="1" res="-1.0874071158468723e-02" rms="3.5048627853393555e-01" purity="2.7751895785331726e-01" nType="-99"/>
          </Node>
        </Node>
      </Node>
    </BinaryTree>
    <BinaryTree type="DecisionTree" boostWeight="1.0000000000000000e+00" itree="405">
      <Node pos="s" depth="0" NCoef="0" IVar="9" Cut="-1.4665282964706421e+00" cType="1" res="3.6976272240281105e-03" rms="3.8492077589035034e-01" purity="5.0552064180374146e-01" nType="0">
        <Node pos="l" depth="1" NCoef="0" IVar="5" Cut="7.4440597534179688e+01" cType="1" res="-1.3873958028852940e-02" rms="3.7926527857780457e-01" purity="3.7392723560333252e-01" nType="0">
          <Node pos="l" depth="2" NCoef="0" IVar="0" Cut="3.9738311767578125e+02" cType="1" res="3.7203333340585232e-04" rms="3.6338892579078674e-01" purity="2.6011940836906433e-01" nType="0">
            <Node pos="l" depth="3" NCoef="0" IVar="-1" Cut="0.0000000000000000e+00" cType="1" res="2.0765660330653191e-02" rms="3.4081956744194031e-01" purity="1.7965498566627502e-01" nType="-99"/>
            <Node pos="r" depth="3" NCoef="0" IVar="-1" Cut="0.0000000000000000e+00" cType="1" res="-1.7104780301451683e-02" rms="3.8860049843788147e-01" purity="3.6342629790306091e-01" nType="-99"/>
          </Node>
          <Node pos="r" depth="2" NCoef="0" IVar="9" Cut="-1.9744381904602051e+00" cType="1" res="-2.8488449752330780e-02" rms="3.9435517787933350e-01" purity="4.9067887663841248e-01" nType="0">
            <Node pos="l" depth="3" NCoef="0" IVar="-1" Cut="0.0000000000000000e+00" cType="1" res="-3.1066222116351128e-02" rms="3.9145711064338684e-01" purity="4.3574920296669006e-01" nType="-99"/>
            <Node pos="r" depth="3" NCoef="0" IVar="-1" Cut="0.0000000000000000e+00" cType="1" res="-7.3452335782349110e-03" rms="3.9568093419075012e-01" purity="5.3175443410873413e-01" nType="-99"/>
          </Node>
        </Node>
        <Node pos="r" depth="1" NCoef="0" IVar="9" Cut="5.6513613462448120e-01" cType="1" res="6.0601877048611641e-03" rms="3.8561379909515381e-01" purity="5.2321380376815796e-01" nType="0">
          <Node pos="l" depth="2" NCoef="0" IVar="6" Cut="-1.4323253631591797e+00" cType="1" res="1.1307349428534508e-02" rms="3.8838183879852295e-01" purity="5.5955630540847778e-01" nType="0">
            <Node pos="l" depth="3" NCoef="0" IVar="-1" Cut="0.0000000000000000e+00" cType="1" res="2.7164250612258911e-02" rms="3.7247774004936218e-01" purity="2.9802232980728149e-01" nType="-99"/>
            <Node pos="r" depth="3" NCoef="0" IVar="-1" Cut="0.0000000000000000e+00" cType="1" res="6.2739551067352295e-03" rms="3.8946911692619324e-01" purity="5.7877397537231445e-01" nType="-99"/>
          </Node>
          <Node pos="r" depth="2" NCoef="0" IVar="1" Cut="1.3396345214843750e+03" cType="1" res="-3.0047714244574308e-03" rms="3.8061395287513733e-01" purity="4.6042871475219727e-01" nType="0">
            <Node pos="l" depth="3" NCoef="0" IVar="-1" Cut="0.0000000000000000e+00" cType="1" res="-7.1748816408216953e-03" rms="3.8270828127861023e-01" purity="3.0109885334968567e-01" nType="-99"/>
            <Node pos="r" depth="3" NCoef="0" IVar="-1" Cut="0.0000000000000000e+00" cType="1" res="6.0210479423403740e-03" rms="3.7715482711791992e-01" purity="6.9875752925872803e-01" nType="-99"/>
          </Node>
        </Node>
      </Node>
    </BinaryTree>
    <BinaryTree type="DecisionTree" boostWeight="1.0000000000000000e+00" itree="406">
      <Node pos="s" depth="0" NCoef="0" IVar="7" Cut="2.0000073909759521e+00" cType="1" res="-1.5420726267620921e-03" rms="3.8287630677223206e-01" purity="4.9931257963180542e-01" nType="0">
        <Node pos="l" depth="1" NCoef="0" IVar="1" Cut="1.1041777343750000e+03" cType="1" res="-2.9625294264405966e-03" rms="3.8418906927108765e-01" purity="5.1026856899261475e-01" nType="0">
          <Node pos="l" depth="2" NCoef="0" IVar="9" Cut="-1.1999884843826294e+00" cType="1" res="-1.2105793692171574e-02" rms="3.7467968463897705e-01" purity="2.2373411059379578e-01" nType="0">
            <Node pos="l" depth="3" NCoef="0" IVar="-1" Cut="0.0000000000000000e+00" cType="1" res="4.7771083191037178e-03" rms="3.6084353923797607e-01" purity="1.8992823362350464e-01" nType="-99"/>
            <Node pos="r" depth="3" NCoef="0" IVar="-1" Cut="0.0000000000000000e+00" cType="1" res="-1.0899267159402370e-02" rms="3.7788677215576172e-01" purity="2.3208568990230560e-01" nType="-99"/>
          </Node>
          <Node pos="r" depth="2" NCoef="0" IVar="1" Cut="1.9732221679687500e+03" cType="1" res="1.1328918626531959e-03" rms="3.8830319046974182e-01" purity="6.3861221075057983e-01" nType="0">
            <Node pos="l" depth="3" NCoef="0" IVar="-1" Cut="0.0000000000000000e+00" cType="1" res="-6.3300004694610834e-04" rms="3.9324212074279785e-01" purity="6.1765831708908081e-01" nType="-99"/>
            <Node pos="r" depth="3" NCoef="0" IVar="-1" Cut="0.0000000000000000e+00" cType="1" res="1.6080031171441078e-02" rms="3.4117856621742249e-01" purity="8.2311654090881348e-01" nType="-99"/>
          </Node>
        </Node>
        <Node pos="r" depth="1" NCoef="0" IVar="-1" Cut="0.0000000000000000e+00" cType="1" res="3.2089244574308395e-02" rms="3.4497836232185364e-01" purity="2.1459324657917023e-01" nType="-99"/>
      </Node>
    </BinaryTree>
    <BinaryTree type="DecisionTree" boostWeight="1.0000000000000000e+00" itree="407">
      <Node pos="s" depth="0" NCoef="0" IVar="8" Cut="1.3326159119606018e-01" cType="1" res="1.5293915057554841e-03" rms="3.8413009047508240e-01" purity="4.9973753094673157e-01" nType="0">
        <Node pos="l" depth="1" NCoef="0" IVar="9" Cut="1.7332966327667236e+00" cType="1" res="-4.5842863619327545e-03" rms="3.8282093405723572e-01" purity="5.0123715400695801e-01" nType="0">
          <Node pos="l" depth="2" NCoef="0" IVar="9" Cut="-1.5046607255935669e+00" cType="1" res="-2.0434523466974497e-03" rms="3.8367435336112976e-01" purity="5.1103776693344116e-01" nType="0">
            <Node pos="l" depth="3" NCoef="0" IVar="-1" Cut="0.0000000000000000e+00" cType="1" res="9.3931509181857109e-03" rms="3.8154777884483337e-01" purity="3.9038965106010437e-01" nType="-99"/>
            <Node pos="r" depth="3" NCoef="0" IVar="-1" Cut="0.0000000000000000e+00" cType="1" res="-3.1561101786792278e-03" rms="3.8396561145782471e-01" purity="5.3126418590545654e-01" nType="-99"/>
          </Node>
          <Node pos="r" depth="2" NCoef="0" IVar="-1" Cut="0.0000000000000000e+00" cType="1" res="-2.3490101099014282e-02" rms="3.7067762017250061e-01" purity="3.8011726737022400e-01" nType="-99"/>
        </Node>
        <Node pos="r" depth="1" NCoef="0" IVar="7" Cut="6.6673266887664795e-01" cType="1" res="8.7749119848012924e-03" rms="3.8555032014846802e-01" purity="4.9796020984649658e-01" nType="0">
          <Node pos="l" depth="2" NCoef="0" IVar="9" Cut="4.0008634328842163e-01" cType="1" res="2.2798737045377493e-03" rms="3.8394957780838013e-01" purity="5.3082633018493652e-01" nType="0">
            <Node pos="l" depth="3" NCoef="0" IVar="-1" Cut="0.0000000000000000e+00" cType="1" res="6.7834700457751751e-03" rms="3.8653641939163208e-01" purity="5.5774259567260742e-01" nType="-99"/>
            <Node pos="r" depth="3" NCoef="0" IVar="-1" Cut="0.0000000000000000e+00" cType="1" res="-7.1282628923654556e-03" rms="3.7939462065696716e-01" purity="4.8752745985984802e-01" nType="-99"/>
          </Node>
          <Node pos="r" depth="2" NCoef="0" IVar="7" Cut="1.3778078556060791e+00" cType="1" res="2.2796152159571648e-02" rms="3.8861355185508728e-01" purity="4.2701014876365662e-01" nType="0">
            <Node pos="l" depth="3" NCoef="0" IVar="-1" Cut="0.0000000000000000e+00" cType="1" res="2.3131400346755981e-02" rms="4.0859308838844299e-01" purity="5.1613152027130127e-01" nType="-99"/>
            <Node pos="r" depth="3" NCoef="0" IVar="-1" Cut="0.0000000000000000e+00" cType="1" res="8.1565987784415483e-04" rms="3.5245695710182190e-01" purity="2.8134080767631531e-01" nType="-99"/>
          </Node>
        </Node>
      </Node>
    </BinaryTree>
    <BinaryTree type="DecisionTree" boostWeight="1.0000000000000000e+00" itree="408">
      <Node pos="s" depth="0" NCoef="0" IVar="2" Cut="6.3697064208984375e+02" cType="1" res="-1.5846856404095888e-03" rms="3.8220480084419250e-01" purity="5.0107556581497192e-01" nType="0">
        <Node pos="l" depth="1" NCoef="0" IVar="9" Cut="6.6667431592941284e-01" cType="1" res="-3.2273463439196348e-03" rms="3.8117286562919617e-01" purity="4.9257346987724304e-01" nType="0">
          <Node pos="l" depth="2" NCoef="0" IVar="1" Cut="9.5196496582031250e+02" cType="1" res="-6.4156968146562576e-03" rms="3.8256630301475525e-01" purity="5.0620913505554199e-01" nType="0">
            <Node pos="l" depth="3" NCoef="0" IVar="-1" Cut="0.0000000000000000e+00" cType="1" res="-1.8737222999334335e-02" rms="3.2610219717025757e-01" purity="1.3676916062831879e-01" nType="-99"/>
            <Node pos="r" depth="3" NCoef="0" IVar="-1" Cut="0.0000000000000000e+00" cType="1" res="-2.5940993800759315e-03" rms="3.9036738872528076e-01" purity="5.6229078769683838e-01" nType="-99"/>
          </Node>
          <Node pos="r" depth="2" NCoef="0" IVar="1" Cut="9.5601434326171875e+02" cType="1" res="4.0055969730019569e-03" rms="3.7789297103881836e-01" purity="4.6164035797119141e-01" nType="0">
            <Node pos="l" depth="3" NCoef="0" IVar="-1" Cut="0.0000000000000000e+00" cType="1" res="3.0362276360392570e-02" rms="3.4366708993911743e-01" purity="1.6992695629596710e-01" nType="-99"/>
            <Node pos="r" depth="3" NCoef="0" IVar="-1" Cut="0.0000000000000000e+00" cType="1" res="-7.6233386062085629e-04" rms="3.8373908400535583e-01" purity="5.1623845100402832e-01" nType="-99"/>
          </Node>
        </Node>
        <Node pos="r" depth="1" NCoef="0" IVar="3" Cut="3.2795935058593750e+02" cType="1" res="2.1040575578808784e-02" rms="3.9545151591300964e-01" purity="6.1817979812622070e-01" nType="0">
          <Node pos="l" depth="2" NCoef="0" IVar="-1" Cut="0.0000000000000000e+00" cType="1" res="3.0766236595809460e-03" rms="4.0008977055549622e-01" purity="5.6363439559936523e-01" nType="-99"/>
          <Node pos="r" depth="2" NCoef="0" IVar="-1" Cut="0.0000000000000000e+00" cType="1" res="2.3805012926459312e-02" rms="3.8900855183601379e-01" purity="6.8324613571166992e-01" nType="-99"/>
        </Node>
      </Node>
    </BinaryTree>
    <BinaryTree type="DecisionTree" boostWeight="1.0000000000000000e+00" itree="409">
      <Node pos="s" depth="0" NCoef="0" IVar="1" Cut="1.1041724853515625e+03" cType="1" res="-5.9370946837589145e-04" rms="3.8704100251197815e-01" purity="4.9699029326438904e-01" nType="0">
        <Node pos="l" depth="1" NCoef="0" IVar="9" Cut="-6.6654151678085327e-01" cType="1" res="8.5549717769026756e-03" rms="3.8120445609092712e-01" purity="2.3746822774410248e-01" nType="0">
          <Node pos="l" depth="2" NCoef="0" IVar="9" Cut="-1.3777335882186890e+00" cType="1" res="2.3477148264646530e-02" rms="3.7573069334030151e-01" purity="2.3505948483943939e-01" nType="0">
            <Node pos="l" depth="3" NCoef="0" IVar="-1" Cut="0.0000000000000000e+00" cType="1" res="1.2509067310020328e-03" rms="3.4281751513481140e-01" purity="1.7798542976379395e-01" nType="-99"/>
            <Node pos="r" depth="3" NCoef="0" IVar="-1" Cut="0.0000000000000000e+00" cType="1" res="2.9262024909257889e-02" rms="4.0385988354682922e-01" purity="2.9019373655319214e-01" nType="-99"/>
          </Node>
          <Node pos="r" depth="2" NCoef="0" IVar="9" Cut="-1.7129293084144592e-01" cType="1" res="1.4562439173460007e-03" rms="3.8357728719711304e-01" purity="2.3861409723758698e-01" nType="0">
            <Node pos="l" depth="3" NCoef="0" IVar="-1" Cut="0.0000000000000000e+00" cType="1" res="-1.2882051989436150e-02" rms="3.8712301850318909e-01" purity="2.4915184080600739e-01" nType="-99"/>
            <Node pos="r" depth="3" NCoef="0" IVar="-1" Cut="0.0000000000000000e+00" cType="1" res="4.7644567675888538e-03" rms="3.8251376152038574e-01" purity="2.3604354262351990e-01" nType="-99"/>
          </Node>
        </Node>
        <Node pos="r" depth="1" NCoef="0" IVar="9" Cut="-1.7332166433334351e+00" cType="1" res="-4.9698920920491219e-03" rms="3.8972604274749756e-01" purity="6.2113010883331299e-01" nType="0">
          <Node pos="l" depth="2" NCoef="0" IVar="8" Cut="-1.3298089802265167e-01" cType="1" res="2.4054782465100288e-02" rms="4.0868818759918213e-01" purity="5.3022366762161255e-01" nType="0">
            <Node pos="l" depth="3" NCoef="0" IVar="-1" Cut="0.0000000000000000e+00" cType="1" res="6.7381700500845909e-03" rms="4.1130650043487549e-01" purity="4.8807930946350098e-01" nType="-99"/>
            <Node pos="r" depth="3" NCoef="0" IVar="-1" Cut="0.0000000000000000e+00" cType="1" res="2.1652018651366234e-02" rms="4.0571933984756470e-01" purity="5.7147949934005737e-01" nType="-99"/>
          </Node>
          <Node pos="r" depth="2" NCoef="0" IVar="3" Cut="4.1957116699218750e+02" cType="1" res="-7.4351620860397816e-03" rms="3.8797274231910706e-01" purity="6.2885147333145142e-01" nType="0">
            <Node pos="l" depth="3" NCoef="0" IVar="-1" Cut="0.0000000000000000e+00" cType="1" res="-3.9045850280672312e-03" rms="3.8782751560211182e-01" purity="6.2827575206756592e-01" nType="-99"/>
            <Node pos="r" depth="3" NCoef="0" IVar="-1" Cut="0.0000000000000000e+00" cType="1" res="-2.3708002641797066e-02" rms="3.8962244987487793e-01" purity="6.4011365175247192e-01" nType="-99"/>
          </Node>
        </Node>
      </Node>
    </BinaryTree>
    <BinaryTree type="DecisionTree" boostWeight="1.0000000000000000e+00" itree="410">
      <Node pos="s" depth="0" NCoef="0" IVar="3" Cut="2.1957846069335938e+02" cType="1" res="-1.1274805292487144e-03" rms="3.8562324643135071e-01" purity="4.9785518646240234e-01" nType="0">
        <Node pos="l" depth="1" NCoef="0" IVar="1" Cut="1.0789267578125000e+03" cType="1" res="3.7640871014446020e-03" rms="3.9041024446487427e-01" purity="3.8959929347038269e-01" nType="0">
          <Node pos="l" depth="2" NCoef="0" IVar="2" Cut="2.3367825317382812e+02" cType="1" res="-4.9748104065656662e-03" rms="3.6621409654617310e-01" purity="2.0874921977519989e-01" nType="0">
            <Node pos="l" depth="3" NCoef="0" IVar="-1" Cut="0.0000000000000000e+00" cType="1" res="8.4948036819696426e-03" rms="4.1204473376274109e-01" purity="2.8635516762733459e-01" nType="-99"/>
            <Node pos="r" depth="3" NCoef="0" IVar="-1" Cut="0.0000000000000000e+00" cType="1" res="-9.7334673628211021e-03" rms="3.4605234861373901e-01" purity="1.7793302237987518e-01" nType="-99"/>
          </Node>
          <Node pos="r" depth="2" NCoef="0" IVar="9" Cut="9.3329834938049316e-01" cType="1" res="1.1157725937664509e-02" rms="4.0962186455726624e-01" purity="5.4260945320129395e-01" nType="0">
            <Node pos="l" depth="3" NCoef="0" IVar="-1" Cut="0.0000000000000000e+00" cType="1" res="9.9015133455395699e-03" rms="4.1078931093215942e-01" purity="5.6312072277069092e-01" nType="-99"/>
            <Node pos="r" depth="3" NCoef="0" IVar="-1" Cut="0.0000000000000000e+00" cType="1" res="-4.1056056506931782e-03" rms="4.0516111254692078e-01" purity="4.7391954064369202e-01" nType="-99"/>
          </Node>
        </Node>
        <Node pos="r" depth="1" NCoef="0" IVar="6" Cut="-1.1193054914474487e+00" cType="1" res="-8.3578256890177727e-03" rms="3.7832078337669373e-01" purity="6.5787082910537720e-01" nType="0">
          <Node pos="l" depth="2" NCoef="0" IVar="-1" Cut="0.0000000000000000e+00" cType="1" res="-2.4263411760330200e-02" rms="3.7944456934928894e-01" purity="4.0444055199623108e-01" nType="-99"/>
          <Node pos="r" depth="2" NCoef="0" IVar="8" Cut="1.4665912389755249e+00" cType="1" res="-5.2935364656150341e-03" rms="3.7807190418243408e-01" purity="6.8398737907409668e-01" nType="0">
            <Node pos="l" depth="3" NCoef="0" IVar="-1" Cut="0.0000000000000000e+00" cType="1" res="-1.7494764178991318e-03" rms="3.7686565518379211e-01" purity="7.0316576957702637e-01" nType="-99"/>
            <Node pos="r" depth="3" NCoef="0" IVar="-1" Cut="0.0000000000000000e+00" cType="1" res="-2.2745281457901001e-02" rms="3.9002731442451477e-01" purity="4.6747878193855286e-01" nType="-99"/>
          </Node>
        </Node>
      </Node>
    </BinaryTree>
    <BinaryTree type="DecisionTree" boostWeight="1.0000000000000000e+00" itree="411">
      <Node pos="s" depth="0" NCoef="0" IVar="7" Cut="1.2000045776367188e+00" cType="1" res="3.7516765296459198e-03" rms="3.8611716032028198e-01" purity="5.0168126821517944e-01" nType="0">
        <Node pos="l" depth="1" NCoef="0" IVar="1" Cut="1.1048668212890625e+03" cType="1" res="5.9210774488747120e-03" rms="3.8937401771545410e-01" purity="5.3340315818786621e-01" nType="0">
          <Node pos="l" depth="2" NCoef="0" IVar="2" Cut="3.3585571289062500e+02" cType="1" res="1.5869451686739922e-02" rms="3.9365220069885254e-01" purity="2.6453018188476562e-01" nType="0">
            <Node pos="l" depth="3" NCoef="0" IVar="-1" Cut="0.0000000000000000e+00" cType="1" res="1.3244051486253738e-02" rms="4.1216698288917542e-01" purity="2.9719561338424683e-01" nType="-99"/>
            <Node pos="r" depth="3" NCoef="0" IVar="-1" Cut="0.0000000000000000e+00" cType="1" res="-1.2074498459696770e-02" rms="2.9021626710891724e-01" purity="1.1167488247156143e-01" nType="-99"/>
          </Node>
          <Node pos="r" depth="2" NCoef="0" IVar="7" Cut="-1.6570318937301636e+00" cType="1" res="1.5307305147871375e-03" rms="3.8738974928855896e-01" purity="6.5206032991409302e-01" nType="0">
            <Node pos="l" depth="3" NCoef="0" IVar="-1" Cut="0.0000000000000000e+00" cType="1" res="-1.7315834760665894e-02" rms="3.5966482758522034e-01" purity="3.0138498544692993e-01" nType="-99"/>
            <Node pos="r" depth="3" NCoef="0" IVar="-1" Cut="0.0000000000000000e+00" cType="1" res="2.0865043625235558e-03" rms="3.8893169164657593e-01" purity="6.7314797639846802e-01" nType="-99"/>
          </Node>
        </Node>
        <Node pos="r" depth="1" NCoef="0" IVar="8" Cut="6.6654896736145020e-01" cType="1" res="-1.0544590651988983e-02" rms="3.6360275745391846e-01" purity="2.9263538122177124e-01" nType="0">
          <Node pos="l" depth="2" NCoef="0" IVar="2" Cut="3.1540875244140625e+02" cType="1" res="-1.8979325890541077e-02" rms="3.6258965730667114e-01" purity="3.1225046515464783e-01" nType="0">
            <Node pos="l" depth="3" NCoef="0" IVar="-1" Cut="0.0000000000000000e+00" cType="1" res="3.5538456868380308e-03" rms="3.7371453642845154e-01" purity="3.0485531687736511e-01" nType="-99"/>
            <Node pos="r" depth="3" NCoef="0" IVar="-1" Cut="0.0000000000000000e+00" cType="1" res="-2.7410475537180901e-02" rms="3.5229945182800293e-01" purity="3.1814134120941162e-01" nType="-99"/>
          </Node>
          <Node pos="r" depth="2" NCoef="0" IVar="-1" Cut="0.0000000000000000e+00" cType="1" res="2.4934245739132166e-03" rms="3.6482936143875122e-01" purity="2.6069417595863342e-01" nType="-99"/>
        </Node>
      </Node>
    </BinaryTree>
    <BinaryTree type="DecisionTree" boostWeight="1.0000000000000000e+00" itree="412">
      <Node pos="s" depth="0" NCoef="0" IVar="4" Cut="9.7296607971191406e+01" cType="1" res="1.0467176325619221e-03" rms="3.8671368360519409e-01" purity="5.0051367282867432e-01" nType="0">
        <Node pos="l" depth="1" NCoef="0" IVar="0" Cut="5.4374206542968750e+02" cType="1" res="-8.3358967676758766e-03" rms="3.6279174685478210e-01" purity="2.2954054176807404e-01" nType="0">
          <Node pos="l" depth="2" NCoef="0" IVar="3" Cut="2.0689581298828125e+02" cType="1" res="-4.3342262506484985e-03" rms="3.5358458757400513e-01" purity="1.9816851615905762e-01" nType="0">
            <Node pos="l" depth="3" NCoef="0" IVar="-1" Cut="0.0000000000000000e+00" cType="1" res="-7.2161830030381680e-03" rms="3.4112685918807983e-01" purity="1.6947275400161743e-01" nType="-99"/>
            <Node pos="r" depth="3" NCoef="0" IVar="-1" Cut="0.0000000000000000e+00" cType="1" res="9.4117866829037666e-03" rms="4.0377902984619141e-01" purity="3.2588279247283936e-01" nType="-99"/>
          </Node>
          <Node pos="r" depth="2" NCoef="0" IVar="-1" Cut="0.0000000000000000e+00" cType="1" res="-2.1016351878643036e-02" rms="4.2745658755302429e-01" purity="4.7797620296478271e-01" nType="-99"/>
        </Node>
        <Node pos="r" depth="1" NCoef="0" IVar="6" Cut="-1.4394030570983887e+00" cType="1" res="4.8733972944319248e-03" rms="3.9599180221557617e-01" purity="6.1102956533432007e-01" nType="0">
          <Node pos="l" depth="2" NCoef="0" IVar="-1" Cut="0.0000000000000000e+00" cType="1" res="2.2776655852794647e-02" rms="3.9083003997802734e-01" purity="3.2780730724334717e-01" nType="-99"/>
          <Node pos="r" depth="2" NCoef="0" IVar="6" Cut="7.8120642900466919e-01" cType="1" res="3.0809522140771151e-03" rms="3.9625564217567444e-01" purity="6.2930285930633545e-01" nType="0">
            <Node pos="l" depth="3" NCoef="0" IVar="-1" Cut="0.0000000000000000e+00" cType="1" res="-4.5825465349480510e-04" rms="3.9514240622520447e-01" purity="6.6921377182006836e-01" nType="-99"/>
            <Node pos="r" depth="3" NCoef="0" IVar="-1" Cut="0.0000000000000000e+00" cType="1" res="1.1182098649442196e-02" rms="4.0015992522239685e-01" purity="4.7634407877922058e-01" nType="-99"/>
          </Node>
        </Node>
      </Node>
    </BinaryTree>
    <BinaryTree type="DecisionTree" boostWeight="1.0000000000000000e+00" itree="413">
      <Node pos="s" depth="0" NCoef="0" IVar="9" Cut="1.9999401569366455e+00" cType="1" res="7.7377329580485821e-04" rms="3.8490492105484009e-01" purity="5.0064033269882202e-01" nType="0">
        <Node pos="l" depth="1" NCoef="0" IVar="4" Cut="2.4772126770019531e+02" cType="1" res="-5.2162178326398134e-04" rms="3.8536721467971802e-01" purity="5.0783973932266235e-01" nType="0">
          <Node pos="l" depth="2" NCoef="0" IVar="8" Cut="1.9998651742935181e+00" cType="1" res="-1.8754611955955625e-03" rms="3.8758838176727295e-01" purity="4.8760339617729187e-01" nType="0">
            <Node pos="l" depth="3" NCoef="0" IVar="-1" Cut="0.0000000000000000e+00" cType="1" res="-5.4263841593638062e-04" rms="3.8981461524963379e-01" purity="4.9946200847625732e-01" nType="-99"/>
            <Node pos="r" depth="3" NCoef="0" IVar="-1" Cut="0.0000000000000000e+00" cType="1" res="-2.0158400759100914e-02" rms="3.3136540651321411e-01" purity="2.1471676230430603e-01" nType="-99"/>
          </Node>
          <Node pos="r" depth="2" NCoef="0" IVar="5" Cut="1.3235223388671875e+02" cType="1" res="1.9612675532698631e-02" rms="3.5006040334701538e-01" purity="8.0879437923431396e-01" nType="0">
            <Node pos="l" depth="3" NCoef="0" IVar="-1" Cut="0.0000000000000000e+00" cType="1" res="2.8028894215822220e-02" rms="3.8980749249458313e-01" purity="7.4526578187942505e-01" nType="-99"/>
            <Node pos="r" depth="3" NCoef="0" IVar="-1" Cut="0.0000000000000000e+00" cType="1" res="1.2565563665702939e-03" rms="3.1495541334152222e-01" purity="8.5754477977752686e-01" nType="-99"/>
          </Node>
        </Node>
        <Node pos="r" depth="1" NCoef="0" IVar="9" Cut="2.2666108608245850e+00" cType="1" res="2.2449534386396408e-02" rms="3.7642455101013184e-01" purity="3.8017305731773376e-01" nType="0">
          <Node pos="l" depth="2" NCoef="0" IVar="-1" Cut="0.0000000000000000e+00" cType="1" res="3.1797535717487335e-02" rms="4.0618678927421570e-01" purity="4.3422874808311462e-01" nType="-99"/>
          <Node pos="r" depth="2" NCoef="0" IVar="-1" Cut="0.0000000000000000e+00" cType="1" res="7.2825892129912972e-04" rms="3.4890606999397278e-01" purity="3.3622911572456360e-01" nType="-99"/>
        </Node>
      </Node>
    </BinaryTree>
    <BinaryTree type="DecisionTree" boostWeight="1.0000000000000000e+00" itree="414">
      <Node pos="s" depth="0" NCoef="0" IVar="8" Cut="9.3326759338378906e-01" cType="1" res="-1.6156377969309688e-03" rms="3.8382717967033386e-01" purity="4.9744126200675964e-01" nType="0">
        <Node pos="l" depth="1" NCoef="0" IVar="8" Cut="-6.6670095920562744e-01" cType="1" res="-4.1837696917355061e-03" rms="3.8463488221168518e-01" purity="5.2210575342178345e-01" nType="0">
          <Node pos="l" depth="2" NCoef="0" IVar="7" Cut="1.3338503241539001e-01" cType="1" res="3.3119623549282551e-03" rms="3.8418814539909363e-01" purity="4.3914195895195007e-01" nType="0">
            <Node pos="l" depth="3" NCoef="0" IVar="-1" Cut="0.0000000000000000e+00" cType="1" res="-2.3120287805795670e-03" rms="3.8298362493515015e-01" purity="4.3885719776153564e-01" nType="-99"/>
            <Node pos="r" depth="3" NCoef="0" IVar="-1" Cut="0.0000000000000000e+00" cType="1" res="9.2898672446608543e-03" rms="3.8581749796867371e-01" purity="4.3958467245101929e-01" nType="-99"/>
          </Node>
          <Node pos="r" depth="2" NCoef="0" IVar="4" Cut="1.9188316345214844e+02" cType="1" res="-8.4959771484136581e-03" rms="3.8482549786567688e-01" purity="5.6983387470245361e-01" nType="0">
            <Node pos="l" depth="3" NCoef="0" IVar="-1" Cut="0.0000000000000000e+00" cType="1" res="-7.8352391719818115e-03" rms="3.9947429299354553e-01" purity="4.9539059400558472e-01" nType="-99"/>
            <Node pos="r" depth="3" NCoef="0" IVar="-1" Cut="0.0000000000000000e+00" cType="1" res="5.4089431650936604e-03" rms="3.2817631959915161e-01" purity="8.2978534698486328e-01" nType="-99"/>
          </Node>
        </Node>
        <Node pos="r" depth="1" NCoef="0" IVar="7" Cut="-6.6629606485366821e-01" cType="1" res="7.7366335317492485e-03" rms="3.8072490692138672e-01" purity="4.0762153267860413e-01" nType="0">
          <Node pos="l" depth="2" NCoef="0" IVar="-1" Cut="0.0000000000000000e+00" cType="1" res="-9.6479197964072227e-03" rms="3.4357759356498718e-01" purity="2.8911769390106201e-01" nType="-99"/>
          <Node pos="r" depth="2" NCoef="0" IVar="7" Cut="3.2407668232917786e-01" cType="1" res="1.3962632976472378e-02" rms="3.9092978835105896e-01" purity="4.4304630160331726e-01" nType="0">
            <Node pos="l" depth="3" NCoef="0" IVar="-1" Cut="0.0000000000000000e+00" cType="1" res="1.7592448741197586e-02" rms="4.0730175375938416e-01" purity="5.4303151369094849e-01" nType="-99"/>
            <Node pos="r" depth="3" NCoef="0" IVar="-1" Cut="0.0000000000000000e+00" cType="1" res="2.2533149458467960e-03" rms="3.7848550081253052e-01" purity="3.7190818786621094e-01" nType="-99"/>
          </Node>
        </Node>
      </Node>
    </BinaryTree>
    <BinaryTree type="DecisionTree" boostWeight="1.0000000000000000e+00" itree="415">
      <Node pos="s" depth="0" NCoef="0" IVar="6" Cut="-1.4398837089538574e+00" cType="1" res="3.1802502926439047e-03" rms="3.8388794660568237e-01" purity="5.0596886873245239e-01" nType="0">
        <Node pos="l" depth="1" NCoef="0" IVar="0" Cut="3.7398782348632812e+02" cType="1" res="-2.1375004202127457e-02" rms="3.0833387374877930e-01" purity="2.0091447234153748e-01" nType="0">
          <Node pos="l" depth="2" NCoef="0" IVar="-1" Cut="0.0000000000000000e+00" cType="1" res="-1.4146305620670319e-02" rms="2.6738843321800232e-01" purity="9.8934568464756012e-02" nType="-99"/>
          <Node pos="r" depth="2" NCoef="0" IVar="-1" Cut="0.0000000000000000e+00" cType="1" res="-2.2446664050221443e-02" rms="3.4283107519149780e-01" purity="2.9890432953834534e-01" nType="-99"/>
        </Node>
        <Node pos="r" depth="1" NCoef="0" IVar="9" Cut="-9.3323540687561035e-01" cType="1" res="4.9805748276412487e-03" rms="3.8878914713859558e-01" purity="5.2833461761474609e-01" nType="0">
          <Node pos="l" depth="2" NCoef="0" IVar="3" Cut="2.1496971130371094e+02" cType="1" res="1.5110176056623459e-02" rms="3.9700821042060852e-01" purity="4.9308526515960693e-01" nType="0">
            <Node pos="l" depth="3" NCoef="0" IVar="-1" Cut="0.0000000000000000e+00" cType="1" res="1.5352285467088223e-02" rms="3.9738079905509949e-01" purity="3.9162436127662659e-01" nType="-99"/>
            <Node pos="r" depth="3" NCoef="0" IVar="-1" Cut="0.0000000000000000e+00" cType="1" res="1.3080618809908628e-03" rms="3.9609506726264954e-01" purity="6.4293968677520752e-01" nType="-99"/>
          </Node>
          <Node pos="r" depth="2" NCoef="0" IVar="5" Cut="7.7251571655273438e+01" cType="1" res="1.9104119855910540e-03" rms="3.8621106743812561e-01" purity="5.3901827335357666e-01" nType="0">
            <Node pos="l" depth="3" NCoef="0" IVar="-1" Cut="0.0000000000000000e+00" cType="1" res="-3.7305315490812063e-03" rms="3.9162322878837585e-01" purity="3.3273941278457642e-01" nType="-99"/>
            <Node pos="r" depth="3" NCoef="0" IVar="-1" Cut="0.0000000000000000e+00" cType="1" res="5.2369874902069569e-03" rms="3.8202899694442749e-01" purity="6.9259285926818848e-01" nType="-99"/>
          </Node>
        </Node>
      </Node>
    </BinaryTree>
    <BinaryTree type="DecisionTree" boostWeight="1.0000000000000000e+00" itree="416">
      <Node pos="s" depth="0" NCoef="0" IVar="6" Cut="1.4751439094543457e+00" cType="1" res="-2.3487254511564970e-03" rms="3.8211470842361450e-01" purity="5.0186336040496826e-01" nType="0">
        <Node pos="l" depth="1" NCoef="0" IVar="1" Cut="1.1048668212890625e+03" cType="1" res="-3.8100505480542779e-04" rms="3.8688093423843384e-01" purity="5.2450662851333618e-01" nType="0">
          <Node pos="l" depth="2" NCoef="0" IVar="9" Cut="1.3342703878879547e-01" cType="1" res="-7.5869103893637657e-03" rms="3.8367253541946411e-01" purity="2.3582595586776733e-01" nType="0">
            <Node pos="l" depth="3" NCoef="0" IVar="-1" Cut="0.0000000000000000e+00" cType="1" res="-1.3502137735486031e-02" rms="3.7995997071266174e-01" purity="2.2535099089145660e-01" nType="-99"/>
            <Node pos="r" depth="3" NCoef="0" IVar="-1" Cut="0.0000000000000000e+00" cType="1" res="4.8871920444071293e-03" rms="3.8744130730628967e-01" purity="2.4807147681713104e-01" nType="-99"/>
          </Node>
          <Node pos="r" depth="2" NCoef="0" IVar="8" Cut="1.7332074642181396e+00" cType="1" res="2.7499068528413773e-03" rms="3.8822498917579651e-01" purity="6.4993619918823242e-01" nType="0">
            <Node pos="l" depth="3" NCoef="0" IVar="-1" Cut="0.0000000000000000e+00" cType="1" res="9.0877100592479110e-04" rms="3.8678681850433350e-01" purity="6.6224825382232666e-01" nType="-99"/>
            <Node pos="r" depth="3" NCoef="0" IVar="-1" Cut="0.0000000000000000e+00" cType="1" res="1.5360906720161438e-02" rms="4.1101041436195374e-01" purity="4.4255676865577698e-01" nType="-99"/>
          </Node>
        </Node>
        <Node pos="r" depth="1" NCoef="0" IVar="0" Cut="3.8536340332031250e+02" cType="1" res="-3.0317591503262520e-02" rms="3.0508655309677124e-01" purity="1.8001487851142883e-01" nType="0">
          <Node pos="l" depth="2" NCoef="0" IVar="-1" Cut="0.0000000000000000e+00" cType="1" res="-2.3811584338545799e-02" rms="2.6439049839973450e-01" purity="9.7367338836193085e-02" nType="-99"/>
          <Node pos="r" depth="2" NCoef="0" IVar="-1" Cut="0.0000000000000000e+00" cType="1" res="-3.0976599082350731e-02" rms="3.4814289212226868e-01" purity="2.8126811981201172e-01" nType="-99"/>
        </Node>
      </Node>
    </BinaryTree>
    <BinaryTree type="DecisionTree" boostWeight="1.0000000000000000e+00" itree="417">
      <Node pos="s" depth="0" NCoef="0" IVar="6" Cut="-1.7193347215652466e+00" cType="1" res="-1.4611771330237389e-03" rms="3.8216906785964966e-01" purity="5.0049155950546265e-01" nType="0">
        <Node pos="l" depth="1" NCoef="0" IVar="-1" Cut="0.0000000000000000e+00" cType="1" res="-3.2947473227977753e-02" rms="2.7172705531120300e-01" purity="1.4565154910087585e-01" nType="-99"/>
        <Node pos="r" depth="1" NCoef="0" IVar="8" Cut="-1.4666740894317627e+00" cType="1" res="-2.5310140335932374e-04" rms="3.8586011528968811e-01" purity="5.1460796594619751e-01" nType="0">
          <Node pos="l" depth="2" NCoef="0" IVar="2" Cut="3.0833093261718750e+02" cType="1" res="1.8056020140647888e-02" rms="3.8758796453475952e-01" purity="3.4915989637374878e-01" nType="0">
            <Node pos="l" depth="3" NCoef="0" IVar="-1" Cut="0.0000000000000000e+00" cType="1" res="-1.6470425762236118e-03" rms="3.8426473736763000e-01" purity="2.8885158896446228e-01" nType="-99"/>
            <Node pos="r" depth="3" NCoef="0" IVar="-1" Cut="0.0000000000000000e+00" cType="1" res="2.1767299622297287e-02" rms="3.8923010230064392e-01" purity="3.9056205749511719e-01" nType="-99"/>
          </Node>
          <Node pos="r" depth="2" NCoef="0" IVar="1" Cut="1.4097316894531250e+03" cType="1" res="-2.4051556829363108e-03" rms="3.8559943437576294e-01" purity="5.3405475616455078e-01" nType="0">
            <Node pos="l" depth="3" NCoef="0" IVar="-1" Cut="0.0000000000000000e+00" cType="1" res="-4.1589378379285336e-03" rms="4.0400525927543640e-01" purity="3.9055222272872925e-01" nType="-99"/>
            <Node pos="r" depth="3" NCoef="0" IVar="-1" Cut="0.0000000000000000e+00" cType="1" res="3.8314054254442453e-03" rms="3.5322734713554382e-01" purity="7.6936477422714233e-01" nType="-99"/>
          </Node>
        </Node>
      </Node>
    </BinaryTree>
    <BinaryTree type="DecisionTree" boostWeight="1.0000000000000000e+00" itree="418">
      <Node pos="s" depth="0" NCoef="0" IVar="9" Cut="6.6666144132614136e-01" cType="1" res="2.4324413388967514e-03" rms="3.8490658998489380e-01" purity="5.0304377079010010e-01" nType="0">
        <Node pos="l" depth="1" NCoef="0" IVar="8" Cut="1.3326545059680939e-01" cType="1" res="-1.8346549477428198e-03" rms="3.8574114441871643e-01" purity="5.1688843965530396e-01" nType="0">
          <Node pos="l" depth="2" NCoef="0" IVar="9" Cut="-2.1396493911743164e+00" cType="1" res="3.5834431182593107e-03" rms="3.8275709748268127e-01" purity="5.1902002096176147e-01" nType="0">
            <Node pos="l" depth="3" NCoef="0" IVar="-1" Cut="0.0000000000000000e+00" cType="1" res="-2.2568754851818085e-02" rms="3.4905999898910522e-01" purity="3.1193482875823975e-01" nType="-99"/>
            <Node pos="r" depth="3" NCoef="0" IVar="-1" Cut="0.0000000000000000e+00" cType="1" res="3.9198230952024460e-03" rms="3.8480782508850098e-01" purity="5.3293120861053467e-01" nType="-99"/>
          </Node>
          <Node pos="r" depth="2" NCoef="0" IVar="5" Cut="8.5091667175292969e+01" cType="1" res="-9.2674493789672852e-03" rms="3.8967508077621460e-01" purity="5.1396423578262329e-01" nType="0">
            <Node pos="l" depth="3" NCoef="0" IVar="-1" Cut="0.0000000000000000e+00" cType="1" res="6.6833343589678407e-04" rms="3.9490044116973877e-01" purity="3.5956743359565735e-01" nType="-99"/>
            <Node pos="r" depth="3" NCoef="0" IVar="-1" Cut="0.0000000000000000e+00" cType="1" res="-1.4518881216645241e-02" rms="3.8342711329460144e-01" purity="6.8639433383941650e-01" nType="-99"/>
          </Node>
        </Node>
        <Node pos="r" depth="1" NCoef="0" IVar="7" Cut="1.1997146606445312e+00" cType="1" res="1.2150207534432411e-02" rms="3.8282182812690735e-01" purity="4.7151425480842590e-01" nType="0">
          <Node pos="l" depth="2" NCoef="0" IVar="4" Cut="1.9206568908691406e+02" cType="1" res="1.6036976128816605e-02" rms="3.8949370384216309e-01" purity="5.1290404796600342e-01" nType="0">
            <Node pos="l" depth="3" NCoef="0" IVar="-1" Cut="0.0000000000000000e+00" cType="1" res="1.2824063189327717e-02" rms="3.9423242211341858e-01" purity="4.6529871225357056e-01" nType="-99"/>
            <Node pos="r" depth="3" NCoef="0" IVar="-1" Cut="0.0000000000000000e+00" cType="1" res="-3.5759736783802509e-03" rms="3.6294671893119812e-01" purity="7.6244872808456421e-01" nType="-99"/>
          </Node>
          <Node pos="r" depth="2" NCoef="0" IVar="5" Cut="7.2814041137695312e+01" cType="1" res="-6.8451734259724617e-03" rms="3.4775736927986145e-01" purity="2.6923441886901855e-01" nType="0">
            <Node pos="l" depth="3" NCoef="0" IVar="-1" Cut="0.0000000000000000e+00" cType="1" res="-1.2971126474440098e-02" rms="2.9646176099777222e-01" purity="1.3242782652378082e-01" nType="-99"/>
            <Node pos="r" depth="3" NCoef="0" IVar="-1" Cut="0.0000000000000000e+00" cType="1" res="-9.7113568335771561e-04" rms="3.8896325230598450e-01" purity="3.9515298604965210e-01" nType="-99"/>
          </Node>
        </Node>
      </Node>
    </BinaryTree>
    <BinaryTree type="DecisionTree" boostWeight="1.0000000000000000e+00" itree="419">
      <Node pos="s" depth="0" NCoef="0" IVar="6" Cut="-1.7193617820739746e+00" cType="1" res="1.2341067194938660e-03" rms="3.8595545291900635e-01" purity="5.0387668609619141e-01" nType="0">
        <Node pos="l" depth="1" NCoef="0" IVar="-1" Cut="0.0000000000000000e+00" cType="1" res="3.4720446914434433e-02" rms="3.3632108569145203e-01" purity="2.0830380916595459e-01" nType="-99"/>
        <Node pos="r" depth="1" NCoef="0" IVar="8" Cut="-9.3336898088455200e-01" cType="1" res="-1.8631159036885947e-04" rms="3.8786947727203369e-01" purity="5.1649457216262817e-01" nType="0">
          <Node pos="l" depth="2" NCoef="0" IVar="4" Cut="9.5353683471679688e+01" cType="1" res="9.3582915142178535e-03" rms="3.8882705569267273e-01" purity="4.3721768260002136e-01" nType="0">
            <Node pos="l" depth="3" NCoef="0" IVar="-1" Cut="0.0000000000000000e+00" cType="1" res="1.8125310540199280e-02" rms="3.6966675519943237e-01" purity="2.4241837859153748e-01" nType="-99"/>
            <Node pos="r" depth="3" NCoef="0" IVar="-1" Cut="0.0000000000000000e+00" cType="1" res="1.4916361542418599e-03" rms="3.9751106500625610e-01" purity="5.3075212240219116e-01" nType="-99"/>
          </Node>
          <Node pos="r" depth="2" NCoef="0" IVar="6" Cut="-1.2889485359191895e+00" cType="1" res="-2.8112703002989292e-03" rms="3.8756451010704041e-01" purity="5.3829735517501831e-01" nType="0">
            <Node pos="l" depth="3" NCoef="0" IVar="-1" Cut="0.0000000000000000e+00" cType="1" res="-2.3079732432961464e-02" rms="3.5233512520790100e-01" purity="3.0474013090133667e-01" nType="-99"/>
            <Node pos="r" depth="3" NCoef="0" IVar="-1" Cut="0.0000000000000000e+00" cType="1" res="-8.4454688476398587e-04" rms="3.8920310139656067e-01" purity="5.5013447999954224e-01" nType="-99"/>
          </Node>
        </Node>
      </Node>
    </BinaryTree>
    <BinaryTree type="DecisionTree" boostWeight="1.0000000000000000e+00" itree="420">
      <Node pos="s" depth="0" NCoef="0" IVar="1" Cut="1.9607540283203125e+03" cType="1" res="-6.5541872754693031e-03" rms="3.8279196619987488e-01" purity="4.9223247170448303e-01" nType="0">
        <Node pos="l" depth="1" NCoef="0" IVar="9" Cut="-1.4666460752487183e+00" cType="1" res="-8.3168288692831993e-03" rms="3.8609975576400757e-01" purity="4.6587976813316345e-01" nType="0">
          <Node pos="l" depth="2" NCoef="0" IVar="0" Cut="4.6796875000000000e+02" cType="1" res="-2.6337303221225739e-02" rms="3.7038236856460571e-01" purity="3.4718933701515198e-01" nType="0">
            <Node pos="l" depth="3" NCoef="0" IVar="-1" Cut="0.0000000000000000e+00" cType="1" res="-2.4019513279199600e-02" rms="3.6046162247657776e-01" purity="2.3942263424396515e-01" nType="-99"/>
            <Node pos="r" depth="3" NCoef="0" IVar="-1" Cut="0.0000000000000000e+00" cType="1" res="-5.2576097659766674e-03" rms="3.9326369762420654e-01" purity="6.1346936225891113e-01" nType="-99"/>
          </Node>
          <Node pos="r" depth="2" NCoef="0" IVar="2" Cut="5.8574554443359375e+02" cType="1" res="-5.8118458837270737e-03" rms="3.8816800713539124e-01" purity="4.8237863183021545e-01" nType="0">
            <Node pos="l" depth="3" NCoef="0" IVar="-1" Cut="0.0000000000000000e+00" cType="1" res="-2.8487483505159616e-03" rms="3.8742920756340027e-01" purity="4.8602780699729919e-01" nType="-99"/>
            <Node pos="r" depth="3" NCoef="0" IVar="-1" Cut="0.0000000000000000e+00" cType="1" res="-1.9635355100035667e-02" rms="4.0031090378761292e-01" purity="4.1637653112411499e-01" nType="-99"/>
          </Node>
        </Node>
        <Node pos="r" depth="1" NCoef="0" IVar="1" Cut="2.1956799316406250e+03" cType="1" res="1.5463912859559059e-02" rms="3.3798813819885254e-01" purity="8.2141828536987305e-01" nType="0">
          <Node pos="l" depth="2" NCoef="0" IVar="-1" Cut="0.0000000000000000e+00" cType="1" res="2.7273723855614662e-02" rms="3.3290147781372070e-01" purity="8.3195000886917114e-01" nType="-99"/>
          <Node pos="r" depth="2" NCoef="0" IVar="-1" Cut="0.0000000000000000e+00" cType="1" res="-3.5314376000314951e-03" rms="3.4281095862388611e-01" purity="8.0904382467269897e-01" nType="-99"/>
        </Node>
      </Node>
    </BinaryTree>
    <BinaryTree type="DecisionTree" boostWeight="1.0000000000000000e+00" itree="421">
      <Node pos="s" depth="0" NCoef="0" IVar="6" Cut="1.7399747371673584e+00" cType="1" res="-1.6544252866879106e-03" rms="3.8341209292411804e-01" purity="4.9863293766975403e-01" nType="0">
        <Node pos="l" depth="1" NCoef="0" IVar="7" Cut="1.2000149488449097e+00" cType="1" res="-2.9044116381555796e-03" rms="3.8571348786354065e-01" purity="5.1163417100906372e-01" nType="0">
          <Node pos="l" depth="2" NCoef="0" IVar="8" Cut="-1.4667164087295532e+00" cType="1" res="-5.2171535789966583e-03" rms="3.8690683245658875e-01" purity="5.3957706689834595e-01" nType="0">
            <Node pos="l" depth="3" NCoef="0" IVar="-1" Cut="0.0000000000000000e+00" cType="1" res="-1.2628098949790001e-02" rms="3.7752056121826172e-01" purity="3.3461391925811768e-01" nType="-99"/>
            <Node pos="r" depth="3" NCoef="0" IVar="-1" Cut="0.0000000000000000e+00" cType="1" res="-2.3752956185489893e-03" rms="3.8796171545982361e-01" purity="5.6361663341522217e-01" nType="-99"/>
          </Node>
          <Node pos="r" depth="2" NCoef="0" IVar="6" Cut="6.6961640119552612e-01" cType="1" res="1.2103290297091007e-02" rms="3.7753415107727051e-01" purity="3.3030858635902405e-01" nType="0">
            <Node pos="l" depth="3" NCoef="0" IVar="-1" Cut="0.0000000000000000e+00" cType="1" res="3.6014331271871924e-04" rms="3.7431564927101135e-01" purity="3.4236916899681091e-01" nType="-99"/>
            <Node pos="r" depth="3" NCoef="0" IVar="-1" Cut="0.0000000000000000e+00" cType="1" res="3.5880718380212784e-02" rms="3.8467922806739807e-01" purity="2.9578089714050293e-01" nType="-99"/>
          </Node>
        </Node>
        <Node pos="r" depth="1" NCoef="0" IVar="-1" Cut="0.0000000000000000e+00" cType="1" res="2.8578756377100945e-02" rms="3.2394683361053467e-01" purity="1.9615490734577179e-01" nType="-99"/>
      </Node>
    </BinaryTree>
    <BinaryTree type="DecisionTree" boostWeight="1.0000000000000000e+00" itree="422">
      <Node pos="s" depth="0" NCoef="0" IVar="8" Cut="9.3323230743408203e-01" cType="1" res="1.7695783753879368e-04" rms="3.8486957550048828e-01" purity="5.0067079067230225e-01" nType="0">
        <Node pos="l" depth="1" NCoef="0" IVar="1" Cut="1.7145867919921875e+03" cType="1" res="-2.3920908570289612e-03" rms="3.8401147723197937e-01" purity="5.2605020999908447e-01" nType="0">
          <Node pos="l" depth="2" NCoef="0" IVar="1" Cut="1.2355161132812500e+03" cType="1" res="-5.0303610041737556e-03" rms="3.9259505271911621e-01" purity="4.6898964047431946e-01" nType="0">
            <Node pos="l" depth="3" NCoef="0" IVar="-1" Cut="0.0000000000000000e+00" cType="1" res="-6.8082441575825214e-03" rms="3.9679193496704102e-01" purity="3.0528670549392700e-01" nType="-99"/>
            <Node pos="r" depth="3" NCoef="0" IVar="-1" Cut="0.0000000000000000e+00" cType="1" res="1.1692040134221315e-03" rms="3.8751849532127380e-01" purity="6.6043549776077271e-01" nType="-99"/>
          </Node>
          <Node pos="r" depth="2" NCoef="0" IVar="0" Cut="7.1674877929687500e+02" cType="1" res="1.1189585551619530e-02" rms="3.3604755997657776e-01" purity="8.1979507207870483e-01" nType="0">
            <Node pos="l" depth="3" NCoef="0" IVar="-1" Cut="0.0000000000000000e+00" cType="1" res="3.1679286621510983e-03" rms="3.4024807810783386e-01" purity="7.9975700378417969e-01" nType="-99"/>
            <Node pos="r" depth="3" NCoef="0" IVar="-1" Cut="0.0000000000000000e+00" cType="1" res="2.1229119971394539e-02" rms="3.2826963067054749e-01" purity="8.5439306497573853e-01" nType="-99"/>
          </Node>
        </Node>
        <Node pos="r" depth="1" NCoef="0" IVar="0" Cut="4.1834014892578125e+02" cType="1" res="9.8019884899258614e-03" rms="3.8791638612747192e-01" purity="4.0558576583862305e-01" nType="0">
          <Node pos="l" depth="2" NCoef="0" IVar="8" Cut="1.8220338821411133e+00" cType="1" res="2.2399289533495903e-02" rms="3.7885004281997681e-01" purity="2.8117263317108154e-01" nType="0">
            <Node pos="l" depth="3" NCoef="0" IVar="-1" Cut="0.0000000000000000e+00" cType="1" res="2.4467993527650833e-02" rms="4.0131393074989319e-01" purity="3.3794653415679932e-01" nType="-99"/>
            <Node pos="r" depth="3" NCoef="0" IVar="-1" Cut="0.0000000000000000e+00" cType="1" res="-1.2737859971821308e-02" rms="3.1543397903442383e-01" purity="1.4446695148944855e-01" nType="-99"/>
          </Node>
          <Node pos="r" depth="2" NCoef="0" IVar="5" Cut="7.2857574462890625e+01" cType="1" res="-6.5592420287430286e-03" rms="3.9879089593887329e-01" purity="5.6717216968536377e-01" nType="0">
            <Node pos="l" depth="3" NCoef="0" IVar="-1" Cut="0.0000000000000000e+00" cType="1" res="-1.9564900547266006e-02" rms="4.0690276026725769e-01" purity="3.3069589734077454e-01" nType="-99"/>
            <Node pos="r" depth="3" NCoef="0" IVar="-1" Cut="0.0000000000000000e+00" cType="1" res="5.9086307883262634e-03" rms="3.9309772849082947e-01" purity="7.0630210638046265e-01" nType="-99"/>
          </Node>
        </Node>
      </Node>
    </BinaryTree>
    <BinaryTree type="DecisionTree" boostWeight="1.0000000000000000e+00" itree="423">
      <Node pos="s" depth="0" NCoef="0" IVar="8" Cut="1.3328306376934052e-01" cType="1" res="2.4429170298390090e-04" rms="3.8508933782577515e-01" purity="5.0131338834762573e-01" nType="0">
        <Node pos="l" depth="1" NCoef="0" IVar="3" Cut="3.9087118530273438e+02" cType="1" res="-3.9646779187023640e-03" rms="3.8300323486328125e-01" purity="5.0637102127075195e-01" nType="0">
          <Node pos="l" depth="2" NCoef="0" IVar="7" Cut="1.2000164985656738e+00" cType="1" res="-2.3409856949001551e-03" rms="3.8306292891502380e-01" purity="4.9855017662048340e-01" nType="0">
            <Node pos="l" depth="3" NCoef="0" IVar="-1" Cut="0.0000000000000000e+00" cType="1" res="-1.3638648670166731e-04" rms="3.8559347391128540e-01" purity="5.2606838941574097e-01" nType="-99"/>
            <Node pos="r" depth="3" NCoef="0" IVar="-1" Cut="0.0000000000000000e+00" cType="1" res="-1.4104315079748631e-02" rms="3.6201238632202148e-01" purity="2.8120377659797668e-01" nType="-99"/>
          </Node>
          <Node pos="r" depth="2" NCoef="0" IVar="-1" Cut="0.0000000000000000e+00" cType="1" res="-2.4328865110874176e-02" rms="3.8033655285835266e-01" purity="6.6350167989730835e-01" nType="-99"/>
        </Node>
        <Node pos="r" depth="1" NCoef="0" IVar="0" Cut="7.1652905273437500e+02" cType="1" res="5.2382447756826878e-03" rms="3.8749060034751892e-01" purity="4.9531251192092896e-01" nType="0">
          <Node pos="l" depth="2" NCoef="0" IVar="1" Cut="9.3480090332031250e+02" cType="1" res="7.1832467801868916e-03" rms="3.9010372757911682e-01" purity="4.7482603788375854e-01" nType="0">
            <Node pos="l" depth="3" NCoef="0" IVar="-1" Cut="0.0000000000000000e+00" cType="1" res="-1.1307179927825928e-02" rms="3.1544369459152222e-01" purity="1.2606896460056305e-01" nType="-99"/>
            <Node pos="r" depth="3" NCoef="0" IVar="-1" Cut="0.0000000000000000e+00" cType="1" res="6.1997310258448124e-03" rms="3.9884924888610840e-01" purity="5.2087390422821045e-01" nType="-99"/>
          </Node>
          <Node pos="r" depth="2" NCoef="0" IVar="-1" Cut="0.0000000000000000e+00" cType="1" res="-2.1713305264711380e-02" rms="3.4449511766433716e-01" purity="8.0341815948486328e-01" nType="-99"/>
        </Node>
      </Node>
    </BinaryTree>
    <BinaryTree type="DecisionTree" boostWeight="1.0000000000000000e+00" itree="424">
      <Node pos="s" depth="0" NCoef="0" IVar="3" Cut="1.4184521484375000e+02" cType="1" res="1.2129005044698715e-03" rms="3.8651478290557861e-01" purity="4.9689462780952454e-01" nType="0">
        <Node pos="l" depth="1" NCoef="0" IVar="3" Cut="1.0713736724853516e+02" cType="1" res="1.3899169862270355e-02" rms="3.7177509069442749e-01" purity="2.3993146419525146e-01" nType="0">
          <Node pos="l" depth="2" NCoef="0" IVar="7" Cut="-6.6714453697204590e-01" cType="1" res="-1.1215376434847713e-03" rms="3.2045173645019531e-01" purity="1.4191377162933350e-01" nType="0">
            <Node pos="l" depth="3" NCoef="0" IVar="-1" Cut="0.0000000000000000e+00" cType="1" res="2.1278068423271179e-02" rms="3.1484082341194153e-01" purity="1.4922268688678741e-01" nType="-99"/>
            <Node pos="r" depth="3" NCoef="0" IVar="-1" Cut="0.0000000000000000e+00" cType="1" res="-1.0805300436913967e-02" rms="3.2268479466438293e-01" purity="1.3828746974468231e-01" nType="-99"/>
          </Node>
          <Node pos="r" depth="2" NCoef="0" IVar="6" Cut="-3.7180760502815247e-01" cType="1" res="2.3218074813485146e-02" rms="4.0003907680511475e-01" purity="3.0074203014373779e-01" nType="0">
            <Node pos="l" depth="3" NCoef="0" IVar="-1" Cut="0.0000000000000000e+00" cType="1" res="2.3417579941451550e-03" rms="3.6767721176147461e-01" purity="2.3057517409324646e-01" nType="-99"/>
            <Node pos="r" depth="3" NCoef="0" IVar="-1" Cut="0.0000000000000000e+00" cType="1" res="2.0952265709638596e-02" rms="4.1497403383255005e-01" purity="3.3597967028617859e-01" nType="-99"/>
          </Node>
        </Node>
        <Node pos="r" depth="1" NCoef="0" IVar="7" Cut="-6.6656839847564697e-01" cType="1" res="-2.5001713074743748e-03" rms="3.9064574241638184e-01" purity="5.7210367918014526e-01" nType="0">
          <Node pos="l" depth="2" NCoef="0" IVar="9" Cut="-1.4662190675735474e+00" cType="1" res="8.3471750840544701e-03" rms="3.9369729161262512e-01" purity="4.9104163050651550e-01" nType="0">
            <Node pos="l" depth="3" NCoef="0" IVar="-1" Cut="0.0000000000000000e+00" cType="1" res="3.1886365264654160e-02" rms="3.9359998703002930e-01" purity="4.3161588907241821e-01" nType="-99"/>
            <Node pos="r" depth="3" NCoef="0" IVar="-1" Cut="0.0000000000000000e+00" cType="1" res="5.0000689225271344e-04" rms="3.9325845241546631e-01" purity="5.0225824117660522e-01" nType="-99"/>
          </Node>
          <Node pos="r" depth="2" NCoef="0" IVar="8" Cut="6.6668397188186646e-01" cType="1" res="-6.2731280922889709e-03" rms="3.8950794935226440e-01" purity="6.0029894113540649e-01" nType="0">
            <Node pos="l" depth="3" NCoef="0" IVar="-1" Cut="0.0000000000000000e+00" cType="1" res="-1.5450374921783805e-03" rms="3.8614422082901001e-01" purity="6.3100773096084595e-01" nType="-99"/>
            <Node pos="r" depth="3" NCoef="0" IVar="-1" Cut="0.0000000000000000e+00" cType="1" res="-1.0282833129167557e-02" rms="3.9774537086486816e-01" purity="5.2232289314270020e-01" nType="-99"/>
          </Node>
        </Node>
      </Node>
    </BinaryTree>
    <BinaryTree type="DecisionTree" boostWeight="1.0000000000000000e+00" itree="425">
      <Node pos="s" depth="0" NCoef="0" IVar="7" Cut="-1.3327172398567200e-01" cType="1" res="1.8017140682786703e-03" rms="3.8650494813919067e-01" purity="4.9915969371795654e-01" nType="0">
        <Node pos="l" depth="1" NCoef="0" IVar="7" Cut="-1.0221337080001831e+00" cType="1" res="7.9463953152298927e-03" rms="3.8740855455398560e-01" purity="4.9420484900474548e-01" nType="0">
          <Node pos="l" depth="2" NCoef="0" IVar="3" Cut="1.2837916564941406e+02" cType="1" res="-2.4416735395789146e-03" rms="3.6716297268867493e-01" purity="3.4153556823730469e-01" nType="0">
            <Node pos="l" depth="3" NCoef="0" IVar="-1" Cut="0.0000000000000000e+00" cType="1" res="-1.8648393452167511e-02" rms="2.8675329685211182e-01" purity="1.3057297468185425e-01" nType="-99"/>
            <Node pos="r" depth="3" NCoef="0" IVar="-1" Cut="0.0000000000000000e+00" cType="1" res="1.3586943969130516e-03" rms="3.8648259639739990e-01" purity="4.0032726526260376e-01" nType="-99"/>
          </Node>
          <Node pos="r" depth="2" NCoef="0" IVar="6" Cut="-1.1413918733596802e+00" cType="1" res="1.4375104568898678e-02" rms="3.9928856492042542e-01" purity="5.8868509531021118e-01" nType="0">
            <Node pos="l" depth="3" NCoef="0" IVar="-1" Cut="0.0000000000000000e+00" cType="1" res="3.4440070390701294e-02" rms="3.9083030819892883e-01" purity="4.1304984688758850e-01" nType="-99"/>
            <Node pos="r" depth="3" NCoef="0" IVar="-1" Cut="0.0000000000000000e+00" cType="1" res="5.8449395000934601e-03" rms="4.0020796656608582e-01" purity="6.1358940601348877e-01" nType="-99"/>
          </Node>
        </Node>
        <Node pos="r" depth="1" NCoef="0" IVar="9" Cut="-1.7331279516220093e+00" cType="1" res="-3.3381422981619835e-03" rms="3.8567230105400085e-01" purity="5.0330424308776855e-01" nType="0">
          <Node pos="l" depth="2" NCoef="0" IVar="-1" Cut="0.0000000000000000e+00" cType="1" res="-2.2648250684142113e-02" rms="3.7125027179718018e-01" purity="3.3307644724845886e-01" nType="-99"/>
          <Node pos="r" depth="2" NCoef="0" IVar="5" Cut="1.2018337249755859e+02" cType="1" res="-1.1452061589807272e-03" rms="3.8664856553077698e-01" purity="5.1613223552703857e-01" nType="0">
            <Node pos="l" depth="3" NCoef="0" IVar="-1" Cut="0.0000000000000000e+00" cType="1" res="2.2697288077324629e-03" rms="3.9854875206947327e-01" purity="4.3755963444709778e-01" nType="-99"/>
            <Node pos="r" depth="3" NCoef="0" IVar="-1" Cut="0.0000000000000000e+00" cType="1" res="-1.6161810606718063e-02" rms="3.4020283818244934e-01" purity="7.9692059755325317e-01" nType="-99"/>
          </Node>
        </Node>
      </Node>
    </BinaryTree>
    <BinaryTree type="DecisionTree" boostWeight="1.0000000000000000e+00" itree="426">
      <Node pos="s" depth="0" NCoef="0" IVar="6" Cut="-1.4394557476043701e+00" cType="1" res="2.1530038211494684e-03" rms="3.8664624094963074e-01" purity="5.0198745727539062e-01" nType="0">
        <Node pos="l" depth="1" NCoef="0" IVar="3" Cut="2.0499626159667969e+02" cType="1" res="1.9142640754580498e-02" rms="3.4339898824691772e-01" purity="2.4126634001731873e-01" nType="0">
          <Node pos="l" depth="2" NCoef="0" IVar="-1" Cut="0.0000000000000000e+00" cType="1" res="3.4274909645318985e-02" rms="3.3159655332565308e-01" purity="1.8213972449302673e-01" nType="-99"/>
          <Node pos="r" depth="2" NCoef="0" IVar="-1" Cut="0.0000000000000000e+00" cType="1" res="-3.6935575772076845e-03" rms="3.6325761675834656e-01" purity="3.5224243998527527e-01" nType="-99"/>
        </Node>
        <Node pos="r" depth="1" NCoef="0" IVar="9" Cut="-1.7332526445388794e+00" cType="1" res="8.3853880641981959e-04" rms="3.8976144790649414e-01" purity="5.2215909957885742e-01" nType="0">
          <Node pos="l" depth="2" NCoef="0" IVar="6" Cut="3.7583026289939880e-01" cType="1" res="1.8201094120740891e-02" rms="3.9437833428382874e-01" purity="4.0961873531341553e-01" nType="0">
            <Node pos="l" depth="3" NCoef="0" IVar="-1" Cut="0.0000000000000000e+00" cType="1" res="7.3282950324937701e-04" rms="4.0875989198684692e-01" purity="4.2488640546798706e-01" nType="-99"/>
            <Node pos="r" depth="3" NCoef="0" IVar="-1" Cut="0.0000000000000000e+00" cType="1" res="3.3363360911607742e-02" rms="3.6774098873138428e-01" purity="3.8445213437080383e-01" nType="-99"/>
          </Node>
          <Node pos="r" depth="2" NCoef="0" IVar="6" Cut="7.8107219934463501e-01" cType="1" res="-7.4558495543897152e-04" rms="3.8929891586303711e-01" purity="5.3242707252502441e-01" nType="0">
            <Node pos="l" depth="3" NCoef="0" IVar="-1" Cut="0.0000000000000000e+00" cType="1" res="1.3856088044121861e-03" rms="3.9577752351760864e-01" purity="5.8148914575576782e-01" nType="-99"/>
            <Node pos="r" depth="3" NCoef="0" IVar="-1" Cut="0.0000000000000000e+00" cType="1" res="-8.0579454079270363e-03" rms="3.6510449647903442e-01" purity="3.5768431425094604e-01" nType="-99"/>
          </Node>
        </Node>
      </Node>
    </BinaryTree>
    <BinaryTree type="DecisionTree" boostWeight="1.0000000000000000e+00" itree="427">
      <Node pos="s" depth="0" NCoef="0" IVar="8" Cut="1.4665422439575195e+00" cType="1" res="-1.0624433634802699e-03" rms="3.8489300012588501e-01" purity="4.9723026156425476e-01" nType="0">
        <Node pos="l" depth="1" NCoef="0" IVar="6" Cut="-3.9013996720314026e-01" cType="1" res="6.3278118614107370e-04" rms="3.8702562451362610e-01" purity="5.1962220668792725e-01" nType="0">
          <Node pos="l" depth="2" NCoef="0" IVar="1" Cut="1.6917460937500000e+03" cType="1" res="-6.2879258766770363e-03" rms="3.8527661561965942e-01" purity="4.4774168729782104e-01" nType="0">
            <Node pos="l" depth="3" NCoef="0" IVar="-1" Cut="0.0000000000000000e+00" cType="1" res="-2.0802915096282959e-03" rms="3.8822644948959351e-01" purity="4.0144097805023193e-01" nType="-99"/>
            <Node pos="r" depth="3" NCoef="0" IVar="-1" Cut="0.0000000000000000e+00" cType="1" res="-2.0438306033611298e-02" rms="3.6529579758644104e-01" purity="7.4266386032104492e-01" nType="-99"/>
          </Node>
          <Node pos="r" depth="2" NCoef="0" IVar="7" Cut="-6.6662615537643433e-01" cType="1" res="4.0696896612644196e-03" rms="3.8784539699554443e-01" purity="5.5531895160675049e-01" nType="0">
            <Node pos="l" depth="3" NCoef="0" IVar="-1" Cut="0.0000000000000000e+00" cType="1" res="9.4164712354540825e-03" rms="3.8652646541595459e-01" purity="4.7755360603332520e-01" nType="-99"/>
            <Node pos="r" depth="3" NCoef="0" IVar="-1" Cut="0.0000000000000000e+00" cType="1" res="2.9606278985738754e-04" rms="3.8823854923248291e-01" purity="5.8242052793502808e-01" nType="-99"/>
          </Node>
        </Node>
        <Node pos="r" depth="1" NCoef="0" IVar="2" Cut="3.3987387084960938e+02" cType="1" res="-1.6066996380686760e-02" rms="3.6513182520866394e-01" purity="2.9903739690780640e-01" nType="0">
          <Node pos="l" depth="2" NCoef="0" IVar="-1" Cut="0.0000000000000000e+00" cType="1" res="-2.7010641060769558e-03" rms="3.6198750138282776e-01" purity="2.8757867217063904e-01" nType="-99"/>
          <Node pos="r" depth="2" NCoef="0" IVar="-1" Cut="0.0000000000000000e+00" cType="1" res="-2.1360116079449654e-02" rms="3.6818590760231018e-01" purity="3.1210127472877502e-01" nType="-99"/>
        </Node>
      </Node>
    </BinaryTree>
    <BinaryTree type="DecisionTree" boostWeight="1.0000000000000000e+00" itree="428">
      <Node pos="s" depth="0" NCoef="0" IVar="7" Cut="4.0007266402244568e-01" cType="1" res="4.5665778452530503e-04" rms="3.8294801115989685e-01" purity="4.9921798706054688e-01" nType="0">
        <Node pos="l" depth="1" NCoef="0" IVar="8" Cut="1.3326270878314972e-01" cType="1" res="-3.7841117009520531e-03" rms="3.8344332575798035e-01" purity="5.1996564865112305e-01" nType="0">
          <Node pos="l" depth="2" NCoef="0" IVar="6" Cut="1.5399040281772614e-01" cType="1" res="1.2653057929128408e-03" rms="3.8355982303619385e-01" purity="5.2782762050628662e-01" nType="0">
            <Node pos="l" depth="3" NCoef="0" IVar="-1" Cut="0.0000000000000000e+00" cType="1" res="-3.4021774772554636e-03" rms="3.8570675253868103e-01" purity="5.2962589263916016e-01" nType="-99"/>
            <Node pos="r" depth="3" NCoef="0" IVar="-1" Cut="0.0000000000000000e+00" cType="1" res="7.6102800667285919e-03" rms="3.7991008162498474e-01" purity="5.2497583627700806e-01" nType="-99"/>
          </Node>
          <Node pos="r" depth="2" NCoef="0" IVar="4" Cut="1.8915214538574219e+02" cType="1" res="-1.0974777862429619e-02" rms="3.8316249847412109e-01" purity="5.0876981019973755e-01" nType="0">
            <Node pos="l" depth="3" NCoef="0" IVar="-1" Cut="0.0000000000000000e+00" cType="1" res="-3.6994318943470716e-03" rms="3.8952171802520752e-01" purity="4.5541468262672424e-01" nType="-99"/>
            <Node pos="r" depth="3" NCoef="0" IVar="-1" Cut="0.0000000000000000e+00" cType="1" res="-2.9657106846570969e-02" rms="3.5168540477752686e-01" purity="7.5264656543731689e-01" nType="-99"/>
          </Node>
        </Node>
        <Node pos="r" depth="1" NCoef="0" IVar="8" Cut="-1.4665572643280029e+00" cType="1" res="8.1363776698708534e-03" rms="3.8192954659461975e-01" purity="4.6164551377296448e-01" nType="0">
          <Node pos="l" depth="2" NCoef="0" IVar="-1" Cut="0.0000000000000000e+00" cType="1" res="-2.1477064117789268e-02" rms="3.5437461733818054e-01" purity="2.5804561376571655e-01" nType="-99"/>
          <Node pos="r" depth="2" NCoef="0" IVar="9" Cut="-6.6658335924148560e-01" cType="1" res="1.1725109070539474e-02" rms="3.8435554504394531e-01" purity="4.8173955082893372e-01" nType="0">
            <Node pos="l" depth="3" NCoef="0" IVar="-1" Cut="0.0000000000000000e+00" cType="1" res="-3.1127040274441242e-03" rms="3.8303786516189575e-01" purity="4.5627483725547791e-01" nType="-99"/>
            <Node pos="r" depth="3" NCoef="0" IVar="-1" Cut="0.0000000000000000e+00" cType="1" res="1.1510439217090607e-02" rms="3.8463202118873596e-01" purity="4.9005988240242004e-01" nType="-99"/>
          </Node>
        </Node>
      </Node>
    </BinaryTree>
    <BinaryTree type="DecisionTree" boostWeight="1.0000000000000000e+00" itree="429">
      <Node pos="s" depth="0" NCoef="0" IVar="6" Cut="9.4821184873580933e-01" cType="1" res="1.1187281925231218e-03" rms="3.8085618615150452e-01" purity="5.0163590908050537e-01" nType="0">
        <Node pos="l" depth="1" NCoef="0" IVar="0" Cut="4.4703958129882812e+02" cType="1" res="3.3703076187521219e-03" rms="3.8621735572814941e-01" purity="5.4009485244750977e-01" nType="0">
          <Node pos="l" depth="2" NCoef="0" IVar="2" Cut="5.4462011718750000e+02" cType="1" res="-1.8739805091172457e-03" rms="3.9997380971908569e-01" purity="3.8979569077491760e-01" nType="0">
            <Node pos="l" depth="3" NCoef="0" IVar="-1" Cut="0.0000000000000000e+00" cType="1" res="3.4661043900996447e-04" rms="4.0034174919128418e-01" purity="3.9396849274635315e-01" nType="-99"/>
            <Node pos="r" depth="3" NCoef="0" IVar="-1" Cut="0.0000000000000000e+00" cType="1" res="-2.3052992299199104e-02" rms="3.9246416091918945e-01" purity="3.2630088925361633e-01" nType="-99"/>
          </Node>
          <Node pos="r" depth="2" NCoef="0" IVar="4" Cut="9.9544059753417969e+01" cType="1" res="1.0341932065784931e-02" rms="3.6701661348342896e-01" purity="7.3989874124526978e-01" nType="0">
            <Node pos="l" depth="3" NCoef="0" IVar="-1" Cut="0.0000000000000000e+00" cType="1" res="1.5400301665067673e-02" rms="4.3816897273063660e-01" purity="4.7927939891815186e-01" nType="-99"/>
            <Node pos="r" depth="3" NCoef="0" IVar="-1" Cut="0.0000000000000000e+00" cType="1" res="4.1577355004847050e-03" rms="3.4475350379943848e-01" purity="8.1141912937164307e-01" nType="-99"/>
          </Node>
        </Node>
        <Node pos="r" depth="1" NCoef="0" IVar="7" Cut="-1.3325400650501251e-01" cType="1" res="-1.0595415718853474e-02" rms="3.5141503810882568e-01" purity="3.0154830217361450e-01" nType="0">
          <Node pos="l" depth="2" NCoef="0" IVar="6" Cut="1.3009305000305176e+00" cType="1" res="-2.4734480306506157e-02" rms="3.3848506212234497e-01" purity="2.7296227216720581e-01" nType="0">
            <Node pos="l" depth="3" NCoef="0" IVar="-1" Cut="0.0000000000000000e+00" cType="1" res="-3.0322559177875519e-02" rms="3.6457455158233643e-01" purity="3.5321384668350220e-01" nType="-99"/>
            <Node pos="r" depth="3" NCoef="0" IVar="-1" Cut="0.0000000000000000e+00" cType="1" res="-9.3264644965529442e-03" rms="3.1783714890480042e-01" purity="2.1569615602493286e-01" nType="-99"/>
          </Node>
          <Node pos="r" depth="2" NCoef="0" IVar="6" Cut="1.2125270366668701e+00" cType="1" res="-6.9539959076792002e-04" rms="3.5986179113388062e-01" purity="3.2156392931938171e-01" nType="0">
            <Node pos="l" depth="3" NCoef="0" IVar="-1" Cut="0.0000000000000000e+00" cType="1" res="1.3683130964636803e-02" rms="4.0830832719802856e-01" purity="4.5713949203491211e-01" nType="-99"/>
            <Node pos="r" depth="3" NCoef="0" IVar="-1" Cut="0.0000000000000000e+00" cType="1" res="-1.0846954770386219e-02" rms="3.2916340231895447e-01" purity="2.4603311717510223e-01" nType="-99"/>
          </Node>
        </Node>
      </Node>
    </BinaryTree>
    <BinaryTree type="DecisionTree" boostWeight="1.0000000000000000e+00" itree="430">
      <Node pos="s" depth="0" NCoef="0" IVar="6" Cut="9.3906182050704956e-01" cType="1" res="1.6325289616361260e-03" rms="3.8465747237205505e-01" purity="5.0255942344665527e-01" nType="0">
        <Node pos="l" depth="1" NCoef="0" IVar="7" Cut="1.4666717052459717e+00" cType="1" res="-7.4925326043739915e-04" rms="3.8868156075477600e-01" purity="5.3601723909378052e-01" nType="0">
          <Node pos="l" depth="2" NCoef="0" IVar="8" Cut="1.7332099676132202e+00" cType="1" res="-2.4231430143117905e-03" rms="3.8997235894203186e-01" purity="5.5788743495941162e-01" nType="0">
            <Node pos="l" depth="3" NCoef="0" IVar="-1" Cut="0.0000000000000000e+00" cType="1" res="-2.4763855617493391e-03" rms="3.9038547873497009e-01" purity="5.7043313980102539e-01" nType="-99"/>
            <Node pos="r" depth="3" NCoef="0" IVar="-1" Cut="0.0000000000000000e+00" cType="1" res="1.1600132100284100e-02" rms="3.8334885239601135e-01" purity="3.7561309337615967e-01" nType="-99"/>
          </Node>
          <Node pos="r" depth="2" NCoef="0" IVar="0" Cut="4.1472903442382812e+02" cType="1" res="1.6793109476566315e-02" rms="3.7443700432777405e-01" purity="3.0681782960891724e-01" nType="0">
            <Node pos="l" depth="3" NCoef="0" IVar="-1" Cut="0.0000000000000000e+00" cType="1" res="3.7745230656582862e-05" rms="3.4565746784210205e-01" purity="1.7604547739028931e-01" nType="-99"/>
            <Node pos="r" depth="3" NCoef="0" IVar="-1" Cut="0.0000000000000000e+00" cType="1" res="2.2003980353474617e-02" rms="4.0935450792312622e-01" purity="4.8522597551345825e-01" nType="-99"/>
          </Node>
        </Node>
        <Node pos="r" depth="1" NCoef="0" IVar="8" Cut="-9.3325251340866089e-01" cType="1" res="1.3358688913285732e-02" rms="3.6397087574005127e-01" purity="3.3783763647079468e-01" nType="0">
          <Node pos="l" depth="2" NCoef="0" IVar="-1" Cut="0.0000000000000000e+00" cType="1" res="-2.1788416430354118e-02" rms="3.2010981440544128e-01" purity="1.8752618134021759e-01" nType="-99"/>
          <Node pos="r" depth="2" NCoef="0" IVar="8" Cut="1.3777616024017334e+00" cType="1" res="2.1948259323835373e-02" rms="3.7271833419799805e-01" purity="3.7211108207702637e-01" nType="0">
            <Node pos="l" depth="3" NCoef="0" IVar="-1" Cut="0.0000000000000000e+00" cType="1" res="2.0051671192049980e-02" rms="3.8533890247344971e-01" purity="4.1584697365760803e-01" nType="-99"/>
            <Node pos="r" depth="3" NCoef="0" IVar="-1" Cut="0.0000000000000000e+00" cType="1" res="-6.6990712657570839e-03" rms="3.1108528375625610e-01" purity="1.8416823446750641e-01" nType="-99"/>
          </Node>
        </Node>
      </Node>
    </BinaryTree>
    <BinaryTree type="DecisionTree" boostWeight="1.0000000000000000e+00" itree="431">
      <Node pos="s" depth="0" NCoef="0" IVar="8" Cut="1.1999627351760864e+00" cType="1" res="-3.5388951655477285e-03" rms="3.8304460048675537e-01" purity="4.9409008026123047e-01" nType="0">
        <Node pos="l" depth="1" NCoef="0" IVar="6" Cut="1.2101850509643555e+00" cType="1" res="-8.2900421693921089e-04" rms="3.8552364706993103e-01" purity="5.2260845899581909e-01" nType="0">
          <Node pos="l" depth="2" NCoef="0" IVar="6" Cut="4.5313197374343872e-01" cType="1" res="-2.8127022087574005e-03" rms="3.8819989562034607e-01" purity="5.4640305042266846e-01" nType="0">
            <Node pos="l" depth="3" NCoef="0" IVar="-1" Cut="0.0000000000000000e+00" cType="1" res="7.0084154140204191e-04" rms="3.8693445920944214e-01" purity="5.5329430103302002e-01" nType="-99"/>
            <Node pos="r" depth="3" NCoef="0" IVar="-1" Cut="0.0000000000000000e+00" cType="1" res="-1.0479164309799671e-02" rms="3.9228811860084534e-01" purity="5.2232778072357178e-01" nType="-99"/>
          </Node>
          <Node pos="r" depth="2" NCoef="0" IVar="4" Cut="1.1530204772949219e+02" cType="1" res="1.6888815909624100e-02" rms="3.6025670170783997e-01" purity="3.1008201837539673e-01" nType="0">
            <Node pos="l" depth="3" NCoef="0" IVar="-1" Cut="0.0000000000000000e+00" cType="1" res="3.4312088042497635e-02" rms="3.3525231480598450e-01" purity="1.9775065779685974e-01" nType="-99"/>
            <Node pos="r" depth="3" NCoef="0" IVar="-1" Cut="0.0000000000000000e+00" cType="1" res="-1.4966633170843124e-03" rms="3.8303488492965698e-01" purity="4.2418476939201355e-01" nType="-99"/>
          </Node>
        </Node>
        <Node pos="r" depth="1" NCoef="0" IVar="7" Cut="1.3328830897808075e-01" cType="1" res="-1.9065609201788902e-02" rms="3.6813479661941528e-01" purity="3.3068978786468506e-01" nType="0">
          <Node pos="l" depth="2" NCoef="0" IVar="5" Cut="7.6429000854492188e+01" cType="1" res="-2.9365667141973972e-03" rms="3.7919238209724426e-01" purity="3.6122757196426392e-01" nType="0">
            <Node pos="l" depth="3" NCoef="0" IVar="-1" Cut="0.0000000000000000e+00" cType="1" res="8.4398603066802025e-03" rms="3.5768264532089233e-01" purity="2.4797463417053223e-01" nType="-99"/>
            <Node pos="r" depth="3" NCoef="0" IVar="-1" Cut="0.0000000000000000e+00" cType="1" res="-1.1277115903794765e-02" rms="4.0124750137329102e-01" purity="4.8755875229835510e-01" nType="-99"/>
          </Node>
          <Node pos="r" depth="2" NCoef="0" IVar="4" Cut="1.0775018310546875e+02" cType="1" res="-3.4377630800008774e-02" rms="3.5664656758308411e-01" purity="3.0169883370399475e-01" nType="0">
            <Node pos="l" depth="3" NCoef="0" IVar="-1" Cut="0.0000000000000000e+00" cType="1" res="-1.3054123148322105e-02" rms="3.2591769099235535e-01" purity="1.7763999104499817e-01" nType="-99"/>
            <Node pos="r" depth="3" NCoef="0" IVar="-1" Cut="0.0000000000000000e+00" cType="1" res="-3.3125862479209900e-02" rms="3.8309755921363831e-01" purity="4.2146673798561096e-01" nType="-99"/>
          </Node>
        </Node>
      </Node>
    </BinaryTree>
    <BinaryTree type="DecisionTree" boostWeight="1.0000000000000000e+00" itree="432">
      <Node pos="s" depth="0" NCoef="0" IVar="9" Cut="9.3333864212036133e-01" cType="1" res="-5.2782860584557056e-03" rms="3.8205596804618835e-01" purity="4.9167186021804810e-01" nType="0">
        <Node pos="l" depth="1" NCoef="0" IVar="6" Cut="-1.7193326950073242e+00" cType="1" res="-2.8232256881892681e-03" rms="3.8387089967727661e-01" purity="5.1248103380203247e-01" nType="0">
          <Node pos="l" depth="2" NCoef="0" IVar="-1" Cut="0.0000000000000000e+00" cType="1" res="-2.8864666819572449e-02" rms="2.9126709699630737e-01" purity="1.4647175371646881e-01" nType="-99"/>
          <Node pos="r" depth="2" NCoef="0" IVar="7" Cut="-6.6658198833465576e-01" cType="1" res="-1.7263963818550110e-03" rms="3.8720819354057312e-01" purity="5.2772212028503418e-01" nType="0">
            <Node pos="l" depth="3" NCoef="0" IVar="-1" Cut="0.0000000000000000e+00" cType="1" res="4.5790425501763821e-03" rms="3.8549593091011047e-01" purity="4.4702145457267761e-01" nType="-99"/>
            <Node pos="r" depth="3" NCoef="0" IVar="-1" Cut="0.0000000000000000e+00" cType="1" res="-3.3248618710786104e-03" rms="3.8781014084815979e-01" purity="5.5860388278961182e-01" nType="-99"/>
          </Node>
        </Node>
        <Node pos="r" depth="1" NCoef="0" IVar="3" Cut="1.4721409606933594e+02" cType="1" res="-1.3630388304591179e-02" rms="3.7569585442543030e-01" purity="4.2087915539741516e-01" nType="0">
          <Node pos="l" depth="2" NCoef="0" IVar="9" Cut="1.4665874242782593e+00" cType="1" res="-2.7823830023407936e-02" rms="3.2820656895637512e-01" purity="1.9025951623916626e-01" nType="0">
            <Node pos="l" depth="3" NCoef="0" IVar="-1" Cut="0.0000000000000000e+00" cType="1" res="-6.4175939187407494e-03" rms="3.5042622685432434e-01" purity="2.2258631885051727e-01" nType="-99"/>
            <Node pos="r" depth="3" NCoef="0" IVar="-1" Cut="0.0000000000000000e+00" cType="1" res="-3.5566225647926331e-02" rms="3.0885213613510132e-01" purity="1.6494202613830566e-01" nType="-99"/>
          </Node>
          <Node pos="r" depth="2" NCoef="0" IVar="9" Cut="1.2888934612274170e+00" cType="1" res="-8.0584390088915825e-03" rms="3.9263221621513367e-01" purity="5.1141393184661865e-01" nType="0">
            <Node pos="l" depth="3" NCoef="0" IVar="-1" Cut="0.0000000000000000e+00" cType="1" res="-1.9094143062829971e-02" rms="3.7919819355010986e-01" purity="5.4445666074752808e-01" nType="-99"/>
            <Node pos="r" depth="3" NCoef="0" IVar="-1" Cut="0.0000000000000000e+00" cType="1" res="1.7709407256916165e-03" rms="3.9902359247207642e-01" purity="4.9418959021568298e-01" nType="-99"/>
          </Node>
        </Node>
      </Node>
    </BinaryTree>
    <BinaryTree type="DecisionTree" boostWeight="1.0000000000000000e+00" itree="433">
      <Node pos="s" depth="0" NCoef="0" IVar="8" Cut="1.3328406214714050e-01" cType="1" res="2.1228857804089785e-03" rms="3.8519430160522461e-01" purity="4.9916651844978333e-01" nType="0">
        <Node pos="l" depth="1" NCoef="0" IVar="6" Cut="4.1909971833229065e-01" cType="1" res="9.1048777103424072e-03" rms="3.8520944118499756e-01" purity="5.1692759990692139e-01" nType="0">
          <Node pos="l" depth="2" NCoef="0" IVar="6" Cut="-9.4115829467773438e-01" cType="1" res="4.8359218053519726e-03" rms="3.8839116692543030e-01" purity="5.3536254167556763e-01" nType="0">
            <Node pos="l" depth="3" NCoef="0" IVar="-1" Cut="0.0000000000000000e+00" cType="1" res="1.2707055546343327e-02" rms="3.7133803963661194e-01" purity="3.3745402097702026e-01" nType="-99"/>
            <Node pos="r" depth="3" NCoef="0" IVar="-1" Cut="0.0000000000000000e+00" cType="1" res="4.5707973185926676e-04" rms="3.9397123456001282e-01" purity="6.0306662321090698e-01" nType="-99"/>
          </Node>
          <Node pos="r" depth="2" NCoef="0" IVar="0" Cut="4.1251550292968750e+02" cType="1" res="1.8779257312417030e-02" rms="3.7772125005722046e-01" purity="4.7515001893043518e-01" nType="0">
            <Node pos="l" depth="3" NCoef="0" IVar="-1" Cut="0.0000000000000000e+00" cType="1" res="2.3184470832347870e-02" rms="3.8375461101531982e-01" purity="3.2331550121307373e-01" nType="-99"/>
            <Node pos="r" depth="3" NCoef="0" IVar="-1" Cut="0.0000000000000000e+00" cType="1" res="1.8667672993615270e-03" rms="3.7036728858947754e-01" purity="6.4069640636444092e-01" nType="-99"/>
          </Node>
        </Node>
        <Node pos="r" depth="1" NCoef="0" IVar="7" Cut="1.1999439001083374e+00" cType="1" res="-6.4132320694625378e-03" rms="3.8500383496284485e-01" purity="4.7745200991630554e-01" nType="0">
          <Node pos="l" depth="2" NCoef="0" IVar="6" Cut="-6.4491218328475952e-01" cType="1" res="-1.0073228739202023e-02" rms="3.8734731078147888e-01" purity="5.1010531187057495e-01" nType="0">
            <Node pos="l" depth="3" NCoef="0" IVar="-1" Cut="0.0000000000000000e+00" cType="1" res="-1.9245315343141556e-02" rms="3.7253287434577942e-01" purity="3.8342326879501343e-01" nType="-99"/>
            <Node pos="r" depth="3" NCoef="0" IVar="-1" Cut="0.0000000000000000e+00" cType="1" res="-3.4539364278316498e-03" rms="3.9110556244850159e-01" purity="5.4425460100173950e-01" nType="-99"/>
          </Node>
          <Node pos="r" depth="2" NCoef="0" IVar="4" Cut="1.2325050354003906e+02" cType="1" res="1.2116982601583004e-02" rms="3.7236148118972778e-01" purity="3.1213155388832092e-01" nType="0">
            <Node pos="l" depth="3" NCoef="0" IVar="-1" Cut="0.0000000000000000e+00" cType="1" res="6.0741225024685264e-04" rms="3.4277164936065674e-01" purity="1.8245255947113037e-01" nType="-99"/>
            <Node pos="r" depth="3" NCoef="0" IVar="-1" Cut="0.0000000000000000e+00" cType="1" res="1.7048861831426620e-02" rms="4.1051116585731506e-01" purity="4.9795255064964294e-01" nType="-99"/>
          </Node>
        </Node>
      </Node>
    </BinaryTree>
    <BinaryTree type="DecisionTree" boostWeight="1.0000000000000000e+00" itree="434">
      <Node pos="s" depth="0" NCoef="0" IVar="6" Cut="1.4153794944286346e-01" cType="1" res="5.8632611762732267e-04" rms="3.8328790664672852e-01" purity="4.9947655200958252e-01" nType="0">
        <Node pos="l" depth="1" NCoef="0" IVar="3" Cut="1.4309536743164062e+02" cType="1" res="4.8834262415766716e-03" rms="3.8560009002685547e-01" purity="5.1780480146408081e-01" nType="0">
          <Node pos="l" depth="2" NCoef="0" IVar="5" Cut="6.7270515441894531e+01" cType="1" res="1.8171334639191628e-02" rms="3.7549036741256714e-01" purity="2.5512805581092834e-01" nType="0">
            <Node pos="l" depth="3" NCoef="0" IVar="-1" Cut="0.0000000000000000e+00" cType="1" res="6.1697480268776417e-03" rms="3.3344885706901550e-01" purity="1.6414363682270050e-01" nType="-99"/>
            <Node pos="r" depth="3" NCoef="0" IVar="-1" Cut="0.0000000000000000e+00" cType="1" res="1.9514838233590126e-02" rms="4.2188265919685364e-01" purity="3.6915636062622070e-01" nType="-99"/>
          </Node>
          <Node pos="r" depth="2" NCoef="0" IVar="0" Cut="7.1653137207031250e+02" cType="1" res="1.0631746845319867e-03" rms="3.8837379217147827e-01" purity="5.9332388639450073e-01" nType="0">
            <Node pos="l" depth="3" NCoef="0" IVar="-1" Cut="0.0000000000000000e+00" cType="1" res="1.7004371620714664e-03" rms="3.9187827706336975e-01" purity="5.7635253667831421e-01" nType="-99"/>
            <Node pos="r" depth="3" NCoef="0" IVar="-1" Cut="0.0000000000000000e+00" cType="1" res="-1.9603958353400230e-02" rms="3.3646866679191589e-01" purity="8.2361543178558350e-01" nType="-99"/>
          </Node>
        </Node>
        <Node pos="r" depth="1" NCoef="0" IVar="8" Cut="6.6663986444473267e-01" cType="1" res="-5.0064255483448505e-03" rms="3.8018473982810974e-01" purity="4.7562199831008911e-01" nType="0">
          <Node pos="l" depth="2" NCoef="0" IVar="8" Cut="-1.3142380714416504e+00" cType="1" res="-1.0933673009276390e-02" rms="3.7860068678855896e-01" purity="5.0583428144454956e-01" nType="0">
            <Node pos="l" depth="3" NCoef="0" IVar="-1" Cut="0.0000000000000000e+00" cType="1" res="9.6404245123267174e-03" rms="3.7772336602210999e-01" purity="3.4792152047157288e-01" nType="-99"/>
            <Node pos="r" depth="3" NCoef="0" IVar="-1" Cut="0.0000000000000000e+00" cType="1" res="-1.0977062396705151e-02" rms="3.7858307361602783e-01" purity="5.4070538282394409e-01" nType="-99"/>
          </Node>
          <Node pos="r" depth="2" NCoef="0" IVar="4" Cut="9.3757644653320312e+01" cType="1" res="7.6343687251210213e-03" rms="3.8323500752449036e-01" purity="4.1118952631950378e-01" nType="0">
            <Node pos="l" depth="3" NCoef="0" IVar="-1" Cut="0.0000000000000000e+00" cType="1" res="-7.5406911782920361e-03" rms="3.1740909814834595e-01" purity="1.7209269106388092e-01" nType="-99"/>
            <Node pos="r" depth="3" NCoef="0" IVar="-1" Cut="0.0000000000000000e+00" cType="1" res="9.1681331396102905e-03" rms="4.0968558192253113e-01" purity="5.2081763744354248e-01" nType="-99"/>
          </Node>
        </Node>
      </Node>
    </BinaryTree>
    <BinaryTree type="DecisionTree" boostWeight="1.0000000000000000e+00" itree="435">
      <Node pos="s" depth="0" NCoef="0" IVar="9" Cut="-1.4666626453399658e+00" cType="1" res="1.3333256356418133e-03" rms="3.8466119766235352e-01" purity="4.9971547722816467e-01" nType="0">
        <Node pos="l" depth="1" NCoef="0" IVar="9" Cut="-2.2920465469360352e+00" cType="1" res="-1.6283078119158745e-02" rms="3.7369522452354431e-01" purity="3.7490987777709961e-01" nType="0">
          <Node pos="l" depth="2" NCoef="0" IVar="-1" Cut="0.0000000000000000e+00" cType="1" res="3.4280351828783751e-03" rms="3.7619814276695251e-01" purity="3.1910678744316101e-01" nType="-99"/>
          <Node pos="r" depth="2" NCoef="0" IVar="9" Cut="-1.9776225090026855e+00" cType="1" res="-2.3034181445837021e-02" rms="3.7263602018356323e-01" purity="3.9284089207649231e-01" nType="0">
            <Node pos="l" depth="3" NCoef="0" IVar="-1" Cut="0.0000000000000000e+00" cType="1" res="-2.7923461049795151e-02" rms="3.5691776871681213e-01" purity="3.2417863607406616e-01" nType="-99"/>
            <Node pos="r" depth="3" NCoef="0" IVar="-1" Cut="0.0000000000000000e+00" cType="1" res="-1.0346202179789543e-02" rms="3.7865442037582397e-01" purity="4.2100331187248230e-01" nType="-99"/>
          </Node>
        </Node>
        <Node pos="r" depth="1" NCoef="0" IVar="7" Cut="-1.9999428987503052e+00" cType="1" res="3.7128485273569822e-03" rms="3.8605692982673645e-01" purity="5.1657348871231079e-01" nType="0">
          <Node pos="l" depth="2" NCoef="0" IVar="-1" Cut="0.0000000000000000e+00" cType="1" res="-2.5484703481197357e-02" rms="2.9449227452278137e-01" purity="1.6608868539333344e-01" nType="-99"/>
          <Node pos="r" depth="2" NCoef="0" IVar="9" Cut="1.1745314598083496e+00" cType="1" res="4.6852435916662216e-03" rms="3.8854295015335083e-01" purity="5.2757918834686279e-01" nType="0">
            <Node pos="l" depth="3" NCoef="0" IVar="-1" Cut="0.0000000000000000e+00" cType="1" res="1.4226404018700123e-03" rms="3.8863793015480042e-01" purity="5.4890227317810059e-01" nType="-99"/>
            <Node pos="r" depth="3" NCoef="0" IVar="-1" Cut="0.0000000000000000e+00" cType="1" res="9.4159990549087524e-03" rms="3.8803109526634216e-01" purity="4.4648459553718567e-01" nType="-99"/>
          </Node>
        </Node>
      </Node>
    </BinaryTree>
    <BinaryTree type="DecisionTree" boostWeight="1.0000000000000000e+00" itree="436">
      <Node pos="s" depth="0" NCoef="0" IVar="8" Cut="-1.7332152128219604e+00" cType="1" res="2.6407486293464899e-03" rms="3.8639569282531738e-01" purity="4.9926763772964478e-01" nType="0">
        <Node pos="l" depth="1" NCoef="0" IVar="8" Cut="-2.0887689590454102e+00" cType="1" res="-2.0629908889532089e-02" rms="3.5415843129158020e-01" purity="2.6541697978973389e-01" nType="0">
          <Node pos="l" depth="2" NCoef="0" IVar="-1" Cut="0.0000000000000000e+00" cType="1" res="-2.5832917541265488e-02" rms="3.2657411694526672e-01" purity="2.0508129894733429e-01" nType="-99"/>
          <Node pos="r" depth="2" NCoef="0" IVar="-1" Cut="0.0000000000000000e+00" cType="1" res="-6.2676840461790562e-03" rms="3.7993183732032776e-01" purity="3.2705292105674744e-01" nType="-99"/>
        </Node>
        <Node pos="r" depth="1" NCoef="0" IVar="7" Cut="-6.6664117574691772e-01" cType="1" res="4.3651936575770378e-03" rms="3.8862273097038269e-01" purity="5.1659685373306274e-01" nType="0">
          <Node pos="l" depth="2" NCoef="0" IVar="0" Cut="4.3884634399414062e+02" cType="1" res="1.1580276302993298e-02" rms="3.8594570755958557e-01" purity="4.4335743784904480e-01" nType="0">
            <Node pos="l" depth="3" NCoef="0" IVar="-1" Cut="0.0000000000000000e+00" cType="1" res="3.4596067853271961e-03" rms="3.8221958279609680e-01" purity="3.0350559949874878e-01" nType="-99"/>
            <Node pos="r" depth="3" NCoef="0" IVar="-1" Cut="0.0000000000000000e+00" cType="1" res="1.3679661788046360e-02" rms="3.9120638370513916e-01" purity="6.5063017606735229e-01" nType="-99"/>
          </Node>
          <Node pos="r" depth="2" NCoef="0" IVar="2" Cut="3.4929663085937500e+02" cType="1" res="1.7465339042246342e-03" rms="3.8955676555633545e-01" purity="5.4317849874496460e-01" nType="0">
            <Node pos="l" depth="3" NCoef="0" IVar="-1" Cut="0.0000000000000000e+00" cType="1" res="-1.5607577515766025e-03" rms="3.9959961175918579e-01" purity="4.9535575509071350e-01" nType="-99"/>
            <Node pos="r" depth="3" NCoef="0" IVar="-1" Cut="0.0000000000000000e+00" cType="1" res="4.0745525620877743e-03" rms="3.7922215461730957e-01" purity="5.9090685844421387e-01" nType="-99"/>
          </Node>
        </Node>
      </Node>
    </BinaryTree>
    <BinaryTree type="DecisionTree" boostWeight="1.0000000000000000e+00" itree="437">
      <Node pos="s" depth="0" NCoef="0" IVar="1" Cut="1.1048721923828125e+03" cType="1" res="-2.7899022679775953e-03" rms="3.7960615754127502e-01" purity="4.9931472539901733e-01" nType="0">
        <Node pos="l" depth="1" NCoef="0" IVar="0" Cut="4.2370538330078125e+02" cType="1" res="-1.1194157414138317e-02" rms="3.6712259054183960e-01" purity="2.1550513803958893e-01" nType="0">
          <Node pos="l" depth="2" NCoef="0" IVar="9" Cut="1.4665355682373047e+00" cType="1" res="-6.0562933795154095e-03" rms="3.6332914233207703e-01" purity="2.0812712609767914e-01" nType="0">
            <Node pos="l" depth="3" NCoef="0" IVar="-1" Cut="0.0000000000000000e+00" cType="1" res="-1.5440117567777634e-03" rms="3.7014198303222656e-01" purity="2.1910035610198975e-01" nType="-99"/>
            <Node pos="r" depth="3" NCoef="0" IVar="-1" Cut="0.0000000000000000e+00" cType="1" res="-2.5344194844365120e-02" rms="3.1779360771179199e-01" purity="1.4144755899906158e-01" nType="-99"/>
          </Node>
          <Node pos="r" depth="2" NCoef="0" IVar="-1" Cut="0.0000000000000000e+00" cType="1" res="-2.5988250970840454e-02" rms="3.8943821191787720e-01" purity="2.6395121216773987e-01" nType="-99"/>
        </Node>
        <Node pos="r" depth="1" NCoef="0" IVar="9" Cut="-6.6656094789505005e-01" cType="1" res="1.1085822479799390e-03" rms="3.8519734144210815e-01" purity="6.3096553087234497e-01" nType="0">
          <Node pos="l" depth="2" NCoef="0" IVar="7" Cut="3.9975455403327942e-01" cType="1" res="-7.7871759422123432e-03" rms="3.8726246356964111e-01" purity="5.9300434589385986e-01" nType="0">
            <Node pos="l" depth="3" NCoef="0" IVar="-1" Cut="0.0000000000000000e+00" cType="1" res="-1.0233242996037006e-02" rms="3.8004791736602783e-01" purity="6.0129386186599731e-01" nType="-99"/>
            <Node pos="r" depth="3" NCoef="0" IVar="-1" Cut="0.0000000000000000e+00" cType="1" res="6.1695598997175694e-03" rms="4.0236723423004150e-01" purity="5.7445293664932251e-01" nType="-99"/>
          </Node>
          <Node pos="r" depth="2" NCoef="0" IVar="9" Cut="1.5880228579044342e-01" cType="1" res="4.6892226673662663e-03" rms="3.8430488109588623e-01" purity="6.4624536037445068e-01" nType="0">
            <Node pos="l" depth="3" NCoef="0" IVar="-1" Cut="0.0000000000000000e+00" cType="1" res="8.9381225407123566e-03" rms="3.7895920872688293e-01" purity="6.9206482172012329e-01" nType="-99"/>
            <Node pos="r" depth="3" NCoef="0" IVar="-1" Cut="0.0000000000000000e+00" cType="1" res="-2.6953109772875905e-04" rms="3.8739940524101257e-01" purity="6.1865043640136719e-01" nType="-99"/>
          </Node>
        </Node>
      </Node>
    </BinaryTree>
    <BinaryTree type="DecisionTree" boostWeight="1.0000000000000000e+00" itree="438">
      <Node pos="s" depth="0" NCoef="0" IVar="7" Cut="-1.9998610019683838e+00" cType="1" res="-1.0780195007100701e-03" rms="3.8377034664154053e-01" purity="4.9913802742958069e-01" nType="0">
        <Node pos="l" depth="1" NCoef="0" IVar="-1" Cut="0.0000000000000000e+00" cType="1" res="2.7852136641740799e-02" rms="3.3838775753974915e-01" purity="2.1034221351146698e-01" nType="-99"/>
        <Node pos="r" depth="1" NCoef="0" IVar="9" Cut="1.7332962751388550e+00" cType="1" res="-2.2185745183378458e-03" rms="3.8528782129287720e-01" purity="5.0974512100219727e-01" nType="0">
          <Node pos="l" depth="2" NCoef="0" IVar="9" Cut="4.3806546926498413e-01" cType="1" res="-5.2280398085713387e-04" rms="3.8696497678756714e-01" purity="5.2373260259628296e-01" nType="0">
            <Node pos="l" depth="3" NCoef="0" IVar="-1" Cut="0.0000000000000000e+00" cType="1" res="-2.8891547117382288e-03" rms="3.8684082031250000e-01" purity="5.2124488353729248e-01" nType="-99"/>
            <Node pos="r" depth="3" NCoef="0" IVar="-1" Cut="0.0000000000000000e+00" cType="1" res="5.2418587729334831e-03" rms="3.8710439205169678e-01" purity="5.2920138835906982e-01" nType="-99"/>
          </Node>
          <Node pos="r" depth="2" NCoef="0" IVar="3" Cut="2.2288101196289062e+02" cType="1" res="-2.0601412281394005e-02" rms="3.6611092090606689e-01" purity="3.5811513662338257e-01" nType="0">
            <Node pos="l" depth="3" NCoef="0" IVar="-1" Cut="0.0000000000000000e+00" cType="1" res="-5.0367354415357113e-03" rms="3.5710316896438599e-01" purity="2.8432720899581909e-01" nType="-99"/>
            <Node pos="r" depth="3" NCoef="0" IVar="-1" Cut="0.0000000000000000e+00" cType="1" res="-3.1069774180650711e-02" rms="3.8210937380790710e-01" purity="5.0645029544830322e-01" nType="-99"/>
          </Node>
        </Node>
      </Node>
    </BinaryTree>
    <BinaryTree type="DecisionTree" boostWeight="1.0000000000000000e+00" itree="439">
      <Node pos="s" depth="0" NCoef="0" IVar="4" Cut="9.7429039001464844e+01" cType="1" res="2.9781593475490808e-03" rms="3.8212302327156067e-01" purity="5.0510787963867188e-01" nType="0">
        <Node pos="l" depth="1" NCoef="0" IVar="9" Cut="9.3339985609054565e-01" cType="1" res="-7.1480330079793930e-03" rms="3.6196792125701904e-01" purity="2.2962556779384613e-01" nType="0">
          <Node pos="l" depth="2" NCoef="0" IVar="8" Cut="1.1999373435974121e+00" cType="1" res="-1.4529091306030750e-02" rms="3.6328554153442383e-01" purity="2.3000805079936981e-01" nType="0">
            <Node pos="l" depth="3" NCoef="0" IVar="-1" Cut="0.0000000000000000e+00" cType="1" res="-1.4063174836337566e-02" rms="3.6411070823669434e-01" purity="2.3516111075878143e-01" nType="-99"/>
            <Node pos="r" depth="3" NCoef="0" IVar="-1" Cut="0.0000000000000000e+00" cType="1" res="8.6186537519097328e-03" rms="3.5856693983078003e-01" purity="2.0745769143104553e-01" nType="-99"/>
          </Node>
          <Node pos="r" depth="2" NCoef="0" IVar="4" Cut="7.2678100585937500e+01" cType="1" res="1.3616849668323994e-02" rms="3.5741847753524780e-01" purity="2.2854952514171600e-01" nType="0">
            <Node pos="l" depth="3" NCoef="0" IVar="-1" Cut="0.0000000000000000e+00" cType="1" res="-1.4960928820073605e-02" rms="2.9228731989860535e-01" purity="1.1856184899806976e-01" nType="-99"/>
            <Node pos="r" depth="3" NCoef="0" IVar="-1" Cut="0.0000000000000000e+00" cType="1" res="1.9619796425104141e-02" rms="3.8705727458000183e-01" purity="2.8752520680427551e-01" nType="-99"/>
          </Node>
        </Node>
        <Node pos="r" depth="1" NCoef="0" IVar="6" Cut="1.2163001298904419e+00" cType="1" res="7.0818457752466202e-03" rms="3.8991960883140564e-01" purity="6.1674833297729492e-01" nType="0">
          <Node pos="l" depth="2" NCoef="0" IVar="8" Cut="1.4663884639739990e+00" cType="1" res="8.6370222270488739e-03" rms="3.9179140329360962e-01" purity="6.4382010698318481e-01" nType="0">
            <Node pos="l" depth="3" NCoef="0" IVar="-1" Cut="0.0000000000000000e+00" cType="1" res="4.3316120281815529e-03" rms="3.9004468917846680e-01" purity="6.5991622209548950e-01" nType="-99"/>
            <Node pos="r" depth="3" NCoef="0" IVar="-1" Cut="0.0000000000000000e+00" cType="1" res="1.7003122717142105e-02" rms="4.0900480747222900e-01" purity="4.7599610686302185e-01" nType="-99"/>
          </Node>
          <Node pos="r" depth="2" NCoef="0" IVar="7" Cut="4.0029650926589966e-01" cType="1" res="-8.1566367298364639e-03" rms="3.7073442339897156e-01" purity="3.5148379206657410e-01" nType="0">
            <Node pos="l" depth="3" NCoef="0" IVar="-1" Cut="0.0000000000000000e+00" cType="1" res="-1.4544946141541004e-02" rms="3.6744013428688049e-01" purity="3.6233228445053101e-01" nType="-99"/>
            <Node pos="r" depth="3" NCoef="0" IVar="-1" Cut="0.0000000000000000e+00" cType="1" res="7.8083863481879234e-03" rms="3.7448650598526001e-01" purity="3.3616912364959717e-01" nType="-99"/>
          </Node>
        </Node>
      </Node>
    </BinaryTree>
    <BinaryTree type="DecisionTree" boostWeight="1.0000000000000000e+00" itree="440">
      <Node pos="s" depth="0" NCoef="0" IVar="2" Cut="6.5103533935546875e+02" cType="1" res="-3.0619758181273937e-03" rms="3.8248631358146667e-01" purity="4.9688687920570374e-01" nType="0">
        <Node pos="l" depth="1" NCoef="0" IVar="3" Cut="1.0767115783691406e+02" cType="1" res="-1.5334496274590492e-03" rms="3.8171651959419250e-01" purity="4.9317345023155212e-01" nType="0">
          <Node pos="l" depth="2" NCoef="0" IVar="8" Cut="1.3335220515727997e-01" cType="1" res="1.5282695181667805e-02" rms="3.3283331990242004e-01" purity="1.5463924407958984e-01" nType="0">
            <Node pos="l" depth="3" NCoef="0" IVar="-1" Cut="0.0000000000000000e+00" cType="1" res="2.7990465983748436e-02" rms="3.4775874018669128e-01" purity="1.7110471427440643e-01" nType="-99"/>
            <Node pos="r" depth="3" NCoef="0" IVar="-1" Cut="0.0000000000000000e+00" cType="1" res="-1.2854923261329532e-03" rms="3.1276094913482666e-01" purity="1.3444037735462189e-01" nType="-99"/>
          </Node>
          <Node pos="r" depth="2" NCoef="0" IVar="3" Cut="1.5918432617187500e+02" cType="1" res="-3.2584136351943016e-03" rms="3.8633990287780762e-01" purity="5.2789962291717529e-01" nType="0">
            <Node pos="l" depth="3" NCoef="0" IVar="-1" Cut="0.0000000000000000e+00" cType="1" res="-9.4473687931895256e-03" rms="3.8640686869621277e-01" purity="3.0146560072898865e-01" nType="-99"/>
            <Node pos="r" depth="3" NCoef="0" IVar="-1" Cut="0.0000000000000000e+00" cType="1" res="2.2993619495537132e-04" rms="3.8624858856201172e-01" purity="5.9945678710937500e-01" nType="-99"/>
          </Node>
        </Node>
        <Node pos="r" depth="1" NCoef="0" IVar="1" Cut="2.0658376464843750e+03" cType="1" res="-3.0215648934245110e-02" rms="3.9492690563201904e-01" purity="5.6285440921783447e-01" nType="0">
          <Node pos="l" depth="2" NCoef="0" IVar="-1" Cut="0.0000000000000000e+00" cType="1" res="-2.8738487511873245e-02" rms="4.0631321072578430e-01" purity="3.8804087042808533e-01" nType="-99"/>
          <Node pos="r" depth="2" NCoef="0" IVar="-1" Cut="0.0000000000000000e+00" cType="1" res="-6.5325992181897163e-03" rms="3.8234597444534302e-01" purity="7.3463433980941772e-01" nType="-99"/>
        </Node>
      </Node>
    </BinaryTree>
    <BinaryTree type="DecisionTree" boostWeight="1.0000000000000000e+00" itree="441">
      <Node pos="s" depth="0" NCoef="0" IVar="8" Cut="-1.2000170946121216e+00" cType="1" res="-1.4287709491327405e-03" rms="3.8524582982063293e-01" purity="4.9503019452095032e-01" nType="0">
        <Node pos="l" depth="1" NCoef="0" IVar="5" Cut="1.2019039154052734e+02" cType="1" res="1.5532917343080044e-02" rms="3.7878531217575073e-01" purity="3.8383239507675171e-01" nType="0">
          <Node pos="l" depth="2" NCoef="0" IVar="8" Cut="-1.7333356142044067e+00" cType="1" res="8.1003746017813683e-03" rms="3.7786951661109924e-01" purity="3.1443032622337341e-01" nType="0">
            <Node pos="l" depth="3" NCoef="0" IVar="-1" Cut="0.0000000000000000e+00" cType="1" res="-8.4107024595141411e-03" rms="3.5372355580329895e-01" purity="2.1875646710395813e-01" nType="-99"/>
            <Node pos="r" depth="3" NCoef="0" IVar="-1" Cut="0.0000000000000000e+00" cType="1" res="1.5875695273280144e-02" rms="3.9714294672012329e-01" purity="3.9850685000419617e-01" nType="-99"/>
          </Node>
          <Node pos="r" depth="2" NCoef="0" IVar="-1" Cut="0.0000000000000000e+00" cType="1" res="3.3640444278717041e-02" rms="3.8116669654846191e-01" purity="7.3269867897033691e-01" nType="-99"/>
        </Node>
        <Node pos="r" depth="1" NCoef="0" IVar="6" Cut="-1.7048989534378052e+00" cType="1" res="-4.6820160932838917e-03" rms="3.8638752698898315e-01" purity="5.1635789871215820e-01" nType="0">
          <Node pos="l" depth="2" NCoef="0" IVar="-1" Cut="0.0000000000000000e+00" cType="1" res="1.8389660865068436e-02" rms="3.4750956296920776e-01" purity="2.1379126608371735e-01" nType="-99"/>
          <Node pos="r" depth="2" NCoef="0" IVar="8" Cut="1.0856268405914307e+00" cType="1" res="-5.6485193781554699e-03" rms="3.8778439164161682e-01" purity="5.2809077501296997e-01" nType="0">
            <Node pos="l" depth="3" NCoef="0" IVar="-1" Cut="0.0000000000000000e+00" cType="1" res="-2.1002462599426508e-03" rms="3.8966539502143860e-01" purity="5.6957972049713135e-01" nType="-99"/>
            <Node pos="r" depth="3" NCoef="0" IVar="-1" Cut="0.0000000000000000e+00" cType="1" res="-1.0376127436757088e-02" rms="3.7997499108314514e-01" purity="3.6143556237220764e-01" nType="-99"/>
          </Node>
        </Node>
      </Node>
    </BinaryTree>
    <BinaryTree type="DecisionTree" boostWeight="1.0000000000000000e+00" itree="442">
      <Node pos="s" depth="0" NCoef="0" IVar="1" Cut="1.0972496337890625e+03" cType="1" res="7.7699616667814553e-05" rms="3.8370195031166077e-01" purity="4.9697482585906982e-01" nType="0">
        <Node pos="l" depth="1" NCoef="0" IVar="6" Cut="-1.0328342765569687e-01" cType="1" res="7.0747151039540768e-03" rms="3.7701240181922913e-01" purity="2.2669340670108795e-01" nType="0">
          <Node pos="l" depth="2" NCoef="0" IVar="6" Cut="-6.0602438449859619e-01" cType="1" res="2.1029941737651825e-02" rms="3.7992215156555176e-01" purity="2.3220168054103851e-01" nType="0">
            <Node pos="l" depth="3" NCoef="0" IVar="-1" Cut="0.0000000000000000e+00" cType="1" res="8.5965925827622414e-03" rms="3.4274685382843018e-01" purity="1.7343407869338989e-01" nType="-99"/>
            <Node pos="r" depth="3" NCoef="0" IVar="-1" Cut="0.0000000000000000e+00" cType="1" res="2.3398173972964287e-02" rms="4.3731355667114258e-01" purity="3.3613148331642151e-01" nType="-99"/>
          </Node>
          <Node pos="r" depth="2" NCoef="0" IVar="5" Cut="6.1274208068847656e+01" cType="1" res="-5.3090727888047695e-03" rms="3.7397554516792297e-01" purity="2.2180537879467010e-01" nType="0">
            <Node pos="l" depth="3" NCoef="0" IVar="-1" Cut="0.0000000000000000e+00" cType="1" res="1.0945285670459270e-02" rms="3.4356364607810974e-01" purity="1.6735988855361938e-01" nType="-99"/>
            <Node pos="r" depth="3" NCoef="0" IVar="-1" Cut="0.0000000000000000e+00" cType="1" res="-1.0778428055346012e-02" rms="3.9337188005447388e-01" purity="2.5986489653587341e-01" nType="-99"/>
          </Node>
        </Node>
        <Node pos="r" depth="1" NCoef="0" IVar="4" Cut="1.4892620849609375e+02" cType="1" res="-3.0735214240849018e-03" rms="3.8663554191589355e-01" purity="6.1870050430297852e-01" nType="0">
          <Node pos="l" depth="2" NCoef="0" IVar="4" Cut="9.2449798583984375e+01" cType="1" res="-1.2247119098901749e-02" rms="4.0815496444702148e-01" purity="4.9211573600769043e-01" nType="0">
            <Node pos="l" depth="3" NCoef="0" IVar="-1" Cut="0.0000000000000000e+00" cType="1" res="1.9783324096351862e-03" rms="4.0576297044754028e-01" purity="3.3606269955635071e-01" nType="-99"/>
            <Node pos="r" depth="3" NCoef="0" IVar="-1" Cut="0.0000000000000000e+00" cType="1" res="-1.0522875934839249e-02" rms="4.0889769792556763e-01" purity="5.5076360702514648e-01" nType="-99"/>
          </Node>
          <Node pos="r" depth="2" NCoef="0" IVar="8" Cut="-1.3331970572471619e-01" cType="1" res="5.9113586321473122e-03" rms="3.6410480737686157e-01" purity="7.4268126487731934e-01" nType="0">
            <Node pos="l" depth="3" NCoef="0" IVar="-1" Cut="0.0000000000000000e+00" cType="1" res="-3.8401369238272309e-04" rms="3.6830246448516846e-01" purity="7.2874581813812256e-01" nType="-99"/>
            <Node pos="r" depth="3" NCoef="0" IVar="-1" Cut="0.0000000000000000e+00" cType="1" res="8.0923186615109444e-03" rms="3.6068207025527954e-01" purity="7.5366121530532837e-01" nType="-99"/>
          </Node>
        </Node>
      </Node>
    </BinaryTree>
    <BinaryTree type="DecisionTree" boostWeight="1.0000000000000000e+00" itree="443">
      <Node pos="s" depth="0" NCoef="0" IVar="3" Cut="2.3480358886718750e+02" cType="1" res="3.0375933274626732e-03" rms="3.8485571742057800e-01" purity="5.0095278024673462e-01" nType="0">
        <Node pos="l" depth="1" NCoef="0" IVar="8" Cut="6.6657066345214844e-01" cType="1" res="6.4865658059716225e-03" rms="3.9088076353073120e-01" purity="4.1007915139198303e-01" nType="0">
          <Node pos="l" depth="2" NCoef="0" IVar="7" Cut="-6.6657632589340210e-01" cType="1" res="1.1236062273383141e-02" rms="3.9594644308090210e-01" purity="4.3676429986953735e-01" nType="0">
            <Node pos="l" depth="3" NCoef="0" IVar="-1" Cut="0.0000000000000000e+00" cType="1" res="-2.3007644340395927e-03" rms="3.7664806842803955e-01" purity="3.5326737165451050e-01" nType="-99"/>
            <Node pos="r" depth="3" NCoef="0" IVar="-1" Cut="0.0000000000000000e+00" cType="1" res="1.0994542390108109e-02" rms="4.0382885932922363e-01" purity="4.7281029820442200e-01" nType="-99"/>
          </Node>
          <Node pos="r" depth="2" NCoef="0" IVar="4" Cut="1.4640057373046875e+02" cType="1" res="-5.0172815099358559e-03" rms="3.7808290123939514e-01" purity="3.4544461965560913e-01" nType="0">
            <Node pos="l" depth="3" NCoef="0" IVar="-1" Cut="0.0000000000000000e+00" cType="1" res="8.5107376798987389e-04" rms="3.7679782509803772e-01" purity="2.8969839215278625e-01" nType="-99"/>
            <Node pos="r" depth="3" NCoef="0" IVar="-1" Cut="0.0000000000000000e+00" cType="1" res="-2.0243017002940178e-02" rms="3.8238731026649475e-01" purity="5.8418798446655273e-01" nType="-99"/>
          </Node>
        </Node>
        <Node pos="r" depth="1" NCoef="0" IVar="7" Cut="1.2001700401306152e+00" cType="1" res="-3.5071868915110826e-03" rms="3.7306761741638184e-01" purity="6.7339479923248291e-01" nType="0">
          <Node pos="l" depth="2" NCoef="0" IVar="2" Cut="6.7829119873046875e+02" cType="1" res="-4.5293467701412737e-04" rms="3.7298831343650818e-01" purity="6.9787687063217163e-01" nType="0">
            <Node pos="l" depth="3" NCoef="0" IVar="-1" Cut="0.0000000000000000e+00" cType="1" res="1.5682822559028864e-03" rms="3.7125691771507263e-01" purity="7.0392596721649170e-01" nType="-99"/>
            <Node pos="r" depth="3" NCoef="0" IVar="-1" Cut="0.0000000000000000e+00" cType="1" res="-1.6216266900300980e-02" rms="3.8836860656738281e-01" purity="6.3963717222213745e-01" nType="-99"/>
          </Node>
          <Node pos="r" depth="2" NCoef="0" IVar="-1" Cut="0.0000000000000000e+00" cType="1" res="-2.0908165723085403e-02" rms="3.7253847718238831e-01" purity="4.3589422106742859e-01" nType="-99"/>
        </Node>
      </Node>
    </BinaryTree>
    <BinaryTree type="DecisionTree" boostWeight="1.0000000000000000e+00" itree="444">
      <Node pos="s" depth="0" NCoef="0" IVar="1" Cut="1.1026444091796875e+03" cType="1" res="1.9204507407266647e-04" rms="3.8823372125625610e-01" purity="4.9235925078392029e-01" nType="0">
        <Node pos="l" depth="1" NCoef="0" IVar="0" Cut="3.1553536987304688e+02" cType="1" res="8.0795912072062492e-03" rms="3.7834486365318298e-01" purity="2.3213905096054077e-01" nType="0">
          <Node pos="l" depth="2" NCoef="0" IVar="-1" Cut="0.0000000000000000e+00" cType="1" res="3.2913859933614731e-02" rms="3.6928269267082214e-01" purity="2.0646195113658905e-01" nType="-99"/>
          <Node pos="r" depth="2" NCoef="0" IVar="1" Cut="9.4411779785156250e+02" cType="1" res="1.6228697495535016e-03" rms="3.7992167472839355e-01" purity="2.3757477104663849e-01" nType="0">
            <Node pos="l" depth="3" NCoef="0" IVar="-1" Cut="0.0000000000000000e+00" cType="1" res="-1.7449257895350456e-02" rms="3.1852570176124573e-01" purity="1.3238586485385895e-01" nType="-99"/>
            <Node pos="r" depth="3" NCoef="0" IVar="-1" Cut="0.0000000000000000e+00" cType="1" res="7.9600214958190918e-03" rms="4.0788710117340088e-01" purity="2.9252916574478149e-01" nType="-99"/>
          </Node>
        </Node>
        <Node pos="r" depth="1" NCoef="0" IVar="6" Cut="1.2031066417694092e+00" cType="1" res="-3.5365889780223370e-03" rms="3.9276665449142456e-01" purity="6.1537164449691772e-01" nType="0">
          <Node pos="l" depth="2" NCoef="0" IVar="7" Cut="-1.1999849081039429e+00" cType="1" res="-5.3330427035689354e-03" rms="3.9435049891471863e-01" purity="6.3772201538085938e-01" nType="0">
            <Node pos="l" depth="3" NCoef="0" IVar="-1" Cut="0.0000000000000000e+00" cType="1" res="5.0475662574172020e-03" rms="3.9731097221374512e-01" purity="4.6245670318603516e-01" nType="-99"/>
            <Node pos="r" depth="3" NCoef="0" IVar="-1" Cut="0.0000000000000000e+00" cType="1" res="-4.6399342827498913e-03" rms="3.9393103122711182e-01" purity="6.6041290760040283e-01" nType="-99"/>
          </Node>
          <Node pos="r" depth="2" NCoef="0" IVar="6" Cut="1.5067927837371826e+00" cType="1" res="1.4564450830221176e-02" rms="3.7595742940902710e-01" purity="3.9017018675804138e-01" nType="0">
            <Node pos="l" depth="3" NCoef="0" IVar="-1" Cut="0.0000000000000000e+00" cType="1" res="2.7832038700580597e-02" rms="3.9466011524200439e-01" purity="5.1040166616439819e-01" nType="-99"/>
            <Node pos="r" depth="3" NCoef="0" IVar="-1" Cut="0.0000000000000000e+00" cType="1" res="-1.0238374583423138e-02" rms="3.5524442791938782e-01" purity="2.7793389558792114e-01" nType="-99"/>
          </Node>
        </Node>
      </Node>
    </BinaryTree>
    <BinaryTree type="DecisionTree" boostWeight="1.0000000000000000e+00" itree="445">
      <Node pos="s" depth="0" NCoef="0" IVar="9" Cut="-1.3331869244575500e-01" cType="1" res="-1.5226062387228012e-03" rms="3.8463371992111206e-01" purity="4.9543300271034241e-01" nType="0">
        <Node pos="l" depth="1" NCoef="0" IVar="2" Cut="3.4929556274414062e+02" cType="1" res="6.1020045541226864e-03" rms="3.9217296242713928e-01" purity="4.8819664120674133e-01" nType="0">
          <Node pos="l" depth="2" NCoef="0" IVar="3" Cut="1.6623083496093750e+02" cType="1" res="-3.9952918887138367e-03" rms="3.9653909206390381e-01" purity="4.3873089551925659e-01" nType="0">
            <Node pos="l" depth="3" NCoef="0" IVar="-1" Cut="0.0000000000000000e+00" cType="1" res="5.5794646032154560e-03" rms="3.9075541496276855e-01" purity="2.7659821510314941e-01" nType="-99"/>
            <Node pos="r" depth="3" NCoef="0" IVar="-1" Cut="0.0000000000000000e+00" cType="1" res="-8.1798862665891647e-03" rms="4.0056404471397400e-01" purity="5.5993318557739258e-01" nType="-99"/>
          </Node>
          <Node pos="r" depth="2" NCoef="0" IVar="9" Cut="-1.6570280790328979e+00" cType="1" res="1.6603419557213783e-02" rms="3.8730078935623169e-01" purity="5.3964209556579590e-01" nType="0">
            <Node pos="l" depth="3" NCoef="0" IVar="-1" Cut="0.0000000000000000e+00" cType="1" res="2.5215422734618187e-02" rms="4.0674960613250732e-01" purity="4.3774777650833130e-01" nType="-99"/>
            <Node pos="r" depth="3" NCoef="0" IVar="-1" Cut="0.0000000000000000e+00" cType="1" res="7.4487663805484772e-03" rms="3.8206264376640320e-01" purity="5.6523627042770386e-01" nType="-99"/>
          </Node>
        </Node>
        <Node pos="r" depth="1" NCoef="0" IVar="6" Cut="-1.4228420257568359e+00" cType="1" res="-7.8922798857092857e-03" rms="3.7810230255126953e-01" purity="5.0147831439971924e-01" nType="0">
          <Node pos="l" depth="2" NCoef="0" IVar="-1" Cut="0.0000000000000000e+00" cType="1" res="-3.9030715823173523e-02" rms="3.0670899152755737e-01" purity="1.7617902159690857e-01" nType="-99"/>
          <Node pos="r" depth="2" NCoef="0" IVar="1" Cut="1.6845319824218750e+03" cType="1" res="-5.6769298389554024e-03" rms="3.8187763094902039e-01" purity="5.2114140987396240e-01" nType="0">
            <Node pos="l" depth="3" NCoef="0" IVar="-1" Cut="0.0000000000000000e+00" cType="1" res="-5.5867796763777733e-03" rms="3.9187160134315491e-01" purity="4.5678988099098206e-01" nType="-99"/>
            <Node pos="r" depth="3" NCoef="0" IVar="-1" Cut="0.0000000000000000e+00" cType="1" res="7.4481880292296410e-03" rms="3.3153805136680603e-01" purity="8.1796419620513916e-01" nType="-99"/>
          </Node>
        </Node>
      </Node>
    </BinaryTree>
    <BinaryTree type="DecisionTree" boostWeight="1.0000000000000000e+00" itree="446">
      <Node pos="s" depth="0" NCoef="0" IVar="9" Cut="-1.9999672174453735e+00" cType="1" res="3.2647778280079365e-03" rms="3.8325598835945129e-01" purity="5.0261133909225464e-01" nType="0">
        <Node pos="l" depth="1" NCoef="0" IVar="8" Cut="-1.3354325294494629e-01" cType="1" res="-1.6317453235387802e-02" rms="3.6073008179664612e-01" purity="3.1137186288833618e-01" nType="0">
          <Node pos="l" depth="2" NCoef="0" IVar="-1" Cut="0.0000000000000000e+00" cType="1" res="-1.8854292109608650e-02" rms="3.4954506158828735e-01" purity="2.8442639112472534e-01" nType="-99"/>
          <Node pos="r" depth="2" NCoef="0" IVar="-1" Cut="0.0000000000000000e+00" cType="1" res="-4.3814550153911114e-03" rms="3.7232398986816406e-01" purity="3.4084323048591614e-01" nType="-99"/>
        </Node>
        <Node pos="r" depth="1" NCoef="0" IVar="8" Cut="-1.9999650716781616e+00" cType="1" res="4.3557169847190380e-03" rms="3.8444280624389648e-01" purity="5.1326543092727661e-01" nType="0">
          <Node pos="l" depth="2" NCoef="0" IVar="-1" Cut="0.0000000000000000e+00" cType="1" res="2.1719608455896378e-02" rms="3.6750680208206177e-01" purity="2.8441002964973450e-01" nType="-99"/>
          <Node pos="r" depth="2" NCoef="0" IVar="7" Cut="1.3329117000102997e-01" cType="1" res="3.2896820921450853e-03" rms="3.8515511155128479e-01" purity="5.2359002828598022e-01" nType="0">
            <Node pos="l" depth="3" NCoef="0" IVar="-1" Cut="0.0000000000000000e+00" cType="1" res="-7.0966547355055809e-04" rms="3.8362181186676025e-01" purity="5.3231066465377808e-01" nType="-99"/>
            <Node pos="r" depth="3" NCoef="0" IVar="-1" Cut="0.0000000000000000e+00" cType="1" res="5.6691826321184635e-03" rms="3.8690534234046936e-01" purity="5.1322662830352783e-01" nType="-99"/>
          </Node>
        </Node>
      </Node>
    </BinaryTree>
    <BinaryTree type="DecisionTree" boostWeight="1.0000000000000000e+00" itree="447">
      <Node pos="s" depth="0" NCoef="0" IVar="9" Cut="-1.4666460752487183e+00" cType="1" res="-2.2182700922712684e-04" rms="3.8552954792976379e-01" purity="4.9488475918769836e-01" nType="0">
        <Node pos="l" depth="1" NCoef="0" IVar="7" Cut="-3.9956030249595642e-01" cType="1" res="1.3763288035988808e-02" rms="3.7917286157608032e-01" purity="4.0057146549224854e-01" nType="0">
          <Node pos="l" depth="2" NCoef="0" IVar="8" Cut="-4.0001198649406433e-01" cType="1" res="-1.2604962103068829e-03" rms="3.6814072728157043e-01" purity="3.4594807028770447e-01" nType="0">
            <Node pos="l" depth="3" NCoef="0" IVar="-1" Cut="0.0000000000000000e+00" cType="1" res="8.0376947298645973e-03" rms="3.6991143226623535e-01" purity="3.3208632469177246e-01" nType="-99"/>
            <Node pos="r" depth="3" NCoef="0" IVar="-1" Cut="0.0000000000000000e+00" cType="1" res="-1.0142778046429157e-02" rms="3.6577141284942627e-01" purity="3.6070436239242554e-01" nType="-99"/>
          </Node>
          <Node pos="r" depth="2" NCoef="0" IVar="4" Cut="1.3743661499023438e+02" cType="1" res="2.5292670354247093e-02" rms="3.8703075051307678e-01" purity="4.4248992204666138e-01" nType="0">
            <Node pos="l" depth="3" NCoef="0" IVar="-1" Cut="0.0000000000000000e+00" cType="1" res="1.0141327977180481e-02" rms="3.8293752074241638e-01" purity="3.1274685263633728e-01" nType="-99"/>
            <Node pos="r" depth="3" NCoef="0" IVar="-1" Cut="0.0000000000000000e+00" cType="1" res="2.6149282231926918e-02" rms="3.9321613311767578e-01" purity="6.6169250011444092e-01" nType="-99"/>
          </Node>
        </Node>
        <Node pos="r" depth="1" NCoef="0" IVar="9" Cut="1.3777506351470947e+00" cType="1" res="-2.2231668699532747e-03" rms="3.8638928532600403e-01" purity="5.0838148593902588e-01" nType="0">
          <Node pos="l" depth="2" NCoef="0" IVar="7" Cut="-6.6662615537643433e-01" cType="1" res="-4.4192317873239517e-03" rms="3.8583236932754517e-01" purity="5.2534455060958862e-01" nType="0">
            <Node pos="l" depth="3" NCoef="0" IVar="-1" Cut="0.0000000000000000e+00" cType="1" res="-1.0167317464947701e-02" rms="3.7946179509162903e-01" purity="4.2785647511482239e-01" nType="-99"/>
            <Node pos="r" depth="3" NCoef="0" IVar="-1" Cut="0.0000000000000000e+00" cType="1" res="-4.7812677803449333e-04" rms="3.8792359828948975e-01" purity="5.5877524614334106e-01" nType="-99"/>
          </Node>
          <Node pos="r" depth="2" NCoef="0" IVar="9" Cut="2.3258821964263916e+00" cType="1" res="9.2262933030724525e-03" rms="3.8907918334007263e-01" purity="4.1994252800941467e-01" nType="0">
            <Node pos="l" depth="3" NCoef="0" IVar="-1" Cut="0.0000000000000000e+00" cType="1" res="8.9717144146561623e-03" rms="3.9791172742843628e-01" purity="4.4190752506256104e-01" nType="-99"/>
            <Node pos="r" depth="3" NCoef="0" IVar="-1" Cut="0.0000000000000000e+00" cType="1" res="-7.8851254656910896e-03" rms="3.4562993049621582e-01" purity="3.2064470648765564e-01" nType="-99"/>
          </Node>
        </Node>
      </Node>
    </BinaryTree>
    <BinaryTree type="DecisionTree" boostWeight="1.0000000000000000e+00" itree="448">
      <Node pos="s" depth="0" NCoef="0" IVar="8" Cut="6.6663801670074463e-01" cType="1" res="2.1770605817437172e-03" rms="3.8656133413314819e-01" purity="4.9411320686340332e-01" nType="0">
        <Node pos="l" depth="1" NCoef="0" IVar="7" Cut="1.2000209093093872e+00" cType="1" res="-1.1593688977882266e-03" rms="3.8565638661384583e-01" purity="5.1842689514160156e-01" nType="0">
          <Node pos="l" depth="2" NCoef="0" IVar="7" Cut="8.1906539201736450e-01" cType="1" res="-2.6082601398229599e-03" rms="3.8707864284515381e-01" purity="5.4320955276489258e-01" nType="0">
            <Node pos="l" depth="3" NCoef="0" IVar="-1" Cut="0.0000000000000000e+00" cType="1" res="-6.2444643117487431e-04" rms="3.8585543632507324e-01" purity="5.4688519239425659e-01" nType="-99"/>
            <Node pos="r" depth="3" NCoef="0" IVar="-1" Cut="0.0000000000000000e+00" cType="1" res="-1.2222328223288059e-02" rms="3.9837285876274109e-01" purity="5.0759541988372803e-01" nType="-99"/>
          </Node>
          <Node pos="r" depth="2" NCoef="0" IVar="0" Cut="3.9850650024414062e+02" cType="1" res="9.5666581764817238e-03" rms="3.7478548288345337e-01" purity="3.3496278524398804e-01" nType="0">
            <Node pos="l" depth="3" NCoef="0" IVar="-1" Cut="0.0000000000000000e+00" cType="1" res="2.1739952266216278e-02" rms="3.5977393388748169e-01" purity="2.1821834146976471e-01" nType="-99"/>
            <Node pos="r" depth="3" NCoef="0" IVar="-1" Cut="0.0000000000000000e+00" cType="1" res="-5.6867976672947407e-03" rms="3.9032322168350220e-01" purity="4.6785035729408264e-01" nType="-99"/>
          </Node>
        </Node>
        <Node pos="r" depth="1" NCoef="0" IVar="0" Cut="4.4441381835937500e+02" cType="1" res="1.0519864968955517e-02" rms="3.8868963718414307e-01" purity="4.3331634998321533e-01" nType="0">
          <Node pos="l" depth="2" NCoef="0" IVar="1" Cut="1.2445408935546875e+03" cType="1" res="1.8112337216734886e-02" rms="3.8630482554435730e-01" purity="3.1368064880371094e-01" nType="0">
            <Node pos="l" depth="3" NCoef="0" IVar="-1" Cut="0.0000000000000000e+00" cType="1" res="5.2106068469583988e-03" rms="3.6937293410301208e-01" purity="2.3892781138420105e-01" nType="-99"/>
            <Node pos="r" depth="3" NCoef="0" IVar="-1" Cut="0.0000000000000000e+00" cType="1" res="2.7513770386576653e-02" rms="4.2601108551025391e-01" purity="5.0874823331832886e-01" nType="-99"/>
          </Node>
          <Node pos="r" depth="2" NCoef="0" IVar="9" Cut="6.6668432950973511e-01" cType="1" res="-2.1510182414203882e-03" rms="3.9231026172637939e-01" purity="6.3297325372695923e-01" nType="0">
            <Node pos="l" depth="3" NCoef="0" IVar="-1" Cut="0.0000000000000000e+00" cType="1" res="6.9749848917126656e-03" rms="3.9325949549674988e-01" purity="6.7266178131103516e-01" nType="-99"/>
            <Node pos="r" depth="3" NCoef="0" IVar="-1" Cut="0.0000000000000000e+00" cType="1" res="-1.9457066431641579e-02" rms="3.8868963718414307e-01" purity="5.4512149095535278e-01" nType="-99"/>
          </Node>
        </Node>
      </Node>
    </BinaryTree>
    <BinaryTree type="DecisionTree" boostWeight="1.0000000000000000e+00" itree="449">
      <Node pos="s" depth="0" NCoef="0" IVar="2" Cut="3.4929757690429688e+02" cType="1" res="-6.6334224538877606e-04" rms="3.8329955935478210e-01" purity="4.9962294101715088e-01" nType="0">
        <Node pos="l" depth="1" NCoef="0" IVar="5" Cut="6.3687107086181641e+01" cType="1" res="3.2807141542434692e-03" rms="3.9323940873146057e-01" purity="4.6359300613403320e-01" nType="0">
          <Node pos="l" depth="2" NCoef="0" IVar="3" Cut="1.4988110351562500e+02" cType="1" res="1.7411531880497932e-02" rms="3.8498422503471375e-01" purity="2.5403106212615967e-01" nType="0">
            <Node pos="l" depth="3" NCoef="0" IVar="-1" Cut="0.0000000000000000e+00" cType="1" res="2.7447795495390892e-02" rms="3.4702923893928528e-01" purity="1.6798120737075806e-01" nType="-99"/>
            <Node pos="r" depth="3" NCoef="0" IVar="-1" Cut="0.0000000000000000e+00" cType="1" res="3.6854229401797056e-03" rms="4.1854238510131836e-01" purity="3.3833086490631104e-01" nType="-99"/>
          </Node>
          <Node pos="r" depth="2" NCoef="0" IVar="1" Cut="1.2105294189453125e+03" cType="1" res="-2.0784982480108738e-03" rms="3.9619347453117371e-01" purity="5.4307085275650024e-01" nType="0">
            <Node pos="l" depth="3" NCoef="0" IVar="-1" Cut="0.0000000000000000e+00" cType="1" res="-5.6283967569470406e-03" rms="4.1994196176528931e-01" purity="3.6587440967559814e-01" nType="-99"/>
            <Node pos="r" depth="3" NCoef="0" IVar="-1" Cut="0.0000000000000000e+00" cType="1" res="6.8470486439764500e-03" rms="3.6043113470077515e-01" purity="7.8849786520004272e-01" nType="-99"/>
          </Node>
        </Node>
        <Node pos="r" depth="1" NCoef="0" IVar="3" Cut="1.4691815185546875e+02" cType="1" res="-4.8581091687083244e-03" rms="3.7239104509353638e-01" purity="5.3794324398040771e-01" nType="0">
          <Node pos="l" depth="2" NCoef="0" IVar="9" Cut="-4.0003177523612976e-01" cType="1" res="-2.4040427058935165e-02" rms="3.4572303295135498e-01" purity="2.1329472959041595e-01" nType="0">
            <Node pos="l" depth="3" NCoef="0" IVar="-1" Cut="0.0000000000000000e+00" cType="1" res="-2.9777148738503456e-03" rms="3.4502610564231873e-01" purity="2.2361029684543610e-01" nType="-99"/>
            <Node pos="r" depth="3" NCoef="0" IVar="-1" Cut="0.0000000000000000e+00" cType="1" res="-2.8709657490253448e-02" rms="3.4552276134490967e-01" purity="2.0641809701919556e-01" nType="-99"/>
          </Node>
          <Node pos="r" depth="2" NCoef="0" IVar="8" Cut="-6.6637188196182251e-01" cType="1" res="-6.2059506308287382e-04" rms="3.7789729237556458e-01" purity="6.0966044664382935e-01" nType="0">
            <Node pos="l" depth="3" NCoef="0" IVar="-1" Cut="0.0000000000000000e+00" cType="1" res="-9.0224146842956543e-03" rms="3.8075950741767883e-01" purity="5.3707832098007202e-01" nType="-99"/>
            <Node pos="r" depth="3" NCoef="0" IVar="-1" Cut="0.0000000000000000e+00" cType="1" res="2.7741056401282549e-03" rms="3.7676620483398438e-01" purity="6.3540738821029663e-01" nType="-99"/>
          </Node>
        </Node>
      </Node>
    </BinaryTree>
    <BinaryTree type="DecisionTree" boostWeight="1.0000000000000000e+00" itree="450">
      <Node pos="s" depth="0" NCoef="0" IVar="7" Cut="-6.6664117574691772e-01" cType="1" res="-4.7635333612561226e-04" rms="3.8531824946403503e-01" purity="4.9793428182601929e-01" nType="0">
        <Node pos="l" depth="1" NCoef="0" IVar="3" Cut="2.9420007324218750e+02" cType="1" res="7.3960665613412857e-03" rms="3.8240861892700195e-01" purity="4.1939881443977356e-01" nType="0">
          <Node pos="l" depth="2" NCoef="0" IVar="7" Cut="-1.7840247154235840e+00" cType="1" res="1.1016860604286194e-02" rms="3.8182404637336731e-01" purity="3.9599204063415527e-01" nType="0">
            <Node pos="l" depth="3" NCoef="0" IVar="-1" Cut="0.0000000000000000e+00" cType="1" res="-8.4349289536476135e-03" rms="3.2586079835891724e-01" purity="1.8391455709934235e-01" nType="-99"/>
            <Node pos="r" depth="3" NCoef="0" IVar="-1" Cut="0.0000000000000000e+00" cType="1" res="1.0500773787498474e-02" rms="3.9473155140876770e-01" purity="4.5038270950317383e-01" nType="-99"/>
          </Node>
          <Node pos="r" depth="2" NCoef="0" IVar="-1" Cut="0.0000000000000000e+00" cType="1" res="-1.0217829607427120e-02" rms="3.8530072569847107e-01" purity="5.6762254238128662e-01" nType="-99"/>
        </Node>
        <Node pos="r" depth="1" NCoef="0" IVar="6" Cut="-1.1593412160873413e+00" cType="1" res="-3.3673299476504326e-03" rms="3.8634100556373596e-01" purity="5.2677470445632935e-01" nType="0">
          <Node pos="l" depth="2" NCoef="0" IVar="9" Cut="4.0080523490905762e-01" cType="1" res="1.2012314051389694e-02" rms="3.6534658074378967e-01" purity="3.1070962548255920e-01" nType="0">
            <Node pos="l" depth="3" NCoef="0" IVar="-1" Cut="0.0000000000000000e+00" cType="1" res="1.7670353408902884e-03" rms="3.6357530951499939e-01" purity="3.0330175161361694e-01" nType="-99"/>
            <Node pos="r" depth="3" NCoef="0" IVar="-1" Cut="0.0000000000000000e+00" cType="1" res="2.2309437394142151e-02" rms="3.6792463064193726e-01" purity="3.2435759902000427e-01" nType="-99"/>
          </Node>
          <Node pos="r" depth="2" NCoef="0" IVar="3" Cut="4.1859667968750000e+02" cType="1" res="-5.2005406469106674e-03" rms="3.8872727751731873e-01" purity="5.5252903699874878e-01" nType="0">
            <Node pos="l" depth="3" NCoef="0" IVar="-1" Cut="0.0000000000000000e+00" cType="1" res="-4.1234302334487438e-03" rms="3.8860994577407837e-01" purity="5.4520249366760254e-01" nType="-99"/>
            <Node pos="r" depth="3" NCoef="0" IVar="-1" Cut="0.0000000000000000e+00" cType="1" res="1.2745521031320095e-02" rms="3.9056563377380371e-01" purity="7.2075784206390381e-01" nType="-99"/>
          </Node>
        </Node>
      </Node>
    </BinaryTree>
    <BinaryTree type="DecisionTree" boostWeight="1.0000000000000000e+00" itree="451">
      <Node pos="s" depth="0" NCoef="0" IVar="6" Cut="1.7418087720870972e+00" cType="1" res="2.6478541549295187e-03" rms="3.8180440664291382e-01" purity="5.0300455093383789e-01" nType="0">
        <Node pos="l" depth="1" NCoef="0" IVar="8" Cut="1.3326795399188995e-01" cType="1" res="3.8036098703742027e-03" rms="3.8569283485412598e-01" purity="5.1792526245117188e-01" nType="0">
          <Node pos="l" depth="2" NCoef="0" IVar="6" Cut="2.8804296627640724e-02" cType="1" res="-1.2358360690996051e-03" rms="3.8348874449729919e-01" purity="5.2310138940811157e-01" nType="0">
            <Node pos="l" depth="3" NCoef="0" IVar="-1" Cut="0.0000000000000000e+00" cType="1" res="-4.9978964962065220e-03" rms="3.7901571393013000e-01" purity="5.0283133983612061e-01" nType="-99"/>
            <Node pos="r" depth="3" NCoef="0" IVar="-1" Cut="0.0000000000000000e+00" cType="1" res="4.3518110178411007e-03" rms="3.8895574212074280e-01" purity="5.4885870218276978e-01" nType="-99"/>
          </Node>
          <Node pos="r" depth="2" NCoef="0" IVar="3" Cut="3.3530459594726562e+02" cType="1" res="9.8784156143665314e-03" rms="3.8824614882469177e-01" purity="5.1168566942214966e-01" nType="0">
            <Node pos="l" depth="3" NCoef="0" IVar="-1" Cut="0.0000000000000000e+00" cType="1" res="8.1009222194552422e-03" rms="3.8827580213546753e-01" purity="4.9527391791343689e-01" nType="-99"/>
            <Node pos="r" depth="3" NCoef="0" IVar="-1" Cut="0.0000000000000000e+00" cType="1" res="-9.2414608225226402e-03" rms="3.8717630505561829e-01" purity="6.6389280557632446e-01" nType="-99"/>
          </Node>
        </Node>
        <Node pos="r" depth="1" NCoef="0" IVar="-1" Cut="0.0000000000000000e+00" cType="1" res="-2.7160041034221649e-02" rms="2.6911905407905579e-01" purity="1.4038994908332825e-01" nType="-99"/>
      </Node>
    </BinaryTree>
    <BinaryTree type="DecisionTree" boostWeight="1.0000000000000000e+00" itree="452">
      <Node pos="s" depth="0" NCoef="0" IVar="2" Cut="4.9859140014648438e+02" cType="1" res="1.0475333547219634e-03" rms="3.8481432199478149e-01" purity="5.0275421142578125e-01" nType="0">
        <Node pos="l" depth="1" NCoef="0" IVar="3" Cut="2.2128880310058594e+02" cType="1" res="-1.0560158407315612e-03" rms="3.8374462723731995e-01" purity="4.8897877335548401e-01" nType="0">
          <Node pos="l" depth="2" NCoef="0" IVar="1" Cut="1.1318641357421875e+03" cType="1" res="2.3927716538310051e-03" rms="3.9070498943328857e-01" purity="3.8735285401344299e-01" nType="0">
            <Node pos="l" depth="3" NCoef="0" IVar="-1" Cut="0.0000000000000000e+00" cType="1" res="-2.3028645664453506e-03" rms="3.7943568825721741e-01" purity="2.3591275513172150e-01" nType="-99"/>
            <Node pos="r" depth="3" NCoef="0" IVar="-1" Cut="0.0000000000000000e+00" cType="1" res="6.8325391039252281e-03" rms="4.0750017762184143e-01" purity="6.2356764078140259e-01" nType="-99"/>
          </Node>
          <Node pos="r" depth="2" NCoef="0" IVar="8" Cut="-6.6641306877136230e-01" cType="1" res="-7.4321413412690163e-03" rms="3.7044760584831238e-01" purity="6.7686498165130615e-01" nType="0">
            <Node pos="l" depth="3" NCoef="0" IVar="-1" Cut="0.0000000000000000e+00" cType="1" res="-1.6989156603813171e-02" rms="3.7538135051727295e-01" purity="6.1282783746719360e-01" nType="-99"/>
            <Node pos="r" depth="3" NCoef="0" IVar="-1" Cut="0.0000000000000000e+00" cType="1" res="-9.5066701760515571e-04" rms="3.6849957704544067e-01" purity="6.9941616058349609e-01" nType="-99"/>
          </Node>
        </Node>
        <Node pos="r" depth="1" NCoef="0" IVar="7" Cut="9.3288636207580566e-01" cType="1" res="1.0990289039909840e-02" rms="3.8967707753181458e-01" purity="5.6786614656448364e-01" nType="0">
          <Node pos="l" depth="2" NCoef="0" IVar="9" Cut="-1.3344676792621613e-01" cType="1" res="5.2629797719419003e-03" rms="3.8773810863494873e-01" purity="5.9621131420135498e-01" nType="0">
            <Node pos="l" depth="3" NCoef="0" IVar="-1" Cut="0.0000000000000000e+00" cType="1" res="1.0802730917930603e-02" rms="3.8185146450996399e-01" purity="6.0400581359863281e-01" nType="-99"/>
            <Node pos="r" depth="3" NCoef="0" IVar="-1" Cut="0.0000000000000000e+00" cType="1" res="-3.9354437030851841e-03" rms="3.9304152131080627e-01" purity="5.8863812685012817e-01" nType="-99"/>
          </Node>
          <Node pos="r" depth="2" NCoef="0" IVar="-1" Cut="0.0000000000000000e+00" cType="1" res="2.4385008960962296e-02" rms="3.9779773354530334e-01" purity="4.3002963066101074e-01" nType="-99"/>
        </Node>
      </Node>
    </BinaryTree>
    <BinaryTree type="DecisionTree" boostWeight="1.0000000000000000e+00" itree="453">
      <Node pos="s" depth="0" NCoef="0" IVar="8" Cut="6.6664707660675049e-01" cType="1" res="4.7558438964188099e-03" rms="3.8416236639022827e-01" purity="5.0652915239334106e-01" nType="0">
        <Node pos="l" depth="1" NCoef="0" IVar="9" Cut="-1.3332714140415192e-01" cType="1" res="6.4503093017265201e-04" rms="3.8137334585189819e-01" purity="5.2979761362075806e-01" nType="0">
          <Node pos="l" depth="2" NCoef="0" IVar="0" Cut="5.8410992431640625e+02" cType="1" res="7.1549285203218460e-03" rms="3.8640683889389038e-01" purity="5.1273810863494873e-01" nType="0">
            <Node pos="l" depth="3" NCoef="0" IVar="-1" Cut="0.0000000000000000e+00" cType="1" res="6.0842325910925865e-03" rms="3.9293426275253296e-01" purity="4.5842993259429932e-01" nType="-99"/>
            <Node pos="r" depth="3" NCoef="0" IVar="-1" Cut="0.0000000000000000e+00" cType="1" res="-3.9203590713441372e-03" rms="3.5018309950828552e-01" purity="7.9579341411590576e-01" nType="-99"/>
          </Node>
          <Node pos="r" depth="2" NCoef="0" IVar="1" Cut="1.7125089111328125e+03" cType="1" res="-5.3159305825829506e-03" rms="3.7660664319992065e-01" purity="5.4541873931884766e-01" nType="0">
            <Node pos="l" depth="3" NCoef="0" IVar="-1" Cut="0.0000000000000000e+00" cType="1" res="-6.1656427569687366e-03" rms="3.8669660687446594e-01" purity="4.8549634218215942e-01" nType="-99"/>
            <Node pos="r" depth="3" NCoef="0" IVar="-1" Cut="0.0000000000000000e+00" cType="1" res="1.3966647908091545e-02" rms="3.2241895794868469e-01" purity="8.3600169420242310e-01" nType="-99"/>
          </Node>
        </Node>
        <Node pos="r" depth="1" NCoef="0" IVar="9" Cut="-1.1998748779296875e+00" cType="1" res="1.5201216563582420e-02" rms="3.9096528291702271e-01" purity="4.4740498065948486e-01" nType="0">
          <Node pos="l" depth="2" NCoef="0" IVar="-1" Cut="0.0000000000000000e+00" cType="1" res="2.2407840937376022e-02" rms="4.1014498472213745e-01" purity="4.0509313344955444e-01" nType="-99"/>
          <Node pos="r" depth="2" NCoef="0" IVar="1" Cut="1.1048734130859375e+03" cType="1" res="1.1757035739719868e-02" rms="3.8730290532112122e-01" purity="4.5504042506217957e-01" nType="0">
            <Node pos="l" depth="3" NCoef="0" IVar="-1" Cut="0.0000000000000000e+00" cType="1" res="-1.7589842900633812e-03" rms="3.5312184691429138e-01" purity="1.9775860011577606e-01" nType="-99"/>
            <Node pos="r" depth="3" NCoef="0" IVar="-1" Cut="0.0000000000000000e+00" cType="1" res="1.1833239346742630e-02" rms="4.0360698103904724e-01" purity="5.8769965171813965e-01" nType="-99"/>
          </Node>
        </Node>
      </Node>
    </BinaryTree>
    <BinaryTree type="DecisionTree" boostWeight="1.0000000000000000e+00" itree="454">
      <Node pos="s" depth="0" NCoef="0" IVar="7" Cut="1.7333148717880249e+00" cType="1" res="-7.8389287227764726e-04" rms="3.8513711094856262e-01" purity="4.9796000123023987e-01" nType="0">
        <Node pos="l" depth="1" NCoef="0" IVar="7" Cut="1.0857050418853760e+00" cType="1" res="-2.8706016018986702e-03" rms="3.8619574904441833e-01" purity="5.1301443576812744e-01" nType="0">
          <Node pos="l" depth="2" NCoef="0" IVar="8" Cut="-1.2000266313552856e+00" cType="1" res="-1.1600590078160167e-03" rms="3.8640803098678589e-01" purity="5.2911388874053955e-01" nType="0">
            <Node pos="l" depth="3" NCoef="0" IVar="-1" Cut="0.0000000000000000e+00" cType="1" res="8.5587184876203537e-03" rms="3.8627311587333679e-01" purity="4.0956801176071167e-01" nType="-99"/>
            <Node pos="r" depth="3" NCoef="0" IVar="-1" Cut="0.0000000000000000e+00" cType="1" res="-2.5377767160534859e-03" rms="3.8637569546699524e-01" purity="5.5196827650070190e-01" nType="-99"/>
          </Node>
          <Node pos="r" depth="2" NCoef="0" IVar="9" Cut="-1.3331718742847443e-01" cType="1" res="-1.7296632751822472e-02" rms="3.8409778475761414e-01" purity="3.7723827362060547e-01" nType="0">
            <Node pos="l" depth="3" NCoef="0" IVar="-1" Cut="0.0000000000000000e+00" cType="1" res="-2.5650018826127052e-02" rms="3.7608686089515686e-01" purity="3.6289981007575989e-01" nType="-99"/>
            <Node pos="r" depth="3" NCoef="0" IVar="-1" Cut="0.0000000000000000e+00" cType="1" res="-2.8017307631671429e-03" rms="3.8824433088302612e-01" purity="3.8586059212684631e-01" nType="-99"/>
          </Node>
        </Node>
        <Node pos="r" depth="1" NCoef="0" IVar="6" Cut="-9.0004056692123413e-02" cType="1" res="3.1699694693088531e-02" rms="3.6673742532730103e-01" purity="2.6360884308815002e-01" nType="0">
          <Node pos="l" depth="2" NCoef="0" IVar="-1" Cut="0.0000000000000000e+00" cType="1" res="1.1861313134431839e-02" rms="3.4682902693748474e-01" purity="2.2829613089561462e-01" nType="-99"/>
          <Node pos="r" depth="2" NCoef="0" IVar="-1" Cut="0.0000000000000000e+00" cType="1" res="3.4778844565153122e-02" rms="3.8131794333457947e-01" purity="2.9181894659996033e-01" nType="-99"/>
        </Node>
      </Node>
    </BinaryTree>
    <BinaryTree type="DecisionTree" boostWeight="1.0000000000000000e+00" itree="455">
      <Node pos="s" depth="0" NCoef="0" IVar="9" Cut="1.4666289091110229e+00" cType="1" res="-1.9028824754059315e-03" rms="3.8195112347602844e-01" purity="5.0058412551879883e-01" nType="0">
        <Node pos="l" depth="1" NCoef="0" IVar="1" Cut="1.1048668212890625e+03" cType="1" res="-3.9281598292291164e-03" rms="3.8224285840988159e-01" purity="5.1235407590866089e-01" nType="0">
          <Node pos="l" depth="2" NCoef="0" IVar="1" Cut="8.5807244873046875e+02" cType="1" res="4.0069660171866417e-03" rms="3.8114815950393677e-01" purity="2.4231778085231781e-01" nType="0">
            <Node pos="l" depth="3" NCoef="0" IVar="-1" Cut="0.0000000000000000e+00" cType="1" res="-2.8476860374212265e-02" rms="2.7637338638305664e-01" purity="8.7252400815486908e-02" nType="-99"/>
            <Node pos="r" depth="3" NCoef="0" IVar="-1" Cut="0.0000000000000000e+00" cType="1" res="5.0280420109629631e-03" rms="3.9171069860458374e-01" purity="2.6097920536994934e-01" nType="-99"/>
          </Node>
          <Node pos="r" depth="2" NCoef="0" IVar="8" Cut="1.7332099676132202e+00" cType="1" res="-7.5416858308017254e-03" rms="3.8268581032752991e-01" purity="6.3532412052154541e-01" nType="0">
            <Node pos="l" depth="3" NCoef="0" IVar="-1" Cut="0.0000000000000000e+00" cType="1" res="-6.1319232918322086e-03" rms="3.8161361217498779e-01" purity="6.4701879024505615e-01" nType="-99"/>
            <Node pos="r" depth="3" NCoef="0" IVar="-1" Cut="0.0000000000000000e+00" cType="1" res="1.0379432700574398e-02" rms="3.9850500226020813e-01" purity="4.4950488209724426e-01" nType="-99"/>
          </Node>
        </Node>
        <Node pos="r" depth="1" NCoef="0" IVar="6" Cut="-6.3757735490798950e-01" cType="1" res="1.2072217650711536e-02" rms="3.7963747978210449e-01" purity="4.1936793923377991e-01" nType="0">
          <Node pos="l" depth="2" NCoef="0" IVar="-1" Cut="0.0000000000000000e+00" cType="1" res="3.0917089432477951e-02" rms="3.7715435028076172e-01" purity="3.5797473788261414e-01" nType="-99"/>
          <Node pos="r" depth="2" NCoef="0" IVar="9" Cut="2.1015353202819824e+00" cType="1" res="2.7722886297851801e-03" rms="3.7987592816352844e-01" purity="4.3761628866195679e-01" nType="0">
            <Node pos="l" depth="3" NCoef="0" IVar="-1" Cut="0.0000000000000000e+00" cType="1" res="7.4970782734453678e-03" rms="3.8772994279861450e-01" purity="4.8055744171142578e-01" nType="-99"/>
            <Node pos="r" depth="3" NCoef="0" IVar="-1" Cut="0.0000000000000000e+00" cType="1" res="-8.7314397096633911e-03" rms="3.6464625597000122e-01" purity="3.5957869887351990e-01" nType="-99"/>
          </Node>
        </Node>
      </Node>
    </BinaryTree>
    <BinaryTree type="DecisionTree" boostWeight="1.0000000000000000e+00" itree="456">
      <Node pos="s" depth="0" NCoef="0" IVar="3" Cut="1.3688992309570312e+02" cType="1" res="-4.7999396920204163e-03" rms="3.8149771094322205e-01" purity="4.9846956133842468e-01" nType="0">
        <Node pos="l" depth="1" NCoef="0" IVar="4" Cut="1.0372189331054688e+02" cType="1" res="-1.5951728448271751e-02" rms="3.5299462080001831e-01" purity="2.0136427879333496e-01" nType="0">
          <Node pos="l" depth="2" NCoef="0" IVar="6" Cut="9.5269209146499634e-01" cType="1" res="-8.9493291452527046e-03" rms="3.3709791302680969e-01" purity="1.6535657644271851e-01" nType="0">
            <Node pos="l" depth="3" NCoef="0" IVar="-1" Cut="0.0000000000000000e+00" cType="1" res="-1.4669076539576054e-02" rms="3.4544339776039124e-01" purity="1.7474892735481262e-01" nType="-99"/>
            <Node pos="r" depth="3" NCoef="0" IVar="-1" Cut="0.0000000000000000e+00" cType="1" res="3.4629456698894501e-02" rms="3.0180016160011292e-01" purity="1.3094359636306763e-01" nType="-99"/>
          </Node>
          <Node pos="r" depth="2" NCoef="0" IVar="-1" Cut="0.0000000000000000e+00" cType="1" res="-2.5203352794051170e-02" rms="4.1084435582160950e-01" purity="3.4980139136314392e-01" nType="-99"/>
        </Node>
        <Node pos="r" depth="1" NCoef="0" IVar="7" Cut="-1.7332795858383179e+00" cType="1" res="-2.0194891840219498e-03" rms="3.8822868466377258e-01" purity="5.7254612445831299e-01" nType="0">
          <Node pos="l" depth="2" NCoef="0" IVar="-1" Cut="0.0000000000000000e+00" cType="1" res="-2.3528765887022018e-02" rms="3.2989361882209778e-01" purity="2.3002238571643829e-01" nType="-99"/>
          <Node pos="r" depth="2" NCoef="0" IVar="7" Cut="-1.3015078306198120e+00" cType="1" res="-6.5363734029233456e-04" rms="3.9075672626495361e-01" purity="5.8898115158081055e-01" nType="0">
            <Node pos="l" depth="3" NCoef="0" IVar="-1" Cut="0.0000000000000000e+00" cType="1" res="1.2172947637736797e-02" rms="3.8574093580245972e-01" purity="4.4438272714614868e-01" nType="-99"/>
            <Node pos="r" depth="3" NCoef="0" IVar="-1" Cut="0.0000000000000000e+00" cType="1" res="-1.2331372126936913e-03" rms="3.9103397727012634e-01" purity="5.9802937507629395e-01" nType="-99"/>
          </Node>
        </Node>
      </Node>
    </BinaryTree>
    <BinaryTree type="DecisionTree" boostWeight="1.0000000000000000e+00" itree="457">
      <Node pos="s" depth="0" NCoef="0" IVar="8" Cut="1.7332899570465088e+00" cType="1" res="8.2374643534421921e-04" rms="3.8429054617881775e-01" purity="4.9953743815422058e-01" nType="0">
        <Node pos="l" depth="1" NCoef="0" IVar="8" Cut="6.5394067764282227e-01" cType="1" res="-8.6249911691993475e-04" rms="3.8478112220764160e-01" purity="5.1499372720718384e-01" nType="0">
          <Node pos="l" depth="2" NCoef="0" IVar="8" Cut="-1.1552511453628540e+00" cType="1" res="2.6181011926382780e-03" rms="3.8389614224433899e-01" purity="5.2714061737060547e-01" nType="0">
            <Node pos="l" depth="3" NCoef="0" IVar="-1" Cut="0.0000000000000000e+00" cType="1" res="-7.3582422919571400e-03" rms="3.7431439757347107e-01" purity="3.5495641827583313e-01" nType="-99"/>
            <Node pos="r" depth="3" NCoef="0" IVar="-1" Cut="0.0000000000000000e+00" cType="1" res="4.2413072660565376e-03" rms="3.8654303550720215e-01" purity="5.7701736688613892e-01" nType="-99"/>
          </Node>
          <Node pos="r" depth="2" NCoef="0" IVar="7" Cut="-6.6666889190673828e-01" cType="1" res="-1.2487692758440971e-02" rms="3.8749581575393677e-01" purity="4.7442311048507690e-01" nType="0">
            <Node pos="l" depth="3" NCoef="0" IVar="-1" Cut="0.0000000000000000e+00" cType="1" res="4.5344075188040733e-03" rms="3.7505361437797546e-01" purity="4.0306380391120911e-01" nType="-99"/>
            <Node pos="r" depth="3" NCoef="0" IVar="-1" Cut="0.0000000000000000e+00" cType="1" res="-1.1642647907137871e-02" rms="3.9083346724510193e-01" purity="4.9499624967575073e-01" nType="-99"/>
          </Node>
        </Node>
        <Node pos="r" depth="1" NCoef="0" IVar="8" Cut="2.0888609886169434e+00" cType="1" res="2.2965973243117332e-02" rms="3.7709078192710876e-01" purity="2.9657939076423645e-01" nType="0">
          <Node pos="l" depth="2" NCoef="0" IVar="-1" Cut="0.0000000000000000e+00" cType="1" res="2.5875473394989967e-02" rms="3.9985042810440063e-01" purity="3.7098574638366699e-01" nType="-99"/>
          <Node pos="r" depth="2" NCoef="0" IVar="-1" Cut="0.0000000000000000e+00" cType="1" res="6.1403731815516949e-03" rms="3.5140436887741089e-01" purity="2.1987509727478027e-01" nType="-99"/>
        </Node>
      </Node>
    </BinaryTree>
    <BinaryTree type="DecisionTree" boostWeight="1.0000000000000000e+00" itree="458">
      <Node pos="s" depth="0" NCoef="0" IVar="6" Cut="-1.7193748950958252e+00" cType="1" res="2.3377642501145601e-03" rms="3.8551232218742371e-01" purity="4.9889719486236572e-01" nType="0">
        <Node pos="l" depth="1" NCoef="0" IVar="-1" Cut="0.0000000000000000e+00" cType="1" res="-3.7529040127992630e-02" rms="2.7639132738113403e-01" purity="1.2622854113578796e-01" nType="-99"/>
        <Node pos="r" depth="1" NCoef="0" IVar="6" Cut="-1.2889633178710938e+00" cType="1" res="3.8816845044493675e-03" rms="3.8923403620719910e-01" purity="5.1408845186233521e-01" nType="0">
          <Node pos="l" depth="2" NCoef="0" IVar="4" Cut="1.2014240264892578e+02" cType="1" res="2.6846058666706085e-02" rms="3.6488226056098938e-01" purity="3.3085036277770996e-01" nType="0">
            <Node pos="l" depth="3" NCoef="0" IVar="-1" Cut="0.0000000000000000e+00" cType="1" res="1.4879203401505947e-02" rms="3.2856276631355286e-01" purity="1.7988163232803345e-01" nType="-99"/>
            <Node pos="r" depth="3" NCoef="0" IVar="-1" Cut="0.0000000000000000e+00" cType="1" res="2.3106766864657402e-02" rms="4.0072858333587646e-01" purity="4.9703371524810791e-01" nType="-99"/>
          </Node>
          <Node pos="r" depth="2" NCoef="0" IVar="8" Cut="1.9998670816421509e+00" cType="1" res="2.4897451512515545e-03" rms="3.9061787724494934e-01" purity="5.2519506216049194e-01" nType="0">
            <Node pos="l" depth="3" NCoef="0" IVar="-1" Cut="0.0000000000000000e+00" cType="1" res="7.2247546631842852e-04" rms="3.9099949598312378e-01" purity="5.3609740734100342e-01" nType="-99"/>
            <Node pos="r" depth="3" NCoef="0" IVar="-1" Cut="0.0000000000000000e+00" cType="1" res="2.4383917450904846e-02" rms="3.8085469603538513e-01" purity="2.8502652049064636e-01" nType="-99"/>
          </Node>
        </Node>
      </Node>
    </BinaryTree>
    <BinaryTree type="DecisionTree" boostWeight="1.0000000000000000e+00" itree="459">
      <Node pos="s" depth="0" NCoef="0" IVar="7" Cut="-3.9990821480751038e-01" cType="1" res="1.9605499692261219e-03" rms="3.8482126593589783e-01" purity="5.0179469585418701e-01" nType="0">
        <Node pos="l" depth="1" NCoef="0" IVar="5" Cut="1.2928392028808594e+02" cType="1" res="8.4095550701022148e-03" rms="3.8247928023338318e-01" purity="4.6590566635131836e-01" nType="0">
          <Node pos="l" depth="2" NCoef="0" IVar="5" Cut="6.5102188110351562e+01" cType="1" res="1.2060120701789856e-02" rms="3.8749894499778748e-01" purity="4.0758475661277771e-01" nType="0">
            <Node pos="l" depth="3" NCoef="0" IVar="-1" Cut="0.0000000000000000e+00" cType="1" res="-1.2805293081328273e-03" rms="3.5357341170310974e-01" purity="2.3801869153976440e-01" nType="-99"/>
            <Node pos="r" depth="3" NCoef="0" IVar="-1" Cut="0.0000000000000000e+00" cType="1" res="1.1756857857108116e-02" rms="4.0411797165870667e-01" purity="4.9734687805175781e-01" nType="-99"/>
          </Node>
          <Node pos="r" depth="2" NCoef="0" IVar="-1" Cut="0.0000000000000000e+00" cType="1" res="-8.4935147315263748e-03" rms="3.5449716448783875e-01" purity="7.7054446935653687e-01" nType="-99"/>
        </Node>
        <Node pos="r" depth="1" NCoef="0" IVar="6" Cut="6.7215776443481445e-01" cType="1" res="-1.6022061463445425e-03" rms="3.8606280088424683e-01" purity="5.2162158489227295e-01" nType="0">
          <Node pos="l" depth="2" NCoef="0" IVar="3" Cut="2.2285481262207031e+02" cType="1" res="-5.3519112989306450e-03" rms="3.8818886876106262e-01" purity="5.5620419979095459e-01" nType="0">
            <Node pos="l" depth="3" NCoef="0" IVar="-1" Cut="0.0000000000000000e+00" cType="1" res="-6.8897027522325516e-03" rms="3.9868110418319702e-01" purity="4.3719735741615295e-01" nType="-99"/>
            <Node pos="r" depth="3" NCoef="0" IVar="-1" Cut="0.0000000000000000e+00" cType="1" res="1.6773269744589925e-03" rms="3.7366467714309692e-01" purity="7.1420598030090332e-01" nType="-99"/>
          </Node>
          <Node pos="r" depth="2" NCoef="0" IVar="4" Cut="1.2668585205078125e+02" cType="1" res="9.5837917178869247e-03" rms="3.7942954897880554e-01" purity="4.1845589876174927e-01" nType="0">
            <Node pos="l" depth="3" NCoef="0" IVar="-1" Cut="0.0000000000000000e+00" cType="1" res="1.3439087197184563e-02" rms="3.7171539664268494e-01" purity="2.6765751838684082e-01" nType="-99"/>
            <Node pos="r" depth="3" NCoef="0" IVar="-1" Cut="0.0000000000000000e+00" cType="1" res="-6.5270415507256985e-04" rms="3.8846567273139954e-01" purity="6.0433691740036011e-01" nType="-99"/>
          </Node>
        </Node>
      </Node>
    </BinaryTree>
    <BinaryTree type="DecisionTree" boostWeight="1.0000000000000000e+00" itree="460">
      <Node pos="s" depth="0" NCoef="0" IVar="4" Cut="1.4346807861328125e+02" cType="1" res="2.3855534382164478e-03" rms="3.8521766662597656e-01" purity="5.0138169527053833e-01" nType="0">
        <Node pos="l" depth="1" NCoef="0" IVar="4" Cut="1.3012881469726562e+02" cType="1" res="5.5578574538230896e-03" rms="3.9438953995704651e-01" purity="3.6622419953346252e-01" nType="0">
          <Node pos="l" depth="2" NCoef="0" IVar="0" Cut="4.3649185180664062e+02" cType="1" res="2.4804389104247093e-03" rms="3.9033254981040955e-01" purity="3.3384904265403748e-01" nType="0">
            <Node pos="l" depth="3" NCoef="0" IVar="-1" Cut="0.0000000000000000e+00" cType="1" res="-1.9319432321935892e-03" rms="3.7074005603790283e-01" purity="2.2764693200588226e-01" nType="-99"/>
            <Node pos="r" depth="3" NCoef="0" IVar="-1" Cut="0.0000000000000000e+00" cType="1" res="6.7357495427131653e-03" rms="4.2433264851570129e-01" purity="5.3215289115905762e-01" nType="-99"/>
          </Node>
          <Node pos="r" depth="2" NCoef="0" IVar="4" Cut="1.3648129272460938e+02" cType="1" res="2.5937372818589211e-02" rms="4.1969975829124451e-01" purity="5.8062142133712769e-01" nType="0">
            <Node pos="l" depth="3" NCoef="0" IVar="-1" Cut="0.0000000000000000e+00" cType="1" res="2.8020652011036873e-02" rms="4.3121659755706787e-01" purity="5.8209037780761719e-01" nType="-99"/>
            <Node pos="r" depth="3" NCoef="0" IVar="-1" Cut="0.0000000000000000e+00" cType="1" res="4.4534544576890767e-04" rms="4.0586057305335999e-01" purity="5.7909548282623291e-01" nType="-99"/>
          </Node>
        </Node>
        <Node pos="r" depth="1" NCoef="0" IVar="8" Cut="-1.4665625095367432e+00" cType="1" res="-2.5883126072585583e-03" rms="3.7032538652420044e-01" purity="7.1329551935195923e-01" nType="0">
          <Node pos="l" depth="2" NCoef="0" IVar="-1" Cut="0.0000000000000000e+00" cType="1" res="-2.1971350535750389e-02" rms="3.8466930389404297e-01" purity="4.9274972081184387e-01" nType="-99"/>
          <Node pos="r" depth="2" NCoef="0" IVar="8" Cut="1.5871767699718475e-01" cType="1" res="-9.9244556622579694e-05" rms="3.6908331513404846e-01" purity="7.3022919893264771e-01" nType="0">
            <Node pos="l" depth="3" NCoef="0" IVar="-1" Cut="0.0000000000000000e+00" cType="1" res="5.5027031339704990e-03" rms="3.5940426588058472e-01" purity="7.6324605941772461e-01" nType="-99"/>
            <Node pos="r" depth="3" NCoef="0" IVar="-1" Cut="0.0000000000000000e+00" cType="1" res="-6.3072186894714832e-03" rms="3.8030183315277100e-01" purity="6.9017815589904785e-01" nType="-99"/>
          </Node>
        </Node>
      </Node>
    </BinaryTree>
    <BinaryTree type="DecisionTree" boostWeight="1.0000000000000000e+00" itree="461">
      <Node pos="s" depth="0" NCoef="0" IVar="7" Cut="-1.9999508857727051e+00" cType="1" res="2.3029739968478680e-03" rms="3.8541480898857117e-01" purity="5.0149929523468018e-01" nType="0">
        <Node pos="l" depth="1" NCoef="0" IVar="-1" Cut="0.0000000000000000e+00" cType="1" res="-2.7485569939017296e-02" rms="2.8186184167861938e-01" purity="1.3345235586166382e-01" nType="-99"/>
        <Node pos="r" depth="1" NCoef="0" IVar="9" Cut="1.9999959468841553e+00" cType="1" res="3.2699692528694868e-03" rms="3.8834103941917419e-01" purity="5.1371431350708008e-01" nType="0">
          <Node pos="l" depth="2" NCoef="0" IVar="6" Cut="-1.7193617820739746e+00" cType="1" res="4.1311490349471569e-03" rms="3.8929289579391479e-01" purity="5.2295386791229248e-01" nType="0">
            <Node pos="l" depth="3" NCoef="0" IVar="-1" Cut="0.0000000000000000e+00" cType="1" res="2.2479295730590820e-02" rms="3.3125591278076172e-01" purity="2.0047537982463837e-01" nType="-99"/>
            <Node pos="r" depth="3" NCoef="0" IVar="-1" Cut="0.0000000000000000e+00" cType="1" res="2.1607945673167706e-03" rms="3.9152723550796509e-01" purity="5.3652757406234741e-01" nType="-99"/>
          </Node>
          <Node pos="r" depth="2" NCoef="0" IVar="9" Cut="2.3428516387939453e+00" cType="1" res="-1.1463365517556667e-02" rms="3.7136971950531006e-01" purity="3.5564097762107849e-01" nType="0">
            <Node pos="l" depth="3" NCoef="0" IVar="-1" Cut="0.0000000000000000e+00" cType="1" res="-2.6436675339937210e-02" rms="3.7875011563301086e-01" purity="3.4578818082809448e-01" nType="-99"/>
            <Node pos="r" depth="3" NCoef="0" IVar="-1" Cut="0.0000000000000000e+00" cType="1" res="1.3111889362335205e-02" rms="3.6083948612213135e-01" purity="3.6631777882575989e-01" nType="-99"/>
          </Node>
        </Node>
      </Node>
    </BinaryTree>
    <BinaryTree type="DecisionTree" boostWeight="1.0000000000000000e+00" itree="462">
      <Node pos="s" depth="0" NCoef="0" IVar="6" Cut="-1.1748954057693481e+00" cType="1" res="-5.9611978940665722e-03" rms="3.8170889019966125e-01" purity="4.9563050270080566e-01" nType="0">
        <Node pos="l" depth="1" NCoef="0" IVar="6" Cut="-1.7048720121383667e+00" cType="1" res="-2.2406784817576408e-02" rms="3.3220794796943665e-01" purity="2.4841050803661346e-01" nType="0">
          <Node pos="l" depth="2" NCoef="0" IVar="-1" Cut="0.0000000000000000e+00" cType="1" res="-5.4773776791989803e-03" rms="2.9554471373558044e-01" purity="1.7969842255115509e-01" nType="-99"/>
          <Node pos="r" depth="2" NCoef="0" IVar="7" Cut="-3.9963465929031372e-01" cType="1" res="-3.2497785985469818e-02" rms="3.5192653536796570e-01" purity="2.8949752449989319e-01" nType="0">
            <Node pos="l" depth="3" NCoef="0" IVar="-1" Cut="0.0000000000000000e+00" cType="1" res="-3.8064274936914444e-02" rms="3.3406433463096619e-01" purity="2.2970651090145111e-01" nType="-99"/>
            <Node pos="r" depth="3" NCoef="0" IVar="-1" Cut="0.0000000000000000e+00" cType="1" res="-1.5570090152323246e-02" rms="3.6325904726982117e-01" purity="3.3028951287269592e-01" nType="-99"/>
          </Node>
        </Node>
        <Node pos="r" depth="1" NCoef="0" IVar="8" Cut="-1.4666740894317627e+00" cType="1" res="-3.9446041919291019e-03" rms="3.8729557394981384e-01" purity="5.2594512701034546e-01" nType="0">
          <Node pos="l" depth="2" NCoef="0" IVar="3" Cut="1.7750694274902344e+02" cType="1" res="1.7731294035911560e-02" rms="3.9276036620140076e-01" purity="3.6355894804000854e-01" nType="0">
            <Node pos="l" depth="3" NCoef="0" IVar="-1" Cut="0.0000000000000000e+00" cType="1" res="2.4179628118872643e-02" rms="3.7477231025695801e-01" purity="2.5867125391960144e-01" nType="-99"/>
            <Node pos="r" depth="3" NCoef="0" IVar="-1" Cut="0.0000000000000000e+00" cType="1" res="2.7882927097380161e-03" rms="4.0849334001541138e-01" purity="4.6199309825897217e-01" nType="-99"/>
          </Node>
          <Node pos="r" depth="2" NCoef="0" IVar="6" Cut="3.3933383226394653e-01" cType="1" res="-6.3439626246690750e-03" rms="3.8661122322082520e-01" purity="5.4392009973526001e-01" nType="0">
            <Node pos="l" depth="3" NCoef="0" IVar="-1" Cut="0.0000000000000000e+00" cType="1" res="-8.2804949488490820e-04" rms="3.9271894097328186e-01" purity="6.0005903244018555e-01" nType="-99"/>
            <Node pos="r" depth="3" NCoef="0" IVar="-1" Cut="0.0000000000000000e+00" cType="1" res="-9.5109911635518074e-03" rms="3.7709885835647583e-01" purity="4.5937529206275940e-01" nType="-99"/>
          </Node>
        </Node>
      </Node>
    </BinaryTree>
    <BinaryTree type="DecisionTree" boostWeight="1.0000000000000000e+00" itree="463">
      <Node pos="s" depth="0" NCoef="0" IVar="6" Cut="-1.2429600954055786e-01" cType="1" res="2.9292178805917501e-03" rms="3.8456457853317261e-01" purity="5.0492036342620850e-01" nType="0">
        <Node pos="l" depth="1" NCoef="0" IVar="7" Cut="-3.9979642629623413e-01" cType="1" res="8.1737888976931572e-03" rms="3.8528630137443542e-01" purity="4.9610671401023865e-01" nType="0">
          <Node pos="l" depth="2" NCoef="0" IVar="7" Cut="-7.4265611171722412e-01" cType="1" res="-1.0004353243857622e-03" rms="3.8165646791458130e-01" purity="4.3840748071670532e-01" nType="0">
            <Node pos="l" depth="3" NCoef="0" IVar="-1" Cut="0.0000000000000000e+00" cType="1" res="6.1114332638680935e-03" rms="3.7862291932106018e-01" purity="4.0126338601112366e-01" nType="-99"/>
            <Node pos="r" depth="3" NCoef="0" IVar="-1" Cut="0.0000000000000000e+00" cType="1" res="-1.6402693465352058e-02" rms="3.8805192708969116e-01" purity="5.3129357099533081e-01" nType="-99"/>
          </Node>
          <Node pos="r" depth="2" NCoef="0" IVar="7" Cut="1.2762695550918579e+00" cType="1" res="1.3702115043997765e-02" rms="3.8735228776931763e-01" purity="5.3087598085403442e-01" nType="0">
            <Node pos="l" depth="3" NCoef="0" IVar="-1" Cut="0.0000000000000000e+00" cType="1" res="1.1594166047871113e-02" rms="3.9454305171966553e-01" purity="5.8560353517532349e-01" nType="-99"/>
            <Node pos="r" depth="3" NCoef="0" IVar="-1" Cut="0.0000000000000000e+00" cType="1" res="-5.4820538498461246e-03" rms="3.4983149170875549e-01" purity="2.6676106452941895e-01" nType="-99"/>
          </Node>
        </Node>
        <Node pos="r" depth="1" NCoef="0" IVar="8" Cut="1.4665185213088989e+00" cType="1" res="-1.3372735120356083e-03" rms="3.8392361998558044e-01" purity="5.1209038496017456e-01" nType="0">
          <Node pos="l" depth="2" NCoef="0" IVar="9" Cut="-1.1999539136886597e+00" cType="1" res="7.0441851858049631e-04" rms="3.8651090860366821e-01" purity="5.3716206550598145e-01" nType="0">
            <Node pos="l" depth="3" NCoef="0" IVar="-1" Cut="0.0000000000000000e+00" cType="1" res="1.0117194615304470e-02" rms="4.0062910318374634e-01" purity="4.7867667675018311e-01" nType="-99"/>
            <Node pos="r" depth="3" NCoef="0" IVar="-1" Cut="0.0000000000000000e+00" cType="1" res="-1.4135891105979681e-03" rms="3.8366574048995972e-01" purity="5.4843360185623169e-01" nType="-99"/>
          </Node>
          <Node pos="r" depth="2" NCoef="0" IVar="7" Cut="1.3477547466754913e-01" cType="1" res="-1.8063634634017944e-02" rms="3.6159822344779968e-01" purity="3.0669286847114563e-01" nType="0">
            <Node pos="l" depth="3" NCoef="0" IVar="-1" Cut="0.0000000000000000e+00" cType="1" res="-2.3416867479681969e-02" rms="3.5527598857879639e-01" purity="3.0470654368400574e-01" nType="-99"/>
            <Node pos="r" depth="3" NCoef="0" IVar="-1" Cut="0.0000000000000000e+00" cType="1" res="-5.1866155117750168e-03" rms="3.6611190438270569e-01" purity="3.0825349688529968e-01" nType="-99"/>
          </Node>
        </Node>
      </Node>
    </BinaryTree>
    <BinaryTree type="DecisionTree" boostWeight="1.0000000000000000e+00" itree="464">
      <Node pos="s" depth="0" NCoef="0" IVar="8" Cut="1.9998685121536255e+00" cType="1" res="5.6468811817467213e-04" rms="3.8445699214935303e-01" purity="4.9906426668167114e-01" nType="0">
        <Node pos="l" depth="1" NCoef="0" IVar="7" Cut="1.2000045776367188e+00" cType="1" res="1.5829068142920732e-03" rms="3.8646021485328674e-01" purity="5.1127791404724121e-01" nType="0">
          <Node pos="l" depth="2" NCoef="0" IVar="5" Cut="8.3530998229980469e+01" cType="1" res="3.5041563678532839e-03" rms="3.8867357373237610e-01" purity="5.4221260547637939e-01" nType="0">
            <Node pos="l" depth="3" NCoef="0" IVar="-1" Cut="0.0000000000000000e+00" cType="1" res="5.6430739350616932e-03" rms="4.0109676122665405e-01" purity="3.7908789515495300e-01" nType="-99"/>
            <Node pos="r" depth="3" NCoef="0" IVar="-1" Cut="0.0000000000000000e+00" cType="1" res="-1.6460407059639692e-03" rms="3.7526431679725647e-01" purity="7.1141445636749268e-01" nType="-99"/>
          </Node>
          <Node pos="r" depth="2" NCoef="0" IVar="1" Cut="1.2753845214843750e+03" cType="1" res="-1.1493247002363205e-02" rms="3.7078103423118591e-01" purity="3.0073410272598267e-01" nType="0">
            <Node pos="l" depth="3" NCoef="0" IVar="-1" Cut="0.0000000000000000e+00" cType="1" res="-1.7516255378723145e-02" rms="3.4623754024505615e-01" purity="1.7167599499225616e-01" nType="-99"/>
            <Node pos="r" depth="3" NCoef="0" IVar="-1" Cut="0.0000000000000000e+00" cType="1" res="3.4697200171649456e-03" rms="4.0858551859855652e-01" purity="5.2035731077194214e-01" nType="-99"/>
          </Node>
        </Node>
        <Node pos="r" depth="1" NCoef="0" IVar="-1" Cut="0.0000000000000000e+00" cType="1" res="-1.7861502245068550e-02" rms="3.3524388074874878e-01" purity="2.2331109642982483e-01" nType="-99"/>
      </Node>
    </BinaryTree>
    <BinaryTree type="DecisionTree" boostWeight="1.0000000000000000e+00" itree="465">
      <Node pos="s" depth="0" NCoef="0" IVar="6" Cut="6.7993396520614624e-01" cType="1" res="-2.5715460651554167e-04" rms="3.8445478677749634e-01" purity="5.0002527236938477e-01" nType="0">
        <Node pos="l" depth="1" NCoef="0" IVar="3" Cut="4.1859667968750000e+02" cType="1" res="3.4647416323423386e-03" rms="3.8967302441596985e-01" purity="5.4196399450302124e-01" nType="0">
          <Node pos="l" depth="2" NCoef="0" IVar="3" Cut="1.3846539306640625e+02" cType="1" res="4.7895377501845360e-03" rms="3.9004924893379211e-01" purity="5.3748989105224609e-01" nType="0">
            <Node pos="l" depth="3" NCoef="0" IVar="-1" Cut="0.0000000000000000e+00" cType="1" res="1.1079614982008934e-02" rms="3.8474386930465698e-01" purity="2.5825089216232300e-01" nType="-99"/>
            <Node pos="r" depth="3" NCoef="0" IVar="-1" Cut="0.0000000000000000e+00" cType="1" res="1.3103629462420940e-03" rms="3.9135184884071350e-01" purity="6.0916656255722046e-01" nType="-99"/>
          </Node>
          <Node pos="r" depth="2" NCoef="0" IVar="-1" Cut="0.0000000000000000e+00" cType="1" res="-2.1544819697737694e-02" rms="3.7757802009582520e-01" purity="6.6313886642456055e-01" nType="-99"/>
        </Node>
        <Node pos="r" depth="1" NCoef="0" IVar="8" Cut="-4.0002769231796265e-01" cType="1" res="-1.2798042967915535e-02" rms="3.6604669690132141e-01" purity="3.5871317982673645e-01" nType="0">
          <Node pos="l" depth="2" NCoef="0" IVar="1" Cut="1.2946738281250000e+03" cType="1" res="-2.6312122121453285e-02" rms="3.4748566150665283e-01" purity="3.2100540399551392e-01" nType="0">
            <Node pos="l" depth="3" NCoef="0" IVar="-1" Cut="0.0000000000000000e+00" cType="1" res="-1.3221671804785728e-02" rms="3.3530634641647339e-01" purity="2.0603688061237335e-01" nType="-99"/>
            <Node pos="r" depth="3" NCoef="0" IVar="-1" Cut="0.0000000000000000e+00" cType="1" res="-2.7874205261468887e-02" rms="3.6647638678550720e-01" purity="5.1384204626083374e-01" nType="-99"/>
          </Node>
          <Node pos="r" depth="2" NCoef="0" IVar="9" Cut="1.4668518304824829e+00" cType="1" res="-6.5765343606472015e-03" rms="3.7411832809448242e-01" purity="3.7607279419898987e-01" nType="0">
            <Node pos="l" depth="3" NCoef="0" IVar="-1" Cut="0.0000000000000000e+00" cType="1" res="-1.2751015310641378e-04" rms="3.8285130262374878e-01" purity="4.0360224246978760e-01" nType="-99"/>
            <Node pos="r" depth="3" NCoef="0" IVar="-1" Cut="0.0000000000000000e+00" cType="1" res="-3.1269915401935577e-02" rms="3.2424280047416687e-01" purity="2.3627421259880066e-01" nType="-99"/>
          </Node>
        </Node>
      </Node>
    </BinaryTree>
    <BinaryTree type="DecisionTree" boostWeight="1.0000000000000000e+00" itree="466">
      <Node pos="s" depth="0" NCoef="0" IVar="9" Cut="1.7333117723464966e+00" cType="1" res="-2.9830920975655317e-03" rms="3.8597032427787781e-01" purity="4.9150905013084412e-01" nType="0">
        <Node pos="l" depth="1" NCoef="0" IVar="7" Cut="-1.9998475313186646e+00" cType="1" res="-5.2033145911991596e-03" rms="3.8635662198066711e-01" purity="5.0091093778610229e-01" nType="0">
          <Node pos="l" depth="2" NCoef="0" IVar="-1" Cut="0.0000000000000000e+00" cType="1" res="2.7234198525547981e-02" rms="3.3870691061019897e-01" purity="1.8632170557975769e-01" nType="-99"/>
          <Node pos="r" depth="2" NCoef="0" IVar="8" Cut="1.1999665498733521e+00" cType="1" res="-6.4144930802285671e-03" rms="3.8794064521789551e-01" purity="5.1245623826980591e-01" nType="0">
            <Node pos="l" depth="3" NCoef="0" IVar="-1" Cut="0.0000000000000000e+00" cType="1" res="-5.8901351876556873e-03" rms="3.8663935661315918e-01" purity="5.3322297334671021e-01" nType="-99"/>
            <Node pos="r" depth="3" NCoef="0" IVar="-1" Cut="0.0000000000000000e+00" cType="1" res="5.3403661586344242e-03" rms="3.9507317543029785e-01" purity="3.9220690727233887e-01" nType="-99"/>
          </Node>
        </Node>
        <Node pos="r" depth="1" NCoef="0" IVar="6" Cut="1.5589812397956848e-01" cType="1" res="2.0292367786169052e-02" rms="3.8111943006515503e-01" purity="3.9294573664665222e-01" nType="0">
          <Node pos="l" depth="2" NCoef="0" IVar="-1" Cut="0.0000000000000000e+00" cType="1" res="1.8137685256078839e-03" rms="3.8862130045890808e-01" purity="3.9406880736351013e-01" nType="-99"/>
          <Node pos="r" depth="2" NCoef="0" IVar="-1" Cut="0.0000000000000000e+00" cType="1" res="2.6750491932034492e-02" rms="3.7323057651519775e-01" purity="3.9189702272415161e-01" nType="-99"/>
        </Node>
      </Node>
    </BinaryTree>
    <BinaryTree type="DecisionTree" boostWeight="1.0000000000000000e+00" itree="467">
      <Node pos="s" depth="0" NCoef="0" IVar="9" Cut="-9.3328332901000977e-01" cType="1" res="-2.4404004216194153e-03" rms="3.8411512970924377e-01" purity="4.9789193272590637e-01" nType="0">
        <Node pos="l" depth="1" NCoef="0" IVar="9" Cut="-1.4666047096252441e+00" cType="1" res="-1.5266474336385727e-02" rms="3.7918037176132202e-01" purity="4.2897629737854004e-01" nType="0">
          <Node pos="l" depth="2" NCoef="0" IVar="0" Cut="4.1004495239257812e+02" cType="1" res="-1.5596474986523390e-03" rms="3.7553989887237549e-01" purity="3.9576402306556702e-01" nType="0">
            <Node pos="l" depth="3" NCoef="0" IVar="-1" Cut="0.0000000000000000e+00" cType="1" res="-9.9327135831117630e-03" rms="3.5117718577384949e-01" purity="2.2098360955715179e-01" nType="-99"/>
            <Node pos="r" depth="3" NCoef="0" IVar="-1" Cut="0.0000000000000000e+00" cType="1" res="6.3552502542734146e-03" rms="3.9895772933959961e-01" purity="5.7756537199020386e-01" nType="-99"/>
          </Node>
          <Node pos="r" depth="2" NCoef="0" IVar="4" Cut="1.7448042297363281e+02" cType="1" res="-3.0620099976658821e-02" rms="3.8263455033302307e-01" purity="4.6617886424064636e-01" nType="0">
            <Node pos="l" depth="3" NCoef="0" IVar="-1" Cut="0.0000000000000000e+00" cType="1" res="-2.6150433346629143e-02" rms="3.8871556520462036e-01" purity="3.7400206923484802e-01" nType="-99"/>
            <Node pos="r" depth="3" NCoef="0" IVar="-1" Cut="0.0000000000000000e+00" cType="1" res="2.3759312462061644e-03" rms="3.6130282282829285e-01" purity="7.4833679199218750e-01" nType="-99"/>
          </Node>
        </Node>
        <Node pos="r" depth="1" NCoef="0" IVar="2" Cut="3.5034826660156250e+02" cType="1" res="1.3888297835364938e-03" rms="3.8549345731735229e-01" purity="5.1846671104431152e-01" nType="0">
          <Node pos="l" depth="2" NCoef="0" IVar="5" Cut="6.2118694305419922e+01" cType="1" res="7.1079125627875328e-03" rms="3.9694434404373169e-01" purity="4.8319375514984131e-01" nType="0">
            <Node pos="l" depth="3" NCoef="0" IVar="-1" Cut="0.0000000000000000e+00" cType="1" res="1.6829164698719978e-02" rms="3.8580185174942017e-01" purity="2.6221382617950439e-01" nType="-99"/>
            <Node pos="r" depth="3" NCoef="0" IVar="-1" Cut="0.0000000000000000e+00" cType="1" res="1.2952473480254412e-03" rms="4.0023308992385864e-01" purity="5.5230647325515747e-01" nType="-99"/>
          </Node>
          <Node pos="r" depth="2" NCoef="0" IVar="4" Cut="1.4890478515625000e+02" cType="1" res="-4.7595226205885410e-03" rms="3.7269306182861328e-01" purity="5.5638724565505981e-01" nType="0">
            <Node pos="l" depth="3" NCoef="0" IVar="-1" Cut="0.0000000000000000e+00" cType="1" res="-7.5613697990775108e-03" rms="3.8880041241645813e-01" purity="3.8581064343452454e-01" nType="-99"/>
            <Node pos="r" depth="3" NCoef="0" IVar="-1" Cut="0.0000000000000000e+00" cType="1" res="2.3814451415091753e-03" rms="3.5298040509223938e-01" purity="7.5371950864791870e-01" nType="-99"/>
          </Node>
        </Node>
      </Node>
    </BinaryTree>
    <BinaryTree type="DecisionTree" boostWeight="1.0000000000000000e+00" itree="468">
      <Node pos="s" depth="0" NCoef="0" IVar="8" Cut="6.6664707660675049e-01" cType="1" res="9.6937431953847408e-04" rms="3.8255864381790161e-01" purity="4.9835383892059326e-01" nType="0">
        <Node pos="l" depth="1" NCoef="0" IVar="9" Cut="1.4666289091110229e+00" cType="1" res="3.9953975938260555e-03" rms="3.8389062881469727e-01" purity="5.2774310111999512e-01" nType="0">
          <Node pos="l" depth="2" NCoef="0" IVar="9" Cut="-1.1745322942733765e+00" cType="1" res="6.3489885069429874e-03" rms="3.8419151306152344e-01" purity="5.3833878040313721e-01" nType="0">
            <Node pos="l" depth="3" NCoef="0" IVar="-1" Cut="0.0000000000000000e+00" cType="1" res="-4.1176215745508671e-03" rms="3.7259152531623840e-01" purity="4.2561417818069458e-01" nType="-99"/>
            <Node pos="r" depth="3" NCoef="0" IVar="-1" Cut="0.0000000000000000e+00" cType="1" res="6.4781615510582924e-03" rms="3.8713866472244263e-01" purity="5.6820046901702881e-01" nType="-99"/>
          </Node>
          <Node pos="r" depth="2" NCoef="0" IVar="4" Cut="1.4472244262695312e+02" cType="1" res="-1.4391307719051838e-02" rms="3.8103199005126953e-01" purity="4.4496777653694153e-01" nType="0">
            <Node pos="l" depth="3" NCoef="0" IVar="-1" Cut="0.0000000000000000e+00" cType="1" res="-2.2050069645047188e-02" rms="3.7650147080421448e-01" purity="3.1653156876564026e-01" nType="-99"/>
            <Node pos="r" depth="3" NCoef="0" IVar="-1" Cut="0.0000000000000000e+00" cType="1" res="1.3296735472977161e-02" rms="3.8665065169334412e-01" purity="6.7709141969680786e-01" nType="-99"/>
          </Node>
        </Node>
        <Node pos="r" depth="1" NCoef="0" IVar="2" Cut="4.7161538696289062e+02" cType="1" res="-6.7438571713864803e-03" rms="3.7903296947479248e-01" purity="4.2344146966934204e-01" nType="0">
          <Node pos="l" depth="2" NCoef="0" IVar="2" Cut="2.3880456542968750e+02" cType="1" res="-2.2831871174275875e-03" rms="3.7648436427116394e-01" purity="4.1659092903137207e-01" nType="0">
            <Node pos="l" depth="3" NCoef="0" IVar="-1" Cut="0.0000000000000000e+00" cType="1" res="1.2300599366426468e-02" rms="4.0249291062355042e-01" purity="3.6487430334091187e-01" nType="-99"/>
            <Node pos="r" depth="3" NCoef="0" IVar="-1" Cut="0.0000000000000000e+00" cType="1" res="-4.6271029859781265e-03" rms="3.7080100178718567e-01" purity="4.2713832855224609e-01" nType="-99"/>
          </Node>
          <Node pos="r" depth="2" NCoef="0" IVar="8" Cut="1.1745284795761108e+00" cType="1" res="-2.5658706203103065e-02" rms="3.8908702135086060e-01" purity="4.5249032974243164e-01" nType="0">
            <Node pos="l" depth="3" NCoef="0" IVar="-1" Cut="0.0000000000000000e+00" cType="1" res="-6.1580077745020390e-03" rms="3.9888846874237061e-01" purity="5.4897558689117432e-01" nType="-99"/>
            <Node pos="r" depth="3" NCoef="0" IVar="-1" Cut="0.0000000000000000e+00" cType="1" res="-2.6438800618052483e-02" rms="3.7897685170173645e-01" purity="3.6120611429214478e-01" nType="-99"/>
          </Node>
        </Node>
      </Node>
    </BinaryTree>
    <BinaryTree type="DecisionTree" boostWeight="1.0000000000000000e+00" itree="469">
      <Node pos="s" depth="0" NCoef="0" IVar="6" Cut="6.8002188205718994e-01" cType="1" res="3.8010969292372465e-03" rms="3.8537901639938354e-01" purity="5.0190037488937378e-01" nType="0">
        <Node pos="l" depth="1" NCoef="0" IVar="9" Cut="-1.9999725818634033e+00" cType="1" res="1.1696147266775370e-03" rms="3.8966733217239380e-01" purity="5.3636467456817627e-01" nType="0">
          <Node pos="l" depth="2" NCoef="0" IVar="-1" Cut="0.0000000000000000e+00" cType="1" res="1.4584314078092575e-02" rms="3.8484558463096619e-01" purity="3.8789030909538269e-01" nType="-99"/>
          <Node pos="r" depth="2" NCoef="0" IVar="7" Cut="-1.7331364154815674e+00" cType="1" res="-9.9907483672723174e-05" rms="3.8992360234260559e-01" purity="5.4542243480682373e-01" nType="0">
            <Node pos="l" depth="3" NCoef="0" IVar="-1" Cut="0.0000000000000000e+00" cType="1" res="1.4605413191020489e-02" rms="3.6798217892646790e-01" purity="2.5972050428390503e-01" nType="-99"/>
            <Node pos="r" depth="3" NCoef="0" IVar="-1" Cut="0.0000000000000000e+00" cType="1" res="-7.5519585516303778e-04" rms="3.9108857512474060e-01" purity="5.6142169237136841e-01" nType="-99"/>
          </Node>
        </Node>
        <Node pos="r" depth="1" NCoef="0" IVar="5" Cut="7.6823875427246094e+01" cType="1" res="1.2089296244084835e-02" rms="3.7142726778984070e-01" purity="3.9335060119628906e-01" nType="0">
          <Node pos="l" depth="2" NCoef="0" IVar="7" Cut="4.0001621842384338e-01" cType="1" res="-3.5599251277744770e-03" rms="3.4178838133811951e-01" purity="1.9944678246974945e-01" nType="0">
            <Node pos="l" depth="3" NCoef="0" IVar="-1" Cut="0.0000000000000000e+00" cType="1" res="6.3516311347484589e-03" rms="3.5397601127624512e-01" purity="2.3559533059597015e-01" nType="-99"/>
            <Node pos="r" depth="3" NCoef="0" IVar="-1" Cut="0.0000000000000000e+00" cType="1" res="-1.8836706876754761e-02" rms="3.2291653752326965e-01" purity="1.4802064001560211e-01" nType="-99"/>
          </Node>
          <Node pos="r" depth="2" NCoef="0" IVar="1" Cut="1.6094395751953125e+03" cType="1" res="2.6010664179921150e-02" rms="3.9541307091712952e-01" purity="5.6584519147872925e-01" nType="0">
            <Node pos="l" depth="3" NCoef="0" IVar="-1" Cut="0.0000000000000000e+00" cType="1" res="2.0692482590675354e-02" rms="4.1037717461585999e-01" purity="5.0049901008605957e-01" nType="-99"/>
            <Node pos="r" depth="3" NCoef="0" IVar="-1" Cut="0.0000000000000000e+00" cType="1" res="-9.0177822858095169e-04" rms="3.4524950385093689e-01" purity="7.6186722517013550e-01" nType="-99"/>
          </Node>
        </Node>
      </Node>
    </BinaryTree>
    <BinaryTree type="DecisionTree" boostWeight="1.0000000000000000e+00" itree="470">
      <Node pos="s" depth="0" NCoef="0" IVar="6" Cut="4.1934126615524292e-01" cType="1" res="3.6972092930227518e-03" rms="3.8600596785545349e-01" purity="5.0134122371673584e-01" nType="0">
        <Node pos="l" depth="1" NCoef="0" IVar="2" Cut="3.5035223388671875e+02" cType="1" res="-1.8606387311592698e-04" rms="3.8718277215957642e-01" purity="5.3165423870086670e-01" nType="0">
          <Node pos="l" depth="2" NCoef="0" IVar="7" Cut="-1.4665452241897583e+00" cType="1" res="-5.3356667049229145e-03" rms="3.9682042598724365e-01" purity="4.8315301537513733e-01" nType="0">
            <Node pos="l" depth="3" NCoef="0" IVar="-1" Cut="0.0000000000000000e+00" cType="1" res="1.5441282652318478e-02" rms="3.6821904778480530e-01" purity="2.9351267218589783e-01" nType="-99"/>
            <Node pos="r" depth="3" NCoef="0" IVar="-1" Cut="0.0000000000000000e+00" cType="1" res="-5.2721034735441208e-03" rms="3.9989665150642395e-01" purity="5.0517278909683228e-01" nType="-99"/>
          </Node>
          <Node pos="r" depth="2" NCoef="0" IVar="9" Cut="1.4666501283645630e+00" cType="1" res="5.0340401940047741e-03" rms="3.7709012627601624e-01" purity="5.8081954717636108e-01" nType="0">
            <Node pos="l" depth="3" NCoef="0" IVar="-1" Cut="0.0000000000000000e+00" cType="1" res="1.0623631533235312e-03" rms="3.7443649768829346e-01" purity="5.9028208255767822e-01" nType="-99"/>
            <Node pos="r" depth="3" NCoef="0" IVar="-1" Cut="0.0000000000000000e+00" cType="1" res="2.1206850185990334e-02" rms="3.9620360732078552e-01" purity="5.0668191909790039e-01" nType="-99"/>
          </Node>
        </Node>
        <Node pos="r" depth="1" NCoef="0" IVar="8" Cut="1.7330704927444458e+00" cType="1" res="1.1515527032315731e-02" rms="3.8350647687911987e-01" purity="4.4031092524528503e-01" nType="0">
          <Node pos="l" depth="2" NCoef="0" IVar="4" Cut="9.7307144165039062e+01" cType="1" res="1.3822376728057861e-02" rms="3.8792517781257629e-01" purity="4.6182048320770264e-01" nType="0">
            <Node pos="l" depth="3" NCoef="0" IVar="-1" Cut="0.0000000000000000e+00" cType="1" res="1.8727112561464310e-02" rms="3.6368253827095032e-01" purity="2.2218598425388336e-01" nType="-99"/>
            <Node pos="r" depth="3" NCoef="0" IVar="-1" Cut="0.0000000000000000e+00" cType="1" res="6.0096494853496552e-03" rms="3.9790892601013184e-01" purity="5.6576699018478394e-01" nType="-99"/>
          </Node>
          <Node pos="r" depth="2" NCoef="0" IVar="-1" Cut="0.0000000000000000e+00" cType="1" res="-1.2557049281895161e-02" rms="3.2888185977935791e-01" purity="1.9934816658496857e-01" nType="-99"/>
        </Node>
      </Node>
    </BinaryTree>
    <BinaryTree type="DecisionTree" boostWeight="1.0000000000000000e+00" itree="471">
      <Node pos="s" depth="0" NCoef="0" IVar="3" Cut="1.4559339904785156e+02" cType="1" res="-4.7960239462554455e-03" rms="3.8258472084999084e-01" purity="4.9353519082069397e-01" nType="0">
        <Node pos="l" depth="1" NCoef="0" IVar="1" Cut="1.0127062988281250e+03" cType="1" res="-1.2237639166414738e-02" rms="3.5864567756652832e-01" purity="2.2545628249645233e-01" nType="0">
          <Node pos="l" depth="2" NCoef="0" IVar="9" Cut="-9.3337470293045044e-01" cType="1" res="-2.2095976397395134e-02" rms="3.1491440534591675e-01" purity="1.3361802697181702e-01" nType="0">
            <Node pos="l" depth="3" NCoef="0" IVar="-1" Cut="0.0000000000000000e+00" cType="1" res="3.1887819059193134e-03" rms="3.1852263212203979e-01" purity="1.4100177586078644e-01" nType="-99"/>
            <Node pos="r" depth="3" NCoef="0" IVar="-1" Cut="0.0000000000000000e+00" cType="1" res="-2.6791790500283241e-02" rms="3.1303215026855469e-01" purity="1.3086603581905365e-01" nType="-99"/>
          </Node>
          <Node pos="r" depth="2" NCoef="0" IVar="9" Cut="1.3332819938659668e-01" cType="1" res="-9.3275762628763914e-04" rms="4.0269741415977478e-01" purity="3.3077025413513184e-01" nType="0">
            <Node pos="l" depth="3" NCoef="0" IVar="-1" Cut="0.0000000000000000e+00" cType="1" res="-1.3348319567739964e-02" rms="3.9611673355102539e-01" purity="3.1521824002265930e-01" nType="-99"/>
            <Node pos="r" depth="3" NCoef="0" IVar="-1" Cut="0.0000000000000000e+00" cType="1" res="1.3445139862596989e-02" rms="4.0859359502792358e-01" purity="3.4783163666725159e-01" nType="-99"/>
          </Node>
        </Node>
        <Node pos="r" depth="1" NCoef="0" IVar="6" Cut="4.1491314768791199e-01" cType="1" res="-2.4487376213073730e-03" rms="3.8980138301849365e-01" purity="5.7809454202651978e-01" nType="0">
          <Node pos="l" depth="2" NCoef="0" IVar="6" Cut="2.6349213719367981e-01" cType="1" res="-6.5018814057111740e-03" rms="3.8980698585510254e-01" purity="6.0502564907073975e-01" nType="0">
            <Node pos="l" depth="3" NCoef="0" IVar="-1" Cut="0.0000000000000000e+00" cType="1" res="-2.8337212279438972e-03" rms="3.8869026303291321e-01" purity="5.9957945346832275e-01" nType="-99"/>
            <Node pos="r" depth="3" NCoef="0" IVar="-1" Cut="0.0000000000000000e+00" cType="1" res="-1.8438694998621941e-02" rms="4.0047851204872131e-01" purity="6.6120600700378418e-01" nType="-99"/>
          </Node>
          <Node pos="r" depth="2" NCoef="0" IVar="1" Cut="1.3776657714843750e+03" cType="1" res="5.9644919820129871e-03" rms="3.8965523242950439e-01" purity="5.2219277620315552e-01" nType="0">
            <Node pos="l" depth="3" NCoef="0" IVar="-1" Cut="0.0000000000000000e+00" cType="1" res="8.9105032384395599e-03" rms="4.0431961417198181e-01" purity="3.8877069950103760e-01" nType="-99"/>
            <Node pos="r" depth="3" NCoef="0" IVar="-1" Cut="0.0000000000000000e+00" cType="1" res="-3.7839941214770079e-03" rms="3.6974465847015381e-01" purity="6.9288289546966553e-01" nType="-99"/>
          </Node>
        </Node>
      </Node>
    </BinaryTree>
    <BinaryTree type="DecisionTree" boostWeight="1.0000000000000000e+00" itree="472">
      <Node pos="s" depth="0" NCoef="0" IVar="3" Cut="1.3688992309570312e+02" cType="1" res="4.4620098196901381e-04" rms="3.8586154580116272e-01" purity="4.9916443228721619e-01" nType="0">
        <Node pos="l" depth="1" NCoef="0" IVar="3" Cut="1.2051534271240234e+02" cType="1" res="1.3198611326515675e-02" rms="3.6876606941223145e-01" purity="2.3211057484149933e-01" nType="0">
          <Node pos="l" depth="2" NCoef="0" IVar="7" Cut="-9.3323963880538940e-01" cType="1" res="2.4826880544424057e-02" rms="3.5897374153137207e-01" purity="2.0898261666297913e-01" nType="0">
            <Node pos="l" depth="3" NCoef="0" IVar="-1" Cut="0.0000000000000000e+00" cType="1" res="-6.9727301597595215e-03" rms="3.0896139144897461e-01" purity="1.3803382217884064e-01" nType="-99"/>
            <Node pos="r" depth="3" NCoef="0" IVar="-1" Cut="0.0000000000000000e+00" cType="1" res="2.8125481680035591e-02" rms="3.7321045994758606e-01" purity="2.3204450309276581e-01" nType="-99"/>
          </Node>
          <Node pos="r" depth="2" NCoef="0" IVar="6" Cut="2.0392860472202301e-01" cType="1" res="-1.1702937074005604e-02" rms="3.8773629069328308e-01" purity="2.8163829445838928e-01" nType="0">
            <Node pos="l" depth="3" NCoef="0" IVar="-1" Cut="0.0000000000000000e+00" cType="1" res="-1.4789445325732231e-02" rms="3.8154417276382446e-01" purity="2.8766679763793945e-01" nType="-99"/>
            <Node pos="r" depth="3" NCoef="0" IVar="-1" Cut="0.0000000000000000e+00" cType="1" res="2.5759744457900524e-03" rms="3.9541262388229370e-01" purity="2.7349799871444702e-01" nType="-99"/>
          </Node>
        </Node>
        <Node pos="r" depth="1" NCoef="0" IVar="9" Cut="-1.1999369859695435e+00" cType="1" res="-2.8552103321999311e-03" rms="3.9009734988212585e-01" purity="5.6830072402954102e-01" nType="0">
          <Node pos="l" depth="2" NCoef="0" IVar="6" Cut="1.6934113204479218e-01" cType="1" res="1.0949688963592052e-02" rms="4.0165761113166809e-01" purity="4.9616676568984985e-01" nType="0">
            <Node pos="l" depth="3" NCoef="0" IVar="-1" Cut="0.0000000000000000e+00" cType="1" res="-2.9221680015325546e-03" rms="4.0249645709991455e-01" purity="4.8168236017227173e-01" nType="-99"/>
            <Node pos="r" depth="3" NCoef="0" IVar="-1" Cut="0.0000000000000000e+00" cType="1" res="2.1572871133685112e-02" rms="3.9913991093635559e-01" purity="5.1858103275299072e-01" nType="-99"/>
          </Node>
          <Node pos="r" depth="2" NCoef="0" IVar="9" Cut="3.2384461164474487e-01" cType="1" res="-5.6218425743281841e-03" rms="3.8767999410629272e-01" purity="5.8275699615478516e-01" nType="0">
            <Node pos="l" depth="3" NCoef="0" IVar="-1" Cut="0.0000000000000000e+00" cType="1" res="-7.6070511713624001e-03" rms="3.8785502314567566e-01" purity="6.0185801982879639e-01" nType="-99"/>
            <Node pos="r" depth="3" NCoef="0" IVar="-1" Cut="0.0000000000000000e+00" cType="1" res="5.6065607350319624e-04" rms="3.8738709688186646e-01" purity="5.6221997737884521e-01" nType="-99"/>
          </Node>
        </Node>
      </Node>
    </BinaryTree>
    <BinaryTree type="DecisionTree" boostWeight="1.0000000000000000e+00" itree="473">
      <Node pos="s" depth="0" NCoef="0" IVar="2" Cut="3.4565841674804688e+02" cType="1" res="1.2115724530303851e-04" rms="3.8594001531600952e-01" purity="4.9755337834358215e-01" nType="0">
        <Node pos="l" depth="1" NCoef="0" IVar="7" Cut="-3.9990976452827454e-01" cType="1" res="5.2333842031657696e-03" rms="3.9615646004676819e-01" purity="4.6640285849571228e-01" nType="0">
          <Node pos="l" depth="2" NCoef="0" IVar="8" Cut="1.3359259068965912e-01" cType="1" res="1.3595358468592167e-02" rms="3.9371281862258911e-01" purity="4.3998819589614868e-01" nType="0">
            <Node pos="l" depth="3" NCoef="0" IVar="-1" Cut="0.0000000000000000e+00" cType="1" res="2.4408213794231415e-03" rms="3.9590862393379211e-01" purity="4.3371018767356873e-01" nType="-99"/>
            <Node pos="r" depth="3" NCoef="0" IVar="-1" Cut="0.0000000000000000e+00" cType="1" res="1.8939357250928879e-02" rms="3.8993868231773376e-01" purity="4.4938811659812927e-01" nType="-99"/>
          </Node>
          <Node pos="r" depth="2" NCoef="0" IVar="8" Cut="-1.3357144594192505e-01" cType="1" res="3.7716477527283132e-04" rms="3.9748799800872803e-01" purity="4.8174312710762024e-01" nType="0">
            <Node pos="l" depth="3" NCoef="0" IVar="-1" Cut="0.0000000000000000e+00" cType="1" res="9.2493779957294464e-03" rms="4.0334072709083557e-01" purity="4.9316683411598206e-01" nType="-99"/>
            <Node pos="r" depth="3" NCoef="0" IVar="-1" Cut="0.0000000000000000e+00" cType="1" res="-6.4930627122521400e-03" rms="3.9279028773307800e-01" purity="4.7331672906875610e-01" nType="-99"/>
          </Node>
        </Node>
        <Node pos="r" depth="1" NCoef="0" IVar="6" Cut="7.0857101678848267e-01" cType="1" res="-5.2409842610359192e-03" rms="3.7485018372535706e-01" purity="5.3022676706314087e-01" nType="0">
          <Node pos="l" depth="2" NCoef="0" IVar="5" Cut="7.9215919494628906e+01" cType="1" res="-7.5641740113496780e-04" rms="3.7881210446357727e-01" purity="5.7264107465744019e-01" nType="0">
            <Node pos="l" depth="3" NCoef="0" IVar="-1" Cut="0.0000000000000000e+00" cType="1" res="4.8991194926202297e-03" rms="3.9103028178215027e-01" purity="3.9812174439430237e-01" nType="-99"/>
            <Node pos="r" depth="3" NCoef="0" IVar="-1" Cut="0.0000000000000000e+00" cType="1" res="-5.5923582985997200e-03" rms="3.6849647760391235e-01" purity="7.1367269754409790e-01" nType="-99"/>
          </Node>
          <Node pos="r" depth="2" NCoef="0" IVar="7" Cut="-6.6928118467330933e-01" cType="1" res="-2.3158567026257515e-02" rms="3.5802415013313293e-01" purity="3.6076515913009644e-01" nType="0">
            <Node pos="l" depth="3" NCoef="0" IVar="-1" Cut="0.0000000000000000e+00" cType="1" res="3.9947754703462124e-03" rms="3.2866686582565308e-01" purity="2.9325023293495178e-01" nType="-99"/>
            <Node pos="r" depth="3" NCoef="0" IVar="-1" Cut="0.0000000000000000e+00" cType="1" res="-2.3943860083818436e-02" rms="3.6753684282302856e-01" purity="3.8516679406166077e-01" nType="-99"/>
          </Node>
        </Node>
      </Node>
    </BinaryTree>
    <BinaryTree type="DecisionTree" boostWeight="1.0000000000000000e+00" itree="474">
      <Node pos="s" depth="0" NCoef="0" IVar="8" Cut="1.1999627351760864e+00" cType="1" res="-3.0765272094868124e-04" rms="3.8353961706161499e-01" purity="4.9782681465148926e-01" nType="0">
        <Node pos="l" depth="1" NCoef="0" IVar="2" Cut="6.5103710937500000e+02" cType="1" res="-2.7069482021033764e-03" rms="3.8405179977416992e-01" purity="5.2062922716140747e-01" nType="0">
          <Node pos="l" depth="2" NCoef="0" IVar="8" Cut="-1.0857188701629639e+00" cType="1" res="-3.9500268176198006e-03" rms="3.8333514332771301e-01" purity="5.1321667432785034e-01" nType="0">
            <Node pos="l" depth="3" NCoef="0" IVar="-1" Cut="0.0000000000000000e+00" cType="1" res="-9.9512180313467979e-03" rms="3.7224453687667847e-01" purity="3.5679402947425842e-01" nType="-99"/>
            <Node pos="r" depth="3" NCoef="0" IVar="-1" Cut="0.0000000000000000e+00" cType="1" res="-8.1326160579919815e-04" rms="3.8618651032447815e-01" purity="5.5483233928680420e-01" nType="-99"/>
          </Node>
          <Node pos="r" depth="2" NCoef="0" IVar="7" Cut="-1.3343371450901031e-01" cType="1" res="1.6248764470219612e-02" rms="3.9433398842811584e-01" purity="6.3366430997848511e-01" nType="0">
            <Node pos="l" depth="3" NCoef="0" IVar="-1" Cut="0.0000000000000000e+00" cType="1" res="1.8386010080575943e-02" rms="3.8095831871032715e-01" purity="6.5272760391235352e-01" nType="-99"/>
            <Node pos="r" depth="3" NCoef="0" IVar="-1" Cut="0.0000000000000000e+00" cType="1" res="1.6003801720216870e-03" rms="4.0702611207962036e-01" purity="6.1430382728576660e-01" nType="-99"/>
          </Node>
        </Node>
        <Node pos="r" depth="1" NCoef="0" IVar="8" Cut="1.4285469055175781e+00" cType="1" res="1.2697624973952770e-02" rms="3.8048818707466125e-01" purity="3.7422725558280945e-01" nType="0">
          <Node pos="l" depth="2" NCoef="0" IVar="-1" Cut="0.0000000000000000e+00" cType="1" res="2.1394014358520508e-02" rms="3.9942851662635803e-01" purity="4.9166136980056763e-01" nType="-99"/>
          <Node pos="r" depth="2" NCoef="0" IVar="8" Cut="1.6897714138031006e+00" cType="1" res="4.0667713619768620e-03" rms="3.7231519818305969e-01" purity="3.2739168405532837e-01" nType="0">
            <Node pos="l" depth="3" NCoef="0" IVar="-1" Cut="0.0000000000000000e+00" cType="1" res="-1.6482958570122719e-02" rms="3.7540012598037720e-01" purity="3.6727076768875122e-01" nType="-99"/>
            <Node pos="r" depth="3" NCoef="0" IVar="-1" Cut="0.0000000000000000e+00" cType="1" res="1.2451390735805035e-02" rms="3.7020143866539001e-01" purity="3.0983218550682068e-01" nType="-99"/>
          </Node>
        </Node>
      </Node>
    </BinaryTree>
    <BinaryTree type="DecisionTree" boostWeight="1.0000000000000000e+00" itree="475">
      <Node pos="s" depth="0" NCoef="0" IVar="7" Cut="1.7333188056945801e+00" cType="1" res="1.9583166576921940e-03" rms="3.8449323177337646e-01" purity="4.9977812170982361e-01" nType="0">
        <Node pos="l" depth="1" NCoef="0" IVar="8" Cut="-9.3333607912063599e-01" cType="1" res="3.2842375803738832e-03" rms="3.8744899630546570e-01" purity="5.1808756589889526e-01" nType="0">
          <Node pos="l" depth="2" NCoef="0" IVar="8" Cut="-1.1111240386962891e+00" cType="1" res="1.4792427420616150e-02" rms="3.8573059439659119e-01" purity="4.2602738738059998e-01" nType="0">
            <Node pos="l" depth="3" NCoef="0" IVar="-1" Cut="0.0000000000000000e+00" cType="1" res="3.7532995920628309e-03" rms="3.8065049052238464e-01" purity="3.9112734794616699e-01" nType="-99"/>
            <Node pos="r" depth="3" NCoef="0" IVar="-1" Cut="0.0000000000000000e+00" cType="1" res="3.1349290162324905e-02" rms="4.0285569429397583e-01" purity="5.6150156259536743e-01" nType="-99"/>
          </Node>
          <Node pos="r" depth="2" NCoef="0" IVar="9" Cut="1.7333517074584961e+00" cType="1" res="8.2797305367421359e-05" rms="3.8786497712135315e-01" purity="5.4369753599166870e-01" nType="0">
            <Node pos="l" depth="3" NCoef="0" IVar="-1" Cut="0.0000000000000000e+00" cType="1" res="1.0518427006900311e-03" rms="3.8894101977348328e-01" purity="5.5679666996002197e-01" nType="-99"/>
            <Node pos="r" depth="3" NCoef="0" IVar="-1" Cut="0.0000000000000000e+00" cType="1" res="-1.1268754489719868e-02" rms="3.7531256675720215e-01" purity="3.9841651916503906e-01" nType="-99"/>
          </Node>
        </Node>
        <Node pos="r" depth="1" NCoef="0" IVar="4" Cut="1.0378325653076172e+02" cType="1" res="-1.9951105117797852e-02" rms="3.3109486103057861e-01" purity="1.9723485410213470e-01" nType="0">
          <Node pos="l" depth="2" NCoef="0" IVar="-1" Cut="0.0000000000000000e+00" cType="1" res="-1.4215751551091671e-02" rms="2.7880242466926575e-01" purity="9.4960324466228485e-02" nType="-99"/>
          <Node pos="r" depth="2" NCoef="0" IVar="-1" Cut="0.0000000000000000e+00" cType="1" res="-1.8189674243330956e-02" rms="3.7295636534690857e-01" purity="2.9214408993721008e-01" nType="-99"/>
        </Node>
      </Node>
    </BinaryTree>
    <BinaryTree type="DecisionTree" boostWeight="1.0000000000000000e+00" itree="476">
      <Node pos="s" depth="0" NCoef="0" IVar="7" Cut="1.3334213197231293e-01" cType="1" res="1.5452263178303838e-03" rms="3.8362661004066467e-01" purity="5.0088441371917725e-01" nType="0">
        <Node pos="l" depth="1" NCoef="0" IVar="1" Cut="1.3803900146484375e+03" cType="1" res="-4.4917343184351921e-03" rms="3.8178855180740356e-01" purity="5.0734591484069824e-01" nType="0">
          <Node pos="l" depth="2" NCoef="0" IVar="2" Cut="3.8204327392578125e+02" cType="1" res="-1.1913806200027466e-02" rms="3.9485079050064087e-01" purity="3.5547891259193420e-01" nType="0">
            <Node pos="l" depth="3" NCoef="0" IVar="-1" Cut="0.0000000000000000e+00" cType="1" res="-3.5610636696219444e-03" rms="4.0315157175064087e-01" purity="3.8634842634201050e-01" nType="-99"/>
            <Node pos="r" depth="3" NCoef="0" IVar="-1" Cut="0.0000000000000000e+00" cType="1" res="-2.5174712762236595e-02" rms="3.5817170143127441e-01" purity="2.3020459711551666e-01" nType="-99"/>
          </Node>
          <Node pos="r" depth="2" NCoef="0" IVar="5" Cut="1.5979078674316406e+02" cType="1" res="7.2902995161712170e-03" rms="3.5976696014404297e-01" purity="7.4842458963394165e-01" nType="0">
            <Node pos="l" depth="3" NCoef="0" IVar="-1" Cut="0.0000000000000000e+00" cType="1" res="8.6214421316981316e-03" rms="3.7136378884315491e-01" purity="7.2420877218246460e-01" nType="-99"/>
            <Node pos="r" depth="3" NCoef="0" IVar="-1" Cut="0.0000000000000000e+00" cType="1" res="-1.7560645937919617e-02" rms="3.0017176270484924e-01" purity="8.5894429683685303e-01" nType="-99"/>
          </Node>
        </Node>
        <Node pos="r" depth="1" NCoef="0" IVar="6" Cut="-3.7999176979064941e-01" cType="1" res="8.9171398431062698e-03" rms="3.8573113083839417e-01" purity="4.9299409985542297e-01" nType="0">
          <Node pos="l" depth="2" NCoef="0" IVar="2" Cut="3.2172921752929688e+02" cType="1" res="2.0760390907526016e-02" rms="3.8298845291137695e-01" purity="4.5485997200012207e-01" nType="0">
            <Node pos="l" depth="3" NCoef="0" IVar="-1" Cut="0.0000000000000000e+00" cType="1" res="2.3620104417204857e-02" rms="3.8432553410530090e-01" purity="4.4598442316055298e-01" nType="-99"/>
            <Node pos="r" depth="3" NCoef="0" IVar="-1" Cut="0.0000000000000000e+00" cType="1" res="6.4282296225428581e-03" rms="3.8152021169662476e-01" purity="4.6188709139823914e-01" nType="-99"/>
          </Node>
          <Node pos="r" depth="2" NCoef="0" IVar="9" Cut="1.2000019550323486e+00" cType="1" res="3.3827109728008509e-03" rms="3.8688185811042786e-01" purity="5.1081436872482300e-01" nType="0">
            <Node pos="l" depth="3" NCoef="0" IVar="-1" Cut="0.0000000000000000e+00" cType="1" res="4.9910033121705055e-03" rms="3.8808417320251465e-01" purity="5.4024875164031982e-01" nType="-99"/>
            <Node pos="r" depth="3" NCoef="0" IVar="-1" Cut="0.0000000000000000e+00" cType="1" res="-8.1760659813880920e-03" rms="3.8196849822998047e-01" purity="4.0122485160827637e-01" nType="-99"/>
          </Node>
        </Node>
      </Node>
    </BinaryTree>
    <BinaryTree type="DecisionTree" boostWeight="1.0000000000000000e+00" itree="477">
      <Node pos="s" depth="0" NCoef="0" IVar="7" Cut="1.2000164985656738e+00" cType="1" res="1.7787680262699723e-03" rms="3.8331621885299683e-01" purity="4.9952509999275208e-01" nType="0">
        <Node pos="l" depth="1" NCoef="0" IVar="7" Cut="5.7191319763660431e-02" cType="1" res="-6.6113064531236887e-04" rms="3.8524627685546875e-01" purity="5.2630490064620972e-01" nType="0">
          <Node pos="l" depth="2" NCoef="0" IVar="5" Cut="1.0489547729492188e+02" cType="1" res="3.0212316196411848e-03" rms="3.8418319821357727e-01" purity="5.0487440824508667e-01" nType="0">
            <Node pos="l" depth="3" NCoef="0" IVar="-1" Cut="0.0000000000000000e+00" cType="1" res="4.0825475007295609e-03" rms="3.9595335721969604e-01" purity="4.0136373043060303e-01" nType="-99"/>
            <Node pos="r" depth="3" NCoef="0" IVar="-1" Cut="0.0000000000000000e+00" cType="1" res="-4.0228026919066906e-03" rms="3.5427758097648621e-01" purity="7.5273281335830688e-01" nType="-99"/>
          </Node>
          <Node pos="r" depth="2" NCoef="0" IVar="4" Cut="9.7293495178222656e+01" cType="1" res="-6.3585229218006134e-03" rms="3.8681629300117493e-01" purity="5.5946236848831177e-01" nType="0">
            <Node pos="l" depth="3" NCoef="0" IVar="-1" Cut="0.0000000000000000e+00" cType="1" res="-1.4179755933582783e-02" rms="3.7600409984588623e-01" purity="2.5339609384536743e-01" nType="-99"/>
            <Node pos="r" depth="3" NCoef="0" IVar="-1" Cut="0.0000000000000000e+00" cType="1" res="-6.3317676540464163e-04" rms="3.9035987854003906e-01" purity="6.6583371162414551e-01" nType="-99"/>
          </Node>
        </Node>
        <Node pos="r" depth="1" NCoef="0" IVar="3" Cut="2.5017948913574219e+02" cType="1" res="1.6921361908316612e-02" rms="3.7075448036193848e-01" purity="3.3332324028015137e-01" nType="0">
          <Node pos="l" depth="2" NCoef="0" IVar="4" Cut="1.2585973358154297e+02" cType="1" res="8.4854438900947571e-03" rms="3.6035043001174927e-01" purity="2.8422576189041138e-01" nType="0">
            <Node pos="l" depth="3" NCoef="0" IVar="-1" Cut="0.0000000000000000e+00" cType="1" res="-2.1249775309115648e-03" rms="3.3055967092514038e-01" purity="1.8787115812301636e-01" nType="-99"/>
            <Node pos="r" depth="3" NCoef="0" IVar="-1" Cut="0.0000000000000000e+00" cType="1" res="1.8285267055034637e-02" rms="4.1224768757820129e-01" purity="4.7525185346603394e-01" nType="-99"/>
          </Node>
          <Node pos="r" depth="2" NCoef="0" IVar="-1" Cut="0.0000000000000000e+00" cType="1" res="2.9740687459707260e-02" rms="4.0425044298171997e-01" purity="5.0836062431335449e-01" nType="-99"/>
        </Node>
      </Node>
    </BinaryTree>
    <BinaryTree type="DecisionTree" boostWeight="1.0000000000000000e+00" itree="478">
      <Node pos="s" depth="0" NCoef="0" IVar="6" Cut="-1.1680902242660522e+00" cType="1" res="1.6086244722828269e-03" rms="3.8389039039611816e-01" purity="5.0223952531814575e-01" nType="0">
        <Node pos="l" depth="1" NCoef="0" IVar="1" Cut="1.1944577636718750e+03" cType="1" res="1.8209626898169518e-02" rms="3.5468739271163940e-01" purity="2.9779171943664551e-01" nType="0">
          <Node pos="l" depth="2" NCoef="0" IVar="-1" Cut="0.0000000000000000e+00" cType="1" res="2.3245199117809534e-03" rms="3.0846920609474182e-01" purity="1.3703581690788269e-01" nType="-99"/>
          <Node pos="r" depth="2" NCoef="0" IVar="4" Cut="1.5643197631835938e+02" cType="1" res="3.6622259765863419e-02" rms="4.0070790052413940e-01" purity="4.8344197869300842e-01" nType="0">
            <Node pos="l" depth="3" NCoef="0" IVar="-1" Cut="0.0000000000000000e+00" cType="1" res="3.7489250302314758e-02" rms="4.0267214179039001e-01" purity="3.9745408296585083e-01" nType="-99"/>
            <Node pos="r" depth="3" NCoef="0" IVar="-1" Cut="0.0000000000000000e+00" cType="1" res="8.3204787224531174e-03" rms="3.9720928668975830e-01" purity="5.8246952295303345e-01" nType="-99"/>
          </Node>
        </Node>
        <Node pos="r" depth="1" NCoef="0" IVar="5" Cut="8.5091812133789062e+01" cType="1" res="-6.0049857711419463e-04" rms="3.8755702972412109e-01" purity="5.2944570779800415e-01" nType="0">
          <Node pos="l" depth="2" NCoef="0" IVar="5" Cut="7.0052368164062500e+01" cType="1" res="-5.7252072729170322e-03" rms="3.9546269178390503e-01" purity="3.6202946305274963e-01" nType="0">
            <Node pos="l" depth="3" NCoef="0" IVar="-1" Cut="0.0000000000000000e+00" cType="1" res="-6.5947002731263638e-03" rms="3.8629224896430969e-01" purity="3.0560457706451416e-01" nType="-99"/>
            <Node pos="r" depth="3" NCoef="0" IVar="-1" Cut="0.0000000000000000e+00" cType="1" res="1.6398937441408634e-03" rms="4.1275081038475037e-01" purity="4.7288444638252258e-01" nType="-99"/>
          </Node>
          <Node pos="r" depth="2" NCoef="0" IVar="9" Cut="1.4661622047424316e+00" cType="1" res="5.1294560544192791e-03" rms="3.7844008207321167e-01" purity="7.1663439273834229e-01" nType="0">
            <Node pos="l" depth="3" NCoef="0" IVar="-1" Cut="0.0000000000000000e+00" cType="1" res="5.4810112342238426e-03" rms="3.7603437900543213e-01" purity="7.3109126091003418e-01" nType="-99"/>
            <Node pos="r" depth="3" NCoef="0" IVar="-1" Cut="0.0000000000000000e+00" cType="1" res="-1.2156700715422630e-02" rms="3.9892607927322388e-01" purity="5.8445811271667480e-01" nType="-99"/>
          </Node>
        </Node>
      </Node>
    </BinaryTree>
    <BinaryTree type="DecisionTree" boostWeight="1.0000000000000000e+00" itree="479">
      <Node pos="s" depth="0" NCoef="0" IVar="9" Cut="-1.7333047389984131e+00" cType="1" res="-2.6084769051522017e-03" rms="3.8232487440109253e-01" purity="4.9763783812522888e-01" nType="0">
        <Node pos="l" depth="1" NCoef="0" IVar="7" Cut="1.3338753581047058e-01" cType="1" res="-1.8088564276695251e-02" rms="3.7179931998252869e-01" purity="3.4559500217437744e-01" nType="0">
          <Node pos="l" depth="2" NCoef="0" IVar="8" Cut="-4.0018057823181152e-01" cType="1" res="-5.9668496251106262e-03" rms="3.7833541631698608e-01" purity="3.6160445213317871e-01" nType="0">
            <Node pos="l" depth="3" NCoef="0" IVar="-1" Cut="0.0000000000000000e+00" cType="1" res="-6.2792161479592323e-03" rms="3.5601103305816650e-01" purity="3.2728233933448792e-01" nType="-99"/>
            <Node pos="r" depth="3" NCoef="0" IVar="-1" Cut="0.0000000000000000e+00" cType="1" res="-2.2243098355829716e-03" rms="3.9853397011756897e-01" purity="3.9448383450508118e-01" nType="-99"/>
          </Node>
          <Node pos="r" depth="2" NCoef="0" IVar="-1" Cut="0.0000000000000000e+00" cType="1" res="-2.6968494057655334e-02" rms="3.5998204350471497e-01" purity="3.1942451000213623e-01" nType="-99"/>
        </Node>
        <Node pos="r" depth="1" NCoef="0" IVar="7" Cut="9.3332767486572266e-01" cType="1" res="-1.2034677201882005e-03" rms="3.8323494791984558e-01" purity="5.1143759489059448e-01" nType="0">
          <Node pos="l" depth="2" NCoef="0" IVar="7" Cut="-8.4444260597229004e-01" cType="1" res="-3.4483314957469702e-03" rms="3.8412979245185852e-01" purity="5.4563629627227783e-01" nType="0">
            <Node pos="l" depth="3" NCoef="0" IVar="-1" Cut="0.0000000000000000e+00" cType="1" res="3.6068500485271215e-03" rms="3.8012793660163879e-01" purity="4.0018126368522644e-01" nType="-99"/>
            <Node pos="r" depth="3" NCoef="0" IVar="-1" Cut="0.0000000000000000e+00" cType="1" res="-4.2618890292942524e-03" rms="3.8545969128608704e-01" purity="5.9602493047714233e-01" nType="-99"/>
          </Node>
          <Node pos="r" depth="2" NCoef="0" IVar="6" Cut="1.2047430276870728e+00" cType="1" res="7.8752636909484863e-03" rms="3.7945896387100220e-01" purity="3.7313041090965271e-01" nType="0">
            <Node pos="l" depth="3" NCoef="0" IVar="-1" Cut="0.0000000000000000e+00" cType="1" res="8.1385271623730659e-03" rms="3.9202505350112915e-01" purity="4.1194501519203186e-01" nType="-99"/>
            <Node pos="r" depth="3" NCoef="0" IVar="-1" Cut="0.0000000000000000e+00" cType="1" res="-2.2359319031238556e-02" rms="2.8966155648231506e-01" purity="1.3625456392765045e-01" nType="-99"/>
          </Node>
        </Node>
      </Node>
    </BinaryTree>
    <BinaryTree type="DecisionTree" boostWeight="1.0000000000000000e+00" itree="480">
      <Node pos="s" depth="0" NCoef="0" IVar="9" Cut="1.9999753236770630e+00" cType="1" res="-1.0577841894701123e-03" rms="3.8352295756340027e-01" purity="4.9820148944854736e-01" nType="0">
        <Node pos="l" depth="1" NCoef="0" IVar="8" Cut="-3.9995676279067993e-01" cType="1" res="-2.7224239893257618e-03" rms="3.8296881318092346e-01" purity="5.0604462623596191e-01" nType="0">
          <Node pos="l" depth="2" NCoef="0" IVar="9" Cut="-1.8856905698776245e+00" cType="1" res="5.6268037296831608e-03" rms="3.8630732893943787e-01" purity="4.7898426651954651e-01" nType="0">
            <Node pos="l" depth="3" NCoef="0" IVar="-1" Cut="0.0000000000000000e+00" cType="1" res="-1.5254771336913109e-02" rms="3.4768086671829224e-01" purity="2.8111749887466431e-01" nType="-99"/>
            <Node pos="r" depth="3" NCoef="0" IVar="-1" Cut="0.0000000000000000e+00" cType="1" res="5.2820122800767422e-03" rms="3.8958629965782166e-01" purity="4.9720993638038635e-01" nType="-99"/>
          </Node>
          <Node pos="r" depth="2" NCoef="0" IVar="7" Cut="1.4666512012481689e+00" cType="1" res="-7.7044051140546799e-03" rms="3.8087561726570129e-01" purity="5.2219146490097046e-01" nType="0">
            <Node pos="l" depth="3" NCoef="0" IVar="-1" Cut="0.0000000000000000e+00" cType="1" res="-3.4033800475299358e-03" rms="3.8411939144134521e-01" purity="5.4959619045257568e-01" nType="-99"/>
            <Node pos="r" depth="3" NCoef="0" IVar="-1" Cut="0.0000000000000000e+00" cType="1" res="-2.5652261450886726e-02" rms="3.4481483697891235e-01" purity="2.4161711335182190e-01" nType="-99"/>
          </Node>
        </Node>
        <Node pos="r" depth="1" NCoef="0" IVar="8" Cut="1.3353964686393738e-01" cType="1" res="2.6699982583522797e-02" rms="3.9160674810409546e-01" purity="3.6741870641708374e-01" nType="0">
          <Node pos="l" depth="2" NCoef="0" IVar="-1" Cut="0.0000000000000000e+00" cType="1" res="5.9546609409153461e-03" rms="3.8743570446968079e-01" purity="3.9594495296478271e-01" nType="-99"/>
          <Node pos="r" depth="2" NCoef="0" IVar="-1" Cut="0.0000000000000000e+00" cType="1" res="3.1565472483634949e-02" rms="3.9485308527946472e-01" purity="3.3979028463363647e-01" nType="-99"/>
        </Node>
      </Node>
    </BinaryTree>
    <BinaryTree type="DecisionTree" boostWeight="1.0000000000000000e+00" itree="481">
      <Node pos="s" depth="0" NCoef="0" IVar="7" Cut="1.3340938091278076e-01" cType="1" res="2.6152678765356541e-03" rms="3.8472369313240051e-01" purity="5.0246310234069824e-01" nType="0">
        <Node pos="l" depth="1" NCoef="0" IVar="5" Cut="1.0489533233642578e+02" cType="1" res="-1.5793640632182360e-03" rms="3.8442960381507874e-01" purity="5.0827485322952271e-01" nType="0">
          <Node pos="l" depth="2" NCoef="0" IVar="9" Cut="1.4666489362716675e+00" cType="1" res="-5.4958956316113472e-03" rms="3.9600682258605957e-01" purity="3.9324277639389038e-01" nType="0">
            <Node pos="l" depth="3" NCoef="0" IVar="-1" Cut="0.0000000000000000e+00" cType="1" res="-1.6924699302762747e-03" rms="4.0006828308105469e-01" purity="4.0216469764709473e-01" nType="-99"/>
            <Node pos="r" depth="3" NCoef="0" IVar="-1" Cut="0.0000000000000000e+00" cType="1" res="-1.7035759985446930e-02" rms="3.6455303430557251e-01" purity="3.2848623394966125e-01" nType="-99"/>
          </Node>
          <Node pos="r" depth="2" NCoef="0" IVar="8" Cut="6.6625797748565674e-01" cType="1" res="7.1561518125236034e-03" rms="3.5710379481315613e-01" purity="7.6484483480453491e-01" nType="0">
            <Node pos="l" depth="3" NCoef="0" IVar="-1" Cut="0.0000000000000000e+00" cType="1" res="2.2320307325571775e-03" rms="3.5018998384475708e-01" purity="7.7831172943115234e-01" nType="-99"/>
            <Node pos="r" depth="3" NCoef="0" IVar="-1" Cut="0.0000000000000000e+00" cType="1" res="1.5163003467023373e-02" rms="3.7968289852142334e-01" purity="7.1822500228881836e-01" nType="-99"/>
          </Node>
        </Node>
        <Node pos="r" depth="1" NCoef="0" IVar="8" Cut="-1.7333320379257202e+00" cType="1" res="7.6588969677686691e-03" rms="3.8501650094985962e-01" purity="4.9547514319419861e-01" nType="0">
          <Node pos="l" depth="2" NCoef="0" IVar="-1" Cut="0.0000000000000000e+00" cType="1" res="3.5674162209033966e-02" rms="3.8191559910774231e-01" purity="3.1253799796104431e-01" nType="-99"/>
          <Node pos="r" depth="2" NCoef="0" IVar="9" Cut="-3.9994552731513977e-01" cType="1" res="4.9860654398798943e-03" rms="3.8506734371185303e-01" purity="5.0743919610977173e-01" nType="0">
            <Node pos="l" depth="3" NCoef="0" IVar="-1" Cut="0.0000000000000000e+00" cType="1" res="1.2046232819557190e-02" rms="3.9456927776336670e-01" purity="5.1186132431030273e-01" nType="-99"/>
            <Node pos="r" depth="3" NCoef="0" IVar="-1" Cut="0.0000000000000000e+00" cType="1" res="-1.2377682141959667e-03" rms="3.7999460101127625e-01" purity="5.0520479679107666e-01" nType="-99"/>
          </Node>
        </Node>
      </Node>
    </BinaryTree>
    <BinaryTree type="DecisionTree" boostWeight="1.0000000000000000e+00" itree="482">
      <Node pos="s" depth="0" NCoef="0" IVar="2" Cut="4.5383914184570312e+02" cType="1" res="9.6047425176948309e-04" rms="3.8313618302345276e-01" purity="5.0294971466064453e-01" nType="0">
        <Node pos="l" depth="1" NCoef="0" IVar="2" Cut="4.1757608032226562e+02" cType="1" res="4.1890656575560570e-03" rms="3.8322365283966064e-01" purity="4.8997765779495239e-01" nType="0">
          <Node pos="l" depth="2" NCoef="0" IVar="4" Cut="1.3491294860839844e+02" cType="1" res="1.4542994322255254e-03" rms="3.8316184282302856e-01" purity="4.8219168186187744e-01" nType="0">
            <Node pos="l" depth="3" NCoef="0" IVar="-1" Cut="0.0000000000000000e+00" cType="1" res="3.9567970670759678e-03" rms="3.9095172286033630e-01" purity="3.3641079068183899e-01" nType="-99"/>
            <Node pos="r" depth="3" NCoef="0" IVar="-1" Cut="0.0000000000000000e+00" cType="1" res="-3.7586945109069347e-03" rms="3.7138634920120239e-01" purity="6.9510781764984131e-01" nType="-99"/>
          </Node>
          <Node pos="r" depth="2" NCoef="0" IVar="1" Cut="1.4686187744140625e+03" cType="1" res="2.9556132853031158e-02" rms="3.8286679983139038e-01" purity="5.6219893693923950e-01" nType="0">
            <Node pos="l" depth="3" NCoef="0" IVar="-1" Cut="0.0000000000000000e+00" cType="1" res="3.0814427882432938e-02" rms="3.9738038182258606e-01" purity="4.0762439370155334e-01" nType="-99"/>
            <Node pos="r" depth="3" NCoef="0" IVar="-1" Cut="0.0000000000000000e+00" cType="1" res="-1.2528293882496655e-04" rms="3.5691189765930176e-01" purity="8.0456250905990601e-01" nType="-99"/>
          </Node>
        </Node>
        <Node pos="r" depth="1" NCoef="0" IVar="9" Cut="-1.4665751457214355e+00" cType="1" res="-9.5853162929415703e-03" rms="3.8266053795814514e-01" purity="5.4532122611999512e-01" nType="0">
          <Node pos="l" depth="2" NCoef="0" IVar="-1" Cut="0.0000000000000000e+00" cType="1" res="-3.6085005849599838e-02" rms="3.6719807982444763e-01" purity="4.0537944436073303e-01" nType="-99"/>
          <Node pos="r" depth="2" NCoef="0" IVar="6" Cut="4.4809481501579285e-01" cType="1" res="-3.8765608333051205e-03" rms="3.8409742712974548e-01" purity="5.6226146221160889e-01" nType="0">
            <Node pos="l" depth="3" NCoef="0" IVar="-1" Cut="0.0000000000000000e+00" cType="1" res="-8.4898239001631737e-03" rms="3.7968075275421143e-01" purity="5.9063518047332764e-01" nType="-99"/>
            <Node pos="r" depth="3" NCoef="0" IVar="-1" Cut="0.0000000000000000e+00" cType="1" res="1.1317124590277672e-02" rms="3.9339131116867065e-01" purity="4.9637719988822937e-01" nType="-99"/>
          </Node>
        </Node>
      </Node>
    </BinaryTree>
    <BinaryTree type="DecisionTree" boostWeight="1.0000000000000000e+00" itree="483">
      <Node pos="s" depth="0" NCoef="0" IVar="6" Cut="6.8026745319366455e-01" cType="1" res="-1.6663876594975591e-03" rms="3.8490167260169983e-01" purity="4.9915665388107300e-01" nType="0">
        <Node pos="l" depth="1" NCoef="0" IVar="9" Cut="-1.9999852180480957e+00" cType="1" res="-4.8985765315592289e-03" rms="3.8885170221328735e-01" purity="5.3311413526535034e-01" nType="0">
          <Node pos="l" depth="2" NCoef="0" IVar="-1" Cut="0.0000000000000000e+00" cType="1" res="1.4561695046722889e-02" rms="3.9115911722183228e-01" purity="3.9943695068359375e-01" nType="-99"/>
          <Node pos="r" depth="2" NCoef="0" IVar="9" Cut="-1.0856884717941284e+00" cType="1" res="-6.5465187653899193e-03" rms="3.8864940404891968e-01" purity="5.4130059480667114e-01" nType="0">
            <Node pos="l" depth="3" NCoef="0" IVar="-1" Cut="0.0000000000000000e+00" cType="1" res="-1.4702470973134041e-02" rms="3.9146658778190613e-01" purity="4.5641335844993591e-01" nType="-99"/>
            <Node pos="r" depth="3" NCoef="0" IVar="-1" Cut="0.0000000000000000e+00" cType="1" res="-2.3646648041903973e-03" rms="3.8806080818176270e-01" purity="5.5680316686630249e-01" nType="-99"/>
          </Node>
        </Node>
        <Node pos="r" depth="1" NCoef="0" IVar="7" Cut="1.3327094912528992e-01" cType="1" res="8.5944598540663719e-03" rms="3.7189811468124390e-01" purity="3.9135593175888062e-01" nType="0">
          <Node pos="l" depth="2" NCoef="0" IVar="6" Cut="8.8215214014053345e-01" cType="1" res="-2.7029612101614475e-03" rms="3.6910009384155273e-01" purity="3.8975134491920471e-01" nType="0">
            <Node pos="l" depth="3" NCoef="0" IVar="-1" Cut="0.0000000000000000e+00" cType="1" res="1.2373104691505432e-02" rms="4.0517857670783997e-01" purity="5.3809201717376709e-01" nType="-99"/>
            <Node pos="r" depth="3" NCoef="0" IVar="-1" Cut="0.0000000000000000e+00" cType="1" res="-7.3316870257258415e-03" rms="3.5690492391586304e-01" purity="3.4390640258789062e-01" nType="-99"/>
          </Node>
          <Node pos="r" depth="2" NCoef="0" IVar="7" Cut="5.1422160863876343e-01" cType="1" res="1.9722850993275642e-02" rms="3.7430059909820557e-01" purity="3.9293649792671204e-01" nType="0">
            <Node pos="l" depth="3" NCoef="0" IVar="-1" Cut="0.0000000000000000e+00" cType="1" res="2.7607679367065430e-02" rms="4.0378183126449585e-01" purity="5.1794171333312988e-01" nType="-99"/>
            <Node pos="r" depth="3" NCoef="0" IVar="-1" Cut="0.0000000000000000e+00" cType="1" res="8.5854474455118179e-03" rms="3.6235401034355164e-01" purity="3.4639999270439148e-01" nType="-99"/>
          </Node>
        </Node>
      </Node>
    </BinaryTree>
    <BinaryTree type="DecisionTree" boostWeight="1.0000000000000000e+00" itree="484">
      <Node pos="s" depth="0" NCoef="0" IVar="2" Cut="6.5103533935546875e+02" cType="1" res="2.2240458056330681e-03" rms="3.8304519653320312e-01" purity="5.0334489345550537e-01" nType="0">
        <Node pos="l" depth="1" NCoef="0" IVar="7" Cut="-1.9999485015869141e+00" cType="1" res="5.7862966787070036e-04" rms="3.8257730007171631e-01" purity="4.9495410919189453e-01" nType="0">
          <Node pos="l" depth="2" NCoef="0" IVar="-1" Cut="0.0000000000000000e+00" cType="1" res="3.3625520765781403e-02" rms="3.5335469245910645e-01" purity="2.1052673459053040e-01" nType="-99"/>
          <Node pos="r" depth="2" NCoef="0" IVar="9" Cut="1.2000042200088501e+00" cType="1" res="-7.3811010224744678e-04" rms="3.8358247280120850e-01" purity="5.0576555728912354e-01" nType="0">
            <Node pos="l" depth="3" NCoef="0" IVar="-1" Cut="0.0000000000000000e+00" cType="1" res="8.7103532860055566e-04" rms="3.8448321819305420e-01" purity="5.2557313442230225e-01" nType="-99"/>
            <Node pos="r" depth="3" NCoef="0" IVar="-1" Cut="0.0000000000000000e+00" cType="1" res="-7.0046540349721909e-03" rms="3.7912899255752563e-01" purity="4.1179290413856506e-01" nType="-99"/>
          </Node>
        </Node>
        <Node pos="r" depth="1" NCoef="0" IVar="3" Cut="3.3710687255859375e+02" cType="1" res="2.7243083342909813e-02" rms="3.8923448324203491e-01" purity="6.3092875480651855e-01" nType="0">
          <Node pos="l" depth="2" NCoef="0" IVar="-1" Cut="0.0000000000000000e+00" cType="1" res="1.1289680376648903e-02" rms="3.8154175877571106e-01" purity="6.0075962543487549e-01" nType="-99"/>
          <Node pos="r" depth="2" NCoef="0" IVar="-1" Cut="0.0000000000000000e+00" cType="1" res="2.3243527859449387e-02" rms="3.9966204762458801e-01" purity="6.7405009269714355e-01" nType="-99"/>
        </Node>
      </Node>
    </BinaryTree>
    <BinaryTree type="DecisionTree" boostWeight="1.0000000000000000e+00" itree="485">
      <Node pos="s" depth="0" NCoef="0" IVar="6" Cut="1.4707406759262085e+00" cType="1" res="9.8366313613951206e-04" rms="3.8397911190986633e-01" purity="5.0064301490783691e-01" nType="0">
        <Node pos="l" depth="1" NCoef="0" IVar="2" Cut="6.0189093017578125e+02" cType="1" res="2.7333258185535669e-03" rms="3.8914400339126587e-01" purity="5.2349650859832764e-01" nType="0">
          <Node pos="l" depth="2" NCoef="0" IVar="4" Cut="2.6342169189453125e+02" cType="1" res="4.2210808023810387e-03" rms="3.8884699344635010e-01" purity="5.1765596866607666e-01" nType="0">
            <Node pos="l" depth="3" NCoef="0" IVar="-1" Cut="0.0000000000000000e+00" cType="1" res="3.4354641102254391e-03" rms="3.9101743698120117e-01" purity="5.0611746311187744e-01" nType="-99"/>
            <Node pos="r" depth="3" NCoef="0" IVar="-1" Cut="0.0000000000000000e+00" cType="1" res="-2.1515607833862305e-02" rms="3.2767170667648315e-01" purity="8.1129634380340576e-01" nType="-99"/>
          </Node>
          <Node pos="r" depth="2" NCoef="0" IVar="3" Cut="2.3477471923828125e+02" cType="1" res="-1.3738025911152363e-02" rms="3.9204049110412598e-01" purity="5.8815920352935791e-01" nType="0">
            <Node pos="l" depth="3" NCoef="0" IVar="-1" Cut="0.0000000000000000e+00" cType="1" res="9.0330094099044800e-03" rms="4.0771728754043579e-01" purity="5.3969460725784302e-01" nType="-99"/>
            <Node pos="r" depth="3" NCoef="0" IVar="-1" Cut="0.0000000000000000e+00" cType="1" res="-1.9157363101840019e-02" rms="3.8218256831169128e-01" purity="6.1481034755706787e-01" nType="-99"/>
          </Node>
        </Node>
        <Node pos="r" depth="1" NCoef="0" IVar="8" Cut="1.3399307429790497e-01" cType="1" res="-2.3931732401251793e-02" rms="2.9985550045967102e-01" purity="1.7520637810230255e-01" nType="0">
          <Node pos="l" depth="2" NCoef="0" IVar="-1" Cut="0.0000000000000000e+00" cType="1" res="-3.6205917596817017e-02" rms="2.9427447915077209e-01" purity="1.5367355942726135e-01" nType="-99"/>
          <Node pos="r" depth="2" NCoef="0" IVar="-1" Cut="0.0000000000000000e+00" cType="1" res="-1.1016746051609516e-02" rms="3.0378729104995728e-01" purity="1.9282791018486023e-01" nType="-99"/>
        </Node>
      </Node>
    </BinaryTree>
    <BinaryTree type="DecisionTree" boostWeight="1.0000000000000000e+00" itree="486">
      <Node pos="s" depth="0" NCoef="0" IVar="3" Cut="4.1073315429687500e+02" cType="1" res="-1.5312074683606625e-03" rms="3.8324499130249023e-01" purity="4.9902892112731934e-01" nType="0">
        <Node pos="l" depth="1" NCoef="0" IVar="4" Cut="8.4311286926269531e+01" cType="1" res="-3.0000738333910704e-03" rms="3.8351786136627197e-01" purity="4.9023741483688354e-01" nType="0">
          <Node pos="l" depth="2" NCoef="0" IVar="7" Cut="-1.3329009711742401e-01" cType="1" res="-1.2386069633066654e-02" rms="3.3837801218032837e-01" purity="1.8110370635986328e-01" nType="0">
            <Node pos="l" depth="3" NCoef="0" IVar="-1" Cut="0.0000000000000000e+00" cType="1" res="8.2306883996352553e-04" rms="3.4861436486244202e-01" purity="1.9950835406780243e-01" nType="-99"/>
            <Node pos="r" depth="3" NCoef="0" IVar="-1" Cut="0.0000000000000000e+00" cType="1" res="-2.0021764561533928e-02" rms="3.2860073447227478e-01" purity="1.6482265293598175e-01" nType="-99"/>
          </Node>
          <Node pos="r" depth="2" NCoef="0" IVar="6" Cut="4.1503971815109253e-01" cType="1" res="-7.6999864540994167e-04" rms="3.9344936609268188e-01" purity="5.6368631124496460e-01" nType="0">
            <Node pos="l" depth="3" NCoef="0" IVar="-1" Cut="0.0000000000000000e+00" cType="1" res="1.6849272651597857e-03" rms="3.9675086736679077e-01" purity="5.9358656406402588e-01" nType="-99"/>
            <Node pos="r" depth="3" NCoef="0" IVar="-1" Cut="0.0000000000000000e+00" cType="1" res="-5.0409683026373386e-03" rms="3.8647210597991943e-01" purity="5.0215739011764526e-01" nType="-99"/>
          </Node>
        </Node>
        <Node pos="r" depth="1" NCoef="0" IVar="-1" Cut="0.0000000000000000e+00" cType="1" res="1.9904330372810364e-02" rms="3.7557727098464966e-01" purity="6.9598203897476196e-01" nType="-99"/>
      </Node>
    </BinaryTree>
    <BinaryTree type="DecisionTree" boostWeight="1.0000000000000000e+00" itree="487">
      <Node pos="s" depth="0" NCoef="0" IVar="9" Cut="-2.2666375637054443e+00" cType="1" res="-9.1156555572524667e-04" rms="3.8516843318939209e-01" purity="4.9579390883445740e-01" nType="0">
        <Node pos="l" depth="1" NCoef="0" IVar="-1" Cut="0.0000000000000000e+00" cType="1" res="2.5202972814440727e-02" rms="3.9536195993423462e-01" purity="3.5974732041358948e-01" nType="-99"/>
        <Node pos="r" depth="1" NCoef="0" IVar="8" Cut="1.7332980632781982e+00" cType="1" res="-2.1024262532591820e-03" rms="3.8476794958114624e-01" purity="5.0031185150146484e-01" nType="0">
          <Node pos="l" depth="2" NCoef="0" IVar="6" Cut="1.7401027679443359e+00" cType="1" res="-1.1929831234738231e-03" rms="3.8680630922317505e-01" purity="5.1761716604232788e-01" nType="0">
            <Node pos="l" depth="3" NCoef="0" IVar="-1" Cut="0.0000000000000000e+00" cType="1" res="-1.3054626761004329e-03" rms="3.8940656185150146e-01" purity="5.3132051229476929e-01" nType="-99"/>
            <Node pos="r" depth="3" NCoef="0" IVar="-1" Cut="0.0000000000000000e+00" cType="1" res="1.7627507448196411e-02" rms="3.1866982579231262e-01" purity="1.9385039806365967e-01" nType="-99"/>
          </Node>
          <Node pos="r" depth="2" NCoef="0" IVar="8" Cut="2.0380876064300537e+00" cType="1" res="-1.4277362264692783e-02" rms="3.5613548755645752e-01" purity="2.6864111423492432e-01" nType="0">
            <Node pos="l" depth="3" NCoef="0" IVar="-1" Cut="0.0000000000000000e+00" cType="1" res="-1.9787369295954704e-02" rms="3.7417295575141907e-01" purity="3.1154367327690125e-01" nType="-99"/>
            <Node pos="r" depth="3" NCoef="0" IVar="-1" Cut="0.0000000000000000e+00" cType="1" res="-3.1954734586179256e-03" rms="3.4273600578308105e-01" purity="2.3898735642433167e-01" nType="-99"/>
          </Node>
        </Node>
      </Node>
    </BinaryTree>
    <BinaryTree type="DecisionTree" boostWeight="1.0000000000000000e+00" itree="488">
      <Node pos="s" depth="0" NCoef="0" IVar="7" Cut="-3.9993220567703247e-01" cType="1" res="2.1836855448782444e-03" rms="3.8327261805534363e-01" purity="5.0379633903503418e-01" nType="0">
        <Node pos="l" depth="1" NCoef="0" IVar="5" Cut="7.5839897155761719e+01" cType="1" res="9.1467360034584999e-03" rms="3.8502791523933411e-01" purity="4.6314507722854614e-01" nType="0">
          <Node pos="l" depth="2" NCoef="0" IVar="9" Cut="1.1997803449630737e+00" cType="1" res="-2.9297464061528444e-03" rms="3.7278845906257629e-01" purity="2.7192056179046631e-01" nType="0">
            <Node pos="l" depth="3" NCoef="0" IVar="-1" Cut="0.0000000000000000e+00" cType="1" res="-6.1304476112127304e-03" rms="3.7196516990661621e-01" purity="2.7315095067024231e-01" nType="-99"/>
            <Node pos="r" depth="3" NCoef="0" IVar="-1" Cut="0.0000000000000000e+00" cType="1" res="2.0619602873921394e-02" rms="3.7545418739318848e-01" purity="2.6577877998352051e-01" nType="-99"/>
          </Node>
          <Node pos="r" depth="2" NCoef="0" IVar="8" Cut="-6.6663908958435059e-01" cType="1" res="1.9038461148738861e-02" rms="3.9449521899223328e-01" purity="6.1977517604827881e-01" nType="0">
            <Node pos="l" depth="3" NCoef="0" IVar="-1" Cut="0.0000000000000000e+00" cType="1" res="2.2446228191256523e-02" rms="4.0075656771659851e-01" purity="5.9764832258224487e-01" nType="-99"/>
            <Node pos="r" depth="3" NCoef="0" IVar="-1" Cut="0.0000000000000000e+00" cType="1" res="6.8568489514291286e-03" rms="3.9102831482887268e-01" purity="6.3097101449966431e-01" nType="-99"/>
          </Node>
        </Node>
        <Node pos="r" depth="1" NCoef="0" IVar="8" Cut="-1.1998709440231323e+00" cType="1" res="-1.6284328885376453e-03" rms="3.8225448131561279e-01" purity="5.2605205774307251e-01" nType="0">
          <Node pos="l" depth="2" NCoef="0" IVar="9" Cut="-6.6643655300140381e-01" cType="1" res="-2.0395729690790176e-02" rms="3.7060746550559998e-01" purity="3.7574329972267151e-01" nType="0">
            <Node pos="l" depth="3" NCoef="0" IVar="-1" Cut="0.0000000000000000e+00" cType="1" res="-2.3981488775461912e-03" rms="3.7339588999748230e-01" purity="3.5668283700942993e-01" nType="-99"/>
            <Node pos="r" depth="3" NCoef="0" IVar="-1" Cut="0.0000000000000000e+00" cType="1" res="-1.9884372130036354e-02" rms="3.6877861618995667e-01" purity="3.8599306344985962e-01" nType="-99"/>
          </Node>
          <Node pos="r" depth="2" NCoef="0" IVar="9" Cut="1.9999152421951294e+00" cType="1" res="1.2285896809771657e-03" rms="3.8391610980033875e-01" purity="5.4893422126770020e-01" nType="0">
            <Node pos="l" depth="3" NCoef="0" IVar="-1" Cut="0.0000000000000000e+00" cType="1" res="1.9887934904545546e-03" rms="3.8476228713989258e-01" purity="5.6175398826599121e-01" nType="-99"/>
            <Node pos="r" depth="3" NCoef="0" IVar="-1" Cut="0.0000000000000000e+00" cType="1" res="-1.9735334441065788e-02" rms="3.6801484227180481e-01" purity="3.3165186643600464e-01" nType="-99"/>
          </Node>
        </Node>
      </Node>
    </BinaryTree>
    <BinaryTree type="DecisionTree" boostWeight="1.0000000000000000e+00" itree="489">
      <Node pos="s" depth="0" NCoef="0" IVar="6" Cut="-1.7048718929290771e+00" cType="1" res="-1.0607013246044517e-03" rms="3.8313773274421692e-01" purity="4.9994394183158875e-01" nType="0">
        <Node pos="l" depth="1" NCoef="0" IVar="-1" Cut="0.0000000000000000e+00" cType="1" res="2.4908192455768585e-02" rms="3.3796885609626770e-01" purity="2.0438225567340851e-01" nType="-99"/>
        <Node pos="r" depth="1" NCoef="0" IVar="6" Cut="-4.1777274012565613e-01" cType="1" res="-2.2348854690790176e-03" rms="3.8495558500289917e-01" purity="5.1291179656982422e-01" nType="0">
          <Node pos="l" depth="2" NCoef="0" IVar="9" Cut="6.6632854938507080e-01" cType="1" res="-1.3723583891987801e-02" rms="3.8341063261032104e-01" purity="4.6419480443000793e-01" nType="0">
            <Node pos="l" depth="3" NCoef="0" IVar="-1" Cut="0.0000000000000000e+00" cType="1" res="-6.1189183034002781e-03" rms="3.8231092691421509e-01" purity="4.8152077198028564e-01" nType="-99"/>
            <Node pos="r" depth="3" NCoef="0" IVar="-1" Cut="0.0000000000000000e+00" cType="1" res="-1.7836533486843109e-02" rms="3.8636323809623718e-01" purity="4.1266673803329468e-01" nType="-99"/>
          </Node>
          <Node pos="r" depth="2" NCoef="0" IVar="8" Cut="1.9998651742935181e+00" cType="1" res="2.5146214757114649e-03" rms="3.8549244403839111e-01" purity="5.3305172920227051e-01" nType="0">
            <Node pos="l" depth="3" NCoef="0" IVar="-1" Cut="0.0000000000000000e+00" cType="1" res="8.2144106272608042e-04" rms="3.8625720143318176e-01" purity="5.4449564218521118e-01" nType="-99"/>
            <Node pos="r" depth="3" NCoef="0" IVar="-1" Cut="0.0000000000000000e+00" cType="1" res="2.3731848224997520e-02" rms="3.6749511957168579e-01" purity="2.8557991981506348e-01" nType="-99"/>
          </Node>
        </Node>
      </Node>
    </BinaryTree>
    <BinaryTree type="DecisionTree" boostWeight="1.0000000000000000e+00" itree="490">
      <Node pos="s" depth="0" NCoef="0" IVar="6" Cut="1.7364566326141357e+00" cType="1" res="3.9244117215275764e-03" rms="3.8547581434249878e-01" purity="5.0295472145080566e-01" nType="0">
        <Node pos="l" depth="1" NCoef="0" IVar="6" Cut="2.3006868362426758e-01" cType="1" res="2.9102365951985121e-03" rms="3.8770115375518799e-01" purity="5.1621460914611816e-01" nType="0">
          <Node pos="l" depth="2" NCoef="0" IVar="9" Cut="-1.9999725818634033e+00" cType="1" res="6.6229123622179031e-03" rms="3.8714745640754700e-01" purity="5.2760565280914307e-01" nType="0">
            <Node pos="l" depth="3" NCoef="0" IVar="-1" Cut="0.0000000000000000e+00" cType="1" res="2.4763165041804314e-02" rms="3.9254295825958252e-01" purity="3.9920464158058167e-01" nType="-99"/>
            <Node pos="r" depth="3" NCoef="0" IVar="-1" Cut="0.0000000000000000e+00" cType="1" res="3.0880095437169075e-03" rms="3.8671582937240601e-01" purity="5.3592610359191895e-01" nType="-99"/>
          </Node>
          <Node pos="r" depth="2" NCoef="0" IVar="9" Cut="1.7333415746688843e+00" cType="1" res="-3.2435019966214895e-03" rms="3.8853907585144043e-01" purity="4.9733394384384155e-01" nType="0">
            <Node pos="l" depth="3" NCoef="0" IVar="-1" Cut="0.0000000000000000e+00" cType="1" res="-5.7230994571000338e-04" rms="3.9010950922966003e-01" purity="5.1273691654205322e-01" nType="-99"/>
            <Node pos="r" depth="3" NCoef="0" IVar="-1" Cut="0.0000000000000000e+00" cType="1" res="-1.8021645024418831e-02" rms="3.7179350852966309e-01" purity="3.4458744525909424e-01" nType="-99"/>
          </Node>
        </Node>
        <Node pos="r" depth="1" NCoef="0" IVar="-1" Cut="0.0000000000000000e+00" cType="1" res="2.9479105025529861e-02" rms="3.2751283049583435e-01" purity="1.8909400701522827e-01" nType="-99"/>
      </Node>
    </BinaryTree>
    <BinaryTree type="DecisionTree" boostWeight="1.0000000000000000e+00" itree="491">
      <Node pos="s" depth="0" NCoef="0" IVar="8" Cut="-9.3329095840454102e-01" cType="1" res="-1.1903804261237383e-03" rms="3.8317471742630005e-01" purity="4.9955841898918152e-01" nType="0">
        <Node pos="l" depth="1" NCoef="0" IVar="6" Cut="-8.8637304306030273e-01" cType="1" res="-1.4769706875085831e-02" rms="3.7401202321052551e-01" purity="3.8277146220207214e-01" nType="0">
          <Node pos="l" depth="2" NCoef="0" IVar="-1" Cut="0.0000000000000000e+00" cType="1" res="9.3609271571040154e-03" rms="3.3256971836090088e-01" purity="2.5030359625816345e-01" nType="-99"/>
          <Node pos="r" depth="2" NCoef="0" IVar="5" Cut="7.9216033935546875e+01" cType="1" res="-2.2633535787463188e-02" rms="3.8556480407714844e-01" purity="4.2365503311157227e-01" nType="0">
            <Node pos="l" depth="3" NCoef="0" IVar="-1" Cut="0.0000000000000000e+00" cType="1" res="-7.3873759247362614e-03" rms="3.7240985035896301e-01" purity="2.8390017151832581e-01" nType="-99"/>
            <Node pos="r" depth="3" NCoef="0" IVar="-1" Cut="0.0000000000000000e+00" cType="1" res="-2.1991480141878128e-02" rms="3.9895841479301453e-01" purity="5.7515901327133179e-01" nType="-99"/>
          </Node>
        </Node>
        <Node pos="r" depth="1" NCoef="0" IVar="9" Cut="-1.9998399019241333e+00" cType="1" res="2.4207611568272114e-03" rms="3.8549417257308960e-01" purity="5.3061556816101074e-01" nType="0">
          <Node pos="l" depth="2" NCoef="0" IVar="-1" Cut="0.0000000000000000e+00" cType="1" res="-1.4316077344119549e-02" rms="3.8891032338142395e-01" purity="3.5846456885337830e-01" nType="-99"/>
          <Node pos="r" depth="2" NCoef="0" IVar="2" Cut="3.5034759521484375e+02" cType="1" res="3.6375944036990404e-03" rms="3.8528379797935486e-01" purity="5.3912168741226196e-01" nType="0">
            <Node pos="l" depth="3" NCoef="0" IVar="-1" Cut="0.0000000000000000e+00" cType="1" res="-7.7138718916103244e-04" rms="3.9055845141410828e-01" purity="4.9622532725334167e-01" nType="-99"/>
            <Node pos="r" depth="3" NCoef="0" IVar="-1" Cut="0.0000000000000000e+00" cType="1" res="5.9596812352538109e-03" rms="3.7973609566688538e-01" purity="5.8309942483901978e-01" nType="-99"/>
          </Node>
        </Node>
      </Node>
    </BinaryTree>
    <BinaryTree type="DecisionTree" boostWeight="1.0000000000000000e+00" itree="492">
      <Node pos="s" depth="0" NCoef="0" IVar="6" Cut="4.0737691521644592e-01" cType="1" res="-2.4993278202600777e-04" rms="3.8282501697540283e-01" purity="5.0064551830291748e-01" nType="0">
        <Node pos="l" depth="1" NCoef="0" IVar="6" Cut="-1.2636126279830933e+00" cType="1" res="5.1347664557397366e-03" rms="3.8741081953048706e-01" purity="5.3727340698242188e-01" nType="0">
          <Node pos="l" depth="2" NCoef="0" IVar="9" Cut="1.3337725400924683e-01" cType="1" res="-1.4703094959259033e-02" rms="3.3791637420654297e-01" purity="2.3078237473964691e-01" nType="0">
            <Node pos="l" depth="3" NCoef="0" IVar="-1" Cut="0.0000000000000000e+00" cType="1" res="-2.1469457074999809e-02" rms="3.3194208145141602e-01" purity="2.1259498596191406e-01" nType="-99"/>
            <Node pos="r" depth="3" NCoef="0" IVar="-1" Cut="0.0000000000000000e+00" cType="1" res="9.6130522433668375e-04" rms="3.4604322910308838e-01" purity="2.5796294212341309e-01" nType="-99"/>
          </Node>
          <Node pos="r" depth="2" NCoef="0" IVar="8" Cut="-1.2000250816345215e+00" cType="1" res="8.3623761311173439e-03" rms="3.9478290081024170e-01" purity="5.8713936805725098e-01" nType="0">
            <Node pos="l" depth="3" NCoef="0" IVar="-1" Cut="0.0000000000000000e+00" cType="1" res="1.4583311975002289e-02" rms="4.0833684802055359e-01" purity="4.7058564424514771e-01" nType="-99"/>
            <Node pos="r" depth="3" NCoef="0" IVar="-1" Cut="0.0000000000000000e+00" cType="1" res="3.5706928465515375e-03" rms="3.9221951365470886e-01" purity="6.0819530487060547e-01" nType="-99"/>
          </Node>
        </Node>
        <Node pos="r" depth="1" NCoef="0" IVar="3" Cut="3.0482968139648438e+02" cType="1" res="-1.1168048717081547e-02" rms="3.7311545014381409e-01" purity="4.2637798190116882e-01" nType="0">
          <Node pos="l" depth="2" NCoef="0" IVar="9" Cut="-1.4665102958679199e+00" cType="1" res="-1.5976304188370705e-02" rms="3.7121406197547913e-01" purity="3.9032047986984253e-01" nType="0">
            <Node pos="l" depth="3" NCoef="0" IVar="-1" Cut="0.0000000000000000e+00" cType="1" res="-3.2670341432094574e-02" rms="3.4740775823593140e-01" purity="2.7148386836051941e-01" nType="-99"/>
            <Node pos="r" depth="3" NCoef="0" IVar="-1" Cut="0.0000000000000000e+00" cType="1" res="-8.5348719730973244e-03" rms="3.7384140491485596e-01" purity="4.0472608804702759e-01" nType="-99"/>
          </Node>
          <Node pos="r" depth="2" NCoef="0" IVar="-1" Cut="0.0000000000000000e+00" cType="1" res="1.2355266138911247e-02" rms="3.8327887654304504e-01" purity="6.4814108610153198e-01" nType="-99"/>
        </Node>
      </Node>
    </BinaryTree>
    <BinaryTree type="DecisionTree" boostWeight="1.0000000000000000e+00" itree="493">
      <Node pos="s" depth="0" NCoef="0" IVar="4" Cut="9.5065132141113281e+01" cType="1" res="-1.1573276715353131e-03" rms="3.8582855463027954e-01" purity="4.9667286872863770e-01" nType="0">
        <Node pos="l" depth="1" NCoef="0" IVar="7" Cut="9.3331629037857056e-01" cType="1" res="6.6945571452379227e-03" rms="3.6836853623390198e-01" purity="2.3324812948703766e-01" nType="0">
          <Node pos="l" depth="2" NCoef="0" IVar="9" Cut="6.6642153263092041e-01" cType="1" res="1.9646820146590471e-04" rms="3.7413063645362854e-01" purity="2.5030523538589478e-01" nType="0">
            <Node pos="l" depth="3" NCoef="0" IVar="-1" Cut="0.0000000000000000e+00" cType="1" res="4.7382256016135216e-03" rms="3.8282486796379089e-01" purity="2.6281476020812988e-01" nType="-99"/>
            <Node pos="r" depth="3" NCoef="0" IVar="-1" Cut="0.0000000000000000e+00" cType="1" res="-1.1462260968983173e-02" rms="3.5191628336906433e-01" purity="2.2034259140491486e-01" nType="-99"/>
          </Node>
          <Node pos="r" depth="2" NCoef="0" IVar="7" Cut="1.5555236339569092e+00" cType="1" res="2.7207965031266212e-02" rms="3.4876239299774170e-01" purity="1.7940162122249603e-01" nType="0">
            <Node pos="l" depth="3" NCoef="0" IVar="-1" Cut="0.0000000000000000e+00" cType="1" res="3.4841123968362808e-02" rms="3.8909897208213806e-01" purity="2.3917675018310547e-01" nType="-99"/>
            <Node pos="r" depth="3" NCoef="0" IVar="-1" Cut="0.0000000000000000e+00" cType="1" res="1.0381961241364479e-02" rms="2.9613733291625977e-01" purity="1.1258299648761749e-01" nType="-99"/>
          </Node>
        </Node>
        <Node pos="r" depth="1" NCoef="0" IVar="3" Cut="1.8818679809570312e+02" cType="1" res="-4.2094271630048752e-03" rms="3.9236339926719666e-01" purity="5.9906846284866333e-01" nType="0">
          <Node pos="l" depth="2" NCoef="0" IVar="9" Cut="9.3324089050292969e-01" cType="1" res="-1.2325105257332325e-02" rms="4.1295236349105835e-01" purity="4.4197657704353333e-01" nType="0">
            <Node pos="l" depth="3" NCoef="0" IVar="-1" Cut="0.0000000000000000e+00" cType="1" res="-1.0453839786350727e-02" rms="4.1514354944229126e-01" purity="4.5397225022315979e-01" nType="-99"/>
            <Node pos="r" depth="3" NCoef="0" IVar="-1" Cut="0.0000000000000000e+00" cType="1" res="3.2104055862873793e-03" rms="4.0548121929168701e-01" purity="4.0429693460464478e-01" nType="-99"/>
          </Node>
          <Node pos="r" depth="2" NCoef="0" IVar="7" Cut="1.2000269889831543e+00" cType="1" res="-3.0502639128826559e-04" rms="3.8200166821479797e-01" purity="6.7464441061019897e-01" nType="0">
            <Node pos="l" depth="3" NCoef="0" IVar="-1" Cut="0.0000000000000000e+00" cType="1" res="1.8004366429522634e-03" rms="3.8069662451744080e-01" purity="7.0074230432510376e-01" nType="-99"/>
            <Node pos="r" depth="3" NCoef="0" IVar="-1" Cut="0.0000000000000000e+00" cType="1" res="-1.6604907810688019e-02" rms="3.9269664883613586e-01" purity="4.3638965487480164e-01" nType="-99"/>
          </Node>
        </Node>
      </Node>
    </BinaryTree>
    <BinaryTree type="DecisionTree" boostWeight="1.0000000000000000e+00" itree="494">
      <Node pos="s" depth="0" NCoef="0" IVar="9" Cut="6.6668361425399780e-01" cType="1" res="3.2684500329196453e-03" rms="3.8381919264793396e-01" purity="5.0761187076568604e-01" nType="0">
        <Node pos="l" depth="1" NCoef="0" IVar="8" Cut="-1.7333419322967529e+00" cType="1" res="-1.4061853289604187e-03" rms="3.8478261232376099e-01" purity="5.2145993709564209e-01" nType="0">
          <Node pos="l" depth="2" NCoef="0" IVar="9" Cut="-6.5401262044906616e-01" cType="1" res="-2.7225473895668983e-02" rms="3.5278663039207458e-01" purity="2.6318868994712830e-01" nType="0">
            <Node pos="l" depth="3" NCoef="0" IVar="-1" Cut="0.0000000000000000e+00" cType="1" res="-1.7411895096302032e-02" rms="3.4012639522552490e-01" purity="2.0324018597602844e-01" nType="-99"/>
            <Node pos="r" depth="3" NCoef="0" IVar="-1" Cut="0.0000000000000000e+00" cType="1" res="-2.2402724251151085e-02" rms="3.6548075079917908e-01" purity="3.2596251368522644e-01" nType="-99"/>
          </Node>
          <Node pos="r" depth="2" NCoef="0" IVar="9" Cut="5.0160801410675049e-01" cType="1" res="6.1401986749842763e-04" rms="3.8710194826126099e-01" purity="5.4166811704635620e-01" nType="0">
            <Node pos="l" depth="3" NCoef="0" IVar="-1" Cut="0.0000000000000000e+00" cType="1" res="1.4693755656480789e-03" rms="3.8781747221946716e-01" purity="5.4108512401580811e-01" nType="-99"/>
            <Node pos="r" depth="3" NCoef="0" IVar="-1" Cut="0.0000000000000000e+00" cType="1" res="-1.5506332740187645e-02" rms="3.7574759125709534e-01" purity="5.5015945434570312e-01" nType="-99"/>
          </Node>
        </Node>
        <Node pos="r" depth="1" NCoef="0" IVar="6" Cut="-6.3140356540679932e-01" cType="1" res="1.4113998040556908e-02" rms="3.8135403394699097e-01" purity="4.7548329830169678e-01" nType="0">
          <Node pos="l" depth="2" NCoef="0" IVar="9" Cut="1.3777790069580078e+00" cType="1" res="-1.5202816575765610e-03" rms="3.7308350205421448e-01" purity="3.5928356647491455e-01" nType="0">
            <Node pos="l" depth="3" NCoef="0" IVar="-1" Cut="0.0000000000000000e+00" cType="1" res="8.9432913810014725e-03" rms="3.7685018777847290e-01" purity="4.2153906822204590e-01" nType="-99"/>
            <Node pos="r" depth="3" NCoef="0" IVar="-1" Cut="0.0000000000000000e+00" cType="1" res="-1.3937379233539104e-02" rms="3.6773627996444702e-01" purity="2.8425177931785583e-01" nType="-99"/>
          </Node>
          <Node pos="r" depth="2" NCoef="0" IVar="6" Cut="1.4927839040756226e+00" cType="1" res="1.8236439675092697e-02" rms="3.8339889049530029e-01" purity="5.0612282752990723e-01" nType="0">
            <Node pos="l" depth="3" NCoef="0" IVar="-1" Cut="0.0000000000000000e+00" cType="1" res="1.3592004776000977e-02" rms="3.9407628774642944e-01" purity="5.4931867122650146e-01" nType="-99"/>
            <Node pos="r" depth="3" NCoef="0" IVar="-1" Cut="0.0000000000000000e+00" cType="1" res="-8.7932869791984558e-03" rms="2.7630975842475891e-01" purity="1.4249595999717712e-01" nType="-99"/>
          </Node>
        </Node>
      </Node>
    </BinaryTree>
    <BinaryTree type="DecisionTree" boostWeight="1.0000000000000000e+00" itree="495">
      <Node pos="s" depth="0" NCoef="0" IVar="2" Cut="6.4788525390625000e+02" cType="1" res="-1.3949800049886107e-03" rms="3.8612264394760132e-01" purity="4.9852979183197021e-01" nType="0">
        <Node pos="l" depth="1" NCoef="0" IVar="1" Cut="9.5601501464843750e+02" cType="1" res="2.8027041480527259e-05" rms="3.8542068004608154e-01" purity="4.9426773190498352e-01" nType="0">
          <Node pos="l" depth="2" NCoef="0" IVar="6" Cut="-1.1034625023603439e-01" cType="1" res="1.4832137152552605e-02" rms="3.4960305690765381e-01" purity="1.6847348213195801e-01" nType="0">
            <Node pos="l" depth="3" NCoef="0" IVar="-1" Cut="0.0000000000000000e+00" cType="1" res="-4.4468645937740803e-03" rms="3.2788410782814026e-01" purity="1.3797095417976379e-01" nType="-99"/>
            <Node pos="r" depth="3" NCoef="0" IVar="-1" Cut="0.0000000000000000e+00" cType="1" res="2.5805471464991570e-02" rms="3.6565187573432922e-01" purity="1.9346749782562256e-01" nType="-99"/>
          </Node>
          <Node pos="r" depth="2" NCoef="0" IVar="8" Cut="-1.9998500347137451e+00" cType="1" res="-2.4401182308793068e-03" rms="3.9101877808570862e-01" purity="5.4858422279357910e-01" nType="0">
            <Node pos="l" depth="3" NCoef="0" IVar="-1" Cut="0.0000000000000000e+00" cType="1" res="1.6197860240936279e-02" rms="3.9114785194396973e-01" purity="3.0868497490882874e-01" nType="-99"/>
            <Node pos="r" depth="3" NCoef="0" IVar="-1" Cut="0.0000000000000000e+00" cType="1" res="-2.3127079475671053e-03" rms="3.9097431302070618e-01" purity="5.5909430980682373e-01" nType="-99"/>
          </Node>
        </Node>
        <Node pos="r" depth="1" NCoef="0" IVar="9" Cut="1.3320298492908478e-01" cType="1" res="-2.5337707251310349e-02" rms="3.9698326587677002e-01" purity="5.7024139165878296e-01" nType="0">
          <Node pos="l" depth="2" NCoef="0" IVar="-1" Cut="0.0000000000000000e+00" cType="1" res="-2.3447521030902863e-02" rms="3.9653909206390381e-01" purity="5.6085103750228882e-01" nType="-99"/>
          <Node pos="r" depth="2" NCoef="0" IVar="-1" Cut="0.0000000000000000e+00" cType="1" res="-6.2595107592642307e-03" rms="3.9695027470588684e-01" purity="5.8076184988021851e-01" nType="-99"/>
        </Node>
      </Node>
    </BinaryTree>
    <BinaryTree type="DecisionTree" boostWeight="1.0000000000000000e+00" itree="496">
      <Node pos="s" depth="0" NCoef="0" IVar="9" Cut="1.7333129644393921e+00" cType="1" res="-8.5734482854604721e-04" rms="3.8272568583488464e-01" purity="5.0228637456893921e-01" nType="0">
        <Node pos="l" depth="1" NCoef="0" IVar="7" Cut="-9.3317359685897827e-01" cType="1" res="-3.1734700314700603e-03" rms="3.8345852494239807e-01" purity="5.1124012470245361e-01" nType="0">
          <Node pos="l" depth="2" NCoef="0" IVar="4" Cut="1.5821343994140625e+02" cType="1" res="-1.6222113743424416e-02" rms="3.7315887212753296e-01" purity="3.6078143119812012e-01" nType="0">
            <Node pos="l" depth="3" NCoef="0" IVar="-1" Cut="0.0000000000000000e+00" cType="1" res="-1.6047967597842216e-02" rms="3.6486506462097168e-01" purity="2.6732787489891052e-01" nType="-99"/>
            <Node pos="r" depth="3" NCoef="0" IVar="-1" Cut="0.0000000000000000e+00" cType="1" res="1.2108957162126899e-03" rms="3.9478784799575806e-01" purity="6.2119030952453613e-01" nType="-99"/>
          </Node>
          <Node pos="r" depth="2" NCoef="0" IVar="3" Cut="4.1516741943359375e+02" cType="1" res="-8.7101150711532682e-05" rms="3.8578996062278748e-01" purity="5.4682773351669312e-01" nType="0">
            <Node pos="l" depth="3" NCoef="0" IVar="-1" Cut="0.0000000000000000e+00" cType="1" res="-7.9827115405350924e-04" rms="3.8569745421409607e-01" purity="5.3917998075485229e-01" nType="-99"/>
            <Node pos="r" depth="3" NCoef="0" IVar="-1" Cut="0.0000000000000000e+00" cType="1" res="1.6162730753421783e-02" rms="3.8700386881828308e-01" purity="7.1638548374176025e-01" nType="-99"/>
          </Node>
        </Node>
        <Node pos="r" depth="1" NCoef="0" IVar="9" Cut="2.0888681411743164e+00" cType="1" res="2.2595714777708054e-02" rms="3.7441813945770264e-01" purity="4.1162136197090149e-01" nType="0">
          <Node pos="l" depth="2" NCoef="0" IVar="-1" Cut="0.0000000000000000e+00" cType="1" res="2.7286127209663391e-02" rms="3.9288565516471863e-01" purity="4.6349808573722839e-01" nType="-99"/>
          <Node pos="r" depth="2" NCoef="0" IVar="-1" Cut="0.0000000000000000e+00" cType="1" res="3.1798051204532385e-03" rms="3.5531860589981079e-01" purity="3.6309292912483215e-01" nType="-99"/>
        </Node>
      </Node>
    </BinaryTree>
    <BinaryTree type="DecisionTree" boostWeight="1.0000000000000000e+00" itree="497">
      <Node pos="s" depth="0" NCoef="0" IVar="4" Cut="9.9487312316894531e+01" cType="1" res="2.2944652009755373e-03" rms="3.8480940461158752e-01" purity="5.0149250030517578e-01" nType="0">
        <Node pos="l" depth="1" NCoef="0" IVar="8" Cut="-6.6670310497283936e-01" cType="1" res="1.1910139583051205e-02" rms="3.7779143452644348e-01" purity="2.5567010045051575e-01" nType="0">
          <Node pos="l" depth="2" NCoef="0" IVar="9" Cut="-4.0020036697387695e-01" cType="1" res="2.6850942522287369e-02" rms="3.7441846728324890e-01" purity="2.5473120808601379e-01" nType="0">
            <Node pos="l" depth="3" NCoef="0" IVar="-1" Cut="0.0000000000000000e+00" cType="1" res="9.3931071460247040e-03" rms="3.5342934727668762e-01" purity="2.1713717281818390e-01" nType="-99"/>
            <Node pos="r" depth="3" NCoef="0" IVar="-1" Cut="0.0000000000000000e+00" cType="1" res="2.7881273999810219e-02" rms="3.8964548707008362e-01" purity="2.8415682911872864e-01" nType="-99"/>
          </Node>
          <Node pos="r" depth="2" NCoef="0" IVar="5" Cut="6.6435333251953125e+01" cType="1" res="4.7675454989075661e-03" rms="3.7918540835380554e-01" purity="2.5611892342567444e-01" nType="0">
            <Node pos="l" depth="3" NCoef="0" IVar="-1" Cut="0.0000000000000000e+00" cType="1" res="-3.6134640686213970e-03" rms="3.4793001413345337e-01" purity="1.9719359278678894e-01" nType="-99"/>
            <Node pos="r" depth="3" NCoef="0" IVar="-1" Cut="0.0000000000000000e+00" cType="1" res="1.1651922017335892e-02" rms="4.2382431030273438e-01" purity="3.4999975562095642e-01" nType="-99"/>
          </Node>
        </Node>
        <Node pos="r" depth="1" NCoef="0" IVar="0" Cut="4.4703958129882812e+02" cType="1" res="-2.0958632230758667e-03" rms="3.8789221644401550e-01" purity="6.1373025178909302e-01" nType="0">
          <Node pos="l" depth="2" NCoef="0" IVar="5" Cut="6.4489601135253906e+01" cType="1" res="-8.3520095795392990e-03" rms="4.1636317968368530e-01" purity="4.5441791415214539e-01" nType="0">
            <Node pos="l" depth="3" NCoef="0" IVar="-1" Cut="0.0000000000000000e+00" cType="1" res="6.3556735403835773e-03" rms="4.0544599294662476e-01" purity="3.1151846051216125e-01" nType="-99"/>
            <Node pos="r" depth="3" NCoef="0" IVar="-1" Cut="0.0000000000000000e+00" cType="1" res="-6.8753724917769432e-03" rms="4.1850095987319946e-01" purity="4.8427766561508179e-01" nType="-99"/>
          </Node>
          <Node pos="r" depth="2" NCoef="0" IVar="7" Cut="1.1999754905700684e+00" cType="1" res="4.8603592440485954e-03" rms="3.5342359542846680e-01" purity="7.9086995124816895e-01" nType="0">
            <Node pos="l" depth="3" NCoef="0" IVar="-1" Cut="0.0000000000000000e+00" cType="1" res="1.9891392439603806e-03" rms="3.4772178530693054e-01" purity="8.0568718910217285e-01" nType="-99"/>
            <Node pos="r" depth="3" NCoef="0" IVar="-1" Cut="0.0000000000000000e+00" cType="1" res="1.5313031151890755e-02" rms="4.0091156959533691e-01" purity="6.5615051984786987e-01" nType="-99"/>
          </Node>
        </Node>
      </Node>
    </BinaryTree>
    <BinaryTree type="DecisionTree" boostWeight="1.0000000000000000e+00" itree="498">
      <Node pos="s" depth="0" NCoef="0" IVar="7" Cut="-6.6664117574691772e-01" cType="1" res="5.6562555255368352e-04" rms="3.8633060455322266e-01" purity="4.9985921382904053e-01" nType="0">
        <Node pos="l" depth="1" NCoef="0" IVar="8" Cut="-1.2000162601470947e+00" cType="1" res="-6.9180475547909737e-03" rms="3.7800213694572449e-01" purity="4.1012275218963623e-01" nType="0">
          <Node pos="l" depth="2" NCoef="0" IVar="8" Cut="-1.6571372747421265e+00" cType="1" res="1.3608898967504501e-02" rms="3.6218610405921936e-01" purity="3.3434838056564331e-01" nType="0">
            <Node pos="l" depth="3" NCoef="0" IVar="-1" Cut="0.0000000000000000e+00" cType="1" res="-4.2660348117351532e-03" rms="3.4569492936134338e-01" purity="2.1673233807086945e-01" nType="-99"/>
            <Node pos="r" depth="3" NCoef="0" IVar="-1" Cut="0.0000000000000000e+00" cType="1" res="2.1336887031793594e-02" rms="3.7592548131942749e-01" purity="4.4274124503135681e-01" nType="-99"/>
          </Node>
          <Node pos="r" depth="2" NCoef="0" IVar="7" Cut="-8.6984175443649292e-01" cType="1" res="-1.2454861775040627e-02" rms="3.8196733593940735e-01" purity="4.3056163191795349e-01" nType="0">
            <Node pos="l" depth="3" NCoef="0" IVar="-1" Cut="0.0000000000000000e+00" cType="1" res="-4.4065741822123528e-03" rms="3.8146215677261353e-01" purity="3.9949765801429749e-01" nType="-99"/>
            <Node pos="r" depth="3" NCoef="0" IVar="-1" Cut="0.0000000000000000e+00" cType="1" res="-2.1762808784842491e-02" rms="3.8301023840904236e-01" purity="5.4098433256149292e-01" nType="-99"/>
          </Node>
        </Node>
        <Node pos="r" depth="1" NCoef="0" IVar="8" Cut="-1.2000048160552979e+00" cType="1" res="3.2762410119175911e-03" rms="3.8926777243614197e-01" purity="5.3236210346221924e-01" nType="0">
          <Node pos="l" depth="2" NCoef="0" IVar="1" Cut="1.3080964355468750e+03" cType="1" res="-1.1313044466078281e-02" rms="3.8004690408706665e-01" purity="3.8540521264076233e-01" nType="0">
            <Node pos="l" depth="3" NCoef="0" IVar="-1" Cut="0.0000000000000000e+00" cType="1" res="-2.2369895130395889e-02" rms="3.6684077978134155e-01" purity="2.2535587847232819e-01" nType="-99"/>
            <Node pos="r" depth="3" NCoef="0" IVar="-1" Cut="0.0000000000000000e+00" cType="1" res="1.2930113822221756e-02" rms="3.9706033468246460e-01" purity="6.2796473503112793e-01" nType="-99"/>
          </Node>
          <Node pos="r" depth="2" NCoef="0" IVar="6" Cut="6.8358504772186279e-01" cType="1" res="5.5594318546354771e-03" rms="3.9064180850982666e-01" purity="5.5536061525344849e-01" nType="0">
            <Node pos="l" depth="3" NCoef="0" IVar="-1" Cut="0.0000000000000000e+00" cType="1" res="1.2512431712821126e-03" rms="3.9167937636375427e-01" purity="5.9181535243988037e-01" nType="-99"/>
            <Node pos="r" depth="3" NCoef="0" IVar="-1" Cut="0.0000000000000000e+00" cType="1" res="1.1395548470318317e-02" rms="3.8728183507919312e-01" purity="4.4524976611137390e-01" nType="-99"/>
          </Node>
        </Node>
      </Node>
    </BinaryTree>
    <BinaryTree type="DecisionTree" boostWeight="1.0000000000000000e+00" itree="499">
      <Node pos="s" depth="0" NCoef="0" IVar="8" Cut="-1.7333338260650635e+00" cType="1" res="1.0256979148834944e-03" rms="3.8331207633018494e-01" purity="5.0035613775253296e-01" nType="0">
        <Node pos="l" depth="1" NCoef="0" IVar="7" Cut="-6.6654944419860840e-01" cType="1" res="1.6277426853775978e-02" rms="3.6886763572692871e-01" purity="2.9498672485351562e-01" nType="0">
          <Node pos="l" depth="2" NCoef="0" IVar="-1" Cut="0.0000000000000000e+00" cType="1" res="-2.7654164005070925e-03" rms="3.4098374843597412e-01" purity="2.1562939882278442e-01" nType="-99"/>
          <Node pos="r" depth="2" NCoef="0" IVar="-1" Cut="0.0000000000000000e+00" cType="1" res="1.8688112497329712e-02" rms="3.8256719708442688e-01" purity="3.3752396702766418e-01" nType="-99"/>
        </Node>
        <Node pos="r" depth="1" NCoef="0" IVar="4" Cut="1.4892147827148438e+02" cType="1" res="-1.4390567957889289e-04" rms="3.8437238335609436e-01" purity="5.1610517501831055e-01" nType="0">
          <Node pos="l" depth="2" NCoef="0" IVar="9" Cut="-9.3331986665725708e-01" cType="1" res="-3.1653067562729120e-03" rms="3.9585772156715393e-01" purity="3.8240283727645874e-01" nType="0">
            <Node pos="l" depth="3" NCoef="0" IVar="-1" Cut="0.0000000000000000e+00" cType="1" res="-9.6465786918997765e-03" rms="3.8686409592628479e-01" purity="3.4060955047607422e-01" nType="-99"/>
            <Node pos="r" depth="3" NCoef="0" IVar="-1" Cut="0.0000000000000000e+00" cType="1" res="3.1679013045504689e-04" rms="3.9854434132575989e-01" purity="3.9541170001029968e-01" nType="-99"/>
          </Node>
          <Node pos="r" depth="2" NCoef="0" IVar="6" Cut="-6.1864656209945679e-01" cType="1" res="4.8916363157331944e-03" rms="3.6437147855758667e-01" purity="7.3893690109252930e-01" nType="0">
            <Node pos="l" depth="3" NCoef="0" IVar="-1" Cut="0.0000000000000000e+00" cType="1" res="-6.0820807702839375e-03" rms="3.8994038105010986e-01" purity="6.3291168212890625e-01" nType="-99"/>
            <Node pos="r" depth="3" NCoef="0" IVar="-1" Cut="0.0000000000000000e+00" cType="1" res="6.8488395772874355e-03" rms="3.5661590099334717e-01" purity="7.6926541328430176e-01" nType="-99"/>
          </Node>
        </Node>
      </Node>
    </BinaryTree>
    <BinaryTree type="DecisionTree" boostWeight="1.0000000000000000e+00" itree="500">
      <Node pos="s" depth="0" NCoef="0" IVar="9" Cut="-1.9999725818634033e+00" cType="1" res="-1.8458705162629485e-03" rms="3.8172256946563721e-01" purity="5.0081688165664673e-01" nType="0">
        <Node pos="l" depth="1" NCoef="0" IVar="6" Cut="-1.1513897031545639e-01" cType="1" res="-2.2118236869573593e-02" rms="3.6444765329360962e-01" purity="3.1366229057312012e-01" nType="0">
          <Node pos="l" depth="2" NCoef="0" IVar="-1" Cut="0.0000000000000000e+00" cType="1" res="-2.8421269729733467e-02" rms="3.4597972035408020e-01" purity="2.9082235693931580e-01" nType="-99"/>
          <Node pos="r" depth="2" NCoef="0" IVar="-1" Cut="0.0000000000000000e+00" cType="1" res="-4.4411499984562397e-03" rms="3.7994033098220825e-01" purity="3.3461821079254150e-01" nType="-99"/>
        </Node>
        <Node pos="r" depth="1" NCoef="0" IVar="9" Cut="-3.9998260140419006e-01" cType="1" res="-7.2427454870194197e-04" rms="3.8262420892715454e-01" purity="5.1117146015167236e-01" nType="0">
          <Node pos="l" depth="2" NCoef="0" IVar="6" Cut="-9.6642017364501953e-02" cType="1" res="6.2849349342286587e-03" rms="3.8659456372261047e-01" purity="5.0796359777450562e-01" nType="0">
            <Node pos="l" depth="3" NCoef="0" IVar="-1" Cut="0.0000000000000000e+00" cType="1" res="1.0192511603236198e-02" rms="3.8999193906784058e-01" purity="4.9256846308708191e-01" nType="-99"/>
            <Node pos="r" depth="3" NCoef="0" IVar="-1" Cut="0.0000000000000000e+00" cType="1" res="-2.3221573792397976e-03" rms="3.8259372115135193e-01" purity="5.2483767271041870e-01" nType="-99"/>
          </Node>
          <Node pos="r" depth="2" NCoef="0" IVar="8" Cut="1.9998965263366699e+00" cType="1" res="-4.3251733295619488e-03" rms="3.8051819801330566e-01" purity="5.1281946897506714e-01" nType="0">
            <Node pos="l" depth="3" NCoef="0" IVar="-1" Cut="0.0000000000000000e+00" cType="1" res="-1.9909865222871304e-03" rms="3.8302010297775269e-01" purity="5.2754229307174683e-01" nType="-99"/>
            <Node pos="r" depth="3" NCoef="0" IVar="-1" Cut="0.0000000000000000e+00" cType="1" res="-2.8826104477047920e-02" rms="3.1892776489257812e-01" purity="1.8802785873413086e-01" nType="-99"/>
          </Node>
        </Node>
      </Node>
    </BinaryTree>
    <BinaryTree type="DecisionTree" boostWeight="1.0000000000000000e+00" itree="501">
      <Node pos="s" depth="0" NCoef="0" IVar="6" Cut="1.5004551410675049e-01" cType="1" res="2.4364793207496405e-03" rms="3.8585096597671509e-01" purity="5.0070500373840332e-01" nType="0">
        <Node pos="l" depth="1" NCoef="0" IVar="2" Cut="4.9131399536132812e+02" cType="1" res="-2.1674556192010641e-03" rms="3.8459026813507080e-01" purity="5.1203268766403198e-01" nType="0">
          <Node pos="l" depth="2" NCoef="0" IVar="9" Cut="1.4666893482208252e+00" cType="1" res="-5.0211115740239620e-03" rms="3.8093364238739014e-01" purity="4.9965986609458923e-01" nType="0">
            <Node pos="l" depth="3" NCoef="0" IVar="-1" Cut="0.0000000000000000e+00" cType="1" res="-1.5638850163668394e-03" rms="3.8139179348945618e-01" purity="5.1349806785583496e-01" nType="-99"/>
            <Node pos="r" depth="3" NCoef="0" IVar="-1" Cut="0.0000000000000000e+00" cType="1" res="-1.9045028835535049e-02" rms="3.7617203593254089e-01" purity="3.8062453269958496e-01" nType="-99"/>
          </Node>
          <Node pos="r" depth="2" NCoef="0" IVar="1" Cut="1.5922956542968750e+03" cType="1" res="1.0123142041265965e-02" rms="3.9972457289695740e-01" purity="5.6532174348831177e-01" nType="0">
            <Node pos="l" depth="3" NCoef="0" IVar="-1" Cut="0.0000000000000000e+00" cType="1" res="1.9764710217714310e-02" rms="4.0757539868354797e-01" purity="3.5046964883804321e-01" nType="-99"/>
            <Node pos="r" depth="3" NCoef="0" IVar="-1" Cut="0.0000000000000000e+00" cType="1" res="-1.7447788268327713e-03" rms="3.9448010921478271e-01" purity="6.9144892692565918e-01" nType="-99"/>
          </Node>
        </Node>
        <Node pos="r" depth="1" NCoef="0" IVar="0" Cut="5.7298413085937500e+02" cType="1" res="8.2256458699703217e-03" rms="3.8735270500183105e-01" purity="4.8646119236946106e-01" nType="0">
          <Node pos="l" depth="2" NCoef="0" IVar="1" Cut="9.1109326171875000e+02" cType="1" res="1.2344807386398315e-02" rms="3.9346426725387573e-01" purity="4.2813077569007874e-01" nType="0">
            <Node pos="l" depth="3" NCoef="0" IVar="-1" Cut="0.0000000000000000e+00" cType="1" res="-9.5098363235592842e-03" rms="3.0941668152809143e-01" purity="1.1936586350202560e-01" nType="-99"/>
            <Node pos="r" depth="3" NCoef="0" IVar="-1" Cut="0.0000000000000000e+00" cType="1" res="9.2661632224917412e-03" rms="4.0199139714241028e-01" purity="4.6391111612319946e-01" nType="-99"/>
          </Node>
          <Node pos="r" depth="2" NCoef="0" IVar="0" Cut="6.9647729492187500e+02" cType="1" res="-1.2292492203414440e-02" rms="3.5463586449623108e-01" purity="7.7701359987258911e-01" nType="0">
            <Node pos="l" depth="3" NCoef="0" IVar="-1" Cut="0.0000000000000000e+00" cType="1" res="-2.0957825705409050e-02" rms="3.6027643084526062e-01" purity="7.4644511938095093e-01" nType="-99"/>
            <Node pos="r" depth="3" NCoef="0" IVar="-1" Cut="0.0000000000000000e+00" cType="1" res="4.4353469274938107e-03" rms="3.4664863348007202e-01" purity="8.1526321172714233e-01" nType="-99"/>
          </Node>
        </Node>
      </Node>
    </BinaryTree>
    <BinaryTree type="DecisionTree" boostWeight="1.0000000000000000e+00" itree="502">
      <Node pos="s" depth="0" NCoef="0" IVar="9" Cut="1.9999758005142212e+00" cType="1" res="-1.7945932922884822e-03" rms="3.8553094863891602e-01" purity="4.9797773361206055e-01" nType="0">
        <Node pos="l" depth="1" NCoef="0" IVar="5" Cut="1.6686351013183594e+02" cType="1" res="-3.2684814650565386e-03" rms="3.8588997721672058e-01" purity="5.0569599866867065e-01" nType="0">
          <Node pos="l" depth="2" NCoef="0" IVar="1" Cut="1.1041705322265625e+03" cType="1" res="-4.5991740189492702e-03" rms="3.9180058240890503e-01" purity="4.7679790854454041e-01" nType="0">
            <Node pos="l" depth="3" NCoef="0" IVar="-1" Cut="0.0000000000000000e+00" cType="1" res="1.8558780429884791e-03" rms="3.7879419326782227e-01" purity="2.4105057120323181e-01" nType="-99"/>
            <Node pos="r" depth="3" NCoef="0" IVar="-1" Cut="0.0000000000000000e+00" cType="1" res="-5.3039537742733955e-03" rms="3.9838895201683044e-01" purity="6.0025870800018311e-01" nType="-99"/>
          </Node>
          <Node pos="r" depth="2" NCoef="0" IVar="-1" Cut="0.0000000000000000e+00" cType="1" res="1.4008200727403164e-02" rms="3.0053415894508362e-01" purity="8.7211251258850098e-01" nType="-99"/>
        </Node>
        <Node pos="r" depth="1" NCoef="0" IVar="6" Cut="1.5518103539943695e-01" cType="1" res="2.2600511088967323e-02" rms="3.7870651483535767e-01" purity="3.7022873759269714e-01" nType="0">
          <Node pos="l" depth="2" NCoef="0" IVar="-1" Cut="0.0000000000000000e+00" cType="1" res="5.4329531267285347e-03" rms="3.8005614280700684e-01" purity="3.6499094963073730e-01" nType="-99"/>
          <Node pos="r" depth="2" NCoef="0" IVar="-1" Cut="0.0000000000000000e+00" cType="1" res="2.6655055582523346e-02" rms="3.7690097093582153e-01" purity="3.7519979476928711e-01" nType="-99"/>
        </Node>
      </Node>
    </BinaryTree>
    <BinaryTree type="DecisionTree" boostWeight="1.0000000000000000e+00" itree="503">
      <Node pos="s" depth="0" NCoef="0" IVar="7" Cut="1.3334324955940247e-01" cType="1" res="4.6554958680644631e-04" rms="3.8503444194793701e-01" purity="5.0101149082183838e-01" nType="0">
        <Node pos="l" depth="1" NCoef="0" IVar="9" Cut="9.3337947130203247e-01" cType="1" res="6.6896937787532806e-03" rms="3.8546356558799744e-01" purity="5.1646459102630615e-01" nType="0">
          <Node pos="l" depth="2" NCoef="0" IVar="2" Cut="3.5034826660156250e+02" cType="1" res="8.8958190754055977e-03" rms="3.8467523455619812e-01" purity="5.3259897232055664e-01" nType="0">
            <Node pos="l" depth="3" NCoef="0" IVar="-1" Cut="0.0000000000000000e+00" cType="1" res="1.1931023327633739e-03" rms="3.9428973197937012e-01" purity="4.8299500346183777e-01" nType="-99"/>
            <Node pos="r" depth="3" NCoef="0" IVar="-1" Cut="0.0000000000000000e+00" cType="1" res="1.1181464418768883e-02" rms="3.7450891733169556e-01" purity="5.8304530382156372e-01" nType="-99"/>
          </Node>
          <Node pos="r" depth="2" NCoef="0" IVar="7" Cut="-2.8560474514961243e-01" cType="1" res="-2.1480466239154339e-03" rms="3.8847991824150085e-01" purity="4.5183026790618896e-01" nType="0">
            <Node pos="l" depth="3" NCoef="0" IVar="-1" Cut="0.0000000000000000e+00" cType="1" res="-1.1284751817584038e-02" rms="3.7667164206504822e-01" purity="3.9061069488525391e-01" nType="-99"/>
            <Node pos="r" depth="3" NCoef="0" IVar="-1" Cut="0.0000000000000000e+00" cType="1" res="1.9466476514935493e-02" rms="4.1202989220619202e-01" purity="5.9027355909347534e-01" nType="-99"/>
          </Node>
        </Node>
        <Node pos="r" depth="1" NCoef="0" IVar="9" Cut="1.2000019550323486e+00" cType="1" res="-7.2222054004669189e-03" rms="3.8436463475227356e-01" purity="4.8192456364631653e-01" nType="0">
          <Node pos="l" depth="2" NCoef="0" IVar="5" Cut="8.5091758728027344e+01" cType="1" res="-3.5321686882525682e-03" rms="3.8568392395973206e-01" purity="5.0942718982696533e-01" nType="0">
            <Node pos="l" depth="3" NCoef="0" IVar="-1" Cut="0.0000000000000000e+00" cType="1" res="3.5660031717270613e-03" rms="3.9454531669616699e-01" purity="3.4907084703445435e-01" nType="-99"/>
            <Node pos="r" depth="3" NCoef="0" IVar="-1" Cut="0.0000000000000000e+00" cType="1" res="-9.4463247805833817e-03" rms="3.7544810771942139e-01" purity="6.8572992086410522e-01" nType="-99"/>
          </Node>
          <Node pos="r" depth="2" NCoef="0" IVar="7" Cut="1.1492153406143188e+00" cType="1" res="-2.2696489468216896e-02" rms="3.7839055061340332e-01" purity="3.6659136414527893e-01" nType="0">
            <Node pos="l" depth="3" NCoef="0" IVar="-1" Cut="0.0000000000000000e+00" cType="1" res="-2.4324899539351463e-02" rms="3.8814541697502136e-01" purity="4.3516060709953308e-01" nType="-99"/>
            <Node pos="r" depth="3" NCoef="0" IVar="-1" Cut="0.0000000000000000e+00" cType="1" res="1.2674275785684586e-03" rms="3.6139282584190369e-01" purity="2.6020130515098572e-01" nType="-99"/>
          </Node>
        </Node>
      </Node>
    </BinaryTree>
    <BinaryTree type="DecisionTree" boostWeight="1.0000000000000000e+00" itree="504">
      <Node pos="s" depth="0" NCoef="0" IVar="2" Cut="3.5034664916992188e+02" cType="1" res="-4.5755459723295644e-05" rms="3.8569673895835876e-01" purity="4.9981853365898132e-01" nType="0">
        <Node pos="l" depth="1" NCoef="0" IVar="2" Cut="3.1454998779296875e+02" cType="1" res="4.1761188767850399e-03" rms="3.9404311776161194e-01" purity="4.6491688489913940e-01" nType="0">
          <Node pos="l" depth="2" NCoef="0" IVar="5" Cut="7.2279426574707031e+01" cType="1" res="-5.1032955525442958e-04" rms="3.9593467116355896e-01" purity="4.4454586505889893e-01" nType="0">
            <Node pos="l" depth="3" NCoef="0" IVar="-1" Cut="0.0000000000000000e+00" cType="1" res="-6.5895160660147667e-03" rms="3.7545818090438843e-01" purity="2.5353458523750305e-01" nType="-99"/>
            <Node pos="r" depth="3" NCoef="0" IVar="-1" Cut="0.0000000000000000e+00" cType="1" res="3.6581053864210844e-03" rms="4.0970301628112793e-01" purity="5.7991880178451538e-01" nType="-99"/>
          </Node>
          <Node pos="r" depth="2" NCoef="0" IVar="4" Cut="1.3448022460937500e+02" cType="1" res="2.0087381824851036e-02" rms="3.8712897896766663e-01" purity="5.3407979011535645e-01" nType="0">
            <Node pos="l" depth="3" NCoef="0" IVar="-1" Cut="0.0000000000000000e+00" cType="1" res="2.2976567968726158e-02" rms="3.9557027816772461e-01" purity="3.9207321405410767e-01" nType="-99"/>
            <Node pos="r" depth="3" NCoef="0" IVar="-1" Cut="0.0000000000000000e+00" cType="1" res="7.6025427551940084e-04" rms="3.7505573034286499e-01" purity="7.1804803609848022e-01" nType="-99"/>
          </Node>
        </Node>
        <Node pos="r" depth="1" NCoef="0" IVar="8" Cut="6.6659998893737793e-01" cType="1" res="-4.5997356064617634e-03" rms="3.7643334269523621e-01" purity="5.3746563196182251e-01" nType="0">
          <Node pos="l" depth="2" NCoef="0" IVar="0" Cut="6.8660815429687500e+02" cType="1" res="-9.5209293067455292e-03" rms="3.7129285931587219e-01" purity="5.6188440322875977e-01" nType="0">
            <Node pos="l" depth="3" NCoef="0" IVar="-1" Cut="0.0000000000000000e+00" cType="1" res="-8.2752807065844536e-03" rms="3.7608447670936584e-01" purity="5.1634931564331055e-01" nType="-99"/>
            <Node pos="r" depth="3" NCoef="0" IVar="-1" Cut="0.0000000000000000e+00" cType="1" res="4.9721547402441502e-03" rms="3.4249022603034973e-01" purity="8.1973868608474731e-01" nType="-99"/>
          </Node>
          <Node pos="r" depth="2" NCoef="0" IVar="4" Cut="9.0326141357421875e+01" cType="1" res="8.4403408691287041e-03" rms="3.8942611217498779e-01" purity="4.7276136279106140e-01" nType="0">
            <Node pos="l" depth="3" NCoef="0" IVar="-1" Cut="0.0000000000000000e+00" cType="1" res="3.1582660973072052e-02" rms="3.7184542417526245e-01" purity="2.6111355423927307e-01" nType="-99"/>
            <Node pos="r" depth="3" NCoef="0" IVar="-1" Cut="0.0000000000000000e+00" cType="1" res="-2.0128947217017412e-03" rms="3.9494058489799500e-01" purity="5.4916292428970337e-01" nType="-99"/>
          </Node>
        </Node>
      </Node>
    </BinaryTree>
    <BinaryTree type="DecisionTree" boostWeight="1.0000000000000000e+00" itree="505">
      <Node pos="s" depth="0" NCoef="0" IVar="6" Cut="1.7398384809494019e+00" cType="1" res="1.6094060265459120e-04" rms="3.8463532924652100e-01" purity="5.0023502111434937e-01" nType="0">
        <Node pos="l" depth="1" NCoef="0" IVar="6" Cut="-1.9074007868766785e-01" cType="1" res="-6.9283571792766452e-04" rms="3.8700580596923828e-01" purity="5.1350939273834229e-01" nType="0">
          <Node pos="l" depth="2" NCoef="0" IVar="8" Cut="-1.3318483531475067e-01" cType="1" res="4.2249718680977821e-03" rms="3.8319921493530273e-01" purity="4.8054721951484680e-01" nType="0">
            <Node pos="l" depth="3" NCoef="0" IVar="-1" Cut="0.0000000000000000e+00" cType="1" res="-3.1265050638467073e-03" rms="3.8125184178352356e-01" purity="4.5742398500442505e-01" nType="-99"/>
            <Node pos="r" depth="3" NCoef="0" IVar="-1" Cut="0.0000000000000000e+00" cType="1" res="8.6556719616055489e-03" rms="3.8489204645156860e-01" purity="5.0312411785125732e-01" nType="-99"/>
          </Node>
          <Node pos="r" depth="2" NCoef="0" IVar="5" Cut="8.5091667175292969e+01" cType="1" res="-4.5459927059710026e-03" rms="3.8991904258728027e-01" purity="5.3933566808700562e-01" nType="0">
            <Node pos="l" depth="3" NCoef="0" IVar="-1" Cut="0.0000000000000000e+00" cType="1" res="-6.5812156535685062e-03" rms="4.0245521068572998e-01" purity="3.6688497662544250e-01" nType="-99"/>
            <Node pos="r" depth="3" NCoef="0" IVar="-1" Cut="0.0000000000000000e+00" cType="1" res="1.5912258531898260e-03" rms="3.7567746639251709e-01" purity="7.2707772254943848e-01" nType="-99"/>
          </Node>
        </Node>
        <Node pos="r" depth="1" NCoef="0" IVar="-1" Cut="0.0000000000000000e+00" cType="1" res="2.0596846938133240e-02" rms="3.2352554798126221e-01" purity="1.8920704722404480e-01" nType="-99"/>
      </Node>
    </BinaryTree>
    <BinaryTree type="DecisionTree" boostWeight="1.0000000000000000e+00" itree="506">
      <Node pos="s" depth="0" NCoef="0" IVar="1" Cut="1.4097248535156250e+03" cType="1" res="1.0537266498431563e-03" rms="3.8561522960662842e-01" purity="4.9713203310966492e-01" nType="0">
        <Node pos="l" depth="1" NCoef="0" IVar="5" Cut="5.9554664611816406e+01" cType="1" res="4.0783714503049850e-03" rms="3.9915582537651062e-01" purity="3.6952245235443115e-01" nType="0">
          <Node pos="l" depth="2" NCoef="0" IVar="4" Cut="7.6053695678710938e+01" cType="1" res="1.3942355290055275e-02" rms="3.6516922712326050e-01" purity="2.2115907073020935e-01" nType="0">
            <Node pos="l" depth="3" NCoef="0" IVar="-1" Cut="0.0000000000000000e+00" cType="1" res="1.2083187466487288e-03" rms="3.1437447667121887e-01" purity="1.2919136881828308e-01" nType="-99"/>
            <Node pos="r" depth="3" NCoef="0" IVar="-1" Cut="0.0000000000000000e+00" cType="1" res="1.5998041257262230e-02" rms="4.0201553702354431e-01" purity="2.9713201522827148e-01" nType="-99"/>
          </Node>
          <Node pos="r" depth="2" NCoef="0" IVar="1" Cut="1.2355166015625000e+03" cType="1" res="7.5997906969860196e-04" rms="4.0990319848060608e-01" purity="4.1943410038948059e-01" nType="0">
            <Node pos="l" depth="3" NCoef="0" IVar="-1" Cut="0.0000000000000000e+00" cType="1" res="-2.5763392914086580e-03" rms="4.0857011079788208e-01" purity="3.3833006024360657e-01" nType="-99"/>
            <Node pos="r" depth="3" NCoef="0" IVar="-1" Cut="0.0000000000000000e+00" cType="1" res="7.1372939273715019e-03" rms="4.1264405846595764e-01" purity="6.0107910633087158e-01" nType="-99"/>
          </Node>
        </Node>
        <Node pos="r" depth="1" NCoef="0" IVar="0" Cut="4.4441247558593750e+02" cType="1" res="-4.6674818731844425e-03" rms="3.5853752493858337e-01" purity="7.3850953578948975e-01" nType="0">
          <Node pos="l" depth="2" NCoef="0" IVar="0" Cut="3.5501187133789062e+02" cType="1" res="-1.5337787568569183e-02" rms="3.9667367935180664e-01" purity="5.8131599426269531e-01" nType="0">
            <Node pos="l" depth="3" NCoef="0" IVar="-1" Cut="0.0000000000000000e+00" cType="1" res="-2.3293199017643929e-02" rms="4.0363427996635437e-01" purity="4.7962677478790283e-01" nType="-99"/>
            <Node pos="r" depth="3" NCoef="0" IVar="-1" Cut="0.0000000000000000e+00" cType="1" res="-2.8012180700898170e-03" rms="3.9301306009292603e-01" purity="6.2704330682754517e-01" nType="-99"/>
          </Node>
          <Node pos="r" depth="2" NCoef="0" IVar="4" Cut="9.9487312316894531e+01" cType="1" res="-9.4689824618399143e-04" rms="3.4417027235031128e-01" purity="7.9332059621810913e-01" nType="0">
            <Node pos="l" depth="3" NCoef="0" IVar="-1" Cut="0.0000000000000000e+00" cType="1" res="-1.0533037595450878e-02" rms="4.3120515346527100e-01" purity="5.1316970586776733e-01" nType="-99"/>
            <Node pos="r" depth="3" NCoef="0" IVar="-1" Cut="0.0000000000000000e+00" cType="1" res="1.2350829783827066e-03" rms="3.3195355534553528e-01" purity="8.2740300893783569e-01" nType="-99"/>
          </Node>
        </Node>
      </Node>
    </BinaryTree>
    <BinaryTree type="DecisionTree" boostWeight="1.0000000000000000e+00" itree="507">
      <Node pos="s" depth="0" NCoef="0" IVar="3" Cut="1.4158183288574219e+02" cType="1" res="-2.7916259132325649e-03" rms="3.8267448544502258e-01" purity="4.9796277284622192e-01" nType="0">
        <Node pos="l" depth="1" NCoef="0" IVar="3" Cut="8.5894363403320312e+01" cType="1" res="-1.4765361323952675e-02" rms="3.5383251309394836e-01" purity="2.1084666252136230e-01" nType="0">
          <Node pos="l" depth="2" NCoef="0" IVar="-1" Cut="0.0000000000000000e+00" cType="1" res="1.9456159323453903e-02" rms="2.9417493939399719e-01" purity="1.0792346298694611e-01" nType="-99"/>
          <Node pos="r" depth="2" NCoef="0" IVar="6" Cut="1.2094621658325195e+00" cType="1" res="-1.9603237509727478e-02" rms="3.6241668462753296e-01" purity="2.2765974700450897e-01" nType="0">
            <Node pos="l" depth="3" NCoef="0" IVar="-1" Cut="0.0000000000000000e+00" cType="1" res="-9.8795155063271523e-03" rms="3.7867507338523865e-01" purity="2.5327908992767334e-01" nType="-99"/>
            <Node pos="r" depth="3" NCoef="0" IVar="-1" Cut="0.0000000000000000e+00" cType="1" res="-5.5192075669765472e-02" rms="2.3788079619407654e-01" purity="7.0753172039985657e-02" nType="-99"/>
          </Node>
        </Node>
        <Node pos="r" depth="1" NCoef="0" IVar="0" Cut="7.4111865234375000e+02" cType="1" res="5.8844860177487135e-04" rms="3.9036440849304199e-01" purity="5.7901298999786377e-01" nType="0">
          <Node pos="l" depth="2" NCoef="0" IVar="3" Cut="1.9287062072753906e+02" cType="1" res="1.8542120233178139e-03" rms="3.9373788237571716e-01" purity="5.6281852722167969e-01" nType="0">
            <Node pos="l" depth="3" NCoef="0" IVar="-1" Cut="0.0000000000000000e+00" cType="1" res="5.3373989649116993e-03" rms="4.1072028875350952e-01" purity="4.4354656338691711e-01" nType="-99"/>
            <Node pos="r" depth="3" NCoef="0" IVar="-1" Cut="0.0000000000000000e+00" cType="1" res="-1.1027270229533315e-03" rms="3.8506558537483215e-01" purity="6.2145388126373291e-01" nType="-99"/>
          </Node>
          <Node pos="r" depth="2" NCoef="0" IVar="-1" Cut="0.0000000000000000e+00" cType="1" res="-1.7781257629394531e-02" rms="3.3399388194084167e-01" purity="8.2656019926071167e-01" nType="-99"/>
        </Node>
      </Node>
    </BinaryTree>
    <BinaryTree type="DecisionTree" boostWeight="1.0000000000000000e+00" itree="508">
      <Node pos="s" depth="0" NCoef="0" IVar="6" Cut="1.7399832010269165e+00" cType="1" res="-1.1726749362424016e-03" rms="3.8642916083335876e-01" purity="4.9450957775115967e-01" nType="0">
        <Node pos="l" depth="1" NCoef="0" IVar="9" Cut="-1.9997786283493042e+00" cType="1" res="-1.3678858522325754e-04" rms="3.9019826054573059e-01" purity="5.0868600606918335e-01" nType="0">
          <Node pos="l" depth="2" NCoef="0" IVar="6" Cut="-1.9071248173713684e-01" cType="1" res="2.0000977441668510e-02" rms="3.9240074157714844e-01" purity="3.6536285281181335e-01" nType="0">
            <Node pos="l" depth="3" NCoef="0" IVar="-1" Cut="0.0000000000000000e+00" cType="1" res="1.6050608828663826e-02" rms="3.7235319614410400e-01" purity="3.4080237150192261e-01" nType="-99"/>
            <Node pos="r" depth="3" NCoef="0" IVar="-1" Cut="0.0000000000000000e+00" cType="1" res="1.1608771979808807e-02" rms="4.1120040416717529e-01" purity="3.8957586884498596e-01" nType="-99"/>
          </Node>
          <Node pos="r" depth="2" NCoef="0" IVar="8" Cut="-1.9999740123748779e+00" cType="1" res="-1.2789297616109252e-03" rms="3.9004179835319519e-01" purity="5.1681482791900635e-01" nType="0">
            <Node pos="l" depth="3" NCoef="0" IVar="-1" Cut="0.0000000000000000e+00" cType="1" res="-1.9289385527372360e-02" rms="3.4892007708549500e-01" purity="2.3652511835098267e-01" nType="-99"/>
            <Node pos="r" depth="3" NCoef="0" IVar="-1" Cut="0.0000000000000000e+00" cType="1" res="-1.5127618098631501e-04" rms="3.9169234037399292e-01" purity="5.2895987033843994e-01" nType="-99"/>
          </Node>
        </Node>
        <Node pos="r" depth="1" NCoef="0" IVar="-1" Cut="0.0000000000000000e+00" cType="1" res="-2.8129642829298973e-02" rms="2.7620193362236023e-01" purity="1.4407603442668915e-01" nType="-99"/>
      </Node>
    </BinaryTree>
    <BinaryTree type="DecisionTree" boostWeight="1.0000000000000000e+00" itree="509">
      <Node pos="s" depth="0" NCoef="0" IVar="7" Cut="1.7332985401153564e+00" cType="1" res="3.5733936820179224e-03" rms="3.8351249694824219e-01" purity="5.0598692893981934e-01" nType="0">
        <Node pos="l" depth="1" NCoef="0" IVar="8" Cut="-6.6671133041381836e-01" cType="1" res="4.9918759614229202e-03" rms="3.8652199506759644e-01" purity="5.2412492036819458e-01" nType="0">
          <Node pos="l" depth="2" NCoef="0" IVar="4" Cut="1.4032882690429688e+02" cType="1" res="1.2431381270289421e-02" rms="3.8970929384231567e-01" purity="4.6814170479774475e-01" nType="0">
            <Node pos="l" depth="3" NCoef="0" IVar="-1" Cut="0.0000000000000000e+00" cType="1" res="1.3755553402006626e-02" rms="3.9239522814750671e-01" purity="3.6390334367752075e-01" nType="-99"/>
            <Node pos="r" depth="3" NCoef="0" IVar="-1" Cut="0.0000000000000000e+00" cType="1" res="-2.0376450847834349e-03" rms="3.8435754179954529e-01" purity="6.5524202585220337e-01" nType="-99"/>
          </Node>
          <Node pos="r" depth="2" NCoef="0" IVar="9" Cut="-3.9992815256118774e-01" cType="1" res="1.9457986345514655e-03" rms="3.8516792654991150e-01" purity="5.4704701900482178e-01" nType="0">
            <Node pos="l" depth="3" NCoef="0" IVar="-1" Cut="0.0000000000000000e+00" cType="1" res="-3.0107719358056784e-03" rms="3.8553202152252197e-01" purity="5.3247362375259399e-01" nType="-99"/>
            <Node pos="r" depth="3" NCoef="0" IVar="-1" Cut="0.0000000000000000e+00" cType="1" res="3.7329052574932575e-03" rms="3.8491722941398621e-01" purity="5.5515635013580322e-01" nType="-99"/>
          </Node>
        </Node>
        <Node pos="r" depth="1" NCoef="0" IVar="6" Cut="1.7184086143970490e-01" cType="1" res="-2.0721234381198883e-02" rms="3.2675075531005859e-01" purity="1.9533400237560272e-01" nType="0">
          <Node pos="l" depth="2" NCoef="0" IVar="-1" Cut="0.0000000000000000e+00" cType="1" res="-6.2131127342581749e-03" rms="3.4364825487136841e-01" purity="2.0699377357959747e-01" nType="-99"/>
          <Node pos="r" depth="2" NCoef="0" IVar="-1" Cut="0.0000000000000000e+00" cType="1" res="-3.2201938331127167e-02" rms="3.0419820547103882e-01" purity="1.8116547167301178e-01" nType="-99"/>
        </Node>
      </Node>
    </BinaryTree>
    <BinaryTree type="DecisionTree" boostWeight="1.0000000000000000e+00" itree="510">
      <Node pos="s" depth="0" NCoef="0" IVar="7" Cut="1.7333439588546753e+00" cType="1" res="-7.7474315185099840e-04" rms="3.8353297114372253e-01" purity="5.0053375959396362e-01" nType="0">
        <Node pos="l" depth="1" NCoef="0" IVar="9" Cut="-2.2665774822235107e+00" cType="1" res="-1.9937625620514154e-03" rms="3.8536202907562256e-01" purity="5.1675611734390259e-01" nType="0">
          <Node pos="l" depth="2" NCoef="0" IVar="-1" Cut="0.0000000000000000e+00" cType="1" res="-1.9902294501662254e-02" rms="3.7021684646606445e-01" purity="3.0088752508163452e-01" nType="-99"/>
          <Node pos="r" depth="2" NCoef="0" IVar="7" Cut="1.3015831708908081e+00" cType="1" res="-1.2528641382232308e-03" rms="3.8577082753181458e-01" purity="5.2306735515594482e-01" nType="0">
            <Node pos="l" depth="3" NCoef="0" IVar="-1" Cut="0.0000000000000000e+00" cType="1" res="-1.1545565212145448e-04" rms="3.8658401370048523e-01" purity="5.3485786914825439e-01" nType="-99"/>
            <Node pos="r" depth="3" NCoef="0" IVar="-1" Cut="0.0000000000000000e+00" cType="1" res="-1.2168451212346554e-02" rms="3.7246856093406677e-01" purity="3.3935087919235229e-01" nType="-99"/>
          </Node>
        </Node>
        <Node pos="r" depth="1" NCoef="0" IVar="9" Cut="1.3287049531936646e-01" cType="1" res="1.8447127193212509e-02" rms="3.5288622975349426e-01" purity="2.4473427236080170e-01" nType="0">
          <Node pos="l" depth="2" NCoef="0" IVar="-1" Cut="0.0000000000000000e+00" cType="1" res="4.8034479841589928e-03" rms="3.4514296054840088e-01" purity="2.5577610731124878e-01" nType="-99"/>
          <Node pos="r" depth="2" NCoef="0" IVar="-1" Cut="0.0000000000000000e+00" cType="1" res="2.4711128324270248e-02" rms="3.5916900634765625e-01" purity="2.3507814109325409e-01" nType="-99"/>
        </Node>
      </Node>
    </BinaryTree>
    <BinaryTree type="DecisionTree" boostWeight="1.0000000000000000e+00" itree="511">
      <Node pos="s" depth="0" NCoef="0" IVar="7" Cut="-1.1999647617340088e+00" cType="1" res="2.9922975227236748e-03" rms="3.8247239589691162e-01" purity="5.0304818153381348e-01" nType="0">
        <Node pos="l" depth="1" NCoef="0" IVar="6" Cut="6.9626766443252563e-01" cType="1" res="-1.5693988651037216e-02" rms="3.5460817813873291e-01" purity="2.8177845478057861e-01" nType="0">
          <Node pos="l" depth="2" NCoef="0" IVar="2" Cut="3.1034176635742188e+02" cType="1" res="-6.5509323030710220e-03" rms="3.7753525376319885e-01" purity="3.2262465357780457e-01" nType="0">
            <Node pos="l" depth="3" NCoef="0" IVar="-1" Cut="0.0000000000000000e+00" cType="1" res="8.1448350101709366e-03" rms="3.7168863415718079e-01" purity="3.3333486318588257e-01" nType="-99"/>
            <Node pos="r" depth="3" NCoef="0" IVar="-1" Cut="0.0000000000000000e+00" cType="1" res="-1.4983794651925564e-02" rms="3.8178345561027527e-01" purity="3.1347835063934326e-01" nType="-99"/>
          </Node>
          <Node pos="r" depth="2" NCoef="0" IVar="-1" Cut="0.0000000000000000e+00" cType="1" res="-4.6433363109827042e-02" rms="2.6109787821769714e-01" purity="1.4465345442295074e-01" nType="-99"/>
        </Node>
        <Node pos="r" depth="1" NCoef="0" IVar="9" Cut="1.9999758005142212e+00" cType="1" res="5.7774260640144348e-03" rms="3.8637608289718628e-01" purity="5.3602766990661621e-01" nType="0">
          <Node pos="l" depth="2" NCoef="0" IVar="9" Cut="-1.4285624027252197e+00" cType="1" res="6.9190035574138165e-03" rms="3.8697862625122070e-01" purity="5.4655194282531738e-01" nType="0">
            <Node pos="l" depth="3" NCoef="0" IVar="-1" Cut="0.0000000000000000e+00" cType="1" res="-3.8980580866336823e-03" rms="3.8114011287689209e-01" purity="4.3821871280670166e-01" nType="-99"/>
            <Node pos="r" depth="3" NCoef="0" IVar="-1" Cut="0.0000000000000000e+00" cType="1" res="5.7100523263216019e-03" rms="3.8775384426116943e-01" purity="5.6170016527175903e-01" nType="-99"/>
          </Node>
          <Node pos="r" depth="2" NCoef="0" IVar="-1" Cut="0.0000000000000000e+00" cType="1" res="-1.0007060132920742e-02" rms="3.7493523955345154e-01" purity="3.4911674261093140e-01" nType="-99"/>
        </Node>
      </Node>
    </BinaryTree>
    <BinaryTree type="DecisionTree" boostWeight="1.0000000000000000e+00" itree="512">
      <Node pos="s" depth="0" NCoef="0" IVar="4" Cut="9.7389739990234375e+01" cType="1" res="3.1029114034026861e-03" rms="3.8591372966766357e-01" purity="5.0324785709381104e-01" nType="0">
        <Node pos="l" depth="1" NCoef="0" IVar="4" Cut="6.1319084167480469e+01" cType="1" res="-4.1385167278349400e-03" rms="3.6484685540199280e-01" purity="2.3586468398571014e-01" nType="0">
          <Node pos="l" depth="2" NCoef="0" IVar="-1" Cut="0.0000000000000000e+00" cType="1" res="-3.5731598734855652e-02" rms="2.6645776629447937e-01" purity="9.0310670435428619e-02" nType="-99"/>
          <Node pos="r" depth="2" NCoef="0" IVar="4" Cut="7.8495864868164062e+01" cType="1" res="-1.0164582636207342e-03" rms="3.7399125099182129e-01" purity="2.5192677974700928e-01" nType="0">
            <Node pos="l" depth="3" NCoef="0" IVar="-1" Cut="0.0000000000000000e+00" cType="1" res="8.5501624271273613e-03" rms="3.5613027215003967e-01" purity="2.0039992034435272e-01" nType="-99"/>
            <Node pos="r" depth="3" NCoef="0" IVar="-1" Cut="0.0000000000000000e+00" cType="1" res="-6.3278516754508018e-03" rms="3.8731852173805237e-01" purity="2.9276195168495178e-01" nType="-99"/>
          </Node>
        </Node>
        <Node pos="r" depth="1" NCoef="0" IVar="9" Cut="-1.4666414260864258e+00" cType="1" res="6.1117503792047501e-03" rms="3.9429715275764465e-01" purity="6.1434656381607056e-01" nType="0">
          <Node pos="l" depth="2" NCoef="0" IVar="4" Cut="1.3585168457031250e+02" cType="1" res="2.2307913750410080e-02" rms="4.0567222237586975e-01" purity="5.1187247037887573e-01" nType="0">
            <Node pos="l" depth="3" NCoef="0" IVar="-1" Cut="0.0000000000000000e+00" cType="1" res="2.6607820764183998e-02" rms="4.1950243711471558e-01" purity="4.1944465041160583e-01" nType="-99"/>
            <Node pos="r" depth="3" NCoef="0" IVar="-1" Cut="0.0000000000000000e+00" cType="1" res="2.9864206444472075e-03" rms="3.9324539899826050e-01" purity="5.8677101135253906e-01" nType="-99"/>
          </Node>
          <Node pos="r" depth="2" NCoef="0" IVar="9" Cut="5.6507718563079834e-01" cType="1" res="4.0364391170442104e-03" rms="3.9276751875877380e-01" purity="6.2747722864151001e-01" nType="0">
            <Node pos="l" depth="3" NCoef="0" IVar="-1" Cut="0.0000000000000000e+00" cType="1" res="-3.0036547104828060e-04" rms="3.9022514224052429e-01" purity="6.4699572324752808e-01" nType="-99"/>
            <Node pos="r" depth="3" NCoef="0" IVar="-1" Cut="0.0000000000000000e+00" cType="1" res="7.5640515424311161e-03" rms="3.9704164862632751e-01" purity="5.9343141317367554e-01" nType="-99"/>
          </Node>
        </Node>
      </Node>
    </BinaryTree>
    <BinaryTree type="DecisionTree" boostWeight="1.0000000000000000e+00" itree="513">
      <Node pos="s" depth="0" NCoef="0" IVar="7" Cut="-1.3323454558849335e-01" cType="1" res="-1.0477221803739667e-03" rms="3.8273867964744568e-01" purity="5.0040835142135620e-01" nType="0">
        <Node pos="l" depth="1" NCoef="0" IVar="5" Cut="1.0364788055419922e+02" cType="1" res="-6.0194549150764942e-03" rms="3.8047558069229126e-01" purity="4.8438745737075806e-01" nType="0">
          <Node pos="l" depth="2" NCoef="0" IVar="7" Cut="-8.9511716365814209e-01" cType="1" res="-1.1385300196707249e-02" rms="3.9124256372451782e-01" purity="3.6355379223823547e-01" nType="0">
            <Node pos="l" depth="3" NCoef="0" IVar="-1" Cut="0.0000000000000000e+00" cType="1" res="-2.4877132382243872e-03" rms="3.6702623963356018e-01" purity="2.7419871091842651e-01" nType="-99"/>
            <Node pos="r" depth="3" NCoef="0" IVar="-1" Cut="0.0000000000000000e+00" cType="1" res="-1.1056326329708099e-02" rms="4.1306746006011963e-01" purity="4.4955468177795410e-01" nType="-99"/>
          </Node>
          <Node pos="r" depth="2" NCoef="0" IVar="0" Cut="4.2096881103515625e+02" cType="1" res="5.8514419943094254e-03" rms="3.5521095991134644e-01" purity="7.5170850753784180e-01" nType="0">
            <Node pos="l" depth="3" NCoef="0" IVar="-1" Cut="0.0000000000000000e+00" cType="1" res="-8.0923829227685928e-03" rms="4.2044609785079956e-01" purity="5.6425964832305908e-01" nType="-99"/>
            <Node pos="r" depth="3" NCoef="0" IVar="-1" Cut="0.0000000000000000e+00" cType="1" res="1.7635470256209373e-02" rms="3.0797100067138672e-01" purity="8.6623805761337280e-01" nType="-99"/>
          </Node>
        </Node>
        <Node pos="r" depth="1" NCoef="0" IVar="9" Cut="-1.9999756813049316e+00" cType="1" res="2.9849845450371504e-03" rms="3.8451734185218811e-01" purity="5.1340335607528687e-01" nType="0">
          <Node pos="l" depth="2" NCoef="0" IVar="-1" Cut="0.0000000000000000e+00" cType="1" res="2.0220460370182991e-02" rms="3.8645404577255249e-01" purity="3.7923315167427063e-01" nType="-99"/>
          <Node pos="r" depth="2" NCoef="0" IVar="9" Cut="2.8569227457046509e-01" cType="1" res="1.6283680452033877e-03" rms="3.8437077403068542e-01" purity="5.2000117301940918e-01" nType="0">
            <Node pos="l" depth="3" NCoef="0" IVar="-1" Cut="0.0000000000000000e+00" cType="1" res="4.7826142981648445e-03" rms="3.8840866088867188e-01" purity="5.5378431081771851e-01" nType="-99"/>
            <Node pos="r" depth="3" NCoef="0" IVar="-1" Cut="0.0000000000000000e+00" cType="1" res="-3.1754362862557173e-03" rms="3.7963068485260010e-01" purity="4.8161166906356812e-01" nType="-99"/>
          </Node>
        </Node>
      </Node>
    </BinaryTree>
    <BinaryTree type="DecisionTree" boostWeight="1.0000000000000000e+00" itree="514">
      <Node pos="s" depth="0" NCoef="0" IVar="9" Cut="-2.2666356563568115e+00" cType="1" res="-4.8121865838766098e-03" rms="3.8131016492843628e-01" purity="4.9837359786033630e-01" nType="0">
        <Node pos="l" depth="1" NCoef="0" IVar="-1" Cut="0.0000000000000000e+00" cType="1" res="-2.4197719991207123e-02" rms="3.6088475584983826e-01" purity="2.8227707743644714e-01" nType="-99"/>
        <Node pos="r" depth="1" NCoef="0" IVar="9" Cut="-1.7840832471847534e+00" cType="1" res="-3.9700772613286972e-03" rms="3.8188529014587402e-01" purity="5.0497186183929443e-01" nType="0">
          <Node pos="l" depth="2" NCoef="0" IVar="-1" Cut="0.0000000000000000e+00" cType="1" res="1.2273369356989861e-02" rms="3.7770003080368042e-01" purity="4.0654069185256958e-01" nType="-99"/>
          <Node pos="r" depth="2" NCoef="0" IVar="7" Cut="-1.4666255712509155e+00" cType="1" res="-5.1553063094615936e-03" rms="3.8206940889358521e-01" purity="5.1019042730331421e-01" nType="0">
            <Node pos="l" depth="3" NCoef="0" IVar="-1" Cut="0.0000000000000000e+00" cType="1" res="9.9318837746977806e-03" rms="3.6147034168243408e-01" purity="2.8919798135757446e-01" nType="-99"/>
            <Node pos="r" depth="3" NCoef="0" IVar="-1" Cut="0.0000000000000000e+00" cType="1" res="-4.5676934532821178e-03" rms="3.8395243883132935e-01" purity="5.3149479627609253e-01" nType="-99"/>
          </Node>
        </Node>
      </Node>
    </BinaryTree>
    <BinaryTree type="DecisionTree" boostWeight="1.0000000000000000e+00" itree="515">
      <Node pos="s" depth="0" NCoef="0" IVar="9" Cut="-1.9999690055847168e+00" cType="1" res="-1.1636616545729339e-04" rms="3.8515383005142212e-01" purity="4.9553915858268738e-01" nType="0">
        <Node pos="l" depth="1" NCoef="0" IVar="7" Cut="-4.0002420544624329e-01" cType="1" res="2.2884927690029144e-02" rms="3.8463339209556580e-01" purity="3.6558106541633606e-01" nType="0">
          <Node pos="l" depth="2" NCoef="0" IVar="-1" Cut="0.0000000000000000e+00" cType="1" res="2.3908257484436035e-02" rms="3.7329059839248657e-01" purity="3.5611858963966370e-01" nType="-99"/>
          <Node pos="r" depth="2" NCoef="0" IVar="-1" Cut="0.0000000000000000e+00" cType="1" res="1.0157824493944645e-02" rms="3.9335596561431885e-01" purity="3.7320724129676819e-01" nType="-99"/>
        </Node>
        <Node pos="r" depth="1" NCoef="0" IVar="8" Cut="1.9998610019683838e+00" cType="1" res="-1.5000010607764125e-03" rms="3.8514131307601929e-01" purity="5.0335675477981567e-01" nType="0">
          <Node pos="l" depth="2" NCoef="0" IVar="8" Cut="1.3141623735427856e+00" cType="1" res="-2.5230536703020334e-03" rms="3.8635522127151489e-01" purity="5.1384252309799194e-01" nType="0">
            <Node pos="l" depth="3" NCoef="0" IVar="-1" Cut="0.0000000000000000e+00" cType="1" res="-3.8636676617898047e-04" rms="3.8727468252182007e-01" purity="5.2796256542205811e-01" nType="-99"/>
            <Node pos="r" depth="3" NCoef="0" IVar="-1" Cut="0.0000000000000000e+00" cType="1" res="-1.4472256414592266e-02" rms="3.7646698951721191e-01" purity="3.7235808372497559e-01" nType="-99"/>
          </Node>
          <Node pos="r" depth="2" NCoef="0" IVar="-1" Cut="0.0000000000000000e+00" cType="1" res="1.6653476282954216e-02" rms="3.5671302676200867e-01" purity="2.7313420176506042e-01" nType="-99"/>
        </Node>
      </Node>
    </BinaryTree>
    <BinaryTree type="DecisionTree" boostWeight="1.0000000000000000e+00" itree="516">
      <Node pos="s" depth="0" NCoef="0" IVar="6" Cut="-1.1876537799835205e+00" cType="1" res="1.5239270869642496e-03" rms="3.8490128517150879e-01" purity="4.9886882305145264e-01" nType="0">
        <Node pos="l" depth="1" NCoef="0" IVar="0" Cut="3.8563375854492188e+02" cType="1" res="1.6820250079035759e-02" rms="3.5411849617958069e-01" purity="2.8804752230644226e-01" nType="0">
          <Node pos="l" depth="2" NCoef="0" IVar="7" Cut="-1.3316924870014191e-01" cType="1" res="-1.0257203131914139e-02" rms="3.0057770013809204e-01" purity="1.3121795654296875e-01" nType="0">
            <Node pos="l" depth="3" NCoef="0" IVar="-1" Cut="0.0000000000000000e+00" cType="1" res="-1.5985148493200541e-03" rms="2.9028445482254028e-01" purity="1.3010981678962708e-01" nType="-99"/>
            <Node pos="r" depth="3" NCoef="0" IVar="-1" Cut="0.0000000000000000e+00" cType="1" res="-1.8663138151168823e-02" rms="3.1015411019325256e-01" purity="1.3231103122234344e-01" nType="-99"/>
          </Node>
          <Node pos="r" depth="2" NCoef="0" IVar="0" Cut="4.6719183349609375e+02" cType="1" res="4.2414095252752304e-02" rms="3.9646467566490173e-01" purity="4.3628415465354919e-01" nType="0">
            <Node pos="l" depth="3" NCoef="0" IVar="-1" Cut="0.0000000000000000e+00" cType="1" res="4.0200926363468170e-02" rms="3.9703497290611267e-01" purity="3.1907582283020020e-01" nType="-99"/>
            <Node pos="r" depth="3" NCoef="0" IVar="-1" Cut="0.0000000000000000e+00" cType="1" res="1.8042488023638725e-02" rms="3.9547368884086609e-01" purity="5.4814499616622925e-01" nType="-99"/>
          </Node>
        </Node>
        <Node pos="r" depth="1" NCoef="0" IVar="0" Cut="4.4703970336914062e+02" cType="1" res="-4.5633298577740788e-04" rms="3.8866424560546875e-01" purity="5.2616173028945923e-01" nType="0">
          <Node pos="l" depth="2" NCoef="0" IVar="9" Cut="4.0008312463760376e-01" cType="1" res="3.6184026394039392e-03" rms="4.0121653676033020e-01" purity="3.8585782051086426e-01" nType="0">
            <Node pos="l" depth="3" NCoef="0" IVar="-1" Cut="0.0000000000000000e+00" cType="1" res="5.6082229129970074e-03" rms="4.0413814783096313e-01" purity="4.1033747792243958e-01" nType="-99"/>
            <Node pos="r" depth="3" NCoef="0" IVar="-1" Cut="0.0000000000000000e+00" cType="1" res="-3.4494390711188316e-03" rms="3.9637538790702820e-01" purity="3.4706836938858032e-01" nType="-99"/>
          </Node>
          <Node pos="r" depth="2" NCoef="0" IVar="9" Cut="1.7332652807235718e+00" cType="1" res="-6.0917907394468784e-03" rms="3.7053033709526062e-01" purity="7.2020542621612549e-01" nType="0">
            <Node pos="l" depth="3" NCoef="0" IVar="-1" Cut="0.0000000000000000e+00" cType="1" res="-6.3234507106244564e-03" rms="3.6681142449378967e-01" purity="7.2891449928283691e-01" nType="-99"/>
            <Node pos="r" depth="3" NCoef="0" IVar="-1" Cut="0.0000000000000000e+00" cType="1" res="1.4291053637862206e-02" rms="4.1053998470306396e-01" purity="6.1800318956375122e-01" nType="-99"/>
          </Node>
        </Node>
      </Node>
    </BinaryTree>
    <BinaryTree type="DecisionTree" boostWeight="1.0000000000000000e+00" itree="517">
      <Node pos="s" depth="0" NCoef="0" IVar="2" Cut="6.3697064208984375e+02" cType="1" res="1.3742631999775767e-03" rms="3.8395726680755615e-01" purity="5.0182539224624634e-01" nType="0">
        <Node pos="l" depth="1" NCoef="0" IVar="3" Cut="1.0723251342773438e+02" cType="1" res="-2.4499048595316708e-04" rms="3.8296633958816528e-01" purity="4.9425277113914490e-01" nType="0">
          <Node pos="l" depth="2" NCoef="0" IVar="4" Cut="7.9860649108886719e+01" cType="1" res="-1.8402846530079842e-02" rms="3.0549564957618713e-01" purity="1.2641136348247528e-01" nType="0">
            <Node pos="l" depth="3" NCoef="0" IVar="-1" Cut="0.0000000000000000e+00" cType="1" res="-1.1194749735295773e-02" rms="2.8454542160034180e-01" purity="9.4255171716213226e-02" nType="-99"/>
            <Node pos="r" depth="3" NCoef="0" IVar="-1" Cut="0.0000000000000000e+00" cType="1" res="-2.4599896743893623e-02" rms="3.3852005004882812e-01" purity="1.8276433646678925e-01" nType="-99"/>
          </Node>
          <Node pos="r" depth="2" NCoef="0" IVar="6" Cut="-1.4326152801513672e+00" cType="1" res="1.5709843719378114e-03" rms="3.8982185721397400e-01" purity="5.3104072809219360e-01" nType="0">
            <Node pos="l" depth="3" NCoef="0" IVar="-1" Cut="0.0000000000000000e+00" cType="1" res="-1.8239811062812805e-02" rms="3.2165518403053284e-01" purity="2.2982250154018402e-01" nType="-99"/>
            <Node pos="r" depth="3" NCoef="0" IVar="-1" Cut="0.0000000000000000e+00" cType="1" res="2.1088221110403538e-03" rms="3.9427852630615234e-01" purity="5.5301249027252197e-01" nType="-99"/>
          </Node>
        </Node>
        <Node pos="r" depth="1" NCoef="0" IVar="9" Cut="1.3317063450813293e-01" cType="1" res="2.4214349687099457e-02" rms="3.9696857333183289e-01" purity="6.0863995552062988e-01" nType="0">
          <Node pos="l" depth="2" NCoef="0" IVar="-1" Cut="0.0000000000000000e+00" cType="1" res="2.2231580689549446e-02" rms="3.9211758971214294e-01" purity="6.3175934553146362e-01" nType="-99"/>
          <Node pos="r" depth="2" NCoef="0" IVar="-1" Cut="0.0000000000000000e+00" cType="1" res="4.0939608588814735e-03" rms="4.0256959199905396e-01" purity="5.7841867208480835e-01" nType="-99"/>
        </Node>
      </Node>
    </BinaryTree>
    <BinaryTree type="DecisionTree" boostWeight="1.0000000000000000e+00" itree="518">
      <Node pos="s" depth="0" NCoef="0" IVar="3" Cut="3.2651831054687500e+02" cType="1" res="1.0894230799749494e-03" rms="3.8525229692459106e-01" purity="5.0038886070251465e-01" nType="0">
        <Node pos="l" depth="1" NCoef="0" IVar="7" Cut="-3.9991906285285950e-01" cType="1" res="3.3392973709851503e-03" rms="3.8729059696197510e-01" purity="4.7746658325195312e-01" nType="0">
          <Node pos="l" depth="2" NCoef="0" IVar="9" Cut="6.6663235425949097e-01" cType="1" res="1.0893819853663445e-02" rms="3.8774302601814270e-01" purity="4.4663798809051514e-01" nType="0">
            <Node pos="l" depth="3" NCoef="0" IVar="-1" Cut="0.0000000000000000e+00" cType="1" res="1.2820382602512836e-02" rms="3.9314043521881104e-01" purity="4.6774983406066895e-01" nType="-99"/>
            <Node pos="r" depth="3" NCoef="0" IVar="-1" Cut="0.0000000000000000e+00" cType="1" res="-1.0222573764622211e-02" rms="3.6953949928283691e-01" purity="3.8185611367225647e-01" nType="-99"/>
          </Node>
          <Node pos="r" depth="2" NCoef="0" IVar="9" Cut="1.2000653743743896e+00" cType="1" res="-1.0067034745588899e-03" rms="3.8696327805519104e-01" purity="4.9520182609558105e-01" nType="0">
            <Node pos="l" depth="3" NCoef="0" IVar="-1" Cut="0.0000000000000000e+00" cType="1" res="-3.2623794395476580e-03" rms="3.8722705841064453e-01" purity="5.1266419887542725e-01" nType="-99"/>
            <Node pos="r" depth="3" NCoef="0" IVar="-1" Cut="0.0000000000000000e+00" cType="1" res="1.0164763778448105e-02" rms="3.8545286655426025e-01" purity="4.2331048846244812e-01" nType="-99"/>
          </Node>
        </Node>
        <Node pos="r" depth="1" NCoef="0" IVar="8" Cut="-6.6574400663375854e-01" cType="1" res="-1.6577277332544327e-02" rms="3.6837819218635559e-01" purity="6.8038171529769897e-01" nType="0">
          <Node pos="l" depth="2" NCoef="0" IVar="-1" Cut="0.0000000000000000e+00" cType="1" res="-2.5952404364943504e-02" rms="3.8904294371604919e-01" purity="5.7716751098632812e-01" nType="-99"/>
          <Node pos="r" depth="2" NCoef="0" IVar="4" Cut="1.9222724914550781e+02" cType="1" res="-9.6741616725921631e-03" rms="3.6174097657203674e-01" purity="7.1096295118331909e-01" nType="0">
            <Node pos="l" depth="3" NCoef="0" IVar="-1" Cut="0.0000000000000000e+00" cType="1" res="-1.8179873004555702e-02" rms="3.8957419991493225e-01" purity="5.8813029527664185e-01" nType="-99"/>
            <Node pos="r" depth="3" NCoef="0" IVar="-1" Cut="0.0000000000000000e+00" cType="1" res="5.4400688968598843e-03" rms="3.3549162745475769e-01" purity="8.1516730785369873e-01" nType="-99"/>
          </Node>
        </Node>
      </Node>
    </BinaryTree>
    <BinaryTree type="DecisionTree" boostWeight="1.0000000000000000e+00" itree="519">
      <Node pos="s" depth="0" NCoef="0" IVar="2" Cut="6.5103533935546875e+02" cType="1" res="-4.2161168530583382e-03" rms="3.8184586167335510e-01" purity="4.9590370059013367e-01" nType="0">
        <Node pos="l" depth="1" NCoef="0" IVar="4" Cut="1.3196783447265625e+02" cType="1" res="-3.1083882786333561e-03" rms="3.8085672259330750e-01" purity="4.9180075526237488e-01" nType="0">
          <Node pos="l" depth="2" NCoef="0" IVar="4" Cut="1.0466047668457031e+02" cType="1" res="-1.0104183107614517e-02" rms="3.8494697213172913e-01" purity="3.1785735487937927e-01" nType="0">
            <Node pos="l" depth="3" NCoef="0" IVar="-1" Cut="0.0000000000000000e+00" cType="1" res="-2.0622629672288895e-03" rms="3.7098506093025208e-01" purity="2.4736018478870392e-01" nType="-99"/>
            <Node pos="r" depth="3" NCoef="0" IVar="-1" Cut="0.0000000000000000e+00" cType="1" res="-1.3568570837378502e-02" rms="4.0976932644844055e-01" purity="4.5153120160102844e-01" nType="-99"/>
          </Node>
          <Node pos="r" depth="2" NCoef="0" IVar="7" Cut="1.1999679803848267e+00" cType="1" res="5.1365760155022144e-03" rms="3.7581187486648560e-01" purity="6.9680351018905640e-01" nType="0">
            <Node pos="l" depth="3" NCoef="0" IVar="-1" Cut="0.0000000000000000e+00" cType="1" res="1.3772434322163463e-03" rms="3.7188723683357239e-01" purity="7.1806573867797852e-01" nType="-99"/>
            <Node pos="r" depth="3" NCoef="0" IVar="-1" Cut="0.0000000000000000e+00" cType="1" res="1.8369657918810844e-02" rms="4.0473163127899170e-01" purity="5.2796024084091187e-01" nType="-99"/>
          </Node>
        </Node>
        <Node pos="r" depth="1" NCoef="0" IVar="8" Cut="1.3332255184650421e-01" cType="1" res="-2.3431187495589256e-02" rms="3.9812332391738892e-01" purity="5.6707495450973511e-01" nType="0">
          <Node pos="l" depth="2" NCoef="0" IVar="-1" Cut="0.0000000000000000e+00" cType="1" res="-2.0027764141559601e-02" rms="4.0354314446449280e-01" purity="5.5532181262969971e-01" nType="-99"/>
          <Node pos="r" depth="2" NCoef="0" IVar="-1" Cut="0.0000000000000000e+00" cType="1" res="-7.6860832050442696e-03" rms="3.9184501767158508e-01" purity="5.7993900775909424e-01" nType="-99"/>
        </Node>
      </Node>
    </BinaryTree>
    <BinaryTree type="DecisionTree" boostWeight="1.0000000000000000e+00" itree="520">
      <Node pos="s" depth="0" NCoef="0" IVar="6" Cut="6.7321586608886719e-01" cType="1" res="9.5807037723716348e-05" rms="3.8418245315551758e-01" purity="4.9862641096115112e-01" nType="0">
        <Node pos="l" depth="1" NCoef="0" IVar="8" Cut="1.9998685121536255e+00" cType="1" res="-3.6005191504955292e-03" rms="3.8726347684860229e-01" purity="5.3379088640213013e-01" nType="0">
          <Node pos="l" depth="2" NCoef="0" IVar="9" Cut="1.9999401569366455e+00" cType="1" res="-2.2750496864318848e-03" rms="3.8818258047103882e-01" purity="5.4477256536483765e-01" nType="0">
            <Node pos="l" depth="3" NCoef="0" IVar="-1" Cut="0.0000000000000000e+00" cType="1" res="-2.3272826801985502e-03" rms="3.8845148682594299e-01" purity="5.4936426877975464e-01" nType="-99"/>
            <Node pos="r" depth="3" NCoef="0" IVar="-1" Cut="0.0000000000000000e+00" cType="1" res="1.3972952961921692e-02" rms="3.8255175948143005e-01" purity="4.6187737584114075e-01" nType="-99"/>
          </Node>
          <Node pos="r" depth="2" NCoef="0" IVar="-1" Cut="0.0000000000000000e+00" cType="1" res="-2.7837306261062622e-02" rms="3.6038234829902649e-01" purity="2.4372231960296631e-01" nType="-99"/>
        </Node>
        <Node pos="r" depth="1" NCoef="0" IVar="6" Cut="8.7579047679901123e-01" cType="1" res="1.1546195484697819e-02" rms="3.7424567341804504e-01" purity="3.8969472050666809e-01" nType="0">
          <Node pos="l" depth="2" NCoef="0" IVar="5" Cut="7.3925018310546875e+01" cType="1" res="3.5231519490480423e-02" rms="4.0715262293815613e-01" purity="5.6087130308151245e-01" nType="0">
            <Node pos="l" depth="3" NCoef="0" IVar="-1" Cut="0.0000000000000000e+00" cType="1" res="3.8033831864595413e-02" rms="4.1712173819541931e-01" purity="3.9780944585800171e-01" nType="-99"/>
            <Node pos="r" depth="3" NCoef="0" IVar="-1" Cut="0.0000000000000000e+00" cType="1" res="8.8525265455245972e-03" rms="3.9851245284080505e-01" purity="6.7802429199218750e-01" nType="-99"/>
          </Node>
          <Node pos="r" depth="2" NCoef="0" IVar="8" Cut="-3.9994770288467407e-01" cType="1" res="3.6066151224076748e-03" rms="3.6220064759254456e-01" purity="3.3231443166732788e-01" nType="0">
            <Node pos="l" depth="3" NCoef="0" IVar="-1" Cut="0.0000000000000000e+00" cType="1" res="-1.0080473497509956e-02" rms="3.5071223974227905e-01" purity="2.8202652931213379e-01" nType="-99"/>
            <Node pos="r" depth="3" NCoef="0" IVar="-1" Cut="0.0000000000000000e+00" cType="1" res="8.4929121658205986e-03" rms="3.6720088124275208e-01" purity="3.5587707161903381e-01" nType="-99"/>
          </Node>
        </Node>
      </Node>
    </BinaryTree>
    <BinaryTree type="DecisionTree" boostWeight="1.0000000000000000e+00" itree="521">
      <Node pos="s" depth="0" NCoef="0" IVar="4" Cut="1.4435690307617188e+02" cType="1" res="1.8160219769924879e-03" rms="3.8381135463714600e-01" purity="4.9844175577163696e-01" nType="0">
        <Node pos="l" depth="1" NCoef="0" IVar="3" Cut="1.3045257568359375e+02" cType="1" res="5.1539954729378223e-03" rms="3.9161205291748047e-01" purity="3.6593446135520935e-01" nType="0">
          <Node pos="l" depth="2" NCoef="0" IVar="5" Cut="6.4975135803222656e+01" cType="1" res="-6.5628322772681713e-03" rms="3.4294298291206360e-01" purity="1.9428291916847229e-01" nType="0">
            <Node pos="l" depth="3" NCoef="0" IVar="-1" Cut="0.0000000000000000e+00" cType="1" res="-1.7380198463797569e-02" rms="2.9223063588142395e-01" purity="1.1512945592403412e-01" nType="-99"/>
            <Node pos="r" depth="3" NCoef="0" IVar="-1" Cut="0.0000000000000000e+00" cType="1" res="3.8474956527352333e-03" rms="3.9430984854698181e-01" purity="2.8805258870124817e-01" nType="-99"/>
          </Node>
          <Node pos="r" depth="2" NCoef="0" IVar="7" Cut="6.6706311702728271e-01" cType="1" res="9.7747649997472763e-03" rms="4.0912503004074097e-01" purity="4.3362870812416077e-01" nType="0">
            <Node pos="l" depth="3" NCoef="0" IVar="-1" Cut="0.0000000000000000e+00" cType="1" res="8.2373423501849174e-03" rms="4.1409474611282349e-01" purity="4.7000917792320251e-01" nType="-99"/>
            <Node pos="r" depth="3" NCoef="0" IVar="-1" Cut="0.0000000000000000e+00" cType="1" res="-1.4651556266471744e-03" rms="3.9498206973075867e-01" purity="3.3426856994628906e-01" nType="-99"/>
          </Node>
        </Node>
        <Node pos="r" depth="1" NCoef="0" IVar="7" Cut="-1.3333575427532196e-01" cType="1" res="-3.5911493469029665e-03" rms="3.7076327204704285e-01" purity="7.1308982372283936e-01" nType="0">
          <Node pos="l" depth="2" NCoef="0" IVar="5" Cut="1.0246225738525391e+02" cType="1" res="2.2696203086525202e-03" rms="3.7012651562690735e-01" purity="7.1232795715332031e-01" nType="0">
            <Node pos="l" depth="3" NCoef="0" IVar="-1" Cut="0.0000000000000000e+00" cType="1" res="8.6692124605178833e-03" rms="4.0597906708717346e-01" purity="6.0624045133590698e-01" nType="-99"/>
            <Node pos="r" depth="3" NCoef="0" IVar="-1" Cut="0.0000000000000000e+00" cType="1" res="-4.1289934888482094e-03" rms="3.4639993309974670e-01" purity="7.7660137414932251e-01" nType="-99"/>
          </Node>
          <Node pos="r" depth="2" NCoef="0" IVar="6" Cut="-3.5694351792335510e-01" cType="1" res="-8.4938537329435349e-03" rms="3.7122404575347900e-01" purity="7.1372723579406738e-01" nType="0">
            <Node pos="l" depth="3" NCoef="0" IVar="-1" Cut="0.0000000000000000e+00" cType="1" res="-1.4333846047520638e-02" rms="3.8075631856918335e-01" purity="6.4958369731903076e-01" nType="-99"/>
            <Node pos="r" depth="3" NCoef="0" IVar="-1" Cut="0.0000000000000000e+00" cType="1" res="-2.1164789795875549e-03" rms="3.6674678325653076e-01" purity="7.4236667156219482e-01" nType="-99"/>
          </Node>
        </Node>
      </Node>
    </BinaryTree>
    <BinaryTree type="DecisionTree" boostWeight="1.0000000000000000e+00" itree="522">
      <Node pos="s" depth="0" NCoef="0" IVar="4" Cut="2.3533412170410156e+02" cType="1" res="1.0954729077639058e-04" rms="3.8468652963638306e-01" purity="4.9847820401191711e-01" nType="0">
        <Node pos="l" depth="1" NCoef="0" IVar="8" Cut="1.9999531507492065e+00" cType="1" res="1.6280990093946457e-03" rms="3.8840016722679138e-01" purity="4.7448763251304626e-01" nType="0">
          <Node pos="l" depth="2" NCoef="0" IVar="4" Cut="1.2944917297363281e+02" cType="1" res="5.5257993517443538e-04" rms="3.8988828659057617e-01" purity="4.8502123355865479e-01" nType="0">
            <Node pos="l" depth="3" NCoef="0" IVar="-1" Cut="0.0000000000000000e+00" cType="1" res="-1.7785450909286737e-03" rms="3.9292970299720764e-01" purity="3.3468225598335266e-01" nType="-99"/>
            <Node pos="r" depth="3" NCoef="0" IVar="-1" Cut="0.0000000000000000e+00" cType="1" res="3.1951116397976875e-03" rms="3.8591915369033813e-01" purity="6.7742770910263062e-01" nType="-99"/>
          </Node>
          <Node pos="r" depth="2" NCoef="0" IVar="-1" Cut="0.0000000000000000e+00" cType="1" res="1.8836878240108490e-02" rms="3.5605826973915100e-01" purity="2.6008045673370361e-01" nType="-99"/>
        </Node>
        <Node pos="r" depth="1" NCoef="0" IVar="5" Cut="1.6686529541015625e+02" cType="1" res="-1.8303785473108292e-02" rms="3.3586427569389343e-01" purity="7.8937828540802002e-01" nType="0">
          <Node pos="l" depth="2" NCoef="0" IVar="-1" Cut="0.0000000000000000e+00" cType="1" res="-2.1909462288022041e-02" rms="3.6392423510551453e-01" purity="7.2920757532119751e-01" nType="-99"/>
          <Node pos="r" depth="2" NCoef="0" IVar="-1" Cut="0.0000000000000000e+00" cType="1" res="-4.7554210759699345e-03" rms="2.9373037815093994e-01" purity="8.6960446834564209e-01" nType="-99"/>
        </Node>
      </Node>
    </BinaryTree>
    <BinaryTree type="DecisionTree" boostWeight="1.0000000000000000e+00" itree="523">
      <Node pos="s" depth="0" NCoef="0" IVar="8" Cut="9.3330478668212891e-01" cType="1" res="3.2917663338594139e-04" rms="3.8474074006080627e-01" purity="5.0190508365631104e-01" nType="0">
        <Node pos="l" depth="1" NCoef="0" IVar="3" Cut="1.4073664855957031e+02" cType="1" res="3.5222372971475124e-03" rms="3.8684716820716858e-01" purity="5.3327947854995728e-01" nType="0">
          <Node pos="l" depth="2" NCoef="0" IVar="9" Cut="-1.4665513038635254e+00" cType="1" res="1.5477212145924568e-02" rms="3.7717011570930481e-01" purity="2.5012919306755066e-01" nType="0">
            <Node pos="l" depth="3" NCoef="0" IVar="-1" Cut="0.0000000000000000e+00" cType="1" res="3.4264292567968369e-02" rms="3.5400483012199402e-01" purity="2.1013417840003967e-01" nType="-99"/>
            <Node pos="r" depth="3" NCoef="0" IVar="-1" Cut="0.0000000000000000e+00" cType="1" res="7.9500069841742516e-03" rms="3.8127288222312927e-01" purity="2.5775933265686035e-01" nType="-99"/>
          </Node>
          <Node pos="r" depth="2" NCoef="0" IVar="6" Cut="-3.7445420026779175e-01" cType="1" res="3.7564028752967715e-04" rms="3.8929319381713867e-01" purity="6.0780572891235352e-01" nType="0">
            <Node pos="l" depth="3" NCoef="0" IVar="-1" Cut="0.0000000000000000e+00" cType="1" res="5.4151527583599091e-03" rms="3.9800000190734863e-01" purity="5.5738633871078491e-01" nType="-99"/>
            <Node pos="r" depth="3" NCoef="0" IVar="-1" Cut="0.0000000000000000e+00" cType="1" res="-2.6243517640978098e-03" rms="3.8449999690055847e-01" purity="6.3469207286834717e-01" nType="-99"/>
          </Node>
        </Node>
        <Node pos="r" depth="1" NCoef="0" IVar="6" Cut="-6.0575973987579346e-01" cType="1" res="-1.1845123022794724e-02" rms="3.7635296583175659e-01" purity="3.8228294253349304e-01" nType="0">
          <Node pos="l" depth="2" NCoef="0" IVar="-1" Cut="0.0000000000000000e+00" cType="1" res="-2.5565294548869133e-02" rms="3.4622037410736084e-01" purity="2.7350819110870361e-01" nType="-99"/>
          <Node pos="r" depth="2" NCoef="0" IVar="7" Cut="4.0003284811973572e-01" cType="1" res="-5.2240667864680290e-03" rms="3.8464719057083130e-01" purity="4.1476857662200928e-01" nType="0">
            <Node pos="l" depth="3" NCoef="0" IVar="-1" Cut="0.0000000000000000e+00" cType="1" res="4.3262690305709839e-03" rms="3.9090374112129211e-01" purity="4.6771663427352905e-01" nType="-99"/>
            <Node pos="r" depth="3" NCoef="0" IVar="-1" Cut="0.0000000000000000e+00" cType="1" res="-1.4310331083834171e-02" rms="3.7570068240165710e-01" purity="3.4527012705802917e-01" nType="-99"/>
          </Node>
        </Node>
      </Node>
    </BinaryTree>
    <BinaryTree type="DecisionTree" boostWeight="1.0000000000000000e+00" itree="524">
      <Node pos="s" depth="0" NCoef="0" IVar="8" Cut="-1.9999934434890747e+00" cType="1" res="3.1953232828527689e-03" rms="3.8600954413414001e-01" purity="4.9866366386413574e-01" nType="0">
        <Node pos="l" depth="1" NCoef="0" IVar="-1" Cut="0.0000000000000000e+00" cType="1" res="2.5811089202761650e-02" rms="3.6516818404197693e-01" purity="2.8327205777168274e-01" nType="-99"/>
        <Node pos="r" depth="1" NCoef="0" IVar="2" Cut="3.4929779052734375e+02" cType="1" res="1.7615585820749402e-03" rms="3.8692459464073181e-01" purity="5.0901126861572266e-01" nType="0">
          <Node pos="l" depth="2" NCoef="0" IVar="2" Cut="2.6398648071289062e+02" cType="1" res="-3.6441031843423843e-03" rms="3.9336907863616943e-01" purity="4.6428897976875305e-01" nType="0">
            <Node pos="l" depth="3" NCoef="0" IVar="-1" Cut="0.0000000000000000e+00" cType="1" res="2.5550292339175940e-03" rms="4.0415033698081970e-01" purity="4.2906320095062256e-01" nType="-99"/>
            <Node pos="r" depth="3" NCoef="0" IVar="-1" Cut="0.0000000000000000e+00" cType="1" res="-6.3617867417633533e-03" rms="3.8488477468490601e-01" purity="4.9100473523139954e-01" nType="-99"/>
          </Node>
          <Node pos="r" depth="2" NCoef="0" IVar="7" Cut="1.4666217565536499e+00" cType="1" res="7.3460587300360203e-03" rms="3.8007143139839172e-01" purity="5.5521309375762939e-01" nType="0">
            <Node pos="l" depth="3" NCoef="0" IVar="-1" Cut="0.0000000000000000e+00" cType="1" res="3.5238605923950672e-03" rms="3.7931087613105774e-01" purity="5.7635271549224854e-01" nType="-99"/>
            <Node pos="r" depth="3" NCoef="0" IVar="-1" Cut="0.0000000000000000e+00" cType="1" res="2.3672396317124367e-02" rms="3.8779205083847046e-01" purity="3.1342452764511108e-01" nType="-99"/>
          </Node>
        </Node>
      </Node>
    </BinaryTree>
    <BinaryTree type="DecisionTree" boostWeight="1.0000000000000000e+00" itree="525">
      <Node pos="s" depth="0" NCoef="0" IVar="7" Cut="-1.4666260480880737e+00" cType="1" res="2.0400716457515955e-03" rms="3.8307908177375793e-01" purity="5.0411552190780640e-01" nType="0">
        <Node pos="l" depth="1" NCoef="0" IVar="9" Cut="-9.3409007787704468e-01" cType="1" res="-2.0149825140833855e-02" rms="3.3796450495719910e-01" purity="2.4629852175712585e-01" nType="0">
          <Node pos="l" depth="2" NCoef="0" IVar="-1" Cut="0.0000000000000000e+00" cType="1" res="-4.2377393692731857e-02" rms="3.0698829889297485e-01" purity="1.6555449366569519e-01" nType="-99"/>
          <Node pos="r" depth="2" NCoef="0" IVar="7" Cut="-1.8475935459136963e+00" cType="1" res="-6.8474016152322292e-03" rms="3.5046508908271790e-01" purity="2.8335326910018921e-01" nType="0">
            <Node pos="l" depth="3" NCoef="0" IVar="-1" Cut="0.0000000000000000e+00" cType="1" res="-2.4047540500760078e-02" rms="3.2312110066413879e-01" purity="1.9267103075981140e-01" nType="-99"/>
            <Node pos="r" depth="3" NCoef="0" IVar="-1" Cut="0.0000000000000000e+00" cType="1" res="1.0022853501141071e-02" rms="3.7476897239685059e-01" purity="3.7460711598396301e-01" nType="-99"/>
          </Node>
        </Node>
        <Node pos="r" depth="1" NCoef="0" IVar="8" Cut="6.6663801670074463e-01" cType="1" res="4.1686431504786015e-03" rms="3.8706362247467041e-01" purity="5.2884668111801147e-01" nType="0">
          <Node pos="l" depth="2" NCoef="0" IVar="7" Cut="1.7841204404830933e+00" cType="1" res="7.0970848901197314e-04" rms="3.8731396198272705e-01" purity="5.5352753400802612e-01" nType="0">
            <Node pos="l" depth="3" NCoef="0" IVar="-1" Cut="0.0000000000000000e+00" cType="1" res="1.3084966922178864e-03" rms="3.8954421877861023e-01" purity="5.7206439971923828e-01" nType="-99"/>
            <Node pos="r" depth="3" NCoef="0" IVar="-1" Cut="0.0000000000000000e+00" cType="1" res="-2.0627047866582870e-02" rms="3.3922189474105835e-01" purity="1.8699049949645996e-01" nType="-99"/>
          </Node>
          <Node pos="r" depth="2" NCoef="0" IVar="0" Cut="6.5724322509765625e+02" cType="1" res="1.2703456915915012e-02" rms="3.8631269335746765e-01" purity="4.6794742345809937e-01" nType="0">
            <Node pos="l" depth="3" NCoef="0" IVar="-1" Cut="0.0000000000000000e+00" cType="1" res="5.8369548059999943e-03" rms="3.9061662554740906e-01" purity="4.2810329794883728e-01" nType="-99"/>
            <Node pos="r" depth="3" NCoef="0" IVar="-1" Cut="0.0000000000000000e+00" cType="1" res="3.3347789198160172e-02" rms="3.4413474798202515e-01" purity="8.2112741470336914e-01" nType="-99"/>
          </Node>
        </Node>
      </Node>
    </BinaryTree>
    <BinaryTree type="DecisionTree" boostWeight="1.0000000000000000e+00" itree="526">
      <Node pos="s" depth="0" NCoef="0" IVar="7" Cut="1.4666806459426880e+00" cType="1" res="-4.1014277376234531e-03" rms="3.8369619846343994e-01" purity="4.9475049972534180e-01" nType="0">
        <Node pos="l" depth="1" NCoef="0" IVar="6" Cut="1.2049012184143066e+00" cType="1" res="-2.7324394322931767e-03" rms="3.8731062412261963e-01" purity="5.1983696222305298e-01" nType="0">
          <Node pos="l" depth="2" NCoef="0" IVar="2" Cut="3.4031506347656250e+02" cType="1" res="-4.1345381177961826e-03" rms="3.9110946655273438e-01" purity="5.4656487703323364e-01" nType="0">
            <Node pos="l" depth="3" NCoef="0" IVar="-1" Cut="0.0000000000000000e+00" cType="1" res="-5.5689984001219273e-03" rms="4.0048542618751526e-01" purity="5.0142812728881836e-01" nType="-99"/>
            <Node pos="r" depth="3" NCoef="0" IVar="-1" Cut="0.0000000000000000e+00" cType="1" res="9.6614698122721165e-05" rms="3.8241532444953918e-01" purity="5.8722901344299316e-01" nType="-99"/>
          </Node>
          <Node pos="r" depth="2" NCoef="0" IVar="9" Cut="-1.3336728513240814e-01" cType="1" res="9.1411024332046509e-03" rms="3.5328444838523865e-01" purity="2.9349401593208313e-01" nType="0">
            <Node pos="l" depth="3" NCoef="0" IVar="-1" Cut="0.0000000000000000e+00" cType="1" res="2.7710720896720886e-02" rms="3.7400206923484802e-01" purity="3.2314640283584595e-01" nType="-99"/>
            <Node pos="r" depth="3" NCoef="0" IVar="-1" Cut="0.0000000000000000e+00" cType="1" res="-8.8867535814642906e-03" rms="3.3606046438217163e-01" purity="2.7204468846321106e-01" nType="-99"/>
          </Node>
        </Node>
        <Node pos="r" depth="1" NCoef="0" IVar="3" Cut="2.1189192199707031e+02" cType="1" res="-1.8303126096725464e-02" rms="3.4364566206932068e-01" purity="2.3450718820095062e-01" nType="0">
          <Node pos="l" depth="2" NCoef="0" IVar="5" Cut="7.1395202636718750e+01" cType="1" res="-2.2507903631776571e-03" rms="3.3814319968223572e-01" purity="1.9684702157974243e-01" nType="0">
            <Node pos="l" depth="3" NCoef="0" IVar="-1" Cut="0.0000000000000000e+00" cType="1" res="-2.3653469979763031e-02" rms="2.7377486228942871e-01" purity="8.9647561311721802e-02" nType="-99"/>
            <Node pos="r" depth="3" NCoef="0" IVar="-1" Cut="0.0000000000000000e+00" cType="1" res="1.2341619469225407e-02" rms="4.0015274286270142e-01" purity="3.2366463541984558e-01" nType="-99"/>
          </Node>
          <Node pos="r" depth="2" NCoef="0" IVar="-1" Cut="0.0000000000000000e+00" cType="1" res="-3.5173930227756500e-02" rms="3.5279965400695801e-01" purity="3.1634083390235901e-01" nType="-99"/>
        </Node>
      </Node>
    </BinaryTree>
    <BinaryTree type="DecisionTree" boostWeight="1.0000000000000000e+00" itree="527">
      <Node pos="s" depth="0" NCoef="0" IVar="3" Cut="1.4559339904785156e+02" cType="1" res="4.0454077534377575e-03" rms="3.8425746560096741e-01" purity="5.0379711389541626e-01" nType="0">
        <Node pos="l" depth="1" NCoef="0" IVar="7" Cut="1.4666733741760254e+00" cType="1" res="1.4463939704000950e-02" rms="3.7059721350669861e-01" purity="2.4917048215866089e-01" nType="0">
          <Node pos="l" depth="2" NCoef="0" IVar="3" Cut="8.6873199462890625e+01" cType="1" res="1.8860982730984688e-02" rms="3.7983849644660950e-01" purity="2.6751887798309326e-01" nType="0">
            <Node pos="l" depth="3" NCoef="0" IVar="-1" Cut="0.0000000000000000e+00" cType="1" res="-9.8738493397831917e-03" rms="2.8637203574180603e-01" purity="8.9817263185977936e-02" nType="-99"/>
            <Node pos="r" depth="3" NCoef="0" IVar="-1" Cut="0.0000000000000000e+00" cType="1" res="1.5516278333961964e-02" rms="3.9195156097412109e-01" purity="2.9455900192260742e-01" nType="-99"/>
          </Node>
          <Node pos="r" depth="2" NCoef="0" IVar="-1" Cut="0.0000000000000000e+00" cType="1" res="-1.5948392450809479e-02" rms="2.9896974563598633e-01" purity="1.2497109919786453e-01" nType="-99"/>
        </Node>
        <Node pos="r" depth="1" NCoef="0" IVar="7" Cut="-9.3328952789306641e-01" cType="1" res="7.5896317139267921e-04" rms="3.8840886950492859e-01" purity="5.8411711454391479e-01" nType="0">
          <Node pos="l" depth="2" NCoef="0" IVar="9" Cut="6.6626226902008057e-01" cType="1" res="-1.3522231020033360e-02" rms="3.8527628779411316e-01" purity="4.2203530669212341e-01" nType="0">
            <Node pos="l" depth="3" NCoef="0" IVar="-1" Cut="0.0000000000000000e+00" cType="1" res="-1.3675607740879059e-02" rms="3.8385409116744995e-01" purity="4.3224713206291199e-01" nType="-99"/>
            <Node pos="r" depth="3" NCoef="0" IVar="-1" Cut="0.0000000000000000e+00" cType="1" res="6.9581726565957069e-03" rms="3.8858050107955933e-01" purity="3.9121168851852417e-01" nType="-99"/>
          </Node>
          <Node pos="r" depth="2" NCoef="0" IVar="6" Cut="1.4736841917037964e+00" cType="1" res="3.7558211479336023e-03" rms="3.8899648189544678e-01" purity="6.1812937259674072e-01" nType="0">
            <Node pos="l" depth="3" NCoef="0" IVar="-1" Cut="0.0000000000000000e+00" cType="1" res="1.4769940171390772e-03" rms="3.8947790861129761e-01" purity="6.3590645790100098e-01" nType="-99"/>
            <Node pos="r" depth="3" NCoef="0" IVar="-1" Cut="0.0000000000000000e+00" cType="1" res="2.0388904958963394e-02" rms="3.8001191616058350e-01" purity="3.2091617584228516e-01" nType="-99"/>
          </Node>
        </Node>
      </Node>
    </BinaryTree>
    <BinaryTree type="DecisionTree" boostWeight="1.0000000000000000e+00" itree="528">
      <Node pos="s" depth="0" NCoef="0" IVar="0" Cut="4.4441235351562500e+02" cType="1" res="2.8956679161638021e-03" rms="3.8447773456573486e-01" purity="5.0546497106552124e-01" nType="0">
        <Node pos="l" depth="1" NCoef="0" IVar="6" Cut="4.1503372788429260e-01" cType="1" res="7.4200578965246677e-03" rms="3.9319592714309692e-01" purity="3.6422780156135559e-01" nType="0">
          <Node pos="l" depth="2" NCoef="0" IVar="0" Cut="3.2750704956054688e+02" cType="1" res="1.3530232012271881e-02" rms="4.0238130092620850e-01" purity="4.0046727657318115e-01" nType="0">
            <Node pos="l" depth="3" NCoef="0" IVar="-1" Cut="0.0000000000000000e+00" cType="1" res="-1.4748062239959836e-03" rms="3.8018259406089783e-01" purity="2.7649572491645813e-01" nType="-99"/>
            <Node pos="r" depth="3" NCoef="0" IVar="-1" Cut="0.0000000000000000e+00" cType="1" res="1.1186574585735798e-02" rms="4.0906876325607300e-01" purity="4.3993002176284790e-01" nType="-99"/>
          </Node>
          <Node pos="r" depth="2" NCoef="0" IVar="0" Cut="4.0315011596679688e+02" cType="1" res="-4.4175521470606327e-03" rms="3.7447696924209595e-01" purity="2.9401889443397522e-01" nType="0">
            <Node pos="l" depth="3" NCoef="0" IVar="-1" Cut="0.0000000000000000e+00" cType="1" res="-7.7678156085312366e-03" rms="3.6444795131683350e-01" purity="2.5751218199729919e-01" nType="-99"/>
            <Node pos="r" depth="3" NCoef="0" IVar="-1" Cut="0.0000000000000000e+00" cType="1" res="1.2158652767539024e-02" rms="4.0993401408195496e-01" purity="4.3465679883956909e-01" nType="-99"/>
          </Node>
        </Node>
        <Node pos="r" depth="1" NCoef="0" IVar="8" Cut="-1.1999777555465698e+00" cType="1" res="-3.4893329720944166e-03" rms="3.7173292040824890e-01" purity="7.0478451251983643e-01" nType="0">
          <Node pos="l" depth="2" NCoef="0" IVar="9" Cut="-1.3341175019741058e-01" cType="1" res="-2.8000554069876671e-02" rms="3.9395955204963684e-01" purity="5.5440199375152588e-01" nType="0">
            <Node pos="l" depth="3" NCoef="0" IVar="-1" Cut="0.0000000000000000e+00" cType="1" res="-2.9469514265656471e-02" rms="3.8771942257881165e-01" purity="5.2236849069595337e-01" nType="-99"/>
            <Node pos="r" depth="3" NCoef="0" IVar="-1" Cut="0.0000000000000000e+00" cType="1" res="-5.5105243809521198e-03" rms="3.9937150478363037e-01" purity="5.8736360073089600e-01" nType="-99"/>
          </Node>
          <Node pos="r" depth="2" NCoef="0" IVar="8" Cut="-4.3807718157768250e-01" cType="1" res="8.4582541603595018e-05" rms="3.6824384331703186e-01" purity="7.2671139240264893e-01" nType="0">
            <Node pos="l" depth="3" NCoef="0" IVar="-1" Cut="0.0000000000000000e+00" cType="1" res="1.1664185672998428e-02" rms="3.7682890892028809e-01" purity="7.5245398283004761e-01" nType="-99"/>
            <Node pos="r" depth="3" NCoef="0" IVar="-1" Cut="0.0000000000000000e+00" cType="1" res="-3.7083076313138008e-03" rms="3.6536979675292969e-01" purity="7.1867299079895020e-01" nType="-99"/>
          </Node>
        </Node>
      </Node>
    </BinaryTree>
    <BinaryTree type="DecisionTree" boostWeight="1.0000000000000000e+00" itree="529">
      <Node pos="s" depth="0" NCoef="0" IVar="3" Cut="1.4350981140136719e+02" cType="1" res="-5.6765220506349578e-05" rms="3.8557964563369751e-01" purity="5.0024247169494629e-01" nType="0">
        <Node pos="l" depth="1" NCoef="0" IVar="3" Cut="1.3475872802734375e+02" cType="1" res="1.1130199767649174e-02" rms="3.7078553438186646e-01" purity="2.4334204196929932e-01" nType="0">
          <Node pos="l" depth="2" NCoef="0" IVar="5" Cut="8.1028221130371094e+01" cType="1" res="4.3865898624062538e-03" rms="3.5993140935897827e-01" purity="2.1499980986118317e-01" nType="0">
            <Node pos="l" depth="3" NCoef="0" IVar="-1" Cut="0.0000000000000000e+00" cType="1" res="-1.4589831698685884e-03" rms="3.3999052643775940e-01" purity="1.6910658776760101e-01" nType="-99"/>
            <Node pos="r" depth="3" NCoef="0" IVar="-1" Cut="0.0000000000000000e+00" cType="1" res="1.7548179253935814e-02" rms="4.3635565042495728e-01" purity="4.1802781820297241e-01" nType="-99"/>
          </Node>
          <Node pos="r" depth="2" NCoef="0" IVar="-1" Cut="0.0000000000000000e+00" cType="1" res="2.7138078585267067e-02" rms="4.1863262653350830e-01" purity="3.8306725025177002e-01" nType="-99"/>
        </Node>
        <Node pos="r" depth="1" NCoef="0" IVar="8" Cut="1.7332528829574585e+00" cType="1" res="-3.4316319506615400e-03" rms="3.8986948132514954e-01" purity="5.7774382829666138e-01" nType="0">
          <Node pos="l" depth="2" NCoef="0" IVar="9" Cut="-1.7332121133804321e+00" cType="1" res="-1.7232223181053996e-03" rms="3.9111560583114624e-01" purity="5.9345906972885132e-01" nType="0">
            <Node pos="l" depth="3" NCoef="0" IVar="-1" Cut="0.0000000000000000e+00" cType="1" res="-1.2712139636278152e-02" rms="3.9445939660072327e-01" purity="4.3750560283660889e-01" nType="-99"/>
            <Node pos="r" depth="3" NCoef="0" IVar="-1" Cut="0.0000000000000000e+00" cType="1" res="-1.2252401211299002e-04" rms="3.9080113172531128e-01" purity="6.0620504617691040e-01" nType="-99"/>
          </Node>
          <Node pos="r" depth="2" NCoef="0" IVar="-1" Cut="0.0000000000000000e+00" cType="1" res="-2.0650057122111320e-02" rms="3.6834478378295898e-01" purity="3.2695898413658142e-01" nType="-99"/>
        </Node>
      </Node>
    </BinaryTree>
    <BinaryTree type="DecisionTree" boostWeight="1.0000000000000000e+00" itree="530">
      <Node pos="s" depth="0" NCoef="0" IVar="6" Cut="4.1914123296737671e-01" cType="1" res="1.5852925134822726e-03" rms="3.8462972640991211e-01" purity="5.0251984596252441e-01" nType="0">
        <Node pos="l" depth="1" NCoef="0" IVar="1" Cut="1.3944957275390625e+03" cType="1" res="-1.8619516631588340e-03" rms="3.8503876328468323e-01" purity="5.3228747844696045e-01" nType="0">
          <Node pos="l" depth="2" NCoef="0" IVar="0" Cut="3.4398007202148438e+02" cType="1" res="-7.1339188143610954e-03" rms="4.0138164162635803e-01" purity="3.8892430067062378e-01" nType="0">
            <Node pos="l" depth="3" NCoef="0" IVar="-1" Cut="0.0000000000000000e+00" cType="1" res="5.3887194953858852e-03" rms="3.8493812084197998e-01" purity="2.9028108716011047e-01" nType="-99"/>
            <Node pos="r" depth="3" NCoef="0" IVar="-1" Cut="0.0000000000000000e+00" cType="1" res="-8.2494728267192841e-03" rms="4.0865597128868103e-01" purity="4.3510490655899048e-01" nType="-99"/>
          </Node>
          <Node pos="r" depth="2" NCoef="0" IVar="9" Cut="-9.3332928419113159e-01" cType="1" res="6.5804095938801765e-03" rms="3.5715222358703613e-01" purity="7.6186460256576538e-01" nType="0">
            <Node pos="l" depth="3" NCoef="0" IVar="-1" Cut="0.0000000000000000e+00" cType="1" res="1.7526583746075630e-02" rms="3.7990128993988037e-01" purity="7.2245854139328003e-01" nType="-99"/>
            <Node pos="r" depth="3" NCoef="0" IVar="-1" Cut="0.0000000000000000e+00" cType="1" res="9.5533096464350820e-04" rms="3.5033521056175232e-01" purity="7.7288746833801270e-01" nType="-99"/>
          </Node>
        </Node>
        <Node pos="r" depth="1" NCoef="0" IVar="7" Cut="-3.9981058239936829e-01" cType="1" res="8.7182112038135529e-03" rms="3.8368362188339233e-01" purity="4.4092580676078796e-01" nType="0">
          <Node pos="l" depth="2" NCoef="0" IVar="2" Cut="4.3911517333984375e+02" cType="1" res="2.2128768265247345e-02" rms="3.8151460886001587e-01" purity="4.0827408432960510e-01" nType="0">
            <Node pos="l" depth="3" NCoef="0" IVar="-1" Cut="0.0000000000000000e+00" cType="1" res="2.3068543523550034e-02" rms="3.8607722520828247e-01" purity="4.0994897484779358e-01" nType="-99"/>
            <Node pos="r" depth="3" NCoef="0" IVar="-1" Cut="0.0000000000000000e+00" cType="1" res="-6.6013527102768421e-03" rms="3.6567726731300354e-01" purity="4.0324562788009644e-01" nType="-99"/>
          </Node>
          <Node pos="r" depth="2" NCoef="0" IVar="9" Cut="9.3343442678451538e-01" cType="1" res="2.1411480847746134e-03" rms="3.8457205891609192e-01" purity="4.5693951845169067e-01" nType="0">
            <Node pos="l" depth="3" NCoef="0" IVar="-1" Cut="0.0000000000000000e+00" cType="1" res="-3.7433260586112738e-03" rms="3.8656881451606750e-01" purity="4.7409576177597046e-01" nType="-99"/>
            <Node pos="r" depth="3" NCoef="0" IVar="-1" Cut="0.0000000000000000e+00" cType="1" res="1.3179415836930275e-02" rms="3.7966290116310120e-01" purity="4.1969156265258789e-01" nType="-99"/>
          </Node>
        </Node>
      </Node>
    </BinaryTree>
    <BinaryTree type="DecisionTree" boostWeight="1.0000000000000000e+00" itree="531">
      <Node pos="s" depth="0" NCoef="0" IVar="6" Cut="-6.3905012607574463e-01" cType="1" res="2.1964996994938701e-04" rms="3.8297122716903687e-01" purity="5.0151717662811279e-01" nType="0">
        <Node pos="l" depth="1" NCoef="0" IVar="6" Cut="-8.4059494733810425e-01" cType="1" res="9.5967315137386322e-03" rms="3.7870180606842041e-01" purity="3.9776140451431274e-01" nType="0">
          <Node pos="l" depth="2" NCoef="0" IVar="9" Cut="3.9970189332962036e-01" cType="1" res="4.0943734347820282e-03" rms="3.6716970801353455e-01" purity="3.4621572494506836e-01" nType="0">
            <Node pos="l" depth="3" NCoef="0" IVar="-1" Cut="0.0000000000000000e+00" cType="1" res="-2.3099356330931187e-03" rms="3.6382552981376648e-01" purity="3.3892351388931274e-01" nType="-99"/>
            <Node pos="r" depth="3" NCoef="0" IVar="-1" Cut="0.0000000000000000e+00" cType="1" res="1.3309150934219360e-02" rms="3.7328130006790161e-01" purity="3.6063539981842041e-01" nType="-99"/>
          </Node>
          <Node pos="r" depth="2" NCoef="0" IVar="7" Cut="1.3345067203044891e-01" cType="1" res="2.6549993082880974e-02" rms="4.1174772381782532e-01" purity="5.5657809972763062e-01" nType="0">
            <Node pos="l" depth="3" NCoef="0" IVar="-1" Cut="0.0000000000000000e+00" cType="1" res="6.5438323654234409e-03" rms="4.0764904022216797e-01" purity="5.5582976341247559e-01" nType="-99"/>
            <Node pos="r" depth="3" NCoef="0" IVar="-1" Cut="0.0000000000000000e+00" cType="1" res="2.7190387248992920e-02" rms="4.1615390777587891e-01" purity="5.5756086111068726e-01" nType="-99"/>
          </Node>
        </Node>
        <Node pos="r" depth="1" NCoef="0" IVar="7" Cut="1.3334324955940247e-01" cType="1" res="-2.9048116412013769e-03" rms="3.8433244824409485e-01" purity="5.3608882427215576e-01" nType="0">
          <Node pos="l" depth="2" NCoef="0" IVar="9" Cut="-9.3320590257644653e-01" cType="1" res="1.7128522740676999e-03" rms="3.8662171363830566e-01" purity="5.5536293983459473e-01" nType="0">
            <Node pos="l" depth="3" NCoef="0" IVar="-1" Cut="0.0000000000000000e+00" cType="1" res="9.6177291125059128e-03" rms="3.8936981558799744e-01" purity="5.1284968852996826e-01" nType="-99"/>
            <Node pos="r" depth="3" NCoef="0" IVar="-1" Cut="0.0000000000000000e+00" cType="1" res="-1.7478888621553779e-03" rms="3.8564142584800720e-01" purity="5.6890892982482910e-01" nType="-99"/>
          </Node>
          <Node pos="r" depth="2" NCoef="0" IVar="9" Cut="-1.4665702581405640e+00" cType="1" res="-8.3646383136510849e-03" rms="3.8153588771820068e-01" purity="5.1329952478408813e-01" nType="0">
            <Node pos="l" depth="3" NCoef="0" IVar="-1" Cut="0.0000000000000000e+00" cType="1" res="-2.1393066272139549e-02" rms="3.7733581662178040e-01" purity="3.9830583333969116e-01" nType="-99"/>
            <Node pos="r" depth="3" NCoef="0" IVar="-1" Cut="0.0000000000000000e+00" cType="1" res="-3.9629586972296238e-03" rms="3.8187029957771301e-01" purity="5.2486687898635864e-01" nType="-99"/>
          </Node>
        </Node>
      </Node>
    </BinaryTree>
    <BinaryTree type="DecisionTree" boostWeight="1.0000000000000000e+00" itree="532">
      <Node pos="s" depth="0" NCoef="0" IVar="8" Cut="-1.7333123683929443e+00" cType="1" res="-1.0205880971625447e-03" rms="3.8201159238815308e-01" purity="5.0243079662322998e-01" nType="0">
        <Node pos="l" depth="1" NCoef="0" IVar="6" Cut="1.6979062557220459e-01" cType="1" res="1.7556434497237206e-02" rms="3.7303417921066284e-01" purity="2.9985511302947998e-01" nType="0">
          <Node pos="l" depth="2" NCoef="0" IVar="-1" Cut="0.0000000000000000e+00" cType="1" res="5.4298094473779202e-03" rms="3.6704441905021667e-01" purity="3.0521097779273987e-01" nType="-99"/>
          <Node pos="r" depth="2" NCoef="0" IVar="-1" Cut="0.0000000000000000e+00" cType="1" res="2.4836998432874680e-02" rms="3.8134157657623291e-01" purity="2.9182893037796021e-01" nType="-99"/>
        </Node>
        <Node pos="r" depth="1" NCoef="0" IVar="7" Cut="1.2000335454940796e+00" cType="1" res="-2.4595628492534161e-03" rms="3.8266053795814514e-01" purity="5.1812225580215454e-01" nType="0">
          <Node pos="l" depth="2" NCoef="0" IVar="7" Cut="6.2863022089004517e-01" cType="1" res="-5.5701826931908727e-04" rms="3.8575297594070435e-01" purity="5.5098664760589600e-01" nType="0">
            <Node pos="l" depth="3" NCoef="0" IVar="-1" Cut="0.0000000000000000e+00" cType="1" res="-1.9511095015332103e-03" rms="3.8302126526832581e-01" purity="5.5095613002777100e-01" nType="-99"/>
            <Node pos="r" depth="3" NCoef="0" IVar="-1" Cut="0.0000000000000000e+00" cType="1" res="7.1374182589352131e-03" rms="3.9876192808151245e-01" purity="5.5113726854324341e-01" nType="-99"/>
          </Node>
          <Node pos="r" depth="2" NCoef="0" IVar="2" Cut="4.3079702758789062e+02" cType="1" res="-1.5115164220333099e-02" rms="3.6116215586662292e-01" purity="2.9951107501983643e-01" nType="0">
            <Node pos="l" depth="3" NCoef="0" IVar="-1" Cut="0.0000000000000000e+00" cType="1" res="-6.6600251011550426e-03" rms="3.6603972315788269e-01" purity="2.9129943251609802e-01" nType="-99"/>
            <Node pos="r" depth="3" NCoef="0" IVar="-1" Cut="0.0000000000000000e+00" cType="1" res="-2.4103604257106781e-02" rms="3.4456276893615723e-01" purity="3.2548469305038452e-01" nType="-99"/>
          </Node>
        </Node>
      </Node>
    </BinaryTree>
    <BinaryTree type="DecisionTree" boostWeight="1.0000000000000000e+00" itree="533">
      <Node pos="s" depth="0" NCoef="0" IVar="8" Cut="-1.3337561488151550e-01" cType="1" res="-1.0454528965055943e-03" rms="3.8521626591682434e-01" purity="4.9925258755683899e-01" nType="0">
        <Node pos="l" depth="1" NCoef="0" IVar="7" Cut="4.0010526776313782e-01" cType="1" res="-7.2421049699187279e-03" rms="3.8418447971343994e-01" purity="4.8314651846885681e-01" nType="0">
          <Node pos="l" depth="2" NCoef="0" IVar="3" Cut="1.4198680114746094e+02" cType="1" res="-1.2798692099750042e-02" rms="3.8379260897636414e-01" purity="4.9572595953941345e-01" nType="0">
            <Node pos="l" depth="3" NCoef="0" IVar="-1" Cut="0.0000000000000000e+00" cType="1" res="-2.0596448332071304e-02" rms="3.5016316175460815e-01" purity="2.0453712344169617e-01" nType="-99"/>
            <Node pos="r" depth="3" NCoef="0" IVar="-1" Cut="0.0000000000000000e+00" cType="1" res="-5.4862969554960728e-03" rms="3.9277532696723938e-01" purity="5.7899779081344604e-01" nType="-99"/>
          </Node>
          <Node pos="r" depth="2" NCoef="0" IVar="3" Cut="1.9053559875488281e+02" cType="1" res="5.1827984862029552e-03" rms="3.8476905226707458e-01" purity="4.5501801371574402e-01" nType="0">
            <Node pos="l" depth="3" NCoef="0" IVar="-1" Cut="0.0000000000000000e+00" cType="1" res="1.3887383975088596e-02" rms="3.8535773754119873e-01" purity="3.2708135247230530e-01" nType="-99"/>
            <Node pos="r" depth="3" NCoef="0" IVar="-1" Cut="0.0000000000000000e+00" cType="1" res="-5.7251700200140476e-03" rms="3.8370388746261597e-01" purity="5.7470166683197021e-01" nType="-99"/>
          </Node>
        </Node>
        <Node pos="r" depth="1" NCoef="0" IVar="1" Cut="1.1048660888671875e+03" cType="1" res="4.0336977690458298e-03" rms="3.8598576188087463e-01" purity="5.1245415210723877e-01" nType="0">
          <Node pos="l" depth="2" NCoef="0" IVar="6" Cut="-1.1509092897176743e-01" cType="1" res="1.5310526825487614e-02" rms="3.8315197825431824e-01" purity="2.4908696115016937e-01" nType="0">
            <Node pos="l" depth="3" NCoef="0" IVar="-1" Cut="0.0000000000000000e+00" cType="1" res="2.5508260354399681e-02" rms="3.9142897725105286e-01" purity="2.7056688070297241e-01" nType="-99"/>
            <Node pos="r" depth="3" NCoef="0" IVar="-1" Cut="0.0000000000000000e+00" cType="1" res="-7.7473905548686162e-06" rms="3.7633499503135681e-01" purity="2.3361942172050476e-01" nType="-99"/>
          </Node>
          <Node pos="r" depth="2" NCoef="0" IVar="7" Cut="-1.1999925374984741e+00" cType="1" res="-1.1724503710865974e-03" rms="3.8717624545097351e-01" purity="6.3404220342636108e-01" nType="0">
            <Node pos="l" depth="3" NCoef="0" IVar="-1" Cut="0.0000000000000000e+00" cType="1" res="1.2906493619084358e-02" rms="3.8995516300201416e-01" purity="4.4287592172622681e-01" nType="-99"/>
            <Node pos="r" depth="3" NCoef="0" IVar="-1" Cut="0.0000000000000000e+00" cType="1" res="-2.3635395336896181e-03" rms="3.8679450750350952e-01" purity="6.5517401695251465e-01" nType="-99"/>
          </Node>
        </Node>
      </Node>
    </BinaryTree>
    <BinaryTree type="DecisionTree" boostWeight="1.0000000000000000e+00" itree="534">
      <Node pos="s" depth="0" NCoef="0" IVar="9" Cut="-2.2666332721710205e+00" cType="1" res="-2.5456892326474190e-03" rms="3.8322666287422180e-01" purity="4.9603596329689026e-01" nType="0">
        <Node pos="l" depth="1" NCoef="0" IVar="-1" Cut="0.0000000000000000e+00" cType="1" res="-3.5726901143789291e-02" rms="3.4447687864303589e-01" purity="2.4539132416248322e-01" nType="-99"/>
        <Node pos="r" depth="1" NCoef="0" IVar="6" Cut="9.3906182050704956e-01" cType="1" res="-1.2783840065822005e-03" rms="3.8417854905128479e-01" purity="5.0305330753326416e-01" nType="0">
          <Node pos="l" depth="2" NCoef="0" IVar="8" Cut="1.4665750265121460e+00" cType="1" res="1.0100542567670345e-03" rms="3.9095044136047363e-01" purity="5.4020273685455322e-01" nType="0">
            <Node pos="l" depth="3" NCoef="0" IVar="-1" Cut="0.0000000000000000e+00" cType="1" res="-6.6344958031550050e-04" rms="3.9073196053504944e-01" purity="5.5626410245895386e-01" nType="-99"/>
            <Node pos="r" depth="3" NCoef="0" IVar="-1" Cut="0.0000000000000000e+00" cType="1" res="1.3263992033898830e-02" rms="3.9250323176383972e-01" purity="3.8629493117332458e-01" nType="-99"/>
          </Node>
          <Node pos="r" depth="2" NCoef="0" IVar="0" Cut="5.4374169921875000e+02" cType="1" res="-1.2905431911349297e-02" rms="3.4750819206237793e-01" purity="3.1430506706237793e-01" nType="0">
            <Node pos="l" depth="3" NCoef="0" IVar="-1" Cut="0.0000000000000000e+00" cType="1" res="-1.5187398530542850e-02" rms="3.4052163362503052e-01" purity="2.3610915243625641e-01" nType="-99"/>
            <Node pos="r" depth="3" NCoef="0" IVar="-1" Cut="0.0000000000000000e+00" cType="1" res="1.0795680806040764e-02" rms="3.7781968712806702e-01" purity="6.8871510028839111e-01" nType="-99"/>
          </Node>
        </Node>
      </Node>
    </BinaryTree>
    <BinaryTree type="DecisionTree" boostWeight="1.0000000000000000e+00" itree="535">
      <Node pos="s" depth="0" NCoef="0" IVar="6" Cut="1.2100057601928711e+00" cType="1" res="3.9301933720707893e-03" rms="3.8370704650878906e-01" purity="5.0556898117065430e-01" nType="0">
        <Node pos="l" depth="1" NCoef="0" IVar="7" Cut="-1.4664713144302368e+00" cType="1" res="2.4289786815643311e-03" rms="3.8818570971488953e-01" purity="5.3281277418136597e-01" nType="0">
          <Node pos="l" depth="2" NCoef="0" IVar="3" Cut="1.5918948364257812e+02" cType="1" res="1.7810473218560219e-02" rms="3.6700960993766785e-01" purity="3.0746489763259888e-01" nType="0">
            <Node pos="l" depth="3" NCoef="0" IVar="-1" Cut="0.0000000000000000e+00" cType="1" res="3.0155142769217491e-02" rms="3.4811183810234070e-01" purity="2.2041149437427521e-01" nType="-99"/>
            <Node pos="r" depth="3" NCoef="0" IVar="-1" Cut="0.0000000000000000e+00" cType="1" res="3.5194682423025370e-03" rms="3.8048091530799866e-01" purity="3.7464448809623718e-01" nType="-99"/>
          </Node>
          <Node pos="r" depth="2" NCoef="0" IVar="7" Cut="-1.2633057832717896e+00" cType="1" res="9.1864890418946743e-04" rms="3.9017039537429810e-01" purity="5.5493992567062378e-01" nType="0">
            <Node pos="l" depth="3" NCoef="0" IVar="-1" Cut="0.0000000000000000e+00" cType="1" res="-1.7932232469320297e-02" rms="3.7101256847381592e-01" purity="3.9567154645919800e-01" nType="-99"/>
            <Node pos="r" depth="3" NCoef="0" IVar="-1" Cut="0.0000000000000000e+00" cType="1" res="1.2331961188465357e-03" rms="3.9076405763626099e-01" purity="5.6033182144165039e-01" nType="-99"/>
          </Node>
        </Node>
        <Node pos="r" depth="1" NCoef="0" IVar="0" Cut="3.9244537353515625e+02" cType="1" res="1.6095235943794250e-02" rms="3.4503722190856934e-01" purity="2.8480020165443420e-01" nType="0">
          <Node pos="l" depth="2" NCoef="0" IVar="4" Cut="1.0561301422119141e+02" cType="1" res="2.4679086636751890e-03" rms="3.0073648691177368e-01" purity="1.4540196955204010e-01" nType="0">
            <Node pos="l" depth="3" NCoef="0" IVar="-1" Cut="0.0000000000000000e+00" cType="1" res="1.7329182475805283e-02" rms="2.5862991809844971e-01" purity="8.5889317095279694e-02" nType="-99"/>
            <Node pos="r" depth="3" NCoef="0" IVar="-1" Cut="0.0000000000000000e+00" cType="1" res="-5.1523842848837376e-03" rms="3.3987709879875183e-01" purity="2.0916466414928436e-01" nType="-99"/>
          </Node>
          <Node pos="r" depth="2" NCoef="0" IVar="7" Cut="1.3150344789028168e-01" cType="1" res="3.1104607507586479e-02" rms="3.8746675848960876e-01" purity="4.3833577632904053e-01" nType="0">
            <Node pos="l" depth="3" NCoef="0" IVar="-1" Cut="0.0000000000000000e+00" cType="1" res="2.7623541653156281e-02" rms="3.9257690310478210e-01" purity="4.7693064808845520e-01" nType="-99"/>
            <Node pos="r" depth="3" NCoef="0" IVar="-1" Cut="0.0000000000000000e+00" cType="1" res="1.4481258578598499e-02" rms="3.8177663087844849e-01" purity="3.9796108007431030e-01" nType="-99"/>
          </Node>
        </Node>
      </Node>
    </BinaryTree>
    <BinaryTree type="DecisionTree" boostWeight="1.0000000000000000e+00" itree="536">
      <Node pos="s" depth="0" NCoef="0" IVar="9" Cut="-9.3334937095642090e-01" cType="1" res="-2.0433235913515091e-03" rms="3.8360142707824707e-01" purity="4.9931013584136963e-01" nType="0">
        <Node pos="l" depth="1" NCoef="0" IVar="7" Cut="1.2000118494033813e+00" cType="1" res="9.8713645711541176e-03" rms="3.9009067416191101e-01" purity="4.4413521885871887e-01" nType="0">
          <Node pos="l" depth="2" NCoef="0" IVar="3" Cut="3.0597558593750000e+02" cType="1" res="4.0328376926481724e-03" rms="3.9094457030296326e-01" purity="4.6273544430732727e-01" nType="0">
            <Node pos="l" depth="3" NCoef="0" IVar="-1" Cut="0.0000000000000000e+00" cType="1" res="-9.9606532603502274e-04" rms="3.8677772879600525e-01" purity="4.3023344874382019e-01" nType="-99"/>
            <Node pos="r" depth="3" NCoef="0" IVar="-1" Cut="0.0000000000000000e+00" cType="1" res="2.3965058848261833e-02" rms="4.1443249583244324e-01" purity="6.6653120517730713e-01" nType="-99"/>
          </Node>
          <Node pos="r" depth="2" NCoef="0" IVar="-1" Cut="0.0000000000000000e+00" cType="1" res="3.7100601941347122e-02" rms="3.8175299763679504e-01" purity="3.1618449091911316e-01" nType="-99"/>
        </Node>
        <Node pos="r" depth="1" NCoef="0" IVar="4" Cut="2.4771231079101562e+02" cType="1" res="-5.7311304844915867e-03" rms="3.8149511814117432e-01" purity="5.1638776063919067e-01" nType="0">
          <Node pos="l" depth="2" NCoef="0" IVar="8" Cut="-9.3335467576980591e-01" cType="1" res="-7.0217298343777657e-03" rms="3.8557571172714233e-01" purity="4.9236121773719788e-01" nType="0">
            <Node pos="l" depth="3" NCoef="0" IVar="-1" Cut="0.0000000000000000e+00" cType="1" res="7.6302577508613467e-04" rms="3.8260331749916077e-01" purity="4.2821648716926575e-01" nType="-99"/>
            <Node pos="r" depth="3" NCoef="0" IVar="-1" Cut="0.0000000000000000e+00" cType="1" res="-6.0727759264409542e-03" rms="3.8633757829666138e-01" purity="5.0951945781707764e-01" nType="-99"/>
          </Node>
          <Node pos="r" depth="2" NCoef="0" IVar="6" Cut="-4.0178798139095306e-02" cType="1" res="1.1123292148113251e-02" rms="3.2304096221923828e-01" purity="8.3015942573547363e-01" nType="0">
            <Node pos="l" depth="3" NCoef="0" IVar="-1" Cut="0.0000000000000000e+00" cType="1" res="1.9630020484328270e-02" rms="3.3253806829452515e-01" purity="8.3286792039871216e-01" nType="-99"/>
            <Node pos="r" depth="3" NCoef="0" IVar="-1" Cut="0.0000000000000000e+00" cType="1" res="5.2923196926712990e-04" rms="3.1318768858909607e-01" purity="8.2753086090087891e-01" nType="-99"/>
          </Node>
        </Node>
      </Node>
    </BinaryTree>
    <BinaryTree type="DecisionTree" boostWeight="1.0000000000000000e+00" itree="537">
      <Node pos="s" depth="0" NCoef="0" IVar="4" Cut="9.7296607971191406e+01" cType="1" res="5.5109481327235699e-03" rms="3.8631069660186768e-01" purity="5.0546115636825562e-01" nType="0">
        <Node pos="l" depth="1" NCoef="0" IVar="0" Cut="4.2187112426757812e+02" cType="1" res="1.0494401678442955e-02" rms="3.7500157952308655e-01" purity="2.4660222232341766e-01" nType="0">
          <Node pos="l" depth="2" NCoef="0" IVar="0" Cut="3.2901693725585938e+02" cType="1" res="-6.2781834276393056e-04" rms="3.3637478947639465e-01" purity="1.6184784471988678e-01" nType="0">
            <Node pos="l" depth="3" NCoef="0" IVar="-1" Cut="0.0000000000000000e+00" cType="1" res="-1.9943512976169586e-02" rms="2.8947558999061584e-01" purity="1.0727734118700027e-01" nType="-99"/>
            <Node pos="r" depth="3" NCoef="0" IVar="-1" Cut="0.0000000000000000e+00" cType="1" res="5.9169954620301723e-03" rms="3.5400548577308655e-01" purity="1.8487277626991272e-01" nType="-99"/>
          </Node>
          <Node pos="r" depth="2" NCoef="0" IVar="0" Cut="5.3794268798828125e+02" cType="1" res="3.0461324378848076e-02" rms="4.3512645363807678e-01" purity="3.9875572919845581e-01" nType="0">
            <Node pos="l" depth="3" NCoef="0" IVar="-1" Cut="0.0000000000000000e+00" cType="1" res="2.9736971482634544e-02" rms="4.3249434232711792e-01" purity="3.4961506724357605e-01" nType="-99"/>
            <Node pos="r" depth="3" NCoef="0" IVar="-1" Cut="0.0000000000000000e+00" cType="1" res="-4.2839176021516323e-03" rms="4.3768385052680969e-01" purity="4.9559965729713440e-01" nType="-99"/>
          </Node>
        </Node>
        <Node pos="r" depth="1" NCoef="0" IVar="9" Cut="-1.9999138116836548e+00" cType="1" res="3.4291367046535015e-03" rms="3.9091935753822327e-01" purity="6.1359810829162598e-01" nType="0">
          <Node pos="l" depth="2" NCoef="0" IVar="-1" Cut="0.0000000000000000e+00" cType="1" res="1.9794492051005363e-02" rms="4.1126558184623718e-01" purity="4.9162229895591736e-01" nType="-99"/>
          <Node pos="r" depth="2" NCoef="0" IVar="7" Cut="-9.3321996927261353e-01" cType="1" res="1.8967509968206286e-03" rms="3.8977780938148499e-01" purity="6.1990123987197876e-01" nType="0">
            <Node pos="l" depth="3" NCoef="0" IVar="-1" Cut="0.0000000000000000e+00" cType="1" res="-5.1678633317351341e-03" rms="3.9698955416679382e-01" purity="4.7312852740287781e-01" nType="-99"/>
            <Node pos="r" depth="3" NCoef="0" IVar="-1" Cut="0.0000000000000000e+00" cType="1" res="2.6656335685402155e-03" rms="3.8820442557334900e-01" purity="6.5086805820465088e-01" nType="-99"/>
          </Node>
        </Node>
      </Node>
    </BinaryTree>
    <BinaryTree type="DecisionTree" boostWeight="1.0000000000000000e+00" itree="538">
      <Node pos="s" depth="0" NCoef="0" IVar="2" Cut="6.3697155761718750e+02" cType="1" res="-2.1946290507912636e-03" rms="3.8099625706672668e-01" purity="5.0295114517211914e-01" nType="0">
        <Node pos="l" depth="1" NCoef="0" IVar="8" Cut="-1.4666314125061035e+00" cType="1" res="-4.0905526839196682e-03" rms="3.7998428940773010e-01" purity="4.9464216828346252e-01" nType="0">
          <Node pos="l" depth="2" NCoef="0" IVar="0" Cut="3.6522900390625000e+02" cType="1" res="-2.1642567589879036e-02" rms="3.5807818174362183e-01" purity="2.9725539684295654e-01" nType="0">
            <Node pos="l" depth="3" NCoef="0" IVar="-1" Cut="0.0000000000000000e+00" cType="1" res="-6.3191363587975502e-03" rms="3.2052502036094666e-01" purity="1.6962577402591705e-01" nType="-99"/>
            <Node pos="r" depth="3" NCoef="0" IVar="-1" Cut="0.0000000000000000e+00" cType="1" res="-1.9910812377929688e-02" rms="3.8136970996856689e-01" purity="3.8471731543540955e-01" nType="-99"/>
          </Node>
          <Node pos="r" depth="2" NCoef="0" IVar="2" Cut="3.8727227783203125e+02" cType="1" res="-1.9937925972044468e-03" rms="3.8246345520019531e-01" purity="5.1822191476821899e-01" nType="0">
            <Node pos="l" depth="3" NCoef="0" IVar="-1" Cut="0.0000000000000000e+00" cType="1" res="1.5074200928211212e-03" rms="3.8563939929008484e-01" purity="5.0187861919403076e-01" nType="-99"/>
            <Node pos="r" depth="3" NCoef="0" IVar="-1" Cut="0.0000000000000000e+00" cType="1" res="-7.4628866277635098e-03" rms="3.7586107850074768e-01" purity="5.5102652311325073e-01" nType="-99"/>
          </Node>
        </Node>
        <Node pos="r" depth="1" NCoef="0" IVar="0" Cut="5.9407983398437500e+02" cType="1" res="2.4128077551722527e-02" rms="3.9383646845817566e-01" purity="6.1831253767013550e-01" nType="0">
          <Node pos="l" depth="2" NCoef="0" IVar="-1" Cut="0.0000000000000000e+00" cType="1" res="3.8629882037639618e-03" rms="4.0358152985572815e-01" purity="4.6552816033363342e-01" nType="-99"/>
          <Node pos="r" depth="2" NCoef="0" IVar="-1" Cut="0.0000000000000000e+00" cType="1" res="2.3870518431067467e-02" rms="3.8477906584739685e-01" purity="7.4784505367279053e-01" nType="-99"/>
        </Node>
      </Node>
    </BinaryTree>
    <BinaryTree type="DecisionTree" boostWeight="1.0000000000000000e+00" itree="539">
      <Node pos="s" depth="0" NCoef="0" IVar="8" Cut="-1.9999854564666748e+00" cType="1" res="-2.4368669837713242e-03" rms="3.8326725363731384e-01" purity="5.0043296813964844e-01" nType="0">
        <Node pos="l" depth="1" NCoef="0" IVar="-1" Cut="0.0000000000000000e+00" cType="1" res="-2.7579665184020996e-02" rms="3.1774941086769104e-01" purity="2.1207422018051147e-01" nType="-99"/>
        <Node pos="r" depth="1" NCoef="0" IVar="9" Cut="1.9999841451644897e+00" cType="1" res="-1.0417875600978732e-03" rms="3.8581728935241699e-01" purity="5.1303780078887939e-01" nType="0">
          <Node pos="l" depth="2" NCoef="0" IVar="8" Cut="-1.3142315149307251e+00" cType="1" res="-2.3648019414395094e-03" rms="3.8595569133758545e-01" purity="5.2048557996749878e-01" nType="0">
            <Node pos="l" depth="3" NCoef="0" IVar="-1" Cut="0.0000000000000000e+00" cType="1" res="1.0125217959284782e-02" rms="3.8973000645637512e-01" purity="4.1643825173377991e-01" nType="-99"/>
            <Node pos="r" depth="3" NCoef="0" IVar="-1" Cut="0.0000000000000000e+00" cType="1" res="-2.7764097321778536e-03" rms="3.8551858067512512e-01" purity="5.3120207786560059e-01" nType="-99"/>
          </Node>
          <Node pos="r" depth="2" NCoef="0" IVar="6" Cut="1.6007538139820099e-01" cType="1" res="2.0758384838700294e-02" rms="3.8287225365638733e-01" purity="3.9031681418418884e-01" nType="0">
            <Node pos="l" depth="3" NCoef="0" IVar="-1" Cut="0.0000000000000000e+00" cType="1" res="-1.3137153582647443e-03" rms="3.8437989354133606e-01" purity="3.6459788680076599e-01" nType="-99"/>
            <Node pos="r" depth="3" NCoef="0" IVar="-1" Cut="0.0000000000000000e+00" cType="1" res="3.1247645616531372e-02" rms="3.8024675846099854e-01" purity="4.1424751281738281e-01" nType="-99"/>
          </Node>
        </Node>
      </Node>
    </BinaryTree>
    <BinaryTree type="DecisionTree" boostWeight="1.0000000000000000e+00" itree="540">
      <Node pos="s" depth="0" NCoef="0" IVar="3" Cut="2.4061839294433594e+02" cType="1" res="-7.5926643330603838e-04" rms="3.8284614682197571e-01" purity="5.0084221363067627e-01" nType="0">
        <Node pos="l" depth="1" NCoef="0" IVar="0" Cut="4.4205456542968750e+02" cType="1" res="-5.0684870220720768e-03" rms="3.8612693548202515e-01" purity="4.1130152344703674e-01" nType="0">
          <Node pos="l" depth="2" NCoef="0" IVar="2" Cut="4.1430520629882812e+02" cType="1" res="-1.0294635780155659e-02" rms="3.7987563014030457e-01" purity="2.8924319148063660e-01" nType="0">
            <Node pos="l" depth="3" NCoef="0" IVar="-1" Cut="0.0000000000000000e+00" cType="1" res="-4.3745799921452999e-03" rms="3.8638421893119812e-01" purity="3.0398622155189514e-01" nType="-99"/>
            <Node pos="r" depth="3" NCoef="0" IVar="-1" Cut="0.0000000000000000e+00" cType="1" res="-2.4957478046417236e-02" rms="3.3672916889190674e-01" purity="1.9947125017642975e-01" nType="-99"/>
          </Node>
          <Node pos="r" depth="2" NCoef="0" IVar="4" Cut="9.5301765441894531e+01" cType="1" res="4.3546967208385468e-03" rms="3.9697611331939697e-01" purity="6.3138300180435181e-01" nType="0">
            <Node pos="l" depth="3" NCoef="0" IVar="-1" Cut="0.0000000000000000e+00" cType="1" res="1.5918454155325890e-02" rms="4.2890340089797974e-01" purity="3.9369243383407593e-01" nType="-99"/>
            <Node pos="r" depth="3" NCoef="0" IVar="-1" Cut="0.0000000000000000e+00" cType="1" res="-3.5235718823969364e-03" rms="3.8330796360969543e-01" purity="7.2457247972488403e-01" nType="-99"/>
          </Node>
        </Node>
        <Node pos="r" depth="1" NCoef="0" IVar="7" Cut="1.2006317377090454e+00" cType="1" res="8.0853505060076714e-03" rms="3.7586805224418640e-01" purity="6.8462312221527100e-01" nType="0">
          <Node pos="l" depth="2" NCoef="0" IVar="9" Cut="9.3313360214233398e-01" cType="1" res="4.3789022602140903e-03" rms="3.7311676144599915e-01" purity="7.0610368251800537e-01" nType="0">
            <Node pos="l" depth="3" NCoef="0" IVar="-1" Cut="0.0000000000000000e+00" cType="1" res="5.9400890022516251e-03" rms="3.7133237719535828e-01" purity="7.2156584262847900e-01" nType="-99"/>
            <Node pos="r" depth="3" NCoef="0" IVar="-1" Cut="0.0000000000000000e+00" cType="1" res="-7.5325672514736652e-03" rms="3.8002806901931763e-01" purity="6.4188784360885620e-01" nType="-99"/>
          </Node>
          <Node pos="r" depth="2" NCoef="0" IVar="-1" Cut="0.0000000000000000e+00" cType="1" res="2.5765037164092064e-02" rms="3.9788955450057983e-01" purity="4.9452012777328491e-01" nType="-99"/>
        </Node>
      </Node>
    </BinaryTree>
    <BinaryTree type="DecisionTree" boostWeight="1.0000000000000000e+00" itree="541">
      <Node pos="s" depth="0" NCoef="0" IVar="0" Cut="7.3323699951171875e+02" cType="1" res="4.8812655732035637e-03" rms="3.8466656208038330e-01" purity="5.0558638572692871e-01" nType="0">
        <Node pos="l" depth="1" NCoef="0" IVar="9" Cut="-2.2664811611175537e+00" cType="1" res="6.0395207256078720e-03" rms="3.8720601797103882e-01" purity="4.8756721615791321e-01" nType="0">
          <Node pos="l" depth="2" NCoef="0" IVar="-1" Cut="0.0000000000000000e+00" cType="1" res="2.0673578605055809e-02" rms="3.8857468962669373e-01" purity="3.2482406497001648e-01" nType="-99"/>
          <Node pos="r" depth="2" NCoef="0" IVar="9" Cut="6.2864530086517334e-01" cType="1" res="5.3185271099209785e-03" rms="3.8714069128036499e-01" purity="4.9272862076759338e-01" nType="0">
            <Node pos="l" depth="3" NCoef="0" IVar="-1" Cut="0.0000000000000000e+00" cType="1" res="1.5274399193003774e-03" rms="3.8917708396911621e-01" purity="5.0860267877578735e-01" nType="-99"/>
            <Node pos="r" depth="3" NCoef="0" IVar="-1" Cut="0.0000000000000000e+00" cType="1" res="7.6110670343041420e-03" rms="3.8286367058753967e-01" purity="4.6021404862403870e-01" nType="-99"/>
          </Node>
        </Node>
        <Node pos="r" depth="1" NCoef="0" IVar="5" Cut="1.0621949005126953e+02" cType="1" res="-1.4764552004635334e-02" rms="3.3810168504714966e-01" purity="8.1121999025344849e-01" nType="0">
          <Node pos="l" depth="2" NCoef="0" IVar="-1" Cut="0.0000000000000000e+00" cType="1" res="-2.4116950109601021e-02" rms="3.8517689704895020e-01" purity="7.1930986642837524e-01" nType="-99"/>
          <Node pos="r" depth="2" NCoef="0" IVar="-1" Cut="0.0000000000000000e+00" cType="1" res="8.4084812551736832e-03" rms="2.7898108959197998e-01" purity="9.0728855133056641e-01" nType="-99"/>
        </Node>
      </Node>
    </BinaryTree>
    <BinaryTree type="DecisionTree" boostWeight="1.0000000000000000e+00" itree="542">
      <Node pos="s" depth="0" NCoef="0" IVar="7" Cut="1.7333103418350220e+00" cType="1" res="-1.1002258397638798e-03" rms="3.8595756888389587e-01" purity="4.9930465221405029e-01" nType="0">
        <Node pos="l" depth="1" NCoef="0" IVar="7" Cut="-1.9364608526229858e+00" cType="1" res="-3.0256633181124926e-03" rms="3.8746598362922668e-01" purity="5.1473647356033325e-01" nType="0">
          <Node pos="l" depth="2" NCoef="0" IVar="-1" Cut="0.0000000000000000e+00" cType="1" res="-3.1087987124919891e-02" rms="2.9358077049255371e-01" purity="1.6311796009540558e-01" nType="-99"/>
          <Node pos="r" depth="2" NCoef="0" IVar="9" Cut="9.3337678909301758e-01" cType="1" res="-1.7458344809710979e-03" rms="3.9089563488960266e-01" purity="5.2963811159133911e-01" nType="0">
            <Node pos="l" depth="3" NCoef="0" IVar="-1" Cut="0.0000000000000000e+00" cType="1" res="3.5528762964531779e-04" rms="3.9060387015342712e-01" purity="5.4938125610351562e-01" nType="-99"/>
            <Node pos="r" depth="3" NCoef="0" IVar="-1" Cut="0.0000000000000000e+00" cType="1" res="-6.1795897781848907e-03" rms="3.9179939031600952e-01" purity="4.6141460537910461e-01" nType="-99"/>
          </Node>
        </Node>
        <Node pos="r" depth="1" NCoef="0" IVar="9" Cut="4.0040498971939087e-01" cType="1" res="2.9373358935117722e-02" rms="3.5987731814384460e-01" purity="2.5506767630577087e-01" nType="0">
          <Node pos="l" depth="2" NCoef="0" IVar="-1" Cut="0.0000000000000000e+00" cType="1" res="4.1320066899061203e-02" rms="3.8183581829071045e-01" purity="3.0036225914955139e-01" nType="-99"/>
          <Node pos="r" depth="2" NCoef="0" IVar="-1" Cut="0.0000000000000000e+00" cType="1" res="-6.4904091414064169e-04" rms="3.2925695180892944e-01" purity="2.0101833343505859e-01" nType="-99"/>
        </Node>
      </Node>
    </BinaryTree>
    <BinaryTree type="DecisionTree" boostWeight="1.0000000000000000e+00" itree="543">
      <Node pos="s" depth="0" NCoef="0" IVar="8" Cut="-1.9999454021453857e+00" cType="1" res="2.5133565068244934e-03" rms="3.8430878520011902e-01" purity="5.0531417131423950e-01" nType="0">
        <Node pos="l" depth="1" NCoef="0" IVar="-1" Cut="0.0000000000000000e+00" cType="1" res="-2.1141637116670609e-02" rms="3.3043804764747620e-01" purity="2.0594091713428497e-01" nType="-99"/>
        <Node pos="r" depth="1" NCoef="0" IVar="6" Cut="1.4749865531921387e+00" cType="1" res="3.7360128480941057e-03" rms="3.8641437888145447e-01" purity="5.1821333169937134e-01" nType="0">
          <Node pos="l" depth="2" NCoef="0" IVar="8" Cut="2.1141974925994873e+00" cType="1" res="5.3498060442507267e-03" rms="3.9100456237792969e-01" purity="5.4079782962799072e-01" nType="0">
            <Node pos="l" depth="3" NCoef="0" IVar="-1" Cut="0.0000000000000000e+00" cType="1" res="2.8390537481755018e-03" rms="3.9145779609680176e-01" purity="5.5008739233016968e-01" nType="-99"/>
            <Node pos="r" depth="3" NCoef="0" IVar="-1" Cut="0.0000000000000000e+00" cType="1" res="2.2962456569075584e-02" rms="3.7769806385040283e-01" purity="2.9092046618461609e-01" nType="-99"/>
          </Node>
          <Node pos="r" depth="2" NCoef="0" IVar="0" Cut="3.8014437866210938e+02" cType="1" res="-1.9465269520878792e-02" rms="3.1214827299118042e-01" purity="1.9351841509342194e-01" nType="0">
            <Node pos="l" depth="3" NCoef="0" IVar="-1" Cut="0.0000000000000000e+00" cType="1" res="-9.3758814036846161e-03" rms="2.7588871121406555e-01" purity="1.0916685312986374e-01" nType="-99"/>
            <Node pos="r" depth="3" NCoef="0" IVar="-1" Cut="0.0000000000000000e+00" cType="1" res="-2.3216262459754944e-02" rms="3.4695988893508911e-01" purity="2.8547629714012146e-01" nType="-99"/>
          </Node>
        </Node>
      </Node>
    </BinaryTree>
    <BinaryTree type="DecisionTree" boostWeight="1.0000000000000000e+00" itree="544">
      <Node pos="s" depth="0" NCoef="0" IVar="3" Cut="1.4559339904785156e+02" cType="1" res="-1.9311322830617428e-03" rms="3.8249856233596802e-01" purity="5.0036549568176270e-01" nType="0">
        <Node pos="l" depth="1" NCoef="0" IVar="7" Cut="9.3340587615966797e-01" cType="1" res="-1.4693266712129116e-02" rms="3.5820180177688599e-01" purity="2.2588720917701721e-01" nType="0">
          <Node pos="l" depth="2" NCoef="0" IVar="6" Cut="-1.1563731431961060e+00" cType="1" res="-2.0779572427272797e-02" rms="3.6422389745712280e-01" purity="2.3880854249000549e-01" nType="0">
            <Node pos="l" depth="3" NCoef="0" IVar="-1" Cut="0.0000000000000000e+00" cType="1" res="5.2387299947440624e-03" rms="2.9784172773361206e-01" purity="1.1909629404544830e-01" nType="-99"/>
            <Node pos="r" depth="3" NCoef="0" IVar="-1" Cut="0.0000000000000000e+00" cType="1" res="-1.6640393063426018e-02" rms="3.7491640448570251e-01" purity="2.6071316003799438e-01" nType="-99"/>
          </Node>
          <Node pos="r" depth="2" NCoef="0" IVar="8" Cut="1.3390696048736572e-01" cType="1" res="3.8364795036613941e-03" rms="3.3853691816329956e-01" purity="1.8654832243919373e-01" nType="0">
            <Node pos="l" depth="3" NCoef="0" IVar="-1" Cut="0.0000000000000000e+00" cType="1" res="2.3986879736185074e-02" rms="3.5848972201347351e-01" purity="2.1852584183216095e-01" nType="-99"/>
            <Node pos="r" depth="3" NCoef="0" IVar="-1" Cut="0.0000000000000000e+00" cType="1" res="-1.6317604109644890e-02" rms="3.1823471188545227e-01" purity="1.5814928710460663e-01" nType="-99"/>
          </Node>
        </Node>
        <Node pos="r" depth="1" NCoef="0" IVar="6" Cut="-1.4400503635406494e+00" cType="1" res="2.0432206802070141e-03" rms="3.8967052102088928e-01" purity="5.8584284782409668e-01" nType="0">
          <Node pos="l" depth="2" NCoef="0" IVar="-1" Cut="0.0000000000000000e+00" cType="1" res="1.6952805221080780e-02" rms="3.7708118557929993e-01" purity="2.9988625645637512e-01" nType="-99"/>
          <Node pos="r" depth="2" NCoef="0" IVar="8" Cut="-2.0000009536743164e+00" cType="1" res="6.0669920640066266e-04" rms="3.9048221707344055e-01" purity="6.0554999113082886e-01" nType="0">
            <Node pos="l" depth="3" NCoef="0" IVar="-1" Cut="0.0000000000000000e+00" cType="1" res="1.9207853823900223e-02" rms="3.8446083664894104e-01" purity="3.6460304260253906e-01" nType="-99"/>
            <Node pos="r" depth="3" NCoef="0" IVar="-1" Cut="0.0000000000000000e+00" cType="1" res="-2.8155543259344995e-04" rms="3.9066135883331299e-01" purity="6.1437058448791504e-01" nType="-99"/>
          </Node>
        </Node>
      </Node>
    </BinaryTree>
    <BinaryTree type="DecisionTree" boostWeight="1.0000000000000000e+00" itree="545">
      <Node pos="s" depth="0" NCoef="0" IVar="9" Cut="-1.1999760866165161e+00" cType="1" res="8.5610052337870002e-04" rms="3.8484352827072144e-01" purity="4.9831664562225342e-01" nType="0">
        <Node pos="l" depth="1" NCoef="0" IVar="2" Cut="4.9859231567382812e+02" cType="1" res="-1.6676275059580803e-02" rms="3.7667497992515564e-01" purity="4.0265625715255737e-01" nType="0">
          <Node pos="l" depth="2" NCoef="0" IVar="2" Cut="2.7109341430664062e+02" cType="1" res="-1.2076784856617451e-02" rms="3.7784391641616821e-01" purity="3.9259690046310425e-01" nType="0">
            <Node pos="l" depth="3" NCoef="0" IVar="-1" Cut="0.0000000000000000e+00" cType="1" res="6.9126328453421593e-03" rms="3.8887509703636169e-01" purity="3.5566332936286926e-01" nType="-99"/>
            <Node pos="r" depth="3" NCoef="0" IVar="-1" Cut="0.0000000000000000e+00" cType="1" res="-1.5981625765562057e-02" rms="3.7183043360710144e-01" purity="4.1066950559616089e-01" nType="-99"/>
          </Node>
          <Node pos="r" depth="2" NCoef="0" IVar="-1" Cut="0.0000000000000000e+00" cType="1" res="-2.5462117046117783e-02" rms="3.6973145604133606e-01" purity="4.5419627428054810e-01" nType="-99"/>
        </Node>
        <Node pos="r" depth="1" NCoef="0" IVar="7" Cut="6.6670662164688110e-01" cType="1" res="4.4578853994607925e-03" rms="3.8640177249908447e-01" purity="5.1796877384185791e-01" nType="0">
          <Node pos="l" depth="2" NCoef="0" IVar="1" Cut="1.3803800048828125e+03" cType="1" res="8.3206221461296082e-03" rms="3.8781824707984924e-01" purity="5.5653506517410278e-01" nType="0">
            <Node pos="l" depth="3" NCoef="0" IVar="-1" Cut="0.0000000000000000e+00" cType="1" res="8.7151080369949341e-03" rms="4.0954843163490295e-01" purity="4.1622442007064819e-01" nType="-99"/>
            <Node pos="r" depth="3" NCoef="0" IVar="-1" Cut="0.0000000000000000e+00" cType="1" res="-9.6333114197477698e-04" rms="3.5231778025627136e-01" purity="7.6808285713195801e-01" nType="-99"/>
          </Node>
          <Node pos="r" depth="2" NCoef="0" IVar="6" Cut="-6.1821359395980835e-01" cType="1" res="-5.9195174835622311e-03" rms="3.8237717747688293e-01" purity="4.1435876488685608e-01" nType="0">
            <Node pos="l" depth="3" NCoef="0" IVar="-1" Cut="0.0000000000000000e+00" cType="1" res="-1.9472794607281685e-02" rms="3.5794913768768311e-01" purity="2.8375226259231567e-01" nType="-99"/>
            <Node pos="r" depth="3" NCoef="0" IVar="-1" Cut="0.0000000000000000e+00" cType="1" res="-1.8676220497582108e-04" rms="3.8866785168647766e-01" purity="4.5044875144958496e-01" nType="-99"/>
          </Node>
        </Node>
      </Node>
    </BinaryTree>
    <BinaryTree type="DecisionTree" boostWeight="1.0000000000000000e+00" itree="546">
      <Node pos="s" depth="0" NCoef="0" IVar="3" Cut="3.2651831054687500e+02" cType="1" res="-9.4202376203611493e-05" rms="3.8337865471839905e-01" purity="4.9901682138442993e-01" nType="0">
        <Node pos="l" depth="1" NCoef="0" IVar="5" Cut="6.2310733795166016e+01" cType="1" res="1.7628172645345330e-03" rms="3.8461327552795410e-01" purity="4.7790527343750000e-01" nType="0">
          <Node pos="l" depth="2" NCoef="0" IVar="7" Cut="-1.3326366245746613e-01" cType="1" res="-9.7171710804104805e-03" rms="3.5952302813529968e-01" purity="2.4106186628341675e-01" nType="0">
            <Node pos="l" depth="3" NCoef="0" IVar="-1" Cut="0.0000000000000000e+00" cType="1" res="-2.0034577697515488e-02" rms="3.4779331088066101e-01" purity="2.1519659459590912e-01" nType="-99"/>
            <Node pos="r" depth="3" NCoef="0" IVar="-1" Cut="0.0000000000000000e+00" cType="1" res="3.1139310449361801e-03" rms="3.6824628710746765e-01" purity="2.6220303773880005e-01" nType="-99"/>
          </Node>
          <Node pos="r" depth="2" NCoef="0" IVar="6" Cut="1.4084558188915253e-01" cType="1" res="5.6485892273485661e-03" rms="3.9266693592071533e-01" purity="5.5807262659072876e-01" nType="0">
            <Node pos="l" depth="3" NCoef="0" IVar="-1" Cut="0.0000000000000000e+00" cType="1" res="8.1587545573711395e-03" rms="3.9733171463012695e-01" purity="5.7658386230468750e-01" nType="-99"/>
            <Node pos="r" depth="3" NCoef="0" IVar="-1" Cut="0.0000000000000000e+00" cType="1" res="-2.2997506894171238e-03" rms="3.8637340068817139e-01" purity="5.3419613838195801e-01" nType="-99"/>
          </Node>
        </Node>
        <Node pos="r" depth="1" NCoef="0" IVar="6" Cut="-3.8139286637306213e-01" cType="1" res="-1.5162443742156029e-02" rms="3.7286794185638428e-01" purity="6.7031991481781006e-01" nType="0">
          <Node pos="l" depth="2" NCoef="0" IVar="-1" Cut="0.0000000000000000e+00" cType="1" res="-2.4957850575447083e-02" rms="3.7678611278533936e-01" purity="5.9548127651214600e-01" nType="-99"/>
          <Node pos="r" depth="2" NCoef="0" IVar="9" Cut="3.9982706308364868e-01" cType="1" res="-5.5326460860669613e-03" rms="3.7076222896575928e-01" purity="7.0233035087585449e-01" nType="0">
            <Node pos="l" depth="3" NCoef="0" IVar="-1" Cut="0.0000000000000000e+00" cType="1" res="-1.4123897068202496e-02" rms="3.7186685204505920e-01" purity="7.0426332950592041e-01" nType="-99"/>
            <Node pos="r" depth="3" NCoef="0" IVar="-1" Cut="0.0000000000000000e+00" cType="1" res="9.5918932929635048e-03" rms="3.6825674772262573e-01" purity="6.9951432943344116e-01" nType="-99"/>
          </Node>
        </Node>
      </Node>
    </BinaryTree>
    <BinaryTree type="DecisionTree" boostWeight="1.0000000000000000e+00" itree="547">
      <Node pos="s" depth="0" NCoef="0" IVar="3" Cut="1.4577171325683594e+02" cType="1" res="-7.9206662485376000e-04" rms="3.8313445448875427e-01" purity="4.9931797385215759e-01" nType="0">
        <Node pos="l" depth="1" NCoef="0" IVar="7" Cut="9.3343514204025269e-01" cType="1" res="9.6852099522948265e-03" rms="3.6987566947937012e-01" purity="2.4682758748531342e-01" nType="0">
          <Node pos="l" depth="2" NCoef="0" IVar="4" Cut="9.0948799133300781e+01" cType="1" res="1.5994941815733910e-02" rms="3.8132762908935547e-01" purity="2.7066847681999207e-01" nType="0">
            <Node pos="l" depth="3" NCoef="0" IVar="-1" Cut="0.0000000000000000e+00" cType="1" res="4.7909817658364773e-03" rms="3.4587395191192627e-01" purity="1.6898810863494873e-01" nType="-99"/>
            <Node pos="r" depth="3" NCoef="0" IVar="-1" Cut="0.0000000000000000e+00" cType="1" res="1.7084328457713127e-02" rms="4.2269542813301086e-01" purity="4.0313169360160828e-01" nType="-99"/>
          </Node>
          <Node pos="r" depth="2" NCoef="0" IVar="4" Cut="8.6301620483398438e+01" cType="1" res="-1.1547309346497059e-02" rms="3.2752788066864014e-01" purity="1.6660203039646149e-01" nType="0">
            <Node pos="l" depth="3" NCoef="0" IVar="-1" Cut="0.0000000000000000e+00" cType="1" res="1.6246464103460312e-02" rms="2.9313951730728149e-01" purity="1.1844395101070404e-01" nType="-99"/>
            <Node pos="r" depth="3" NCoef="0" IVar="-1" Cut="0.0000000000000000e+00" cType="1" res="-2.6506425812840462e-02" rms="3.5915610194206238e-01" purity="2.1866354346275330e-01" nType="-99"/>
          </Node>
        </Node>
        <Node pos="r" depth="1" NCoef="0" IVar="3" Cut="2.3610360717773438e+02" cType="1" res="-4.1259229183197021e-03" rms="3.8719871640205383e-01" purity="5.7966005802154541e-01" nType="0">
          <Node pos="l" depth="2" NCoef="0" IVar="8" Cut="1.3331329822540283e-01" cType="1" res="-1.1621944606304169e-02" rms="3.9879971742630005e-01" purity="4.9273949861526489e-01" nType="0">
            <Node pos="l" depth="3" NCoef="0" IVar="-1" Cut="0.0000000000000000e+00" cType="1" res="-3.2052476890385151e-03" rms="4.0225747227668762e-01" purity="5.0720983743667603e-01" nType="-99"/>
            <Node pos="r" depth="3" NCoef="0" IVar="-1" Cut="0.0000000000000000e+00" cType="1" res="-1.1969381012022495e-02" rms="3.9444887638092041e-01" purity="4.7527167201042175e-01" nType="-99"/>
          </Node>
          <Node pos="r" depth="2" NCoef="0" IVar="4" Cut="1.4434020996093750e+02" cType="1" res="4.6988460235297680e-03" rms="3.7288624048233032e-01" purity="6.8198817968368530e-01" nType="0">
            <Node pos="l" depth="3" NCoef="0" IVar="-1" Cut="0.0000000000000000e+00" cType="1" res="9.9012041464447975e-03" rms="4.1118252277374268e-01" purity="5.2955466508865356e-01" nType="-99"/>
            <Node pos="r" depth="3" NCoef="0" IVar="-1" Cut="0.0000000000000000e+00" cType="1" res="-7.9583463957533240e-04" rms="3.5300627350807190e-01" purity="7.5473231077194214e-01" nType="-99"/>
          </Node>
        </Node>
      </Node>
    </BinaryTree>
    <BinaryTree type="DecisionTree" boostWeight="1.0000000000000000e+00" itree="548">
      <Node pos="s" depth="0" NCoef="0" IVar="9" Cut="1.3341431319713593e-01" cType="1" res="-3.0886678723618388e-04" rms="3.8165980577468872e-01" purity="5.0105690956115723e-01" nType="0">
        <Node pos="l" depth="1" NCoef="0" IVar="6" Cut="-9.0997761487960815e-01" cType="1" res="4.4170594774186611e-03" rms="3.8434094190597534e-01" purity="5.1222687959671021e-01" nType="0">
          <Node pos="l" depth="2" NCoef="0" IVar="6" Cut="-1.1749657392501831e+00" cType="1" res="1.8544355407357216e-02" rms="3.6881330609321594e-01" purity="3.3799508213996887e-01" nType="0">
            <Node pos="l" depth="3" NCoef="0" IVar="-1" Cut="0.0000000000000000e+00" cType="1" res="4.5610684901475906e-03" rms="3.4959459304809570e-01" purity="2.6469013094902039e-01" nType="-99"/>
            <Node pos="r" depth="3" NCoef="0" IVar="-1" Cut="0.0000000000000000e+00" cType="1" res="2.7390075847506523e-02" rms="4.0186282992362976e-01" purity="4.7815150022506714e-01" nType="-99"/>
          </Node>
          <Node pos="r" depth="2" NCoef="0" IVar="7" Cut="-3.9985984563827515e-01" cType="1" res="9.2000194126740098e-04" rms="3.8800930976867676e-01" purity="5.5535602569580078e-01" nType="0">
            <Node pos="l" depth="3" NCoef="0" IVar="-1" Cut="0.0000000000000000e+00" cType="1" res="-5.8278348296880722e-03" rms="3.8784241676330566e-01" purity="4.9100181460380554e-01" nType="-99"/>
            <Node pos="r" depth="3" NCoef="0" IVar="-1" Cut="0.0000000000000000e+00" cType="1" res="4.2889812029898167e-03" rms="3.8799333572387695e-01" purity="5.9235543012619019e-01" nType="-99"/>
          </Node>
        </Node>
        <Node pos="r" depth="1" NCoef="0" IVar="5" Cut="1.0450293731689453e+02" cType="1" res="-6.0156057588756084e-03" rms="3.7831825017929077e-01" purity="4.8756873607635498e-01" nType="0">
          <Node pos="l" depth="2" NCoef="0" IVar="2" Cut="4.4747137451171875e+02" cType="1" res="-1.1096807196736336e-02" rms="3.8498416543006897e-01" purity="3.7305569648742676e-01" nType="0">
            <Node pos="l" depth="3" NCoef="0" IVar="-1" Cut="0.0000000000000000e+00" cType="1" res="-1.0802420787513256e-02" rms="3.8211938738822937e-01" purity="3.4954360127449036e-01" nType="-99"/>
            <Node pos="r" depth="3" NCoef="0" IVar="-1" Cut="0.0000000000000000e+00" cType="1" res="3.9210878312587738e-03" rms="3.9358210563659668e-01" purity="4.4885692000389099e-01" nType="-99"/>
          </Node>
          <Node pos="r" depth="2" NCoef="0" IVar="6" Cut="7.3346495628356934e-01" cType="1" res="5.6414264254271984e-03" rms="3.6229366064071655e-01" purity="7.5027877092361450e-01" nType="0">
            <Node pos="l" depth="3" NCoef="0" IVar="-1" Cut="0.0000000000000000e+00" cType="1" res="7.5134768849238753e-04" rms="3.5501754283905029e-01" purity="7.7743148803710938e-01" nType="-99"/>
            <Node pos="r" depth="3" NCoef="0" IVar="-1" Cut="0.0000000000000000e+00" cType="1" res="1.4483991079032421e-02" rms="3.8663184642791748e-01" purity="6.5359467267990112e-01" nType="-99"/>
          </Node>
        </Node>
      </Node>
    </BinaryTree>
    <BinaryTree type="DecisionTree" boostWeight="1.0000000000000000e+00" itree="549">
      <Node pos="s" depth="0" NCoef="0" IVar="8" Cut="-1.7333230972290039e+00" cType="1" res="2.1561547182500362e-03" rms="3.8239094614982605e-01" purity="5.0463956594467163e-01" nType="0">
        <Node pos="l" depth="1" NCoef="0" IVar="8" Cut="-2.2412538528442383e+00" cType="1" res="-1.7784668132662773e-02" rms="3.4797024726867676e-01" purity="2.6591795682907104e-01" nType="0">
          <Node pos="l" depth="2" NCoef="0" IVar="-1" Cut="0.0000000000000000e+00" cType="1" res="1.3423550873994827e-02" rms="3.4591880440711975e-01" purity="2.5814202427864075e-01" nType="-99"/>
          <Node pos="r" depth="2" NCoef="0" IVar="-1" Cut="0.0000000000000000e+00" cType="1" res="-2.8246536850929260e-02" rms="3.4750917553901672e-01" purity="2.7072632312774658e-01" nType="-99"/>
        </Node>
        <Node pos="r" depth="1" NCoef="0" IVar="8" Cut="8.5712808370590210e-01" cType="1" res="3.6247370298951864e-03" rms="3.8476336002349854e-01" purity="5.2222073078155518e-01" nType="0">
          <Node pos="l" depth="2" NCoef="0" IVar="7" Cut="1.4666919708251953e+00" cType="1" res="7.1034687571227551e-03" rms="3.8822001218795776e-01" purity="5.6116461753845215e-01" nType="0">
            <Node pos="l" depth="3" NCoef="0" IVar="-1" Cut="0.0000000000000000e+00" cType="1" res="3.5900042857974768e-03" rms="3.8880550861358643e-01" purity="5.8029001951217651e-01" nType="-99"/>
            <Node pos="r" depth="3" NCoef="0" IVar="-1" Cut="0.0000000000000000e+00" cType="1" res="1.9307807087898254e-02" rms="3.8037517666816711e-01" purity="3.2628363370895386e-01" nType="-99"/>
          </Node>
          <Node pos="r" depth="2" NCoef="0" IVar="1" Cut="1.6917406005859375e+03" cType="1" res="-7.0672761648893356e-03" rms="3.7373667955398560e-01" purity="4.0252518653869629e-01" nType="0">
            <Node pos="l" depth="3" NCoef="0" IVar="-1" Cut="0.0000000000000000e+00" cType="1" res="-7.1764946915209293e-03" rms="3.7432035803794861e-01" purity="3.5025888681411743e-01" nType="-99"/>
            <Node pos="r" depth="3" NCoef="0" IVar="-1" Cut="0.0000000000000000e+00" cType="1" res="1.0918586514890194e-02" rms="3.6912113428115845e-01" purity="7.3917007446289062e-01" nType="-99"/>
          </Node>
        </Node>
      </Node>
    </BinaryTree>
    <BinaryTree type="DecisionTree" boostWeight="1.0000000000000000e+00" itree="550">
      <Node pos="s" depth="0" NCoef="0" IVar="9" Cut="1.3339594006538391e-01" cType="1" res="8.0764159793034196e-04" rms="3.8452717661857605e-01" purity="5.0218552350997925e-01" nType="0">
        <Node pos="l" depth="1" NCoef="0" IVar="8" Cut="1.4665461778640747e+00" cType="1" res="-3.6172289401292801e-03" rms="3.8465437293052673e-01" purity="5.0468266010284424e-01" nType="0">
          <Node pos="l" depth="2" NCoef="0" IVar="8" Cut="-1.7841361761093140e+00" cType="1" res="-1.1249864473938942e-03" rms="3.8550552725791931e-01" purity="5.2323240041732788e-01" nType="0">
            <Node pos="l" depth="3" NCoef="0" IVar="-1" Cut="0.0000000000000000e+00" cType="1" res="1.2246797792613506e-02" rms="3.5926634073257446e-01" purity="2.7723467350006104e-01" nType="-99"/>
            <Node pos="r" depth="3" NCoef="0" IVar="-1" Cut="0.0000000000000000e+00" cType="1" res="-1.7178627895191312e-03" rms="3.8765403628349304e-01" purity="5.4449105262756348e-01" nType="-99"/>
          </Node>
          <Node pos="r" depth="2" NCoef="0" IVar="-1" Cut="0.0000000000000000e+00" cType="1" res="-1.9327044486999512e-02" rms="3.7517026066780090e-01" purity="3.1994539499282837e-01" nType="-99"/>
        </Node>
        <Node pos="r" depth="1" NCoef="0" IVar="8" Cut="1.1996983289718628e+00" cType="1" res="5.9889499098062515e-03" rms="3.8431340456008911e-01" purity="4.9926149845123291e-01" nType="0">
          <Node pos="l" depth="2" NCoef="0" IVar="5" Cut="7.5203964233398438e+01" cType="1" res="1.3116808841004968e-03" rms="3.8513621687889099e-01" purity="5.3026223182678223e-01" nType="0">
            <Node pos="l" depth="3" NCoef="0" IVar="-1" Cut="0.0000000000000000e+00" cType="1" res="6.6865547560155392e-03" rms="3.8901105523109436e-01" purity="3.4318551421165466e-01" nType="-99"/>
            <Node pos="r" depth="3" NCoef="0" IVar="-1" Cut="0.0000000000000000e+00" cType="1" res="-3.3847882878035307e-03" rms="3.8221707940101624e-01" purity="6.6401052474975586e-01" nType="-99"/>
          </Node>
          <Node pos="r" depth="2" NCoef="0" IVar="1" Cut="1.2882109375000000e+03" cType="1" res="2.7710570022463799e-02" rms="3.7971460819244385e-01" purity="3.5529139637947083e-01" nType="0">
            <Node pos="l" depth="3" NCoef="0" IVar="-1" Cut="0.0000000000000000e+00" cType="1" res="1.1524706147611141e-02" rms="3.6121204495429993e-01" purity="2.1715262532234192e-01" nType="-99"/>
            <Node pos="r" depth="3" NCoef="0" IVar="-1" Cut="0.0000000000000000e+00" cType="1" res="3.0265405774116516e-02" rms="4.0751296281814575e-01" purity="5.8391332626342773e-01" nType="-99"/>
          </Node>
        </Node>
      </Node>
    </BinaryTree>
    <BinaryTree type="DecisionTree" boostWeight="1.0000000000000000e+00" itree="551">
      <Node pos="s" depth="0" NCoef="0" IVar="7" Cut="-1.9999488592147827e+00" cType="1" res="-1.3514329912140965e-03" rms="3.8271185755729675e-01" purity="5.0433212518692017e-01" nType="0">
        <Node pos="l" depth="1" NCoef="0" IVar="-1" Cut="0.0000000000000000e+00" cType="1" res="2.3278646171092987e-02" rms="3.3464351296424866e-01" purity="2.0979407429695129e-01" nType="-99"/>
        <Node pos="r" depth="1" NCoef="0" IVar="3" Cut="3.2667877197265625e+02" cType="1" res="-2.2866611834615469e-03" rms="3.8429969549179077e-01" purity="5.1494973897933960e-01" nType="0">
          <Node pos="l" depth="2" NCoef="0" IVar="6" Cut="-3.7956780195236206e-01" cType="1" res="-3.6232483107596636e-03" rms="3.8657763600349426e-01" purity="4.8874118924140930e-01" nType="0">
            <Node pos="l" depth="3" NCoef="0" IVar="-1" Cut="0.0000000000000000e+00" cType="1" res="-6.6900383681058884e-03" rms="3.8128861784934998e-01" purity="4.2730221152305603e-01" nType="-99"/>
            <Node pos="r" depth="3" NCoef="0" IVar="-1" Cut="0.0000000000000000e+00" cType="1" res="-1.8931404338218272e-04" rms="3.8927257061004639e-01" purity="5.2086138725280762e-01" nType="-99"/>
          </Node>
          <Node pos="r" depth="2" NCoef="0" IVar="8" Cut="-6.6620075702667236e-01" cType="1" res="7.3693781159818172e-03" rms="3.6727902293205261e-01" purity="7.0429086685180664e-01" nType="0">
            <Node pos="l" depth="3" NCoef="0" IVar="-1" Cut="0.0000000000000000e+00" cType="1" res="2.5553956627845764e-02" rms="3.8595387339591980e-01" purity="6.5688812732696533e-01" nType="-99"/>
            <Node pos="r" depth="3" NCoef="0" IVar="-1" Cut="0.0000000000000000e+00" cType="1" res="-3.0978883150964975e-03" rms="3.6002635955810547e-01" purity="7.2026115655899048e-01" nType="-99"/>
          </Node>
        </Node>
      </Node>
    </BinaryTree>
    <BinaryTree type="DecisionTree" boostWeight="1.0000000000000000e+00" itree="552">
      <Node pos="s" depth="0" NCoef="0" IVar="9" Cut="3.9999887347221375e-01" cType="1" res="1.9353786483407021e-03" rms="3.8437956571578979e-01" purity="4.9954140186309814e-01" nType="0">
        <Node pos="l" depth="1" NCoef="0" IVar="2" Cut="3.3580688476562500e+02" cType="1" res="-1.8160133622586727e-03" rms="3.8587126135826111e-01" purity="5.0631129741668701e-01" nType="0">
          <Node pos="l" depth="2" NCoef="0" IVar="7" Cut="-1.4665657281875610e+00" cType="1" res="-9.7082471475005150e-03" rms="3.9531746506690979e-01" purity="4.5092049241065979e-01" nType="0">
            <Node pos="l" depth="3" NCoef="0" IVar="-1" Cut="0.0000000000000000e+00" cType="1" res="-2.9721146449446678e-02" rms="3.3492216467857361e-01" purity="2.0720183849334717e-01" nType="-99"/>
            <Node pos="r" depth="3" NCoef="0" IVar="-1" Cut="0.0000000000000000e+00" cType="1" res="-3.8767561782151461e-03" rms="4.0193054080009460e-01" purity="4.8066720366477966e-01" nType="-99"/>
          </Node>
          <Node pos="r" depth="2" NCoef="0" IVar="6" Cut="1.2047735452651978e+00" cType="1" res="4.9911197274923325e-03" rms="3.7740147113800049e-01" purity="5.5408632755279541e-01" nType="0">
            <Node pos="l" depth="3" NCoef="0" IVar="-1" Cut="0.0000000000000000e+00" cType="1" res="1.7147144535556436e-03" rms="3.7883812189102173e-01" purity="5.7448881864547729e-01" nType="-99"/>
            <Node pos="r" depth="3" NCoef="0" IVar="-1" Cut="0.0000000000000000e+00" cType="1" res="2.5764100253582001e-02" rms="3.6048021912574768e-01" purity="3.3406853675842285e-01" nType="-99"/>
          </Node>
        </Node>
        <Node pos="r" depth="1" NCoef="0" IVar="6" Cut="-8.9044547080993652e-01" cType="1" res="8.0475397408008575e-03" rms="3.8185772299766541e-01" purity="4.8851120471954346e-01" nType="0">
          <Node pos="l" depth="2" NCoef="0" IVar="6" Cut="-1.3297690153121948e+00" cType="1" res="-1.1321141384541988e-02" rms="3.6737871170043945e-01" purity="2.9602420330047607e-01" nType="0">
            <Node pos="l" depth="3" NCoef="0" IVar="-1" Cut="0.0000000000000000e+00" cType="1" res="3.1834684778004885e-03" rms="3.4406399726867676e-01" purity="2.3538725078105927e-01" nType="-99"/>
            <Node pos="r" depth="3" NCoef="0" IVar="-1" Cut="0.0000000000000000e+00" cType="1" res="-1.8464848399162292e-02" rms="3.9039161801338196e-01" purity="3.6163920164108276e-01" nType="-99"/>
          </Node>
          <Node pos="r" depth="2" NCoef="0" IVar="6" Cut="5.1536709070205688e-01" cType="1" res="1.1282850056886673e-02" rms="3.8412791490554810e-01" purity="5.2066385746002197e-01" nType="0">
            <Node pos="l" depth="3" NCoef="0" IVar="-1" Cut="0.0000000000000000e+00" cType="1" res="1.1787930503487587e-02" rms="3.9124509692192078e-01" purity="6.1173647642135620e-01" nType="-99"/>
            <Node pos="r" depth="3" NCoef="0" IVar="-1" Cut="0.0000000000000000e+00" cType="1" res="-1.4543878205586225e-04" rms="3.7275245785713196e-01" purity="3.8218107819557190e-01" nType="-99"/>
          </Node>
        </Node>
      </Node>
    </BinaryTree>
    <BinaryTree type="DecisionTree" boostWeight="1.0000000000000000e+00" itree="553">
      <Node pos="s" depth="0" NCoef="0" IVar="7" Cut="-9.3318247795104980e-01" cType="1" res="-2.6607057079672813e-03" rms="3.8594871759414673e-01" purity="4.9736842513084412e-01" nType="0">
        <Node pos="l" depth="1" NCoef="0" IVar="4" Cut="1.1353031921386719e+02" cType="1" res="1.1249418370425701e-02" rms="3.7079343199729919e-01" purity="3.7986856698989868e-01" nType="0">
          <Node pos="l" depth="2" NCoef="0" IVar="6" Cut="-1.0970683395862579e-01" cType="1" res="-6.2221158295869827e-03" rms="3.3944538235664368e-01" purity="2.0339427888393402e-01" nType="0">
            <Node pos="l" depth="3" NCoef="0" IVar="-1" Cut="0.0000000000000000e+00" cType="1" res="6.9238841533660889e-03" rms="3.5111907124519348e-01" purity="2.2322832047939301e-01" nType="-99"/>
            <Node pos="r" depth="3" NCoef="0" IVar="-1" Cut="0.0000000000000000e+00" cType="1" res="-1.8384119495749474e-02" rms="3.2537004351615906e-01" purity="1.8159626424312592e-01" nType="-99"/>
          </Node>
          <Node pos="r" depth="2" NCoef="0" IVar="9" Cut="-9.3347573280334473e-01" cType="1" res="2.7217974886298180e-02" rms="3.9661455154418945e-01" purity="5.4116183519363403e-01" nType="0">
            <Node pos="l" depth="3" NCoef="0" IVar="-1" Cut="0.0000000000000000e+00" cType="1" res="2.9758157208561897e-02" rms="3.9436244964599609e-01" purity="4.9520576000213623e-01" nType="-99"/>
            <Node pos="r" depth="3" NCoef="0" IVar="-1" Cut="0.0000000000000000e+00" cType="1" res="1.1765439063310623e-02" rms="3.9719671010971069e-01" purity="5.5947238206863403e-01" nType="-99"/>
          </Node>
        </Node>
        <Node pos="r" depth="1" NCoef="0" IVar="9" Cut="1.1999663114547729e+00" cType="1" res="-6.1864955350756645e-03" rms="3.8961762189865112e-01" purity="5.2715098857879639e-01" nType="0">
          <Node pos="l" depth="2" NCoef="0" IVar="8" Cut="-1.2000088691711426e+00" cType="1" res="-3.1340843997895718e-03" rms="3.9102903008460999e-01" purity="5.4792284965515137e-01" nType="0">
            <Node pos="l" depth="3" NCoef="0" IVar="-1" Cut="0.0000000000000000e+00" cType="1" res="1.0523548349738121e-02" rms="3.9163595438003540e-01" purity="4.4150719046592712e-01" nType="-99"/>
            <Node pos="r" depth="3" NCoef="0" IVar="-1" Cut="0.0000000000000000e+00" cType="1" res="-4.3213861063122749e-03" rms="3.9082583785057068e-01" purity="5.6646770238876343e-01" nType="-99"/>
          </Node>
          <Node pos="r" depth="2" NCoef="0" IVar="7" Cut="1.3350720703601837e-01" cType="1" res="-2.0474512130022049e-02" rms="3.8261806964874268e-01" purity="4.2992010712623596e-01" nType="0">
            <Node pos="l" depth="3" NCoef="0" IVar="-1" Cut="0.0000000000000000e+00" cType="1" res="-2.8035361319780350e-02" rms="3.9000168442726135e-01" purity="4.8582506179809570e-01" nType="-99"/>
            <Node pos="r" depth="3" NCoef="0" IVar="-1" Cut="0.0000000000000000e+00" cType="1" res="-4.6236631460487843e-03" rms="3.7763276696205139e-01" purity="3.9789158105850220e-01" nType="-99"/>
          </Node>
        </Node>
      </Node>
    </BinaryTree>
    <BinaryTree type="DecisionTree" boostWeight="1.0000000000000000e+00" itree="554">
      <Node pos="s" depth="0" NCoef="0" IVar="8" Cut="1.4665660858154297e+00" cType="1" res="-1.3165065320208669e-03" rms="3.8323768973350525e-01" purity="4.9810639023780823e-01" nType="0">
        <Node pos="l" depth="1" NCoef="0" IVar="7" Cut="-1.3326123356819153e-01" cType="1" res="-2.9052149038761854e-03" rms="3.8393083214759827e-01" purity="5.1807302236557007e-01" nType="0">
          <Node pos="l" depth="2" NCoef="0" IVar="7" Cut="-5.1419752836227417e-01" cType="1" res="7.0383434649556875e-04" rms="3.8445374369621277e-01" purity="5.0629460811614990e-01" nType="0">
            <Node pos="l" depth="3" NCoef="0" IVar="-1" Cut="0.0000000000000000e+00" cType="1" res="-3.6551924422383308e-03" rms="3.8228702545166016e-01" purity="4.5248925685882568e-01" nType="-99"/>
            <Node pos="r" depth="3" NCoef="0" IVar="-1" Cut="0.0000000000000000e+00" cType="1" res="9.7227245569229126e-03" rms="3.8901114463806152e-01" purity="6.2969583272933960e-01" nType="-99"/>
          </Node>
          <Node pos="r" depth="2" NCoef="0" IVar="7" Cut="8.4447306394577026e-01" cType="1" res="-6.0377712361514568e-03" rms="3.8344886898994446e-01" purity="5.2829635143280029e-01" nType="0">
            <Node pos="l" depth="3" NCoef="0" IVar="-1" Cut="0.0000000000000000e+00" cType="1" res="-7.5154816731810570e-03" rms="3.8518154621124268e-01" purity="6.0314011573791504e-01" nType="-99"/>
            <Node pos="r" depth="3" NCoef="0" IVar="-1" Cut="0.0000000000000000e+00" cType="1" res="1.5151496045291424e-03" rms="3.8058793544769287e-01" purity="4.1176968812942505e-01" nType="-99"/>
          </Node>
        </Node>
        <Node pos="r" depth="1" NCoef="0" IVar="8" Cut="1.9110248088836670e+00" cType="1" res="1.2083745561540127e-02" rms="3.7707424163818359e-01" purity="3.2969406247138977e-01" nType="0">
          <Node pos="l" depth="2" NCoef="0" IVar="7" Cut="1.3473615050315857e-01" cType="1" res="3.1274389475584030e-02" rms="3.9494198560714722e-01" purity="4.1238963603973389e-01" nType="0">
            <Node pos="l" depth="3" NCoef="0" IVar="-1" Cut="0.0000000000000000e+00" cType="1" res="1.0418138466775417e-02" rms="3.9624142646789551e-01" purity="4.1358754038810730e-01" nType="-99"/>
            <Node pos="r" depth="3" NCoef="0" IVar="-1" Cut="0.0000000000000000e+00" cType="1" res="2.9307637363672256e-02" rms="3.9333319664001465e-01" purity="4.1135144233703613e-01" nType="-99"/>
          </Node>
          <Node pos="r" depth="2" NCoef="0" IVar="-1" Cut="0.0000000000000000e+00" cType="1" res="-7.1962820366024971e-03" rms="3.5521253943443298e-01" purity="2.3881328105926514e-01" nType="-99"/>
        </Node>
      </Node>
    </BinaryTree>
    <BinaryTree type="DecisionTree" boostWeight="1.0000000000000000e+00" itree="555">
      <Node pos="s" depth="0" NCoef="0" IVar="4" Cut="2.3941790771484375e+02" cType="1" res="-6.0354228480719030e-05" rms="3.8609281182289124e-01" purity="4.9697011709213257e-01" nType="0">
        <Node pos="l" depth="1" NCoef="0" IVar="4" Cut="7.7099937438964844e+01" cType="1" res="1.3881030026823282e-03" rms="3.8911247253417969e-01" purity="4.7618767619132996e-01" nType="0">
          <Node pos="l" depth="2" NCoef="0" IVar="8" Cut="-9.3335229158401489e-01" cType="1" res="1.5011979267001152e-02" rms="3.4523591399192810e-01" purity="1.8693505227565765e-01" nType="0">
            <Node pos="l" depth="3" NCoef="0" IVar="-1" Cut="0.0000000000000000e+00" cType="1" res="-9.0009570121765137e-03" rms="2.9522421956062317e-01" purity="1.4483520388603210e-01" nType="-99"/>
            <Node pos="r" depth="3" NCoef="0" IVar="-1" Cut="0.0000000000000000e+00" cType="1" res="2.0191663876175880e-02" rms="3.6104866862297058e-01" purity="2.0199443399906158e-01" nType="-99"/>
          </Node>
          <Node pos="r" depth="2" NCoef="0" IVar="2" Cut="7.0331823730468750e+02" cType="1" res="-1.0169615270569921e-03" rms="3.9630541205406189e-01" purity="5.2725034952163696e-01" nType="0">
            <Node pos="l" depth="3" NCoef="0" IVar="-1" Cut="0.0000000000000000e+00" cType="1" res="9.5708215667400509e-05" rms="3.9584538340568542e-01" purity="5.2565389871597290e-01" nType="-99"/>
            <Node pos="r" depth="3" NCoef="0" IVar="-1" Cut="0.0000000000000000e+00" cType="1" res="-1.9658843055367470e-02" rms="4.0771880745887756e-01" purity="5.7239776849746704e-01" nType="-99"/>
          </Node>
        </Node>
        <Node pos="r" depth="1" NCoef="0" IVar="1" Cut="1.9857283935546875e+03" cType="1" res="-2.0106455311179161e-02" rms="3.4093999862670898e-01" purity="7.8459078073501587e-01" nType="0">
          <Node pos="l" depth="2" NCoef="0" IVar="-1" Cut="0.0000000000000000e+00" cType="1" res="-2.7351580560207367e-02" rms="3.6122536659240723e-01" purity="7.2865909337997437e-01" nType="-99"/>
          <Node pos="r" depth="2" NCoef="0" IVar="-1" Cut="0.0000000000000000e+00" cType="1" res="5.6409102398902178e-04" rms="3.1051284074783325e-01" purity="8.5949802398681641e-01" nType="-99"/>
        </Node>
      </Node>
    </BinaryTree>
    <BinaryTree type="DecisionTree" boostWeight="1.0000000000000000e+00" itree="556">
      <Node pos="s" depth="0" NCoef="0" IVar="9" Cut="6.6669881343841553e-01" cType="1" res="2.7747915592044592e-03" rms="3.8415315747261047e-01" purity="5.0335109233856201e-01" nType="0">
        <Node pos="l" depth="1" NCoef="0" IVar="8" Cut="9.3324249982833862e-01" cType="1" res="-1.3570835581049323e-03" rms="3.8474372029304504e-01" purity="5.1678550243377686e-01" nType="0">
          <Node pos="l" depth="2" NCoef="0" IVar="8" Cut="5.7769787311553955e-01" cType="1" res="-4.2220787145197392e-03" rms="3.8283547759056091e-01" purity="5.3439056873321533e-01" nType="0">
            <Node pos="l" depth="3" NCoef="0" IVar="-1" Cut="0.0000000000000000e+00" cType="1" res="-1.3506525428965688e-03" rms="3.8288652896881104e-01" purity="5.3207433223724365e-01" nType="-99"/>
            <Node pos="r" depth="3" NCoef="0" IVar="-1" Cut="0.0000000000000000e+00" cType="1" res="-1.4041071757674217e-02" rms="3.8202065229415894e-01" purity="5.5219042301177979e-01" nType="-99"/>
          </Node>
          <Node pos="r" depth="2" NCoef="0" IVar="4" Cut="8.9539863586425781e+01" cType="1" res="1.0071235708892345e-02" rms="3.9205497503280640e-01" purity="4.4655978679656982e-01" nType="0">
            <Node pos="l" depth="3" NCoef="0" IVar="-1" Cut="0.0000000000000000e+00" cType="1" res="3.0091477558016777e-02" rms="3.7674945592880249e-01" purity="2.5381273031234741e-01" nType="-99"/>
            <Node pos="r" depth="3" NCoef="0" IVar="-1" Cut="0.0000000000000000e+00" cType="1" res="-8.6021306924521923e-04" rms="3.9735686779022217e-01" purity="5.2273488044738770e-01" nType="-99"/>
          </Node>
        </Node>
        <Node pos="r" depth="1" NCoef="0" IVar="8" Cut="1.7332123517990112e+00" cType="1" res="1.2185514904558659e-02" rms="3.8263824582099915e-01" purity="4.7275310754776001e-01" nType="0">
          <Node pos="l" depth="2" NCoef="0" IVar="7" Cut="-3.9981701970100403e-01" cType="1" res="1.6016600653529167e-02" rms="3.8793697953224182e-01" purity="4.9815827608108521e-01" nType="0">
            <Node pos="l" depth="3" NCoef="0" IVar="-1" Cut="0.0000000000000000e+00" cType="1" res="1.3913592556491494e-03" rms="3.8320609927177429e-01" purity="4.3665334582328796e-01" nType="-99"/>
            <Node pos="r" depth="3" NCoef="0" IVar="-1" Cut="0.0000000000000000e+00" cType="1" res="1.4408246614038944e-02" rms="3.8976162672042847e-01" purity="5.2404612302780151e-01" nType="-99"/>
          </Node>
          <Node pos="r" depth="2" NCoef="0" IVar="-1" Cut="0.0000000000000000e+00" cType="1" res="-2.4616064503788948e-02" rms="3.1708601117134094e-01" purity="1.9894723594188690e-01" nType="-99"/>
        </Node>
      </Node>
    </BinaryTree>
    <BinaryTree type="DecisionTree" boostWeight="1.0000000000000000e+00" itree="557">
      <Node pos="s" depth="0" NCoef="0" IVar="4" Cut="1.4892147827148438e+02" cType="1" res="-1.6117208870127797e-03" rms="3.8083398342132568e-01" purity="4.9995553493499756e-01" nType="0">
        <Node pos="l" depth="1" NCoef="0" IVar="2" Cut="4.5827590942382812e+02" cType="1" res="-6.5700714476406574e-03" rms="3.9039999246597290e-01" purity="3.6348131299018860e-01" nType="0">
          <Node pos="l" depth="2" NCoef="0" IVar="2" Cut="3.7218350219726562e+02" cType="1" res="-3.3541806042194366e-03" rms="3.9085450768470764e-01" purity="3.5733348131179810e-01" nType="0">
            <Node pos="l" depth="3" NCoef="0" IVar="-1" Cut="0.0000000000000000e+00" cType="1" res="3.6270415876060724e-04" rms="3.9517027139663696e-01" purity="3.5793563723564148e-01" nType="-99"/>
            <Node pos="r" depth="3" NCoef="0" IVar="-1" Cut="0.0000000000000000e+00" cType="1" res="-1.2351768091320992e-02" rms="3.7385919690132141e-01" purity="3.5507535934448242e-01" nType="-99"/>
          </Node>
          <Node pos="r" depth="2" NCoef="0" IVar="4" Cut="8.3040901184082031e+01" cType="1" res="-2.0161086693406105e-02" rms="3.8817912340164185e-01" purity="3.8946333527565002e-01" nType="0">
            <Node pos="l" depth="3" NCoef="0" IVar="-1" Cut="0.0000000000000000e+00" cType="1" res="-3.4773334860801697e-02" rms="3.3946466445922852e-01" purity="1.9530557096004486e-01" nType="-99"/>
            <Node pos="r" depth="3" NCoef="0" IVar="-1" Cut="0.0000000000000000e+00" cType="1" res="-6.1147720552980900e-03" rms="4.0345251560211182e-01" purity="4.5774322748184204e-01" nType="-99"/>
          </Node>
        </Node>
        <Node pos="r" depth="1" NCoef="0" IVar="2" Cut="3.4035446166992188e+02" cType="1" res="6.8324119783937931e-03" rms="3.6380919814109802e-01" purity="7.3237282037734985e-01" nType="0">
          <Node pos="l" depth="2" NCoef="0" IVar="0" Cut="3.9216735839843750e+02" cType="1" res="-4.8784203827381134e-03" rms="3.6912474036216736e-01" purity="7.1085113286972046e-01" nType="0">
            <Node pos="l" depth="3" NCoef="0" IVar="-1" Cut="0.0000000000000000e+00" cType="1" res="-1.1889328248798847e-02" rms="4.1775384545326233e-01" purity="5.4182296991348267e-01" nType="-99"/>
            <Node pos="r" depth="3" NCoef="0" IVar="-1" Cut="0.0000000000000000e+00" cType="1" res="6.2427306547760963e-03" rms="3.2940700650215149e-01" purity="8.3190715312957764e-01" nType="-99"/>
          </Node>
          <Node pos="r" depth="2" NCoef="0" IVar="0" Cut="4.4441247558593750e+02" cType="1" res="1.4405459165573120e-02" rms="3.6012735962867737e-01" purity="7.4629032611846924e-01" nType="0">
            <Node pos="l" depth="3" NCoef="0" IVar="-1" Cut="0.0000000000000000e+00" cType="1" res="1.7280250787734985e-02" rms="4.0438753366470337e-01" purity="6.1183065176010132e-01" nType="-99"/>
            <Node pos="r" depth="3" NCoef="0" IVar="-1" Cut="0.0000000000000000e+00" cType="1" res="3.1264543067663908e-03" rms="3.2554218173027039e-01" purity="8.3935248851776123e-01" nType="-99"/>
          </Node>
        </Node>
      </Node>
    </BinaryTree>
    <BinaryTree type="DecisionTree" boostWeight="1.0000000000000000e+00" itree="558">
      <Node pos="s" depth="0" NCoef="0" IVar="8" Cut="1.4665958881378174e+00" cType="1" res="-2.0940173417329788e-03" rms="3.8159707188606262e-01" purity="5.0011396408081055e-01" nType="0">
        <Node pos="l" depth="1" NCoef="0" IVar="9" Cut="9.3328505754470825e-01" cType="1" res="-3.6823754198849201e-03" rms="3.8235843181610107e-01" purity="5.2066206932067871e-01" nType="0">
          <Node pos="l" depth="2" NCoef="0" IVar="1" Cut="1.7145916748046875e+03" cType="1" res="-8.9611334260553122e-04" rms="3.8269874453544617e-01" purity="5.3919064998626709e-01" nType="0">
            <Node pos="l" depth="3" NCoef="0" IVar="-1" Cut="0.0000000000000000e+00" cType="1" res="-2.2791926749050617e-03" rms="3.9185154438018799e-01" purity="4.8104149103164673e-01" nType="-99"/>
            <Node pos="r" depth="3" NCoef="0" IVar="-1" Cut="0.0000000000000000e+00" cType="1" res="1.0725318454205990e-02" rms="3.3409568667411804e-01" purity="8.2323741912841797e-01" nType="-99"/>
          </Node>
          <Node pos="r" depth="2" NCoef="0" IVar="7" Cut="1.2000108957290649e+00" cType="1" res="-1.3655366376042366e-02" rms="3.8097092509269714e-01" purity="4.5434188842773438e-01" nType="0">
            <Node pos="l" depth="3" NCoef="0" IVar="-1" Cut="0.0000000000000000e+00" cType="1" res="-6.3782106153666973e-03" rms="3.8433292508125305e-01" purity="4.9419954419136047e-01" nType="-99"/>
            <Node pos="r" depth="3" NCoef="0" IVar="-1" Cut="0.0000000000000000e+00" cType="1" res="-2.5304129347205162e-02" rms="3.6184951663017273e-01" purity="2.4223314225673676e-01" nType="-99"/>
          </Node>
        </Node>
        <Node pos="r" depth="1" NCoef="0" IVar="3" Cut="1.3411700439453125e+02" cType="1" res="1.1247090063989162e-02" rms="3.7487545609474182e-01" purity="3.2752421498298645e-01" nType="0">
          <Node pos="l" depth="2" NCoef="0" IVar="-1" Cut="0.0000000000000000e+00" cType="1" res="3.1035330146551132e-02" rms="3.4384453296661377e-01" purity="1.8583999574184418e-01" nType="-99"/>
          <Node pos="r" depth="2" NCoef="0" IVar="5" Cut="7.2915420532226562e+01" cType="1" res="3.4455943387001753e-03" rms="3.8529935479164124e-01" purity="3.7930849194526672e-01" nType="0">
            <Node pos="l" depth="3" NCoef="0" IVar="-1" Cut="0.0000000000000000e+00" cType="1" res="-1.0350322350859642e-02" rms="3.5327005386352539e-01" purity="2.2478167712688446e-01" nType="-99"/>
            <Node pos="r" depth="3" NCoef="0" IVar="-1" Cut="0.0000000000000000e+00" cType="1" res="9.0319262817502022e-03" rms="4.0484535694122314e-01" purity="4.8237723112106323e-01" nType="-99"/>
          </Node>
        </Node>
      </Node>
    </BinaryTree>
    <BinaryTree type="DecisionTree" boostWeight="1.0000000000000000e+00" itree="559">
      <Node pos="s" depth="0" NCoef="0" IVar="8" Cut="3.9994376897811890e-01" cType="1" res="1.5779297100380063e-03" rms="3.8556894659996033e-01" purity="5.0195157527923584e-01" nType="0">
        <Node pos="l" depth="1" NCoef="0" IVar="6" Cut="-1.6967858076095581e+00" cType="1" res="4.6973703429102898e-03" rms="3.8668239116668701e-01" purity="5.2346324920654297e-01" nType="0">
          <Node pos="l" depth="2" NCoef="0" IVar="-1" Cut="0.0000000000000000e+00" cType="1" res="2.9466755688190460e-02" rms="3.3898520469665527e-01" purity="2.3453871905803680e-01" nType="-99"/>
          <Node pos="r" depth="2" NCoef="0" IVar="9" Cut="-1.9999730587005615e+00" cType="1" res="3.4191696904599667e-03" rms="3.8876387476921082e-01" purity="5.3723633289337158e-01" nType="0">
            <Node pos="l" depth="3" NCoef="0" IVar="-1" Cut="0.0000000000000000e+00" cType="1" res="1.9674802199006081e-02" rms="3.9518785476684570e-01" purity="3.9670139551162720e-01" nType="-99"/>
            <Node pos="r" depth="3" NCoef="0" IVar="-1" Cut="0.0000000000000000e+00" cType="1" res="1.1653481051325798e-03" rms="3.8829860091209412e-01" purity="5.4602390527725220e-01" nType="-99"/>
          </Node>
        </Node>
        <Node pos="r" depth="1" NCoef="0" IVar="7" Cut="-3.9973548054695129e-01" cType="1" res="-3.9124763570725918e-03" rms="3.8353970646858215e-01" purity="4.6408966183662415e-01" nType="0">
          <Node pos="l" depth="2" NCoef="0" IVar="6" Cut="-1.0441875457763672e-01" cType="1" res="-1.4405306428670883e-02" rms="3.7344905734062195e-01" purity="4.0760442614555359e-01" nType="0">
            <Node pos="l" depth="3" NCoef="0" IVar="-1" Cut="0.0000000000000000e+00" cType="1" res="-2.6375690475106239e-02" rms="3.7174269556999207e-01" purity="3.7868720293045044e-01" nType="-99"/>
            <Node pos="r" depth="3" NCoef="0" IVar="-1" Cut="0.0000000000000000e+00" cType="1" res="2.8945119120180607e-03" rms="3.7369453907012939e-01" purity="4.2984366416931152e-01" nType="-99"/>
          </Node>
          <Node pos="r" depth="2" NCoef="0" IVar="9" Cut="-1.4665958881378174e+00" cType="1" res="4.3316851952113211e-04" rms="3.8755869865417480e-01" purity="4.8748320341110229e-01" nType="0">
            <Node pos="l" depth="3" NCoef="0" IVar="-1" Cut="0.0000000000000000e+00" cType="1" res="1.4893640764057636e-02" rms="3.9297989010810852e-01" purity="4.5432966947555542e-01" nType="-99"/>
            <Node pos="r" depth="3" NCoef="0" IVar="-1" Cut="0.0000000000000000e+00" cType="1" res="-1.4142454601824284e-03" rms="3.8686892390251160e-01" purity="4.9115550518035889e-01" nType="-99"/>
          </Node>
        </Node>
      </Node>
    </BinaryTree>
    <BinaryTree type="DecisionTree" boostWeight="1.0000000000000000e+00" itree="560">
      <Node pos="s" depth="0" NCoef="0" IVar="9" Cut="1.2000030279159546e+00" cType="1" res="-1.9946079701185226e-03" rms="3.8312512636184692e-01" purity="4.9934267997741699e-01" nType="0">
        <Node pos="l" depth="1" NCoef="0" IVar="1" Cut="1.6917460937500000e+03" cType="1" res="-4.9753524363040924e-03" rms="3.8179132342338562e-01" purity="5.1399803161621094e-01" nType="0">
          <Node pos="l" depth="2" NCoef="0" IVar="8" Cut="1.3331329822540283e-01" cType="1" res="-7.8706871718168259e-03" rms="3.9111131429672241e-01" purity="4.5002165436744690e-01" nType="0">
            <Node pos="l" depth="3" NCoef="0" IVar="-1" Cut="0.0000000000000000e+00" cType="1" res="-8.1701651215553284e-03" rms="3.8910669088363647e-01" purity="4.5128968358039856e-01" nType="-99"/>
            <Node pos="r" depth="3" NCoef="0" IVar="-1" Cut="0.0000000000000000e+00" cType="1" res="-1.2506111524999142e-03" rms="3.9353054761886597e-01" purity="4.4843217730522156e-01" nType="-99"/>
          </Node>
          <Node pos="r" depth="2" NCoef="0" IVar="3" Cut="2.3447372436523438e+02" cType="1" res="8.5600102320313454e-03" rms="3.3446514606475830e-01" purity="8.1308043003082275e-01" nType="0">
            <Node pos="l" depth="3" NCoef="0" IVar="-1" Cut="0.0000000000000000e+00" cType="1" res="2.8611663728952408e-02" rms="3.4787648916244507e-01" purity="8.1290304660797119e-01" nType="-99"/>
            <Node pos="r" depth="3" NCoef="0" IVar="-1" Cut="0.0000000000000000e+00" cType="1" res="1.3077859766781330e-03" rms="3.3072867989540100e-01" purity="8.1312370300292969e-01" nType="-99"/>
          </Node>
        </Node>
        <Node pos="r" depth="1" NCoef="0" IVar="4" Cut="9.7379203796386719e+01" cType="1" res="1.2221468612551689e-02" rms="3.8910946249961853e-01" purity="4.2944675683975220e-01" nType="0">
          <Node pos="l" depth="2" NCoef="0" IVar="4" Cut="8.1597976684570312e+01" cType="1" res="-6.8524568341672421e-03" rms="3.5372617840766907e-01" purity="1.9835412502288818e-01" nType="0">
            <Node pos="l" depth="3" NCoef="0" IVar="-1" Cut="0.0000000000000000e+00" cType="1" res="-1.8500968813896179e-02" rms="3.1335511803627014e-01" purity="1.3877148926258087e-01" nType="-99"/>
            <Node pos="r" depth="3" NCoef="0" IVar="-1" Cut="0.0000000000000000e+00" cType="1" res="6.2983008101582527e-03" rms="4.0062132477760315e-01" purity="2.7767094969749451e-01" nType="-99"/>
          </Node>
          <Node pos="r" depth="2" NCoef="0" IVar="9" Cut="1.8095685243606567e+00" cType="1" res="2.1899625658988953e-02" rms="4.0554216504096985e-01" purity="5.4670375585556030e-01" nType="0">
            <Node pos="l" depth="3" NCoef="0" IVar="-1" Cut="0.0000000000000000e+00" cType="1" res="6.6980435512959957e-03" rms="4.0485852956771851e-01" purity="5.6378531455993652e-01" nType="-99"/>
            <Node pos="r" depth="3" NCoef="0" IVar="-1" Cut="0.0000000000000000e+00" cType="1" res="2.2865228354930878e-02" rms="4.0596750378608704e-01" purity="5.2451181411743164e-01" nType="-99"/>
          </Node>
        </Node>
      </Node>
    </BinaryTree>
    <BinaryTree type="DecisionTree" boostWeight="1.0000000000000000e+00" itree="561">
      <Node pos="s" depth="0" NCoef="0" IVar="6" Cut="-3.7422448396682739e-01" cType="1" res="4.5087988837622106e-04" rms="3.8483828306198120e-01" purity="4.9899131059646606e-01" nType="0">
        <Node pos="l" depth="1" NCoef="0" IVar="8" Cut="9.3326169252395630e-01" cType="1" res="8.6935395374894142e-03" rms="3.8584515452384949e-01" purity="4.5043599605560303e-01" nType="0">
          <Node pos="l" depth="2" NCoef="0" IVar="7" Cut="-1.3314744830131531e-01" cType="1" res="1.3652837835252285e-02" rms="3.8815832138061523e-01" purity="4.7889912128448486e-01" nType="0">
            <Node pos="l" depth="3" NCoef="0" IVar="-1" Cut="0.0000000000000000e+00" cType="1" res="1.7719937488436699e-02" rms="3.8873910903930664e-01" purity="4.7765055298805237e-01" nType="-99"/>
            <Node pos="r" depth="3" NCoef="0" IVar="-1" Cut="0.0000000000000000e+00" cType="1" res="1.8727639690041542e-04" rms="3.8709434866905212e-01" purity="4.8021838068962097e-01" nType="-99"/>
          </Node>
          <Node pos="r" depth="2" NCoef="0" IVar="6" Cut="-9.3645000457763672e-01" cType="1" res="-1.3600164093077183e-02" rms="3.7446030974388123e-01" purity="3.2248461246490479e-01" nType="0">
            <Node pos="l" depth="3" NCoef="0" IVar="-1" Cut="0.0000000000000000e+00" cType="1" res="-2.8762463480234146e-02" rms="3.1109985709190369e-01" purity="1.8704040348529816e-01" nType="-99"/>
            <Node pos="r" depth="3" NCoef="0" IVar="-1" Cut="0.0000000000000000e+00" cType="1" res="2.4878538679331541e-03" rms="4.2354270815849304e-01" purity="4.4670081138610840e-01" nType="-99"/>
          </Node>
        </Node>
        <Node pos="r" depth="1" NCoef="0" IVar="8" Cut="1.3326159119606018e-01" cType="1" res="-3.8917933125048876e-03" rms="3.8423565030097961e-01" purity="5.2457284927368164e-01" nType="0">
          <Node pos="l" depth="2" NCoef="0" IVar="3" Cut="2.2063528442382812e+02" cType="1" res="1.3958559138700366e-03" rms="3.8758522272109985e-01" purity="5.4483932256698608e-01" nType="0">
            <Node pos="l" depth="3" NCoef="0" IVar="-1" Cut="0.0000000000000000e+00" cType="1" res="6.5507544204592705e-03" rms="4.0294438600540161e-01" purity="4.3626102805137634e-01" nType="-99"/>
            <Node pos="r" depth="3" NCoef="0" IVar="-1" Cut="0.0000000000000000e+00" cType="1" res="-8.2217985764145851e-03" rms="3.6475947499275208e-01" purity="6.9598013162612915e-01" nType="-99"/>
          </Node>
          <Node pos="r" depth="2" NCoef="0" IVar="8" Cut="1.0221226215362549e+00" cType="1" res="-9.5880078151822090e-03" rms="3.8051205873489380e-01" purity="5.0274044275283813e-01" nType="0">
            <Node pos="l" depth="3" NCoef="0" IVar="-1" Cut="0.0000000000000000e+00" cType="1" res="-1.1490564793348312e-02" rms="3.8188374042510986e-01" purity="5.6647706031799316e-01" nType="-99"/>
            <Node pos="r" depth="3" NCoef="0" IVar="-1" Cut="0.0000000000000000e+00" cType="1" res="2.5132068549282849e-04" rms="3.7844806909561157e-01" purity="4.1786274313926697e-01" nType="-99"/>
          </Node>
        </Node>
      </Node>
    </BinaryTree>
    <BinaryTree type="DecisionTree" boostWeight="1.0000000000000000e+00" itree="562">
      <Node pos="s" depth="0" NCoef="0" IVar="6" Cut="1.4154344797134399e-01" cType="1" res="1.7580097774043679e-03" rms="3.8414323329925537e-01" purity="5.0006937980651855e-01" nType="0">
        <Node pos="l" depth="1" NCoef="0" IVar="9" Cut="-1.9998819828033447e+00" cType="1" res="-3.1059340108186007e-03" rms="3.8528633117675781e-01" purity="5.0938630104064941e-01" nType="0">
          <Node pos="l" depth="2" NCoef="0" IVar="-1" Cut="0.0000000000000000e+00" cType="1" res="1.3124044053256512e-02" rms="3.9347556233406067e-01" purity="3.7221801280975342e-01" nType="-99"/>
          <Node pos="r" depth="2" NCoef="0" IVar="9" Cut="-1.7136161029338837e-01" cType="1" res="-4.5082010328769684e-03" rms="3.8472494482994080e-01" purity="5.1796525716781616e-01" nType="0">
            <Node pos="l" depth="3" NCoef="0" IVar="-1" Cut="0.0000000000000000e+00" cType="1" res="-7.5555932708084583e-03" rms="3.8459894061088562e-01" purity="4.9789869785308838e-01" nType="-99"/>
            <Node pos="r" depth="3" NCoef="0" IVar="-1" Cut="0.0000000000000000e+00" cType="1" res="7.9227745300158858e-04" rms="3.8473320007324219e-01" purity="5.3428369760513306e-01" nType="-99"/>
          </Node>
        </Node>
        <Node pos="r" depth="1" NCoef="0" IVar="6" Cut="6.4790445566177368e-01" cType="1" res="7.8934915363788605e-03" rms="3.8260823488235474e-01" purity="4.8831674456596375e-01" nType="0">
          <Node pos="l" depth="2" NCoef="0" IVar="7" Cut="1.2002955675125122e+00" cType="1" res="2.0338483154773712e-02" rms="3.9840003848075867e-01" purity="6.1776441335678101e-01" nType="0">
            <Node pos="l" depth="3" NCoef="0" IVar="-1" Cut="0.0000000000000000e+00" cType="1" res="9.4465147703886032e-03" rms="3.9556524157524109e-01" purity="6.3728702068328857e-01" nType="-99"/>
            <Node pos="r" depth="3" NCoef="0" IVar="-1" Cut="0.0000000000000000e+00" cType="1" res="3.3359374850988388e-02" rms="4.1512584686279297e-01" purity="4.8661786317825317e-01" nType="-99"/>
          </Node>
          <Node pos="r" depth="2" NCoef="0" IVar="9" Cut="-6.6656345129013062e-01" cType="1" res="-2.1595279686152935e-03" rms="3.6905270814895630e-01" purity="3.8374942541122437e-01" nType="0">
            <Node pos="l" depth="3" NCoef="0" IVar="-1" Cut="0.0000000000000000e+00" cType="1" res="-1.7660334706306458e-02" rms="3.5799115896224976e-01" purity="3.2421651482582092e-01" nType="-99"/>
            <Node pos="r" depth="3" NCoef="0" IVar="-1" Cut="0.0000000000000000e+00" cType="1" res="3.7905143108218908e-03" rms="3.7239298224449158e-01" purity="4.0370637178421021e-01" nType="-99"/>
          </Node>
        </Node>
      </Node>
    </BinaryTree>
    <BinaryTree type="DecisionTree" boostWeight="1.0000000000000000e+00" itree="563">
      <Node pos="s" depth="0" NCoef="0" IVar="7" Cut="2.0000073909759521e+00" cType="1" res="2.0544892176985741e-03" rms="3.8374683260917664e-01" purity="5.0231206417083740e-01" nType="0">
        <Node pos="l" depth="1" NCoef="0" IVar="9" Cut="-1.9999672174453735e+00" cType="1" res="3.1828607898205519e-03" rms="3.8647845387458801e-01" purity="5.1456630229949951e-01" nType="0">
          <Node pos="l" depth="2" NCoef="0" IVar="7" Cut="-2.8558450937271118e-01" cType="1" res="-2.1772233769297600e-02" rms="3.6933410167694092e-01" purity="3.3464470505714417e-01" nType="0">
            <Node pos="l" depth="3" NCoef="0" IVar="-1" Cut="0.0000000000000000e+00" cType="1" res="-1.7860168591141701e-02" rms="3.5532656311988831e-01" purity="3.1690287590026855e-01" nType="-99"/>
            <Node pos="r" depth="3" NCoef="0" IVar="-1" Cut="0.0000000000000000e+00" cType="1" res="-1.2580102309584618e-02" rms="3.8289523124694824e-01" purity="3.5249614715576172e-01" nType="-99"/>
          </Node>
          <Node pos="r" depth="2" NCoef="0" IVar="6" Cut="-9.2187398672103882e-01" cType="1" res="4.5515163801610470e-03" rms="3.8735026121139526e-01" purity="5.2443403005599976e-01" nType="0">
            <Node pos="l" depth="3" NCoef="0" IVar="-1" Cut="0.0000000000000000e+00" cType="1" res="-6.3377576880156994e-03" rms="3.6627924442291260e-01" purity="3.2788741588592529e-01" nType="-99"/>
            <Node pos="r" depth="3" NCoef="0" IVar="-1" Cut="0.0000000000000000e+00" cType="1" res="4.5503959991037846e-03" rms="3.9101618528366089e-01" purity="5.6022065877914429e-01" nType="-99"/>
          </Node>
        </Node>
        <Node pos="r" depth="1" NCoef="0" IVar="-1" Cut="0.0000000000000000e+00" cType="1" res="-2.7319675311446190e-02" rms="2.9427233338356018e-01" purity="1.5513500571250916e-01" nType="-99"/>
      </Node>
    </BinaryTree>
    <BinaryTree type="DecisionTree" boostWeight="1.0000000000000000e+00" itree="564">
      <Node pos="s" depth="0" NCoef="0" IVar="9" Cut="1.4666643142700195e+00" cType="1" res="8.6359708802774549e-04" rms="3.8524442911148071e-01" purity="4.9881154298782349e-01" nType="0">
        <Node pos="l" depth="1" NCoef="0" IVar="6" Cut="-1.4394030570983887e+00" cType="1" res="2.8405687771737576e-03" rms="3.8663920760154724e-01" purity="5.1301407814025879e-01" nType="0">
          <Node pos="l" depth="2" NCoef="0" IVar="5" Cut="7.2916351318359375e+01" cType="1" res="2.1851588040590286e-02" rms="3.4919384121894836e-01" purity="2.5116196274757385e-01" nType="0">
            <Node pos="l" depth="3" NCoef="0" IVar="-1" Cut="0.0000000000000000e+00" cType="1" res="4.3169561773538589e-02" rms="3.1287842988967896e-01" purity="1.4662536978721619e-01" nType="-99"/>
            <Node pos="r" depth="3" NCoef="0" IVar="-1" Cut="0.0000000000000000e+00" cType="1" res="5.5086370557546616e-03" rms="3.8103422522544861e-01" purity="3.5388040542602539e-01" nType="-99"/>
          </Node>
          <Node pos="r" depth="2" NCoef="0" IVar="9" Cut="-1.3777285814285278e+00" cType="1" res="1.3403921620920300e-03" rms="3.8940131664276123e-01" purity="5.3367704153060913e-01" nType="0">
            <Node pos="l" depth="3" NCoef="0" IVar="-1" Cut="0.0000000000000000e+00" cType="1" res="1.0096353478729725e-02" rms="3.9237862825393677e-01" purity="4.4848039746284485e-01" nType="-99"/>
            <Node pos="r" depth="3" NCoef="0" IVar="-1" Cut="0.0000000000000000e+00" cType="1" res="-8.9588353876024485e-04" rms="3.8878875970840454e-01" purity="5.4941749572753906e-01" nType="-99"/>
          </Node>
        </Node>
        <Node pos="r" depth="1" NCoef="0" IVar="6" Cut="-3.7290772795677185e-01" cType="1" res="-1.3294768519699574e-02" rms="3.7479922175407410e-01" purity="3.9709842205047607e-01" nType="0">
          <Node pos="l" depth="2" NCoef="0" IVar="-1" Cut="0.0000000000000000e+00" cType="1" res="4.4686105102300644e-03" rms="3.9027532935142517e-01" purity="3.3649814128875732e-01" nType="-99"/>
          <Node pos="r" depth="2" NCoef="0" IVar="5" Cut="9.1209060668945312e+01" cType="1" res="-2.1328171715140343e-02" rms="3.6798769235610962e-01" purity="4.2185467481613159e-01" nType="0">
            <Node pos="l" depth="3" NCoef="0" IVar="-1" Cut="0.0000000000000000e+00" cType="1" res="-2.0459650084376335e-02" rms="3.6415567994117737e-01" purity="3.0228492617607117e-01" nType="-99"/>
            <Node pos="r" depth="3" NCoef="0" IVar="-1" Cut="0.0000000000000000e+00" cType="1" res="-4.0292260237038136e-03" rms="3.7477448582649231e-01" purity="6.5220379829406738e-01" nType="-99"/>
          </Node>
        </Node>
      </Node>
    </BinaryTree>
    <BinaryTree type="DecisionTree" boostWeight="1.0000000000000000e+00" itree="565">
      <Node pos="s" depth="0" NCoef="0" IVar="8" Cut="1.9998749494552612e+00" cType="1" res="-2.4408046156167984e-03" rms="3.8281658291816711e-01" purity="4.9890062212944031e-01" nType="0">
        <Node pos="l" depth="1" NCoef="0" IVar="7" Cut="6.6666620969772339e-01" cType="1" res="-1.7051739851012826e-03" rms="3.8493061065673828e-01" purity="5.1075285673141479e-01" nType="0">
          <Node pos="l" depth="2" NCoef="0" IVar="3" Cut="1.4581669616699219e+02" cType="1" res="8.8414642959833145e-04" rms="3.8502368330955505e-01" purity="5.4232478141784668e-01" nType="0">
            <Node pos="l" depth="3" NCoef="0" IVar="-1" Cut="0.0000000000000000e+00" cType="1" res="-6.1035356484353542e-03" rms="3.7302774190902710e-01" purity="2.5669413805007935e-01" nType="-99"/>
            <Node pos="r" depth="3" NCoef="0" IVar="-1" Cut="0.0000000000000000e+00" cType="1" res="2.3925108835101128e-03" rms="3.8837146759033203e-01" purity="6.2475019693374634e-01" nType="-99"/>
          </Node>
          <Node pos="r" depth="2" NCoef="0" IVar="7" Cut="1.4793487787246704e+00" cType="1" res="-9.1952253133058548e-03" rms="3.8456311821937561e-01" purity="4.1942584514617920e-01" nType="0">
            <Node pos="l" depth="3" NCoef="0" IVar="-1" Cut="0.0000000000000000e+00" cType="1" res="-1.1786354705691338e-02" rms="3.9237517118453979e-01" purity="4.8877844214439392e-01" nType="-99"/>
            <Node pos="r" depth="3" NCoef="0" IVar="-1" Cut="0.0000000000000000e+00" cType="1" res="8.0747185274958611e-03" rms="3.6644333600997925e-01" purity="2.7040925621986389e-01" nType="-99"/>
          </Node>
        </Node>
        <Node pos="r" depth="1" NCoef="0" IVar="-1" Cut="0.0000000000000000e+00" cType="1" res="-1.5731036663055420e-02" rms="3.2977515459060669e-01" purity="2.2509145736694336e-01" nType="-99"/>
      </Node>
    </BinaryTree>
    <BinaryTree type="DecisionTree" boostWeight="1.0000000000000000e+00" itree="566">
      <Node pos="s" depth="0" NCoef="0" IVar="8" Cut="-1.1999973058700562e+00" cType="1" res="-1.7135601956397295e-03" rms="3.8283509016036987e-01" purity="5.0008720159530640e-01" nType="0">
        <Node pos="l" depth="1" NCoef="0" IVar="1" Cut="1.3775715332031250e+03" cType="1" res="-1.5494924969971180e-02" rms="3.6675229668617249e-01" purity="3.4581151604652405e-01" nType="0">
          <Node pos="l" depth="2" NCoef="0" IVar="5" Cut="7.6364990234375000e+01" cType="1" res="-2.4998003616929054e-02" rms="3.5642334818840027e-01" purity="2.2568570077419281e-01" nType="0">
            <Node pos="l" depth="3" NCoef="0" IVar="-1" Cut="0.0000000000000000e+00" cType="1" res="-1.2967389076948166e-02" rms="3.2744020223617554e-01" purity="1.7256364226341248e-01" nType="-99"/>
            <Node pos="r" depth="3" NCoef="0" IVar="-1" Cut="0.0000000000000000e+00" cType="1" res="-2.4911954998970032e-02" rms="4.0065661072731018e-01" purity="3.1663584709167480e-01" nType="-99"/>
          </Node>
          <Node pos="r" depth="2" NCoef="0" IVar="-1" Cut="0.0000000000000000e+00" cType="1" res="3.7384585011750460e-03" rms="3.8806289434432983e-01" purity="6.1504822969436646e-01" nType="-99"/>
        </Node>
        <Node pos="r" depth="1" NCoef="0" IVar="9" Cut="-9.3324929475784302e-01" cType="1" res="7.6493876986205578e-04" rms="3.8560408353805542e-01" purity="5.2783286571502686e-01" nType="0">
          <Node pos="l" depth="2" NCoef="0" IVar="5" Cut="7.7447853088378906e+01" cType="1" res="1.3975601643323898e-02" rms="3.9352828264236450e-01" purity="4.9590361118316650e-01" nType="0">
            <Node pos="l" depth="3" NCoef="0" IVar="-1" Cut="0.0000000000000000e+00" cType="1" res="1.7146622762084007e-02" rms="3.9727410674095154e-01" purity="3.5511073470115662e-01" nType="-99"/>
            <Node pos="r" depth="3" NCoef="0" IVar="-1" Cut="0.0000000000000000e+00" cType="1" res="1.1993101797997952e-03" rms="3.8940346240997314e-01" purity="6.3531190156936646e-01" nType="-99"/>
          </Node>
          <Node pos="r" depth="2" NCoef="0" IVar="8" Cut="-5.7159695774316788e-02" cType="1" res="-3.1220328528434038e-03" rms="3.8315463066101074e-01" purity="5.3722733259201050e-01" nType="0">
            <Node pos="l" depth="3" NCoef="0" IVar="-1" Cut="0.0000000000000000e+00" cType="1" res="5.1752296276390553e-03" rms="3.8974821567535400e-01" purity="5.9602260589599609e-01" nType="-99"/>
            <Node pos="r" depth="3" NCoef="0" IVar="-1" Cut="0.0000000000000000e+00" cType="1" res="-6.7208879627287388e-03" rms="3.7887048721313477e-01" purity="5.0094014406204224e-01" nType="-99"/>
          </Node>
        </Node>
      </Node>
    </BinaryTree>
    <BinaryTree type="DecisionTree" boostWeight="1.0000000000000000e+00" itree="567">
      <Node pos="s" depth="0" NCoef="0" IVar="5" Cut="1.2018331909179688e+02" cType="1" res="2.7871842030435801e-03" rms="3.8544201850891113e-01" purity="5.0219827890396118e-01" nType="0">
        <Node pos="l" depth="1" NCoef="0" IVar="7" Cut="4.0002721548080444e-01" cType="1" res="5.2716885693371296e-03" rms="3.9599058032035828e-01" purity="4.2433625459671021e-01" nType="0">
          <Node pos="l" depth="2" NCoef="0" IVar="9" Cut="3.9991119503974915e-01" cType="1" res="9.2085008509457111e-04" rms="3.9541891217231750e-01" purity="4.4489273428916931e-01" nType="0">
            <Node pos="l" depth="3" NCoef="0" IVar="-1" Cut="0.0000000000000000e+00" cType="1" res="3.7438743747770786e-03" rms="3.9844509959220886e-01" purity="4.4809710979461670e-01" nType="-99"/>
            <Node pos="r" depth="3" NCoef="0" IVar="-1" Cut="0.0000000000000000e+00" cType="1" res="-5.5101155303418636e-03" rms="3.8952165842056274e-01" purity="4.3890699744224548e-01" nType="-99"/>
          </Node>
          <Node pos="r" depth="2" NCoef="0" IVar="5" Cut="5.3342769622802734e+01" cType="1" res="1.3090753927826881e-02" rms="3.9689600467681885e-01" purity="3.8739350438117981e-01" nType="0">
            <Node pos="l" depth="3" NCoef="0" IVar="-1" Cut="0.0000000000000000e+00" cType="1" res="-1.2003436684608459e-02" rms="3.3987390995025635e-01" purity="1.8782021105289459e-01" nType="-99"/>
            <Node pos="r" depth="3" NCoef="0" IVar="-1" Cut="0.0000000000000000e+00" cType="1" res="1.0210980661213398e-02" rms="4.0219694375991821e-01" purity="4.0791395306587219e-01" nType="-99"/>
          </Node>
        </Node>
        <Node pos="r" depth="1" NCoef="0" IVar="9" Cut="6.6622167825698853e-01" cType="1" res="-6.3981465063989162e-03" rms="3.4348747134208679e-01" purity="7.9005765914916992e-01" nType="0">
          <Node pos="l" depth="2" NCoef="0" IVar="9" Cut="-9.8398262262344360e-01" cType="1" res="2.4766891729086637e-03" rms="3.3716639876365662e-01" purity="8.1087636947631836e-01" nType="0">
            <Node pos="l" depth="3" NCoef="0" IVar="-1" Cut="0.0000000000000000e+00" cType="1" res="-1.0479395277798176e-02" rms="3.7298202514648438e-01" purity="7.1266674995422363e-01" nType="-99"/>
            <Node pos="r" depth="3" NCoef="0" IVar="-1" Cut="0.0000000000000000e+00" cType="1" res="6.8682264536619186e-03" rms="3.2594424486160278e-01" purity="8.3918422460556030e-01" nType="-99"/>
          </Node>
          <Node pos="r" depth="2" NCoef="0" IVar="-1" Cut="0.0000000000000000e+00" cType="1" res="-2.6543898507952690e-02" rms="3.6028966307640076e-01" purity="7.2836279869079590e-01" nType="-99"/>
        </Node>
      </Node>
    </BinaryTree>
    <BinaryTree type="DecisionTree" boostWeight="1.0000000000000000e+00" itree="568">
      <Node pos="s" depth="0" NCoef="0" IVar="9" Cut="-1.9999783039093018e+00" cType="1" res="-1.5292859170585871e-03" rms="3.8262531161308289e-01" purity="4.9956375360488892e-01" nType="0">
        <Node pos="l" depth="1" NCoef="0" IVar="6" Cut="-1.1673489958047867e-01" cType="1" res="-2.1801404654979706e-02" rms="3.6316746473312378e-01" purity="3.4153130650520325e-01" nType="0">
          <Node pos="l" depth="2" NCoef="0" IVar="-1" Cut="0.0000000000000000e+00" cType="1" res="-3.4058887977153063e-03" rms="3.6253795027732849e-01" purity="3.4338119626045227e-01" nType="-99"/>
          <Node pos="r" depth="2" NCoef="0" IVar="-1" Cut="0.0000000000000000e+00" cType="1" res="-2.6676561683416367e-02" rms="3.6297363042831421e-01" purity="3.3959600329399109e-01" nType="-99"/>
        </Node>
        <Node pos="r" depth="1" NCoef="0" IVar="8" Cut="-1.9999750852584839e+00" cType="1" res="-3.5284453770145774e-04" rms="3.8369131088256836e-01" purity="5.0873482227325439e-01" nType="0">
          <Node pos="l" depth="2" NCoef="0" IVar="-1" Cut="0.0000000000000000e+00" cType="1" res="1.6591956838965416e-02" rms="3.6768540740013123e-01" purity="2.8137037158012390e-01" nType="-99"/>
          <Node pos="r" depth="2" NCoef="0" IVar="6" Cut="-1.4232467412948608e+00" cType="1" res="-1.3015449512749910e-03" rms="3.8434624671936035e-01" purity="5.1865160465240479e-01" nType="0">
            <Node pos="l" depth="3" NCoef="0" IVar="-1" Cut="0.0000000000000000e+00" cType="1" res="-1.4997703954577446e-02" rms="3.2870474457740784e-01" purity="2.2147046029567719e-01" nType="-99"/>
            <Node pos="r" depth="3" NCoef="0" IVar="-1" Cut="0.0000000000000000e+00" cType="1" res="-4.6127170207910240e-05" rms="3.8803169131278992e-01" purity="5.4014170169830322e-01" nType="-99"/>
          </Node>
        </Node>
      </Node>
    </BinaryTree>
    <BinaryTree type="DecisionTree" boostWeight="1.0000000000000000e+00" itree="569">
      <Node pos="s" depth="0" NCoef="0" IVar="9" Cut="6.6668361425399780e-01" cType="1" res="4.2597264982759953e-03" rms="3.8597753643989563e-01" purity="5.0234347581863403e-01" nType="0">
        <Node pos="l" depth="1" NCoef="0" IVar="2" Cut="3.5034561157226562e+02" cType="1" res="8.6433915421366692e-03" rms="3.8822603225708008e-01" purity="5.2446478605270386e-01" nType="0">
          <Node pos="l" depth="2" NCoef="0" IVar="9" Cut="-1.8093467950820923e+00" cType="1" res="1.6477735713124275e-02" rms="3.9564588665962219e-01" purity="4.9841734766960144e-01" nType="0">
            <Node pos="l" depth="3" NCoef="0" IVar="-1" Cut="0.0000000000000000e+00" cType="1" res="-8.9224511757493019e-03" rms="3.7113326787948608e-01" purity="3.2090184092521667e-01" nType="-99"/>
            <Node pos="r" depth="3" NCoef="0" IVar="-1" Cut="0.0000000000000000e+00" cType="1" res="1.2693607248365879e-02" rms="3.9844414591789246e-01" purity="5.2051007747650146e-01" nType="-99"/>
          </Node>
          <Node pos="r" depth="2" NCoef="0" IVar="9" Cut="1.7145566642284393e-01" cType="1" res="1.5668873675167561e-04" rms="3.7984260916709900e-01" purity="5.5268114805221558e-01" nType="0">
            <Node pos="l" depth="3" NCoef="0" IVar="-1" Cut="0.0000000000000000e+00" cType="1" res="-3.8213522639125586e-03" rms="3.7745210528373718e-01" purity="5.4020333290100098e-01" nType="-99"/>
            <Node pos="r" depth="3" NCoef="0" IVar="-1" Cut="0.0000000000000000e+00" cType="1" res="1.4484159648418427e-02" rms="3.8791763782501221e-01" purity="5.9935522079467773e-01" nType="-99"/>
          </Node>
        </Node>
        <Node pos="r" depth="1" NCoef="0" IVar="6" Cut="9.4910693168640137e-01" cType="1" res="-6.0946443118155003e-03" rms="3.8041320443153381e-01" purity="4.5009207725524902e-01" nType="0">
          <Node pos="l" depth="2" NCoef="0" IVar="3" Cut="1.3603179931640625e+02" cType="1" res="-5.8865430764853954e-04" rms="3.9352354407310486e-01" purity="5.0618308782577515e-01" nType="0">
            <Node pos="l" depth="3" NCoef="0" IVar="-1" Cut="0.0000000000000000e+00" cType="1" res="-2.1962428465485573e-02" rms="3.5585463047027588e-01" purity="1.9188639521598816e-01" nType="-99"/>
            <Node pos="r" depth="3" NCoef="0" IVar="-1" Cut="0.0000000000000000e+00" cType="1" res="3.9546485058963299e-03" rms="4.0167906880378723e-01" purity="5.8116781711578369e-01" nType="-99"/>
          </Node>
          <Node pos="r" depth="2" NCoef="0" IVar="4" Cut="1.1997524261474609e+02" cType="1" res="-2.7572104707360268e-02" rms="3.2335045933723450e-01" purity="2.3129564523696899e-01" nType="0">
            <Node pos="l" depth="3" NCoef="0" IVar="-1" Cut="0.0000000000000000e+00" cType="1" res="-1.2880420312285423e-02" rms="2.8910934925079346e-01" purity="1.3386435806751251e-01" nType="-99"/>
            <Node pos="r" depth="3" NCoef="0" IVar="-1" Cut="0.0000000000000000e+00" cType="1" res="-3.3318080008029938e-02" rms="3.6534592509269714e-01" purity="3.6941012740135193e-01" nType="-99"/>
          </Node>
        </Node>
      </Node>
    </BinaryTree>
    <BinaryTree type="DecisionTree" boostWeight="1.0000000000000000e+00" itree="570">
      <Node pos="s" depth="0" NCoef="0" IVar="6" Cut="-1.7193617820739746e+00" cType="1" res="-3.5533537156879902e-03" rms="3.8196226954460144e-01" purity="4.9618536233901978e-01" nType="0">
        <Node pos="l" depth="1" NCoef="0" IVar="-1" Cut="0.0000000000000000e+00" cType="1" res="-2.5941628962755203e-02" rms="2.9418620467185974e-01" purity="1.5063266456127167e-01" nType="-99"/>
        <Node pos="r" depth="1" NCoef="0" IVar="7" Cut="1.7333641052246094e+00" cType="1" res="-2.5933710858225822e-03" rms="3.8518944382667542e-01" purity="5.1073271036148071e-01" nType="0">
          <Node pos="l" depth="2" NCoef="0" IVar="7" Cut="1.3016074895858765e+00" cType="1" res="-3.6350875161588192e-03" rms="3.8663724064826965e-01" purity="5.2635812759399414e-01" nType="0">
            <Node pos="l" depth="3" NCoef="0" IVar="-1" Cut="0.0000000000000000e+00" cType="1" res="-1.5747854486107826e-03" rms="3.8694980740547180e-01" purity="5.3804928064346313e-01" nType="-99"/>
            <Node pos="r" depth="3" NCoef="0" IVar="-1" Cut="0.0000000000000000e+00" cType="1" res="-1.5604422427713871e-02" rms="3.8102918863296509e-01" purity="3.3862608671188354e-01" nType="-99"/>
          </Node>
          <Node pos="r" depth="2" NCoef="0" IVar="8" Cut="4.0057104825973511e-01" cType="1" res="1.4353371225297451e-02" rms="3.6039885878562927e-01" purity="2.5653660297393799e-01" nType="0">
            <Node pos="l" depth="3" NCoef="0" IVar="-1" Cut="0.0000000000000000e+00" cType="1" res="3.2470226287841797e-02" rms="3.8426265120506287e-01" purity="3.0737426877021790e-01" nType="-99"/>
            <Node pos="r" depth="3" NCoef="0" IVar="-1" Cut="0.0000000000000000e+00" cType="1" res="-1.6614291816949844e-02" rms="3.2742530107498169e-01" purity="1.9765132665634155e-01" nType="-99"/>
          </Node>
        </Node>
      </Node>
    </BinaryTree>
    <BinaryTree type="DecisionTree" boostWeight="1.0000000000000000e+00" itree="571">
      <Node pos="s" depth="0" NCoef="0" IVar="9" Cut="9.3333864212036133e-01" cType="1" res="2.0788609981536865e-03" rms="3.8464516401290894e-01" purity="5.0306254625320435e-01" nType="0">
        <Node pos="l" depth="1" NCoef="0" IVar="8" Cut="-1.7333364486694336e+00" cType="1" res="-1.7482312396168709e-03" rms="3.8404813408851624e-01" purity="5.1976048946380615e-01" nType="0">
          <Node pos="l" depth="2" NCoef="0" IVar="8" Cut="-2.0888941287994385e+00" cType="1" res="1.7283340916037560e-02" rms="3.7349820137023926e-01" purity="3.0727258324623108e-01" nType="0">
            <Node pos="l" depth="3" NCoef="0" IVar="-1" Cut="0.0000000000000000e+00" cType="1" res="-4.4523132964968681e-03" rms="3.5320398211479187e-01" purity="2.3162965476512909e-01" nType="-99"/>
            <Node pos="r" depth="3" NCoef="0" IVar="-1" Cut="0.0000000000000000e+00" cType="1" res="2.6358239352703094e-02" rms="3.9109215140342712e-01" purity="3.8140138983726501e-01" nType="-99"/>
          </Node>
          <Node pos="r" depth="2" NCoef="0" IVar="8" Cut="6.4120066165924072e-01" cType="1" res="-3.2748824451118708e-03" rms="3.8484111428260803e-01" purity="5.3680557012557983e-01" nType="0">
            <Node pos="l" depth="3" NCoef="0" IVar="-1" Cut="0.0000000000000000e+00" cType="1" res="-4.2312177829444408e-03" rms="3.8571348786354065e-01" purity="5.5985939502716064e-01" nType="-99"/>
            <Node pos="r" depth="3" NCoef="0" IVar="-1" Cut="0.0000000000000000e+00" cType="1" res="2.5751963257789612e-03" rms="3.8271385431289673e-01" purity="4.8331218957901001e-01" nType="-99"/>
          </Node>
        </Node>
        <Node pos="r" depth="1" NCoef="0" IVar="2" Cut="3.1201501464843750e+02" cType="1" res="1.4522278681397438e-02" rms="3.8631805777549744e-01" purity="4.4877079129219055e-01" nType="0">
          <Node pos="l" depth="2" NCoef="0" IVar="4" Cut="9.6952056884765625e+01" cType="1" res="2.7624722570180893e-02" rms="4.0016737580299377e-01" purity="4.0396377444267273e-01" nType="0">
            <Node pos="l" depth="3" NCoef="0" IVar="-1" Cut="0.0000000000000000e+00" cType="1" res="4.1125603020191193e-02" rms="3.8121175765991211e-01" purity="2.5625324249267578e-01" nType="-99"/>
            <Node pos="r" depth="3" NCoef="0" IVar="-1" Cut="0.0000000000000000e+00" cType="1" res="7.7408859506249428e-03" rms="4.1023403406143188e-01" purity="4.9108940362930298e-01" nType="-99"/>
          </Node>
          <Node pos="r" depth="2" NCoef="0" IVar="4" Cut="1.4472244262695312e+02" cType="1" res="5.4599321447312832e-03" rms="3.7617430090904236e-01" purity="4.7976168990135193e-01" nType="0">
            <Node pos="l" depth="3" NCoef="0" IVar="-1" Cut="0.0000000000000000e+00" cType="1" res="-6.3971267081797123e-03" rms="3.6796414852142334e-01" purity="3.3291918039321899e-01" nType="-99"/>
            <Node pos="r" depth="3" NCoef="0" IVar="-1" Cut="0.0000000000000000e+00" cType="1" res="1.8950978294014931e-02" rms="3.8720914721488953e-01" purity="7.0174962282180786e-01" nType="-99"/>
          </Node>
        </Node>
      </Node>
    </BinaryTree>
    <BinaryTree type="DecisionTree" boostWeight="1.0000000000000000e+00" itree="572">
      <Node pos="s" depth="0" NCoef="0" IVar="8" Cut="1.3331329822540283e-01" cType="1" res="4.8961379798129201e-04" rms="3.8486415147781372e-01" purity="4.9968734383583069e-01" nType="0">
        <Node pos="l" depth="1" NCoef="0" IVar="6" Cut="-1.0981230437755585e-01" cType="1" res="-6.3073472119867802e-03" rms="3.8458633422851562e-01" purity="5.0372815132141113e-01" nType="0">
          <Node pos="l" depth="2" NCoef="0" IVar="7" Cut="-9.3309330940246582e-01" cType="1" res="-1.6493374481797218e-02" rms="3.8585323095321655e-01" purity="4.7112062573432922e-01" nType="0">
            <Node pos="l" depth="3" NCoef="0" IVar="-1" Cut="0.0000000000000000e+00" cType="1" res="-4.6664974070154130e-04" rms="3.7408399581909180e-01" purity="3.7940922379493713e-01" nType="-99"/>
            <Node pos="r" depth="3" NCoef="0" IVar="-1" Cut="0.0000000000000000e+00" cType="1" res="-1.4243640936911106e-02" rms="3.8940030336380005e-01" purity="5.0040107965469360e-01" nType="-99"/>
          </Node>
          <Node pos="r" depth="2" NCoef="0" IVar="3" Cut="2.1309959411621094e+02" cType="1" res="3.0031544156372547e-03" rms="3.8318789005279541e-01" purity="5.3353303670883179e-01" nType="0">
            <Node pos="l" depth="3" NCoef="0" IVar="-1" Cut="0.0000000000000000e+00" cType="1" res="7.8220050781965256e-03" rms="3.9584949612617493e-01" purity="4.2256677150726318e-01" nType="-99"/>
            <Node pos="r" depth="3" NCoef="0" IVar="-1" Cut="0.0000000000000000e+00" cType="1" res="-6.4989454112946987e-03" rms="3.6584109067916870e-01" purity="6.7684823274612427e-01" nType="-99"/>
          </Node>
        </Node>
        <Node pos="r" depth="1" NCoef="0" IVar="7" Cut="6.6660124063491821e-01" cType="1" res="8.5191754624247551e-03" rms="3.8503751158714294e-01" purity="4.9491372704505920e-01" nType="0">
          <Node pos="l" depth="2" NCoef="0" IVar="4" Cut="9.0880355834960938e+01" cType="1" res="3.9481692947447300e-03" rms="3.8552886247634888e-01" purity="5.2716326713562012e-01" nType="0">
            <Node pos="l" depth="3" NCoef="0" IVar="-1" Cut="0.0000000000000000e+00" cType="1" res="-8.9691029861569405e-03" rms="3.5517513751983643e-01" purity="2.2280894219875336e-01" nType="-99"/>
            <Node pos="r" depth="3" NCoef="0" IVar="-1" Cut="0.0000000000000000e+00" cType="1" res="5.6998939253389835e-03" rms="3.9426061511039734e-01" purity="6.2075281143188477e-01" nType="-99"/>
          </Node>
          <Node pos="r" depth="2" NCoef="0" IVar="9" Cut="-9.3327903747558594e-01" cType="1" res="1.8469624221324921e-02" rms="3.8377755880355835e-01" purity="4.2471095919609070e-01" nType="0">
            <Node pos="l" depth="3" NCoef="0" IVar="-1" Cut="0.0000000000000000e+00" cType="1" res="-1.0543659329414368e-02" rms="3.7743365764617920e-01" purity="3.7182325124740601e-01" nType="-99"/>
            <Node pos="r" depth="3" NCoef="0" IVar="-1" Cut="0.0000000000000000e+00" cType="1" res="1.8032124266028404e-02" rms="3.8474476337432861e-01" purity="4.3624442815780640e-01" nType="-99"/>
          </Node>
        </Node>
      </Node>
    </BinaryTree>
    <BinaryTree type="DecisionTree" boostWeight="1.0000000000000000e+00" itree="573">
      <Node pos="s" depth="0" NCoef="0" IVar="9" Cut="-1.7333171367645264e+00" cType="1" res="2.3964114006957971e-05" rms="3.8354790210723877e-01" purity="5.0204122066497803e-01" nType="0">
        <Node pos="l" depth="1" NCoef="0" IVar="8" Cut="3.9978697896003723e-01" cType="1" res="-2.2050535306334496e-02" rms="3.6472079157829285e-01" purity="3.4675738215446472e-01" nType="0">
          <Node pos="l" depth="2" NCoef="0" IVar="7" Cut="-3.9901193976402283e-01" cType="1" res="-3.2724127173423767e-02" rms="3.6376905441284180e-01" purity="3.3886417746543884e-01" nType="0">
            <Node pos="l" depth="3" NCoef="0" IVar="-1" Cut="0.0000000000000000e+00" cType="1" res="-3.0825607478618622e-02" rms="3.5122856497764587e-01" purity="2.9730236530303955e-01" nType="-99"/>
            <Node pos="r" depth="3" NCoef="0" IVar="-1" Cut="0.0000000000000000e+00" cType="1" res="-1.6937220469117165e-02" rms="3.7420150637626648e-01" purity="3.7506741285324097e-01" nType="-99"/>
          </Node>
          <Node pos="r" depth="2" NCoef="0" IVar="-1" Cut="0.0000000000000000e+00" cType="1" res="8.8470180344302207e-05" rms="3.6569565534591675e-01" purity="3.6315935850143433e-01" nType="-99"/>
        </Node>
        <Node pos="r" depth="1" NCoef="0" IVar="8" Cut="-1.9999854564666748e+00" cType="1" res="1.9676601514220238e-03" rms="3.8510099053382874e-01" purity="5.1571422815322876e-01" nType="0">
          <Node pos="l" depth="2" NCoef="0" IVar="-1" Cut="0.0000000000000000e+00" cType="1" res="2.1248193457722664e-02" rms="3.7169668078422546e-01" purity="2.7621966600418091e-01" nType="-99"/>
          <Node pos="r" depth="2" NCoef="0" IVar="9" Cut="-6.3642603345215321e-03" cType="1" res="8.5815321654081345e-04" rms="3.8563975691795349e-01" purity="5.2621001005172729e-01" nType="0">
            <Node pos="l" depth="3" NCoef="0" IVar="-1" Cut="0.0000000000000000e+00" cType="1" res="3.8375162985175848e-03" rms="3.8979893922805786e-01" purity="5.4867744445800781e-01" nType="-99"/>
            <Node pos="r" depth="3" NCoef="0" IVar="-1" Cut="0.0000000000000000e+00" cType="1" res="-2.1998775191605091e-03" rms="3.8212782144546509e-01" purity="5.0768941640853882e-01" nType="-99"/>
          </Node>
        </Node>
      </Node>
    </BinaryTree>
    <BinaryTree type="DecisionTree" boostWeight="1.0000000000000000e+00" itree="574">
      <Node pos="s" depth="0" NCoef="0" IVar="2" Cut="6.2094549560546875e+02" cType="1" res="-1.7501738620921969e-03" rms="3.8327014446258545e-01" purity="4.9929237365722656e-01" nType="0">
        <Node pos="l" depth="1" NCoef="0" IVar="4" Cut="7.5343750000000000e+01" cType="1" res="-4.5367749407887459e-04" rms="3.8178157806396484e-01" purity="4.9516233801841736e-01" nType="0">
          <Node pos="l" depth="2" NCoef="0" IVar="0" Cut="3.4669924926757812e+02" cType="1" res="1.7426999285817146e-02" rms="3.3838385343551636e-01" purity="1.7738087475299835e-01" nType="0">
            <Node pos="l" depth="3" NCoef="0" IVar="-1" Cut="0.0000000000000000e+00" cType="1" res="-7.5232838280498981e-03" rms="2.6045736670494080e-01" purity="8.4701485931873322e-02" nType="-99"/>
            <Node pos="r" depth="3" NCoef="0" IVar="-1" Cut="0.0000000000000000e+00" cType="1" res="2.2184403613209724e-02" rms="3.6638364195823669e-01" purity="2.1721942722797394e-01" nType="-99"/>
          </Node>
          <Node pos="r" depth="2" NCoef="0" IVar="0" Cut="3.6887963867187500e+02" cType="1" res="-3.0114215333014727e-03" rms="3.8752490282058716e-01" purity="5.4061943292617798e-01" nType="0">
            <Node pos="l" depth="3" NCoef="0" IVar="-1" Cut="0.0000000000000000e+00" cType="1" res="3.7670498713850975e-03" rms="4.0030795335769653e-01" purity="3.3647742867469788e-01" nType="-99"/>
            <Node pos="r" depth="3" NCoef="0" IVar="-1" Cut="0.0000000000000000e+00" cType="1" res="-5.2687358111143112e-03" rms="3.8049581646919250e-01" purity="6.4869159460067749e-01" nType="-99"/>
          </Node>
        </Node>
        <Node pos="r" depth="1" NCoef="0" IVar="0" Cut="5.7309246826171875e+02" cType="1" res="-2.0337006077170372e-02" rms="4.0355026721954346e-01" purity="5.5850136280059814e-01" nType="0">
          <Node pos="l" depth="2" NCoef="0" IVar="-1" Cut="0.0000000000000000e+00" cType="1" res="-3.0297050252556801e-02" rms="3.8965073227882385e-01" purity="3.7579488754272461e-01" nType="-99"/>
          <Node pos="r" depth="2" NCoef="0" IVar="-1" Cut="0.0000000000000000e+00" cType="1" res="2.3206139449030161e-03" rms="4.1237950325012207e-01" purity="6.9987612962722778e-01" nType="-99"/>
        </Node>
      </Node>
    </BinaryTree>
    <BinaryTree type="DecisionTree" boostWeight="1.0000000000000000e+00" itree="575">
      <Node pos="s" depth="0" NCoef="0" IVar="6" Cut="-1.4398812055587769e+00" cType="1" res="7.5639679562300444e-04" rms="3.8360580801963806e-01" purity="5.0072252750396729e-01" nType="0">
        <Node pos="l" depth="1" NCoef="0" IVar="3" Cut="2.0194134521484375e+02" cType="1" res="2.1816447377204895e-02" rms="3.4073099493980408e-01" purity="2.4122898280620575e-01" nType="0">
          <Node pos="l" depth="2" NCoef="0" IVar="-1" Cut="0.0000000000000000e+00" cType="1" res="3.7238743156194687e-02" rms="3.2956674695014954e-01" purity="1.8400715291500092e-01" nType="-99"/>
          <Node pos="r" depth="2" NCoef="0" IVar="-1" Cut="0.0000000000000000e+00" cType="1" res="-3.6935012758476660e-05" rms="3.5779035091400146e-01" purity="3.3816373348236084e-01" nType="-99"/>
        </Node>
        <Node pos="r" depth="1" NCoef="0" IVar="9" Cut="2.2666602134704590e+00" cType="1" res="-9.0950989397242665e-04" rms="3.8674560189247131e-01" purity="5.2124917507171631e-01" nType="0">
          <Node pos="l" depth="2" NCoef="0" IVar="6" Cut="7.8097778558731079e-01" cType="1" res="-1.9723691511899233e-03" rms="3.8672602176666260e-01" purity="5.2585208415985107e-01" nType="0">
            <Node pos="l" depth="3" NCoef="0" IVar="-1" Cut="0.0000000000000000e+00" cType="1" res="-2.8669063467532396e-03" rms="3.9191782474517822e-01" purity="5.6899648904800415e-01" nType="-99"/>
            <Node pos="r" depth="3" NCoef="0" IVar="-1" Cut="0.0000000000000000e+00" cType="1" res="5.0957817584276199e-03" rms="3.6741599440574646e-01" purity="3.7151992321014404e-01" nType="-99"/>
          </Node>
          <Node pos="r" depth="2" NCoef="0" IVar="-1" Cut="0.0000000000000000e+00" cType="1" res="2.2751566022634506e-02" rms="3.8589105010032654e-01" purity="3.7784394621849060e-01" nType="-99"/>
        </Node>
      </Node>
    </BinaryTree>
    <BinaryTree type="DecisionTree" boostWeight="1.0000000000000000e+00" itree="576">
      <Node pos="s" depth="0" NCoef="0" IVar="8" Cut="-1.9999819993972778e+00" cType="1" res="-1.0810866951942444e-03" rms="3.8289836049079895e-01" purity="4.9911817908287048e-01" nType="0">
        <Node pos="l" depth="1" NCoef="0" IVar="-1" Cut="0.0000000000000000e+00" cType="1" res="2.0911131054162979e-02" rms="3.6946111917495728e-01" purity="2.8537178039550781e-01" nType="-99"/>
        <Node pos="r" depth="1" NCoef="0" IVar="8" Cut="-6.2856662273406982e-01" cType="1" res="-2.4181867484003305e-03" rms="3.8346877694129944e-01" purity="5.0919973850250244e-01" nType="0">
          <Node pos="l" depth="2" NCoef="0" IVar="7" Cut="-9.3323749303817749e-01" cType="1" res="-1.2448930181562901e-02" rms="3.8317883014678955e-01" purity="4.7143265604972839e-01" nType="0">
            <Node pos="l" depth="3" NCoef="0" IVar="-1" Cut="0.0000000000000000e+00" cType="1" res="-2.0126312971115112e-02" rms="3.7247973680496216e-01" purity="3.2471925020217896e-01" nType="-99"/>
            <Node pos="r" depth="3" NCoef="0" IVar="-1" Cut="0.0000000000000000e+00" cType="1" res="-4.8147160559892654e-03" rms="3.8624200224876404e-01" purity="5.1609545946121216e-01" nType="-99"/>
          </Node>
          <Node pos="r" depth="2" NCoef="0" IVar="7" Cut="-6.6652119159698486e-01" cType="1" res="1.2579945614561439e-03" rms="3.8350927829742432e-01" purity="5.2304112911224365e-01" nType="0">
            <Node pos="l" depth="3" NCoef="0" IVar="-1" Cut="0.0000000000000000e+00" cType="1" res="1.1892464943230152e-02" rms="3.8176381587982178e-01" purity="4.5555254817008972e-01" nType="-99"/>
            <Node pos="r" depth="3" NCoef="0" IVar="-1" Cut="0.0000000000000000e+00" cType="1" res="-2.7493203524500132e-03" rms="3.8392001390457153e-01" purity="5.4494976997375488e-01" nType="-99"/>
          </Node>
        </Node>
      </Node>
    </BinaryTree>
    <BinaryTree type="DecisionTree" boostWeight="1.0000000000000000e+00" itree="577">
      <Node pos="s" depth="0" NCoef="0" IVar="8" Cut="-1.9998712539672852e+00" cType="1" res="-1.5747938305139542e-03" rms="3.8169962167739868e-01" purity="5.0050175189971924e-01" nType="0">
        <Node pos="l" depth="1" NCoef="0" IVar="-1" Cut="0.0000000000000000e+00" cType="1" res="-1.8922254443168640e-02" rms="3.4647536277770996e-01" purity="2.1989274024963379e-01" nType="-99"/>
        <Node pos="r" depth="1" NCoef="0" IVar="0" Cut="7.4111914062500000e+02" cType="1" res="-6.1638094484806061e-04" rms="3.8313582539558411e-01" purity="5.1275926828384399e-01" nType="0">
          <Node pos="l" depth="2" NCoef="0" IVar="4" Cut="8.5191658020019531e+01" cType="1" res="-1.8039131537079811e-03" rms="3.8595390319824219e-01" purity="4.9174451828002930e-01" nType="0">
            <Node pos="l" depth="3" NCoef="0" IVar="-1" Cut="0.0000000000000000e+00" cType="1" res="-1.1146297678351402e-02" rms="3.4025868773460388e-01" purity="1.8151694536209106e-01" nType="-99"/>
            <Node pos="r" depth="3" NCoef="0" IVar="-1" Cut="0.0000000000000000e+00" cType="1" res="7.3808472370728850e-04" rms="3.9630815386772156e-01" purity="5.6788575649261475e-01" nType="-99"/>
          </Node>
          <Node pos="r" depth="2" NCoef="0" IVar="9" Cut="-1.3337032496929169e-01" cType="1" res="1.7784178256988525e-02" rms="3.3593127131462097e-01" purity="8.3837825059890747e-01" nType="0">
            <Node pos="l" depth="3" NCoef="0" IVar="-1" Cut="0.0000000000000000e+00" cType="1" res="2.7628242969512939e-02" rms="3.4159687161445618e-01" purity="8.3961611986160278e-01" nType="-99"/>
            <Node pos="r" depth="3" NCoef="0" IVar="-1" Cut="0.0000000000000000e+00" cType="1" res="3.8468234706670046e-03" rms="3.3053255081176758e-01" purity="8.3734917640686035e-01" nType="-99"/>
          </Node>
        </Node>
      </Node>
    </BinaryTree>
    <BinaryTree type="DecisionTree" boostWeight="1.0000000000000000e+00" itree="578">
      <Node pos="s" depth="0" NCoef="0" IVar="7" Cut="1.4666806459426880e+00" cType="1" res="2.9940484091639519e-03" rms="3.8343268632888794e-01" purity="5.0064247846603394e-01" nType="0">
        <Node pos="l" depth="1" NCoef="0" IVar="9" Cut="1.7333121299743652e+00" cType="1" res="5.3453654982149601e-03" rms="3.8685274124145508e-01" purity="5.2672463655471802e-01" nType="0">
          <Node pos="l" depth="2" NCoef="0" IVar="9" Cut="-1.9364821910858154e+00" cType="1" res="6.7879902198910713e-03" rms="3.8744005560874939e-01" purity="5.3795433044433594e-01" nType="0">
            <Node pos="l" depth="3" NCoef="0" IVar="-1" Cut="0.0000000000000000e+00" cType="1" res="-8.5149919614195824e-03" rms="3.6990597844123840e-01" purity="3.4877488017082214e-01" nType="-99"/>
            <Node pos="r" depth="3" NCoef="0" IVar="-1" Cut="0.0000000000000000e+00" cType="1" res="5.3221588023006916e-03" rms="3.8860487937927246e-01" purity="5.5122619867324829e-01" nType="-99"/>
          </Node>
          <Node pos="r" depth="2" NCoef="0" IVar="6" Cut="-8.8035345077514648e-02" cType="1" res="-1.0979024693369865e-02" rms="3.7976169586181641e-01" purity="3.9965200424194336e-01" nType="0">
            <Node pos="l" depth="3" NCoef="0" IVar="-1" Cut="0.0000000000000000e+00" cType="1" res="8.5877897217869759e-03" rms="3.9070248603820801e-01" purity="4.1991743445396423e-01" nType="-99"/>
            <Node pos="r" depth="3" NCoef="0" IVar="-1" Cut="0.0000000000000000e+00" cType="1" res="-1.9491720944643021e-02" rms="3.7034025788307190e-01" purity="3.8446924090385437e-01" nType="-99"/>
          </Node>
        </Node>
        <Node pos="r" depth="1" NCoef="0" IVar="6" Cut="-1.1077479273080826e-01" cType="1" res="-2.1421888843178749e-02" rms="3.4498047828674316e-01" purity="2.2980698943138123e-01" nType="0">
          <Node pos="l" depth="2" NCoef="0" IVar="-1" Cut="0.0000000000000000e+00" cType="1" res="-4.9311863258481026e-03" rms="3.4215587377548218e-01" purity="2.2787137329578400e-01" nType="-99"/>
          <Node pos="r" depth="2" NCoef="0" IVar="-1" Cut="0.0000000000000000e+00" cType="1" res="-2.5058140978217125e-02" rms="3.4665152430534363e-01" purity="2.3127423226833344e-01" nType="-99"/>
        </Node>
      </Node>
    </BinaryTree>
    <BinaryTree type="DecisionTree" boostWeight="1.0000000000000000e+00" itree="579">
      <Node pos="s" depth="0" NCoef="0" IVar="4" Cut="9.7360336303710938e+01" cType="1" res="1.2574319262057543e-03" rms="3.8477414846420288e-01" purity="5.0100493431091309e-01" nType="0">
        <Node pos="l" depth="1" NCoef="0" IVar="5" Cut="7.9270057678222656e+01" cType="1" res="9.2531880363821983e-03" rms="3.7024280428886414e-01" purity="2.4679051339626312e-01" nType="0">
          <Node pos="l" depth="2" NCoef="0" IVar="8" Cut="1.1999756097793579e+00" cType="1" res="5.7708923704922199e-03" rms="3.6245989799499512e-01" purity="2.2406208515167236e-01" nType="0">
            <Node pos="l" depth="3" NCoef="0" IVar="-1" Cut="0.0000000000000000e+00" cType="1" res="7.5808027759194374e-04" rms="3.6686998605728149e-01" purity="2.2968365252017975e-01" nType="-99"/>
            <Node pos="r" depth="3" NCoef="0" IVar="-1" Cut="0.0000000000000000e+00" cType="1" res="2.2357326000928879e-02" rms="3.4340992569923401e-01" purity="2.0135833323001862e-01" nType="-99"/>
          </Node>
          <Node pos="r" depth="2" NCoef="0" IVar="-1" Cut="0.0000000000000000e+00" cType="1" res="2.0589204505085945e-02" rms="4.2515459656715393e-01" purity="4.2419278621673584e-01" nType="-99"/>
        </Node>
        <Node pos="r" depth="1" NCoef="0" IVar="7" Cut="1.3351735472679138e-01" cType="1" res="-2.0992010831832886e-03" rms="3.9066463708877563e-01" purity="6.0772454738616943e-01" nType="0">
          <Node pos="l" depth="2" NCoef="0" IVar="9" Cut="1.1997826099395752e+00" cType="1" res="-8.5899885743856430e-03" rms="3.8934016227722168e-01" purity="6.1254864931106567e-01" nType="0">
            <Node pos="l" depth="3" NCoef="0" IVar="-1" Cut="0.0000000000000000e+00" cType="1" res="-9.2389937490224838e-03" rms="3.8532769680023193e-01" purity="6.2133586406707764e-01" nType="-99"/>
            <Node pos="r" depth="3" NCoef="0" IVar="-1" Cut="0.0000000000000000e+00" cType="1" res="1.3289999216794968e-02" rms="4.1034173965454102e-01" purity="5.6206578016281128e-01" nType="-99"/>
          </Node>
          <Node pos="r" depth="2" NCoef="0" IVar="9" Cut="-3.9994552731513977e-01" cType="1" res="5.6646927259862423e-03" rms="3.9210191369056702e-01" purity="6.0195422172546387e-01" nType="0">
            <Node pos="l" depth="3" NCoef="0" IVar="-1" Cut="0.0000000000000000e+00" cType="1" res="1.2564403004944324e-02" rms="4.0090671181678772e-01" purity="6.0113710165023804e-01" nType="-99"/>
            <Node pos="r" depth="3" NCoef="0" IVar="-1" Cut="0.0000000000000000e+00" cType="1" res="-1.0624907445162535e-03" rms="3.8734164834022522e-01" purity="6.0236996412277222e-01" nType="-99"/>
          </Node>
        </Node>
      </Node>
    </BinaryTree>
    <BinaryTree type="DecisionTree" boostWeight="1.0000000000000000e+00" itree="580">
      <Node pos="s" depth="0" NCoef="0" IVar="3" Cut="4.3087857055664062e+02" cType="1" res="-3.3019713591784239e-03" rms="3.8389796018600464e-01" purity="4.9418950080871582e-01" nType="0">
        <Node pos="l" depth="1" NCoef="0" IVar="3" Cut="1.0580385589599609e+02" cType="1" res="-4.1256849654018879e-03" rms="3.8321247696876526e-01" purity="4.8836782574653625e-01" nType="0">
          <Node pos="l" depth="2" NCoef="0" IVar="9" Cut="6.6655391454696655e-01" cType="1" res="1.1524695903062820e-02" rms="3.3218204975128174e-01" purity="1.5681736171245575e-01" nType="0">
            <Node pos="l" depth="3" NCoef="0" IVar="-1" Cut="0.0000000000000000e+00" cType="1" res="-1.8492521485313773e-03" rms="3.2754334807395935e-01" purity="1.5248231589794159e-01" nType="-99"/>
            <Node pos="r" depth="3" NCoef="0" IVar="-1" Cut="0.0000000000000000e+00" cType="1" res="4.0713924914598465e-02" rms="3.3942142128944397e-01" purity="1.6517426073551178e-01" nType="-99"/>
          </Node>
          <Node pos="r" depth="2" NCoef="0" IVar="6" Cut="-1.7048718929290771e+00" cType="1" res="-5.6335795670747757e-03" rms="3.8774129748344421e-01" purity="5.2031230926513672e-01" nType="0">
            <Node pos="l" depth="3" NCoef="0" IVar="-1" Cut="0.0000000000000000e+00" cType="1" res="-2.8830021619796753e-02" rms="2.9443427920341492e-01" purity="1.7307904362678528e-01" nType="-99"/>
            <Node pos="r" depth="3" NCoef="0" IVar="-1" Cut="0.0000000000000000e+00" cType="1" res="-2.9460163787007332e-03" rms="3.9096724987030029e-01" purity="5.3417915105819702e-01" nType="-99"/>
          </Node>
        </Node>
        <Node pos="r" depth="1" NCoef="0" IVar="-1" Cut="0.0000000000000000e+00" cType="1" res="1.3435086235404015e-02" rms="4.0327405929565430e-01" purity="6.7014038562774658e-01" nType="-99"/>
      </Node>
    </BinaryTree>
    <BinaryTree type="DecisionTree" boostWeight="1.0000000000000000e+00" itree="581">
      <Node pos="s" depth="0" NCoef="0" IVar="6" Cut="6.8026095628738403e-01" cType="1" res="1.6058834735304117e-03" rms="3.8327652215957642e-01" purity="5.0109899044036865e-01" nType="0">
        <Node pos="l" depth="1" NCoef="0" IVar="6" Cut="-1.1239838600158691e+00" cType="1" res="-1.1959467083215714e-03" rms="3.8723266124725342e-01" purity="5.3591722249984741e-01" nType="0">
          <Node pos="l" depth="2" NCoef="0" IVar="7" Cut="-6.6684889793395996e-01" cType="1" res="-1.1837806552648544e-02" rms="3.4411475062370300e-01" purity="2.5796413421630859e-01" nType="0">
            <Node pos="l" depth="3" NCoef="0" IVar="-1" Cut="0.0000000000000000e+00" cType="1" res="-4.5907665044069290e-02" rms="2.8241461515426636e-01" purity="1.5284033119678497e-01" nType="-99"/>
            <Node pos="r" depth="3" NCoef="0" IVar="-1" Cut="0.0000000000000000e+00" cType="1" res="4.4103995896875858e-03" rms="3.6886802315711975e-01" purity="3.0857935547828674e-01" nType="-99"/>
          </Node>
          <Node pos="r" depth="2" NCoef="0" IVar="7" Cut="1.7333358526229858e+00" cType="1" res="8.1119453534483910e-04" rms="3.9480546116828918e-01" purity="5.8834147453308105e-01" nType="0">
            <Node pos="l" depth="3" NCoef="0" IVar="-1" Cut="0.0000000000000000e+00" cType="1" res="1.3650442706421018e-03" rms="3.9630571007728577e-01" purity="6.0448545217514038e-01" nType="-99"/>
            <Node pos="r" depth="3" NCoef="0" IVar="-1" Cut="0.0000000000000000e+00" cType="1" res="-1.7149595543742180e-02" rms="3.6314189434051514e-01" purity="2.7195745706558228e-01" nType="-99"/>
          </Node>
        </Node>
        <Node pos="r" depth="1" NCoef="0" IVar="2" Cut="4.9590200805664062e+02" cType="1" res="1.0445399209856987e-02" rms="3.7037956714630127e-01" purity="3.9125046133995056e-01" nType="0">
          <Node pos="l" depth="2" NCoef="0" IVar="8" Cut="1.1999266147613525e+00" cType="1" res="5.2448590286076069e-03" rms="3.6727991700172424e-01" purity="3.7591081857681274e-01" nType="0">
            <Node pos="l" depth="3" NCoef="0" IVar="-1" Cut="0.0000000000000000e+00" cType="1" res="7.1126474067568779e-03" rms="3.7853753566741943e-01" purity="4.1202539205551147e-01" nType="-99"/>
            <Node pos="r" depth="3" NCoef="0" IVar="-1" Cut="0.0000000000000000e+00" cType="1" res="-1.2292540632188320e-02" rms="3.1807145476341248e-01" purity="2.3282831907272339e-01" nType="-99"/>
          </Node>
          <Node pos="r" depth="2" NCoef="0" IVar="-1" Cut="0.0000000000000000e+00" cType="1" res="2.5427091866731644e-02" rms="3.8543760776519775e-01" purity="4.7384175658226013e-01" nType="-99"/>
        </Node>
      </Node>
    </BinaryTree>
    <BinaryTree type="DecisionTree" boostWeight="1.0000000000000000e+00" itree="582">
      <Node pos="s" depth="0" NCoef="0" IVar="7" Cut="1.4666378498077393e+00" cType="1" res="1.3257215323392302e-04" rms="3.8177144527435303e-01" purity="5.0359106063842773e-01" nType="0">
        <Node pos="l" depth="1" NCoef="0" IVar="6" Cut="-1.1744441986083984e+00" cType="1" res="1.7856043996289372e-03" rms="3.8585650920867920e-01" purity="5.2930057048797607e-01" nType="0">
          <Node pos="l" depth="2" NCoef="0" IVar="8" Cut="3.9960724115371704e-01" cType="1" res="-1.4177097007632256e-02" rms="3.4056141972541809e-01" purity="2.7149975299835205e-01" nType="0">
            <Node pos="l" depth="3" NCoef="0" IVar="-1" Cut="0.0000000000000000e+00" cType="1" res="-2.1153740584850311e-02" rms="3.3698546886444092e-01" purity="2.6735749840736389e-01" nType="-99"/>
            <Node pos="r" depth="3" NCoef="0" IVar="-1" Cut="0.0000000000000000e+00" cType="1" res="9.8996805027127266e-03" rms="3.4646648168563843e-01" purity="2.8023150563240051e-01" nType="-99"/>
          </Node>
          <Node pos="r" depth="2" NCoef="0" IVar="6" Cut="1.8536608219146729e+00" cType="1" res="3.7247152067720890e-03" rms="3.9095720648765564e-01" purity="5.6061762571334839e-01" nType="0">
            <Node pos="l" depth="3" NCoef="0" IVar="-1" Cut="0.0000000000000000e+00" cType="1" res="1.8125558272004128e-03" rms="3.9288979768753052e-01" purity="5.7265788316726685e-01" nType="-99"/>
            <Node pos="r" depth="3" NCoef="0" IVar="-1" Cut="0.0000000000000000e+00" cType="1" res="3.0433937907218933e-02" rms="3.2886880636215210e-01" purity="2.1127513051033020e-01" nType="-99"/>
          </Node>
        </Node>
        <Node pos="r" depth="1" NCoef="0" IVar="7" Cut="2.1015446186065674e+00" cType="1" res="-1.7387315630912781e-02" rms="3.3493003249168396e-01" purity="2.3110499978065491e-01" nType="0">
          <Node pos="l" depth="2" NCoef="0" IVar="6" Cut="1.5400448441505432e-01" cType="1" res="-1.1078746989369392e-02" rms="3.5465186834335327e-01" purity="2.7282783389091492e-01" nType="0">
            <Node pos="l" depth="3" NCoef="0" IVar="-1" Cut="0.0000000000000000e+00" cType="1" res="-1.0438009630888700e-03" rms="3.6096057295799255e-01" purity="2.9233953356742859e-01" nType="-99"/>
            <Node pos="r" depth="3" NCoef="0" IVar="-1" Cut="0.0000000000000000e+00" cType="1" res="-1.6402743756771088e-02" rms="3.4749087691307068e-01" purity="2.5198110938072205e-01" nType="-99"/>
          </Node>
          <Node pos="r" depth="2" NCoef="0" IVar="-1" Cut="0.0000000000000000e+00" cType="1" res="-3.0262662097811699e-02" rms="2.8565993905067444e-01" purity="1.3817708194255829e-01" nType="-99"/>
        </Node>
      </Node>
    </BinaryTree>
    <BinaryTree type="DecisionTree" boostWeight="1.0000000000000000e+00" itree="583">
      <Node pos="s" depth="0" NCoef="0" IVar="2" Cut="7.1654595947265625e+02" cType="1" res="-3.3354510087519884e-03" rms="3.7998887896537781e-01" purity="4.9685531854629517e-01" nType="0">
        <Node pos="l" depth="1" NCoef="0" IVar="9" Cut="-1.9999753236770630e+00" cType="1" res="-1.6633349005132914e-03" rms="3.7937143445014954e-01" purity="4.9416702985763550e-01" nType="0">
          <Node pos="l" depth="2" NCoef="0" IVar="6" Cut="-1.1481027305126190e-01" cType="1" res="3.5212855786085129e-02" rms="3.8664788007736206e-01" purity="3.5603260993957520e-01" nType="0">
            <Node pos="l" depth="3" NCoef="0" IVar="-1" Cut="0.0000000000000000e+00" cType="1" res="2.5916500017046928e-02" rms="3.7500506639480591e-01" purity="3.5281932353973389e-01" nType="-99"/>
            <Node pos="r" depth="3" NCoef="0" IVar="-1" Cut="0.0000000000000000e+00" cType="1" res="2.3325258865952492e-02" rms="3.9821594953536987e-01" purity="3.5932382941246033e-01" nType="-99"/>
          </Node>
          <Node pos="r" depth="2" NCoef="0" IVar="3" Cut="1.7722895812988281e+02" cType="1" res="-3.8358320016413927e-03" rms="3.7882646918296814e-01" purity="5.0230497121810913e-01" nType="0">
            <Node pos="l" depth="3" NCoef="0" IVar="-1" Cut="0.0000000000000000e+00" cType="1" res="-7.8310677781701088e-03" rms="3.7614971399307251e-01" purity="2.9945206642150879e-01" nType="-99"/>
            <Node pos="r" depth="3" NCoef="0" IVar="-1" Cut="0.0000000000000000e+00" cType="1" res="7.6993933180347085e-04" rms="3.8044539093971252e-01" purity="6.3204729557037354e-01" nType="-99"/>
          </Node>
        </Node>
        <Node pos="r" depth="1" NCoef="0" IVar="-1" Cut="0.0000000000000000e+00" cType="1" res="-3.3062282949686050e-02" rms="3.9476624131202698e-01" purity="5.7735490798950195e-01" nType="-99"/>
      </Node>
    </BinaryTree>
    <BinaryTree type="DecisionTree" boostWeight="1.0000000000000000e+00" itree="584">
      <Node pos="s" depth="0" NCoef="0" IVar="4" Cut="1.9829321289062500e+02" cType="1" res="1.8603133503347635e-03" rms="3.8660463690757751e-01" purity="4.9981299042701721e-01" nType="0">
        <Node pos="l" depth="1" NCoef="0" IVar="9" Cut="-1.1999760866165161e+00" cType="1" res="4.0481640025973320e-03" rms="3.9298307895660400e-01" purity="4.5145833492279053e-01" nType="0">
          <Node pos="l" depth="2" NCoef="0" IVar="9" Cut="-1.8856860399246216e+00" cType="1" res="1.2928285636007786e-02" rms="3.8689151406288147e-01" purity="3.8912960886955261e-01" nType="0">
            <Node pos="l" depth="3" NCoef="0" IVar="-1" Cut="0.0000000000000000e+00" cType="1" res="-4.2062499560415745e-03" rms="3.6886391043663025e-01" purity="3.0049261450767517e-01" nType="-99"/>
            <Node pos="r" depth="3" NCoef="0" IVar="-1" Cut="0.0000000000000000e+00" cType="1" res="1.5509352087974548e-02" rms="3.9707773923873901e-01" purity="4.4334217905998230e-01" nType="-99"/>
          </Node>
          <Node pos="r" depth="2" NCoef="0" IVar="8" Cut="-4.0005370974540710e-01" cType="1" res="2.0630396902561188e-03" rms="3.9430460333824158e-01" purity="4.6539172530174255e-01" nType="0">
            <Node pos="l" depth="3" NCoef="0" IVar="-1" Cut="0.0000000000000000e+00" cType="1" res="-3.9287717081606388e-03" rms="3.8971221446990967e-01" purity="4.4300001859664917e-01" nType="-99"/>
            <Node pos="r" depth="3" NCoef="0" IVar="-1" Cut="0.0000000000000000e+00" cType="1" res="4.2143724858760834e-03" rms="3.9676031470298767e-01" purity="4.7782796621322632e-01" nType="-99"/>
          </Node>
        </Node>
        <Node pos="r" depth="1" NCoef="0" IVar="1" Cut="1.5579365234375000e+03" cType="1" res="-1.0171665810048580e-02" rms="3.4920743107795715e-01" purity="7.6573693752288818e-01" nType="0">
          <Node pos="l" depth="2" NCoef="0" IVar="-1" Cut="0.0000000000000000e+00" cType="1" res="-1.8287727609276772e-02" rms="3.9142781496047974e-01" purity="6.4561450481414795e-01" nType="-99"/>
          <Node pos="r" depth="2" NCoef="0" IVar="6" Cut="-9.3055248260498047e-02" cType="1" res="-1.3397776056081057e-03" rms="3.2575008273124695e-01" purity="8.2565766572952271e-01" nType="0">
            <Node pos="l" depth="3" NCoef="0" IVar="-1" Cut="0.0000000000000000e+00" cType="1" res="7.2556626982986927e-03" rms="3.2825627923011780e-01" purity="8.2044249773025513e-01" nType="-99"/>
            <Node pos="r" depth="3" NCoef="0" IVar="-1" Cut="0.0000000000000000e+00" cType="1" res="-8.6836749687790871e-03" rms="3.2356244325637817e-01" purity="8.2977741956710815e-01" nType="-99"/>
          </Node>
        </Node>
      </Node>
    </BinaryTree>
    <BinaryTree type="DecisionTree" boostWeight="1.0000000000000000e+00" itree="585">
      <Node pos="s" depth="0" NCoef="0" IVar="4" Cut="9.6736518859863281e+01" cType="1" res="-6.1285905539989471e-03" rms="3.8217821717262268e-01" purity="4.9103659391403198e-01" nType="0">
        <Node pos="l" depth="1" NCoef="0" IVar="0" Cut="5.3662432861328125e+02" cType="1" res="-1.6177007928490639e-02" rms="3.5654821991920471e-01" purity="2.2010481357574463e-01" nType="0">
          <Node pos="l" depth="2" NCoef="0" IVar="2" Cut="4.5799789428710938e+02" cType="1" res="-1.2566290795803070e-02" rms="3.4736102819442749e-01" purity="1.8611432611942291e-01" nType="0">
            <Node pos="l" depth="3" NCoef="0" IVar="-1" Cut="0.0000000000000000e+00" cType="1" res="-1.3496134430170059e-02" rms="3.4468927979469299e-01" purity="1.8453545868396759e-01" nType="-99"/>
            <Node pos="r" depth="3" NCoef="0" IVar="-1" Cut="0.0000000000000000e+00" cType="1" res="1.4532336033880711e-02" rms="3.6152648925781250e-01" purity="1.9558556377887726e-01" nType="-99"/>
          </Node>
          <Node pos="r" depth="2" NCoef="0" IVar="-1" Cut="0.0000000000000000e+00" cType="1" res="-2.2094631567597389e-02" rms="4.1533055901527405e-01" purity="4.6256163716316223e-01" nType="-99"/>
        </Node>
        <Node pos="r" depth="1" NCoef="0" IVar="7" Cut="-1.4664596319198608e+00" cType="1" res="-2.0219024736434221e-03" rms="3.9209693670272827e-01" purity="6.0176372528076172e-01" nType="0">
          <Node pos="l" depth="2" NCoef="0" IVar="8" Cut="-3.9888903498649597e-01" cType="1" res="1.9929762929677963e-02" rms="3.8362577557563782e-01" purity="3.7558010220527649e-01" nType="0">
            <Node pos="l" depth="3" NCoef="0" IVar="-1" Cut="0.0000000000000000e+00" cType="1" res="2.0366169512271881e-02" rms="3.9448717236518860e-01" purity="3.6724328994750977e-01" nType="-99"/>
            <Node pos="r" depth="3" NCoef="0" IVar="-1" Cut="0.0000000000000000e+00" cType="1" res="8.1503754481673241e-03" rms="3.7412434816360474e-01" purity="3.8255673646926880e-01" nType="-99"/>
          </Node>
          <Node pos="r" depth="2" NCoef="0" IVar="6" Cut="9.3858814239501953e-01" cType="1" res="-3.8979745004326105e-03" rms="3.9275553822517395e-01" purity="6.2109422683715820e-01" nType="0">
            <Node pos="l" depth="3" NCoef="0" IVar="-1" Cut="0.0000000000000000e+00" cType="1" res="-7.8702281462028623e-04" rms="3.9367046952247620e-01" purity="6.5433251857757568e-01" nType="-99"/>
            <Node pos="r" depth="3" NCoef="0" IVar="-1" Cut="0.0000000000000000e+00" cType="1" res="-1.2521976605057716e-02" rms="3.8703501224517822e-01" purity="4.2811822891235352e-01" nType="-99"/>
          </Node>
        </Node>
      </Node>
    </BinaryTree>
    <BinaryTree type="DecisionTree" boostWeight="1.0000000000000000e+00" itree="586">
      <Node pos="s" depth="0" NCoef="0" IVar="6" Cut="-6.5603303909301758e-01" cType="1" res="1.8308461876586080e-03" rms="3.8412651419639587e-01" purity="4.9968093633651733e-01" nType="0">
        <Node pos="l" depth="1" NCoef="0" IVar="8" Cut="-1.4663022756576538e+00" cType="1" res="1.3138832524418831e-02" rms="3.7724134325981140e-01" purity="3.9728802442550659e-01" nType="0">
          <Node pos="l" depth="2" NCoef="0" IVar="-1" Cut="0.0000000000000000e+00" cType="1" res="3.5848736763000488e-02" rms="3.5811483860015869e-01" purity="2.7054283022880554e-01" nType="-99"/>
          <Node pos="r" depth="2" NCoef="0" IVar="0" Cut="5.8882666015625000e+02" cType="1" res="8.6182523518800735e-03" rms="3.7995955348014832e-01" purity="4.1719260811805725e-01" nType="0">
            <Node pos="l" depth="3" NCoef="0" IVar="-1" Cut="0.0000000000000000e+00" cType="1" res="8.5173482075333595e-03" rms="3.8200971484184265e-01" purity="3.6741051077842712e-01" nType="-99"/>
            <Node pos="r" depth="3" NCoef="0" IVar="-1" Cut="0.0000000000000000e+00" cType="1" res="-1.3658478856086731e-02" rms="3.6512500047683716e-01" purity="7.4421101808547974e-01" nType="-99"/>
          </Node>
        </Node>
        <Node pos="r" depth="1" NCoef="0" IVar="6" Cut="-3.2689997553825378e-01" cType="1" res="-1.8742310348898172e-03" rms="3.8628378510475159e-01" purity="5.3323012590408325e-01" nType="0">
          <Node pos="l" depth="2" NCoef="0" IVar="0" Cut="5.0491262817382812e+02" cType="1" res="-1.9325157627463341e-02" rms="3.9315387606620789e-01" purity="5.7244217395782471e-01" nType="0">
            <Node pos="l" depth="3" NCoef="0" IVar="-1" Cut="0.0000000000000000e+00" cType="1" res="-1.5968142077326775e-02" rms="4.1582387685775757e-01" purity="4.5908728241920471e-01" nType="-99"/>
            <Node pos="r" depth="3" NCoef="0" IVar="-1" Cut="0.0000000000000000e+00" cType="1" res="-1.9447316881269217e-03" rms="3.4165498614311218e-01" purity="8.0367070436477661e-01" nType="-99"/>
          </Node>
          <Node pos="r" depth="2" NCoef="0" IVar="6" Cut="1.6086673736572266e+00" cType="1" res="1.3137370115146041e-03" rms="3.8493004441261292e-01" purity="5.2606678009033203e-01" nType="0">
            <Node pos="l" depth="3" NCoef="0" IVar="-1" Cut="0.0000000000000000e+00" cType="1" res="1.9685628358274698e-03" rms="3.9172050356864929e-01" purity="5.5748683214187622e-01" nType="-99"/>
            <Node pos="r" depth="3" NCoef="0" IVar="-1" Cut="0.0000000000000000e+00" cType="1" res="-1.8608395010232925e-02" rms="2.9406562447547913e-01" purity="1.6106502711772919e-01" nType="-99"/>
          </Node>
        </Node>
      </Node>
    </BinaryTree>
    <BinaryTree type="DecisionTree" boostWeight="1.0000000000000000e+00" itree="587">
      <Node pos="s" depth="0" NCoef="0" IVar="8" Cut="-1.9999740123748779e+00" cType="1" res="5.7670623064041138e-03" rms="3.8354244828224182e-01" purity="5.0587570667266846e-01" nType="0">
        <Node pos="l" depth="1" NCoef="0" IVar="-1" Cut="0.0000000000000000e+00" cType="1" res="-1.4099054038524628e-02" rms="3.3900612592697144e-01" purity="2.3535156250000000e-01" nType="-99"/>
        <Node pos="r" depth="1" NCoef="0" IVar="4" Cut="1.4473245239257812e+02" cType="1" res="6.8485806696116924e-03" rms="3.8541051745414734e-01" purity="5.1817744970321655e-01" nType="0">
          <Node pos="l" depth="2" NCoef="0" IVar="9" Cut="1.7333117723464966e+00" cType="1" res="1.1671280488371849e-02" rms="3.9654734730720520e-01" purity="3.8666713237762451e-01" nType="0">
            <Node pos="l" depth="3" NCoef="0" IVar="-1" Cut="0.0000000000000000e+00" cType="1" res="8.4298197180032730e-03" rms="3.9979016780853271e-01" purity="3.9860191941261292e-01" nType="-99"/>
            <Node pos="r" depth="3" NCoef="0" IVar="-1" Cut="0.0000000000000000e+00" cType="1" res="-4.0764156728982925e-03" rms="3.6387076973915100e-01" purity="2.7334266901016235e-01" nType="-99"/>
          </Node>
          <Node pos="r" depth="2" NCoef="0" IVar="8" Cut="1.4285377264022827e+00" cType="1" res="-7.9836009535938501e-04" rms="3.6692985892295837e-01" purity="7.2670209407806396e-01" nType="0">
            <Node pos="l" depth="3" NCoef="0" IVar="-1" Cut="0.0000000000000000e+00" cType="1" res="9.5852947561070323e-04" rms="3.6461839079856873e-01" purity="7.4265968799591064e-01" nType="-99"/>
            <Node pos="r" depth="3" NCoef="0" IVar="-1" Cut="0.0000000000000000e+00" cType="1" res="-1.7332760617136955e-02" rms="3.9431515336036682e-01" purity="5.2273160219192505e-01" nType="-99"/>
          </Node>
        </Node>
      </Node>
    </BinaryTree>
    <BinaryTree type="DecisionTree" boostWeight="1.0000000000000000e+00" itree="588">
      <Node pos="s" depth="0" NCoef="0" IVar="8" Cut="9.3326312303543091e-01" cType="1" res="2.5178308133035898e-03" rms="3.8363510370254517e-01" purity="5.0175952911376953e-01" nType="0">
        <Node pos="l" depth="1" NCoef="0" IVar="4" Cut="9.9487312316894531e+01" cType="1" res="4.9815303646028042e-03" rms="3.8280075788497925e-01" purity="5.3249919414520264e-01" nType="0">
          <Node pos="l" depth="2" NCoef="0" IVar="8" Cut="4.4390223920345306e-02" cType="1" res="-4.0023177862167358e-03" rms="3.6880999803543091e-01" purity="2.5579616427421570e-01" nType="0">
            <Node pos="l" depth="3" NCoef="0" IVar="-1" Cut="0.0000000000000000e+00" cType="1" res="-8.4574259817600250e-03" rms="3.5971531271934509e-01" purity="2.4067202210426331e-01" nType="-99"/>
            <Node pos="r" depth="3" NCoef="0" IVar="-1" Cut="0.0000000000000000e+00" cType="1" res="8.8424440473318100e-03" rms="3.8743749260902405e-01" purity="2.8892362117767334e-01" nType="-99"/>
          </Node>
          <Node pos="r" depth="2" NCoef="0" IVar="0" Cut="4.3884332275390625e+02" cType="1" res="8.6650261655449867e-03" rms="3.8833144307136536e-01" purity="6.4595109224319458e-01" nType="0">
            <Node pos="l" depth="3" NCoef="0" IVar="-1" Cut="0.0000000000000000e+00" cType="1" res="7.9604461789131165e-03" rms="4.2437839508056641e-01" purity="4.9326756596565247e-01" nType="-99"/>
            <Node pos="r" depth="3" NCoef="0" IVar="-1" Cut="0.0000000000000000e+00" cType="1" res="2.4193513672798872e-03" rms="3.4772473573684692e-01" purity="8.0139207839965820e-01" nType="-99"/>
          </Node>
        </Node>
        <Node pos="r" depth="1" NCoef="0" IVar="6" Cut="7.0323574542999268e-01" cType="1" res="-7.0732771418988705e-03" rms="3.8671651482582092e-01" purity="3.8209089636802673e-01" nType="0">
          <Node pos="l" depth="2" NCoef="0" IVar="1" Cut="1.0972862548828125e+03" cType="1" res="-1.5511493198573589e-02" rms="3.9518010616302490e-01" purity="4.2407426238059998e-01" nType="0">
            <Node pos="l" depth="3" NCoef="0" IVar="-1" Cut="0.0000000000000000e+00" cType="1" res="1.0046974057331681e-03" rms="3.6845067143440247e-01" purity="2.1604084968566895e-01" nType="-99"/>
            <Node pos="r" depth="3" NCoef="0" IVar="-1" Cut="0.0000000000000000e+00" cType="1" res="-1.4561140909790993e-02" rms="4.0822428464889526e-01" purity="5.3321844339370728e-01" nType="-99"/>
          </Node>
          <Node pos="r" depth="2" NCoef="0" IVar="9" Cut="4.0018659830093384e-01" cType="1" res="1.2747513130307198e-02" rms="3.6530146002769470e-01" purity="2.8347495198249817e-01" nType="0">
            <Node pos="l" depth="3" NCoef="0" IVar="-1" Cut="0.0000000000000000e+00" cType="1" res="1.6707339091226459e-03" rms="3.7694358825683594e-01" purity="3.1827518343925476e-01" nType="-99"/>
            <Node pos="r" depth="3" NCoef="0" IVar="-1" Cut="0.0000000000000000e+00" cType="1" res="1.9147261977195740e-02" rms="3.5461136698722839e-01" purity="2.5319311022758484e-01" nType="-99"/>
          </Node>
        </Node>
      </Node>
    </BinaryTree>
    <BinaryTree type="DecisionTree" boostWeight="1.0000000000000000e+00" itree="589">
      <Node pos="s" depth="0" NCoef="0" IVar="7" Cut="-1.9998366832733154e+00" cType="1" res="-4.3131797574460506e-03" rms="3.8321265578269958e-01" purity="4.9408787488937378e-01" nType="0">
        <Node pos="l" depth="1" NCoef="0" IVar="-1" Cut="0.0000000000000000e+00" cType="1" res="-3.6276824772357941e-02" rms="2.8025117516517639e-01" purity="1.3505306839942932e-01" nType="-99"/>
        <Node pos="r" depth="1" NCoef="0" IVar="3" Cut="3.2667877197265625e+02" cType="1" res="-3.2250068616122007e-03" rms="3.8616999983787537e-01" purity="5.0623673200607300e-01" nType="0">
          <Node pos="l" depth="2" NCoef="0" IVar="3" Cut="2.0849816894531250e+02" cType="1" res="-1.7131764907389879e-03" rms="3.8752132654190063e-01" purity="4.8373106122016907e-01" nType="0">
            <Node pos="l" depth="3" NCoef="0" IVar="-1" Cut="0.0000000000000000e+00" cType="1" res="-3.5510573070496321e-03" rms="3.9284029603004456e-01" purity="3.6901390552520752e-01" nType="-99"/>
            <Node pos="r" depth="3" NCoef="0" IVar="-1" Cut="0.0000000000000000e+00" cType="1" res="2.7874333318322897e-03" rms="3.7911355495452881e-01" purity="6.6035020351409912e-01" nType="-99"/>
          </Node>
          <Node pos="r" depth="2" NCoef="0" IVar="9" Cut="-4.0015554428100586e-01" cType="1" res="-1.4660962857306004e-02" rms="3.7559363245964050e-01" purity="6.7647635936737061e-01" nType="0">
            <Node pos="l" depth="3" NCoef="0" IVar="-1" Cut="0.0000000000000000e+00" cType="1" res="-2.4515943601727486e-02" rms="3.8960003852844238e-01" purity="6.2097203731536865e-01" nType="-99"/>
            <Node pos="r" depth="3" NCoef="0" IVar="-1" Cut="0.0000000000000000e+00" cType="1" res="-2.7526339981704950e-03" rms="3.6805540323257446e-01" purity="7.0366162061691284e-01" nType="-99"/>
          </Node>
        </Node>
      </Node>
    </BinaryTree>
    <BinaryTree type="DecisionTree" boostWeight="1.0000000000000000e+00" itree="590">
      <Node pos="s" depth="0" NCoef="0" IVar="3" Cut="1.4670584106445312e+02" cType="1" res="1.8018945411313325e-04" rms="3.8333165645599365e-01" purity="4.9801519513130188e-01" nType="0">
        <Node pos="l" depth="1" NCoef="0" IVar="7" Cut="1.3328841328620911e-01" cType="1" res="7.6205660589039326e-03" rms="3.7146770954132080e-01" purity="2.4765433371067047e-01" nType="0">
          <Node pos="l" depth="2" NCoef="0" IVar="6" Cut="1.5346381068229675e-01" cType="1" res="2.0314943045377731e-02" rms="3.8287281990051270e-01" purity="2.7147543430328369e-01" nType="0">
            <Node pos="l" depth="3" NCoef="0" IVar="-1" Cut="0.0000000000000000e+00" cType="1" res="3.0174804851412773e-03" rms="3.7446978688240051e-01" purity="2.5845053791999817e-01" nType="-99"/>
            <Node pos="r" depth="3" NCoef="0" IVar="-1" Cut="0.0000000000000000e+00" cType="1" res="3.1545829027891159e-02" rms="3.9333888888359070e-01" purity="2.8991788625717163e-01" nType="-99"/>
          </Node>
          <Node pos="r" depth="2" NCoef="0" IVar="8" Cut="6.6639983654022217e-01" cType="1" res="-7.9844268038868904e-03" rms="3.5632950067520142e-01" purity="2.1837143599987030e-01" nType="0">
            <Node pos="l" depth="3" NCoef="0" IVar="-1" Cut="0.0000000000000000e+00" cType="1" res="2.1729946602135897e-03" rms="3.7059211730957031e-01" purity="2.4936276674270630e-01" nType="-99"/>
            <Node pos="r" depth="3" NCoef="0" IVar="-1" Cut="0.0000000000000000e+00" cType="1" res="-2.3409944027662277e-02" rms="3.2877457141876221e-01" purity="1.6369831562042236e-01" nType="-99"/>
          </Node>
        </Node>
        <Node pos="r" depth="1" NCoef="0" IVar="7" Cut="1.3333451747894287e-01" cType="1" res="-2.2767835762351751e-03" rms="3.8713815808296204e-01" purity="5.8068972826004028e-01" nType="0">
          <Node pos="l" depth="2" NCoef="0" IVar="5" Cut="1.0285565185546875e+02" cType="1" res="-8.4883477538824081e-03" rms="3.8562053442001343e-01" purity="5.8196580410003662e-01" nType="0">
            <Node pos="l" depth="3" NCoef="0" IVar="-1" Cut="0.0000000000000000e+00" cType="1" res="-9.5608262345194817e-03" rms="4.0723600983619690e-01" purity="4.5411568880081177e-01" nType="-99"/>
            <Node pos="r" depth="3" NCoef="0" IVar="-1" Cut="0.0000000000000000e+00" cType="1" res="2.1934674587100744e-03" rms="3.5136097669601440e-01" purity="7.6872253417968750e-01" nType="-99"/>
          </Node>
          <Node pos="r" depth="2" NCoef="0" IVar="6" Cut="4.0725633502006531e-01" cType="1" res="5.1118927076458931e-03" rms="3.8880643248558044e-01" purity="5.7917189598083496e-01" nType="0">
            <Node pos="l" depth="3" NCoef="0" IVar="-1" Cut="0.0000000000000000e+00" cType="1" res="-1.0290463687852025e-03" rms="3.8590633869171143e-01" purity="6.0092973709106445e-01" nType="-99"/>
            <Node pos="r" depth="3" NCoef="0" IVar="-1" Cut="0.0000000000000000e+00" cType="1" res="1.1073027737438679e-02" rms="3.9376953244209290e-01" purity="5.3929859399795532e-01" nType="-99"/>
          </Node>
        </Node>
      </Node>
    </BinaryTree>
    <BinaryTree type="DecisionTree" boostWeight="1.0000000000000000e+00" itree="591">
      <Node pos="s" depth="0" NCoef="0" IVar="6" Cut="-1.4326214790344238e+00" cType="1" res="1.7869017319753766e-03" rms="3.8264939188957214e-01" purity="5.0044208765029907e-01" nType="0">
        <Node pos="l" depth="1" NCoef="0" IVar="7" Cut="-1.3410350680351257e-01" cType="1" res="-1.8946461379528046e-02" rms="3.0952656269073486e-01" purity="1.8922093510627747e-01" nType="0">
          <Node pos="l" depth="2" NCoef="0" IVar="-1" Cut="0.0000000000000000e+00" cType="1" res="3.8998509990051389e-04" rms="3.1522139906883240e-01" purity="2.0138002932071686e-01" nType="-99"/>
          <Node pos="r" depth="2" NCoef="0" IVar="-1" Cut="0.0000000000000000e+00" cType="1" res="-3.5246644169092178e-02" rms="3.0225145816802979e-01" purity="1.7669332027435303e-01" nType="-99"/>
        </Node>
        <Node pos="r" depth="1" NCoef="0" IVar="6" Cut="5.8282804489135742e-01" cType="1" res="3.3252516295760870e-03" rms="3.8748121261596680e-01" purity="5.2353364229202271e-01" nType="0">
          <Node pos="l" depth="2" NCoef="0" IVar="9" Cut="1.4666355848312378e+00" cType="1" res="7.3371995240449905e-03" rms="3.9440613985061646e-01" purity="5.7427805662155151e-01" nType="0">
            <Node pos="l" depth="3" NCoef="0" IVar="-1" Cut="0.0000000000000000e+00" cType="1" res="3.1113533768802881e-03" rms="3.9328163862228394e-01" purity="5.8246093988418579e-01" nType="-99"/>
            <Node pos="r" depth="3" NCoef="0" IVar="-1" Cut="0.0000000000000000e+00" cType="1" res="1.6309214755892754e-02" rms="4.0237820148468018e-01" purity="5.1180005073547363e-01" nType="-99"/>
          </Node>
          <Node pos="r" depth="2" NCoef="0" IVar="0" Cut="4.0049258422851562e+02" cType="1" res="-6.6780410706996918e-03" rms="3.6946049332618713e-01" purity="3.9700892567634583e-01" nType="0">
            <Node pos="l" depth="3" NCoef="0" IVar="-1" Cut="0.0000000000000000e+00" cType="1" res="-1.3019233010709286e-02" rms="3.4840682148933411e-01" purity="2.1793629229068756e-01" nType="-99"/>
            <Node pos="r" depth="3" NCoef="0" IVar="-1" Cut="0.0000000000000000e+00" cType="1" res="1.7751234117895365e-03" rms="3.8811305165290833e-01" purity="5.6655836105346680e-01" nType="-99"/>
          </Node>
        </Node>
      </Node>
    </BinaryTree>
    <BinaryTree type="DecisionTree" boostWeight="1.0000000000000000e+00" itree="592">
      <Node pos="s" depth="0" NCoef="0" IVar="7" Cut="-3.9991608262062073e-01" cType="1" res="8.7091402383521199e-04" rms="3.8181394338607788e-01" purity="5.0085127353668213e-01" nType="0">
        <Node pos="l" depth="1" NCoef="0" IVar="2" Cut="3.2609179687500000e+02" cType="1" res="6.1078080907464027e-03" rms="3.8065737485885620e-01" purity="4.6215781569480896e-01" nType="0">
          <Node pos="l" depth="2" NCoef="0" IVar="5" Cut="9.3821113586425781e+01" cType="1" res="-3.9130318909883499e-03" rms="3.8700711727142334e-01" purity="4.1137352585792542e-01" nType="0">
            <Node pos="l" depth="3" NCoef="0" IVar="-1" Cut="0.0000000000000000e+00" cType="1" res="5.0967545248568058e-03" rms="3.8105589151382446e-01" purity="3.2017037272453308e-01" nType="-99"/>
            <Node pos="r" depth="3" NCoef="0" IVar="-1" Cut="0.0000000000000000e+00" cType="1" res="-1.9302377477288246e-02" rms="3.9878660440444946e-01" purity="6.1572355031967163e-01" nType="-99"/>
          </Node>
          <Node pos="r" depth="2" NCoef="0" IVar="6" Cut="-6.2357586622238159e-01" cType="1" res="1.4407451264560223e-02" rms="3.7511435151100159e-01" purity="5.0421929359436035e-01" nType="0">
            <Node pos="l" depth="3" NCoef="0" IVar="-1" Cut="0.0000000000000000e+00" cType="1" res="2.2774979472160339e-02" rms="3.8285025954246521e-01" purity="4.2522454261779785e-01" nType="-99"/>
            <Node pos="r" depth="3" NCoef="0" IVar="-1" Cut="0.0000000000000000e+00" cType="1" res="5.6025381200015545e-03" rms="3.7214931845664978e-01" purity="5.3204250335693359e-01" nType="-99"/>
          </Node>
        </Node>
        <Node pos="r" depth="1" NCoef="0" IVar="7" Cut="2.0380871295928955e+00" cType="1" res="-2.0434178877621889e-03" rms="3.8242498040199280e-01" purity="5.2238416671752930e-01" nType="0">
          <Node pos="l" depth="2" NCoef="0" IVar="7" Cut="-2.8380605578422546e-01" cType="1" res="-3.1969416886568069e-03" rms="3.8515743613243103e-01" purity="5.4044622182846069e-01" nType="0">
            <Node pos="l" depth="3" NCoef="0" IVar="-1" Cut="0.0000000000000000e+00" cType="1" res="-1.2593730352818966e-02" rms="3.8019394874572754e-01" purity="6.0102617740631104e-01" nType="-99"/>
            <Node pos="r" depth="3" NCoef="0" IVar="-1" Cut="0.0000000000000000e+00" cType="1" res="-1.3742913724854589e-03" rms="3.8548895716667175e-01" purity="5.3607290983200073e-01" nType="-99"/>
          </Node>
          <Node pos="r" depth="2" NCoef="0" IVar="-1" Cut="0.0000000000000000e+00" cType="1" res="1.8389044329524040e-02" rms="3.2785081863403320e-01" purity="1.9260086119174957e-01" nType="-99"/>
        </Node>
      </Node>
    </BinaryTree>
    <BinaryTree type="DecisionTree" boostWeight="1.0000000000000000e+00" itree="593">
      <Node pos="s" depth="0" NCoef="0" IVar="3" Cut="3.2089480590820312e+02" cType="1" res="1.6820005839690566e-03" rms="3.8420450687408447e-01" purity="5.0227969884872437e-01" nType="0">
        <Node pos="l" depth="1" NCoef="0" IVar="4" Cut="6.2959678649902344e+01" cType="1" res="2.8270878829061985e-05" rms="3.8564211130142212e-01" purity="4.7353649139404297e-01" nType="0">
          <Node pos="l" depth="2" NCoef="0" IVar="-1" Cut="0.0000000000000000e+00" cType="1" res="2.9237920418381691e-02" rms="3.1820571422576904e-01" purity="1.5118584036827087e-01" nType="-99"/>
          <Node pos="r" depth="2" NCoef="0" IVar="8" Cut="3.9994376897811890e-01" cType="1" res="-1.1993761872872710e-03" rms="3.8839235901832581e-01" purity="4.8822855949401855e-01" nType="0">
            <Node pos="l" depth="3" NCoef="0" IVar="-1" Cut="0.0000000000000000e+00" cType="1" res="2.4991813115775585e-03" rms="3.8787901401519775e-01" purity="5.1222699880599976e-01" nType="-99"/>
            <Node pos="r" depth="3" NCoef="0" IVar="-1" Cut="0.0000000000000000e+00" cType="1" res="-6.5219416283071041e-03" rms="3.8912546634674072e-01" purity="4.4682312011718750e-01" nType="-99"/>
          </Node>
        </Node>
        <Node pos="r" depth="1" NCoef="0" IVar="8" Cut="6.6673612594604492e-01" cType="1" res="1.2871909886598587e-02" rms="3.7413987517356873e-01" purity="6.9676977396011353e-01" nType="0">
          <Node pos="l" depth="2" NCoef="0" IVar="9" Cut="4.0025830268859863e-01" cType="1" res="3.8424183148890734e-03" rms="3.6399358510971069e-01" purity="7.1567940711975098e-01" nType="0">
            <Node pos="l" depth="3" NCoef="0" IVar="-1" Cut="0.0000000000000000e+00" cType="1" res="9.7778188064694405e-03" rms="3.6330515146255493e-01" purity="7.2561055421829224e-01" nType="-99"/>
            <Node pos="r" depth="3" NCoef="0" IVar="-1" Cut="0.0000000000000000e+00" cType="1" res="-1.1483135633170605e-02" rms="3.6458832025527954e-01" purity="6.9539290666580200e-01" nType="-99"/>
          </Node>
          <Node pos="r" depth="2" NCoef="0" IVar="-1" Cut="0.0000000000000000e+00" cType="1" res="2.4276833981275558e-02" rms="4.0093463659286499e-01" purity="6.4201062917709351e-01" nType="-99"/>
        </Node>
      </Node>
    </BinaryTree>
    <BinaryTree type="DecisionTree" boostWeight="1.0000000000000000e+00" itree="594">
      <Node pos="s" depth="0" NCoef="0" IVar="1" Cut="1.3896906738281250e+03" cType="1" res="-2.5970758870244026e-03" rms="3.7917706370353699e-01" purity="5.0065672397613525e-01" nType="0">
        <Node pos="l" depth="1" NCoef="0" IVar="2" Cut="4.7685433959960938e+02" cType="1" res="-6.0735009610652924e-03" rms="3.9320749044418335e-01" purity="3.5194274783134460e-01" nType="0">
          <Node pos="l" depth="2" NCoef="0" IVar="3" Cut="8.9898811340332031e+01" cType="1" res="-4.2686159722507000e-03" rms="3.9687526226043701e-01" purity="3.6340627074241638e-01" nType="0">
            <Node pos="l" depth="3" NCoef="0" IVar="-1" Cut="0.0000000000000000e+00" cType="1" res="2.4099826812744141e-02" rms="3.0231946706771851e-01" purity="1.1416779458522797e-01" nType="-99"/>
            <Node pos="r" depth="3" NCoef="0" IVar="-1" Cut="0.0000000000000000e+00" cType="1" res="-3.4564672969281673e-03" rms="4.0196174383163452e-01" purity="3.7885776162147522e-01" nType="-99"/>
          </Node>
          <Node pos="r" depth="2" NCoef="0" IVar="-1" Cut="0.0000000000000000e+00" cType="1" res="-2.9133023694157600e-02" rms="3.2300025224685669e-01" purity="1.5697486698627472e-01" nType="-99"/>
        </Node>
        <Node pos="r" depth="1" NCoef="0" IVar="8" Cut="1.4665584564208984e+00" cType="1" res="3.1242268159985542e-03" rms="3.5480678081512451e-01" purity="7.4540174007415771e-01" nType="0">
          <Node pos="l" depth="2" NCoef="0" IVar="3" Cut="4.1679772949218750e+02" cType="1" res="1.0255130473524332e-03" rms="3.5122129321098328e-01" purity="7.5745642185211182e-01" nType="0">
            <Node pos="l" depth="3" NCoef="0" IVar="-1" Cut="0.0000000000000000e+00" cType="1" res="-7.9939438728615642e-04" rms="3.4641826152801514e-01" purity="7.6392358541488647e-01" nType="-99"/>
            <Node pos="r" depth="3" NCoef="0" IVar="-1" Cut="0.0000000000000000e+00" cType="1" res="1.2452387250959873e-02" rms="3.9159461855888367e-01" purity="6.9885247945785522e-01" nType="-99"/>
          </Node>
          <Node pos="r" depth="2" NCoef="0" IVar="-1" Cut="0.0000000000000000e+00" cType="1" res="1.6634095460176468e-02" rms="3.9321285486221313e-01" purity="6.0553240776062012e-01" nType="-99"/>
        </Node>
      </Node>
    </BinaryTree>
    <BinaryTree type="DecisionTree" boostWeight="1.0000000000000000e+00" itree="595">
      <Node pos="s" depth="0" NCoef="0" IVar="9" Cut="1.3331153988838196e-01" cType="1" res="2.2722966969013214e-03" rms="3.8354763388633728e-01" purity="5.0183492898941040e-01" nType="0">
        <Node pos="l" depth="1" NCoef="0" IVar="8" Cut="-6.6660547256469727e-01" cType="1" res="-1.2848250335082412e-03" rms="3.8717529177665710e-01" purity="5.0072991847991943e-01" nType="0">
          <Node pos="l" depth="2" NCoef="0" IVar="8" Cut="-1.5808417797088623e+00" cType="1" res="1.0235986672341824e-02" rms="3.8812726736068726e-01" purity="4.3570688366889954e-01" nType="0">
            <Node pos="l" depth="3" NCoef="0" IVar="-1" Cut="0.0000000000000000e+00" cType="1" res="-7.8280754387378693e-03" rms="3.5670128464698792e-01" purity="2.7720144391059875e-01" nType="-99"/>
            <Node pos="r" depth="3" NCoef="0" IVar="-1" Cut="0.0000000000000000e+00" cType="1" res="1.2549141421914101e-02" rms="4.0100777149200439e-01" purity="5.0641435384750366e-01" nType="-99"/>
          </Node>
          <Node pos="r" depth="2" NCoef="0" IVar="6" Cut="-1.4399898052215576e+00" cType="1" res="-6.6197495907545090e-03" rms="3.8661736249923706e-01" purity="5.3084009885787964e-01" nType="0">
            <Node pos="l" depth="3" NCoef="0" IVar="-1" Cut="0.0000000000000000e+00" cType="1" res="2.5410726666450500e-02" rms="3.6394315958023071e-01" purity="2.6510870456695557e-01" nType="-99"/>
            <Node pos="r" depth="3" NCoef="0" IVar="-1" Cut="0.0000000000000000e+00" cType="1" res="-6.2983813695609570e-03" rms="3.8817587494850159e-01" purity="5.5158936977386475e-01" nType="-99"/>
          </Node>
        </Node>
        <Node pos="r" depth="1" NCoef="0" IVar="8" Cut="-6.6677600145339966e-01" cType="1" res="6.4032496884465218e-03" rms="3.7924936413764954e-01" purity="5.0311815738677979e-01" nType="0">
          <Node pos="l" depth="2" NCoef="0" IVar="0" Cut="5.2071405029296875e+02" cType="1" res="-5.5054407566785812e-03" rms="3.7047523260116577e-01" purity="4.5920106768608093e-01" nType="0">
            <Node pos="l" depth="3" NCoef="0" IVar="-1" Cut="0.0000000000000000e+00" cType="1" res="-8.8665569201111794e-03" rms="3.7617167830467224e-01" purity="3.5470268130302429e-01" nType="-99"/>
            <Node pos="r" depth="3" NCoef="0" IVar="-1" Cut="0.0000000000000000e+00" cType="1" res="1.2895724736154079e-02" rms="3.5247796773910522e-01" purity="7.6209008693695068e-01" nType="-99"/>
          </Node>
          <Node pos="r" depth="2" NCoef="0" IVar="5" Cut="8.5092262268066406e+01" cType="1" res="1.0434603318572044e-02" rms="3.8208988308906555e-01" purity="5.1798498630523682e-01" nType="0">
            <Node pos="l" depth="3" NCoef="0" IVar="-1" Cut="0.0000000000000000e+00" cType="1" res="1.1371075175702572e-02" rms="3.8868635892868042e-01" purity="3.6476767063140869e-01" nType="-99"/>
            <Node pos="r" depth="3" NCoef="0" IVar="-1" Cut="0.0000000000000000e+00" cType="1" res="1.6841454198583961e-03" rms="3.7402167916297913e-01" purity="6.9823151826858521e-01" nType="-99"/>
          </Node>
        </Node>
      </Node>
    </BinaryTree>
    <BinaryTree type="DecisionTree" boostWeight="1.0000000000000000e+00" itree="596">
      <Node pos="s" depth="0" NCoef="0" IVar="9" Cut="-1.9998320341110229e+00" cType="1" res="4.9304141430184245e-04" rms="3.8505572080612183e-01" purity="4.9829569458961487e-01" nType="0">
        <Node pos="l" depth="1" NCoef="0" IVar="6" Cut="-9.1787427663803101e-02" cType="1" res="2.1017706021666527e-02" rms="3.8469770550727844e-01" purity="3.5998284816741943e-01" nType="0">
          <Node pos="l" depth="2" NCoef="0" IVar="-1" Cut="0.0000000000000000e+00" cType="1" res="3.3507952466607094e-03" rms="3.6916691064834595e-01" purity="3.3248677849769592e-01" nType="-99"/>
          <Node pos="r" depth="2" NCoef="0" IVar="-1" Cut="0.0000000000000000e+00" cType="1" res="2.5621991604566574e-02" rms="3.9922672510147095e-01" purity="3.8802966475486755e-01" nType="-99"/>
        </Node>
        <Node pos="r" depth="1" NCoef="0" IVar="3" Cut="4.1859667968750000e+02" cType="1" res="-6.9439574144780636e-04" rms="3.8504293560981750e-01" purity="5.0629764795303345e-01" nType="0">
          <Node pos="l" depth="2" NCoef="0" IVar="3" Cut="8.5941230773925781e+01" cType="1" res="1.0420520993648097e-04" rms="3.8482189178466797e-01" purity="5.0111413002014160e-01" nType="0">
            <Node pos="l" depth="3" NCoef="0" IVar="-1" Cut="0.0000000000000000e+00" cType="1" res="3.4725625067949295e-02" rms="3.2059526443481445e-01" purity="1.3088873028755188e-01" nType="-99"/>
            <Node pos="r" depth="3" NCoef="0" IVar="-1" Cut="0.0000000000000000e+00" cType="1" res="-5.4307718528434634e-04" rms="3.8668572902679443e-01" purity="5.1308757066726685e-01" nType="-99"/>
          </Node>
          <Node pos="r" depth="2" NCoef="0" IVar="-1" Cut="0.0000000000000000e+00" cType="1" res="-1.5362677164375782e-02" rms="3.9064723253250122e-01" purity="6.5533787012100220e-01" nType="-99"/>
        </Node>
      </Node>
    </BinaryTree>
    <BinaryTree type="DecisionTree" boostWeight="1.0000000000000000e+00" itree="597">
      <Node pos="s" depth="0" NCoef="0" IVar="7" Cut="-1.9998668432235718e+00" cType="1" res="5.5680115474388003e-04" rms="3.8259041309356689e-01" purity="5.0109654664993286e-01" nType="0">
        <Node pos="l" depth="1" NCoef="0" IVar="-1" Cut="0.0000000000000000e+00" cType="1" res="-2.3335276171565056e-02" rms="2.9805120825767517e-01" purity="1.4927147328853607e-01" nType="-99"/>
        <Node pos="r" depth="1" NCoef="0" IVar="9" Cut="2.2666442394256592e+00" cType="1" res="1.3938241172581911e-03" rms="3.8511100411415100e-01" purity="5.1305848360061646e-01" nType="0">
          <Node pos="l" depth="2" NCoef="0" IVar="4" Cut="9.9572746276855469e+01" cType="1" res="2.2579857613891363e-03" rms="3.8598862290382385e-01" purity="5.1917052268981934e-01" nType="0">
            <Node pos="l" depth="3" NCoef="0" IVar="-1" Cut="0.0000000000000000e+00" cType="1" res="-3.5287989303469658e-03" rms="3.7223100662231445e-01" purity="2.5357693433761597e-01" nType="-99"/>
            <Node pos="r" depth="3" NCoef="0" IVar="-1" Cut="0.0000000000000000e+00" cType="1" res="3.5062893293797970e-03" rms="3.9167004823684692e-01" purity="6.3250750303268433e-01" nType="-99"/>
          </Node>
          <Node pos="r" depth="2" NCoef="0" IVar="-1" Cut="0.0000000000000000e+00" cType="1" res="-1.9840944558382034e-02" rms="3.5412758588790894e-01" purity="3.1360137462615967e-01" nType="-99"/>
        </Node>
      </Node>
    </BinaryTree>
    <BinaryTree type="DecisionTree" boostWeight="1.0000000000000000e+00" itree="598">
      <Node pos="s" depth="0" NCoef="0" IVar="7" Cut="6.6669052839279175e-01" cType="1" res="3.0438073445111513e-03" rms="3.8665786385536194e-01" purity="4.9881798028945923e-01" nType="0">
        <Node pos="l" depth="1" NCoef="0" IVar="9" Cut="1.1998795270919800e+00" cType="1" res="-1.6209989553317428e-04" rms="3.8636574149131775e-01" purity="5.2542954683303833e-01" nType="0">
          <Node pos="l" depth="2" NCoef="0" IVar="8" Cut="1.3319614529609680e-01" cType="1" res="-2.9323913622647524e-03" rms="3.8473510742187500e-01" purity="5.3584188222885132e-01" nType="0">
            <Node pos="l" depth="3" NCoef="0" IVar="-1" Cut="0.0000000000000000e+00" cType="1" res="-5.7771764695644379e-03" rms="3.8345885276794434e-01" purity="5.2764922380447388e-01" nType="-99"/>
            <Node pos="r" depth="3" NCoef="0" IVar="-1" Cut="0.0000000000000000e+00" cType="1" res="3.1437594443559647e-03" rms="3.8634097576141357e-01" purity="5.4705435037612915e-01" nType="-99"/>
          </Node>
          <Node pos="r" depth="2" NCoef="0" IVar="0" Cut="4.1470486450195312e+02" cType="1" res="1.4123651199042797e-02" rms="3.9435881376266479e-01" purity="4.7173562645912170e-01" nType="0">
            <Node pos="l" depth="3" NCoef="0" IVar="-1" Cut="0.0000000000000000e+00" cType="1" res="2.1549664437770844e-02" rms="3.9348906278610229e-01" purity="3.3375307917594910e-01" nType="-99"/>
            <Node pos="r" depth="3" NCoef="0" IVar="-1" Cut="0.0000000000000000e+00" cType="1" res="-4.1468827985227108e-03" rms="3.9431676268577576e-01" purity="6.2585723400115967e-01" nType="-99"/>
          </Node>
        </Node>
        <Node pos="r" depth="1" NCoef="0" IVar="8" Cut="-1.3329532742500305e-01" cType="1" res="1.1679958552122116e-02" rms="3.8731166720390320e-01" purity="4.2713102698326111e-01" nType="0">
          <Node pos="l" depth="2" NCoef="0" IVar="3" Cut="2.1755525207519531e+02" cType="1" res="2.3703515529632568e-02" rms="3.9100396633148193e-01" purity="4.2916142940521240e-01" nType="0">
            <Node pos="l" depth="3" NCoef="0" IVar="-1" Cut="0.0000000000000000e+00" cType="1" res="2.3382373154163361e-02" rms="3.9093786478042603e-01" purity="3.5646072030067444e-01" nType="-99"/>
            <Node pos="r" depth="3" NCoef="0" IVar="-1" Cut="0.0000000000000000e+00" cType="1" res="3.1479189638048410e-03" rms="3.9041015505790710e-01" purity="5.5701017379760742e-01" nType="-99"/>
          </Node>
          <Node pos="r" depth="2" NCoef="0" IVar="7" Cut="1.8857003450393677e+00" cType="1" res="3.8170479238033295e-03" rms="3.8467472791671753e-01" purity="4.2580318450927734e-01" nType="0">
            <Node pos="l" depth="3" NCoef="0" IVar="-1" Cut="0.0000000000000000e+00" cType="1" res="6.0773389413952827e-03" rms="3.9672344923019409e-01" purity="4.7452014684677124e-01" nType="-99"/>
            <Node pos="r" depth="3" NCoef="0" IVar="-1" Cut="0.0000000000000000e+00" cType="1" res="-2.3708121851086617e-02" rms="3.0940547585487366e-01" purity="1.6082018613815308e-01" nType="-99"/>
          </Node>
        </Node>
      </Node>
    </BinaryTree>
    <BinaryTree type="DecisionTree" boostWeight="1.0000000000000000e+00" itree="599">
      <Node pos="s" depth="0" NCoef="0" IVar="8" Cut="1.4666249752044678e+00" cType="1" res="-1.8768998561426997e-03" rms="3.8266959786415100e-01" purity="5.0005364418029785e-01" nType="0">
        <Node pos="l" depth="1" NCoef="0" IVar="6" Cut="-9.0990376472473145e-01" cType="1" res="-8.7973385234363377e-05" rms="3.8583755493164062e-01" purity="5.2220606803894043e-01" nType="0">
          <Node pos="l" depth="2" NCoef="0" IVar="6" Cut="-1.1749061346054077e+00" cType="1" res="9.2385048046708107e-03" rms="3.6875143647193909e-01" purity="3.5438528656959534e-01" nType="0">
            <Node pos="l" depth="3" NCoef="0" IVar="-1" Cut="0.0000000000000000e+00" cType="1" res="-1.3537232007365674e-04" rms="3.5076439380645752e-01" purity="2.8235247731208801e-01" nType="-99"/>
            <Node pos="r" depth="3" NCoef="0" IVar="-1" Cut="0.0000000000000000e+00" cType="1" res="1.7212772741913795e-02" rms="4.0014809370040894e-01" purity="4.9147263169288635e-01" nType="-99"/>
          </Node>
          <Node pos="r" depth="2" NCoef="0" IVar="6" Cut="-7.3324143886566162e-01" cType="1" res="-2.0096499938517809e-03" rms="3.8923713564872742e-01" purity="5.5678474903106689e-01" nType="0">
            <Node pos="l" depth="3" NCoef="0" IVar="-1" Cut="0.0000000000000000e+00" cType="1" res="-2.2105781361460686e-02" rms="3.9538356661796570e-01" purity="5.1546370983123779e-01" nType="-99"/>
            <Node pos="r" depth="3" NCoef="0" IVar="-1" Cut="0.0000000000000000e+00" cType="1" res="6.3402544583368581e-06" rms="3.8877069950103760e-01" purity="5.5928051471710205e-01" nType="-99"/>
          </Node>
        </Node>
        <Node pos="r" depth="1" NCoef="0" IVar="1" Cut="1.3077736816406250e+03" cType="1" res="-1.7474167048931122e-02" rms="3.5346606373786926e-01" purity="3.0691203474998474e-01" nType="0">
          <Node pos="l" depth="2" NCoef="0" IVar="7" Cut="4.0021881461143494e-01" cType="1" res="-2.7694210410118103e-02" rms="3.2747825980186462e-01" purity="1.7947591841220856e-01" nType="0">
            <Node pos="l" depth="3" NCoef="0" IVar="-1" Cut="0.0000000000000000e+00" cType="1" res="-3.1676728278398514e-02" rms="3.3027806878089905e-01" purity="1.8530540168285370e-01" nType="-99"/>
            <Node pos="r" depth="3" NCoef="0" IVar="-1" Cut="0.0000000000000000e+00" cType="1" res="-9.3765947967767715e-03" rms="3.2333895564079285e-01" purity="1.7265903949737549e-01" nType="-99"/>
          </Node>
          <Node pos="r" depth="2" NCoef="0" IVar="-1" Cut="0.0000000000000000e+00" cType="1" res="1.1621211888268590e-03" rms="3.9737191796302795e-01" purity="5.4843920469284058e-01" nType="-99"/>
        </Node>
      </Node>
    </BinaryTree>
    <BinaryTree type="DecisionTree" boostWeight="1.0000000000000000e+00" itree="600">
      <Node pos="s" depth="0" NCoef="0" IVar="9" Cut="4.0001264214515686e-01" cType="1" res="-6.9379119668155909e-04" rms="3.8484069705009460e-01" purity="4.9887219071388245e-01" nType="0">
        <Node pos="l" depth="1" NCoef="0" IVar="6" Cut="-1.4399237632751465e+00" cType="1" res="3.9165271446108818e-03" rms="3.8724279403686523e-01" purity="5.1482611894607544e-01" nType="0">
          <Node pos="l" depth="2" NCoef="0" IVar="-1" Cut="0.0000000000000000e+00" cType="1" res="2.8546430170536041e-02" rms="3.5337430238723755e-01" purity="2.4283055961132050e-01" nType="-99"/>
          <Node pos="r" depth="2" NCoef="0" IVar="2" Cut="6.2094549560546875e+02" cType="1" res="1.5829295152798295e-03" rms="3.8989841938018799e-01" purity="5.3795820474624634e-01" nType="0">
            <Node pos="l" depth="3" NCoef="0" IVar="-1" Cut="0.0000000000000000e+00" cType="1" res="-2.8803441091440618e-04" rms="3.8946151733398438e-01" purity="5.2966463565826416e-01" nType="-99"/>
            <Node pos="r" depth="3" NCoef="0" IVar="-1" Cut="0.0000000000000000e+00" cType="1" res="1.5238809399306774e-02" rms="3.9414641261100769e-01" purity="6.3339185714721680e-01" nType="-99"/>
          </Node>
        </Node>
        <Node pos="r" depth="1" NCoef="0" IVar="8" Cut="-9.3328350782394409e-01" cType="1" res="-8.4117483347654343e-03" rms="3.8066056370735168e-01" purity="4.7216433286666870e-01" nType="0">
          <Node pos="l" depth="2" NCoef="0" IVar="6" Cut="-3.6802151799201965e-01" cType="1" res="-2.6128198951482773e-02" rms="3.6753398180007935e-01" purity="3.6844372749328613e-01" nType="0">
            <Node pos="l" depth="3" NCoef="0" IVar="-1" Cut="0.0000000000000000e+00" cType="1" res="1.7339467303827405e-03" rms="3.6215218901634216e-01" purity="3.6669382452964783e-01" nType="-99"/>
            <Node pos="r" depth="3" NCoef="0" IVar="-1" Cut="0.0000000000000000e+00" cType="1" res="-2.9336309060454369e-02" rms="3.6968401074409485e-01" purity="3.6949968338012695e-01" nType="-99"/>
          </Node>
          <Node pos="r" depth="2" NCoef="0" IVar="9" Cut="2.2285728454589844e+00" cType="1" res="-4.5822695828974247e-03" rms="3.8333126902580261e-01" purity="4.9458390474319458e-01" nType="0">
            <Node pos="l" depth="3" NCoef="0" IVar="-1" Cut="0.0000000000000000e+00" cType="1" res="-4.7221048735082150e-03" rms="3.8441237807273865e-01" purity="5.0763016939163208e-01" nType="-99"/>
            <Node pos="r" depth="3" NCoef="0" IVar="-1" Cut="0.0000000000000000e+00" cType="1" res="1.4133435674011707e-02" rms="3.7142711877822876e-01" purity="3.6305657029151917e-01" nType="-99"/>
          </Node>
        </Node>
      </Node>
    </BinaryTree>
    <BinaryTree type="DecisionTree" boostWeight="1.0000000000000000e+00" itree="601">
      <Node pos="s" depth="0" NCoef="0" IVar="8" Cut="3.9997309446334839e-01" cType="1" res="4.6565703814849257e-04" rms="3.8160175085067749e-01" purity="4.9996966123580933e-01" nType="0">
        <Node pos="l" depth="1" NCoef="0" IVar="7" Cut="6.6670858860015869e-01" cType="1" res="-2.5362053420394659e-03" rms="3.7999862432479858e-01" purity="5.1826047897338867e-01" nType="0">
          <Node pos="l" depth="2" NCoef="0" IVar="1" Cut="1.1026518554687500e+03" cType="1" res="7.4111321009695530e-04" rms="3.8024333119392395e-01" purity="5.4558956623077393e-01" nType="0">
            <Node pos="l" depth="3" NCoef="0" IVar="-1" Cut="0.0000000000000000e+00" cType="1" res="-5.8444589376449585e-03" rms="3.8348394632339478e-01" purity="2.5050717592239380e-01" nType="-99"/>
            <Node pos="r" depth="3" NCoef="0" IVar="-1" Cut="0.0000000000000000e+00" cType="1" res="3.2428898848593235e-03" rms="3.7881216406822205e-01" purity="6.6846495866775513e-01" nType="-99"/>
          </Node>
          <Node pos="r" depth="2" NCoef="0" IVar="7" Cut="1.0730547904968262e+00" cType="1" res="-1.3370141386985779e-02" rms="3.7898689508438110e-01" purity="4.2791813611984253e-01" nType="0">
            <Node pos="l" depth="3" NCoef="0" IVar="-1" Cut="0.0000000000000000e+00" cType="1" res="-1.7858499661087990e-02" rms="3.7503582239151001e-01" purity="5.3495895862579346e-01" nType="-99"/>
            <Node pos="r" depth="3" NCoef="0" IVar="-1" Cut="0.0000000000000000e+00" cType="1" res="-2.7746749110519886e-03" rms="3.8144481182098389e-01" purity="3.5304710268974304e-01" nType="-99"/>
          </Node>
        </Node>
        <Node pos="r" depth="1" NCoef="0" IVar="8" Cut="2.1141929626464844e+00" cType="1" res="5.7274480350315571e-03" rms="3.8433912396430969e-01" purity="4.6790868043899536e-01" nType="0">
          <Node pos="l" depth="2" NCoef="0" IVar="1" Cut="1.6917471923828125e+03" cType="1" res="8.8477460667490959e-03" rms="3.8908243179321289e-01" purity="4.9377080798149109e-01" nType="0">
            <Node pos="l" depth="3" NCoef="0" IVar="-1" Cut="0.0000000000000000e+00" cType="1" res="8.5265059024095535e-03" rms="3.9738130569458008e-01" purity="4.4046404957771301e-01" nType="-99"/>
            <Node pos="r" depth="3" NCoef="0" IVar="-1" Cut="0.0000000000000000e+00" cType="1" res="-1.3787464238703251e-02" rms="3.3907935023307800e-01" purity="7.8512507677078247e-01" nType="-99"/>
          </Node>
          <Node pos="r" depth="2" NCoef="0" IVar="-1" Cut="0.0000000000000000e+00" cType="1" res="-2.2366216406226158e-02" rms="3.2914948463439941e-01" purity="1.9847877323627472e-01" nType="-99"/>
        </Node>
      </Node>
    </BinaryTree>
    <BinaryTree type="DecisionTree" boostWeight="1.0000000000000000e+00" itree="602">
      <Node pos="s" depth="0" NCoef="0" IVar="9" Cut="1.9999845027923584e+00" cType="1" res="2.0922834519296885e-03" rms="3.8367399573326111e-01" purity="5.0424659252166748e-01" nType="0">
        <Node pos="l" depth="1" NCoef="0" IVar="6" Cut="-1.1680902242660522e+00" cType="1" res="3.2653675880283117e-03" rms="3.8508716225624084e-01" purity="5.1368421316146851e-01" nType="0">
          <Node pos="l" depth="2" NCoef="0" IVar="7" Cut="-6.6517710685729980e-01" cType="1" res="1.6040857881307602e-02" rms="3.5545739531517029e-01" purity="3.0115744471549988e-01" nType="0">
            <Node pos="l" depth="3" NCoef="0" IVar="-1" Cut="0.0000000000000000e+00" cType="1" res="-1.2839790433645248e-03" rms="3.2432618737220764e-01" purity="2.1195437014102936e-01" nType="-99"/>
            <Node pos="r" depth="3" NCoef="0" IVar="-1" Cut="0.0000000000000000e+00" cType="1" res="1.8501546233892441e-02" rms="3.6934274435043335e-01" purity="3.4450203180313110e-01" nType="-99"/>
          </Node>
          <Node pos="r" depth="2" NCoef="0" IVar="8" Cut="1.7332074642181396e+00" cType="1" res="1.6100736102089286e-03" rms="3.8873028755187988e-01" purity="5.4122084379196167e-01" nType="0">
            <Node pos="l" depth="3" NCoef="0" IVar="-1" Cut="0.0000000000000000e+00" cType="1" res="1.9293089862912893e-03" rms="3.9030674099922180e-01" purity="5.5728769302368164e-01" nType="-99"/>
            <Node pos="r" depth="3" NCoef="0" IVar="-1" Cut="0.0000000000000000e+00" cType="1" res="-1.2738350778818130e-02" rms="3.6398315429687500e-01" purity="3.0313062667846680e-01" nType="-99"/>
          </Node>
        </Node>
        <Node pos="r" depth="1" NCoef="0" IVar="6" Cut="1.6004085540771484e-01" cType="1" res="-1.8412265926599503e-02" rms="3.5745200514793396e-01" purity="3.3928558230400085e-01" nType="0">
          <Node pos="l" depth="2" NCoef="0" IVar="-1" Cut="0.0000000000000000e+00" cType="1" res="-3.2749775797128677e-02" rms="3.6502575874328613e-01" purity="3.1071463227272034e-01" nType="-99"/>
          <Node pos="r" depth="2" NCoef="0" IVar="-1" Cut="0.0000000000000000e+00" cType="1" res="5.7613742537796497e-03" rms="3.4833198785781860e-01" purity="3.6541327834129333e-01" nType="-99"/>
        </Node>
      </Node>
    </BinaryTree>
    <BinaryTree type="DecisionTree" boostWeight="1.0000000000000000e+00" itree="603">
      <Node pos="s" depth="0" NCoef="0" IVar="4" Cut="1.4892147827148438e+02" cType="1" res="1.8528251675888896e-03" rms="3.8470733165740967e-01" purity="5.0031167268753052e-01" nType="0">
        <Node pos="l" depth="1" NCoef="0" IVar="4" Cut="6.4207107543945312e+01" cType="1" res="6.4668687991797924e-03" rms="3.9481654763221741e-01" purity="3.7919145822525024e-01" nType="0">
          <Node pos="l" depth="2" NCoef="0" IVar="-1" Cut="0.0000000000000000e+00" cType="1" res="-2.2111598402261734e-02" rms="2.8064081072807312e-01" purity="1.1147186160087585e-01" nType="-99"/>
          <Node pos="r" depth="2" NCoef="0" IVar="4" Cut="1.3681820678710938e+02" cType="1" res="8.5497172549366951e-03" rms="4.0208891034126282e-01" purity="3.9952313899993896e-01" nType="0">
            <Node pos="l" depth="3" NCoef="0" IVar="-1" Cut="0.0000000000000000e+00" cType="1" res="6.9345193915069103e-03" rms="4.0135097503662109e-01" purity="3.7999519705772400e-01" nType="-99"/>
            <Node pos="r" depth="3" NCoef="0" IVar="-1" Cut="0.0000000000000000e+00" cType="1" res="-7.3894746601581573e-03" rms="4.0748119354248047e-01" purity="5.5949658155441284e-01" nType="-99"/>
          </Node>
        </Node>
        <Node pos="r" depth="1" NCoef="0" IVar="9" Cut="-1.4666181802749634e+00" cType="1" res="-6.5350066870450974e-03" rms="3.6546549201011658e-01" purity="7.2049516439437866e-01" nType="0">
          <Node pos="l" depth="2" NCoef="0" IVar="-1" Cut="0.0000000000000000e+00" cType="1" res="1.0082574561238289e-02" rms="3.9674985408782959e-01" purity="6.3329160213470459e-01" nType="-99"/>
          <Node pos="r" depth="2" NCoef="0" IVar="4" Cut="1.9363293457031250e+02" cType="1" res="-8.9582428336143494e-03" rms="3.6186072230339050e-01" purity="7.2986203432083130e-01" nType="0">
            <Node pos="l" depth="3" NCoef="0" IVar="-1" Cut="0.0000000000000000e+00" cType="1" res="-1.2103364802896976e-02" rms="3.8356134295463562e-01" purity="6.7238026857376099e-01" nType="-99"/>
            <Node pos="r" depth="3" NCoef="0" IVar="-1" Cut="0.0000000000000000e+00" cType="1" res="-9.8086289654020220e-05" rms="3.3789312839508057e-01" purity="7.8891104459762573e-01" nType="-99"/>
          </Node>
        </Node>
      </Node>
    </BinaryTree>
    <BinaryTree type="DecisionTree" boostWeight="1.0000000000000000e+00" itree="604">
      <Node pos="s" depth="0" NCoef="0" IVar="7" Cut="6.6670131683349609e-01" cType="1" res="-1.9926871173083782e-03" rms="3.8524672389030457e-01" purity="4.9706074595451355e-01" nType="0">
        <Node pos="l" depth="1" NCoef="0" IVar="9" Cut="9.3339818716049194e-01" cType="1" res="-5.1085250452160835e-03" rms="3.8470894098281860e-01" purity="5.2645093202590942e-01" nType="0">
          <Node pos="l" depth="2" NCoef="0" IVar="9" Cut="-1.3775904178619385e+00" cType="1" res="-2.0276776049286127e-03" rms="3.8532224297523499e-01" purity="5.4388463497161865e-01" nType="0">
            <Node pos="l" depth="3" NCoef="0" IVar="-1" Cut="0.0000000000000000e+00" cType="1" res="-9.7628068178892136e-03" rms="3.7863489985466003e-01" purity="4.0644180774688721e-01" nType="-99"/>
            <Node pos="r" depth="3" NCoef="0" IVar="-1" Cut="0.0000000000000000e+00" cType="1" res="4.7389906831085682e-04" rms="3.8670322299003601e-01" purity="5.7369619607925415e-01" nType="-99"/>
          </Node>
          <Node pos="r" depth="2" NCoef="0" IVar="4" Cut="1.4493199157714844e+02" cType="1" res="-1.7012121155858040e-02" rms="3.8209673762321472e-01" purity="4.5909145474433899e-01" nType="0">
            <Node pos="l" depth="3" NCoef="0" IVar="-1" Cut="0.0000000000000000e+00" cType="1" res="-1.7271282151341438e-02" rms="3.8383653759956360e-01" purity="3.2280123233795166e-01" nType="-99"/>
            <Node pos="r" depth="3" NCoef="0" IVar="-1" Cut="0.0000000000000000e+00" cType="1" res="-2.9856042237952352e-04" rms="3.7848207354545593e-01" purity="6.9596707820892334e-01" nType="-99"/>
          </Node>
        </Node>
        <Node pos="r" depth="1" NCoef="0" IVar="8" Cut="6.6668719053268433e-01" cType="1" res="6.6278078593313694e-03" rms="3.8659989833831787e-01" purity="4.1574788093566895e-01" nType="0">
          <Node pos="l" depth="2" NCoef="0" IVar="8" Cut="6.3805468380451202e-03" cType="1" res="-6.1280536465346813e-03" rms="3.8859042525291443e-01" purity="4.3518146872520447e-01" nType="0">
            <Node pos="l" depth="3" NCoef="0" IVar="-1" Cut="0.0000000000000000e+00" cType="1" res="1.8588377861306071e-03" rms="3.8945695757865906e-01" purity="4.1834726929664612e-01" nType="-99"/>
            <Node pos="r" depth="3" NCoef="0" IVar="-1" Cut="0.0000000000000000e+00" cType="1" res="-1.6981385648250580e-02" rms="3.8597705960273743e-01" purity="4.7191664576530457e-01" nType="-99"/>
          </Node>
          <Node pos="r" depth="2" NCoef="0" IVar="2" Cut="4.2571524047851562e+02" cType="1" res="2.8892012313008308e-02" rms="3.8208186626434326e-01" purity="3.8182827830314636e-01" nType="0">
            <Node pos="l" depth="3" NCoef="0" IVar="-1" Cut="0.0000000000000000e+00" cType="1" res="1.4472818933427334e-02" rms="3.7534871697425842e-01" purity="3.5204622149467468e-01" nType="-99"/>
            <Node pos="r" depth="3" NCoef="0" IVar="-1" Cut="0.0000000000000000e+00" cType="1" res="3.5052951425313950e-02" rms="3.9791470766067505e-01" purity="4.5815679430961609e-01" nType="-99"/>
          </Node>
        </Node>
      </Node>
    </BinaryTree>
    <BinaryTree type="DecisionTree" boostWeight="1.0000000000000000e+00" itree="605">
      <Node pos="s" depth="0" NCoef="0" IVar="9" Cut="-9.3330758810043335e-01" cType="1" res="1.2426218017935753e-03" rms="3.8572502136230469e-01" purity="4.9929258227348328e-01" nType="0">
        <Node pos="l" depth="1" NCoef="0" IVar="1" Cut="1.1026673583984375e+03" cType="1" res="-9.3018691986799240e-03" rms="3.7930917739868164e-01" purity="4.2955276370048523e-01" nType="0">
          <Node pos="l" depth="2" NCoef="0" IVar="6" Cut="-3.5969391465187073e-01" cType="1" res="-2.4521389976143837e-02" rms="3.4390392899513245e-01" purity="1.7151591181755066e-01" nType="0">
            <Node pos="l" depth="3" NCoef="0" IVar="-1" Cut="0.0000000000000000e+00" cType="1" res="-3.0313078314065933e-02" rms="3.0659192800521851e-01" purity="1.2303728610277176e-01" nType="-99"/>
            <Node pos="r" depth="3" NCoef="0" IVar="-1" Cut="0.0000000000000000e+00" cType="1" res="-1.1598133482038975e-02" rms="3.7341323494911194e-01" purity="2.1405163407325745e-01" nType="-99"/>
          </Node>
          <Node pos="r" depth="2" NCoef="0" IVar="6" Cut="-6.4557385444641113e-01" cType="1" res="-1.3291169889271259e-03" rms="3.9636346697807312e-01" purity="5.6472545862197876e-01" nType="0">
            <Node pos="l" depth="3" NCoef="0" IVar="-1" Cut="0.0000000000000000e+00" cType="1" res="-1.3601587153971195e-02" rms="4.0074738860130310e-01" purity="4.2585006356239319e-01" nType="-99"/>
            <Node pos="r" depth="3" NCoef="0" IVar="-1" Cut="0.0000000000000000e+00" cType="1" res="3.9417915977537632e-03" rms="3.9445945620536804e-01" purity="6.1591827869415283e-01" nType="-99"/>
          </Node>
        </Node>
        <Node pos="r" depth="1" NCoef="0" IVar="7" Cut="-1.7332870960235596e+00" cType="1" res="4.4009122066199780e-03" rms="3.8757020235061646e-01" purity="5.2018105983734131e-01" nType="0">
          <Node pos="l" depth="2" NCoef="0" IVar="-1" Cut="0.0000000000000000e+00" cType="1" res="2.4398289620876312e-02" rms="3.5706260800361633e-01" purity="2.7065920829772949e-01" nType="-99"/>
          <Node pos="r" depth="2" NCoef="0" IVar="7" Cut="1.9364906549453735e+00" cType="1" res="3.0432567000389099e-03" rms="3.8914394378662109e-01" purity="5.3399336338043213e-01" nType="0">
            <Node pos="l" depth="3" NCoef="0" IVar="-1" Cut="0.0000000000000000e+00" cType="1" res="9.9161767866462469e-04" rms="3.9062735438346863e-01" purity="5.4758471250534058e-01" nType="-99"/>
            <Node pos="r" depth="3" NCoef="0" IVar="-1" Cut="0.0000000000000000e+00" cType="1" res="3.3476304262876511e-02" rms="3.5260966420173645e-01" purity="2.2988694906234741e-01" nType="-99"/>
          </Node>
        </Node>
      </Node>
    </BinaryTree>
    <BinaryTree type="DecisionTree" boostWeight="1.0000000000000000e+00" itree="606">
      <Node pos="s" depth="0" NCoef="0" IVar="6" Cut="-1.4325814247131348e+00" cType="1" res="3.3939330023713410e-05" rms="3.8637366890907288e-01" purity="4.9803769588470459e-01" nType="0">
        <Node pos="l" depth="1" NCoef="0" IVar="5" Cut="7.2526138305664062e+01" cType="1" res="2.5549961254000664e-02" rms="3.5292223095893860e-01" purity="2.4442957341670990e-01" nType="0">
          <Node pos="l" depth="2" NCoef="0" IVar="-1" Cut="0.0000000000000000e+00" cType="1" res="4.2825933545827866e-02" rms="3.2200762629508972e-01" purity="1.5395550429821014e-01" nType="-99"/>
          <Node pos="r" depth="2" NCoef="0" IVar="-1" Cut="0.0000000000000000e+00" cType="1" res="1.0143270716071129e-02" rms="3.8089129328727722e-01" purity="3.3442944288253784e-01" nType="-99"/>
        </Node>
        <Node pos="r" depth="1" NCoef="0" IVar="8" Cut="-1.3337561488151550e-01" cType="1" res="-2.0079696550965309e-03" rms="3.8885393738746643e-01" purity="5.1833260059356689e-01" nType="0">
          <Node pos="l" depth="2" NCoef="0" IVar="8" Cut="-5.1432037353515625e-01" cType="1" res="-6.1666839756071568e-03" rms="3.8947612047195435e-01" purity="5.0713336467742920e-01" nType="0">
            <Node pos="l" depth="3" NCoef="0" IVar="-1" Cut="0.0000000000000000e+00" cType="1" res="9.0094836195930839e-05" rms="3.9198011159896851e-01" purity="4.7751188278198242e-01" nType="-99"/>
            <Node pos="r" depth="3" NCoef="0" IVar="-1" Cut="0.0000000000000000e+00" cType="1" res="-1.5075297094881535e-02" rms="3.8240149617195129e-01" purity="5.8416420221328735e-01" nType="-99"/>
          </Node>
          <Node pos="r" depth="2" NCoef="0" IVar="6" Cut="3.8135817646980286e-01" cType="1" res="1.4126809546723962e-03" rms="3.8830807805061340e-01" purity="5.2754420042037964e-01" nType="0">
            <Node pos="l" depth="3" NCoef="0" IVar="-1" Cut="0.0000000000000000e+00" cType="1" res="4.3509160168468952e-03" rms="3.9476713538169861e-01" purity="5.8403009176254272e-01" nType="-99"/>
            <Node pos="r" depth="3" NCoef="0" IVar="-1" Cut="0.0000000000000000e+00" cType="1" res="-4.5864041894674301e-03" rms="3.7819513678550720e-01" purity="4.4217354059219360e-01" nType="-99"/>
          </Node>
        </Node>
      </Node>
    </BinaryTree>
    <BinaryTree type="DecisionTree" boostWeight="1.0000000000000000e+00" itree="607">
      <Node pos="s" depth="0" NCoef="0" IVar="6" Cut="-1.4305533170700073e+00" cType="1" res="-6.2117178458720446e-04" rms="3.8227561116218567e-01" purity="5.0175201892852783e-01" nType="0">
        <Node pos="l" depth="1" NCoef="0" IVar="1" Cut="1.1787067871093750e+03" cType="1" res="-2.5919161736965179e-02" rms="3.0950555205345154e-01" purity="1.8674036860466003e-01" nType="0">
          <Node pos="l" depth="2" NCoef="0" IVar="-1" Cut="0.0000000000000000e+00" cType="1" res="-1.4539951458573341e-02" rms="2.7213901281356812e-01" purity="1.0010798275470734e-01" nType="-99"/>
          <Node pos="r" depth="2" NCoef="0" IVar="-1" Cut="0.0000000000000000e+00" cType="1" res="-3.0309561640024185e-02" rms="3.5582038760185242e-01" purity="3.1210210919380188e-01" nType="-99"/>
        </Node>
        <Node pos="r" depth="1" NCoef="0" IVar="3" Cut="4.1073315429687500e+02" cType="1" res="1.2519634328782558e-03" rms="3.8705444335937500e-01" purity="5.2507638931274414e-01" nType="0">
          <Node pos="l" depth="2" NCoef="0" IVar="7" Cut="4.0002721548080444e-01" cType="1" res="-2.2396379790734500e-05" rms="3.8658875226974487e-01" purity="5.1702713966369629e-01" nType="0">
            <Node pos="l" depth="3" NCoef="0" IVar="-1" Cut="0.0000000000000000e+00" cType="1" res="2.5820492301136255e-03" rms="3.8848173618316650e-01" purity="5.4278200864791870e-01" nType="-99"/>
            <Node pos="r" depth="3" NCoef="0" IVar="-1" Cut="0.0000000000000000e+00" cType="1" res="-4.8110503703355789e-03" rms="3.8299411535263062e-01" purity="4.6987441182136536e-01" nType="-99"/>
          </Node>
          <Node pos="r" depth="2" NCoef="0" IVar="-1" Cut="0.0000000000000000e+00" cType="1" res="1.8476901575922966e-02" rms="3.9616632461547852e-01" purity="7.0305716991424561e-01" nType="-99"/>
        </Node>
      </Node>
    </BinaryTree>
    <BinaryTree type="DecisionTree" boostWeight="1.0000000000000000e+00" itree="608">
      <Node pos="s" depth="0" NCoef="0" IVar="4" Cut="9.9465583801269531e+01" cType="1" res="-3.7856950075365603e-04" rms="3.8434243202209473e-01" purity="4.9910718202590942e-01" nType="0">
        <Node pos="l" depth="1" NCoef="0" IVar="8" Cut="9.3328404426574707e-01" cType="1" res="9.0020159259438515e-03" rms="3.7494510412216187e-01" purity="2.5260633230209351e-01" nType="0">
          <Node pos="l" depth="2" NCoef="0" IVar="6" Cut="4.2107564210891724e-01" cType="1" res="1.4869691804051399e-02" rms="3.8613370060920715e-01" purity="2.7018436789512634e-01" nType="0">
            <Node pos="l" depth="3" NCoef="0" IVar="-1" Cut="0.0000000000000000e+00" cType="1" res="1.5763606876134872e-02" rms="4.0014034509658813e-01" purity="2.9881724715232849e-01" nType="-99"/>
            <Node pos="r" depth="3" NCoef="0" IVar="-1" Cut="0.0000000000000000e+00" cType="1" res="-3.3757097553461790e-03" rms="3.5323566198348999e-01" purity="2.0834012329578400e-01" nType="-99"/>
          </Node>
          <Node pos="r" depth="2" NCoef="0" IVar="5" Cut="6.6434989929199219e+01" cType="1" res="-8.2774907350540161e-03" rms="3.3927446603775024e-01" purity="2.0084135234355927e-01" nType="0">
            <Node pos="l" depth="3" NCoef="0" IVar="-1" Cut="0.0000000000000000e+00" cType="1" res="-1.6394797712564468e-02" rms="3.1449735164642334e-01" purity="1.4170736074447632e-01" nType="-99"/>
            <Node pos="r" depth="3" NCoef="0" IVar="-1" Cut="0.0000000000000000e+00" cType="1" res="4.5775137841701508e-03" rms="3.7617808580398560e-01" purity="2.9857802391052246e-01" nType="-99"/>
          </Node>
        </Node>
        <Node pos="r" depth="1" NCoef="0" IVar="9" Cut="1.3334858417510986e-01" cType="1" res="-4.6406611800193787e-03" rms="3.8846221566200256e-01" purity="6.1110550165176392e-01" nType="0">
          <Node pos="l" depth="2" NCoef="0" IVar="5" Cut="7.7447822570800781e+01" cType="1" res="-1.0626897215843201e-02" rms="3.8631501793861389e-01" purity="6.1283028125762939e-01" nType="0">
            <Node pos="l" depth="3" NCoef="0" IVar="-1" Cut="0.0000000000000000e+00" cType="1" res="-1.3518756255507469e-02" rms="4.1069123148918152e-01" purity="4.2398437857627869e-01" nType="-99"/>
            <Node pos="r" depth="3" NCoef="0" IVar="-1" Cut="0.0000000000000000e+00" cType="1" res="-4.0874956175684929e-03" rms="3.7681397795677185e-01" purity="6.8248814344406128e-01" nType="-99"/>
          </Node>
          <Node pos="r" depth="2" NCoef="0" IVar="8" Cut="1.4665988683700562e+00" cType="1" res="2.3626871407032013e-03" rms="3.9084291458129883e-01" purity="6.0908746719360352e-01" nType="0">
            <Node pos="l" depth="3" NCoef="0" IVar="-1" Cut="0.0000000000000000e+00" cType="1" res="-2.2749364143237472e-04" rms="3.9020210504531860e-01" purity="6.3223147392272949e-01" nType="-99"/>
            <Node pos="r" depth="3" NCoef="0" IVar="-1" Cut="0.0000000000000000e+00" cType="1" res="1.6146639361977577e-02" rms="3.9548918604850769e-01" purity="4.1275826096534729e-01" nType="-99"/>
          </Node>
        </Node>
      </Node>
    </BinaryTree>
    <BinaryTree type="DecisionTree" boostWeight="1.0000000000000000e+00" itree="609">
      <Node pos="s" depth="0" NCoef="0" IVar="7" Cut="-3.9996284246444702e-01" cType="1" res="1.7433628672733903e-03" rms="3.8351967930793762e-01" purity="5.0041824579238892e-01" nType="0">
        <Node pos="l" depth="1" NCoef="0" IVar="3" Cut="3.0672344970703125e+02" cType="1" res="8.3449846133589745e-03" rms="3.8355529308319092e-01" purity="4.6323814988136292e-01" nType="0">
          <Node pos="l" depth="2" NCoef="0" IVar="3" Cut="1.3730661010742188e+02" cType="1" res="1.2075440958142281e-02" rms="3.8372904062271118e-01" purity="4.4142141938209534e-01" nType="0">
            <Node pos="l" depth="3" NCoef="0" IVar="-1" Cut="0.0000000000000000e+00" cType="1" res="-5.8547682128846645e-03" rms="3.4647846221923828e-01" purity="2.0065793395042419e-01" nType="-99"/>
            <Node pos="r" depth="3" NCoef="0" IVar="-1" Cut="0.0000000000000000e+00" cType="1" res="1.1788658797740936e-02" rms="3.9521801471710205e-01" purity="5.2210408449172974e-01" nType="-99"/>
          </Node>
          <Node pos="r" depth="2" NCoef="0" IVar="-1" Cut="0.0000000000000000e+00" cType="1" res="-1.1885903775691986e-02" rms="3.8133469223976135e-01" purity="6.1506581306457520e-01" nType="-99"/>
        </Node>
        <Node pos="r" depth="1" NCoef="0" IVar="8" Cut="1.9998670816421509e+00" cType="1" res="-1.9702289719134569e-03" rms="3.8344970345497131e-01" purity="5.2133303880691528e-01" nType="0">
          <Node pos="l" depth="2" NCoef="0" IVar="4" Cut="9.5119949340820312e+01" cType="1" res="-3.7423323374241590e-03" rms="3.8444525003433228e-01" purity="5.3259748220443726e-01" nType="0">
            <Node pos="l" depth="3" NCoef="0" IVar="-1" Cut="0.0000000000000000e+00" cType="1" res="4.8660775646567345e-03" rms="3.8049045205116272e-01" purity="2.6575556397438049e-01" nType="-99"/>
            <Node pos="r" depth="3" NCoef="0" IVar="-1" Cut="0.0000000000000000e+00" cType="1" res="-5.0358944572508335e-03" rms="3.8579007983207703e-01" purity="6.2903904914855957e-01" nType="-99"/>
          </Node>
          <Node pos="r" depth="2" NCoef="0" IVar="-1" Cut="0.0000000000000000e+00" cType="1" res="2.6986738666892052e-02" rms="3.6062785983085632e-01" purity="2.9135110974311829e-01" nType="-99"/>
        </Node>
      </Node>
    </BinaryTree>
    <BinaryTree type="DecisionTree" boostWeight="1.0000000000000000e+00" itree="610">
      <Node pos="s" depth="0" NCoef="0" IVar="8" Cut="-3.9999777078628540e-01" cType="1" res="-5.3904228843748569e-04" rms="3.8432949781417847e-01" purity="4.9893128871917725e-01" nType="0">
        <Node pos="l" depth="1" NCoef="0" IVar="6" Cut="-1.0979197919368744e-01" cType="1" res="5.1940293051302433e-03" rms="3.8603326678276062e-01" purity="4.7049832344055176e-01" nType="0">
          <Node pos="l" depth="2" NCoef="0" IVar="7" Cut="4.0004065632820129e-01" cType="1" res="1.3390158303081989e-02" rms="3.8622188568115234e-01" purity="4.6331542730331421e-01" nType="0">
            <Node pos="l" depth="3" NCoef="0" IVar="-1" Cut="0.0000000000000000e+00" cType="1" res="9.8706816788762808e-04" rms="3.8242039084434509e-01" purity="4.6755352616310120e-01" nType="-99"/>
            <Node pos="r" depth="3" NCoef="0" IVar="-1" Cut="0.0000000000000000e+00" cType="1" res="2.6997696608304977e-02" rms="3.9343467354774475e-01" purity="4.5360171794891357e-01" nType="-99"/>
          </Node>
          <Node pos="r" depth="2" NCoef="0" IVar="2" Cut="3.2051989746093750e+02" cType="1" res="-3.3107609488070011e-03" rms="3.8565334677696228e-01" purity="4.7795176506042480e-01" nType="0">
            <Node pos="l" depth="3" NCoef="0" IVar="-1" Cut="0.0000000000000000e+00" cType="1" res="1.1337427422404289e-02" rms="3.9185869693756104e-01" purity="4.6923193335533142e-01" nType="-99"/>
            <Node pos="r" depth="3" NCoef="0" IVar="-1" Cut="0.0000000000000000e+00" cType="1" res="-1.4538601040840149e-02" rms="3.7953928112983704e-01" purity="4.8518607020378113e-01" nType="-99"/>
          </Node>
        </Node>
        <Node pos="r" depth="1" NCoef="0" IVar="7" Cut="-1.1999096870422363e+00" cType="1" res="-3.8801727350801229e-03" rms="3.8329350948333740e-01" purity="5.1550143957138062e-01" nType="0">
          <Node pos="l" depth="2" NCoef="0" IVar="4" Cut="1.2134935760498047e+02" cType="1" res="-2.0721320062875748e-02" rms="3.5099101066589355e-01" purity="2.9110139608383179e-01" nType="0">
            <Node pos="l" depth="3" NCoef="0" IVar="-1" Cut="0.0000000000000000e+00" cType="1" res="-8.2126911729574203e-03" rms="3.2110980153083801e-01" purity="1.8258912861347198e-01" nType="-99"/>
            <Node pos="r" depth="3" NCoef="0" IVar="-1" Cut="0.0000000000000000e+00" cType="1" res="-2.2980285808444023e-02" rms="3.8664135336875916e-01" purity="4.3528580665588379e-01" nType="-99"/>
          </Node>
          <Node pos="r" depth="2" NCoef="0" IVar="6" Cut="1.2098968029022217e+00" cType="1" res="-1.8256027251482010e-03" rms="3.8699969649314880e-01" purity="5.4287761449813843e-01" nType="0">
            <Node pos="l" depth="3" NCoef="0" IVar="-1" Cut="0.0000000000000000e+00" cType="1" res="-2.6688951766118407e-04" rms="3.9151498675346375e-01" purity="5.7583349943161011e-01" nType="-99"/>
            <Node pos="r" depth="3" NCoef="0" IVar="-1" Cut="0.0000000000000000e+00" cType="1" res="-1.0383393615484238e-02" rms="3.4882539510726929e-01" purity="2.8086987137794495e-01" nType="-99"/>
          </Node>
        </Node>
      </Node>
    </BinaryTree>
    <BinaryTree type="DecisionTree" boostWeight="1.0000000000000000e+00" itree="611">
      <Node pos="s" depth="0" NCoef="0" IVar="8" Cut="1.9998644590377808e+00" cType="1" res="-4.3879495933651924e-04" rms="3.8352969288825989e-01" purity="4.9929812550544739e-01" nType="0">
        <Node pos="l" depth="1" NCoef="0" IVar="8" Cut="1.5427056550979614e+00" cType="1" res="-1.6905451193451881e-03" rms="3.8436529040336609e-01" purity="5.0948351621627808e-01" nType="0">
          <Node pos="l" depth="2" NCoef="0" IVar="6" Cut="1.2049012184143066e+00" cType="1" res="-4.6123261563479900e-04" rms="3.8517916202545166e-01" purity="5.1896220445632935e-01" nType="0">
            <Node pos="l" depth="3" NCoef="0" IVar="-1" Cut="0.0000000000000000e+00" cType="1" res="-1.4821765944361687e-03" rms="3.8891175389289856e-01" purity="5.4516583681106567e-01" nType="-99"/>
            <Node pos="r" depth="3" NCoef="0" IVar="-1" Cut="0.0000000000000000e+00" cType="1" res="1.2034524232149124e-02" rms="3.5117655992507935e-01" purity="2.9432642459869385e-01" nType="-99"/>
          </Node>
          <Node pos="r" depth="2" NCoef="0" IVar="-1" Cut="0.0000000000000000e+00" cType="1" res="-1.5768200159072876e-02" rms="3.6892887949943542e-01" purity="3.4112596511840820e-01" nType="-99"/>
        </Node>
        <Node pos="r" depth="1" NCoef="0" IVar="-1" Cut="0.0000000000000000e+00" cType="1" res="2.1614721044898033e-02" rms="3.6335071921348572e-01" purity="2.7289909124374390e-01" nType="-99"/>
      </Node>
    </BinaryTree>
    <BinaryTree type="DecisionTree" boostWeight="1.0000000000000000e+00" itree="612">
      <Node pos="s" depth="0" NCoef="0" IVar="4" Cut="2.7577655029296875e+02" cType="1" res="-2.7005400042980909e-03" rms="3.8051640987396240e-01" purity="4.9515509605407715e-01" nType="0">
        <Node pos="l" depth="1" NCoef="0" IVar="4" Cut="7.1544792175292969e+01" cType="1" res="-3.5577851813286543e-03" rms="3.8212528824806213e-01" purity="4.8242512345314026e-01" nType="0">
          <Node pos="l" depth="2" NCoef="0" IVar="5" Cut="5.8179222106933594e+01" cType="1" res="-1.8670175224542618e-02" rms="3.0288800597190857e-01" purity="1.3458544015884399e-01" nType="0">
            <Node pos="l" depth="3" NCoef="0" IVar="-1" Cut="0.0000000000000000e+00" cType="1" res="-5.4367622360587120e-03" rms="3.0343121290206909e-01" purity="1.3002671301364899e-01" nType="-99"/>
            <Node pos="r" depth="3" NCoef="0" IVar="-1" Cut="0.0000000000000000e+00" cType="1" res="-3.6616638302803040e-02" rms="3.0036431550979614e-01" purity="1.4293305575847626e-01" nType="-99"/>
          </Node>
          <Node pos="r" depth="2" NCoef="0" IVar="3" Cut="2.5365090942382812e+02" cType="1" res="-1.9121826626360416e-03" rms="3.8974684476852417e-01" purity="5.2030169963836670e-01" nType="0">
            <Node pos="l" depth="3" NCoef="0" IVar="-1" Cut="0.0000000000000000e+00" cType="1" res="8.7285001063719392e-04" rms="3.9465567469596863e-01" purity="4.6935662627220154e-01" nType="-99"/>
            <Node pos="r" depth="3" NCoef="0" IVar="-1" Cut="0.0000000000000000e+00" cType="1" res="-7.7465907670557499e-03" rms="3.7549093365669250e-01" purity="6.6310483217239380e-01" nType="-99"/>
          </Node>
        </Node>
        <Node pos="r" depth="1" NCoef="0" IVar="-1" Cut="0.0000000000000000e+00" cType="1" res="1.6474291682243347e-02" rms="3.3536535501480103e-01" purity="8.2518082857131958e-01" nType="-99"/>
      </Node>
    </BinaryTree>
    <BinaryTree type="DecisionTree" boostWeight="1.0000000000000000e+00" itree="613">
      <Node pos="s" depth="0" NCoef="0" IVar="9" Cut="3.9998769760131836e-01" cType="1" res="-1.4799659838899970e-03" rms="3.8439682126045227e-01" purity="4.9424573779106140e-01" nType="0">
        <Node pos="l" depth="1" NCoef="0" IVar="9" Cut="2.4759660661220551e-01" cType="1" res="-5.0884014926850796e-03" rms="3.8624030351638794e-01" purity="4.9963527917861938e-01" nType="0">
          <Node pos="l" depth="2" NCoef="0" IVar="7" Cut="-1.1998733282089233e+00" cType="1" res="-3.4204279072582722e-03" rms="3.8611689209938049e-01" purity="4.9913647770881653e-01" nType="0">
            <Node pos="l" depth="3" NCoef="0" IVar="-1" Cut="0.0000000000000000e+00" cType="1" res="7.7869063243269920e-03" rms="3.7051513791084290e-01" purity="3.2347267866134644e-01" nType="-99"/>
            <Node pos="r" depth="3" NCoef="0" IVar="-1" Cut="0.0000000000000000e+00" cType="1" res="-3.8916228804737329e-03" rms="3.8884153962135315e-01" purity="5.3117203712463379e-01" nType="-99"/>
          </Node>
          <Node pos="r" depth="2" NCoef="0" IVar="-1" Cut="0.0000000000000000e+00" cType="1" res="-1.8233053386211395e-02" rms="3.8720425963401794e-01" purity="5.0647437572479248e-01" nType="-99"/>
        </Node>
        <Node pos="r" depth="1" NCoef="0" IVar="8" Cut="-1.2000048160552979e+00" cType="1" res="4.2588650248944759e-03" rms="3.8137629628181458e-01" purity="4.8567414283752441e-01" nType="0">
          <Node pos="l" depth="2" NCoef="0" IVar="6" Cut="-1.0913423448801041e-01" cType="1" res="2.5634853169322014e-02" rms="3.8282465934753418e-01" purity="3.9399844408035278e-01" nType="0">
            <Node pos="l" depth="3" NCoef="0" IVar="-1" Cut="0.0000000000000000e+00" cType="1" res="3.8844987750053406e-02" rms="3.8972583413124084e-01" purity="4.5118024945259094e-01" nType="-99"/>
            <Node pos="r" depth="3" NCoef="0" IVar="-1" Cut="0.0000000000000000e+00" cType="1" res="-2.3696781136095524e-03" rms="3.7397748231887817e-01" purity="3.4098586440086365e-01" nType="-99"/>
          </Node>
          <Node pos="r" depth="2" NCoef="0" IVar="0" Cut="4.1649166870117188e+02" cType="1" res="7.5648044003173709e-04" rms="3.8102412223815918e-01" purity="5.0069487094879150e-01" nType="0">
            <Node pos="l" depth="3" NCoef="0" IVar="-1" Cut="0.0000000000000000e+00" cType="1" res="5.9839999303221703e-03" rms="3.8511899113655090e-01" purity="3.4150207042694092e-01" nType="-99"/>
            <Node pos="r" depth="3" NCoef="0" IVar="-1" Cut="0.0000000000000000e+00" cType="1" res="-5.6050498969852924e-03" rms="3.7649646401405334e-01" purity="6.6722339391708374e-01" nType="-99"/>
          </Node>
        </Node>
      </Node>
    </BinaryTree>
    <BinaryTree type="DecisionTree" boostWeight="1.0000000000000000e+00" itree="614">
      <Node pos="s" depth="0" NCoef="0" IVar="6" Cut="6.7321586608886719e-01" cType="1" res="5.0144281703978777e-04" rms="3.7897294759750366e-01" purity="5.0325232744216919e-01" nType="0">
        <Node pos="l" depth="1" NCoef="0" IVar="7" Cut="1.7333302497863770e+00" cType="1" res="3.4059346653521061e-03" rms="3.8461431860923767e-01" purity="5.4455864429473877e-01" nType="0">
          <Node pos="l" depth="2" NCoef="0" IVar="4" Cut="1.9010603332519531e+02" cType="1" res="4.4784448109567165e-03" rms="3.8639456033706665e-01" purity="5.6201237440109253e-01" nType="0">
            <Node pos="l" depth="3" NCoef="0" IVar="-1" Cut="0.0000000000000000e+00" cType="1" res="4.3311305344104767e-03" rms="3.9598843455314636e-01" purity="5.0508964061737061e-01" nType="-99"/>
            <Node pos="r" depth="3" NCoef="0" IVar="-1" Cut="0.0000000000000000e+00" cType="1" res="-5.3487825207412243e-03" rms="3.4293687343597412e-01" purity="8.0129718780517578e-01" nType="-99"/>
          </Node>
          <Node pos="r" depth="2" NCoef="0" IVar="-1" Cut="0.0000000000000000e+00" cType="1" res="-1.2258940376341343e-02" rms="3.5004636645317078e-01" purity="2.2674119472503662e-01" nType="-99"/>
        </Node>
        <Node pos="r" depth="1" NCoef="0" IVar="5" Cut="1.3047160339355469e+02" cType="1" res="-8.9628277346491814e-03" rms="3.5981506109237671e-01" purity="3.6865594983100891e-01" nType="0">
          <Node pos="l" depth="2" NCoef="0" IVar="8" Cut="1.4666348695755005e+00" cType="1" res="-1.2802979908883572e-02" rms="3.5827806591987610e-01" purity="3.0286991596221924e-01" nType="0">
            <Node pos="l" depth="3" NCoef="0" IVar="-1" Cut="0.0000000000000000e+00" cType="1" res="-1.1056800372898579e-02" rms="3.6272230744361877e-01" purity="3.2499173283576965e-01" nType="-99"/>
            <Node pos="r" depth="3" NCoef="0" IVar="-1" Cut="0.0000000000000000e+00" cType="1" res="4.1150073520839214e-03" rms="3.3087146282196045e-01" purity="1.7482101917266846e-01" nType="-99"/>
          </Node>
          <Node pos="r" depth="2" NCoef="0" IVar="-1" Cut="0.0000000000000000e+00" cType="1" res="9.6340589225292206e-03" rms="3.6776545643806458e-01" purity="7.4769175052642822e-01" nType="-99"/>
        </Node>
      </Node>
    </BinaryTree>
    <BinaryTree type="DecisionTree" boostWeight="1.0000000000000000e+00" itree="615">
      <Node pos="s" depth="0" NCoef="0" IVar="9" Cut="1.3334858417510986e-01" cType="1" res="-5.5254448670893908e-04" rms="3.8240435719490051e-01" purity="4.9675774574279785e-01" nType="0">
        <Node pos="l" depth="1" NCoef="0" IVar="3" Cut="1.4284295654296875e+02" cType="1" res="3.9671608246862888e-03" rms="3.8553756475448608e-01" purity="5.0654602050781250e-01" nType="0">
          <Node pos="l" depth="2" NCoef="0" IVar="9" Cut="-7.0469927787780762e-01" cType="1" res="-1.0191700421273708e-02" rms="3.6510568857192993e-01" purity="2.1921989321708679e-01" nType="0">
            <Node pos="l" depth="3" NCoef="0" IVar="-1" Cut="0.0000000000000000e+00" cType="1" res="-2.2353122010827065e-02" rms="3.3800071477890015e-01" purity="1.7788968980312347e-01" nType="-99"/>
            <Node pos="r" depth="3" NCoef="0" IVar="-1" Cut="0.0000000000000000e+00" cType="1" res="8.8844774290919304e-03" rms="3.9710363745689392e-01" purity="2.7417293190956116e-01" nType="-99"/>
          </Node>
          <Node pos="r" depth="2" NCoef="0" IVar="6" Cut="4.1908064484596252e-01" cType="1" res="8.1306723877787590e-03" rms="3.9124530553817749e-01" purity="5.9103626012802124e-01" nType="0">
            <Node pos="l" depth="3" NCoef="0" IVar="-1" Cut="0.0000000000000000e+00" cType="1" res="2.0493941847234964e-03" rms="3.9324504137039185e-01" purity="6.0619646310806274e-01" nType="-99"/>
            <Node pos="r" depth="3" NCoef="0" IVar="-1" Cut="0.0000000000000000e+00" cType="1" res="1.3036631047725677e-02" rms="3.8609236478805542e-01" purity="5.5428463220596313e-01" nType="-99"/>
          </Node>
        </Node>
        <Node pos="r" depth="1" NCoef="0" IVar="4" Cut="1.4887413024902344e+02" cType="1" res="-5.9789433144032955e-03" rms="3.7853705883026123e-01" purity="4.8500585556030273e-01" nType="0">
          <Node pos="l" depth="2" NCoef="0" IVar="5" Cut="6.8754730224609375e+01" cType="1" res="-1.1018907651305199e-02" rms="3.8639110326766968e-01" purity="3.4818866848945618e-01" nType="0">
            <Node pos="l" depth="3" NCoef="0" IVar="-1" Cut="0.0000000000000000e+00" cType="1" res="6.2351668020710349e-04" rms="3.6147952079772949e-01" purity="2.3982547223567963e-01" nType="-99"/>
            <Node pos="r" depth="3" NCoef="0" IVar="-1" Cut="0.0000000000000000e+00" cType="1" res="-1.2760979123413563e-02" rms="4.0754386782646179e-01" purity="4.4730019569396973e-01" nType="-99"/>
          </Node>
          <Node pos="r" depth="2" NCoef="0" IVar="2" Cut="4.8064935302734375e+02" cType="1" res="2.8211176395416260e-03" rms="3.6425074934959412e-01" purity="7.2389632463455200e-01" nType="0">
            <Node pos="l" depth="3" NCoef="0" IVar="-1" Cut="0.0000000000000000e+00" cType="1" res="5.2863904275000095e-03" rms="3.6164540052413940e-01" purity="7.3300135135650635e-01" nType="-99"/>
            <Node pos="r" depth="3" NCoef="0" IVar="-1" Cut="0.0000000000000000e+00" cType="1" res="-7.8258747234940529e-03" rms="3.7224507331848145e-01" purity="6.9431543350219727e-01" nType="-99"/>
          </Node>
        </Node>
      </Node>
    </BinaryTree>
    <BinaryTree type="DecisionTree" boostWeight="1.0000000000000000e+00" itree="616">
      <Node pos="s" depth="0" NCoef="0" IVar="9" Cut="-9.3329662084579468e-01" cType="1" res="3.0359062366187572e-03" rms="3.8495132327079773e-01" purity="4.9800544977188110e-01" nType="0">
        <Node pos="l" depth="1" NCoef="0" IVar="7" Cut="1.3343998789787292e-01" cType="1" res="1.2487929314374924e-02" rms="3.8800004124641418e-01" purity="4.4613546133041382e-01" nType="0">
          <Node pos="l" depth="2" NCoef="0" IVar="4" Cut="9.1677032470703125e+01" cType="1" res="2.0462179556488991e-02" rms="3.8828945159912109e-01" purity="4.5235672593116760e-01" nType="0">
            <Node pos="l" depth="3" NCoef="0" IVar="-1" Cut="0.0000000000000000e+00" cType="1" res="3.3773057162761688e-02" rms="3.7194782495498657e-01" purity="2.5562441349029541e-01" nType="-99"/>
            <Node pos="r" depth="3" NCoef="0" IVar="-1" Cut="0.0000000000000000e+00" cType="1" res="6.9416305050253868e-03" rms="3.9456656575202942e-01" purity="5.3495901823043823e-01" nType="-99"/>
          </Node>
          <Node pos="r" depth="2" NCoef="0" IVar="5" Cut="7.8110229492187500e+01" cType="1" res="-9.1928472102154046e-05" rms="3.8720923662185669e-01" purity="4.3632107973098755e-01" nType="0">
            <Node pos="l" depth="3" NCoef="0" IVar="-1" Cut="0.0000000000000000e+00" cType="1" res="-7.1563716046512127e-03" rms="3.7277036905288696e-01" purity="2.9493147134780884e-01" nType="-99"/>
            <Node pos="r" depth="3" NCoef="0" IVar="-1" Cut="0.0000000000000000e+00" cType="1" res="6.7269913852214813e-03" rms="4.0160316228866577e-01" purity="5.8555781841278076e-01" nType="-99"/>
          </Node>
        </Node>
        <Node pos="r" depth="1" NCoef="0" IVar="4" Cut="9.9465583801269531e+01" cType="1" res="1.3221843983046710e-04" rms="3.8396316766738892e-01" purity="5.1394009590148926e-01" nType="0">
          <Node pos="l" depth="2" NCoef="0" IVar="9" Cut="1.9109262228012085e+00" cType="1" res="-8.7922764942049980e-03" rms="3.7003287672996521e-01" purity="2.4263328313827515e-01" nType="0">
            <Node pos="l" depth="3" NCoef="0" IVar="-1" Cut="0.0000000000000000e+00" cType="1" res="-8.3110379055142403e-03" rms="3.7298002839088440e-01" purity="2.4910381436347961e-01" nType="-99"/>
            <Node pos="r" depth="3" NCoef="0" IVar="-1" Cut="0.0000000000000000e+00" cType="1" res="1.4234761707484722e-02" rms="3.4518408775329590e-01" purity="1.9218634068965912e-01" nType="-99"/>
          </Node>
          <Node pos="r" depth="2" NCoef="0" IVar="2" Cut="3.4566003417968750e+02" cType="1" res="3.9213588461279869e-03" rms="3.8966530561447144e-01" purity="6.2913084030151367e-01" nType="0">
            <Node pos="l" depth="3" NCoef="0" IVar="-1" Cut="0.0000000000000000e+00" cType="1" res="6.5079662017524242e-03" rms="4.0202593803405762e-01" purity="6.0489445924758911e-01" nType="-99"/>
            <Node pos="r" depth="3" NCoef="0" IVar="-1" Cut="0.0000000000000000e+00" cType="1" res="-1.5155099099501967e-03" rms="3.7759846448898315e-01" purity="6.5186905860900879e-01" nType="-99"/>
          </Node>
        </Node>
      </Node>
    </BinaryTree>
    <BinaryTree type="DecisionTree" boostWeight="1.0000000000000000e+00" itree="617">
      <Node pos="s" depth="0" NCoef="0" IVar="8" Cut="-9.3335467576980591e-01" cType="1" res="2.2950998973101377e-03" rms="3.8350686430931091e-01" purity="5.0048482418060303e-01" nType="0">
        <Node pos="l" depth="1" NCoef="0" IVar="7" Cut="-9.3271273374557495e-01" cType="1" res="1.6373895108699799e-02" rms="3.8067695498466492e-01" purity="4.1956874728202820e-01" nType="0">
          <Node pos="l" depth="2" NCoef="0" IVar="7" Cut="-1.4660334587097168e+00" cType="1" res="-3.8912189193069935e-03" rms="3.4750628471374512e-01" purity="2.8845241665840149e-01" nType="0">
            <Node pos="l" depth="3" NCoef="0" IVar="-1" Cut="0.0000000000000000e+00" cType="1" res="9.2836637049913406e-03" rms="3.3656746149063110e-01" purity="2.3286403715610504e-01" nType="-99"/>
            <Node pos="r" depth="3" NCoef="0" IVar="-1" Cut="0.0000000000000000e+00" cType="1" res="-1.3569746166467667e-02" rms="3.5850331187248230e-01" purity="3.4954494237899780e-01" nType="-99"/>
          </Node>
          <Node pos="r" depth="2" NCoef="0" IVar="7" Cut="1.3380940258502960e-01" cType="1" res="2.3289332166314125e-02" rms="3.9111328125000000e-01" purity="4.6431204676628113e-01" nType="0">
            <Node pos="l" depth="3" NCoef="0" IVar="-1" Cut="0.0000000000000000e+00" cType="1" res="2.5437554344534874e-02" rms="4.0823668241500854e-01" purity="5.3317880630493164e-01" nType="-99"/>
            <Node pos="r" depth="3" NCoef="0" IVar="-1" Cut="0.0000000000000000e+00" cType="1" res="4.3138712644577026e-03" rms="3.7329843640327454e-01" purity="3.9874920248985291e-01" nType="-99"/>
          </Node>
        </Node>
        <Node pos="r" depth="1" NCoef="0" IVar="9" Cut="-9.3326324224472046e-01" cType="1" res="-1.6870019026100636e-03" rms="3.8420993089675903e-01" purity="5.2337145805358887e-01" nType="0">
          <Node pos="l" depth="2" NCoef="0" IVar="8" Cut="-2.2232040762901306e-01" cType="1" res="1.1440956965088844e-02" rms="3.8643953204154968e-01" purity="4.9781045317649841e-01" nType="0">
            <Node pos="l" depth="3" NCoef="0" IVar="-1" Cut="0.0000000000000000e+00" cType="1" res="-3.0620980542153120e-03" rms="3.8900434970855713e-01" purity="4.9318179488182068e-01" nType="-99"/>
            <Node pos="r" depth="3" NCoef="0" IVar="-1" Cut="0.0000000000000000e+00" cType="1" res="1.1921705678105354e-02" rms="3.8519284129142761e-01" purity="4.9969866871833801e-01" nType="-99"/>
          </Node>
          <Node pos="r" depth="2" NCoef="0" IVar="8" Cut="1.5554704666137695e+00" cType="1" res="-5.4585328325629234e-03" rms="3.8348388671875000e-01" purity="5.3071480989456177e-01" nType="0">
            <Node pos="l" depth="3" NCoef="0" IVar="-1" Cut="0.0000000000000000e+00" cType="1" res="-5.3180344402790070e-03" rms="3.8612046837806702e-01" purity="5.5764710903167725e-01" nType="-99"/>
            <Node pos="r" depth="3" NCoef="0" IVar="-1" Cut="0.0000000000000000e+00" cType="1" res="9.3474872410297394e-03" rms="3.6313027143478394e-01" purity="3.3410495519638062e-01" nType="-99"/>
          </Node>
        </Node>
      </Node>
    </BinaryTree>
    <BinaryTree type="DecisionTree" boostWeight="1.0000000000000000e+00" itree="618">
      <Node pos="s" depth="0" NCoef="0" IVar="8" Cut="6.6657394170761108e-01" cType="1" res="2.9130338225513697e-03" rms="3.8275614380836487e-01" purity="5.0445866584777832e-01" nType="0">
        <Node pos="l" depth="1" NCoef="0" IVar="9" Cut="1.9999336004257202e+00" cType="1" res="6.1598354950547218e-03" rms="3.8396772742271423e-01" purity="5.3282552957534790e-01" nType="0">
          <Node pos="l" depth="2" NCoef="0" IVar="5" Cut="7.7447708129882812e+01" cType="1" res="8.0593274906277657e-03" rms="3.8445279002189636e-01" purity="5.4151952266693115e-01" nType="0">
            <Node pos="l" depth="3" NCoef="0" IVar="-1" Cut="0.0000000000000000e+00" cType="1" res="9.7662480548024178e-03" rms="3.9613038301467896e-01" purity="3.5281035304069519e-01" nType="-99"/>
            <Node pos="r" depth="3" NCoef="0" IVar="-1" Cut="0.0000000000000000e+00" cType="1" res="1.6985839465633035e-03" rms="3.7493994832038879e-01" purity="6.8959563970565796e-01" nType="-99"/>
          </Node>
          <Node pos="r" depth="2" NCoef="0" IVar="-1" Cut="0.0000000000000000e+00" cType="1" res="-2.1260639652609825e-02" rms="3.7226769328117371e-01" purity="3.6098313331604004e-01" nType="-99"/>
        </Node>
        <Node pos="r" depth="1" NCoef="0" IVar="2" Cut="4.4782214355468750e+02" cType="1" res="-5.5032162927091122e-03" rms="3.7946823239326477e-01" purity="4.3092727661132812e-01" nType="0">
          <Node pos="l" depth="2" NCoef="0" IVar="9" Cut="1.4667024612426758e+00" cType="1" res="-1.3439677422866225e-04" rms="3.7748154997825623e-01" purity="4.2187049984931946e-01" nType="0">
            <Node pos="l" depth="3" NCoef="0" IVar="-1" Cut="0.0000000000000000e+00" cType="1" res="-3.2625040039420128e-03" rms="3.7803593277931213e-01" purity="4.3928164243698120e-01" nType="-99"/>
            <Node pos="r" depth="3" NCoef="0" IVar="-1" Cut="0.0000000000000000e+00" cType="1" res="1.8620878458023071e-02" rms="3.7357997894287109e-01" purity="3.3052024245262146e-01" nType="-99"/>
          </Node>
          <Node pos="r" depth="2" NCoef="0" IVar="6" Cut="1.3975107669830322e-01" cType="1" res="-2.3366147652268410e-02" rms="3.8546678423881531e-01" purity="4.6106064319610596e-01" nType="0">
            <Node pos="l" depth="3" NCoef="0" IVar="-1" Cut="0.0000000000000000e+00" cType="1" res="-8.7297204881906509e-03" rms="3.8387775421142578e-01" purity="4.8923373222351074e-01" nType="-99"/>
            <Node pos="r" depth="3" NCoef="0" IVar="-1" Cut="0.0000000000000000e+00" cType="1" res="-2.3187013342976570e-02" rms="3.8697651028633118e-01" purity="4.2875316739082336e-01" nType="-99"/>
          </Node>
        </Node>
      </Node>
    </BinaryTree>
    <BinaryTree type="DecisionTree" boostWeight="1.0000000000000000e+00" itree="619">
      <Node pos="s" depth="0" NCoef="0" IVar="7" Cut="-1.9998579025268555e+00" cType="1" res="-2.2154788020998240e-03" rms="3.8278609514236450e-01" purity="4.9615368247032166e-01" nType="0">
        <Node pos="l" depth="1" NCoef="0" IVar="-1" Cut="0.0000000000000000e+00" cType="1" res="3.4932386130094528e-02" rms="3.4393960237503052e-01" purity="2.0792627334594727e-01" nType="-99"/>
        <Node pos="r" depth="1" NCoef="0" IVar="8" Cut="-9.3329876661300659e-01" cType="1" res="-3.6415485665202141e-03" rms="3.8410443067550659e-01" purity="5.0704616308212280e-01" nType="0">
          <Node pos="l" depth="2" NCoef="0" IVar="7" Cut="-8.5700976848602295e-01" cType="1" res="-1.5377172268927097e-02" rms="3.7758290767669678e-01" purity="4.0628460049629211e-01" nType="0">
            <Node pos="l" depth="3" NCoef="0" IVar="-1" Cut="0.0000000000000000e+00" cType="1" res="-2.3961290717124939e-02" rms="3.6166825890541077e-01" purity="3.0069440603256226e-01" nType="-99"/>
            <Node pos="r" depth="3" NCoef="0" IVar="-1" Cut="0.0000000000000000e+00" cType="1" res="-6.4995456486940384e-03" rms="3.8214227557182312e-01" purity="4.3853601813316345e-01" nType="-99"/>
          </Node>
          <Node pos="r" depth="2" NCoef="0" IVar="9" Cut="-3.9995339512825012e-01" cType="1" res="-5.7872966863214970e-04" rms="3.8572955131530762e-01" purity="5.3334337472915649e-01" nType="0">
            <Node pos="l" depth="3" NCoef="0" IVar="-1" Cut="0.0000000000000000e+00" cType="1" res="-5.6152758188545704e-03" rms="3.8929852843284607e-01" purity="5.2029919624328613e-01" nType="-99"/>
            <Node pos="r" depth="3" NCoef="0" IVar="-1" Cut="0.0000000000000000e+00" cType="1" res="2.5226173456758261e-03" rms="3.8369846343994141e-01" purity="5.4045540094375610e-01" nType="-99"/>
          </Node>
        </Node>
      </Node>
    </BinaryTree>
    <BinaryTree type="DecisionTree" boostWeight="1.0000000000000000e+00" itree="620">
      <Node pos="s" depth="0" NCoef="0" IVar="7" Cut="-6.6664117574691772e-01" cType="1" res="1.5896920813247561e-03" rms="3.8287580013275146e-01" purity="5.0063937902450562e-01" nType="0">
        <Node pos="l" depth="1" NCoef="0" IVar="7" Cut="-7.6822763681411743e-01" cType="1" res="-1.0209481231868267e-02" rms="3.7222597002983093e-01" purity="4.0072178840637207e-01" nType="0">
          <Node pos="l" depth="2" NCoef="0" IVar="1" Cut="1.4097319335937500e+03" cType="1" res="-1.4313851483166218e-02" rms="3.6810103058815002e-01" purity="3.7765789031982422e-01" nType="0">
            <Node pos="l" depth="3" NCoef="0" IVar="-1" Cut="0.0000000000000000e+00" cType="1" res="-1.3998299837112427e-02" rms="3.6193203926086426e-01" purity="2.6352205872535706e-01" nType="-99"/>
            <Node pos="r" depth="3" NCoef="0" IVar="-1" Cut="0.0000000000000000e+00" cType="1" res="-1.0831470135599375e-03" rms="3.8205397129058838e-01" purity="6.4876872301101685e-01" nType="-99"/>
          </Node>
          <Node pos="r" depth="2" NCoef="0" IVar="-1" Cut="0.0000000000000000e+00" cType="1" res="1.2436774559319019e-02" rms="4.0026727318763733e-01" purity="5.7231056690216064e-01" nType="-99"/>
        </Node>
        <Node pos="r" depth="1" NCoef="0" IVar="6" Cut="1.4749751091003418e+00" cType="1" res="5.7457964867353439e-03" rms="3.8647142052650452e-01" purity="5.3583407402038574e-01" nType="0">
          <Node pos="l" depth="2" NCoef="0" IVar="3" Cut="3.2786822509765625e+02" cType="1" res="3.8312214892357588e-03" rms="3.8871949911117554e-01" purity="5.5549830198287964e-01" nType="0">
            <Node pos="l" depth="3" NCoef="0" IVar="-1" Cut="0.0000000000000000e+00" cType="1" res="4.9315404612571001e-04" rms="3.8998329639434814e-01" purity="5.2838391065597534e-01" nType="-99"/>
            <Node pos="r" depth="3" NCoef="0" IVar="-1" Cut="0.0000000000000000e+00" cType="1" res="1.6685634851455688e-02" rms="3.7947088479995728e-01" purity="7.3778754472732544e-01" nType="-99"/>
          </Node>
          <Node pos="r" depth="2" NCoef="0" IVar="-1" Cut="0.0000000000000000e+00" cType="1" res="2.8016954660415649e-02" rms="3.5303646326065063e-01" purity="2.6523706316947937e-01" nType="-99"/>
        </Node>
      </Node>
    </BinaryTree>
    <BinaryTree type="DecisionTree" boostWeight="1.0000000000000000e+00" itree="621">
      <Node pos="s" depth="0" NCoef="0" IVar="7" Cut="-9.3322581052780151e-01" cType="1" res="7.5041817035526037e-04" rms="3.8383701443672180e-01" purity="5.0148725509643555e-01" nType="0">
        <Node pos="l" depth="1" NCoef="0" IVar="1" Cut="1.0531027832031250e+03" cType="1" res="1.2697041966021061e-02" rms="3.7492138147354126e-01" purity="3.8083732128143311e-01" nType="0">
          <Node pos="l" depth="2" NCoef="0" IVar="-1" Cut="0.0000000000000000e+00" cType="1" res="-6.9261873140931129e-03" rms="3.1630569696426392e-01" purity="1.3713541626930237e-01" nType="-99"/>
          <Node pos="r" depth="2" NCoef="0" IVar="8" Cut="-1.3357286155223846e-01" cType="1" res="2.1381175145506859e-02" rms="3.9736947417259216e-01" purity="4.8661226034164429e-01" nType="0">
            <Node pos="l" depth="3" NCoef="0" IVar="-1" Cut="0.0000000000000000e+00" cType="1" res="2.2635953500866890e-02" rms="4.0484467148780823e-01" purity="5.0311094522476196e-01" nType="-99"/>
            <Node pos="r" depth="3" NCoef="0" IVar="-1" Cut="0.0000000000000000e+00" cType="1" res="3.2269670628011227e-03" rms="3.8756901025772095e-01" purity="4.6679487824440002e-01" nType="-99"/>
          </Node>
        </Node>
        <Node pos="r" depth="1" NCoef="0" IVar="7" Cut="-2.2213461995124817e-01" cType="1" res="-2.1694521419703960e-03" rms="3.8592854142189026e-01" purity="5.3097528219223022e-01" nType="0">
          <Node pos="l" depth="2" NCoef="0" IVar="9" Cut="1.2000664472579956e+00" cType="1" res="-1.0786759667098522e-02" rms="3.8898211717605591e-01" purity="5.7381552457809448e-01" nType="0">
            <Node pos="l" depth="3" NCoef="0" IVar="-1" Cut="0.0000000000000000e+00" cType="1" res="-1.2180856429040432e-02" rms="3.8739195466041565e-01" purity="5.7865011692047119e-01" nType="-99"/>
            <Node pos="r" depth="3" NCoef="0" IVar="-1" Cut="0.0000000000000000e+00" cType="1" res="1.7660640180110931e-02" rms="3.9469814300537109e-01" purity="5.4873245954513550e-01" nType="-99"/>
          </Node>
          <Node pos="r" depth="2" NCoef="0" IVar="9" Cut="1.3331449031829834e-01" cType="1" res="1.1174555402249098e-03" rms="3.8470658659934998e-01" purity="5.1463472843170166e-01" nType="0">
            <Node pos="l" depth="3" NCoef="0" IVar="-1" Cut="0.0000000000000000e+00" cType="1" res="5.5479579605162144e-03" rms="3.8965696096420288e-01" purity="5.3665363788604736e-01" nType="-99"/>
            <Node pos="r" depth="3" NCoef="0" IVar="-1" Cut="0.0000000000000000e+00" cType="1" res="-4.5299809426069260e-03" rms="3.7919896841049194e-01" purity="4.9114710092544556e-01" nType="-99"/>
          </Node>
        </Node>
      </Node>
    </BinaryTree>
    <BinaryTree type="DecisionTree" boostWeight="1.0000000000000000e+00" itree="622">
      <Node pos="s" depth="0" NCoef="0" IVar="3" Cut="1.4095993041992188e+02" cType="1" res="1.1871602619066834e-03" rms="3.8333123922348022e-01" purity="5.0043493509292603e-01" nType="0">
        <Node pos="l" depth="1" NCoef="0" IVar="5" Cut="6.6701782226562500e+01" cType="1" res="-8.5918931290507317e-03" rms="3.5484266281127930e-01" purity="2.1732681989669800e-01" nType="0">
          <Node pos="l" depth="2" NCoef="0" IVar="3" Cut="8.9537185668945312e+01" cType="1" res="7.8329478856176138e-04" rms="3.1838139891624451e-01" purity="1.4577746391296387e-01" nType="0">
            <Node pos="l" depth="3" NCoef="0" IVar="-1" Cut="0.0000000000000000e+00" cType="1" res="-2.8605487197637558e-02" rms="2.4895186722278595e-01" purity="6.8350762128829956e-02" nType="-99"/>
            <Node pos="r" depth="3" NCoef="0" IVar="-1" Cut="0.0000000000000000e+00" cType="1" res="7.4647269211709499e-03" rms="3.3887729048728943e-01" purity="1.7271699011325836e-01" nType="-99"/>
          </Node>
          <Node pos="r" depth="2" NCoef="0" IVar="0" Cut="4.0882943725585938e+02" cType="1" res="-2.0327618345618248e-02" rms="3.9546510577201843e-01" purity="3.0689123272895813e-01" nType="0">
            <Node pos="l" depth="3" NCoef="0" IVar="-1" Cut="0.0000000000000000e+00" cType="1" res="-5.6913807056844234e-03" rms="3.7341463565826416e-01" purity="2.1459046006202698e-01" nType="-99"/>
            <Node pos="r" depth="3" NCoef="0" IVar="-1" Cut="0.0000000000000000e+00" cType="1" res="-2.0220493897795677e-02" rms="4.2638340592384338e-01" purity="4.4827890396118164e-01" nType="-99"/>
          </Node>
        </Node>
        <Node pos="r" depth="1" NCoef="0" IVar="9" Cut="-1.1999300718307495e+00" cType="1" res="3.8998892996460199e-03" rms="3.9082294702529907e-01" purity="5.7896971702575684e-01" nType="0">
          <Node pos="l" depth="2" NCoef="0" IVar="2" Cut="4.9859231567382812e+02" cType="1" res="1.7822837457060814e-02" rms="4.0079262852668762e-01" purity="5.1079797744750977e-01" nType="0">
            <Node pos="l" depth="3" NCoef="0" IVar="-1" Cut="0.0000000000000000e+00" cType="1" res="7.4320700950920582e-03" rms="3.9781561493873596e-01" purity="5.0420159101486206e-01" nType="-99"/>
            <Node pos="r" depth="3" NCoef="0" IVar="-1" Cut="0.0000000000000000e+00" cType="1" res="2.5455268099904060e-02" rms="4.1215294599533081e-01" purity="5.3844696283340454e-01" nType="-99"/>
          </Node>
          <Node pos="r" depth="2" NCoef="0" IVar="7" Cut="1.7332966327667236e+00" cType="1" res="1.0334394173696637e-03" rms="3.8867676258087158e-01" purity="5.9300488233566284e-01" nType="0">
            <Node pos="l" depth="3" NCoef="0" IVar="-1" Cut="0.0000000000000000e+00" cType="1" res="1.5469552017748356e-03" rms="3.9087176322937012e-01" purity="6.0959976911544800e-01" nType="-99"/>
            <Node pos="r" depth="3" NCoef="0" IVar="-1" Cut="0.0000000000000000e+00" cType="1" res="-1.9733341410756111e-02" rms="3.3861637115478516e-01" purity="2.4783864617347717e-01" nType="-99"/>
          </Node>
        </Node>
      </Node>
    </BinaryTree>
    <BinaryTree type="DecisionTree" boostWeight="1.0000000000000000e+00" itree="623">
      <Node pos="s" depth="0" NCoef="0" IVar="2" Cut="4.7972067260742188e+02" cType="1" res="2.5223827105946839e-04" rms="3.8178360462188721e-01" purity="4.9879088997840881e-01" nType="0">
        <Node pos="l" depth="1" NCoef="0" IVar="7" Cut="4.0005019307136536e-01" cType="1" res="3.0282605439424515e-03" rms="3.8108009099960327e-01" purity="4.9034211039543152e-01" nType="0">
          <Node pos="l" depth="2" NCoef="0" IVar="6" Cut="1.4749945402145386e+00" cType="1" res="6.8312301300466061e-03" rms="3.8293698430061340e-01" purity="5.1761990785598755e-01" nType="0">
            <Node pos="l" depth="3" NCoef="0" IVar="-1" Cut="0.0000000000000000e+00" cType="1" res="6.1303437687456608e-03" rms="3.8726031780242920e-01" purity="5.4065334796905518e-01" nType="-99"/>
            <Node pos="r" depth="3" NCoef="0" IVar="-1" Cut="0.0000000000000000e+00" cType="1" res="-2.5367705151438713e-02" rms="3.1276807188987732e-01" purity="1.8905889987945557e-01" nType="-99"/>
          </Node>
          <Node pos="r" depth="2" NCoef="0" IVar="5" Cut="8.2034805297851562e+01" cType="1" res="-3.8890086580067873e-03" rms="3.7758097052574158e-01" purity="4.4072631001472473e-01" nType="0">
            <Node pos="l" depth="3" NCoef="0" IVar="-1" Cut="0.0000000000000000e+00" cType="1" res="-1.0283075273036957e-02" rms="3.6542567610740662e-01" purity="2.6848325133323669e-01" nType="-99"/>
            <Node pos="r" depth="3" NCoef="0" IVar="-1" Cut="0.0000000000000000e+00" cType="1" res="5.1964349113404751e-03" rms="3.9072644710540771e-01" purity="6.3835114240646362e-01" nType="-99"/>
          </Node>
        </Node>
        <Node pos="r" depth="1" NCoef="0" IVar="3" Cut="4.3179046630859375e+02" cType="1" res="-1.1300717480480671e-02" rms="3.8448247313499451e-01" purity="5.3395199775695801e-01" nType="0">
          <Node pos="l" depth="2" NCoef="0" IVar="3" Cut="2.5129257202148438e+02" cType="1" res="-6.6035306081175804e-03" rms="3.8377204537391663e-01" purity="5.1909613609313965e-01" nType="0">
            <Node pos="l" depth="3" NCoef="0" IVar="-1" Cut="0.0000000000000000e+00" cType="1" res="-1.3657466508448124e-02" rms="3.7370684742927551e-01" purity="4.2858934402465820e-01" nType="-99"/>
            <Node pos="r" depth="3" NCoef="0" IVar="-1" Cut="0.0000000000000000e+00" cType="1" res="5.9993490576744080e-03" rms="3.9413088560104370e-01" purity="6.2036609649658203e-01" nType="-99"/>
          </Node>
          <Node pos="r" depth="2" NCoef="0" IVar="-1" Cut="0.0000000000000000e+00" cType="1" res="-2.7916224673390388e-02" rms="3.8773345947265625e-01" purity="6.3296324014663696e-01" nType="-99"/>
        </Node>
      </Node>
    </BinaryTree>
    <BinaryTree type="DecisionTree" boostWeight="1.0000000000000000e+00" itree="624">
      <Node pos="s" depth="0" NCoef="0" IVar="7" Cut="1.7333621978759766e+00" cType="1" res="1.5467735938727856e-03" rms="3.8436329364776611e-01" purity="4.9923884868621826e-01" nType="0">
        <Node pos="l" depth="1" NCoef="0" IVar="9" Cut="-1.9999637603759766e+00" cType="1" res="5.4495194490300491e-05" rms="3.8626921176910400e-01" purity="5.1502162218093872e-01" nType="0">
          <Node pos="l" depth="2" NCoef="0" IVar="-1" Cut="0.0000000000000000e+00" cType="1" res="-1.5780022367835045e-02" rms="3.7141004204750061e-01" purity="3.3961179852485657e-01" nType="-99"/>
          <Node pos="r" depth="2" NCoef="0" IVar="7" Cut="-1.2887843847274780e+00" cType="1" res="1.3154027983546257e-03" rms="3.8704296946525574e-01" purity="5.2481275796890259e-01" nType="0">
            <Node pos="l" depth="3" NCoef="0" IVar="-1" Cut="0.0000000000000000e+00" cType="1" res="1.0253100655972958e-02" rms="3.6066636443138123e-01" purity="3.1950274109840393e-01" nType="-99"/>
            <Node pos="r" depth="3" NCoef="0" IVar="-1" Cut="0.0000000000000000e+00" cType="1" res="-2.8879614546895027e-04" rms="3.9063560962677002e-01" purity="5.5415505170822144e-01" nType="-99"/>
          </Node>
        </Node>
        <Node pos="r" depth="1" NCoef="0" IVar="9" Cut="4.0005359053611755e-01" cType="1" res="2.5460053235292435e-02" rms="3.5155564546585083e-01" purity="2.4632474780082703e-01" nType="0">
          <Node pos="l" depth="2" NCoef="0" IVar="-1" Cut="0.0000000000000000e+00" cType="1" res="3.7565667182207108e-02" rms="3.7847438454627991e-01" purity="2.9964518547058105e-01" nType="-99"/>
          <Node pos="r" depth="2" NCoef="0" IVar="-1" Cut="0.0000000000000000e+00" cType="1" res="-5.1463418640196323e-03" rms="3.1041711568832397e-01" purity="1.7700770497322083e-01" nType="-99"/>
        </Node>
      </Node>
    </BinaryTree>
    <BinaryTree type="DecisionTree" boostWeight="1.0000000000000000e+00" itree="625">
      <Node pos="s" depth="0" NCoef="0" IVar="7" Cut="-1.4666162729263306e+00" cType="1" res="1.6651523765176535e-03" rms="3.8305112719535828e-01" purity="5.0485843420028687e-01" nType="0">
        <Node pos="l" depth="1" NCoef="0" IVar="0" Cut="4.0984481811523438e+02" cType="1" res="-1.6238626092672348e-02" rms="3.3968153595924377e-01" purity="2.4725113809108734e-01" nType="0">
          <Node pos="l" depth="2" NCoef="0" IVar="-1" Cut="0.0000000000000000e+00" cType="1" res="-3.4170154482126236e-02" rms="2.8883540630340576e-01" purity="1.1576948314905167e-01" nType="-99"/>
          <Node pos="r" depth="2" NCoef="0" IVar="-1" Cut="0.0000000000000000e+00" cType="1" res="4.6041915193200111e-03" rms="3.9540499448776245e-01" purity="4.1977313160896301e-01" nType="-99"/>
        </Node>
        <Node pos="r" depth="1" NCoef="0" IVar="7" Cut="-1.0602508783340454e+00" cType="1" res="3.3496874384582043e-03" rms="3.8683888316154480e-01" purity="5.2909624576568604e-01" nType="0">
          <Node pos="l" depth="2" NCoef="0" IVar="0" Cut="4.0174017333984375e+02" cType="1" res="-1.3453203253448009e-02" rms="3.8563719391822815e-01" purity="4.1733872890472412e-01" nType="0">
            <Node pos="l" depth="3" NCoef="0" IVar="-1" Cut="0.0000000000000000e+00" cType="1" res="-1.6581112518906593e-02" rms="3.7228322029113770e-01" purity="2.4665935337543488e-01" nType="-99"/>
            <Node pos="r" depth="3" NCoef="0" IVar="-1" Cut="0.0000000000000000e+00" cType="1" res="-2.5810042861849070e-03" rms="3.9702644944190979e-01" purity="5.7080644369125366e-01" nType="-99"/>
          </Node>
          <Node pos="r" depth="2" NCoef="0" IVar="7" Cut="-6.9260632991790771e-01" cType="1" res="4.7540268860757351e-03" rms="3.8690611720085144e-01" purity="5.3843659162521362e-01" nType="0">
            <Node pos="l" depth="3" NCoef="0" IVar="-1" Cut="0.0000000000000000e+00" cType="1" res="1.4117835089564323e-02" rms="3.9994496107101440e-01" purity="5.5203121900558472e-01" nType="-99"/>
            <Node pos="r" depth="3" NCoef="0" IVar="-1" Cut="0.0000000000000000e+00" cType="1" res="1.6243348363786936e-03" rms="3.8508215546607971e-01" purity="5.3663110733032227e-01" nType="-99"/>
          </Node>
        </Node>
      </Node>
    </BinaryTree>
    <BinaryTree type="DecisionTree" boostWeight="1.0000000000000000e+00" itree="626">
      <Node pos="s" depth="0" NCoef="0" IVar="8" Cut="1.3329541683197021e-01" cType="1" res="2.4224529042840004e-03" rms="3.8453131914138794e-01" purity="5.0337207317352295e-01" nType="0">
        <Node pos="l" depth="1" NCoef="0" IVar="6" Cut="6.8457335233688354e-01" cType="1" res="6.9529255852103233e-03" rms="3.8700202107429504e-01" purity="5.1823163032531738e-01" nType="0">
          <Node pos="l" depth="2" NCoef="0" IVar="7" Cut="-9.3323189020156860e-01" cType="1" res="2.7356951031833887e-03" rms="3.8696292042732239e-01" purity="5.4774498939514160e-01" nType="0">
            <Node pos="l" depth="3" NCoef="0" IVar="-1" Cut="0.0000000000000000e+00" cType="1" res="9.4491932541131973e-03" rms="3.9388141036033630e-01" purity="4.2637011408805847e-01" nType="-99"/>
            <Node pos="r" depth="3" NCoef="0" IVar="-1" Cut="0.0000000000000000e+00" cType="1" res="-3.4264544956386089e-04" rms="3.8490727543830872e-01" purity="5.8231848478317261e-01" nType="-99"/>
          </Node>
          <Node pos="r" depth="2" NCoef="0" IVar="9" Cut="9.3223744630813599e-01" cType="1" res="2.2925671190023422e-02" rms="3.8673347234725952e-01" purity="4.0645021200180054e-01" nType="0">
            <Node pos="l" depth="3" NCoef="0" IVar="-1" Cut="0.0000000000000000e+00" cType="1" res="9.8578901961445808e-03" rms="3.8603246212005615e-01" purity="4.1546288132667542e-01" nType="-99"/>
            <Node pos="r" depth="3" NCoef="0" IVar="-1" Cut="0.0000000000000000e+00" cType="1" res="3.5053037106990814e-02" rms="3.8752689957618713e-01" purity="3.8236021995544434e-01" nType="-99"/>
          </Node>
        </Node>
        <Node pos="r" depth="1" NCoef="0" IVar="2" Cut="5.0069235229492188e+02" cType="1" res="-3.1425049528479576e-03" rms="3.8140088319778442e-01" purity="4.8511934280395508e-01" nType="0">
          <Node pos="l" depth="2" NCoef="0" IVar="1" Cut="1.1536933593750000e+03" cType="1" res="-6.9258604198694229e-03" rms="3.7909451127052307e-01" purity="4.6904817223548889e-01" nType="0">
            <Node pos="l" depth="3" NCoef="0" IVar="-1" Cut="0.0000000000000000e+00" cType="1" res="-9.2278989031910896e-03" rms="3.7022688984870911e-01" purity="2.3287484049797058e-01" nType="-99"/>
            <Node pos="r" depth="3" NCoef="0" IVar="-1" Cut="0.0000000000000000e+00" cType="1" res="-9.9722330924123526e-04" rms="3.8649970293045044e-01" purity="6.7283481359481812e-01" nType="-99"/>
          </Node>
          <Node pos="r" depth="2" NCoef="0" IVar="8" Cut="6.4120823144912720e-01" cType="1" res="1.4585536904633045e-02" rms="3.9154070615768433e-01" purity="5.6042581796646118e-01" nType="0">
            <Node pos="l" depth="3" NCoef="0" IVar="-1" Cut="0.0000000000000000e+00" cType="1" res="-9.1134635731577873e-03" rms="3.7274610996246338e-01" purity="6.3000869750976562e-01" nType="-99"/>
            <Node pos="r" depth="3" NCoef="0" IVar="-1" Cut="0.0000000000000000e+00" cType="1" res="1.8519438803195953e-02" rms="4.0089020133018494e-01" purity="5.2119153738021851e-01" nType="-99"/>
          </Node>
        </Node>
      </Node>
    </BinaryTree>
    <BinaryTree type="DecisionTree" boostWeight="1.0000000000000000e+00" itree="627">
      <Node pos="s" depth="0" NCoef="0" IVar="8" Cut="1.1999195814132690e+00" cType="1" res="-1.4711933999933535e-06" rms="3.8386338949203491e-01" purity="5.0110650062561035e-01" nType="0">
        <Node pos="l" depth="1" NCoef="0" IVar="7" Cut="-1.9998689889907837e+00" cType="1" res="2.5725977029651403e-03" rms="3.8702744245529175e-01" purity="5.2803510427474976e-01" nType="0">
          <Node pos="l" depth="2" NCoef="0" IVar="-1" Cut="0.0000000000000000e+00" cType="1" res="3.3152483403682709e-02" rms="3.5765910148620605e-01" purity="2.4290341138839722e-01" nType="-99"/>
          <Node pos="r" depth="2" NCoef="0" IVar="6" Cut="1.2047922611236572e+00" cType="1" res="1.2715382035821676e-03" rms="3.8802292943000793e-01" purity="5.3870594501495361e-01" nType="0">
            <Node pos="l" depth="3" NCoef="0" IVar="-1" Cut="0.0000000000000000e+00" cType="1" res="-6.3531636260449886e-04" rms="3.8997378945350647e-01" purity="5.6146055459976196e-01" nType="-99"/>
            <Node pos="r" depth="3" NCoef="0" IVar="-1" Cut="0.0000000000000000e+00" cType="1" res="1.6942556947469711e-02" rms="3.6899650096893311e-01" purity="3.2982039451599121e-01" nType="-99"/>
          </Node>
        </Node>
        <Node pos="r" depth="1" NCoef="0" IVar="9" Cut="-3.9977976679801941e-01" cType="1" res="-1.4932502061128616e-02" rms="3.6461129784584045e-01" purity="3.4490600228309631e-01" nType="0">
          <Node pos="l" depth="2" NCoef="0" IVar="-1" Cut="0.0000000000000000e+00" cType="1" res="-2.2233005613088608e-02" rms="3.5845971107482910e-01" purity="3.2653737068176270e-01" nType="-99"/>
          <Node pos="r" depth="2" NCoef="0" IVar="0" Cut="4.1909442138671875e+02" cType="1" res="-6.3795936293900013e-03" rms="3.6721661686897278e-01" purity="3.5371196269989014e-01" nType="0">
            <Node pos="l" depth="3" NCoef="0" IVar="-1" Cut="0.0000000000000000e+00" cType="1" res="2.4377224035561085e-03" rms="3.4755274653434753e-01" purity="2.3393601179122925e-01" nType="-99"/>
            <Node pos="r" depth="3" NCoef="0" IVar="-1" Cut="0.0000000000000000e+00" cType="1" res="-1.2045244686305523e-02" rms="3.9210641384124756e-01" purity="5.1723176240921021e-01" nType="-99"/>
          </Node>
        </Node>
      </Node>
    </BinaryTree>
    <BinaryTree type="DecisionTree" boostWeight="1.0000000000000000e+00" itree="628">
      <Node pos="s" depth="0" NCoef="0" IVar="6" Cut="9.4522625207901001e-01" cType="1" res="-3.8219832349568605e-03" rms="3.8263493776321411e-01" purity="4.9764516949653625e-01" nType="0">
        <Node pos="l" depth="1" NCoef="0" IVar="9" Cut="-1.7331663370132446e+00" cType="1" res="-6.0008084401488304e-03" rms="3.8677117228507996e-01" purity="5.3099840879440308e-01" nType="0">
          <Node pos="l" depth="2" NCoef="0" IVar="1" Cut="1.3027657470703125e+03" cType="1" res="1.5427524223923683e-02" rms="3.8832923769950867e-01" purity="4.1503584384918213e-01" nType="0">
            <Node pos="l" depth="3" NCoef="0" IVar="-1" Cut="0.0000000000000000e+00" cType="1" res="2.1590799093246460e-02" rms="3.8162955641746521e-01" purity="2.9589962959289551e-01" nType="-99"/>
            <Node pos="r" depth="3" NCoef="0" IVar="-1" Cut="0.0000000000000000e+00" cType="1" res="-6.4241099171340466e-03" rms="3.9772582054138184e-01" purity="6.1041468381881714e-01" nType="-99"/>
          </Node>
          <Node pos="r" depth="2" NCoef="0" IVar="7" Cut="-1.7331008911132812e+00" cType="1" res="-8.0702360719442368e-03" rms="3.8655748963356018e-01" purity="5.4219740629196167e-01" nType="0">
            <Node pos="l" depth="3" NCoef="0" IVar="-1" Cut="0.0000000000000000e+00" cType="1" res="1.1221657507121563e-02" rms="3.7681409716606140e-01" purity="2.8309619426727295e-01" nType="-99"/>
            <Node pos="r" depth="3" NCoef="0" IVar="-1" Cut="0.0000000000000000e+00" cType="1" res="-6.0997400432825089e-03" rms="3.8705745339393616e-01" purity="5.5677241086959839e-01" nType="-99"/>
          </Node>
        </Node>
        <Node pos="r" depth="1" NCoef="0" IVar="7" Cut="1.3335677981376648e-01" cType="1" res="7.1736467070877552e-03" rms="3.6083811521530151e-01" purity="3.2932537794113159e-01" nType="0">
          <Node pos="l" depth="2" NCoef="0" IVar="8" Cut="1.3363257050514221e-01" cType="1" res="-2.1704621613025665e-03" rms="3.6152321100234985e-01" purity="3.1940054893493652e-01" nType="0">
            <Node pos="l" depth="3" NCoef="0" IVar="-1" Cut="0.0000000000000000e+00" cType="1" res="1.0665515437722206e-02" rms="3.7615245580673218e-01" purity="3.3443462848663330e-01" nType="-99"/>
            <Node pos="r" depth="3" NCoef="0" IVar="-1" Cut="0.0000000000000000e+00" cType="1" res="-1.5180804766714573e-02" rms="3.4392887353897095e-01" purity="3.0293574929237366e-01" nType="-99"/>
          </Node>
          <Node pos="r" depth="2" NCoef="0" IVar="8" Cut="1.3363167643547058e-01" cType="1" res="1.6078121960163116e-02" rms="3.5995844006538391e-01" purity="3.3878323435783386e-01" nType="0">
            <Node pos="l" depth="3" NCoef="0" IVar="-1" Cut="0.0000000000000000e+00" cType="1" res="-7.1999425999820232e-03" rms="3.3859798312187195e-01" purity="3.4776455163955688e-01" nType="-99"/>
            <Node pos="r" depth="3" NCoef="0" IVar="-1" Cut="0.0000000000000000e+00" cType="1" res="2.7852177619934082e-02" rms="3.7378510832786560e-01" purity="3.3218234777450562e-01" nType="-99"/>
          </Node>
        </Node>
      </Node>
    </BinaryTree>
    <BinaryTree type="DecisionTree" boostWeight="1.0000000000000000e+00" itree="629">
      <Node pos="s" depth="0" NCoef="0" IVar="7" Cut="-1.7332991361618042e+00" cType="1" res="4.0091858245432377e-03" rms="3.8449779152870178e-01" purity="5.0495076179504395e-01" nType="0">
        <Node pos="l" depth="1" NCoef="0" IVar="4" Cut="1.0453179931640625e+02" cType="1" res="-2.0695365965366364e-02" rms="3.2948806881904602e-01" purity="2.0432662963867188e-01" nType="0">
          <Node pos="l" depth="2" NCoef="0" IVar="-1" Cut="0.0000000000000000e+00" cType="1" res="-9.2138722538948059e-03" rms="2.8425687551498413e-01" purity="9.4956040382385254e-02" nType="-99"/>
          <Node pos="r" depth="2" NCoef="0" IVar="-1" Cut="0.0000000000000000e+00" cType="1" res="-2.2600708529353142e-02" rms="3.6618065834045410e-01" purity="3.0616739392280579e-01" nType="-99"/>
        </Node>
        <Node pos="r" depth="1" NCoef="0" IVar="6" Cut="-1.4537342786788940e+00" cType="1" res="5.5097998119890690e-03" rms="3.8753703236579895e-01" purity="5.2321135997772217e-01" nType="0">
          <Node pos="l" depth="2" NCoef="0" IVar="0" Cut="3.7398706054687500e+02" cType="1" res="-1.2183385901153088e-02" rms="3.3294138312339783e-01" purity="2.0914220809936523e-01" nType="0">
            <Node pos="l" depth="3" NCoef="0" IVar="-1" Cut="0.0000000000000000e+00" cType="1" res="1.3141693780198693e-03" rms="2.9015427827835083e-01" purity="1.2100376188755035e-01" nType="-99"/>
            <Node pos="r" depth="3" NCoef="0" IVar="-1" Cut="0.0000000000000000e+00" cType="1" res="-1.6930649057030678e-02" rms="3.6905652284622192e-01" purity="2.9406803846359253e-01" nType="-99"/>
          </Node>
          <Node pos="r" depth="2" NCoef="0" IVar="9" Cut="1.7332652807235718e+00" cType="1" res="6.7162876948714256e-03" rms="3.9095318317413330e-01" purity="5.4462754726409912e-01" nType="0">
            <Node pos="l" depth="3" NCoef="0" IVar="-1" Cut="0.0000000000000000e+00" cType="1" res="3.4821447916328907e-03" rms="3.9150124788284302e-01" purity="5.5537003278732300e-01" nType="-99"/>
            <Node pos="r" depth="3" NCoef="0" IVar="-1" Cut="0.0000000000000000e+00" cType="1" res="1.3757199048995972e-02" rms="3.8495621085166931e-01" purity="4.3353050947189331e-01" nType="-99"/>
          </Node>
        </Node>
      </Node>
    </BinaryTree>
    <BinaryTree type="DecisionTree" boostWeight="1.0000000000000000e+00" itree="630">
      <Node pos="s" depth="0" NCoef="0" IVar="2" Cut="4.9859252929687500e+02" cType="1" res="-8.7468375568278134e-05" rms="3.8206884264945984e-01" purity="4.9951517581939697e-01" nType="0">
        <Node pos="l" depth="1" NCoef="0" IVar="7" Cut="-1.9999512434005737e+00" cType="1" res="-2.5184582918882370e-03" rms="3.8059243559837341e-01" purity="4.8571622371673584e-01" nType="0">
          <Node pos="l" depth="2" NCoef="0" IVar="-1" Cut="0.0000000000000000e+00" cType="1" res="-2.9236918315291405e-02" rms="2.9483944177627563e-01" purity="1.4258588850498199e-01" nType="-99"/>
          <Node pos="r" depth="2" NCoef="0" IVar="8" Cut="1.4665210247039795e+00" cType="1" res="-1.4826788101345301e-03" rms="3.8347622752189636e-01" purity="4.9894100427627563e-01" nType="0">
            <Node pos="l" depth="3" NCoef="0" IVar="-1" Cut="0.0000000000000000e+00" cType="1" res="-2.1649277769029140e-03" rms="3.8600540161132812e-01" purity="5.1955038309097290e-01" nType="-99"/>
            <Node pos="r" depth="3" NCoef="0" IVar="-1" Cut="0.0000000000000000e+00" cType="1" res="9.5860436558723450e-03" rms="3.6188560724258423e-01" purity="3.3101621270179749e-01" nType="-99"/>
          </Node>
        </Node>
        <Node pos="r" depth="1" NCoef="0" IVar="0" Cut="4.3467245483398438e+02" cType="1" res="1.1351468041539192e-02" rms="3.8873678445816040e-01" purity="5.6444579362869263e-01" nType="0">
          <Node pos="l" depth="2" NCoef="0" IVar="0" Cut="3.7054287719726562e+02" cType="1" res="-9.8848072811961174e-03" rms="3.7308233976364136e-01" purity="3.2099905610084534e-01" nType="0">
            <Node pos="l" depth="3" NCoef="0" IVar="-1" Cut="0.0000000000000000e+00" cType="1" res="-1.6390364617109299e-02" rms="3.6602851748466492e-01" purity="2.3503793776035309e-01" nType="-99"/>
            <Node pos="r" depth="3" NCoef="0" IVar="-1" Cut="0.0000000000000000e+00" cType="1" res="2.0652946550399065e-03" rms="3.7958794832229614e-01" purity="4.0755775570869446e-01" nType="-99"/>
          </Node>
          <Node pos="r" depth="2" NCoef="0" IVar="5" Cut="1.0621938323974609e+02" cType="1" res="2.0848385989665985e-02" rms="3.9516794681549072e-01" purity="6.7331576347351074e-01" nType="0">
            <Node pos="l" depth="3" NCoef="0" IVar="-1" Cut="0.0000000000000000e+00" cType="1" res="1.7577335238456726e-02" rms="4.2166906595230103e-01" purity="5.8775281906127930e-01" nType="-99"/>
            <Node pos="r" depth="3" NCoef="0" IVar="-1" Cut="0.0000000000000000e+00" cType="1" res="1.1296808952465653e-03" rms="3.4157487750053406e-01" purity="8.2703828811645508e-01" nType="-99"/>
          </Node>
        </Node>
      </Node>
    </BinaryTree>
    <BinaryTree type="DecisionTree" boostWeight="1.0000000000000000e+00" itree="631">
      <Node pos="s" depth="0" NCoef="0" IVar="7" Cut="1.4667100906372070e+00" cType="1" res="-1.1244937777519226e-03" rms="3.8368785381317139e-01" purity="4.9955207109451294e-01" nType="0">
        <Node pos="l" depth="1" NCoef="0" IVar="9" Cut="-2.2666375637054443e+00" cType="1" res="-3.0054405797272921e-03" rms="3.8547974824905396e-01" purity="5.2196103334426880e-01" nType="0">
          <Node pos="l" depth="2" NCoef="0" IVar="-1" Cut="0.0000000000000000e+00" cType="1" res="-1.8896194174885750e-02" rms="3.7258958816528320e-01" purity="3.1351894140243530e-01" nType="-99"/>
          <Node pos="r" depth="2" NCoef="0" IVar="1" Cut="1.7079250488281250e+03" cType="1" res="-2.3069039452821016e-03" rms="3.8583740592002869e-01" purity="5.2820366621017456e-01" nType="0">
            <Node pos="l" depth="3" NCoef="0" IVar="-1" Cut="0.0000000000000000e+00" cType="1" res="-2.5900600012391806e-03" rms="3.9503246545791626e-01" purity="4.7042092680931091e-01" nType="-99"/>
            <Node pos="r" depth="3" NCoef="0" IVar="-1" Cut="0.0000000000000000e+00" cType="1" res="5.6186616420745850e-03" rms="3.3601245284080505e-01" purity="8.1689018011093140e-01" nType="-99"/>
          </Node>
        </Node>
        <Node pos="r" depth="1" NCoef="0" IVar="8" Cut="-1.3324446976184845e-01" cType="1" res="1.7900547012686729e-02" rms="3.6452442407608032e-01" purity="2.7289432287216187e-01" nType="0">
          <Node pos="l" depth="2" NCoef="0" IVar="-1" Cut="0.0000000000000000e+00" cType="1" res="-4.9447268247604370e-03" rms="3.5044693946838379e-01" purity="2.5240129232406616e-01" nType="-99"/>
          <Node pos="r" depth="2" NCoef="0" IVar="9" Cut="3.9974528551101685e-01" cType="1" res="3.2938420772552490e-02" rms="3.7216249108314514e-01" purity="2.8555661439895630e-01" nType="0">
            <Node pos="l" depth="3" NCoef="0" IVar="-1" Cut="0.0000000000000000e+00" cType="1" res="9.7461780533194542e-03" rms="3.7577226758003235e-01" purity="3.1146478652954102e-01" nType="-99"/>
            <Node pos="r" depth="3" NCoef="0" IVar="-1" Cut="0.0000000000000000e+00" cType="1" res="4.3975021690130234e-02" rms="3.6784192919731140e-01" purity="2.6155221462249756e-01" nType="-99"/>
          </Node>
        </Node>
      </Node>
    </BinaryTree>
    <BinaryTree type="DecisionTree" boostWeight="1.0000000000000000e+00" itree="632">
      <Node pos="s" depth="0" NCoef="0" IVar="9" Cut="-1.4666403532028198e+00" cType="1" res="-4.7100908122956753e-03" rms="3.8039124011993408e-01" purity="4.9983257055282593e-01" nType="0">
        <Node pos="l" depth="1" NCoef="0" IVar="9" Cut="-2.1650471687316895e+00" cType="1" res="-2.3720316588878632e-02" rms="3.6861088871955872e-01" purity="3.6557686328887939e-01" nType="0">
          <Node pos="l" depth="2" NCoef="0" IVar="-1" Cut="0.0000000000000000e+00" cType="1" res="-2.1407227031886578e-03" rms="3.6431238055229187e-01" purity="3.2648333907127380e-01" nType="-99"/>
          <Node pos="r" depth="2" NCoef="0" IVar="2" Cut="3.3398281860351562e+02" cType="1" res="-3.3937107771635056e-02" rms="3.7027922272682190e-01" purity="3.8480234146118164e-01" nType="0">
            <Node pos="l" depth="3" NCoef="0" IVar="-1" Cut="0.0000000000000000e+00" cType="1" res="-9.4452081248164177e-03" rms="3.7953478097915649e-01" purity="3.5717600584030151e-01" nType="-99"/>
            <Node pos="r" depth="3" NCoef="0" IVar="-1" Cut="0.0000000000000000e+00" cType="1" res="-3.7579976022243500e-02" rms="3.5985559225082397e-01" purity="4.1193348169326782e-01" nType="-99"/>
          </Node>
        </Node>
        <Node pos="r" depth="1" NCoef="0" IVar="9" Cut="-4.4414360076189041e-02" cType="1" res="-2.1795919165015221e-03" rms="3.8186058402061462e-01" purity="5.1770371198654175e-01" nType="0">
          <Node pos="l" depth="2" NCoef="0" IVar="8" Cut="-1.1999984979629517e+00" cType="1" res="3.8014147430658340e-03" rms="3.8518157601356506e-01" purity="5.4452818632125854e-01" nType="0">
            <Node pos="l" depth="3" NCoef="0" IVar="-1" Cut="0.0000000000000000e+00" cType="1" res="-1.1110421270132065e-02" rms="3.7223482131958008e-01" purity="3.7430283427238464e-01" nType="-99"/>
            <Node pos="r" depth="3" NCoef="0" IVar="-1" Cut="0.0000000000000000e+00" cType="1" res="5.0042062066495419e-03" rms="3.8742858171463013e-01" purity="5.7622724771499634e-01" nType="-99"/>
          </Node>
          <Node pos="r" depth="2" NCoef="0" IVar="7" Cut="-1.4665311574935913e+00" cType="1" res="-6.5206964500248432e-03" rms="3.7937289476394653e-01" purity="4.9823409318923950e-01" nType="0">
            <Node pos="l" depth="3" NCoef="0" IVar="-1" Cut="0.0000000000000000e+00" cType="1" res="-2.7414591982960701e-02" rms="3.2649648189544678e-01" purity="2.3446293175220490e-01" nType="-99"/>
            <Node pos="r" depth="3" NCoef="0" IVar="-1" Cut="0.0000000000000000e+00" cType="1" res="-3.0068408232182264e-03" rms="3.8320219516754150e-01" purity="5.1926302909851074e-01" nType="-99"/>
          </Node>
        </Node>
      </Node>
    </BinaryTree>
    <BinaryTree type="DecisionTree" boostWeight="1.0000000000000000e+00" itree="633">
      <Node pos="s" depth="0" NCoef="0" IVar="2" Cut="5.0069256591796875e+02" cType="1" res="-3.2998295500874519e-04" rms="3.8303664326667786e-01" purity="5.0048983097076416e-01" nType="0">
        <Node pos="l" depth="1" NCoef="0" IVar="7" Cut="-1.9997940063476562e+00" cType="1" res="1.4707501977682114e-03" rms="3.8260087370872498e-01" purity="4.9094414710998535e-01" nType="0">
          <Node pos="l" depth="2" NCoef="0" IVar="-1" Cut="0.0000000000000000e+00" cType="1" res="2.3613110184669495e-02" rms="3.3842754364013672e-01" purity="2.0313645899295807e-01" nType="-99"/>
          <Node pos="r" depth="2" NCoef="0" IVar="3" Cut="3.4959417724609375e+02" cType="1" res="5.7313684374094009e-04" rms="3.8421383500099182e-01" purity="5.0231230258941650e-01" nType="0">
            <Node pos="l" depth="3" NCoef="0" IVar="-1" Cut="0.0000000000000000e+00" cType="1" res="-2.5745879975147545e-04" rms="3.8591584563255310e-01" purity="4.8922666907310486e-01" nType="-99"/>
            <Node pos="r" depth="3" NCoef="0" IVar="-1" Cut="0.0000000000000000e+00" cType="1" res="1.4854731038212776e-02" rms="3.4791567921638489e-01" purity="7.6376485824584961e-01" nType="-99"/>
          </Node>
        </Node>
        <Node pos="r" depth="1" NCoef="0" IVar="9" Cut="-3.9991644024848938e-01" cType="1" res="-9.2737739905714989e-03" rms="3.8506892323493958e-01" purity="5.4790097475051880e-01" nType="0">
          <Node pos="l" depth="2" NCoef="0" IVar="0" Cut="5.6537249755859375e+02" cType="1" res="-2.5806978344917297e-02" rms="3.8356703519821167e-01" purity="5.0486165285110474e-01" nType="0">
            <Node pos="l" depth="3" NCoef="0" IVar="-1" Cut="0.0000000000000000e+00" cType="1" res="-2.7041215449571609e-02" rms="3.7685021758079529e-01" purity="3.4499749541282654e-01" nType="-99"/>
            <Node pos="r" depth="3" NCoef="0" IVar="-1" Cut="0.0000000000000000e+00" cType="1" res="-2.5467206723988056e-03" rms="3.9111655950546265e-01" purity="7.1465063095092773e-01" nType="-99"/>
          </Node>
          <Node pos="r" depth="2" NCoef="0" IVar="5" Cut="1.0450341796875000e+02" cType="1" res="-9.8019881988875568e-05" rms="3.8559418916702271e-01" purity="5.7178729772567749e-01" nType="0">
            <Node pos="l" depth="3" NCoef="0" IVar="-1" Cut="0.0000000000000000e+00" cType="1" res="6.5955454483628273e-03" rms="3.9866098761558533e-01" purity="4.7720611095428467e-01" nType="-99"/>
            <Node pos="r" depth="3" NCoef="0" IVar="-1" Cut="0.0000000000000000e+00" cType="1" res="-1.6657166182994843e-02" rms="3.5866934061050415e-01" purity="7.5052237510681152e-01" nType="-99"/>
          </Node>
        </Node>
      </Node>
    </BinaryTree>
    <BinaryTree type="DecisionTree" boostWeight="1.0000000000000000e+00" itree="634">
      <Node pos="s" depth="0" NCoef="0" IVar="2" Cut="3.4565936279296875e+02" cType="1" res="-1.7813636222854257e-03" rms="3.8451156020164490e-01" purity="4.9845173954963684e-01" nType="0">
        <Node pos="l" depth="1" NCoef="0" IVar="8" Cut="-6.6668558120727539e-01" cType="1" res="-9.1634392738342285e-03" rms="3.9107757806777954e-01" purity="4.5075908303260803e-01" nType="0">
          <Node pos="l" depth="2" NCoef="0" IVar="2" Cut="2.4855416870117188e+02" cType="1" res="-2.6846511289477348e-02" rms="3.8020047545433044e-01" purity="3.7588182091712952e-01" nType="0">
            <Node pos="l" depth="3" NCoef="0" IVar="-1" Cut="0.0000000000000000e+00" cType="1" res="-3.0801497399806976e-02" rms="3.7914356589317322e-01" purity="3.0355122685432434e-01" nType="-99"/>
            <Node pos="r" depth="3" NCoef="0" IVar="-1" Cut="0.0000000000000000e+00" cType="1" res="-1.2062696740031242e-02" rms="3.8032203912734985e-01" purity="4.0845310688018799e-01" nType="-99"/>
          </Node>
          <Node pos="r" depth="2" NCoef="0" IVar="2" Cut="2.2081051635742188e+02" cType="1" res="-1.9917599856853485e-03" rms="3.9517822861671448e-01" purity="4.8112687468528748e-01" nType="0">
            <Node pos="l" depth="3" NCoef="0" IVar="-1" Cut="0.0000000000000000e+00" cType="1" res="1.6601992771029472e-02" rms="4.2822900414466858e-01" purity="4.2366865277290344e-01" nType="-99"/>
            <Node pos="r" depth="3" NCoef="0" IVar="-1" Cut="0.0000000000000000e+00" cType="1" res="-4.1419169865548611e-03" rms="3.8999843597412109e-01" purity="4.8938834667205811e-01" nType="-99"/>
          </Node>
        </Node>
        <Node pos="r" depth="1" NCoef="0" IVar="6" Cut="1.2094752788543701e+00" cType="1" res="5.6440061889588833e-03" rms="3.7764638662338257e-01" purity="5.4642409086227417e-01" nType="0">
          <Node pos="l" depth="2" NCoef="0" IVar="3" Cut="1.3322193908691406e+02" cType="1" res="8.0531314015388489e-03" rms="3.8252267241477966e-01" purity="5.7421827316284180e-01" nType="0">
            <Node pos="l" depth="3" NCoef="0" IVar="-1" Cut="0.0000000000000000e+00" cType="1" res="2.1283645182847977e-02" rms="3.7889280915260315e-01" purity="2.5051379203796387e-01" nType="-99"/>
            <Node pos="r" depth="3" NCoef="0" IVar="-1" Cut="0.0000000000000000e+00" cType="1" res="3.3082577865570784e-03" rms="3.8301056623458862e-01" purity="6.2614864110946655e-01" nType="-99"/>
          </Node>
          <Node pos="r" depth="2" NCoef="0" IVar="-1" Cut="0.0000000000000000e+00" cType="1" res="-1.7599074169993401e-02" rms="3.2105460762977600e-01" purity="2.5517776608467102e-01" nType="-99"/>
        </Node>
      </Node>
    </BinaryTree>
    <BinaryTree type="DecisionTree" boostWeight="1.0000000000000000e+00" itree="635">
      <Node pos="s" depth="0" NCoef="0" IVar="3" Cut="1.3263851928710938e+02" cType="1" res="-3.6176876164972782e-04" rms="3.8238030672073364e-01" purity="4.9964025616645813e-01" nType="0">
        <Node pos="l" depth="1" NCoef="0" IVar="9" Cut="-1.4664119482040405e+00" cType="1" res="1.3931998983025551e-02" rms="3.6150106787681580e-01" purity="2.1766218543052673e-01" nType="0">
          <Node pos="l" depth="2" NCoef="0" IVar="-1" Cut="0.0000000000000000e+00" cType="1" res="-2.4023486301302910e-02" rms="2.8888636827468872e-01" purity="1.2163196504116058e-01" nType="-99"/>
          <Node pos="r" depth="2" NCoef="0" IVar="2" Cut="3.0842468261718750e+02" cType="1" res="2.0258923992514610e-02" rms="3.7188407778739929e-01" purity="2.3371390998363495e-01" nType="0">
            <Node pos="l" depth="3" NCoef="0" IVar="-1" Cut="0.0000000000000000e+00" cType="1" res="2.3542882874608040e-02" rms="3.9023399353027344e-01" purity="2.5633522868156433e-01" nType="-99"/>
            <Node pos="r" depth="3" NCoef="0" IVar="-1" Cut="0.0000000000000000e+00" cType="1" res="6.8874792195856571e-03" rms="3.5346230864524841e-01" purity="2.1257585287094116e-01" nType="-99"/>
          </Node>
        </Node>
        <Node pos="r" depth="1" NCoef="0" IVar="2" Cut="7.3585308837890625e+02" cType="1" res="-3.6083178129047155e-03" rms="3.8689205050468445e-01" purity="5.6368601322174072e-01" nType="0">
          <Node pos="l" depth="2" NCoef="0" IVar="1" Cut="1.4747940673828125e+03" cType="1" res="-2.7906706091016531e-03" rms="3.8640701770782471e-01" purity="5.6219917535781860e-01" nType="0">
            <Node pos="l" depth="3" NCoef="0" IVar="-1" Cut="0.0000000000000000e+00" cType="1" res="-4.1286395862698555e-03" rms="4.0699440240859985e-01" purity="4.5016327500343323e-01" nType="-99"/>
            <Node pos="r" depth="3" NCoef="0" IVar="-1" Cut="0.0000000000000000e+00" cType="1" res="4.5996564440429211e-03" rms="3.4177958965301514e-01" purity="7.8437972068786621e-01" nType="-99"/>
          </Node>
          <Node pos="r" depth="2" NCoef="0" IVar="-1" Cut="0.0000000000000000e+00" cType="1" res="-1.6166010871529579e-02" rms="4.0003481507301331e-01" purity="6.0700994729995728e-01" nType="-99"/>
        </Node>
      </Node>
    </BinaryTree>
    <BinaryTree type="DecisionTree" boostWeight="1.0000000000000000e+00" itree="636">
      <Node pos="s" depth="0" NCoef="0" IVar="9" Cut="-1.7332997322082520e+00" cType="1" res="-1.2072173412889242e-03" rms="3.8339394330978394e-01" purity="4.9506294727325439e-01" nType="0">
        <Node pos="l" depth="1" NCoef="0" IVar="0" Cut="4.1005245971679688e+02" cType="1" res="2.1896829828619957e-02" rms="3.7460598349571228e-01" purity="3.8861072063446045e-01" nType="0">
          <Node pos="l" depth="2" NCoef="0" IVar="-1" Cut="0.0000000000000000e+00" cType="1" res="1.5538542065769434e-03" rms="3.4287098050117493e-01" purity="2.1384930610656738e-01" nType="-99"/>
          <Node pos="r" depth="2" NCoef="0" IVar="-1" Cut="0.0000000000000000e+00" cType="1" res="2.5458505377173424e-02" rms="4.0348494052886963e-01" purity="5.6742358207702637e-01" nType="-99"/>
        </Node>
        <Node pos="r" depth="1" NCoef="0" IVar="9" Cut="6.4128237962722778e-01" cType="1" res="-3.4470004029572010e-03" rms="3.8416132330894470e-01" purity="5.0538277626037598e-01" nType="0">
          <Node pos="l" depth="2" NCoef="0" IVar="6" Cut="1.2128590345382690e+00" cType="1" res="-8.1056971102952957e-03" rms="3.8511085510253906e-01" purity="5.2915805578231812e-01" nType="0">
            <Node pos="l" depth="3" NCoef="0" IVar="-1" Cut="0.0000000000000000e+00" cType="1" res="-4.3670637533068657e-03" rms="3.8788193464279175e-01" purity="5.5312609672546387e-01" nType="-99"/>
            <Node pos="r" depth="3" NCoef="0" IVar="-1" Cut="0.0000000000000000e+00" cType="1" res="-1.8487934023141861e-02" rms="3.5525795817375183e-01" purity="2.8462567925453186e-01" nType="-99"/>
          </Node>
          <Node pos="r" depth="2" NCoef="0" IVar="6" Cut="4.1837993264198303e-01" cType="1" res="5.6190658360719681e-03" rms="3.8214400410652161e-01" purity="4.5911467075347900e-01" nType="0">
            <Node pos="l" depth="3" NCoef="0" IVar="-1" Cut="0.0000000000000000e+00" cType="1" res="1.0783379897475243e-02" rms="3.9099901914596558e-01" purity="5.1456326246261597e-01" nType="-99"/>
            <Node pos="r" depth="3" NCoef="0" IVar="-1" Cut="0.0000000000000000e+00" cType="1" res="-9.0050464496016502e-03" rms="3.6650440096855164e-01" purity="3.6842539906501770e-01" nType="-99"/>
          </Node>
        </Node>
      </Node>
    </BinaryTree>
    <BinaryTree type="DecisionTree" boostWeight="1.0000000000000000e+00" itree="637">
      <Node pos="s" depth="0" NCoef="0" IVar="3" Cut="3.2093527221679688e+02" cType="1" res="3.2842347864061594e-03" rms="3.8613203167915344e-01" purity="4.9986079335212708e-01" nType="0">
        <Node pos="l" depth="1" NCoef="0" IVar="9" Cut="-1.7333042621612549e+00" cType="1" res="5.0822258926928043e-03" rms="3.8864085078239441e-01" purity="4.7325661778450012e-01" nType="0">
          <Node pos="l" depth="2" NCoef="0" IVar="6" Cut="-8.1681288778781891e-02" cType="1" res="-1.5065624378621578e-02" rms="3.6661815643310547e-01" purity="3.2638680934906006e-01" nType="0">
            <Node pos="l" depth="3" NCoef="0" IVar="-1" Cut="0.0000000000000000e+00" cType="1" res="4.8497375100851059e-03" rms="3.6739638447761536e-01" purity="3.3206307888031006e-01" nType="-99"/>
            <Node pos="r" depth="3" NCoef="0" IVar="-1" Cut="0.0000000000000000e+00" cType="1" res="-2.9191346839070320e-02" rms="3.6402738094329834e-01" purity="3.1968089938163757e-01" nType="-99"/>
          </Node>
          <Node pos="r" depth="2" NCoef="0" IVar="0" Cut="4.2484027099609375e+02" cType="1" res="6.9367778487503529e-03" rms="3.9055335521697998e-01" purity="4.8677551746368408e-01" nType="0">
            <Node pos="l" depth="3" NCoef="0" IVar="-1" Cut="0.0000000000000000e+00" cType="1" res="7.8743193298578262e-03" rms="3.9777153730392456e-01" purity="3.4262615442276001e-01" nType="-99"/>
            <Node pos="r" depth="3" NCoef="0" IVar="-1" Cut="0.0000000000000000e+00" cType="1" res="2.3799719929229468e-04" rms="3.8118529319763184e-01" purity="6.6794794797897339e-01" nType="-99"/>
          </Node>
        </Node>
        <Node pos="r" depth="1" NCoef="0" IVar="7" Cut="4.0032863616943359e-01" cType="1" res="-9.2458566650748253e-03" rms="3.6792987585067749e-01" purity="6.8526399135589600e-01" nType="0">
          <Node pos="l" depth="2" NCoef="0" IVar="7" Cut="-5.1384258270263672e-01" cType="1" res="-4.8981781583279371e-04" rms="3.6320731043815613e-01" purity="7.1136295795440674e-01" nType="0">
            <Node pos="l" depth="3" NCoef="0" IVar="-1" Cut="0.0000000000000000e+00" cType="1" res="-1.6158223152160645e-02" rms="3.7566897273063660e-01" purity="5.8583056926727295e-01" nType="-99"/>
            <Node pos="r" depth="3" NCoef="0" IVar="-1" Cut="0.0000000000000000e+00" cType="1" res="9.9167237058281898e-03" rms="3.5504746437072754e-01" purity="7.8431761264801025e-01" nType="-99"/>
          </Node>
          <Node pos="r" depth="2" NCoef="0" IVar="-1" Cut="0.0000000000000000e+00" cType="1" res="-1.9492460414767265e-02" rms="3.7752282619476318e-01" purity="6.2703323364257812e-01" nType="-99"/>
        </Node>
      </Node>
    </BinaryTree>
    <BinaryTree type="DecisionTree" boostWeight="1.0000000000000000e+00" itree="638">
      <Node pos="s" depth="0" NCoef="0" IVar="7" Cut="-1.9999428987503052e+00" cType="1" res="1.4112275093793869e-03" rms="3.8284593820571899e-01" purity="5.0179445743560791e-01" nType="0">
        <Node pos="l" depth="1" NCoef="0" IVar="-1" Cut="0.0000000000000000e+00" cType="1" res="-2.6676883921027184e-02" rms="2.8776967525482178e-01" purity="1.5107999742031097e-01" nType="-99"/>
        <Node pos="r" depth="1" NCoef="0" IVar="8" Cut="-4.0002769231796265e-01" cType="1" res="2.3937353398650885e-03" rms="3.8565546274185181e-01" purity="5.1383095979690552e-01" nType="0">
          <Node pos="l" depth="2" NCoef="0" IVar="7" Cut="-6.2847697734832764e-01" cType="1" res="9.5000751316547394e-03" rms="3.8984826207160950e-01" purity="4.9015209078788757e-01" nType="0">
            <Node pos="l" depth="3" NCoef="0" IVar="-1" Cut="0.0000000000000000e+00" cType="1" res="1.6100242733955383e-02" rms="3.9575824141502380e-01" purity="4.5204263925552368e-01" nType="-99"/>
            <Node pos="r" depth="3" NCoef="0" IVar="-1" Cut="0.0000000000000000e+00" cType="1" res="1.9878384191542864e-03" rms="3.8698339462280273e-01" purity="5.0731575489044189e-01" nType="-99"/>
          </Node>
          <Node pos="r" depth="2" NCoef="0" IVar="9" Cut="-6.6658568382263184e-01" cType="1" res="-1.7651021480560303e-03" rms="3.8311931490898132e-01" purity="5.2768850326538086e-01" nType="0">
            <Node pos="l" depth="3" NCoef="0" IVar="-1" Cut="0.0000000000000000e+00" cType="1" res="5.4725762456655502e-03" rms="3.8900795578956604e-01" purity="5.1906752586364746e-01" nType="-99"/>
            <Node pos="r" depth="3" NCoef="0" IVar="-1" Cut="0.0000000000000000e+00" cType="1" res="-3.8018890190869570e-03" rms="3.8076946139335632e-01" purity="5.3098899126052856e-01" nType="-99"/>
          </Node>
        </Node>
      </Node>
    </BinaryTree>
    <BinaryTree type="DecisionTree" boostWeight="1.0000000000000000e+00" itree="639">
      <Node pos="s" depth="0" NCoef="0" IVar="7" Cut="-1.7331894636154175e+00" cType="1" res="1.1248631199123338e-04" rms="3.8290536403656006e-01" purity="4.9811241030693054e-01" nType="0">
        <Node pos="l" depth="1" NCoef="0" IVar="4" Cut="1.0465064239501953e+02" cType="1" res="-2.6367349550127983e-02" rms="3.0376580357551575e-01" purity="1.7206361889839172e-01" nType="0">
          <Node pos="l" depth="2" NCoef="0" IVar="-1" Cut="0.0000000000000000e+00" cType="1" res="-2.0239187404513359e-02" rms="2.5893992185592651e-01" purity="8.1695981323719025e-02" nType="-99"/>
          <Node pos="r" depth="2" NCoef="0" IVar="-1" Cut="0.0000000000000000e+00" cType="1" res="-2.7076192200183868e-02" rms="3.4229895472526550e-01" purity="2.6213285326957703e-01" nType="-99"/>
        </Node>
        <Node pos="r" depth="1" NCoef="0" IVar="6" Cut="-6.4497321844100952e-01" cType="1" res="1.7147201579064131e-03" rms="3.8711714744567871e-01" purity="5.1784086227416992e-01" nType="0">
          <Node pos="l" depth="2" NCoef="0" IVar="6" Cut="-8.4686470031738281e-01" cType="1" res="-8.2539878785610199e-03" rms="3.8026288151741028e-01" purity="3.9790835976600647e-01" nType="0">
            <Node pos="l" depth="3" NCoef="0" IVar="-1" Cut="0.0000000000000000e+00" cType="1" res="-8.4492209134623408e-04" rms="3.7313082814216614e-01" purity="3.5716304183006287e-01" nType="-99"/>
            <Node pos="r" depth="3" NCoef="0" IVar="-1" Cut="0.0000000000000000e+00" cType="1" res="-1.9152224063873291e-02" rms="4.0126121044158936e-01" purity="5.2737540006637573e-01" nType="-99"/>
          </Node>
          <Node pos="r" depth="2" NCoef="0" IVar="0" Cut="5.8410955810546875e+02" cType="1" res="4.8726503737270832e-03" rms="3.8921004533767700e-01" purity="5.5583357810974121e-01" nType="0">
            <Node pos="l" depth="3" NCoef="0" IVar="-1" Cut="0.0000000000000000e+00" cType="1" res="4.4432338327169418e-03" rms="3.9846748113632202e-01" purity="5.0033372640609741e-01" nType="-99"/>
            <Node pos="r" depth="3" NCoef="0" IVar="-1" Cut="0.0000000000000000e+00" cType="1" res="-5.2562402561306953e-03" rms="3.4200900793075562e-01" purity="8.1745159626007080e-01" nType="-99"/>
          </Node>
        </Node>
      </Node>
    </BinaryTree>
    <BinaryTree type="DecisionTree" boostWeight="1.0000000000000000e+00" itree="640">
      <Node pos="s" depth="0" NCoef="0" IVar="7" Cut="1.7333315610885620e+00" cType="1" res="2.5128203560598195e-04" rms="3.8367834687232971e-01" purity="4.9691730737686157e-01" nType="0">
        <Node pos="l" depth="1" NCoef="0" IVar="7" Cut="8.6985516548156738e-01" cType="1" res="1.3736449182033539e-03" rms="3.8612660765647888e-01" purity="5.1441985368728638e-01" nType="0">
          <Node pos="l" depth="2" NCoef="0" IVar="7" Cut="-1.5765984058380127e+00" cType="1" res="-6.2594417249783874e-04" rms="3.8482767343521118e-01" purity="5.2897489070892334e-01" nType="0">
            <Node pos="l" depth="3" NCoef="0" IVar="-1" Cut="0.0000000000000000e+00" cType="1" res="1.2692756019532681e-02" rms="3.4841310977935791e-01" purity="2.5533679127693176e-01" nType="-99"/>
            <Node pos="r" depth="3" NCoef="0" IVar="-1" Cut="0.0000000000000000e+00" cType="1" res="-1.5275134937837720e-03" rms="3.8858786225318909e-01" purity="5.5908536911010742e-01" nType="-99"/>
          </Node>
          <Node pos="r" depth="2" NCoef="0" IVar="9" Cut="-1.3336926698684692e-01" cType="1" res="1.1412500403821468e-02" rms="3.9242899417877197e-01" purity="4.4134688377380371e-01" nType="0">
            <Node pos="l" depth="3" NCoef="0" IVar="-1" Cut="0.0000000000000000e+00" cType="1" res="-5.3742859745398164e-04" rms="3.9489012956619263e-01" purity="4.3598863482475281e-01" nType="-99"/>
            <Node pos="r" depth="3" NCoef="0" IVar="-1" Cut="0.0000000000000000e+00" cType="1" res="1.2569868937134743e-02" rms="3.9067301154136658e-01" purity="4.4472312927246094e-01" nType="-99"/>
          </Node>
        </Node>
        <Node pos="r" depth="1" NCoef="0" IVar="9" Cut="1.3418085873126984e-01" cType="1" res="-1.8427023664116859e-02" rms="3.3981540799140930e-01" purity="2.0564077794551849e-01" nType="0">
          <Node pos="l" depth="2" NCoef="0" IVar="-1" Cut="0.0000000000000000e+00" cType="1" res="-2.3967677727341652e-02" rms="3.4006410837173462e-01" purity="2.1998767554759979e-01" nType="-99"/>
          <Node pos="r" depth="2" NCoef="0" IVar="-1" Cut="0.0000000000000000e+00" cType="1" res="-6.9569596089422703e-03" rms="3.3925303816795349e-01" purity="1.9334959983825684e-01" nType="-99"/>
        </Node>
      </Node>
    </BinaryTree>
    <BinaryTree type="DecisionTree" boostWeight="1.0000000000000000e+00" itree="641">
      <Node pos="s" depth="0" NCoef="0" IVar="2" Cut="3.5034759521484375e+02" cType="1" res="-1.9138900097459555e-04" rms="3.8310623168945312e-01" purity="4.9962550401687622e-01" nType="0">
        <Node pos="l" depth="1" NCoef="0" IVar="2" Cut="2.6443569946289062e+02" cType="1" res="4.7676139511168003e-03" rms="3.9241671562194824e-01" purity="4.6964100003242493e-01" nType="0">
          <Node pos="l" depth="2" NCoef="0" IVar="7" Cut="3.9988431334495544e-01" cType="1" res="1.3114398345351219e-02" rms="4.0098953247070312e-01" purity="4.3759813904762268e-01" nType="0">
            <Node pos="l" depth="3" NCoef="0" IVar="-1" Cut="0.0000000000000000e+00" cType="1" res="1.5287882648408413e-02" rms="4.0360143780708313e-01" purity="4.7408694028854370e-01" nType="-99"/>
            <Node pos="r" depth="3" NCoef="0" IVar="-1" Cut="0.0000000000000000e+00" cType="1" res="-6.4445929601788521e-03" rms="3.9492842555046082e-01" purity="3.6796405911445618e-01" nType="-99"/>
          </Node>
          <Node pos="r" depth="2" NCoef="0" IVar="6" Cut="9.5904153585433960e-01" cType="1" res="-1.4849689323455095e-03" rms="3.8575172424316406e-01" purity="4.9364435672760010e-01" nType="0">
            <Node pos="l" depth="3" NCoef="0" IVar="-1" Cut="0.0000000000000000e+00" cType="1" res="-3.6528548225760460e-03" rms="3.9040333032608032e-01" purity="5.2437108755111694e-01" nType="-99"/>
            <Node pos="r" depth="3" NCoef="0" IVar="-1" Cut="0.0000000000000000e+00" cType="1" res="1.2576057575643063e-02" rms="3.6367213726043701e-01" purity="3.5629853606224060e-01" nType="-99"/>
          </Node>
        </Node>
        <Node pos="r" depth="1" NCoef="0" IVar="7" Cut="1.3350872695446014e-01" cType="1" res="-5.6181144900619984e-03" rms="3.7257552146911621e-01" purity="5.3243809938430786e-01" nType="0">
          <Node pos="l" depth="2" NCoef="0" IVar="7" Cut="-8.4420680999755859e-01" cType="1" res="-1.3517762534320354e-02" rms="3.6910730600357056e-01" purity="5.3330624103546143e-01" nType="0">
            <Node pos="l" depth="3" NCoef="0" IVar="-1" Cut="0.0000000000000000e+00" cType="1" res="1.2209018459543586e-03" rms="3.7087216973304749e-01" purity="4.0339532494544983e-01" nType="-99"/>
            <Node pos="r" depth="3" NCoef="0" IVar="-1" Cut="0.0000000000000000e+00" cType="1" res="-1.6000127419829369e-02" rms="3.6773043870925903e-01" purity="6.1188828945159912e-01" nType="-99"/>
          </Node>
          <Node pos="r" depth="2" NCoef="0" IVar="7" Cut="1.4032676219940186e+00" cType="1" res="3.9868969470262527e-03" rms="3.7652626633644104e-01" purity="5.3138256072998047e-01" nType="0">
            <Node pos="l" depth="3" NCoef="0" IVar="-1" Cut="0.0000000000000000e+00" cType="1" res="6.2444270588457584e-03" rms="3.8281095027923584e-01" purity="5.9567254781723022e-01" nType="-99"/>
            <Node pos="r" depth="3" NCoef="0" IVar="-1" Cut="0.0000000000000000e+00" cType="1" res="-1.4052898623049259e-02" rms="3.4777879714965820e-01" purity="2.5928246974945068e-01" nType="-99"/>
          </Node>
        </Node>
      </Node>
    </BinaryTree>
    <BinaryTree type="DecisionTree" boostWeight="1.0000000000000000e+00" itree="642">
      <Node pos="s" depth="0" NCoef="0" IVar="8" Cut="1.4666281938552856e+00" cType="1" res="1.2628501281142235e-03" rms="3.8161596655845642e-01" purity="5.0116837024688721e-01" nType="0">
        <Node pos="l" depth="1" NCoef="0" IVar="6" Cut="-1.4534932374954224e+00" cType="1" res="-9.7874246421270072e-05" rms="3.8273191452026367e-01" purity="5.2134150266647339e-01" nType="0">
          <Node pos="l" depth="2" NCoef="0" IVar="0" Cut="3.7467996215820312e+02" cType="1" res="-2.0581856369972229e-02" rms="3.1244608759880066e-01" purity="2.0523893833160400e-01" nType="0">
            <Node pos="l" depth="3" NCoef="0" IVar="-1" Cut="0.0000000000000000e+00" cType="1" res="-3.0854390934109688e-03" rms="2.8309905529022217e-01" purity="1.1297696083784103e-01" nType="-99"/>
            <Node pos="r" depth="3" NCoef="0" IVar="-1" Cut="0.0000000000000000e+00" cType="1" res="-2.6394654065370560e-02" rms="3.3697357773780823e-01" purity="2.9245492815971375e-01" nType="-99"/>
          </Node>
          <Node pos="r" depth="2" NCoef="0" IVar="9" Cut="1.9999244213104248e+00" cType="1" res="1.3577048666775227e-03" rms="3.8719999790191650e-01" purity="5.4380357265472412e-01" nType="0">
            <Node pos="l" depth="3" NCoef="0" IVar="-1" Cut="0.0000000000000000e+00" cType="1" res="3.6081888538319618e-05" rms="3.8657695055007935e-01" purity="5.4975521564483643e-01" nType="-99"/>
            <Node pos="r" depth="3" NCoef="0" IVar="-1" Cut="0.0000000000000000e+00" cType="1" res="1.6202723607420921e-02" rms="3.9737018942832947e-01" purity="4.3834921717643738e-01" nType="-99"/>
          </Node>
        </Node>
        <Node pos="r" depth="1" NCoef="0" IVar="8" Cut="1.6571055650711060e+00" cType="1" res="1.2674080207943916e-02" rms="3.7192970514297485e-01" purity="3.3199375867843628e-01" nType="0">
          <Node pos="l" depth="2" NCoef="0" IVar="-1" Cut="0.0000000000000000e+00" cType="1" res="2.7778843417763710e-02" rms="4.0201774239540100e-01" purity="4.4603809714317322e-01" nType="-99"/>
          <Node pos="r" depth="2" NCoef="0" IVar="9" Cut="4.0001967549324036e-01" cType="1" res="2.1900292485952377e-03" rms="3.6056572198867798e-01" purity="2.9335427284240723e-01" nType="0">
            <Node pos="l" depth="3" NCoef="0" IVar="-1" Cut="0.0000000000000000e+00" cType="1" res="1.6161035746335983e-02" rms="3.8516718149185181e-01" purity="3.5370981693267822e-01" nType="-99"/>
            <Node pos="r" depth="3" NCoef="0" IVar="-1" Cut="0.0000000000000000e+00" cType="1" res="-2.0816046744585037e-02" rms="3.2422202825546265e-01" purity="2.1565525233745575e-01" nType="-99"/>
          </Node>
        </Node>
      </Node>
    </BinaryTree>
    <BinaryTree type="DecisionTree" boostWeight="1.0000000000000000e+00" itree="643">
      <Node pos="s" depth="0" NCoef="0" IVar="3" Cut="2.2348832702636719e+02" cType="1" res="2.3470004089176655e-03" rms="3.8190728425979614e-01" purity="5.0615710020065308e-01" nType="0">
        <Node pos="l" depth="1" NCoef="0" IVar="9" Cut="6.6667431592941284e-01" cType="1" res="-3.2729837112128735e-03" rms="3.8556745648384094e-01" purity="3.9128056168556213e-01" nType="0">
          <Node pos="l" depth="2" NCoef="0" IVar="3" Cut="2.0711962890625000e+02" cType="1" res="1.6269290354102850e-03" rms="3.9020311832427979e-01" purity="4.1120570898056030e-01" nType="0">
            <Node pos="l" depth="3" NCoef="0" IVar="-1" Cut="0.0000000000000000e+00" cType="1" res="-9.2819245764985681e-04" rms="3.9026027917861938e-01" purity="3.7997025251388550e-01" nType="-99"/>
            <Node pos="r" depth="3" NCoef="0" IVar="-1" Cut="0.0000000000000000e+00" cType="1" res="1.4594672247767448e-02" rms="3.8912743330001831e-01" purity="6.3067775964736938e-01" nType="-99"/>
          </Node>
          <Node pos="r" depth="2" NCoef="0" IVar="7" Cut="3.9988490939140320e-01" cType="1" res="-1.4296913519501686e-02" rms="3.7469440698623657e-01" purity="3.4645259380340576e-01" nType="0">
            <Node pos="l" depth="3" NCoef="0" IVar="-1" Cut="0.0000000000000000e+00" cType="1" res="-1.0582368122413754e-04" rms="3.8657504320144653e-01" purity="3.9616405963897705e-01" nType="-99"/>
            <Node pos="r" depth="3" NCoef="0" IVar="-1" Cut="0.0000000000000000e+00" cType="1" res="-2.4184154346585274e-02" rms="3.5694134235382080e-01" purity="2.7860495448112488e-01" nType="-99"/>
          </Node>
        </Node>
        <Node pos="r" depth="1" NCoef="0" IVar="6" Cut="-1.1151442527770996e+00" cType="1" res="1.0750790126621723e-02" rms="3.7621110677719116e-01" purity="6.7793667316436768e-01" nType="0">
          <Node pos="l" depth="2" NCoef="0" IVar="-1" Cut="0.0000000000000000e+00" cType="1" res="3.1348507851362228e-02" rms="4.0257766842842102e-01" purity="4.8094749450683594e-01" nType="-99"/>
          <Node pos="r" depth="2" NCoef="0" IVar="6" Cut="-7.4224615097045898e-01" cType="1" res="6.4111468382179737e-03" rms="3.7284752726554871e-01" purity="7.0033800601959229e-01" nType="0">
            <Node pos="l" depth="3" NCoef="0" IVar="-1" Cut="0.0000000000000000e+00" cType="1" res="-1.5632675960659981e-02" rms="4.0090987086296082e-01" purity="6.3143628835678101e-01" nType="-99"/>
            <Node pos="r" depth="3" NCoef="0" IVar="-1" Cut="0.0000000000000000e+00" cType="1" res="6.8872384727001190e-03" rms="3.6971858143806458e-01" purity="7.0736140012741089e-01" nType="-99"/>
          </Node>
        </Node>
      </Node>
    </BinaryTree>
    <BinaryTree type="DecisionTree" boostWeight="1.0000000000000000e+00" itree="644">
      <Node pos="s" depth="0" NCoef="0" IVar="7" Cut="1.9999111890792847e+00" cType="1" res="2.4554482661187649e-04" rms="3.8369789719581604e-01" purity="4.9951273202896118e-01" nType="0">
        <Node pos="l" depth="1" NCoef="0" IVar="6" Cut="9.4387060403823853e-01" cType="1" res="-1.1088254395872355e-03" rms="3.8486021757125854e-01" purity="5.1065647602081299e-01" nType="0">
          <Node pos="l" depth="2" NCoef="0" IVar="2" Cut="3.5034561157226562e+02" cType="1" res="-4.3148691765964031e-03" rms="3.8750132918357849e-01" purity="5.4415100812911987e-01" nType="0">
            <Node pos="l" depth="3" NCoef="0" IVar="-1" Cut="0.0000000000000000e+00" cType="1" res="-6.6338819451630116e-03" rms="3.9467865228652954e-01" purity="4.9675947427749634e-01" nType="-99"/>
            <Node pos="r" depth="3" NCoef="0" IVar="-1" Cut="0.0000000000000000e+00" cType="1" res="1.3183715054765344e-03" rms="3.8008287549018860e-01" purity="5.9156155586242676e-01" nType="-99"/>
          </Node>
          <Node pos="r" depth="2" NCoef="0" IVar="6" Cut="1.1205011606216431e+00" cType="1" res="1.4971978962421417e-02" rms="3.7091180682182312e-01" purity="3.4265530109405518e-01" nType="0">
            <Node pos="l" depth="3" NCoef="0" IVar="-1" Cut="0.0000000000000000e+00" cType="1" res="3.3194936811923981e-02" rms="4.0266516804695129e-01" purity="5.0503140687942505e-01" nType="-99"/>
            <Node pos="r" depth="3" NCoef="0" IVar="-1" Cut="0.0000000000000000e+00" cType="1" res="1.4884934062138200e-03" rms="3.5822790861129761e-01" purity="2.8590953350067139e-01" nType="-99"/>
          </Node>
        </Node>
        <Node pos="r" depth="1" NCoef="0" IVar="-1" Cut="0.0000000000000000e+00" cType="1" res="3.2199177891016006e-02" rms="3.5105723142623901e-01" purity="2.1574959158897400e-01" nType="-99"/>
      </Node>
    </BinaryTree>
    <BinaryTree type="DecisionTree" boostWeight="1.0000000000000000e+00" itree="645">
      <Node pos="s" depth="0" NCoef="0" IVar="2" Cut="3.3986019897460938e+02" cType="1" res="-2.4720332585275173e-03" rms="3.8129293918609619e-01" purity="5.0060838460922241e-01" nType="0">
        <Node pos="l" depth="1" NCoef="0" IVar="1" Cut="1.2105126953125000e+03" cType="1" res="-1.0746099986135960e-02" rms="3.8833922147750854e-01" purity="4.4748863577842712e-01" nType="0">
          <Node pos="l" depth="2" NCoef="0" IVar="3" Cut="1.1859651184082031e+02" cType="1" res="-1.6630165278911591e-02" rms="3.9732408523559570e-01" purity="3.0019921064376831e-01" nType="0">
            <Node pos="l" depth="3" NCoef="0" IVar="-1" Cut="0.0000000000000000e+00" cType="1" res="2.1732859313488007e-03" rms="3.4474840760231018e-01" purity="1.7348442971706390e-01" nType="-99"/>
            <Node pos="r" depth="3" NCoef="0" IVar="-1" Cut="0.0000000000000000e+00" cType="1" res="-1.2617844156920910e-02" rms="4.1111600399017334e-01" purity="3.3685916662216187e-01" nType="-99"/>
          </Node>
          <Node pos="r" depth="2" NCoef="0" IVar="9" Cut="-1.3313716650009155e-01" cType="1" res="2.3925104178488255e-03" rms="3.6714452505111694e-01" purity="7.7637332677841187e-01" nType="0">
            <Node pos="l" depth="3" NCoef="0" IVar="-1" Cut="0.0000000000000000e+00" cType="1" res="-8.0487309023737907e-03" rms="3.7074571847915649e-01" purity="7.5872242450714111e-01" nType="-99"/>
            <Node pos="r" depth="3" NCoef="0" IVar="-1" Cut="0.0000000000000000e+00" cType="1" res="9.3581704422831535e-03" rms="3.6406087875366211e-01" purity="7.8977727890014648e-01" nType="-99"/>
          </Node>
        </Node>
        <Node pos="r" depth="1" NCoef="0" IVar="8" Cut="6.6663801670074463e-01" cType="1" res="5.2049760706722736e-03" rms="3.7447312474250793e-01" purity="5.4989498853683472e-01" nType="0">
          <Node pos="l" depth="2" NCoef="0" IVar="4" Cut="2.3940893554687500e+02" cType="1" res="8.8717732578516006e-03" rms="3.7512475252151489e-01" purity="5.7931822538375854e-01" nType="0">
            <Node pos="l" depth="3" NCoef="0" IVar="-1" Cut="0.0000000000000000e+00" cType="1" res="8.4163025021553040e-03" rms="3.8075813651084900e-01" purity="5.4775542020797729e-01" nType="-99"/>
            <Node pos="r" depth="3" NCoef="0" IVar="-1" Cut="0.0000000000000000e+00" cType="1" res="-1.4968588016927242e-02" rms="3.3067005872726440e-01" purity="8.0655348300933838e-01" nType="-99"/>
          </Node>
          <Node pos="r" depth="2" NCoef="0" IVar="3" Cut="2.1395349121093750e+02" cType="1" res="-4.5958678238093853e-03" rms="3.7254866957664490e-01" purity="4.7125086188316345e-01" nType="0">
            <Node pos="l" depth="3" NCoef="0" IVar="-1" Cut="0.0000000000000000e+00" cType="1" res="-1.4366128481924534e-02" rms="3.5492119193077087e-01" purity="3.0432614684104919e-01" nType="-99"/>
            <Node pos="r" depth="3" NCoef="0" IVar="-1" Cut="0.0000000000000000e+00" cType="1" res="5.0366153009235859e-03" rms="3.8589391112327576e-01" purity="6.0733282566070557e-01" nType="-99"/>
          </Node>
        </Node>
      </Node>
    </BinaryTree>
    <BinaryTree type="DecisionTree" boostWeight="1.0000000000000000e+00" itree="646">
      <Node pos="s" depth="0" NCoef="0" IVar="6" Cut="1.5034434199333191e-01" cType="1" res="-2.0197653211653233e-03" rms="3.8414135575294495e-01" purity="4.9585974216461182e-01" nType="0">
        <Node pos="l" depth="1" NCoef="0" IVar="7" Cut="1.3343885540962219e-01" cType="1" res="2.3936533834785223e-03" rms="3.8882979750633240e-01" purity="5.1205897331237793e-01" nType="0">
          <Node pos="l" depth="2" NCoef="0" IVar="9" Cut="4.0002694725990295e-01" cType="1" res="-2.8752731159329414e-03" rms="3.8777512311935425e-01" purity="5.1639276742935181e-01" nType="0">
            <Node pos="l" depth="3" NCoef="0" IVar="-1" Cut="0.0000000000000000e+00" cType="1" res="1.0834264103323221e-03" rms="3.8939234614372253e-01" purity="5.1801103353500366e-01" nType="-99"/>
            <Node pos="r" depth="3" NCoef="0" IVar="-1" Cut="0.0000000000000000e+00" cType="1" res="-8.7292892858386040e-03" rms="3.8379225134849548e-01" purity="5.1263803243637085e-01" nType="-99"/>
          </Node>
          <Node pos="r" depth="2" NCoef="0" IVar="8" Cut="-6.6661530733108521e-01" cType="1" res="9.4987209886312485e-03" rms="3.9013484120368958e-01" purity="5.0621503591537476e-01" nType="0">
            <Node pos="l" depth="3" NCoef="0" IVar="-1" Cut="0.0000000000000000e+00" cType="1" res="1.6259282827377319e-02" rms="3.9225158095359802e-01" purity="4.6864771842956543e-01" nType="-99"/>
            <Node pos="r" depth="3" NCoef="0" IVar="-1" Cut="0.0000000000000000e+00" cType="1" res="2.2779353894293308e-03" rms="3.8912934064865112e-01" purity="5.2105587720870972e-01" nType="-99"/>
          </Node>
        </Node>
        <Node pos="r" depth="1" NCoef="0" IVar="9" Cut="9.3337947130203247e-01" cType="1" res="-7.6750493608415127e-03" rms="3.7797334790229797e-01" purity="4.7510227560997009e-01" nType="0">
          <Node pos="l" depth="2" NCoef="0" IVar="0" Cut="4.3467245483398438e+02" cType="1" res="-1.2672505341470242e-02" rms="3.7780708074569702e-01" purity="4.9394661188125610e-01" nType="0">
            <Node pos="l" depth="3" NCoef="0" IVar="-1" Cut="0.0000000000000000e+00" cType="1" res="-1.2446535751223564e-02" rms="3.8562774658203125e-01" purity="3.2096302509307861e-01" nType="-99"/>
            <Node pos="r" depth="3" NCoef="0" IVar="-1" Cut="0.0000000000000000e+00" cType="1" res="-3.7598409689962864e-03" rms="3.6797925829887390e-01" purity="7.0334351062774658e-01" nType="-99"/>
          </Node>
          <Node pos="r" depth="2" NCoef="0" IVar="0" Cut="4.0905813598632812e+02" cType="1" res="5.4898266680538654e-03" rms="3.7809494137763977e-01" purity="4.2546012997627258e-01" nType="0">
            <Node pos="l" depth="3" NCoef="0" IVar="-1" Cut="0.0000000000000000e+00" cType="1" res="-3.1261146068572998e-03" rms="3.6518070101737976e-01" purity="2.5122997164726257e-01" nType="-99"/>
            <Node pos="r" depth="3" NCoef="0" IVar="-1" Cut="0.0000000000000000e+00" cType="1" res="1.0288801044225693e-02" rms="3.9043217897415161e-01" purity="6.0099208354949951e-01" nType="-99"/>
          </Node>
        </Node>
      </Node>
    </BinaryTree>
    <BinaryTree type="DecisionTree" boostWeight="1.0000000000000000e+00" itree="647">
      <Node pos="s" depth="0" NCoef="0" IVar="3" Cut="1.4581669616699219e+02" cType="1" res="2.3459372459910810e-04" rms="3.8083857297897339e-01" purity="5.0289350748062134e-01" nType="0">
        <Node pos="l" depth="1" NCoef="0" IVar="1" Cut="1.2736245117187500e+03" cType="1" res="-9.6762953326106071e-03" rms="3.5635647177696228e-01" purity="2.2874045372009277e-01" nType="0">
          <Node pos="l" depth="2" NCoef="0" IVar="5" Cut="7.6776275634765625e+01" cType="1" res="-1.5051994472742081e-02" rms="3.4583443403244019e-01" purity="1.8741394579410553e-01" nType="0">
            <Node pos="l" depth="3" NCoef="0" IVar="-1" Cut="0.0000000000000000e+00" cType="1" res="-7.1953358128666878e-03" rms="3.2380700111389160e-01" purity="1.4943660795688629e-01" nType="-99"/>
            <Node pos="r" depth="3" NCoef="0" IVar="-1" Cut="0.0000000000000000e+00" cType="1" res="-2.1233128383755684e-02" rms="4.0659368038177490e-01" purity="3.0677771568298340e-01" nType="-99"/>
          </Node>
          <Node pos="r" depth="2" NCoef="0" IVar="-1" Cut="0.0000000000000000e+00" cType="1" res="1.5003218315541744e-02" rms="4.2004406452178955e-01" purity="5.1414167881011963e-01" nType="-99"/>
        </Node>
        <Node pos="r" depth="1" NCoef="0" IVar="1" Cut="1.1043593750000000e+03" cType="1" res="3.3062156289815903e-03" rms="3.8806143403053284e-01" purity="5.8786010742187500e-01" nType="0">
          <Node pos="l" depth="2" NCoef="0" IVar="9" Cut="-6.6652882099151611e-01" cType="1" res="1.8164480105042458e-02" rms="4.1611450910568237e-01" purity="3.0747282505035400e-01" nType="0">
            <Node pos="l" depth="3" NCoef="0" IVar="-1" Cut="0.0000000000000000e+00" cType="1" res="-6.3213640823960304e-03" rms="3.9701721072196960e-01" purity="2.5376942753791809e-01" nType="-99"/>
            <Node pos="r" depth="3" NCoef="0" IVar="-1" Cut="0.0000000000000000e+00" cType="1" res="1.7878280952572823e-02" rms="4.2363876104354858e-01" purity="3.3105617761611938e-01" nType="-99"/>
          </Node>
          <Node pos="r" depth="2" NCoef="0" IVar="9" Cut="1.4665825366973877e+00" cType="1" res="-2.6328355306759477e-04" rms="3.8092812895774841e-01" purity="6.5521943569183350e-01" nType="0">
            <Node pos="l" depth="3" NCoef="0" IVar="-1" Cut="0.0000000000000000e+00" cType="1" res="1.6284661833196878e-03" rms="3.7910646200180054e-01" purity="6.6842895746231079e-01" nType="-99"/>
            <Node pos="r" depth="3" NCoef="0" IVar="-1" Cut="0.0000000000000000e+00" cType="1" res="-1.4632522128522396e-02" rms="3.9543607831001282e-01" purity="5.4218447208404541e-01" nType="-99"/>
          </Node>
        </Node>
      </Node>
    </BinaryTree>
    <BinaryTree type="DecisionTree" boostWeight="1.0000000000000000e+00" itree="648">
      <Node pos="s" depth="0" NCoef="0" IVar="2" Cut="3.5034759521484375e+02" cType="1" res="1.9505391828715801e-03" rms="3.8078135251998901e-01" purity="5.0318998098373413e-01" nType="0">
        <Node pos="l" depth="1" NCoef="0" IVar="6" Cut="6.8354243040084839e-01" cType="1" res="7.9076215624809265e-03" rms="3.8772806525230408e-01" purity="4.6940517425537109e-01" nType="0">
          <Node pos="l" depth="2" NCoef="0" IVar="0" Cut="3.9976995849609375e+02" cType="1" res="1.3967508450150490e-02" rms="3.9636075496673584e-01" purity="5.0983977317810059e-01" nType="0">
            <Node pos="l" depth="3" NCoef="0" IVar="-1" Cut="0.0000000000000000e+00" cType="1" res="1.3170612975955009e-02" rms="4.0862762928009033e-01" purity="3.7509649991989136e-01" nType="-99"/>
            <Node pos="r" depth="3" NCoef="0" IVar="-1" Cut="0.0000000000000000e+00" cType="1" res="3.3690123818814754e-03" rms="3.8129451870918274e-01" purity="6.6771280765533447e-01" nType="-99"/>
          </Node>
          <Node pos="r" depth="2" NCoef="0" IVar="1" Cut="1.0938750000000000e+03" cType="1" res="-9.6052968874573708e-03" rms="3.6105200648307800e-01" purity="3.5255023837089539e-01" nType="0">
            <Node pos="l" depth="3" NCoef="0" IVar="-1" Cut="0.0000000000000000e+00" cType="1" res="-2.2456860169768333e-02" rms="3.1716629862785339e-01" purity="1.4826384186744690e-01" nType="-99"/>
            <Node pos="r" depth="3" NCoef="0" IVar="-1" Cut="0.0000000000000000e+00" cType="1" res="6.5735927782952785e-03" rms="4.0613952279090881e-01" purity="5.9525483846664429e-01" nType="-99"/>
          </Node>
        </Node>
        <Node pos="r" depth="1" NCoef="0" IVar="7" Cut="9.3341040611267090e-01" cType="1" res="-4.5929276384413242e-03" rms="3.7289211153984070e-01" purity="5.4030042886734009e-01" nType="0">
          <Node pos="l" depth="2" NCoef="0" IVar="5" Cut="7.6427978515625000e+01" cType="1" res="-2.2013310808688402e-03" rms="3.7379315495491028e-01" purity="5.7503741979598999e-01" nType="0">
            <Node pos="l" depth="3" NCoef="0" IVar="-1" Cut="0.0000000000000000e+00" cType="1" res="-7.6831411570310593e-03" rms="3.8473206758499146e-01" purity="3.6332228779792786e-01" nType="-99"/>
            <Node pos="r" depth="3" NCoef="0" IVar="-1" Cut="0.0000000000000000e+00" cType="1" res="2.9940006788820028e-03" rms="3.6628732085227966e-01" purity="7.1423161029815674e-01" nType="-99"/>
          </Node>
          <Node pos="r" depth="2" NCoef="0" IVar="7" Cut="1.7333681583404541e+00" cType="1" res="-1.5368198044598103e-02" rms="3.6861279606819153e-01" purity="3.8379371166229248e-01" nType="0">
            <Node pos="l" depth="3" NCoef="0" IVar="-1" Cut="0.0000000000000000e+00" cType="1" res="-1.7222372815012932e-02" rms="3.7385559082031250e-01" purity="4.4057467579841614e-01" nType="-99"/>
            <Node pos="r" depth="3" NCoef="0" IVar="-1" Cut="0.0000000000000000e+00" cType="1" res="7.8065195120871067e-03" rms="3.5427147150039673e-01" purity="2.4508535861968994e-01" nType="-99"/>
          </Node>
        </Node>
      </Node>
    </BinaryTree>
    <BinaryTree type="DecisionTree" boostWeight="1.0000000000000000e+00" itree="649">
      <Node pos="s" depth="0" NCoef="0" IVar="2" Cut="6.3697155761718750e+02" cType="1" res="1.8987369548995048e-04" rms="3.8209915161132812e-01" purity="4.9783971905708313e-01" nType="0">
        <Node pos="l" depth="1" NCoef="0" IVar="3" Cut="1.6207316589355469e+02" cType="1" res="1.6005198704078794e-03" rms="3.8164848089218140e-01" purity="4.9289581179618835e-01" nType="0">
          <Node pos="l" depth="2" NCoef="0" IVar="1" Cut="9.7144488525390625e+02" cType="1" res="1.1126998811960220e-02" rms="3.7664932012557983e-01" purity="2.7742540836334229e-01" nType="0">
            <Node pos="l" depth="3" NCoef="0" IVar="-1" Cut="0.0000000000000000e+00" cType="1" res="-2.8411918319761753e-03" rms="3.3197259902954102e-01" purity="1.4704647660255432e-01" nType="-99"/>
            <Node pos="r" depth="3" NCoef="0" IVar="-1" Cut="0.0000000000000000e+00" cType="1" res="1.2818845920264721e-02" rms="4.0245008468627930e-01" purity="3.6109334230422974e-01" nType="-99"/>
          </Node>
          <Node pos="r" depth="2" NCoef="0" IVar="0" Cut="3.6941436767578125e+02" cType="1" res="-3.2037917990237474e-03" rms="3.8405528664588928e-01" purity="6.0155999660491943e-01" nType="0">
            <Node pos="l" depth="3" NCoef="0" IVar="-1" Cut="0.0000000000000000e+00" cType="1" res="-6.8562198430299759e-03" rms="4.0751013159751892e-01" purity="3.7008991837501526e-01" nType="-99"/>
            <Node pos="r" depth="3" NCoef="0" IVar="-1" Cut="0.0000000000000000e+00" cType="1" res="3.3993014949373901e-04" rms="3.7317624688148499e-01" purity="7.0371305942535400e-01" nType="-99"/>
          </Node>
        </Node>
        <Node pos="r" depth="1" NCoef="0" IVar="7" Cut="-1.3354460895061493e-01" cType="1" res="-2.1585144102573395e-02" rms="3.8834011554718018e-01" purity="5.7415473461151123e-01" nType="0">
          <Node pos="l" depth="2" NCoef="0" IVar="-1" Cut="0.0000000000000000e+00" cType="1" res="-2.8261242434382439e-02" rms="3.8592991232872009e-01" purity="5.4667526483535767e-01" nType="-99"/>
          <Node pos="r" depth="2" NCoef="0" IVar="-1" Cut="0.0000000000000000e+00" cType="1" res="-2.8243497945368290e-03" rms="3.8927319645881653e-01" purity="5.9466403722763062e-01" nType="-99"/>
        </Node>
      </Node>
    </BinaryTree>
    <BinaryTree type="DecisionTree" boostWeight="1.0000000000000000e+00" itree="650">
      <Node pos="s" depth="0" NCoef="0" IVar="8" Cut="-1.2000048160552979e+00" cType="1" res="2.4519690778106451e-03" rms="3.8458707928657532e-01" purity="5.0261706113815308e-01" nType="0">
        <Node pos="l" depth="1" NCoef="0" IVar="1" Cut="1.1041934814453125e+03" cType="1" res="1.3198066502809525e-02" rms="3.8360378146171570e-01" purity="3.7972161173820496e-01" nType="0">
          <Node pos="l" depth="2" NCoef="0" IVar="-1" Cut="0.0000000000000000e+00" cType="1" res="2.7374198660254478e-02" rms="3.6058306694030762e-01" purity="1.9455623626708984e-01" nType="-99"/>
          <Node pos="r" depth="2" NCoef="0" IVar="6" Cut="-1.0425842553377151e-01" cType="1" res="1.5438314294442534e-03" rms="3.9749512076377869e-01" purity="5.0071239471435547e-01" nType="0">
            <Node pos="l" depth="3" NCoef="0" IVar="-1" Cut="0.0000000000000000e+00" cType="1" res="-6.2821083702147007e-03" rms="3.9792257547378540e-01" purity="4.8602586984634399e-01" nType="-99"/>
            <Node pos="r" depth="3" NCoef="0" IVar="-1" Cut="0.0000000000000000e+00" cType="1" res="7.9664811491966248e-03" rms="3.9674502611160278e-01" purity="5.1502609252929688e-01" nType="-99"/>
          </Node>
        </Node>
        <Node pos="r" depth="1" NCoef="0" IVar="8" Cut="2.2284710407257080e+00" cType="1" res="4.6313452185131609e-04" rms="3.8473588228225708e-01" purity="5.2536189556121826e-01" nType="0">
          <Node pos="l" depth="2" NCoef="0" IVar="8" Cut="1.9019507169723511e+00" cType="1" res="1.2658421183004975e-03" rms="3.8650637865066528e-01" purity="5.3515970706939697e-01" nType="0">
            <Node pos="l" depth="3" NCoef="0" IVar="-1" Cut="0.0000000000000000e+00" cType="1" res="1.2126940418966115e-04" rms="3.8698443770408630e-01" purity="5.4273444414138794e-01" nType="-99"/>
            <Node pos="r" depth="3" NCoef="0" IVar="-1" Cut="0.0000000000000000e+00" cType="1" res="2.4649649858474731e-02" rms="3.7085467576980591e-01" purity="3.1361129879951477e-01" nType="-99"/>
          </Node>
          <Node pos="r" depth="2" NCoef="0" IVar="-1" Cut="0.0000000000000000e+00" cType="1" res="-2.1756410598754883e-02" rms="3.2062152028083801e-01" purity="2.0593564212322235e-01" nType="-99"/>
        </Node>
      </Node>
    </BinaryTree>
    <BinaryTree type="DecisionTree" boostWeight="1.0000000000000000e+00" itree="651">
      <Node pos="s" depth="0" NCoef="0" IVar="8" Cut="-4.0000376105308533e-01" cType="1" res="2.5820776354521513e-03" rms="3.8311016559600830e-01" purity="5.0417739152908325e-01" nType="0">
        <Node pos="l" depth="1" NCoef="0" IVar="7" Cut="-9.3321877717971802e-01" cType="1" res="-4.0537039749324322e-03" rms="3.8283559679985046e-01" purity="4.7002524137496948e-01" nType="0">
          <Node pos="l" depth="2" NCoef="0" IVar="9" Cut="-6.6665148735046387e-01" cType="1" res="1.1350785382091999e-02" rms="3.7655532360076904e-01" purity="3.6474126577377319e-01" nType="0">
            <Node pos="l" depth="3" NCoef="0" IVar="-1" Cut="0.0000000000000000e+00" cType="1" res="-9.1434204950928688e-03" rms="3.5653549432754517e-01" purity="2.7723076939582825e-01" nType="-99"/>
            <Node pos="r" depth="3" NCoef="0" IVar="-1" Cut="0.0000000000000000e+00" cType="1" res="1.8955603241920471e-02" rms="3.8853207230567932e-01" purity="4.2286720871925354e-01" nType="-99"/>
          </Node>
          <Node pos="r" depth="2" NCoef="0" IVar="7" Cut="-5.7764703035354614e-01" cType="1" res="-9.0147340670228004e-03" rms="3.8470503687858582e-01" purity="5.0393205881118774e-01" nType="0">
            <Node pos="l" depth="3" NCoef="0" IVar="-1" Cut="0.0000000000000000e+00" cType="1" res="-2.1514222025871277e-02" rms="4.0140545368194580e-01" purity="4.8038026690483093e-01" nType="-99"/>
            <Node pos="r" depth="3" NCoef="0" IVar="-1" Cut="0.0000000000000000e+00" cType="1" res="-3.4761484712362289e-03" rms="3.8201963901519775e-01" purity="5.0742882490158081e-01" nType="-99"/>
          </Node>
        </Node>
        <Node pos="r" depth="1" NCoef="0" IVar="9" Cut="2.0000123977661133e+00" cType="1" res="6.4299437217414379e-03" rms="3.8321664929389954e-01" purity="5.2398109436035156e-01" nType="0">
          <Node pos="l" depth="2" NCoef="0" IVar="9" Cut="1.7148987948894501e-01" cType="1" res="7.7130589634180069e-03" rms="3.8410183787345886e-01" purity="5.3470808267593384e-01" nType="0">
            <Node pos="l" depth="3" NCoef="0" IVar="-1" Cut="0.0000000000000000e+00" cType="1" res="2.0113652572035789e-03" rms="3.8268676400184631e-01" purity="5.4030311107635498e-01" nType="-99"/>
            <Node pos="r" depth="3" NCoef="0" IVar="-1" Cut="0.0000000000000000e+00" cType="1" res="9.1783339157700539e-03" rms="3.8579770922660828e-01" purity="5.2764892578125000e-01" nType="-99"/>
          </Node>
          <Node pos="r" depth="2" NCoef="0" IVar="-1" Cut="0.0000000000000000e+00" cType="1" res="-1.0640248656272888e-02" rms="3.6765408515930176e-01" purity="3.4694442152976990e-01" nType="-99"/>
        </Node>
      </Node>
    </BinaryTree>
    <BinaryTree type="DecisionTree" boostWeight="1.0000000000000000e+00" itree="652">
      <Node pos="s" depth="0" NCoef="0" IVar="7" Cut="1.3338765501976013e-01" cType="1" res="8.9330089394934475e-05" rms="3.8277733325958252e-01" purity="5.0106191635131836e-01" nType="0">
        <Node pos="l" depth="1" NCoef="0" IVar="8" Cut="3.9991351962089539e-01" cType="1" res="4.6128951944410801e-03" rms="3.8384395837783813e-01" purity="5.1507085561752319e-01" nType="0">
          <Node pos="l" depth="2" NCoef="0" IVar="8" Cut="-1.8857239484786987e+00" cType="1" res="-1.2649418786168098e-03" rms="3.8170769810676575e-01" purity="5.2334028482437134e-01" nType="0">
            <Node pos="l" depth="3" NCoef="0" IVar="-1" Cut="0.0000000000000000e+00" cType="1" res="1.7556583508849144e-02" rms="3.7105059623718262e-01" purity="3.0066925287246704e-01" nType="-99"/>
            <Node pos="r" depth="3" NCoef="0" IVar="-1" Cut="0.0000000000000000e+00" cType="1" res="-2.5367226917296648e-03" rms="3.8269299268722534e-01" purity="5.4617899656295776e-01" nType="-99"/>
          </Node>
          <Node pos="r" depth="2" NCoef="0" IVar="8" Cut="7.4276179075241089e-01" cType="1" res="1.6345098614692688e-02" rms="3.8780656456947327e-01" purity="4.9856513738632202e-01" nType="0">
            <Node pos="l" depth="3" NCoef="0" IVar="-1" Cut="0.0000000000000000e+00" cType="1" res="2.4634104222059250e-02" rms="3.9037641882896423e-01" purity="6.2602317333221436e-01" nType="-99"/>
            <Node pos="r" depth="3" NCoef="0" IVar="-1" Cut="0.0000000000000000e+00" cType="1" res="4.5638112351298332e-03" rms="3.8623103499412537e-01" purity="4.3905350565910339e-01" nType="-99"/>
          </Node>
        </Node>
        <Node pos="r" depth="1" NCoef="0" IVar="6" Cut="6.7993396520614624e-01" cType="1" res="-5.4617556743323803e-03" rms="3.8139098882675171e-01" purity="4.8387077450752258e-01" nType="0">
          <Node pos="l" depth="2" NCoef="0" IVar="7" Cut="1.7841236591339111e+00" cType="1" res="-9.5717115327715874e-03" rms="3.8547089695930481e-01" purity="5.2149736881256104e-01" nType="0">
            <Node pos="l" depth="3" NCoef="0" IVar="-1" Cut="0.0000000000000000e+00" cType="1" res="-4.4327434152364731e-03" rms="3.9243844151496887e-01" purity="5.6127601861953735e-01" nType="-99"/>
            <Node pos="r" depth="3" NCoef="0" IVar="-1" Cut="0.0000000000000000e+00" cType="1" res="-2.4202471598982811e-02" rms="3.2440251111984253e-01" purity="2.0702250301837921e-01" nType="-99"/>
          </Node>
          <Node pos="r" depth="2" NCoef="0" IVar="0" Cut="4.8897265625000000e+02" cType="1" res="5.8758161030709743e-03" rms="3.6966627836227417e-01" purity="3.8007557392120361e-01" nType="0">
            <Node pos="l" depth="3" NCoef="0" IVar="-1" Cut="0.0000000000000000e+00" cType="1" res="1.3512975536286831e-02" rms="3.7160086631774902e-01" purity="2.8726580739021301e-01" nType="-99"/>
            <Node pos="r" depth="3" NCoef="0" IVar="-1" Cut="0.0000000000000000e+00" cType="1" res="-1.9274048507213593e-02" rms="3.6189755797386169e-01" purity="6.4835941791534424e-01" nType="-99"/>
          </Node>
        </Node>
      </Node>
    </BinaryTree>
    <BinaryTree type="DecisionTree" boostWeight="1.0000000000000000e+00" itree="653">
      <Node pos="s" depth="0" NCoef="0" IVar="6" Cut="-1.4534957408905029e+00" cType="1" res="-4.8196557909250259e-03" rms="3.8243037462234497e-01" purity="4.9458998441696167e-01" nType="0">
        <Node pos="l" depth="1" NCoef="0" IVar="5" Cut="7.2915245056152344e+01" cType="1" res="1.7372474074363708e-02" rms="3.3301776647567749e-01" purity="2.4087867140769958e-01" nType="0">
          <Node pos="l" depth="2" NCoef="0" IVar="-1" Cut="0.0000000000000000e+00" cType="1" res="3.0228422838263214e-04" rms="2.7725642919540405e-01" purity="1.1831520497798920e-01" nType="-99"/>
          <Node pos="r" depth="2" NCoef="0" IVar="-1" Cut="0.0000000000000000e+00" cType="1" res="2.3542217910289764e-02" rms="3.7882700562477112e-01" purity="3.6035749316215515e-01" nType="-99"/>
        </Node>
        <Node pos="r" depth="1" NCoef="0" IVar="8" Cut="-1.9999819993972778e+00" cType="1" res="-6.5357987768948078e-03" rms="3.8593494892120361e-01" purity="5.1420974731445312e-01" nType="0">
          <Node pos="l" depth="2" NCoef="0" IVar="-1" Cut="0.0000000000000000e+00" cType="1" res="-2.4166394025087357e-02" rms="3.4273076057434082e-01" purity="2.3507604002952576e-01" nType="-99"/>
          <Node pos="r" depth="2" NCoef="0" IVar="8" Cut="-1.3142684698104858e+00" cType="1" res="-5.4934062063694000e-03" rms="3.8757795095443726e-01" purity="5.2572149038314819e-01" nType="0">
            <Node pos="l" depth="3" NCoef="0" IVar="-1" Cut="0.0000000000000000e+00" cType="1" res="7.4264029972255230e-03" rms="4.0362054109573364e-01" purity="4.2680549621582031e-01" nType="-99"/>
            <Node pos="r" depth="3" NCoef="0" IVar="-1" Cut="0.0000000000000000e+00" cType="1" res="-4.7572711482644081e-03" rms="3.8594371080398560e-01" purity="5.3532731533050537e-01" nType="-99"/>
          </Node>
        </Node>
      </Node>
    </BinaryTree>
    <BinaryTree type="DecisionTree" boostWeight="1.0000000000000000e+00" itree="654">
      <Node pos="s" depth="0" NCoef="0" IVar="6" Cut="-3.7999176979064941e-01" cType="1" res="5.6723048910498619e-03" rms="3.8415813446044922e-01" purity="5.0300079584121704e-01" nType="0">
        <Node pos="l" depth="1" NCoef="0" IVar="1" Cut="1.0948590087890625e+03" cType="1" res="1.2312529608607292e-02" rms="3.8280662894248962e-01" purity="4.5915552973747253e-01" nType="0">
          <Node pos="l" depth="2" NCoef="0" IVar="1" Cut="9.6849261474609375e+02" cType="1" res="-4.8758238554000854e-03" rms="3.5184448957443237e-01" purity="1.8666854500770569e-01" nType="0">
            <Node pos="l" depth="3" NCoef="0" IVar="-1" Cut="0.0000000000000000e+00" cType="1" res="8.0270599573850632e-03" rms="3.2092806696891785e-01" purity="1.4044719934463501e-01" nType="-99"/>
            <Node pos="r" depth="3" NCoef="0" IVar="-1" Cut="0.0000000000000000e+00" cType="1" res="-1.1435690335929394e-02" rms="3.7822169065475464e-01" purity="2.3014940321445465e-01" nType="-99"/>
          </Node>
          <Node pos="r" depth="2" NCoef="0" IVar="6" Cut="-1.5156294107437134e+00" cType="1" res="2.0404623821377754e-02" rms="3.9628913998603821e-01" purity="5.8743947744369507e-01" nType="0">
            <Node pos="l" depth="3" NCoef="0" IVar="-1" Cut="0.0000000000000000e+00" cType="1" res="-6.7693395540118217e-03" rms="3.6654692888259888e-01" purity="2.8896176815032959e-01" nType="-99"/>
            <Node pos="r" depth="3" NCoef="0" IVar="-1" Cut="0.0000000000000000e+00" cType="1" res="1.5562075190246105e-02" rms="4.0057414770126343e-01" purity="6.3453608751296997e-01" nType="-99"/>
          </Node>
        </Node>
        <Node pos="r" depth="1" NCoef="0" IVar="8" Cut="1.7332723140716553e+00" cType="1" res="2.1784233395010233e-03" rms="3.8482132554054260e-01" purity="5.2607077360153198e-01" nType="0">
          <Node pos="l" depth="2" NCoef="0" IVar="8" Cut="6.5394812822341919e-01" cType="1" res="3.7658300716429949e-03" rms="3.8700613379478455e-01" purity="5.4541772603988647e-01" nType="0">
            <Node pos="l" depth="3" NCoef="0" IVar="-1" Cut="0.0000000000000000e+00" cType="1" res="-9.8778936080634594e-04" rms="3.8399571180343628e-01" purity="5.5617088079452515e-01" nType="-99"/>
            <Node pos="r" depth="3" NCoef="0" IVar="-1" Cut="0.0000000000000000e+00" cType="1" res="1.2622755952179432e-02" rms="3.9539685845375061e-01" purity="5.1350575685501099e-01" nType="-99"/>
          </Node>
          <Node pos="r" depth="2" NCoef="0" IVar="-1" Cut="0.0000000000000000e+00" cType="1" res="-1.4519903808832169e-02" rms="3.5355606675148010e-01" purity="2.6678863167762756e-01" nType="-99"/>
        </Node>
      </Node>
    </BinaryTree>
    <BinaryTree type="DecisionTree" boostWeight="1.0000000000000000e+00" itree="655">
      <Node pos="s" depth="0" NCoef="0" IVar="9" Cut="9.3333864212036133e-01" cType="1" res="2.0473452750593424e-03" rms="3.8487651944160461e-01" purity="5.0197148323059082e-01" nType="0">
        <Node pos="l" depth="1" NCoef="0" IVar="1" Cut="1.4052860107421875e+03" cType="1" res="-1.1095727095380425e-03" rms="3.8363531231880188e-01" purity="5.1746374368667603e-01" nType="0">
          <Node pos="l" depth="2" NCoef="0" IVar="5" Cut="5.9554718017578125e+01" cType="1" res="2.4639486800879240e-03" rms="4.0015485882759094e-01" purity="3.8325059413909912e-01" nType="0">
            <Node pos="l" depth="3" NCoef="0" IVar="-1" Cut="0.0000000000000000e+00" cType="1" res="-1.0870182886719704e-02" rms="3.4855198860168457e-01" purity="1.9588440656661987e-01" nType="-99"/>
            <Node pos="r" depth="3" NCoef="0" IVar="-1" Cut="0.0000000000000000e+00" cType="1" res="4.4553801417350769e-03" rms="4.1509309411048889e-01" purity="4.4285270571708679e-01" nType="-99"/>
          </Node>
          <Node pos="r" depth="2" NCoef="0" IVar="6" Cut="9.3553704023361206e-01" cType="1" res="-7.3298956267535686e-03" rms="3.5295489430427551e-01" purity="7.5108450651168823e-01" nType="0">
            <Node pos="l" depth="3" NCoef="0" IVar="-1" Cut="0.0000000000000000e+00" cType="1" res="-3.4601732622832060e-03" rms="3.5195538401603699e-01" purity="7.6909381151199341e-01" nType="-99"/>
            <Node pos="r" depth="3" NCoef="0" IVar="-1" Cut="0.0000000000000000e+00" cType="1" res="-2.1680360659956932e-02" rms="3.5959631204605103e-01" purity="6.1534678936004639e-01" nType="-99"/>
          </Node>
        </Node>
        <Node pos="r" depth="1" NCoef="0" IVar="8" Cut="1.1999970674514771e+00" cType="1" res="1.2200591154396534e-02" rms="3.8866782188415527e-01" purity="4.5214548707008362e-01" nType="0">
          <Node pos="l" depth="2" NCoef="0" IVar="4" Cut="1.3497886657714844e+02" cType="1" res="6.8634371273219585e-03" rms="3.9417734742164612e-01" purity="4.8443257808685303e-01" nType="0">
            <Node pos="l" depth="3" NCoef="0" IVar="-1" Cut="0.0000000000000000e+00" cType="1" res="1.0578637011349201e-02" rms="3.9621579647064209e-01" purity="3.5737201571464539e-01" nType="-99"/>
            <Node pos="r" depth="3" NCoef="0" IVar="-1" Cut="0.0000000000000000e+00" cType="1" res="-4.6096215955913067e-03" rms="3.9084169268608093e-01" purity="6.6566240787506104e-01" nType="-99"/>
          </Node>
          <Node pos="r" depth="2" NCoef="0" IVar="-1" Cut="0.0000000000000000e+00" cType="1" res="2.5319382548332214e-02" rms="3.6497849225997925e-01" purity="3.2277610898017883e-01" nType="-99"/>
        </Node>
      </Node>
    </BinaryTree>
    <BinaryTree type="DecisionTree" boostWeight="1.0000000000000000e+00" itree="656">
      <Node pos="s" depth="0" NCoef="0" IVar="8" Cut="1.1999695301055908e+00" cType="1" res="1.1131144128739834e-03" rms="3.8341864943504333e-01" purity="5.0207972526550293e-01" nType="0">
        <Node pos="l" depth="1" NCoef="0" IVar="7" Cut="-1.4665353298187256e+00" cType="1" res="4.2561073787510395e-03" rms="3.8647300004959106e-01" purity="5.2892065048217773e-01" nType="0">
          <Node pos="l" depth="2" NCoef="0" IVar="8" Cut="-1.3343055546283722e-01" cType="1" res="-1.2551750987768173e-02" rms="3.5239157080650330e-01" purity="2.7096849679946899e-01" nType="0">
            <Node pos="l" depth="3" NCoef="0" IVar="-1" Cut="0.0000000000000000e+00" cType="1" res="-3.5467296838760376e-03" rms="3.5198354721069336e-01" purity="2.6519125699996948e-01" nType="-99"/>
            <Node pos="r" depth="3" NCoef="0" IVar="-1" Cut="0.0000000000000000e+00" cType="1" res="-2.0320184528827667e-02" rms="3.5264709591865540e-01" purity="2.8176689147949219e-01" nType="-99"/>
          </Node>
          <Node pos="r" depth="2" NCoef="0" IVar="4" Cut="9.6758255004882812e+01" cType="1" res="5.8513805270195007e-03" rms="3.8951516151428223e-01" purity="5.5340355634689331e-01" nType="0">
            <Node pos="l" depth="3" NCoef="0" IVar="-1" Cut="0.0000000000000000e+00" cType="1" res="1.0679196566343307e-02" rms="3.8981509208679199e-01" purity="2.8475993871688843e-01" nType="-99"/>
            <Node pos="r" depth="3" NCoef="0" IVar="-1" Cut="0.0000000000000000e+00" cType="1" res="1.4475043863058090e-03" rms="3.8934218883514404e-01" purity="6.5094447135925293e-01" nType="-99"/>
          </Node>
        </Node>
        <Node pos="r" depth="1" NCoef="0" IVar="2" Cut="3.1042813110351562e+02" cType="1" res="-1.7133455723524094e-02" rms="3.6464750766754150e-01" purity="3.4625515341758728e-01" nType="0">
          <Node pos="l" depth="2" NCoef="0" IVar="-1" Cut="0.0000000000000000e+00" cType="1" res="-2.6995842345058918e-03" rms="3.6431425809860229e-01" purity="3.2459291815757751e-01" nType="-99"/>
          <Node pos="r" depth="2" NCoef="0" IVar="3" Cut="2.1050384521484375e+02" cType="1" res="-2.6997348293662071e-02" rms="3.6458158493041992e-01" purity="3.6233502626419067e-01" nType="0">
            <Node pos="l" depth="3" NCoef="0" IVar="-1" Cut="0.0000000000000000e+00" cType="1" res="-1.2409159913659096e-02" rms="3.4416559338569641e-01" purity="2.3619286715984344e-01" nType="-99"/>
            <Node pos="r" depth="3" NCoef="0" IVar="-1" Cut="0.0000000000000000e+00" cType="1" res="-2.4905176833271980e-02" rms="3.8423064351081848e-01" purity="4.9305602908134460e-01" nType="-99"/>
          </Node>
        </Node>
      </Node>
    </BinaryTree>
    <BinaryTree type="DecisionTree" boostWeight="1.0000000000000000e+00" itree="657">
      <Node pos="s" depth="0" NCoef="0" IVar="8" Cut="-1.2000048160552979e+00" cType="1" res="2.8947046957910061e-03" rms="3.8574662804603577e-01" purity="5.0382214784622192e-01" nType="0">
        <Node pos="l" depth="1" NCoef="0" IVar="3" Cut="2.5114291381835938e+02" cType="1" res="-1.4434569515287876e-02" rms="3.7156763672828674e-01" purity="3.4739446640014648e-01" nType="0">
          <Node pos="l" depth="2" NCoef="0" IVar="3" Cut="1.5613258361816406e+02" cType="1" res="-2.2349819540977478e-02" rms="3.6457538604736328e-01" purity="2.8339138627052307e-01" nType="0">
            <Node pos="l" depth="3" NCoef="0" IVar="-1" Cut="0.0000000000000000e+00" cType="1" res="-2.7405072469264269e-03" rms="3.3826825022697449e-01" purity="1.8189911544322968e-01" nType="-99"/>
            <Node pos="r" depth="3" NCoef="0" IVar="-1" Cut="0.0000000000000000e+00" cType="1" res="-2.4832773953676224e-02" rms="3.8541966676712036e-01" purity="3.7254109978675842e-01" nType="-99"/>
          </Node>
          <Node pos="r" depth="2" NCoef="0" IVar="-1" Cut="0.0000000000000000e+00" cType="1" res="7.3898681439459324e-03" rms="3.9266294240951538e-01" purity="5.5894172191619873e-01" nType="-99"/>
        </Node>
        <Node pos="r" depth="1" NCoef="0" IVar="7" Cut="-1.1998883485794067e+00" cType="1" res="5.9388941153883934e-03" rms="3.8810405135154724e-01" purity="5.3130143880844116e-01" nType="0">
          <Node pos="l" depth="2" NCoef="0" IVar="7" Cut="-1.4284888505935669e+00" cType="1" res="2.3863693699240685e-02" rms="3.7515518069267273e-01" purity="3.6069750785827637e-01" nType="0">
            <Node pos="l" depth="3" NCoef="0" IVar="-1" Cut="0.0000000000000000e+00" cType="1" res="1.1128739453852177e-02" rms="3.5807693004608154e-01" purity="3.0556267499923706e-01" nType="-99"/>
            <Node pos="r" depth="3" NCoef="0" IVar="-1" Cut="0.0000000000000000e+00" cType="1" res="2.8380965813994408e-02" rms="4.1071474552154541e-01" purity="4.8670428991317749e-01" nType="-99"/>
          </Node>
          <Node pos="r" depth="2" NCoef="0" IVar="3" Cut="1.4559339904785156e+02" cType="1" res="3.3770389854907990e-03" rms="3.8985231518745422e-01" purity="5.5568450689315796e-01" nType="0">
            <Node pos="l" depth="3" NCoef="0" IVar="-1" Cut="0.0000000000000000e+00" cType="1" res="9.8592247813940048e-03" rms="3.8742616772651672e-01" purity="2.8614968061447144e-01" nType="-99"/>
            <Node pos="r" depth="3" NCoef="0" IVar="-1" Cut="0.0000000000000000e+00" cType="1" res="1.2957109720446169e-04" rms="3.9048105478286743e-01" purity="6.3233417272567749e-01" nType="-99"/>
          </Node>
        </Node>
      </Node>
    </BinaryTree>
    <BinaryTree type="DecisionTree" boostWeight="1.0000000000000000e+00" itree="658">
      <Node pos="s" depth="0" NCoef="0" IVar="9" Cut="-1.4666507244110107e+00" cType="1" res="-1.7570576164871454e-03" rms="3.8039553165435791e-01" purity="5.0396215915679932e-01" nType="0">
        <Node pos="l" depth="1" NCoef="0" IVar="3" Cut="2.5657852172851562e+02" cType="1" res="1.3901637867093086e-02" rms="3.8552859425544739e-01" purity="3.9738404750823975e-01" nType="0">
          <Node pos="l" depth="2" NCoef="0" IVar="2" Cut="2.9928881835937500e+02" cType="1" res="4.0654824115335941e-03" rms="3.7413746118545532e-01" purity="3.3469846844673157e-01" nType="0">
            <Node pos="l" depth="3" NCoef="0" IVar="-1" Cut="0.0000000000000000e+00" cType="1" res="2.3524133488535881e-02" rms="3.9398550987243652e-01" purity="3.4821617603302002e-01" nType="-99"/>
            <Node pos="r" depth="3" NCoef="0" IVar="-1" Cut="0.0000000000000000e+00" cType="1" res="-1.6707511618733406e-02" rms="3.5330483317375183e-01" purity="3.2260143756866455e-01" nType="-99"/>
          </Node>
          <Node pos="r" depth="2" NCoef="0" IVar="-1" Cut="0.0000000000000000e+00" cType="1" res="2.7807332575321198e-02" rms="4.1883149743080139e-01" purity="6.0111302137374878e-01" nType="-99"/>
        </Node>
        <Node pos="r" depth="1" NCoef="0" IVar="1" Cut="1.1041705322265625e+03" cType="1" res="-3.9232037961483002e-03" rms="3.7962913513183594e-01" purity="5.1870566606521606e-01" nType="0">
          <Node pos="l" depth="2" NCoef="0" IVar="0" Cut="3.3107211303710938e+02" cType="1" res="-1.3984029181301594e-02" rms="3.7627550959587097e-01" purity="2.2399209439754486e-01" nType="0">
            <Node pos="l" depth="3" NCoef="0" IVar="-1" Cut="0.0000000000000000e+00" cType="1" res="-6.6530762705951929e-04" rms="3.5482954978942871e-01" purity="1.9390837848186493e-01" nType="-99"/>
            <Node pos="r" depth="3" NCoef="0" IVar="-1" Cut="0.0000000000000000e+00" cType="1" res="-1.3303634710609913e-02" rms="3.8633626699447632e-01" purity="2.3895935714244843e-01" nType="-99"/>
          </Node>
          <Node pos="r" depth="2" NCoef="0" IVar="3" Cut="1.4206140136718750e+02" cType="1" res="4.5004807179793715e-04" rms="3.8099485635757446e-01" purity="6.4681208133697510e-01" nType="0">
            <Node pos="l" depth="3" NCoef="0" IVar="-1" Cut="0.0000000000000000e+00" cType="1" res="-1.1213961988687515e-02" rms="4.1164246201515198e-01" purity="3.7681815028190613e-01" nType="-99"/>
            <Node pos="r" depth="3" NCoef="0" IVar="-1" Cut="0.0000000000000000e+00" cType="1" res="1.5062885358929634e-03" rms="3.7807551026344299e-01" purity="6.7102742195129395e-01" nType="-99"/>
          </Node>
        </Node>
      </Node>
    </BinaryTree>
    <BinaryTree type="DecisionTree" boostWeight="1.0000000000000000e+00" itree="659">
      <Node pos="s" depth="0" NCoef="0" IVar="8" Cut="9.3326312303543091e-01" cType="1" res="-7.5635936809703708e-04" rms="3.8380557298660278e-01" purity="4.9694010615348816e-01" nType="0">
        <Node pos="l" depth="1" NCoef="0" IVar="6" Cut="1.4995734393596649e-01" cType="1" res="-3.7088999524712563e-03" rms="3.8336420059204102e-01" purity="5.2197003364562988e-01" nType="0">
          <Node pos="l" depth="2" NCoef="0" IVar="2" Cut="3.5034826660156250e+02" cType="1" res="-8.0326059833168983e-03" rms="3.8483470678329468e-01" purity="5.2879309654235840e-01" nType="0">
            <Node pos="l" depth="3" NCoef="0" IVar="-1" Cut="0.0000000000000000e+00" cType="1" res="-9.5285167917609215e-03" rms="3.9027854800224304e-01" purity="4.8280054330825806e-01" nType="-99"/>
            <Node pos="r" depth="3" NCoef="0" IVar="-1" Cut="0.0000000000000000e+00" cType="1" res="-7.0840591797605157e-04" rms="3.7895950675010681e-01" purity="5.7665586471557617e-01" nType="-99"/>
          </Node>
          <Node pos="r" depth="2" NCoef="0" IVar="8" Cut="3.9992818236351013e-01" cType="1" res="2.2422624751925468e-03" rms="3.8125070929527283e-01" purity="5.1257872581481934e-01" nType="0">
            <Node pos="l" depth="3" NCoef="0" IVar="-1" Cut="0.0000000000000000e+00" cType="1" res="4.9697617068886757e-03" rms="3.8261854648590088e-01" purity="5.1144462823867798e-01" nType="-99"/>
            <Node pos="r" depth="3" NCoef="0" IVar="-1" Cut="0.0000000000000000e+00" cType="1" res="-1.0799441486597061e-02" rms="3.7566387653350830e-01" purity="5.1670336723327637e-01" nType="-99"/>
          </Node>
        </Node>
        <Node pos="r" depth="1" NCoef="0" IVar="8" Cut="1.3777004480361938e+00" cType="1" res="1.0088369250297546e-02" rms="3.8522833585739136e-01" purity="4.0500488877296448e-01" nType="0">
          <Node pos="l" depth="2" NCoef="0" IVar="8" Cut="1.0602420568466187e+00" cType="1" res="2.2810027003288269e-02" rms="4.0276926755905151e-01" purity="5.0429910421371460e-01" nType="0">
            <Node pos="l" depth="3" NCoef="0" IVar="-1" Cut="0.0000000000000000e+00" cType="1" res="-2.9643075540661812e-03" rms="3.9982151985168457e-01" purity="4.9721568822860718e-01" nType="-99"/>
            <Node pos="r" depth="3" NCoef="0" IVar="-1" Cut="0.0000000000000000e+00" cType="1" res="2.2158715873956680e-02" rms="4.0346986055374146e-01" purity="5.0741678476333618e-01" nType="-99"/>
          </Node>
          <Node pos="r" depth="2" NCoef="0" IVar="8" Cut="1.7163161039352417e+00" cType="1" res="1.8626747987582348e-05" rms="3.7044632434844971e-01" purity="3.2640922069549561e-01" nType="0">
            <Node pos="l" depth="3" NCoef="0" IVar="-1" Cut="0.0000000000000000e+00" cType="1" res="-1.0841895826160908e-02" rms="3.7588578462600708e-01" purity="3.9015802741050720e-01" nType="-99"/>
            <Node pos="r" depth="3" NCoef="0" IVar="-1" Cut="0.0000000000000000e+00" cType="1" res="7.8366957604885101e-03" rms="3.6652097105979919e-01" purity="2.8523823618888855e-01" nType="-99"/>
          </Node>
        </Node>
      </Node>
    </BinaryTree>
    <BinaryTree type="DecisionTree" boostWeight="1.0000000000000000e+00" itree="660">
      <Node pos="s" depth="0" NCoef="0" IVar="0" Cut="5.9407958984375000e+02" cType="1" res="2.3211312945932150e-03" rms="3.8389104604721069e-01" purity="5.0534796714782715e-01" nType="0">
        <Node pos="l" depth="1" NCoef="0" IVar="5" Cut="6.7585685729980469e+01" cType="1" res="4.1034687310457230e-03" rms="3.9016634225845337e-01" purity="4.5264250040054321e-01" nType="0">
          <Node pos="l" depth="2" NCoef="0" IVar="2" Cut="3.6782855224609375e+02" cType="1" res="1.1001233942806721e-02" rms="3.7337002158164978e-01" purity="2.6151716709136963e-01" nType="0">
            <Node pos="l" depth="3" NCoef="0" IVar="-1" Cut="0.0000000000000000e+00" cType="1" res="1.3968489132821560e-02" rms="3.8249501585960388e-01" purity="2.6961526274681091e-01" nType="-99"/>
            <Node pos="r" depth="3" NCoef="0" IVar="-1" Cut="0.0000000000000000e+00" cType="1" res="-3.7259871605783701e-03" rms="3.5578149557113647e-01" purity="2.4692186713218689e-01" nType="-99"/>
          </Node>
          <Node pos="r" depth="2" NCoef="0" IVar="1" Cut="1.4941933593750000e+03" cType="1" res="4.5725706149823964e-04" rms="3.9871105551719666e-01" purity="5.5367279052734375e-01" nType="0">
            <Node pos="l" depth="3" NCoef="0" IVar="-1" Cut="0.0000000000000000e+00" cType="1" res="-2.5899417232722044e-03" rms="4.1102501749992371e-01" purity="4.8643586039543152e-01" nType="-99"/>
            <Node pos="r" depth="3" NCoef="0" IVar="-1" Cut="0.0000000000000000e+00" cType="1" res="1.1200879700481892e-02" rms="3.5901644825935364e-01" purity="7.5456982851028442e-01" nType="-99"/>
          </Node>
        </Node>
        <Node pos="r" depth="1" NCoef="0" IVar="9" Cut="-9.3331497907638550e-01" cType="1" res="-7.5663756579160690e-03" rms="3.4685775637626648e-01" purity="7.9773104190826416e-01" nType="0">
          <Node pos="l" depth="2" NCoef="0" IVar="-1" Cut="0.0000000000000000e+00" cType="1" res="8.3039598539471626e-03" rms="3.5202148556709290e-01" purity="7.8613424301147461e-01" nType="-99"/>
          <Node pos="r" depth="2" NCoef="0" IVar="1" Cut="1.6535703125000000e+03" cType="1" res="-1.3129675760865211e-02" rms="3.4509739279747009e-01" purity="8.0121487379074097e-01" nType="0">
            <Node pos="l" depth="3" NCoef="0" IVar="-1" Cut="0.0000000000000000e+00" cType="1" res="-2.5963084772229195e-02" rms="3.9029788970947266e-01" purity="7.0826292037963867e-01" nType="-99"/>
            <Node pos="r" depth="3" NCoef="0" IVar="-1" Cut="0.0000000000000000e+00" cType="1" res="-2.1442396100610495e-03" rms="3.2064509391784668e-01" purity="8.4569907188415527e-01" nType="-99"/>
          </Node>
        </Node>
      </Node>
    </BinaryTree>
    <BinaryTree type="DecisionTree" boostWeight="1.0000000000000000e+00" itree="661">
      <Node pos="s" depth="0" NCoef="0" IVar="5" Cut="7.8109741210937500e+01" cType="1" res="-3.5871770232915878e-03" rms="3.8281095027923584e-01" purity="4.9835947155952454e-01" nType="0">
        <Node pos="l" depth="1" NCoef="0" IVar="1" Cut="1.4083382568359375e+03" cType="1" res="1.8783201230689883e-03" rms="3.8636878132820129e-01" purity="3.1815278530120850e-01" nType="0">
          <Node pos="l" depth="2" NCoef="0" IVar="2" Cut="3.8457058715820312e+02" cType="1" res="6.2878401950001717e-03" rms="3.8159635663032532e-01" purity="2.7208834886550903e-01" nType="0">
            <Node pos="l" depth="3" NCoef="0" IVar="-1" Cut="0.0000000000000000e+00" cType="1" res="1.6568202408961952e-04" rms="3.8610926270484924e-01" purity="2.8070753812789917e-01" nType="-99"/>
            <Node pos="r" depth="3" NCoef="0" IVar="-1" Cut="0.0000000000000000e+00" cType="1" res="1.8181504681706429e-02" rms="3.6748078465461731e-01" purity="2.4682857096195221e-01" nType="-99"/>
          </Node>
          <Node pos="r" depth="2" NCoef="0" IVar="5" Cut="6.0708389282226562e+01" cType="1" res="-2.0390590652823448e-02" rms="4.0889605879783630e-01" purity="5.5078679323196411e-01" nType="0">
            <Node pos="l" depth="3" NCoef="0" IVar="-1" Cut="0.0000000000000000e+00" cType="1" res="-2.9271567240357399e-02" rms="4.0153875946998596e-01" purity="4.5393073558807373e-01" nType="-99"/>
            <Node pos="r" depth="3" NCoef="0" IVar="-1" Cut="0.0000000000000000e+00" cType="1" res="-1.8767231376841664e-03" rms="4.1178539395332336e-01" purity="6.0300838947296143e-01" nType="-99"/>
          </Node>
        </Node>
        <Node pos="r" depth="1" NCoef="0" IVar="4" Cut="2.2251106262207031e+02" cType="1" res="-8.3328178152441978e-03" rms="3.7963086366653442e-01" purity="6.5483134984970093e-01" nType="0">
          <Node pos="l" depth="2" NCoef="0" IVar="1" Cut="1.3159595947265625e+03" cType="1" res="-1.1885032057762146e-02" rms="3.9051970839500427e-01" purity="6.1763924360275269e-01" nType="0">
            <Node pos="l" depth="3" NCoef="0" IVar="-1" Cut="0.0000000000000000e+00" cType="1" res="-1.2195573188364506e-02" rms="4.2472395300865173e-01" purity="4.5021489262580872e-01" nType="-99"/>
            <Node pos="r" depth="3" NCoef="0" IVar="-1" Cut="0.0000000000000000e+00" cType="1" res="-2.5224848650395870e-03" rms="3.5971307754516602e-01" purity="7.5541669130325317e-01" nType="-99"/>
          </Node>
          <Node pos="r" depth="2" NCoef="0" IVar="7" Cut="1.3341909646987915e-01" cType="1" res="8.9013809338212013e-03" rms="3.2105293869972229e-01" purity="8.3527553081512451e-01" nType="0">
            <Node pos="l" depth="3" NCoef="0" IVar="-1" Cut="0.0000000000000000e+00" cType="1" res="-2.5931978598237038e-03" rms="3.1612572073936462e-01" purity="8.3442848920822144e-01" nType="-99"/>
            <Node pos="r" depth="3" NCoef="0" IVar="-1" Cut="0.0000000000000000e+00" cType="1" res="1.9834460690617561e-02" rms="3.2631981372833252e-01" purity="8.3629167079925537e-01" nType="-99"/>
          </Node>
        </Node>
      </Node>
    </BinaryTree>
    <BinaryTree type="DecisionTree" boostWeight="1.0000000000000000e+00" itree="662">
      <Node pos="s" depth="0" NCoef="0" IVar="8" Cut="1.9999531507492065e+00" cType="1" res="-1.5795029466971755e-03" rms="3.8210633397102356e-01" purity="4.9681940674781799e-01" nType="0">
        <Node pos="l" depth="1" NCoef="0" IVar="4" Cut="9.6392768859863281e+01" cType="1" res="-2.4680953938513994e-03" rms="3.8327762484550476e-01" purity="5.0755006074905396e-01" nType="0">
          <Node pos="l" depth="2" NCoef="0" IVar="3" Cut="1.3275079345703125e+02" cType="1" res="-9.1892434284090996e-03" rms="3.6659777164459229e-01" purity="2.3527500033378601e-01" nType="0">
            <Node pos="l" depth="3" NCoef="0" IVar="-1" Cut="0.0000000000000000e+00" cType="1" res="1.4283276395872235e-03" rms="3.3682179450988770e-01" purity="1.7424844205379486e-01" nType="-99"/>
            <Node pos="r" depth="3" NCoef="0" IVar="-1" Cut="0.0000000000000000e+00" cType="1" res="-1.1995445936918259e-02" rms="3.9228639006614685e-01" purity="2.9270434379577637e-01" nType="-99"/>
          </Node>
          <Node pos="r" depth="2" NCoef="0" IVar="8" Cut="1.5428202152252197e+00" cType="1" res="1.4612002996727824e-04" rms="3.8954114913940430e-01" purity="6.1345249414443970e-01" nType="0">
            <Node pos="l" depth="3" NCoef="0" IVar="-1" Cut="0.0000000000000000e+00" cType="1" res="8.1328954547643661e-04" rms="3.8881298899650574e-01" purity="6.2260204553604126e-01" nType="-99"/>
            <Node pos="r" depth="3" NCoef="0" IVar="-1" Cut="0.0000000000000000e+00" cType="1" res="-1.4575993642210960e-02" rms="4.0429911017417908e-01" purity="4.1465663909912109e-01" nType="-99"/>
          </Node>
        </Node>
        <Node pos="r" depth="1" NCoef="0" IVar="-1" Cut="0.0000000000000000e+00" cType="1" res="1.4470262452960014e-02" rms="3.5502091050148010e-01" purity="2.6255625486373901e-01" nType="-99"/>
      </Node>
    </BinaryTree>
    <BinaryTree type="DecisionTree" boostWeight="1.0000000000000000e+00" itree="663">
      <Node pos="s" depth="0" NCoef="0" IVar="6" Cut="9.4494444131851196e-01" cType="1" res="1.5336399665102363e-03" rms="3.8102307915687561e-01" purity="5.0629675388336182e-01" nType="0">
        <Node pos="l" depth="1" NCoef="0" IVar="5" Cut="1.5527520751953125e+02" cType="1" res="-4.4039980275556445e-04" rms="3.8545414805412292e-01" purity="5.4052227735519409e-01" nType="0">
          <Node pos="l" depth="2" NCoef="0" IVar="9" Cut="1.2000030279159546e+00" cType="1" res="9.8972523119300604e-04" rms="3.9376097917556763e-01" purity="5.0596082210540771e-01" nType="0">
            <Node pos="l" depth="3" NCoef="0" IVar="-1" Cut="0.0000000000000000e+00" cType="1" res="-6.1152642592787743e-04" rms="3.9402818679809570e-01" purity="5.1283097267150879e-01" nType="-99"/>
            <Node pos="r" depth="3" NCoef="0" IVar="-1" Cut="0.0000000000000000e+00" cType="1" res="6.6387197002768517e-03" rms="3.9230599999427795e-01" purity="4.7225755453109741e-01" nType="-99"/>
          </Node>
          <Node pos="r" depth="2" NCoef="0" IVar="1" Cut="1.8761646728515625e+03" cType="1" res="-1.3837100006639957e-02" rms="2.9621306061744690e-01" purity="8.6427646875381470e-01" nType="0">
            <Node pos="l" depth="3" NCoef="0" IVar="-1" Cut="0.0000000000000000e+00" cType="1" res="-2.5542343035340309e-02" rms="3.1679868698120117e-01" purity="8.3265650272369385e-01" nType="-99"/>
            <Node pos="r" depth="3" NCoef="0" IVar="-1" Cut="0.0000000000000000e+00" cType="1" res="3.0522344168275595e-03" rms="2.6193374395370483e-01" purity="9.1114580631256104e-01" nType="-99"/>
          </Node>
        </Node>
        <Node pos="r" depth="1" NCoef="0" IVar="8" Cut="1.1997702121734619e+00" cType="1" res="1.1305646039545536e-02" rms="3.5812178254127502e-01" purity="3.3687138557434082e-01" nType="0">
          <Node pos="l" depth="2" NCoef="0" IVar="6" Cut="1.1216008663177490e+00" cType="1" res="1.7832515761256218e-02" rms="3.7119776010513306e-01" purity="3.7640193104743958e-01" nType="0">
            <Node pos="l" depth="3" NCoef="0" IVar="-1" Cut="0.0000000000000000e+00" cType="1" res="-7.0623252540826797e-03" rms="3.6183255910873413e-01" purity="4.9272322654724121e-01" nType="-99"/>
            <Node pos="r" depth="3" NCoef="0" IVar="-1" Cut="0.0000000000000000e+00" cType="1" res="2.1023085340857506e-02" rms="3.7377956509590149e-01" purity="3.3767378330230713e-01" nType="-99"/>
          </Node>
          <Node pos="r" depth="2" NCoef="0" IVar="-1" Cut="0.0000000000000000e+00" cType="1" res="-1.5374545939266682e-02" rms="2.9755109548568726e-01" purity="1.7589583992958069e-01" nType="-99"/>
        </Node>
      </Node>
    </BinaryTree>
    <BinaryTree type="DecisionTree" boostWeight="1.0000000000000000e+00" itree="664">
      <Node pos="s" depth="0" NCoef="0" IVar="9" Cut="1.4666489362716675e+00" cType="1" res="3.2792933052405715e-04" rms="3.8240039348602295e-01" purity="5.0008118152618408e-01" nType="0">
        <Node pos="l" depth="1" NCoef="0" IVar="4" Cut="9.7183288574218750e+01" cType="1" res="3.1377491541206837e-03" rms="3.8368931412696838e-01" purity="5.1646286249160767e-01" nType="0">
          <Node pos="l" depth="2" NCoef="0" IVar="7" Cut="-9.3325263261795044e-01" cType="1" res="-8.2128923386335373e-03" rms="3.6686921119689941e-01" purity="2.3561912775039673e-01" nType="0">
            <Node pos="l" depth="3" NCoef="0" IVar="-1" Cut="0.0000000000000000e+00" cType="1" res="1.2347194366157055e-02" rms="3.3881714940071106e-01" purity="1.9076196849346161e-01" nType="-99"/>
            <Node pos="r" depth="3" NCoef="0" IVar="-1" Cut="0.0000000000000000e+00" cType="1" res="-1.0452437214553356e-02" rms="3.7529709935188293e-01" purity="2.5027462840080261e-01" nType="-99"/>
          </Node>
          <Node pos="r" depth="2" NCoef="0" IVar="0" Cut="4.4205532836914062e+02" cType="1" res="7.5515913777053356e-03" rms="3.8994497060775757e-01" purity="6.2567257881164551e-01" nType="0">
            <Node pos="l" depth="3" NCoef="0" IVar="-1" Cut="0.0000000000000000e+00" cType="1" res="8.4104472771286964e-03" rms="4.2069205641746521e-01" purity="4.8020395636558533e-01" nType="-99"/>
            <Node pos="r" depth="3" NCoef="0" IVar="-1" Cut="0.0000000000000000e+00" cType="1" res="-4.3783916044048965e-04" rms="3.5234656929969788e-01" purity="7.8782963752746582e-01" nType="-99"/>
          </Node>
        </Node>
        <Node pos="r" depth="1" NCoef="0" IVar="8" Cut="1.1994758844375610e+00" cType="1" res="-2.0004328340291977e-02" rms="3.7230959534645081e-01" purity="3.8154080510139465e-01" nType="0">
          <Node pos="l" depth="2" NCoef="0" IVar="8" Cut="-3.2413294911384583e-01" cType="1" res="-3.0975874513387680e-02" rms="3.7551909685134888e-01" purity="4.1291707754135132e-01" nType="0">
            <Node pos="l" depth="3" NCoef="0" IVar="-1" Cut="0.0000000000000000e+00" cType="1" res="2.8868333902209997e-03" rms="3.8514894247055054e-01" purity="4.1718891263008118e-01" nType="-99"/>
            <Node pos="r" depth="3" NCoef="0" IVar="-1" Cut="0.0000000000000000e+00" cType="1" res="-4.0813662111759186e-02" rms="3.6442679166793823e-01" purity="4.0928110480308533e-01" nType="-99"/>
          </Node>
          <Node pos="r" depth="2" NCoef="0" IVar="-1" Cut="0.0000000000000000e+00" cType="1" res="1.6338657587766647e-02" rms="3.5745131969451904e-01" purity="2.6665434241294861e-01" nType="-99"/>
        </Node>
      </Node>
    </BinaryTree>
    <BinaryTree type="DecisionTree" boostWeight="1.0000000000000000e+00" itree="665">
      <Node pos="s" depth="0" NCoef="0" IVar="7" Cut="-3.9990219473838806e-01" cType="1" res="3.1527231913059950e-03" rms="3.8198292255401611e-01" purity="5.0624209642410278e-01" nType="0">
        <Node pos="l" depth="1" NCoef="0" IVar="0" Cut="5.3009124755859375e+02" cType="1" res="-5.5589196272194386e-03" rms="3.7731134891510010e-01" purity="4.5430421829223633e-01" nType="0">
          <Node pos="l" depth="2" NCoef="0" IVar="2" Cut="5.0148953247070312e+02" cType="1" res="-1.0640822350978851e-02" rms="3.8127997517585754e-01" purity="3.6438190937042236e-01" nType="0">
            <Node pos="l" depth="3" NCoef="0" IVar="-1" Cut="0.0000000000000000e+00" cType="1" res="-4.6816389076411724e-03" rms="3.8350933790206909e-01" purity="3.7019452452659607e-01" nType="-99"/>
            <Node pos="r" depth="3" NCoef="0" IVar="-1" Cut="0.0000000000000000e+00" cType="1" res="-2.8048433363437653e-02" rms="3.6019557714462280e-01" purity="3.1476122140884399e-01" nType="-99"/>
          </Node>
          <Node pos="r" depth="2" NCoef="0" IVar="5" Cut="9.5634094238281250e+01" cType="1" res="1.1527627706527710e-02" rms="3.6312919855117798e-01" purity="7.5664424896240234e-01" nType="0">
            <Node pos="l" depth="3" NCoef="0" IVar="-1" Cut="0.0000000000000000e+00" cType="1" res="1.2505045160651207e-02" rms="4.0782278776168823e-01" purity="6.5449565649032593e-01" nType="-99"/>
            <Node pos="r" depth="3" NCoef="0" IVar="-1" Cut="0.0000000000000000e+00" cType="1" res="8.2645541988313198e-04" rms="3.0612811446189880e-01" purity="8.6908328533172607e-01" nType="-99"/>
          </Node>
        </Node>
        <Node pos="r" depth="1" NCoef="0" IVar="9" Cut="-6.6667532920837402e-01" cType="1" res="7.8415451571345329e-03" rms="3.8439205288887024e-01" purity="5.3419637680053711e-01" nType="0">
          <Node pos="l" depth="2" NCoef="0" IVar="2" Cut="3.4929757690429688e+02" cType="1" res="1.6322836279869080e-02" rms="3.9184805750846863e-01" purity="5.2134120464324951e-01" nType="0">
            <Node pos="l" depth="3" NCoef="0" IVar="-1" Cut="0.0000000000000000e+00" cType="1" res="2.1956093609333038e-02" rms="3.9921411871910095e-01" purity="5.0884467363357544e-01" nType="-99"/>
            <Node pos="r" depth="3" NCoef="0" IVar="-1" Cut="0.0000000000000000e+00" cType="1" res="-3.5118553787469864e-03" rms="3.8190916180610657e-01" purity="5.3598695993423462e-01" nType="-99"/>
          </Node>
          <Node pos="r" depth="2" NCoef="0" IVar="2" Cut="3.3580688476562500e+02" cType="1" res="4.6427957713603973e-03" rms="3.8149321079254150e-01" purity="5.3904467821121216e-01" nType="0">
            <Node pos="l" depth="3" NCoef="0" IVar="-1" Cut="0.0000000000000000e+00" cType="1" res="-2.1106170024722815e-03" rms="3.9390143752098083e-01" purity="4.7878581285476685e-01" nType="-99"/>
            <Node pos="r" depth="3" NCoef="0" IVar="-1" Cut="0.0000000000000000e+00" cType="1" res="7.7951261773705482e-03" rms="3.7077966332435608e-01" purity="5.8892571926116943e-01" nType="-99"/>
          </Node>
        </Node>
      </Node>
    </BinaryTree>
    <BinaryTree type="DecisionTree" boostWeight="1.0000000000000000e+00" itree="666">
      <Node pos="s" depth="0" NCoef="0" IVar="2" Cut="6.5103735351562500e+02" cType="1" res="-2.8169229626655579e-03" rms="3.8281449675559998e-01" purity="4.9809744954109192e-01" nType="0">
        <Node pos="l" depth="1" NCoef="0" IVar="1" Cut="9.5601306152343750e+02" cType="1" res="-3.6665424704551697e-03" rms="3.8163793087005615e-01" purity="4.9270707368850708e-01" nType="0">
          <Node pos="l" depth="2" NCoef="0" IVar="0" Cut="3.3107681274414062e+02" cType="1" res="-1.5134173445403576e-02" rms="3.2490178942680359e-01" purity="1.4087072014808655e-01" nType="0">
            <Node pos="l" depth="3" NCoef="0" IVar="-1" Cut="0.0000000000000000e+00" cType="1" res="1.4231776585802436e-03" rms="3.1897103786468506e-01" purity="1.4259952306747437e-01" nType="-99"/>
            <Node pos="r" depth="3" NCoef="0" IVar="-1" Cut="0.0000000000000000e+00" cType="1" res="-2.2627646103501320e-02" rms="3.2872942090034485e-01" purity="1.3957324624061584e-01" nType="-99"/>
          </Node>
          <Node pos="r" depth="2" NCoef="0" IVar="4" Cut="7.6299224853515625e+01" cType="1" res="-1.8287749262526631e-03" rms="3.8993224501609802e-01" purity="5.4909127950668335e-01" nType="0">
            <Node pos="l" depth="3" NCoef="0" IVar="-1" Cut="0.0000000000000000e+00" cType="1" res="1.4182773418724537e-02" rms="3.6878708004951477e-01" purity="2.2745108604431152e-01" nType="-99"/>
            <Node pos="r" depth="3" NCoef="0" IVar="-1" Cut="0.0000000000000000e+00" cType="1" res="-2.4123550392687321e-03" rms="3.9181488752365112e-01" purity="5.7945567369461060e-01" nType="-99"/>
          </Node>
        </Node>
        <Node pos="r" depth="1" NCoef="0" IVar="4" Cut="1.4455725097656250e+02" cType="1" res="1.1218400672078133e-02" rms="4.0149256587028503e-01" purity="5.8714395761489868e-01" nType="0">
          <Node pos="l" depth="2" NCoef="0" IVar="-1" Cut="0.0000000000000000e+00" cType="1" res="1.7464371398091316e-02" rms="4.1275024414062500e-01" purity="4.9665579199790955e-01" nType="-99"/>
          <Node pos="r" depth="2" NCoef="0" IVar="-1" Cut="0.0000000000000000e+00" cType="1" res="-6.2071057036519051e-03" rms="3.8866493105888367e-01" purity="6.7865043878555298e-01" nType="-99"/>
        </Node>
      </Node>
    </BinaryTree>
    <BinaryTree type="DecisionTree" boostWeight="1.0000000000000000e+00" itree="667">
      <Node pos="s" depth="0" NCoef="0" IVar="7" Cut="-1.7332874536514282e+00" cType="1" res="-2.6413507293909788e-03" rms="3.8249924778938293e-01" purity="4.9785724282264709e-01" nType="0">
        <Node pos="l" depth="1" NCoef="0" IVar="7" Cut="-2.0380671024322510e+00" cType="1" res="1.8145885318517685e-02" rms="3.4607499837875366e-01" purity="2.2518642246723175e-01" nType="0">
          <Node pos="l" depth="2" NCoef="0" IVar="-1" Cut="0.0000000000000000e+00" cType="1" res="2.8714366257190704e-02" rms="3.3829009532928467e-01" purity="2.0004357397556305e-01" nType="-99"/>
          <Node pos="r" depth="2" NCoef="0" IVar="-1" Cut="0.0000000000000000e+00" cType="1" res="2.8023612685501575e-03" rms="3.5552376508712769e-01" purity="2.5824013352394104e-01" nType="-99"/>
        </Node>
        <Node pos="r" depth="1" NCoef="0" IVar="4" Cut="2.3910598754882812e+02" cType="1" res="-3.9173886179924011e-03" rms="3.8458621501922607e-01" purity="5.1459527015686035e-01" nType="0">
          <Node pos="l" depth="2" NCoef="0" IVar="5" Cut="5.8979980468750000e+01" cType="1" res="-5.2089220844209194e-03" rms="3.8828030228614807e-01" purity="4.8904639482498169e-01" nType="0">
            <Node pos="l" depth="3" NCoef="0" IVar="-1" Cut="0.0000000000000000e+00" cType="1" res="2.3078545928001404e-03" rms="3.7348791956901550e-01" purity="2.6065066456794739e-01" nType="-99"/>
            <Node pos="r" depth="3" NCoef="0" IVar="-1" Cut="0.0000000000000000e+00" cType="1" res="-4.5928326435387135e-03" rms="3.9164614677429199e-01" purity="5.4267090559005737e-01" nType="-99"/>
          </Node>
          <Node pos="r" depth="2" NCoef="0" IVar="6" Cut="-2.9870250821113586e-01" cType="1" res="1.1405900120735168e-02" rms="3.3731085062026978e-01" purity="8.1771761178970337e-01" nType="0">
            <Node pos="l" depth="3" NCoef="0" IVar="-1" Cut="0.0000000000000000e+00" cType="1" res="2.1972151473164558e-02" rms="3.4974938631057739e-01" purity="8.0219459533691406e-01" nType="-99"/>
            <Node pos="r" depth="3" NCoef="0" IVar="-1" Cut="0.0000000000000000e+00" cType="1" res="1.8094732658937573e-03" rms="3.2985508441925049e-01" purity="8.2629996538162231e-01" nType="-99"/>
          </Node>
        </Node>
      </Node>
    </BinaryTree>
    <BinaryTree type="DecisionTree" boostWeight="1.0000000000000000e+00" itree="668">
      <Node pos="s" depth="0" NCoef="0" IVar="3" Cut="2.2033171081542969e+02" cType="1" res="-5.0274698878638446e-05" rms="3.8282412290573120e-01" purity="4.9800780415534973e-01" nType="0">
        <Node pos="l" depth="1" NCoef="0" IVar="3" Cut="1.3149617004394531e+02" cType="1" res="4.3120561167597771e-03" rms="3.8701903820037842e-01" purity="3.9004155993461609e-01" nType="0">
          <Node pos="l" depth="2" NCoef="0" IVar="3" Cut="1.1995905303955078e+02" cType="1" res="-6.1648031696677208e-03" rms="3.4664511680603027e-01" purity="1.9841085374355316e-01" nType="0">
            <Node pos="l" depth="3" NCoef="0" IVar="-1" Cut="0.0000000000000000e+00" cType="1" res="3.8819271139800549e-04" rms="3.4311729669570923e-01" purity="1.8191599845886230e-01" nType="-99"/>
            <Node pos="r" depth="3" NCoef="0" IVar="-1" Cut="0.0000000000000000e+00" cType="1" res="-1.7450029030442238e-02" rms="3.5614982247352600e-01" purity="2.4717056751251221e-01" nType="-99"/>
          </Node>
          <Node pos="r" depth="2" NCoef="0" IVar="4" Cut="1.5516639709472656e+02" cType="1" res="8.7617021054029465e-03" rms="4.0286183357238770e-01" purity="4.7142940759658813e-01" nType="0">
            <Node pos="l" depth="3" NCoef="0" IVar="-1" Cut="0.0000000000000000e+00" cType="1" res="7.8516332432627678e-03" rms="4.0531745553016663e-01" purity="4.2254617810249329e-01" nType="-99"/>
            <Node pos="r" depth="3" NCoef="0" IVar="-1" Cut="0.0000000000000000e+00" cType="1" res="-5.3997146897017956e-03" rms="3.9273986220359802e-01" purity="6.6090655326843262e-01" nType="-99"/>
          </Node>
        </Node>
        <Node pos="r" depth="1" NCoef="0" IVar="7" Cut="-6.6621214151382446e-01" cType="1" res="-6.5251919440925121e-03" rms="3.7641832232475281e-01" purity="6.5825986862182617e-01" nType="0">
          <Node pos="l" depth="2" NCoef="0" IVar="7" Cut="-1.3772357702255249e+00" cType="1" res="-1.8996397033333778e-02" rms="3.7298616766929626e-01" purity="5.5944472551345825e-01" nType="0">
            <Node pos="l" depth="3" NCoef="0" IVar="-1" Cut="0.0000000000000000e+00" cType="1" res="-2.9870856553316116e-02" rms="3.5268971323966980e-01" purity="3.4098455309867859e-01" nType="-99"/>
            <Node pos="r" depth="3" NCoef="0" IVar="-1" Cut="0.0000000000000000e+00" cType="1" res="-6.5637915395200253e-03" rms="3.8041108846664429e-01" purity="6.4686310291290283e-01" nType="-99"/>
          </Node>
          <Node pos="r" depth="2" NCoef="0" IVar="8" Cut="1.1997934579849243e+00" cType="1" res="-2.7183422353118658e-03" rms="3.7737768888473511e-01" purity="6.8842327594757080e-01" nType="0">
            <Node pos="l" depth="3" NCoef="0" IVar="-1" Cut="0.0000000000000000e+00" cType="1" res="-4.2285937815904617e-03" rms="3.7098321318626404e-01" purity="7.0838648080825806e-01" nType="-99"/>
            <Node pos="r" depth="3" NCoef="0" IVar="-1" Cut="0.0000000000000000e+00" cType="1" res="1.0537280701100826e-02" rms="4.1560950875282288e-01" purity="5.5995154380798340e-01" nType="-99"/>
          </Node>
        </Node>
      </Node>
    </BinaryTree>
    <BinaryTree type="DecisionTree" boostWeight="1.0000000000000000e+00" itree="669">
      <Node pos="s" depth="0" NCoef="0" IVar="7" Cut="1.9999735355377197e+00" cType="1" res="1.7717785667628050e-03" rms="3.8456109166145325e-01" purity="5.0048720836639404e-01" nType="0">
        <Node pos="l" depth="1" NCoef="0" IVar="8" Cut="1.7332328557968140e+00" cType="1" res="7.2563387220725417e-04" rms="3.8562846183776855e-01" purity="5.1138174533843994e-01" nType="0">
          <Node pos="l" depth="2" NCoef="0" IVar="9" Cut="9.3335777521133423e-01" cType="1" res="-7.4922974454239011e-04" rms="3.8624849915504456e-01" purity="5.2607733011245728e-01" nType="0">
            <Node pos="l" depth="3" NCoef="0" IVar="-1" Cut="0.0000000000000000e+00" cType="1" res="-2.6505226269364357e-03" rms="3.8494125008583069e-01" purity="5.3634244203567505e-01" nType="-99"/>
            <Node pos="r" depth="3" NCoef="0" IVar="-1" Cut="0.0000000000000000e+00" cType="1" res="6.5366472117602825e-03" rms="3.9047804474830627e-01" purity="4.9104893207550049e-01" nType="-99"/>
          </Node>
          <Node pos="r" depth="2" NCoef="0" IVar="8" Cut="1.9871909618377686e+00" cType="1" res="2.0311525091528893e-02" rms="3.7675061821937561e-01" purity="3.1622752547264099e-01" nType="0">
            <Node pos="l" depth="3" NCoef="0" IVar="-1" Cut="0.0000000000000000e+00" cType="1" res="3.5072967410087585e-02" rms="4.1048771142959595e-01" purity="4.0886247158050537e-01" nType="-99"/>
            <Node pos="r" depth="3" NCoef="0" IVar="-1" Cut="0.0000000000000000e+00" cType="1" res="-1.2750588357448578e-03" rms="3.5141539573669434e-01" purity="2.5615248084068298e-01" nType="-99"/>
          </Node>
        </Node>
        <Node pos="r" depth="1" NCoef="0" IVar="-1" Cut="0.0000000000000000e+00" cType="1" res="2.5647532194852829e-02" rms="3.5431873798370361e-01" purity="2.1470986306667328e-01" nType="-99"/>
      </Node>
    </BinaryTree>
    <BinaryTree type="DecisionTree" boostWeight="1.0000000000000000e+00" itree="670">
      <Node pos="s" depth="0" NCoef="0" IVar="6" Cut="-9.2187398672103882e-01" cType="1" res="-5.9585773851722479e-04" rms="3.8273569941520691e-01" purity="4.9850618839263916e-01" nType="0">
        <Node pos="l" depth="1" NCoef="0" IVar="1" Cut="1.0245622558593750e+03" cType="1" res="-1.4956255443394184e-02" rms="3.5178613662719727e-01" purity="3.0658450722694397e-01" nType="0">
          <Node pos="l" depth="2" NCoef="0" IVar="-1" Cut="0.0000000000000000e+00" cType="1" res="-3.9243925362825394e-02" rms="2.4400487542152405e-01" purity="7.0469819009304047e-02" nType="-99"/>
          <Node pos="r" depth="2" NCoef="0" IVar="8" Cut="-9.3299978971481323e-01" cType="1" res="-8.1775970757007599e-03" rms="3.8490238785743713e-01" purity="3.9689889550209045e-01" nType="0">
            <Node pos="l" depth="3" NCoef="0" IVar="-1" Cut="0.0000000000000000e+00" cType="1" res="-2.1840432658791542e-02" rms="3.5155832767486572e-01" purity="2.7877634763717651e-01" nType="-99"/>
            <Node pos="r" depth="3" NCoef="0" IVar="-1" Cut="0.0000000000000000e+00" cType="1" res="-4.4942236854694784e-04" rms="3.9526343345642090e-01" purity="4.3684390187263489e-01" nType="-99"/>
          </Node>
        </Node>
        <Node pos="r" depth="1" NCoef="0" IVar="6" Cut="1.9136577844619751e+00" cType="1" res="2.1978996228426695e-03" rms="3.8840872049331665e-01" purity="5.3584378957748413e-01" nType="0">
          <Node pos="l" depth="2" NCoef="0" IVar="7" Cut="-1.7332005500793457e+00" cType="1" res="3.2560257241129875e-03" rms="3.9211031794548035e-01" purity="5.4985326528549194e-01" nType="0">
            <Node pos="l" depth="3" NCoef="0" IVar="-1" Cut="0.0000000000000000e+00" cType="1" res="2.0207578316330910e-02" rms="3.6846232414245605e-01" purity="2.6975563168525696e-01" nType="-99"/>
            <Node pos="r" depth="3" NCoef="0" IVar="-1" Cut="0.0000000000000000e+00" cType="1" res="1.2976200086995959e-03" rms="3.9337599277496338e-01" purity="5.6578588485717773e-01" nType="-99"/>
          </Node>
          <Node pos="r" depth="2" NCoef="0" IVar="-1" Cut="0.0000000000000000e+00" cType="1" res="-3.6590531468391418e-02" rms="2.4853435158729553e-01" purity="1.0904470831155777e-01" nType="-99"/>
        </Node>
      </Node>
    </BinaryTree>
    <BinaryTree type="DecisionTree" boostWeight="1.0000000000000000e+00" itree="671">
      <Node pos="s" depth="0" NCoef="0" IVar="6" Cut="-9.0990376472473145e-01" cType="1" res="6.2319257995113730e-04" rms="3.8442036509513855e-01" purity="4.9912187457084656e-01" nType="0">
        <Node pos="l" depth="1" NCoef="0" IVar="2" Cut="4.1467376708984375e+02" cType="1" res="-8.3772940561175346e-03" rms="3.5884344577789307e-01" purity="3.0695191025733948e-01" nType="0">
          <Node pos="l" depth="2" NCoef="0" IVar="0" Cut="3.4854595947265625e+02" cType="1" res="-8.7969750165939331e-04" rms="3.6225330829620361e-01" purity="3.0385133624076843e-01" nType="0">
            <Node pos="l" depth="3" NCoef="0" IVar="-1" Cut="0.0000000000000000e+00" cType="1" res="1.9444853067398071e-02" rms="3.4444138407707214e-01" purity="1.7157895863056183e-01" nType="-99"/>
            <Node pos="r" depth="3" NCoef="0" IVar="-1" Cut="0.0000000000000000e+00" cType="1" res="-8.4223374724388123e-03" rms="3.7117031216621399e-01" purity="3.7638026475906372e-01" nType="-99"/>
          </Node>
          <Node pos="r" depth="2" NCoef="0" IVar="-1" Cut="0.0000000000000000e+00" cType="1" res="-2.2106185555458069e-02" rms="3.4813311696052551e-01" purity="3.1573092937469482e-01" nType="-99"/>
        </Node>
        <Node pos="r" depth="1" NCoef="0" IVar="6" Cut="-7.3324143886566162e-01" cType="1" res="2.3903853725641966e-03" rms="3.8922044634819031e-01" purity="5.3685331344604492e-01" nType="0">
          <Node pos="l" depth="2" NCoef="0" IVar="-1" Cut="0.0000000000000000e+00" cType="1" res="1.2675574049353600e-02" rms="4.0758398175239563e-01" purity="5.3108739852905273e-01" nType="-99"/>
          <Node pos="r" depth="2" NCoef="0" IVar="9" Cut="9.3334478139877319e-01" cType="1" res="1.2361580738797784e-03" rms="3.8801455497741699e-01" purity="5.3721368312835693e-01" nType="0">
            <Node pos="l" depth="3" NCoef="0" IVar="-1" Cut="0.0000000000000000e+00" cType="1" res="2.6132084894925356e-03" rms="3.8874745368957520e-01" purity="5.5919927358627319e-01" nType="-99"/>
            <Node pos="r" depth="3" NCoef="0" IVar="-1" Cut="0.0000000000000000e+00" cType="1" res="-4.8190895467996597e-03" rms="3.8556635379791260e-01" purity="4.6784156560897827e-01" nType="-99"/>
          </Node>
        </Node>
      </Node>
    </BinaryTree>
    <BinaryTree type="DecisionTree" boostWeight="1.0000000000000000e+00" itree="672">
      <Node pos="s" depth="0" NCoef="0" IVar="8" Cut="9.3331903219223022e-01" cType="1" res="-8.3725730655714869e-04" rms="3.8206264376640320e-01" purity="4.9652662873268127e-01" nType="0">
        <Node pos="l" depth="1" NCoef="0" IVar="0" Cut="4.3884341430664062e+02" cType="1" res="1.7577563412487507e-03" rms="3.8471344113349915e-01" purity="5.2396988868713379e-01" nType="0">
          <Node pos="l" depth="2" NCoef="0" IVar="8" Cut="-1.9110566377639771e+00" cType="1" res="5.8598578907549381e-03" rms="3.9541357755661011e-01" purity="3.7645411491394043e-01" nType="0">
            <Node pos="l" depth="3" NCoef="0" IVar="-1" Cut="0.0000000000000000e+00" cType="1" res="-2.0449914038181305e-02" rms="2.9367640614509583e-01" purity="1.2330462038516998e-01" nType="-99"/>
            <Node pos="r" depth="3" NCoef="0" IVar="-1" Cut="0.0000000000000000e+00" cType="1" res="4.9323872663080692e-03" rms="4.0254729986190796e-01" purity="3.9722785353660583e-01" nType="-99"/>
          </Node>
          <Node pos="r" depth="2" NCoef="0" IVar="7" Cut="-9.3310540914535522e-01" cType="1" res="-3.5444775130599737e-03" rms="3.7035781145095825e-01" purity="7.1464365720748901e-01" nType="0">
            <Node pos="l" depth="3" NCoef="0" IVar="-1" Cut="0.0000000000000000e+00" cType="1" res="-1.5179150737822056e-02" rms="3.9649552106857300e-01" purity="5.7741206884384155e-01" nType="-99"/>
            <Node pos="r" depth="3" NCoef="0" IVar="-1" Cut="0.0000000000000000e+00" cType="1" res="4.1616271482780576e-04" rms="3.6470034718513489e-01" purity="7.4243074655532837e-01" nType="-99"/>
          </Node>
        </Node>
        <Node pos="r" depth="1" NCoef="0" IVar="5" Cut="1.0083608245849609e+02" cType="1" res="-1.0528626851737499e-02" rms="3.7183588743209839e-01" purity="3.9403671026229858e-01" nType="0">
          <Node pos="l" depth="2" NCoef="0" IVar="6" Cut="4.2536267638206482e-01" cType="1" res="-1.7290893942117691e-02" rms="3.6494171619415283e-01" purity="2.8262335062026978e-01" nType="0">
            <Node pos="l" depth="3" NCoef="0" IVar="-1" Cut="0.0000000000000000e+00" cType="1" res="-1.8524814397096634e-02" rms="3.7464925646781921e-01" purity="3.0970317125320435e-01" nType="-99"/>
            <Node pos="r" depth="3" NCoef="0" IVar="-1" Cut="0.0000000000000000e+00" cType="1" res="4.4268508645473048e-05" rms="3.4947568178176880e-01" purity="2.4285598099231720e-01" nType="-99"/>
          </Node>
          <Node pos="r" depth="2" NCoef="0" IVar="4" Cut="1.6612454223632812e+02" cType="1" res="6.0324878431856632e-03" rms="3.8770541548728943e-01" purity="6.6689336299896240e-01" nType="0">
            <Node pos="l" depth="3" NCoef="0" IVar="-1" Cut="0.0000000000000000e+00" cType="1" res="1.7839964479207993e-02" rms="3.9306619763374329e-01" purity="6.2739175558090210e-01" nType="-99"/>
            <Node pos="r" depth="3" NCoef="0" IVar="-1" Cut="0.0000000000000000e+00" cType="1" res="-1.1326511390507221e-02" rms="3.8094913959503174e-01" purity="7.0651829242706299e-01" nType="-99"/>
          </Node>
        </Node>
      </Node>
    </BinaryTree>
    <BinaryTree type="DecisionTree" boostWeight="1.0000000000000000e+00" itree="673">
      <Node pos="s" depth="0" NCoef="0" IVar="6" Cut="1.2098475694656372e+00" cType="1" res="2.1840017288923264e-03" rms="3.8104188442230225e-01" purity="5.0187915563583374e-01" nType="0">
        <Node pos="l" depth="1" NCoef="0" IVar="9" Cut="2.2666380405426025e+00" cType="1" res="4.7253756783902645e-03" rms="3.8813424110412598e-01" purity="5.3210490942001343e-01" nType="0">
          <Node pos="l" depth="2" NCoef="0" IVar="2" Cut="3.3986019897460938e+02" cType="1" res="3.7387632764875889e-03" rms="3.8804200291633606e-01" purity="5.3610044717788696e-01" nType="0">
            <Node pos="l" depth="3" NCoef="0" IVar="-1" Cut="0.0000000000000000e+00" cType="1" res="-1.8348342564422637e-05" rms="3.9560130238533020e-01" purity="4.9002787470817566e-01" nType="-99"/>
            <Node pos="r" depth="3" NCoef="0" IVar="-1" Cut="0.0000000000000000e+00" cType="1" res="4.8391115851700306e-03" rms="3.8097766041755676e-01" purity="5.7816016674041748e-01" nType="-99"/>
          </Node>
          <Node pos="r" depth="2" NCoef="0" IVar="-1" Cut="0.0000000000000000e+00" cType="1" res="2.2829020395874977e-02" rms="3.8973900675773621e-01" purity="4.1023635864257812e-01" nType="-99"/>
        </Node>
        <Node pos="r" depth="1" NCoef="0" IVar="6" Cut="1.6640988588333130e+00" cType="1" res="-1.9123530015349388e-02" rms="3.1455719470977783e-01" purity="2.4845832586288452e-01" nType="0">
          <Node pos="l" depth="2" NCoef="0" IVar="4" Cut="1.1317832946777344e+02" cType="1" res="-8.4531623870134354e-03" rms="3.4537997841835022e-01" purity="3.2952535152435303e-01" nType="0">
            <Node pos="l" depth="3" NCoef="0" IVar="-1" Cut="0.0000000000000000e+00" cType="1" res="-2.7648957446217537e-02" rms="2.9247832298278809e-01" purity="1.3614027202129364e-01" nType="-99"/>
            <Node pos="r" depth="3" NCoef="0" IVar="-1" Cut="0.0000000000000000e+00" cType="1" res="5.7733245193958282e-03" rms="3.8445013761520386e-01" purity="4.9670466780662537e-01" nType="-99"/>
          </Node>
          <Node pos="r" depth="2" NCoef="0" IVar="-1" Cut="0.0000000000000000e+00" cType="1" res="-3.5683434456586838e-02" rms="2.6708835363388062e-01" purity="1.3984435796737671e-01" nType="-99"/>
        </Node>
      </Node>
    </BinaryTree>
    <BinaryTree type="DecisionTree" boostWeight="1.0000000000000000e+00" itree="674">
      <Node pos="s" depth="0" NCoef="0" IVar="5" Cut="1.1706201934814453e+02" cType="1" res="3.2689792569726706e-03" rms="3.8526982069015503e-01" purity="5.0232160091400146e-01" nType="0">
        <Node pos="l" depth="1" NCoef="0" IVar="8" Cut="-9.3327236175537109e-01" cType="1" res="5.8796745724976063e-03" rms="3.9430198073387146e-01" purity="4.2239382863044739e-01" nType="0">
          <Node pos="l" depth="2" NCoef="0" IVar="8" Cut="-1.9999073743820190e+00" cType="1" res="-6.1626574024558067e-03" rms="3.7350541353225708e-01" purity="3.2934141159057617e-01" nType="0">
            <Node pos="l" depth="3" NCoef="0" IVar="-1" Cut="0.0000000000000000e+00" cType="1" res="1.5156429260969162e-02" rms="3.4168654680252075e-01" purity="2.2202295064926147e-01" nType="-99"/>
            <Node pos="r" depth="3" NCoef="0" IVar="-1" Cut="0.0000000000000000e+00" cType="1" res="-8.4894122555851936e-03" rms="3.8193726539611816e-01" purity="3.6038476228713989e-01" nType="-99"/>
          </Node>
          <Node pos="r" depth="2" NCoef="0" IVar="9" Cut="6.6670626401901245e-01" cType="1" res="9.3671614304184914e-03" rms="4.0005522966384888e-01" purity="4.4934204220771790e-01" nType="0">
            <Node pos="l" depth="3" NCoef="0" IVar="-1" Cut="0.0000000000000000e+00" cType="1" res="9.4610024243593216e-03" rms="4.0714401006698608e-01" purity="4.7030958533287048e-01" nType="-99"/>
            <Node pos="r" depth="3" NCoef="0" IVar="-1" Cut="0.0000000000000000e+00" cType="1" res="-2.2245692089200020e-03" rms="3.8455605506896973e-01" purity="4.0566581487655640e-01" nType="-99"/>
          </Node>
        </Node>
        <Node pos="r" depth="1" NCoef="0" IVar="3" Cut="1.9979624938964844e+02" cType="1" res="-5.8519444428384304e-03" rms="3.5174724459648132e-01" purity="7.8156358003616333e-01" nType="0">
          <Node pos="l" depth="2" NCoef="0" IVar="-1" Cut="0.0000000000000000e+00" cType="1" res="5.3237164393067360e-03" rms="3.8553243875503540e-01" purity="7.0649325847625732e-01" nType="-99"/>
          <Node pos="r" depth="2" NCoef="0" IVar="1" Cut="2.0881162109375000e+03" cType="1" res="-9.5644351094961166e-03" rms="3.4199139475822449e-01" purity="8.0176496505737305e-01" nType="0">
            <Node pos="l" depth="3" NCoef="0" IVar="-1" Cut="0.0000000000000000e+00" cType="1" res="-1.2810494750738144e-02" rms="3.4990668296813965e-01" purity="7.8531992435455322e-01" nType="-99"/>
            <Node pos="r" depth="3" NCoef="0" IVar="-1" Cut="0.0000000000000000e+00" cType="1" res="1.8069747835397720e-02" rms="2.9704076051712036e-01" purity="8.8543659448623657e-01" nType="-99"/>
          </Node>
        </Node>
      </Node>
    </BinaryTree>
    <BinaryTree type="DecisionTree" boostWeight="1.0000000000000000e+00" itree="675">
      <Node pos="s" depth="0" NCoef="0" IVar="4" Cut="1.9835057067871094e+02" cType="1" res="2.5832799728959799e-03" rms="3.8358089327812195e-01" purity="5.0232887268066406e-01" nType="0">
        <Node pos="l" depth="1" NCoef="0" IVar="5" Cut="5.7002677917480469e+01" cType="1" res="3.9072348736226559e-03" rms="3.9124646782875061e-01" purity="4.4953161478042603e-01" nType="0">
          <Node pos="l" depth="2" NCoef="0" IVar="9" Cut="-6.6659474372863770e-01" cType="1" res="1.3693268410861492e-02" rms="3.6221671104431152e-01" purity="2.4988996982574463e-01" nType="0">
            <Node pos="l" depth="3" NCoef="0" IVar="-1" Cut="0.0000000000000000e+00" cType="1" res="2.5916254147887230e-02" rms="3.6942440271377563e-01" purity="2.6208868622779846e-01" nType="-99"/>
            <Node pos="r" depth="3" NCoef="0" IVar="-1" Cut="0.0000000000000000e+00" cType="1" res="2.5677066296339035e-03" rms="3.5805734992027283e-01" purity="2.4368336796760559e-01" nType="-99"/>
          </Node>
          <Node pos="r" depth="2" NCoef="0" IVar="8" Cut="-1.1999984979629517e+00" cType="1" res="1.9524735398590565e-03" rms="3.9676183462142944e-01" purity="4.8941004276275635e-01" nType="0">
            <Node pos="l" depth="3" NCoef="0" IVar="-1" Cut="0.0000000000000000e+00" cType="1" res="9.1616539284586906e-03" rms="3.9029064774513245e-01" purity="3.7845525145530701e-01" nType="-99"/>
            <Node pos="r" depth="3" NCoef="0" IVar="-1" Cut="0.0000000000000000e+00" cType="1" res="-1.9796236301772296e-04" rms="3.9794704318046570e-01" purity="5.1062780618667603e-01" nType="-99"/>
          </Node>
        </Node>
        <Node pos="r" depth="1" NCoef="0" IVar="7" Cut="6.6571044921875000e-01" cType="1" res="-4.3920734897255898e-03" rms="3.4026998281478882e-01" purity="7.8049510717391968e-01" nType="0">
          <Node pos="l" depth="2" NCoef="0" IVar="3" Cut="2.8656298828125000e+02" cType="1" res="-6.3780293567106128e-04" rms="3.3231684565544128e-01" purity="8.0297398567199707e-01" nType="0">
            <Node pos="l" depth="3" NCoef="0" IVar="-1" Cut="0.0000000000000000e+00" cType="1" res="-9.0912971645593643e-03" rms="3.2894936203956604e-01" purity="7.9070782661437988e-01" nType="-99"/>
            <Node pos="r" depth="3" NCoef="0" IVar="-1" Cut="0.0000000000000000e+00" cType="1" res="5.4801213555037975e-03" rms="3.3458462357521057e-01" purity="8.1194168329238892e-01" nType="-99"/>
          </Node>
          <Node pos="r" depth="2" NCoef="0" IVar="-1" Cut="0.0000000000000000e+00" cType="1" res="-1.2891869992017746e-02" rms="3.6705181002616882e-01" purity="6.9991564750671387e-01" nType="-99"/>
        </Node>
      </Node>
    </BinaryTree>
    <BinaryTree type="DecisionTree" boostWeight="1.0000000000000000e+00" itree="676">
      <Node pos="s" depth="0" NCoef="0" IVar="7" Cut="-3.9992505311965942e-01" cType="1" res="-7.0927228080108762e-04" rms="3.8256412744522095e-01" purity="5.0032597780227661e-01" nType="0">
        <Node pos="l" depth="1" NCoef="0" IVar="0" Cut="5.7768664550781250e+02" cType="1" res="8.7444726377725601e-03" rms="3.8261717557907104e-01" purity="4.6455472707748413e-01" nType="0">
          <Node pos="l" depth="2" NCoef="0" IVar="0" Cut="3.7933932495117188e+02" cType="1" res="1.1891116388142109e-02" rms="3.8892942667007446e-01" purity="4.0431690216064453e-01" nType="0">
            <Node pos="l" depth="3" NCoef="0" IVar="-1" Cut="0.0000000000000000e+00" cType="1" res="2.9295191052369773e-04" rms="3.6974161863327026e-01" purity="2.6514714956283569e-01" nType="-99"/>
            <Node pos="r" depth="3" NCoef="0" IVar="-1" Cut="0.0000000000000000e+00" cType="1" res="1.3577383942902088e-02" rms="4.0452450513839722e-01" purity="5.2464550733566284e-01" nType="-99"/>
          </Node>
          <Node pos="r" depth="2" NCoef="0" IVar="4" Cut="1.4486015319824219e+02" cType="1" res="-7.3623773641884327e-03" rms="3.4807538986206055e-01" purity="7.7289682626724243e-01" nType="0">
            <Node pos="l" depth="3" NCoef="0" IVar="-1" Cut="0.0000000000000000e+00" cType="1" res="-1.7900884151458740e-02" rms="3.9372816681861877e-01" purity="6.4613926410675049e-01" nType="-99"/>
            <Node pos="r" depth="3" NCoef="0" IVar="-1" Cut="0.0000000000000000e+00" cType="1" res="9.5016043633222580e-03" rms="3.0780956149101257e-01" purity="8.6936026811599731e-01" nType="-99"/>
          </Node>
        </Node>
        <Node pos="r" depth="1" NCoef="0" IVar="7" Cut="1.2762098312377930e+00" cType="1" res="-5.8753215707838535e-03" rms="3.8243639469146729e-01" purity="5.1987332105636597e-01" nType="0">
          <Node pos="l" depth="2" NCoef="0" IVar="7" Cut="1.1165609359741211e+00" cType="1" res="-9.5669794827699661e-03" rms="3.8545057177543640e-01" purity="5.6923854351043701e-01" nType="0">
            <Node pos="l" depth="3" NCoef="0" IVar="-1" Cut="0.0000000000000000e+00" cType="1" res="-5.1194773986935616e-03" rms="3.8547179102897644e-01" purity="5.7921379804611206e-01" nType="-99"/>
            <Node pos="r" depth="3" NCoef="0" IVar="-1" Cut="0.0000000000000000e+00" cType="1" res="-2.6641093194484711e-02" rms="3.8371750712394714e-01" purity="3.9539486169815063e-01" nType="-99"/>
          </Node>
          <Node pos="r" depth="2" NCoef="0" IVar="9" Cut="-6.6662502288818359e-01" cType="1" res="9.8423063755035400e-03" rms="3.6891472339630127e-01" purity="3.0969581007957458e-01" nType="0">
            <Node pos="l" depth="3" NCoef="0" IVar="-1" Cut="0.0000000000000000e+00" cType="1" res="-1.6890197992324829e-02" rms="3.5302972793579102e-01" purity="2.7391561865806580e-01" nType="-99"/>
            <Node pos="r" depth="3" NCoef="0" IVar="-1" Cut="0.0000000000000000e+00" cType="1" res="1.5690492466092110e-02" rms="3.7358966469764709e-01" purity="3.2213175296783447e-01" nType="-99"/>
          </Node>
        </Node>
      </Node>
    </BinaryTree>
    <BinaryTree type="DecisionTree" boostWeight="1.0000000000000000e+00" itree="677">
      <Node pos="s" depth="0" NCoef="0" IVar="7" Cut="1.2000442743301392e+00" cType="1" res="-1.5906668268144131e-03" rms="3.8205704092979431e-01" purity="4.9985954165458679e-01" nType="0">
        <Node pos="l" depth="1" NCoef="0" IVar="9" Cut="2.2666380405426025e+00" cType="1" res="-4.6306340955197811e-03" rms="3.8383150100708008e-01" purity="5.2603226900100708e-01" nType="0">
          <Node pos="l" depth="2" NCoef="0" IVar="8" Cut="-1.4666764736175537e+00" cType="1" res="-3.3224695362150669e-03" rms="3.8508689403533936e-01" purity="5.3152042627334595e-01" nType="0">
            <Node pos="l" depth="3" NCoef="0" IVar="-1" Cut="0.0000000000000000e+00" cType="1" res="9.3722976744174957e-03" rms="3.8196709752082825e-01" purity="3.5903298854827881e-01" nType="-99"/>
            <Node pos="r" depth="3" NCoef="0" IVar="-1" Cut="0.0000000000000000e+00" cType="1" res="-3.5630338825285435e-03" rms="3.8541322946548462e-01" purity="5.5243784189224243e-01" nType="-99"/>
          </Node>
          <Node pos="r" depth="2" NCoef="0" IVar="-1" Cut="0.0000000000000000e+00" cType="1" res="-3.3143889158964157e-02" rms="3.3829376101493835e-01" purity="3.4946039319038391e-01" nType="-99"/>
        </Node>
        <Node pos="r" depth="1" NCoef="0" IVar="7" Cut="1.9619083404541016e+00" cType="1" res="1.7611529678106308e-02" rms="3.7007579207420349e-01" purity="3.3453708887100220e-01" nType="0">
          <Node pos="l" depth="2" NCoef="0" IVar="8" Cut="-4.0002587437629700e-01" cType="1" res="2.5078611448407173e-02" rms="3.8496950268745422e-01" purity="3.8693979382514954e-01" nType="0">
            <Node pos="l" depth="3" NCoef="0" IVar="-1" Cut="0.0000000000000000e+00" cType="1" res="3.1656429171562195e-02" rms="3.9335599541664124e-01" purity="3.8298937678337097e-01" nType="-99"/>
            <Node pos="r" depth="3" NCoef="0" IVar="-1" Cut="0.0000000000000000e+00" cType="1" res="1.0506111197173595e-02" rms="3.8084653019905090e-01" purity="3.8866934180259705e-01" nType="-99"/>
          </Node>
          <Node pos="r" depth="2" NCoef="0" IVar="-1" Cut="0.0000000000000000e+00" cType="1" res="-1.6617799410596490e-03" rms="3.2718962430953979e-01" purity="1.9764339923858643e-01" nType="-99"/>
        </Node>
      </Node>
    </BinaryTree>
    <BinaryTree type="DecisionTree" boostWeight="1.0000000000000000e+00" itree="678">
      <Node pos="s" depth="0" NCoef="0" IVar="3" Cut="2.3459146118164062e+02" cType="1" res="7.5305957579985261e-04" rms="3.8222077488899231e-01" purity="5.0396490097045898e-01" nType="0">
        <Node pos="l" depth="1" NCoef="0" IVar="7" Cut="-3.9994722604751587e-01" cType="1" res="4.1272398084402084e-03" rms="3.8898235559463501e-01" purity="4.1274958848953247e-01" nType="0">
          <Node pos="l" depth="2" NCoef="0" IVar="8" Cut="-1.3346134126186371e-01" cType="1" res="-2.5434766430407763e-03" rms="3.8439846038818359e-01" purity="3.6753955483436584e-01" nType="0">
            <Node pos="l" depth="3" NCoef="0" IVar="-1" Cut="0.0000000000000000e+00" cType="1" res="-7.7681122347712517e-03" rms="3.8237929344177246e-01" purity="3.4668520092964172e-01" nType="-99"/>
            <Node pos="r" depth="3" NCoef="0" IVar="-1" Cut="0.0000000000000000e+00" cType="1" res="4.9217175692319870e-03" rms="3.8634899258613586e-01" purity="3.9022821187973022e-01" nType="-99"/>
          </Node>
          <Node pos="r" depth="2" NCoef="0" IVar="0" Cut="5.8410980224609375e+02" cType="1" res="7.8198472037911415e-03" rms="3.9144781231880188e-01" purity="4.3777582049369812e-01" nType="0">
            <Node pos="l" depth="3" NCoef="0" IVar="-1" Cut="0.0000000000000000e+00" cType="1" res="3.0760602094233036e-03" rms="3.9492371678352356e-01" purity="3.9149990677833557e-01" nType="-99"/>
            <Node pos="r" depth="3" NCoef="0" IVar="-1" Cut="0.0000000000000000e+00" cType="1" res="2.0240470767021179e-02" rms="3.6442157626152039e-01" purity="7.7474850416183472e-01" nType="-99"/>
          </Node>
        </Node>
        <Node pos="r" depth="1" NCoef="0" IVar="4" Cut="9.9487312316894531e+01" cType="1" res="-5.5945236235857010e-03" rms="3.6908164620399475e-01" purity="6.7556113004684448e-01" nType="0">
          <Node pos="l" depth="2" NCoef="0" IVar="-1" Cut="0.0000000000000000e+00" cType="1" res="-2.5415308773517609e-02" rms="3.9717099070549011e-01" purity="3.4703508019447327e-01" nType="-99"/>
          <Node pos="r" depth="2" NCoef="0" IVar="0" Cut="4.4703970336914062e+02" cType="1" res="-9.1875140788033605e-04" rms="3.6514630913734436e-01" purity="7.1666330099105835e-01" nType="0">
            <Node pos="l" depth="3" NCoef="0" IVar="-1" Cut="0.0000000000000000e+00" cType="1" res="-6.3859596848487854e-03" rms="4.0875509381294250e-01" purity="5.6344234943389893e-01" nType="-99"/>
            <Node pos="r" depth="3" NCoef="0" IVar="-1" Cut="0.0000000000000000e+00" cType="1" res="6.1808014288544655e-03" rms="3.2676896452903748e-01" purity="8.3658748865127563e-01" nType="-99"/>
          </Node>
        </Node>
      </Node>
    </BinaryTree>
    <BinaryTree type="DecisionTree" boostWeight="1.0000000000000000e+00" itree="679">
      <Node pos="s" depth="0" NCoef="0" IVar="9" Cut="-1.4666625261306763e+00" cType="1" res="-5.5785719305276871e-03" rms="3.8032180070877075e-01" purity="4.9630650877952576e-01" nType="0">
        <Node pos="l" depth="1" NCoef="0" IVar="6" Cut="-6.4507609605789185e-01" cType="1" res="-2.3142931982874870e-02" rms="3.6701351404190063e-01" purity="3.6862933635711670e-01" nType="0">
          <Node pos="l" depth="2" NCoef="0" IVar="-1" Cut="0.0000000000000000e+00" cType="1" res="-3.6219850182533264e-02" rms="3.2524421811103821e-01" purity="2.2429057955741882e-01" nType="-99"/>
          <Node pos="r" depth="2" NCoef="0" IVar="7" Cut="3.9898008108139038e-01" cType="1" res="-1.2996925041079521e-02" rms="3.8347658514976501e-01" purity="4.3198943138122559e-01" nType="0">
            <Node pos="l" depth="3" NCoef="0" IVar="-1" Cut="0.0000000000000000e+00" cType="1" res="-1.5372295863926411e-02" rms="3.8297954201698303e-01" purity="4.3781754374504089e-01" nType="-99"/>
            <Node pos="r" depth="3" NCoef="0" IVar="-1" Cut="0.0000000000000000e+00" cType="1" res="5.6609180755913258e-03" rms="3.8358163833618164e-01" purity="4.1987860202789307e-01" nType="-99"/>
          </Node>
        </Node>
        <Node pos="r" depth="1" NCoef="0" IVar="6" Cut="1.4800765514373779e+00" cType="1" res="-3.1891055405139923e-03" rms="3.8203403353691101e-01" purity="5.1367580890655518e-01" nType="0">
          <Node pos="l" depth="2" NCoef="0" IVar="7" Cut="-6.6667902469635010e-01" cType="1" res="-4.8698936589062214e-03" rms="3.8515990972518921e-01" purity="5.3505778312683105e-01" nType="0">
            <Node pos="l" depth="3" NCoef="0" IVar="-1" Cut="0.0000000000000000e+00" cType="1" res="2.7992776595056057e-03" rms="3.8682869076728821e-01" purity="4.6012401580810547e-01" nType="-99"/>
            <Node pos="r" depth="3" NCoef="0" IVar="-1" Cut="0.0000000000000000e+00" cType="1" res="-5.2569569088518620e-03" rms="3.8453397154808044e-01" purity="5.6085109710693359e-01" nType="-99"/>
          </Node>
          <Node pos="r" depth="2" NCoef="0" IVar="7" Cut="-1.3270576298236847e-01" cType="1" res="1.9798174500465393e-02" rms="3.3553668856620789e-01" purity="2.2124505043029785e-01" nType="0">
            <Node pos="l" depth="3" NCoef="0" IVar="-1" Cut="0.0000000000000000e+00" cType="1" res="4.0999248623847961e-02" rms="3.4364664554595947e-01" purity="2.3474651575088501e-01" nType="-99"/>
            <Node pos="r" depth="3" NCoef="0" IVar="-1" Cut="0.0000000000000000e+00" cType="1" res="2.5433376431465149e-03" rms="3.2838594913482666e-01" purity="2.1129688620567322e-01" nType="-99"/>
          </Node>
        </Node>
      </Node>
    </BinaryTree>
    <BinaryTree type="DecisionTree" boostWeight="1.0000000000000000e+00" itree="680">
      <Node pos="s" depth="0" NCoef="0" IVar="7" Cut="-1.9999488592147827e+00" cType="1" res="6.3147355103865266e-04" rms="3.8395741581916809e-01" purity="4.9999043345451355e-01" nType="0">
        <Node pos="l" depth="1" NCoef="0" IVar="-1" Cut="0.0000000000000000e+00" cType="1" res="2.6659246534109116e-02" rms="3.5094207525253296e-01" purity="2.0517413318157196e-01" nType="-99"/>
        <Node pos="r" depth="1" NCoef="0" IVar="7" Cut="-1.0856502056121826e+00" cType="1" res="-3.5669983481056988e-04" rms="3.8505217432975769e-01" purity="5.1056289672851562e-01" nType="0">
          <Node pos="l" depth="2" NCoef="0" IVar="2" Cut="4.2067184448242188e+02" cType="1" res="-1.9852874800562859e-02" rms="3.7296947836875916e-01" purity="3.5155248641967773e-01" nType="0">
            <Node pos="l" depth="3" NCoef="0" IVar="-1" Cut="0.0000000000000000e+00" cType="1" res="-8.6865006014704704e-03" rms="3.7665951251983643e-01" purity="3.5248827934265137e-01" nType="-99"/>
            <Node pos="r" depth="3" NCoef="0" IVar="-1" Cut="0.0000000000000000e+00" cType="1" res="-2.8774620965123177e-02" rms="3.6140316724777222e-01" purity="3.4887984395027161e-01" nType="-99"/>
          </Node>
          <Node pos="r" depth="2" NCoef="0" IVar="7" Cut="1.3197280168533325e+00" cType="1" res="2.4093191605061293e-03" rms="3.8665622472763062e-01" purity="5.3312242031097412e-01" nType="0">
            <Node pos="l" depth="3" NCoef="0" IVar="-1" Cut="0.0000000000000000e+00" cType="1" res="2.8460233006626368e-03" rms="3.9113467931747437e-01" purity="5.7184028625488281e-01" nType="-99"/>
            <Node pos="r" depth="3" NCoef="0" IVar="-1" Cut="0.0000000000000000e+00" cType="1" res="-8.1446263939142227e-03" rms="3.5499978065490723e-01" purity="2.7440184354782104e-01" nType="-99"/>
          </Node>
        </Node>
      </Node>
    </BinaryTree>
    <BinaryTree type="DecisionTree" boostWeight="1.0000000000000000e+00" itree="681">
      <Node pos="s" depth="0" NCoef="0" IVar="2" Cut="5.0069256591796875e+02" cType="1" res="6.5793690737336874e-05" rms="3.8146543502807617e-01" purity="5.0005728006362915e-01" nType="0">
        <Node pos="l" depth="1" NCoef="0" IVar="3" Cut="2.6421997070312500e+02" cType="1" res="-2.4679377675056458e-03" rms="3.8212054967880249e-01" purity="4.8295485973358154e-01" nType="0">
          <Node pos="l" depth="2" NCoef="0" IVar="8" Cut="-1.1999984979629517e+00" cType="1" res="3.3473645453341305e-04" rms="3.8690155744552612e-01" purity="4.3326675891876221e-01" nType="0">
            <Node pos="l" depth="3" NCoef="0" IVar="-1" Cut="0.0000000000000000e+00" cType="1" res="1.4286180958151817e-02" rms="3.7759849429130554e-01" purity="3.3275800943374634e-01" nType="-99"/>
            <Node pos="r" depth="3" NCoef="0" IVar="-1" Cut="0.0000000000000000e+00" cType="1" res="-2.3408760316669941e-03" rms="3.8862273097038269e-01" purity="4.5342764258384705e-01" nType="-99"/>
          </Node>
          <Node pos="r" depth="2" NCoef="0" IVar="9" Cut="-6.6647887229919434e-01" cType="1" res="-1.4660702086985111e-02" rms="3.6033055186271667e-01" purity="6.9911813735961914e-01" nType="0">
            <Node pos="l" depth="3" NCoef="0" IVar="-1" Cut="0.0000000000000000e+00" cType="1" res="-2.2321050986647606e-02" rms="3.8153544068336487e-01" purity="6.3813626766204834e-01" nType="-99"/>
            <Node pos="r" depth="3" NCoef="0" IVar="-1" Cut="0.0000000000000000e+00" cType="1" res="-6.5482254140079021e-03" rms="3.5202276706695557e-01" purity="7.2150397300720215e-01" nType="-99"/>
          </Node>
        </Node>
        <Node pos="r" depth="1" NCoef="0" IVar="6" Cut="6.7321586608886719e-01" cType="1" res="1.1934577487409115e-02" rms="3.7815561890602112e-01" purity="5.8017033338546753e-01" nType="0">
          <Node pos="l" depth="2" NCoef="0" IVar="8" Cut="1.3331981003284454e-01" cType="1" res="1.8033538013696671e-02" rms="3.8053873181343079e-01" purity="6.1666232347488403e-01" nType="0">
            <Node pos="l" depth="3" NCoef="0" IVar="-1" Cut="0.0000000000000000e+00" cType="1" res="3.8924028631299734e-03" rms="3.8081693649291992e-01" purity="6.0135865211486816e-01" nType="-99"/>
            <Node pos="r" depth="3" NCoef="0" IVar="-1" Cut="0.0000000000000000e+00" cType="1" res="2.0309707149863243e-02" rms="3.7976938486099243e-01" purity="6.3391834497451782e-01" nType="-99"/>
          </Node>
          <Node pos="r" depth="2" NCoef="0" IVar="-1" Cut="0.0000000000000000e+00" cType="1" res="-1.0106872767210007e-02" rms="3.6655569076538086e-01" purity="4.2298150062561035e-01" nType="-99"/>
        </Node>
      </Node>
    </BinaryTree>
    <BinaryTree type="DecisionTree" boostWeight="1.0000000000000000e+00" itree="682">
      <Node pos="s" depth="0" NCoef="0" IVar="8" Cut="-1.7333230972290039e+00" cType="1" res="-2.4845229927450418e-03" rms="3.8189572095870972e-01" purity="4.9772545695304871e-01" nType="0">
        <Node pos="l" depth="1" NCoef="0" IVar="5" Cut="6.8630569458007812e+01" cType="1" res="-2.4025326594710350e-02" rms="3.4986087679862976e-01" purity="2.5464829802513123e-01" nType="0">
          <Node pos="l" depth="2" NCoef="0" IVar="-1" Cut="0.0000000000000000e+00" cType="1" res="-2.6092503685504198e-03" rms="3.1961071491241455e-01" purity="1.6425968706607819e-01" nType="-99"/>
          <Node pos="r" depth="2" NCoef="0" IVar="-1" Cut="0.0000000000000000e+00" cType="1" res="-2.7621373534202576e-02" rms="3.7191441655158997e-01" purity="3.2868224382400513e-01" nType="-99"/>
        </Node>
        <Node pos="r" depth="1" NCoef="0" IVar="7" Cut="-6.6664844751358032e-01" cType="1" res="-8.9974794536828995e-04" rms="3.8409936428070068e-01" purity="5.1560884714126587e-01" nType="0">
          <Node pos="l" depth="2" NCoef="0" IVar="9" Cut="1.1998574733734131e+00" cType="1" res="-1.1918658390641212e-02" rms="3.7562251091003418e-01" purity="4.2163309454917908e-01" nType="0">
            <Node pos="l" depth="3" NCoef="0" IVar="-1" Cut="0.0000000000000000e+00" cType="1" res="-4.8317424952983856e-03" rms="3.7881776690483093e-01" purity="4.4213971495628357e-01" nType="-99"/>
            <Node pos="r" depth="3" NCoef="0" IVar="-1" Cut="0.0000000000000000e+00" cType="1" res="-2.9066124930977821e-02" rms="3.5493752360343933e-01" purity="3.0071464180946350e-01" nType="-99"/>
          </Node>
          <Node pos="r" depth="2" NCoef="0" IVar="6" Cut="-1.1468163877725601e-01" cType="1" res="2.9032602906227112e-03" rms="3.8690909743309021e-01" purity="5.4804319143295288e-01" nType="0">
            <Node pos="l" depth="3" NCoef="0" IVar="-1" Cut="0.0000000000000000e+00" cType="1" res="-3.1797692645341158e-03" rms="3.8986119627952576e-01" purity="5.2770757675170898e-01" nType="-99"/>
            <Node pos="r" depth="3" NCoef="0" IVar="-1" Cut="0.0000000000000000e+00" cType="1" res="5.7232282124459743e-03" rms="3.8461744785308838e-01" purity="5.6303250789642334e-01" nType="-99"/>
          </Node>
        </Node>
      </Node>
    </BinaryTree>
    <BinaryTree type="DecisionTree" boostWeight="1.0000000000000000e+00" itree="683">
      <Node pos="s" depth="0" NCoef="0" IVar="6" Cut="-1.1748924255371094e+00" cType="1" res="2.4468230549246073e-03" rms="3.8443747162818909e-01" purity="4.9854290485382080e-01" nType="0">
        <Node pos="l" depth="1" NCoef="0" IVar="8" Cut="1.3313420116901398e-01" cType="1" res="1.7784049734473228e-02" rms="3.5690388083457947e-01" purity="2.8118428587913513e-01" nType="0">
          <Node pos="l" depth="2" NCoef="0" IVar="8" Cut="-1.1239091157913208e+00" cType="1" res="3.1362790614366531e-02" rms="3.7238341569900513e-01" purity="2.9578480124473572e-01" nType="0">
            <Node pos="l" depth="3" NCoef="0" IVar="-1" Cut="0.0000000000000000e+00" cType="1" res="-5.0167711451649666e-03" rms="2.8919070959091187e-01" purity="1.5786811709403992e-01" nType="-99"/>
            <Node pos="r" depth="3" NCoef="0" IVar="-1" Cut="0.0000000000000000e+00" cType="1" res="3.6157701164484024e-02" rms="4.1156134009361267e-01" purity="3.7570887804031372e-01" nType="-99"/>
          </Node>
          <Node pos="r" depth="2" NCoef="0" IVar="-1" Cut="0.0000000000000000e+00" cType="1" res="-2.3569879122078419e-03" rms="3.3091941475868225e-01" purity="2.5898280739784241e-01" nType="-99"/>
        </Node>
        <Node pos="r" depth="1" NCoef="0" IVar="9" Cut="1.4665535688400269e+00" cType="1" res="4.4836493907496333e-04" rms="3.8783657550811768e-01" purity="5.2686494588851929e-01" nType="0">
          <Node pos="l" depth="2" NCoef="0" IVar="9" Cut="2.4754074215888977e-01" cType="1" res="-1.5367397572845221e-03" rms="3.8824450969696045e-01" purity="5.3993511199951172e-01" nType="0">
            <Node pos="l" depth="3" NCoef="0" IVar="-1" Cut="0.0000000000000000e+00" cType="1" res="1.6584460390731692e-03" rms="3.9124292135238647e-01" purity="5.4435980319976807e-01" nType="-99"/>
            <Node pos="r" depth="3" NCoef="0" IVar="-1" Cut="0.0000000000000000e+00" cType="1" res="-6.1021940782666206e-03" rms="3.8248965144157410e-01" purity="5.3170573711395264e-01" nType="-99"/>
          </Node>
          <Node pos="r" depth="2" NCoef="0" IVar="0" Cut="4.4704287719726562e+02" cType="1" res="1.3880332000553608e-02" rms="3.8479602336883545e-01" purity="4.3842762708663940e-01" nType="0">
            <Node pos="l" depth="3" NCoef="0" IVar="-1" Cut="0.0000000000000000e+00" cType="1" res="1.8152095377445221e-02" rms="3.8174906373023987e-01" purity="3.2679346203804016e-01" nType="-99"/>
            <Node pos="r" depth="3" NCoef="0" IVar="-1" Cut="0.0000000000000000e+00" cType="1" res="-5.8170161210000515e-03" rms="3.8896775245666504e-01" purity="6.3226795196533203e-01" nType="-99"/>
          </Node>
        </Node>
      </Node>
    </BinaryTree>
    <BinaryTree type="DecisionTree" boostWeight="1.0000000000000000e+00" itree="684">
      <Node pos="s" depth="0" NCoef="0" IVar="7" Cut="1.4667034149169922e+00" cType="1" res="9.1573165263980627e-04" rms="3.8271197676658630e-01" purity="5.0042825937271118e-01" nType="0">
        <Node pos="l" depth="1" NCoef="0" IVar="6" Cut="1.4748582839965820e+00" cType="1" res="-3.8635809323750436e-04" rms="3.8476729393005371e-01" purity="5.2313208580017090e-01" nType="0">
          <Node pos="l" depth="2" NCoef="0" IVar="7" Cut="1.2635288238525391e+00" cType="1" res="-1.6309745842590928e-03" rms="3.8713863492012024e-01" purity="5.4313969612121582e-01" nType="0">
            <Node pos="l" depth="3" NCoef="0" IVar="-1" Cut="0.0000000000000000e+00" cType="1" res="-4.7186095616780221e-04" rms="3.8701647520065308e-01" purity="5.4782098531723022e-01" nType="-99"/>
            <Node pos="r" depth="3" NCoef="0" IVar="-1" Cut="0.0000000000000000e+00" cType="1" res="-1.6828861087560654e-02" rms="3.8969042897224426e-01" purity="4.1153436899185181e-01" nType="-99"/>
          </Node>
          <Node pos="r" depth="2" NCoef="0" IVar="9" Cut="1.3327766954898834e-01" cType="1" res="1.7667027190327644e-02" rms="3.4806081652641296e-01" purity="2.3291863501071930e-01" nType="0">
            <Node pos="l" depth="3" NCoef="0" IVar="-1" Cut="0.0000000000000000e+00" cType="1" res="-1.2305341660976410e-02" rms="3.3132755756378174e-01" purity="2.3405936360359192e-01" nType="-99"/>
            <Node pos="r" depth="3" NCoef="0" IVar="-1" Cut="0.0000000000000000e+00" cType="1" res="4.3671287596225739e-02" rms="3.5957139730453491e-01" purity="2.3193266987800598e-01" nType="-99"/>
          </Node>
        </Node>
        <Node pos="r" depth="1" NCoef="0" IVar="4" Cut="1.2045355224609375e+02" cType="1" res="1.3984475284814835e-02" rms="3.6117666959762573e-01" purity="2.7255609631538391e-01" nType="0">
          <Node pos="l" depth="2" NCoef="0" IVar="7" Cut="1.9111822843551636e+00" cType="1" res="-2.0199385471642017e-03" rms="3.2042917609214783e-01" purity="1.4767578244209290e-01" nType="0">
            <Node pos="l" depth="3" NCoef="0" IVar="-1" Cut="0.0000000000000000e+00" cType="1" res="8.1526096910238266e-03" rms="3.5040640830993652e-01" purity="1.9022372364997864e-01" nType="-99"/>
            <Node pos="r" depth="3" NCoef="0" IVar="-1" Cut="0.0000000000000000e+00" cType="1" res="-1.5992296859622002e-02" rms="2.8580388426780701e-01" purity="1.0386709123849869e-01" nType="-99"/>
          </Node>
          <Node pos="r" depth="2" NCoef="0" IVar="-1" Cut="0.0000000000000000e+00" cType="1" res="2.1541310474276543e-02" rms="4.0936169028282166e-01" purity="4.4322338700294495e-01" nType="-99"/>
        </Node>
      </Node>
    </BinaryTree>
    <BinaryTree type="DecisionTree" boostWeight="1.0000000000000000e+00" itree="685">
      <Node pos="s" depth="0" NCoef="0" IVar="8" Cut="1.7332918643951416e+00" cType="1" res="-1.3321273727342486e-03" rms="3.8252565264701843e-01" purity="4.9729025363922119e-01" nType="0">
        <Node pos="l" depth="1" NCoef="0" IVar="4" Cut="1.9181790161132812e+02" cType="1" res="-3.0410133767873049e-03" rms="3.8317024707794189e-01" purity="5.1215142011642456e-01" nType="0">
          <Node pos="l" depth="2" NCoef="0" IVar="7" Cut="1.9999886751174927e+00" cType="1" res="-5.1049874164164066e-03" rms="3.9148390293121338e-01" purity="4.4785284996032715e-01" nType="0">
            <Node pos="l" depth="3" NCoef="0" IVar="-1" Cut="0.0000000000000000e+00" cType="1" res="-2.5716570671647787e-03" rms="3.9438912272453308e-01" purity="4.5937386155128479e-01" nType="-99"/>
            <Node pos="r" depth="3" NCoef="0" IVar="-1" Cut="0.0000000000000000e+00" cType="1" res="-2.9509769752621651e-02" rms="3.0398851633071899e-01" purity="1.4463262259960175e-01" nType="-99"/>
          </Node>
          <Node pos="r" depth="2" NCoef="0" IVar="0" Cut="4.2571115112304688e+02" cType="1" res="5.7584410533308983e-03" rms="3.4535059332847595e-01" purity="7.8627902269363403e-01" nType="0">
            <Node pos="l" depth="3" NCoef="0" IVar="-1" Cut="0.0000000000000000e+00" cType="1" res="1.3833285309374332e-02" rms="4.0445962548255920e-01" purity="6.5783542394638062e-01" nType="-99"/>
            <Node pos="r" depth="3" NCoef="0" IVar="-1" Cut="0.0000000000000000e+00" cType="1" res="-4.9012876115739346e-03" rms="3.0452758073806763e-01" purity="8.6233144998550415e-01" nType="-99"/>
          </Node>
        </Node>
        <Node pos="r" depth="1" NCoef="0" IVar="6" Cut="-3.6690285801887512e-01" cType="1" res="2.0658873021602631e-02" rms="3.7343412637710571e-01" purity="3.0604746937751770e-01" nType="0">
          <Node pos="l" depth="2" NCoef="0" IVar="-1" Cut="0.0000000000000000e+00" cType="1" res="3.9268150925636292e-02" rms="3.6971905827522278e-01" purity="3.0241024494171143e-01" nType="-99"/>
          <Node pos="r" depth="2" NCoef="0" IVar="-1" Cut="0.0000000000000000e+00" cType="1" res="3.1151126604527235e-03" rms="3.7443175911903381e-01" purity="3.0802866816520691e-01" nType="-99"/>
        </Node>
      </Node>
    </BinaryTree>
    <BinaryTree type="DecisionTree" boostWeight="1.0000000000000000e+00" itree="686">
      <Node pos="s" depth="0" NCoef="0" IVar="7" Cut="1.1999439001083374e+00" cType="1" res="-8.8763586245477200e-04" rms="3.8270410895347595e-01" purity="4.9656400084495544e-01" nType="0">
        <Node pos="l" depth="1" NCoef="0" IVar="6" Cut="1.2100573778152466e+00" cType="1" res="1.3585950946435332e-03" rms="3.8590601086616516e-01" purity="5.2829062938690186e-01" nType="0">
          <Node pos="l" depth="2" NCoef="0" IVar="1" Cut="1.0948590087890625e+03" cType="1" res="-7.2929059388116002e-04" rms="3.8800808787345886e-01" purity="5.5387884378433228e-01" nType="0">
            <Node pos="l" depth="3" NCoef="0" IVar="-1" Cut="0.0000000000000000e+00" cType="1" res="-7.2582745924592018e-03" rms="3.8885918259620667e-01" purity="2.5112232565879822e-01" nType="-99"/>
            <Node pos="r" depth="3" NCoef="0" IVar="-1" Cut="0.0000000000000000e+00" cType="1" res="2.2296877577900887e-03" rms="3.8760265707969666e-01" purity="6.6976141929626465e-01" nType="-99"/>
          </Node>
          <Node pos="r" depth="2" NCoef="0" IVar="5" Cut="8.6822868347167969e+01" cType="1" res="2.0079776644706726e-02" rms="3.6598736047744751e-01" purity="2.9885223507881165e-01" nType="0">
            <Node pos="l" depth="3" NCoef="0" IVar="-1" Cut="0.0000000000000000e+00" cType="1" res="3.5456568002700806e-02" rms="3.5270914435386658e-01" purity="2.1184255182743073e-01" nType="-99"/>
            <Node pos="r" depth="3" NCoef="0" IVar="-1" Cut="0.0000000000000000e+00" cType="1" res="-8.9256437495350838e-03" rms="3.8747444748878479e-01" purity="4.6260604262351990e-01" nType="-99"/>
          </Node>
        </Node>
        <Node pos="r" depth="1" NCoef="0" IVar="9" Cut="6.6666328907012939e-01" cType="1" res="-1.5712127089500427e-02" rms="3.6050990223884583e-01" purity="2.8717720508575439e-01" nType="0">
          <Node pos="l" depth="2" NCoef="0" IVar="9" Cut="6.3752615824341774e-03" cType="1" res="-6.8347970955073833e-03" rms="3.7409958243370056e-01" purity="3.1824630498886108e-01" nType="0">
            <Node pos="l" depth="3" NCoef="0" IVar="-1" Cut="0.0000000000000000e+00" cType="1" res="-1.3961577787995338e-02" rms="3.6931473016738892e-01" purity="2.8421774506568909e-01" nType="-99"/>
            <Node pos="r" depth="3" NCoef="0" IVar="-1" Cut="0.0000000000000000e+00" cType="1" res="1.4197972603142262e-02" rms="3.8267329335212708e-01" purity="3.9051696658134460e-01" nType="-99"/>
          </Node>
          <Node pos="r" depth="2" NCoef="0" IVar="-1" Cut="0.0000000000000000e+00" cType="1" res="-2.4009363725781441e-02" rms="3.3635863661766052e-01" purity="2.3587237298488617e-01" nType="-99"/>
        </Node>
      </Node>
    </BinaryTree>
    <BinaryTree type="DecisionTree" boostWeight="1.0000000000000000e+00" itree="687">
      <Node pos="s" depth="0" NCoef="0" IVar="6" Cut="-6.5597492456436157e-01" cType="1" res="-1.4465051935985684e-04" rms="3.8301289081573486e-01" purity="4.9954438209533691e-01" nType="0">
        <Node pos="l" depth="1" NCoef="0" IVar="9" Cut="1.3325032591819763e-01" cType="1" res="1.0067682713270187e-02" rms="3.7861105799674988e-01" purity="3.9491689205169678e-01" nType="0">
          <Node pos="l" depth="2" NCoef="0" IVar="3" Cut="1.2985281372070312e+02" cType="1" res="2.6564148720353842e-03" rms="3.7728291749954224e-01" purity="3.7617647647857666e-01" nType="0">
            <Node pos="l" depth="3" NCoef="0" IVar="-1" Cut="0.0000000000000000e+00" cType="1" res="2.9079614207148552e-02" rms="3.2281243801116943e-01" purity="1.5973025560379028e-01" nType="-99"/>
            <Node pos="r" depth="3" NCoef="0" IVar="-1" Cut="0.0000000000000000e+00" cType="1" res="-2.3282773327082396e-03" rms="3.8945180177688599e-01" purity="4.3023243546485901e-01" nType="-99"/>
          </Node>
          <Node pos="r" depth="2" NCoef="0" IVar="7" Cut="6.6686820983886719e-01" cType="1" res="2.0843546837568283e-02" rms="3.8027623295783997e-01" purity="4.2216515541076660e-01" nType="0">
            <Node pos="l" depth="3" NCoef="0" IVar="-1" Cut="0.0000000000000000e+00" cType="1" res="8.4904627874493599e-03" rms="3.8127782940864563e-01" purity="4.5524930953979492e-01" nType="-99"/>
            <Node pos="r" depth="3" NCoef="0" IVar="-1" Cut="0.0000000000000000e+00" cType="1" res="3.1116215512156487e-02" rms="3.7700650095939636e-01" purity="3.3958619832992554e-01" nType="-99"/>
          </Node>
        </Node>
        <Node pos="r" depth="1" NCoef="0" IVar="8" Cut="-1.7333419322967529e+00" cType="1" res="-3.4471696708351374e-03" rms="3.8436752557754517e-01" purity="5.3337931632995605e-01" nType="0">
          <Node pos="l" depth="2" NCoef="0" IVar="-1" Cut="0.0000000000000000e+00" cType="1" res="-1.6384694725275040e-02" rms="3.5695821046829224e-01" purity="2.9227903485298157e-01" nType="-99"/>
          <Node pos="r" depth="2" NCoef="0" IVar="7" Cut="1.9999735355377197e+00" cType="1" res="-2.1385117433965206e-03" rms="3.8608664274215698e-01" purity="5.4942089319229126e-01" nType="0">
            <Node pos="l" depth="3" NCoef="0" IVar="-1" Cut="0.0000000000000000e+00" cType="1" res="-1.9621944520622492e-03" rms="3.8682404160499573e-01" purity="5.6078583002090454e-01" nType="-99"/>
            <Node pos="r" depth="3" NCoef="0" IVar="-1" Cut="0.0000000000000000e+00" cType="1" res="1.6935566440224648e-02" rms="3.6459392309188843e-01" purity="2.3871670663356781e-01" nType="-99"/>
          </Node>
        </Node>
      </Node>
    </BinaryTree>
    <BinaryTree type="DecisionTree" boostWeight="1.0000000000000000e+00" itree="688">
      <Node pos="s" depth="0" NCoef="0" IVar="1" Cut="1.1048647460937500e+03" cType="1" res="1.5052004018798470e-03" rms="3.8358512520790100e-01" purity="5.0082314014434814e-01" nType="0">
        <Node pos="l" depth="1" NCoef="0" IVar="0" Cut="3.1610565185546875e+02" cType="1" res="9.5890043303370476e-03" rms="3.7863019108772278e-01" purity="2.3880970478057861e-01" nType="0">
          <Node pos="l" depth="2" NCoef="0" IVar="-1" Cut="0.0000000000000000e+00" cType="1" res="-9.5431795343756676e-03" rms="3.4144309163093567e-01" purity="1.6866907477378845e-01" nType="-99"/>
          <Node pos="r" depth="2" NCoef="0" IVar="0" Cut="3.9279562377929688e+02" cType="1" res="1.4233548194169998e-02" rms="3.8609120249748230e-01" purity="2.5407111644744873e-01" nType="0">
            <Node pos="l" depth="3" NCoef="0" IVar="-1" Cut="0.0000000000000000e+00" cType="1" res="1.6319166868925095e-02" rms="3.7906387448310852e-01" purity="2.4116668105125427e-01" nType="-99"/>
            <Node pos="r" depth="3" NCoef="0" IVar="-1" Cut="0.0000000000000000e+00" cType="1" res="-3.2057387288659811e-03" rms="4.0141656994819641e-01" purity="2.8434699773788452e-01" nType="-99"/>
          </Node>
        </Node>
        <Node pos="r" depth="1" NCoef="0" IVar="6" Cut="-3.7438645958900452e-01" cType="1" res="-2.3266419302672148e-03" rms="3.8585242629051208e-01" purity="6.2502145767211914e-01" nType="0">
          <Node pos="l" depth="2" NCoef="0" IVar="7" Cut="4.0041431784629822e-01" cType="1" res="-1.0366434231400490e-02" rms="3.8833060860633850e-01" purity="5.6909751892089844e-01" nType="0">
            <Node pos="l" depth="3" NCoef="0" IVar="-1" Cut="0.0000000000000000e+00" cType="1" res="-2.2075499873608351e-03" rms="3.8923713564872742e-01" purity="6.0561877489089966e-01" nType="-99"/>
            <Node pos="r" depth="3" NCoef="0" IVar="-1" Cut="0.0000000000000000e+00" cType="1" res="-1.6222560778260231e-02" rms="3.8599184155464172e-01" purity="4.9177426099777222e-01" nType="-99"/>
          </Node>
          <Node pos="r" depth="2" NCoef="0" IVar="6" Cut="2.3017182946205139e-01" cType="1" res="1.5591853298246861e-03" rms="3.8458871841430664e-01" purity="6.5205079317092896e-01" nType="0">
            <Node pos="l" depth="3" NCoef="0" IVar="-1" Cut="0.0000000000000000e+00" cType="1" res="6.5740924328565598e-03" rms="3.7783560156822205e-01" purity="7.3401957750320435e-01" nType="-99"/>
            <Node pos="r" depth="3" NCoef="0" IVar="-1" Cut="0.0000000000000000e+00" cType="1" res="-2.7768088039010763e-03" rms="3.8914924860000610e-01" purity="5.9459340572357178e-01" nType="-99"/>
          </Node>
        </Node>
      </Node>
    </BinaryTree>
    <BinaryTree type="DecisionTree" boostWeight="1.0000000000000000e+00" itree="689">
      <Node pos="s" depth="0" NCoef="0" IVar="3" Cut="1.4391479492187500e+02" cType="1" res="-1.7110318876802921e-03" rms="3.8358449935913086e-01" purity="4.9468541145324707e-01" nType="0">
        <Node pos="l" depth="1" NCoef="0" IVar="6" Cut="1.2121360301971436e+00" cType="1" res="8.7923100218176842e-03" rms="3.6827906966209412e-01" purity="2.4642300605773926e-01" nType="0">
          <Node pos="l" depth="2" NCoef="0" IVar="9" Cut="9.3307465314865112e-01" cType="1" res="1.3024725951254368e-02" rms="3.8332703709602356e-01" purity="2.7146118879318237e-01" nType="0">
            <Node pos="l" depth="3" NCoef="0" IVar="-1" Cut="0.0000000000000000e+00" cType="1" res="4.7568972222507000e-03" rms="3.8429063558578491e-01" purity="2.6409274339675903e-01" nType="-99"/>
            <Node pos="r" depth="3" NCoef="0" IVar="-1" Cut="0.0000000000000000e+00" cType="1" res="2.1953759714961052e-02" rms="3.7977078557014465e-01" purity="2.9387152194976807e-01" nType="-99"/>
          </Node>
          <Node pos="r" depth="2" NCoef="0" IVar="-1" Cut="0.0000000000000000e+00" cType="1" res="-2.2059381008148193e-02" rms="2.5546842813491821e-01" purity="9.2394478619098663e-02" nType="-99"/>
        </Node>
        <Node pos="r" depth="1" NCoef="0" IVar="6" Cut="-3.9013546705245972e-01" cType="1" res="-5.0008147954940796e-03" rms="3.8819587230682373e-01" purity="5.7244437932968140e-01" nType="0">
          <Node pos="l" depth="2" NCoef="0" IVar="7" Cut="-6.6606342792510986e-01" cType="1" res="-1.3060203753411770e-02" rms="3.8988712430000305e-01" purity="5.0487762689590454e-01" nType="0">
            <Node pos="l" depth="3" NCoef="0" IVar="-1" Cut="0.0000000000000000e+00" cType="1" res="-1.9799981266260147e-02" rms="3.8784009218215942e-01" purity="3.9184609055519104e-01" nType="-99"/>
            <Node pos="r" depth="3" NCoef="0" IVar="-1" Cut="0.0000000000000000e+00" cType="1" res="-4.1367113590240479e-03" rms="3.9046427607536316e-01" purity="5.4788082838058472e-01" nType="-99"/>
          </Node>
          <Node pos="r" depth="2" NCoef="0" IVar="9" Cut="-1.1999715566635132e+00" cType="1" res="-1.1308101238682866e-03" rms="3.8732156157493591e-01" purity="6.0488903522491455e-01" nType="0">
            <Node pos="l" depth="3" NCoef="0" IVar="-1" Cut="0.0000000000000000e+00" cType="1" res="9.2316875234246254e-03" rms="3.9478337764739990e-01" purity="5.6346899271011353e-01" nType="-99"/>
            <Node pos="r" depth="3" NCoef="0" IVar="-1" Cut="0.0000000000000000e+00" cType="1" res="-2.6654009707272053e-03" rms="3.8589730858802795e-01" purity="6.1231696605682373e-01" nType="-99"/>
          </Node>
        </Node>
      </Node>
    </BinaryTree>
    <BinaryTree type="DecisionTree" boostWeight="1.0000000000000000e+00" itree="690">
      <Node pos="s" depth="0" NCoef="0" IVar="8" Cut="1.9999531507492065e+00" cType="1" res="8.8163033069577068e-05" rms="3.8128429651260376e-01" purity="5.0204271078109741e-01" nType="0">
        <Node pos="l" depth="1" NCoef="0" IVar="8" Cut="-9.7141587734222412e-01" cType="1" res="1.0372501565143466e-03" rms="3.8312855362892151e-01" purity="5.1390433311462402e-01" nType="0">
          <Node pos="l" depth="2" NCoef="0" IVar="8" Cut="-1.5809370279312134e+00" cType="1" res="-6.6957147791981697e-03" rms="3.6871048808097839e-01" purity="3.8435107469558716e-01" nType="0">
            <Node pos="l" depth="3" NCoef="0" IVar="-1" Cut="0.0000000000000000e+00" cType="1" res="6.6789123229682446e-03" rms="3.5950395464897156e-01" purity="3.1161057949066162e-01" nType="-99"/>
            <Node pos="r" depth="3" NCoef="0" IVar="-1" Cut="0.0000000000000000e+00" cType="1" res="-1.2851391918957233e-02" rms="3.7552466988563538e-01" purity="4.4331806898117065e-01" nType="-99"/>
          </Node>
          <Node pos="r" depth="2" NCoef="0" IVar="6" Cut="-1.7043619155883789e+00" cType="1" res="3.0961434822529554e-03" rms="3.8685071468353271e-01" purity="5.4839777946472168e-01" nType="0">
            <Node pos="l" depth="3" NCoef="0" IVar="-1" Cut="0.0000000000000000e+00" cType="1" res="2.7994768694043159e-02" rms="3.5749724507331848e-01" purity="2.4087935686111450e-01" nType="-99"/>
            <Node pos="r" depth="3" NCoef="0" IVar="-1" Cut="0.0000000000000000e+00" cType="1" res="1.3044119114056230e-03" rms="3.8783624768257141e-01" purity="5.5963617563247681e-01" nType="-99"/>
          </Node>
        </Node>
        <Node pos="r" depth="1" NCoef="0" IVar="-1" Cut="0.0000000000000000e+00" cType="1" res="-1.7691761255264282e-02" rms="3.3450713753700256e-01" purity="2.2464597225189209e-01" nType="-99"/>
      </Node>
    </BinaryTree>
    <BinaryTree type="DecisionTree" boostWeight="1.0000000000000000e+00" itree="691">
      <Node pos="s" depth="0" NCoef="0" IVar="4" Cut="2.8676062011718750e+02" cType="1" res="2.2864767815917730e-03" rms="3.8123154640197754e-01" purity="5.0212776660919189e-01" nType="0">
        <Node pos="l" depth="1" NCoef="0" IVar="6" Cut="-6.4491504430770874e-01" cType="1" res="3.1997954938560724e-03" rms="3.8240918517112732e-01" purity="4.9389421939849854e-01" nType="0">
          <Node pos="l" depth="2" NCoef="0" IVar="3" Cut="1.2950180053710938e+02" cType="1" res="1.1426851153373718e-02" rms="3.7343767285346985e-01" purity="3.9451336860656738e-01" nType="0">
            <Node pos="l" depth="3" NCoef="0" IVar="-1" Cut="0.0000000000000000e+00" cType="1" res="-1.0360650718212128e-02" rms="2.9155230522155762e-01" purity="1.3972611725330353e-01" nType="-99"/>
            <Node pos="r" depth="3" NCoef="0" IVar="-1" Cut="0.0000000000000000e+00" cType="1" res="1.0915228165686131e-02" rms="3.9105388522148132e-01" purity="4.5823207497596741e-01" nType="-99"/>
          </Node>
          <Node pos="r" depth="2" NCoef="0" IVar="8" Cut="-1.9999788999557495e+00" cType="1" res="4.4699295540340245e-04" rms="3.8532525300979614e-01" purity="5.2714741230010986e-01" nType="0">
            <Node pos="l" depth="3" NCoef="0" IVar="-1" Cut="0.0000000000000000e+00" cType="1" res="-1.4566048979759216e-02" rms="3.5016369819641113e-01" purity="2.4764749407768250e-01" nType="-99"/>
            <Node pos="r" depth="3" NCoef="0" IVar="-1" Cut="0.0000000000000000e+00" cType="1" res="8.5271539865061641e-04" rms="3.8669958710670471e-01" purity="5.3881114721298218e-01" nType="-99"/>
          </Node>
        </Node>
        <Node pos="r" depth="1" NCoef="0" IVar="-1" Cut="0.0000000000000000e+00" cType="1" res="-2.8426796197891235e-02" rms="3.3495819568634033e-01" purity="7.9557031393051147e-01" nType="-99"/>
      </Node>
    </BinaryTree>
    <BinaryTree type="DecisionTree" boostWeight="1.0000000000000000e+00" itree="692">
      <Node pos="s" depth="0" NCoef="0" IVar="8" Cut="6.6660380363464355e-01" cType="1" res="-5.2888542995788157e-05" rms="3.8256984949111938e-01" purity="5.0126808881759644e-01" nType="0">
        <Node pos="l" depth="1" NCoef="0" IVar="6" Cut="9.4793003797531128e-01" cType="1" res="3.7898144219070673e-03" rms="3.8206699490547180e-01" purity="5.3252983093261719e-01" nType="0">
          <Node pos="l" depth="2" NCoef="0" IVar="7" Cut="1.4666606187820435e+00" cType="1" res="1.1542255524545908e-03" rms="3.8537251949310303e-01" purity="5.5759954452514648e-01" nType="0">
            <Node pos="l" depth="3" NCoef="0" IVar="-1" Cut="0.0000000000000000e+00" cType="1" res="2.1355648059397936e-03" rms="3.8707125186920166e-01" purity="5.7833415269851685e-01" nType="-99"/>
            <Node pos="r" depth="3" NCoef="0" IVar="-1" Cut="0.0000000000000000e+00" cType="1" res="-1.8628971651196480e-02" rms="3.6052390933036804e-01" purity="2.7841806411743164e-01" nType="-99"/>
          </Node>
          <Node pos="r" depth="2" NCoef="0" IVar="1" Cut="1.5104362792968750e+03" cType="1" res="1.8599091097712517e-02" rms="3.6257776618003845e-01" purity="3.9166373014450073e-01" nType="0">
            <Node pos="l" depth="3" NCoef="0" IVar="-1" Cut="0.0000000000000000e+00" cType="1" res="8.6377374827861786e-03" rms="3.6246359348297119e-01" purity="2.9602023959159851e-01" nType="-99"/>
            <Node pos="r" depth="3" NCoef="0" IVar="-1" Cut="0.0000000000000000e+00" cType="1" res="3.0038343742489815e-02" rms="3.6195752024650574e-01" purity="7.0891785621643066e-01" nType="-99"/>
          </Node>
        </Node>
        <Node pos="r" depth="1" NCoef="0" IVar="4" Cut="1.2982452392578125e+02" cType="1" res="-1.0030603967607021e-02" rms="3.8369283080101013e-01" purity="4.2009583115577698e-01" nType="0">
          <Node pos="l" depth="2" NCoef="0" IVar="8" Cut="1.6824505329132080e+00" cType="1" res="4.3831154471263289e-04" rms="3.8114634156227112e-01" purity="2.9233869910240173e-01" nType="0">
            <Node pos="l" depth="3" NCoef="0" IVar="-1" Cut="0.0000000000000000e+00" cType="1" res="-5.7431571185588837e-03" rms="3.9073303341865540e-01" purity="3.2015895843505859e-01" nType="-99"/>
            <Node pos="r" depth="3" NCoef="0" IVar="-1" Cut="0.0000000000000000e+00" cType="1" res="1.7012925818562508e-02" rms="3.5833710432052612e-01" purity="2.3121951520442963e-01" nType="-99"/>
          </Node>
          <Node pos="r" depth="2" NCoef="0" IVar="5" Cut="1.0083608245849609e+02" cType="1" res="-2.4622635915875435e-02" rms="3.8674178719520569e-01" purity="5.9816926717758179e-01" nType="0">
            <Node pos="l" depth="3" NCoef="0" IVar="-1" Cut="0.0000000000000000e+00" cType="1" res="-2.4295229464769363e-02" rms="4.0112495422363281e-01" purity="4.5749109983444214e-01" nType="-99"/>
            <Node pos="r" depth="3" NCoef="0" IVar="-1" Cut="0.0000000000000000e+00" cType="1" res="-9.0265348553657532e-03" rms="3.7559017539024353e-01" purity="6.9957756996154785e-01" nType="-99"/>
          </Node>
        </Node>
      </Node>
    </BinaryTree>
    <BinaryTree type="DecisionTree" boostWeight="1.0000000000000000e+00" itree="693">
      <Node pos="s" depth="0" NCoef="0" IVar="8" Cut="9.3330031633377075e-01" cType="1" res="-1.3999344082549214e-03" rms="3.8088154792785645e-01" purity="4.9893146753311157e-01" nType="0">
        <Node pos="l" depth="1" NCoef="0" IVar="9" Cut="6.6662502288818359e-01" cType="1" res="-4.3202340602874756e-03" rms="3.8106554746627808e-01" purity="5.2186602354049683e-01" nType="0">
          <Node pos="l" depth="2" NCoef="0" IVar="3" Cut="2.3480358886718750e+02" cType="1" res="-9.0457247570157051e-03" rms="3.8026934862136841e-01" purity="5.2614593505859375e-01" nType="0">
            <Node pos="l" depth="3" NCoef="0" IVar="-1" Cut="0.0000000000000000e+00" cType="1" res="-9.7783170640468597e-03" rms="3.8692018389701843e-01" purity="4.2115852236747742e-01" nType="-99"/>
            <Node pos="r" depth="3" NCoef="0" IVar="-1" Cut="0.0000000000000000e+00" cType="1" res="1.0705158347263932e-03" rms="3.6835625767707825e-01" purity="7.0604020357131958e-01" nType="-99"/>
          </Node>
          <Node pos="r" depth="2" NCoef="0" IVar="8" Cut="4.4455595314502716e-02" cType="1" res="7.1681290864944458e-03" rms="3.8275104761123657e-01" purity="5.1146101951599121e-01" nType="0">
            <Node pos="l" depth="3" NCoef="0" IVar="-1" Cut="0.0000000000000000e+00" cType="1" res="6.0910364845767617e-04" rms="3.7697601318359375e-01" purity="4.9619171023368835e-01" nType="-99"/>
            <Node pos="r" depth="3" NCoef="0" IVar="-1" Cut="0.0000000000000000e+00" cType="1" res="1.1372296139597893e-02" rms="3.9197790622711182e-01" purity="5.3694379329681396e-01" nType="-99"/>
          </Node>
        </Node>
        <Node pos="r" depth="1" NCoef="0" IVar="8" Cut="1.1999670267105103e+00" cType="1" res="9.4551276415586472e-03" rms="3.8000023365020752e-01" purity="4.1368117928504944e-01" nType="0">
          <Node pos="l" depth="2" NCoef="0" IVar="5" Cut="7.2816726684570312e+01" cType="1" res="3.0025660991668701e-02" rms="3.9630305767059326e-01" purity="5.2972185611724854e-01" nType="0">
            <Node pos="l" depth="3" NCoef="0" IVar="-1" Cut="0.0000000000000000e+00" cType="1" res="3.1971804797649384e-02" rms="3.9759585261344910e-01" purity="3.6786073446273804e-01" nType="-99"/>
            <Node pos="r" depth="3" NCoef="0" IVar="-1" Cut="0.0000000000000000e+00" cType="1" res="1.0388319380581379e-02" rms="3.9486324787139893e-01" purity="6.4129662513732910e-01" nType="-99"/>
          </Node>
          <Node pos="r" depth="2" NCoef="0" IVar="6" Cut="1.7976373434066772e-01" cType="1" res="6.1068864306434989e-04" rms="3.7242248654365540e-01" purity="3.6378869414329529e-01" nType="0">
            <Node pos="l" depth="3" NCoef="0" IVar="-1" Cut="0.0000000000000000e+00" cType="1" res="-8.4566576406359673e-03" rms="3.7625521421432495e-01" purity="3.6952817440032959e-01" nType="-99"/>
            <Node pos="r" depth="3" NCoef="0" IVar="-1" Cut="0.0000000000000000e+00" cType="1" res="1.0335635393857956e-02" rms="3.6796423792839050e-01" purity="3.5792514681816101e-01" nType="-99"/>
          </Node>
        </Node>
      </Node>
    </BinaryTree>
    <BinaryTree type="DecisionTree" boostWeight="1.0000000000000000e+00" itree="694">
      <Node pos="s" depth="0" NCoef="0" IVar="7" Cut="-1.7332870960235596e+00" cType="1" res="-5.8052421081811190e-04" rms="3.8217711448669434e-01" purity="4.9757388234138489e-01" nType="0">
        <Node pos="l" depth="1" NCoef="0" IVar="5" Cut="7.0041213989257812e+01" cType="1" res="2.2831216454505920e-02" rms="3.3770978450775146e-01" purity="2.5354960560798645e-01" nType="0">
          <Node pos="l" depth="2" NCoef="0" IVar="-1" Cut="0.0000000000000000e+00" cType="1" res="-1.2457041302695870e-03" rms="2.7458390593528748e-01" purity="1.0222401469945908e-01" nType="-99"/>
          <Node pos="r" depth="2" NCoef="0" IVar="-1" Cut="0.0000000000000000e+00" cType="1" res="2.8314525261521339e-02" rms="3.7949562072753906e-01" purity="3.7405332922935486e-01" nType="-99"/>
        </Node>
        <Node pos="r" depth="1" NCoef="0" IVar="7" Cut="1.2888945341110229e+00" cType="1" res="-2.0722176413983107e-03" rms="3.8478800654411316e-01" purity="5.1312202215194702e-01" nType="0">
          <Node pos="l" depth="2" NCoef="0" IVar="9" Cut="-1.7333047389984131e+00" cType="1" res="-4.0876334533095360e-03" rms="3.8771823048591614e-01" purity="5.4234254360198975e-01" nType="0">
            <Node pos="l" depth="3" NCoef="0" IVar="-1" Cut="0.0000000000000000e+00" cType="1" res="9.9508846178650856e-03" rms="3.8419938087463379e-01" purity="4.3534895777702332e-01" nType="-99"/>
            <Node pos="r" depth="3" NCoef="0" IVar="-1" Cut="0.0000000000000000e+00" cType="1" res="-3.8211848586797714e-03" rms="3.8799312710762024e-01" purity="5.5220907926559448e-01" nType="-99"/>
          </Node>
          <Node pos="r" depth="2" NCoef="0" IVar="6" Cut="4.3380194902420044e-01" cType="1" res="1.1758479289710522e-02" rms="3.6374273896217346e-01" purity="3.1259778141975403e-01" nType="0">
            <Node pos="l" depth="3" NCoef="0" IVar="-1" Cut="0.0000000000000000e+00" cType="1" res="1.4612857252359390e-02" rms="3.7925961613655090e-01" purity="3.5438048839569092e-01" nType="-99"/>
            <Node pos="r" depth="3" NCoef="0" IVar="-1" Cut="0.0000000000000000e+00" cType="1" res="-3.8398518227040768e-03" rms="3.3435770869255066e-01" purity="2.3977625370025635e-01" nType="-99"/>
          </Node>
        </Node>
      </Node>
    </BinaryTree>
    <BinaryTree type="DecisionTree" boostWeight="1.0000000000000000e+00" itree="695">
      <Node pos="s" depth="0" NCoef="0" IVar="9" Cut="1.4666330814361572e+00" cType="1" res="-1.3235325459390879e-03" rms="3.8416534662246704e-01" purity="4.9390417337417603e-01" nType="0">
        <Node pos="l" depth="1" NCoef="0" IVar="5" Cut="8.5091758728027344e+01" cType="1" res="7.8430888243019581e-04" rms="3.8493934273719788e-01" purity="5.0943845510482788e-01" nType="0">
          <Node pos="l" depth="2" NCoef="0" IVar="8" Cut="-9.3337059020996094e-01" cType="1" res="-4.5905234292149544e-03" rms="3.8986185193061829e-01" purity="3.3779013156890869e-01" nType="0">
            <Node pos="l" depth="3" NCoef="0" IVar="-1" Cut="0.0000000000000000e+00" cType="1" res="6.0388850979506969e-03" rms="3.7109687924385071e-01" purity="2.7718216180801392e-01" nType="-99"/>
            <Node pos="r" depth="3" NCoef="0" IVar="-1" Cut="0.0000000000000000e+00" cType="1" res="-5.4575921967625618e-03" rms="3.9566844701766968e-01" purity="3.5745644569396973e-01" nType="-99"/>
          </Node>
          <Node pos="r" depth="2" NCoef="0" IVar="6" Cut="1.5427619218826294e-01" cType="1" res="6.7554945126175880e-03" rms="3.7930649518966675e-01" purity="7.0013165473937988e-01" nType="0">
            <Node pos="l" depth="3" NCoef="0" IVar="-1" Cut="0.0000000000000000e+00" cType="1" res="1.0386910289525986e-02" rms="3.7608462572097778e-01" purity="7.1871346235275269e-01" nType="-99"/>
            <Node pos="r" depth="3" NCoef="0" IVar="-1" Cut="0.0000000000000000e+00" cType="1" res="-3.1000436283648014e-03" rms="3.8348069787025452e-01" purity="6.7417514324188232e-01" nType="-99"/>
          </Node>
        </Node>
        <Node pos="r" depth="1" NCoef="0" IVar="8" Cut="6.6625958681106567e-01" cType="1" res="-1.6331629827618599e-02" rms="3.7826922535896301e-01" purity="3.8329803943634033e-01" nType="0">
          <Node pos="l" depth="2" NCoef="0" IVar="8" Cut="-8.1922531127929688e-01" cType="1" res="-2.6055062189698219e-02" rms="3.8691195845603943e-01" purity="4.2073971033096313e-01" nType="0">
            <Node pos="l" depth="3" NCoef="0" IVar="-1" Cut="0.0000000000000000e+00" cType="1" res="-5.2046198397874832e-03" rms="3.8428890705108643e-01" purity="3.5412833094596863e-01" nType="-99"/>
            <Node pos="r" depth="3" NCoef="0" IVar="-1" Cut="0.0000000000000000e+00" cType="1" res="-2.2183043882250786e-02" rms="3.8794445991516113e-01" purity="4.5583191514015198e-01" nType="-99"/>
          </Node>
          <Node pos="r" depth="2" NCoef="0" IVar="-1" Cut="0.0000000000000000e+00" cType="1" res="9.1220811009407043e-04" rms="3.6144894361495972e-01" purity="3.1557440757751465e-01" nType="-99"/>
        </Node>
      </Node>
    </BinaryTree>
    <BinaryTree type="DecisionTree" boostWeight="1.0000000000000000e+00" itree="696">
      <Node pos="s" depth="0" NCoef="0" IVar="4" Cut="9.7307144165039062e+01" cType="1" res="2.4862685240805149e-03" rms="3.8128471374511719e-01" purity="5.0384312868118286e-01" nType="0">
        <Node pos="l" depth="1" NCoef="0" IVar="8" Cut="-1.3328318297863007e-01" cType="1" res="-6.3568907789885998e-03" rms="3.6266666650772095e-01" purity="2.2580891847610474e-01" nType="0">
          <Node pos="l" depth="2" NCoef="0" IVar="5" Cut="7.2350036621093750e+01" cType="1" res="5.6660044938325882e-03" rms="3.7252381443977356e-01" purity="2.3881645500659943e-01" nType="0">
            <Node pos="l" depth="3" NCoef="0" IVar="-1" Cut="0.0000000000000000e+00" cType="1" res="1.1593220755457878e-02" rms="3.6327666044235229e-01" purity="2.1889336407184601e-01" nType="-99"/>
            <Node pos="r" depth="3" NCoef="0" IVar="-1" Cut="0.0000000000000000e+00" cType="1" res="-1.7271040007472038e-02" rms="4.0359061956405640e-01" purity="3.1396624445915222e-01" nType="-99"/>
          </Node>
          <Node pos="r" depth="2" NCoef="0" IVar="9" Cut="-9.3292474746704102e-01" cType="1" res="-1.6938151791691780e-02" rms="3.5342606902122498e-01" purity="2.1436105668544769e-01" nType="0">
            <Node pos="l" depth="3" NCoef="0" IVar="-1" Cut="0.0000000000000000e+00" cType="1" res="-3.2732136547565460e-02" rms="3.3938467502593994e-01" purity="1.9597078859806061e-01" nType="-99"/>
            <Node pos="r" depth="3" NCoef="0" IVar="-1" Cut="0.0000000000000000e+00" cType="1" res="-6.8149855360388756e-03" rms="3.5695767402648926e-01" purity="2.1960443258285522e-01" nType="-99"/>
          </Node>
        </Node>
        <Node pos="r" depth="1" NCoef="0" IVar="6" Cut="-6.5597492456436157e-01" cType="1" res="6.0426145792007446e-03" rms="3.8846388459205627e-01" purity="6.1565679311752319e-01" nType="0">
          <Node pos="l" depth="2" NCoef="0" IVar="8" Cut="-3.9930090308189392e-01" cType="1" res="1.5921875834465027e-02" rms="3.9347478747367859e-01" purity="5.1408618688583374e-01" nType="0">
            <Node pos="l" depth="3" NCoef="0" IVar="-1" Cut="0.0000000000000000e+00" cType="1" res="2.3917868384160101e-04" rms="3.9287599921226501e-01" purity="4.6197488903999329e-01" nType="-99"/>
            <Node pos="r" depth="3" NCoef="0" IVar="-1" Cut="0.0000000000000000e+00" cType="1" res="1.6737297177314758e-02" rms="3.9352992177009583e-01" purity="5.4983419179916382e-01" nType="-99"/>
          </Node>
          <Node pos="r" depth="2" NCoef="0" IVar="9" Cut="-1.1999300718307495e+00" cType="1" res="3.0064308084547520e-03" rms="3.8686016201972961e-01" purity="6.4687240123748779e-01" nType="0">
            <Node pos="l" depth="3" NCoef="0" IVar="-1" Cut="0.0000000000000000e+00" cType="1" res="-6.7200227640569210e-03" rms="3.9766329526901245e-01" purity="5.6998729705810547e-01" nType="-99"/>
            <Node pos="r" depth="3" NCoef="0" IVar="-1" Cut="0.0000000000000000e+00" cType="1" res="3.4883900079876184e-03" rms="3.8498583436012268e-01" purity="6.5966480970382690e-01" nType="-99"/>
          </Node>
        </Node>
      </Node>
    </BinaryTree>
    <BinaryTree type="DecisionTree" boostWeight="1.0000000000000000e+00" itree="697">
      <Node pos="s" depth="0" NCoef="0" IVar="8" Cut="1.4665554761886597e+00" cType="1" res="6.5904068760573864e-03" rms="3.8436073064804077e-01" purity="5.0387841463088989e-01" nType="0">
        <Node pos="l" depth="1" NCoef="0" IVar="8" Cut="-2.1904494762420654e+00" cType="1" res="8.4650265052914619e-03" rms="3.8642269372940063e-01" purity="5.2651095390319824e-01" nType="0">
          <Node pos="l" depth="2" NCoef="0" IVar="-1" Cut="0.0000000000000000e+00" cType="1" res="2.7518069371581078e-02" rms="3.6088734865188599e-01" purity="2.6424840092658997e-01" nType="-99"/>
          <Node pos="r" depth="2" NCoef="0" IVar="9" Cut="1.7333244085311890e+00" cType="1" res="7.6109748333692551e-03" rms="3.8723668456077576e-01" purity="5.3546935319900513e-01" nType="0">
            <Node pos="l" depth="3" NCoef="0" IVar="-1" Cut="0.0000000000000000e+00" cType="1" res="5.9363851323723793e-03" rms="3.8864445686340332e-01" purity="5.4642689228057861e-01" nType="-99"/>
            <Node pos="r" depth="3" NCoef="0" IVar="-1" Cut="0.0000000000000000e+00" cType="1" res="-5.6066764518618584e-03" rms="3.7039840221405029e-01" purity="4.1035750508308411e-01" nType="-99"/>
          </Node>
        </Node>
        <Node pos="r" depth="1" NCoef="0" IVar="4" Cut="1.4396379089355469e+02" cType="1" res="-1.0050010867416859e-02" rms="3.6512616276741028e-01" purity="3.0297669768333435e-01" nType="0">
          <Node pos="l" depth="2" NCoef="0" IVar="5" Cut="7.2269485473632812e+01" cType="1" res="9.0496760094538331e-04" rms="3.5387450456619263e-01" purity="2.4880780279636383e-01" nType="0">
            <Node pos="l" depth="3" NCoef="0" IVar="-1" Cut="0.0000000000000000e+00" cType="1" res="-1.3949332758784294e-02" rms="3.1284949183464050e-01" purity="1.4732028543949127e-01" nType="-99"/>
            <Node pos="r" depth="3" NCoef="0" IVar="-1" Cut="0.0000000000000000e+00" cType="1" res="1.3609504327178001e-02" rms="4.0099203586578369e-01" purity="3.8369384407997131e-01" nType="-99"/>
          </Node>
          <Node pos="r" depth="2" NCoef="0" IVar="-1" Cut="0.0000000000000000e+00" cType="1" res="-2.6932703331112862e-02" rms="3.9526468515396118e-01" purity="4.6613618731498718e-01" nType="-99"/>
        </Node>
      </Node>
    </BinaryTree>
    <BinaryTree type="DecisionTree" boostWeight="1.0000000000000000e+00" itree="698">
      <Node pos="s" depth="0" NCoef="0" IVar="3" Cut="1.4581669616699219e+02" cType="1" res="2.0424015820026398e-03" rms="3.8333216309547424e-01" purity="5.0081765651702881e-01" nType="0">
        <Node pos="l" depth="1" NCoef="0" IVar="5" Cut="8.5961578369140625e+01" cType="1" res="-5.9428745880723000e-03" rms="3.6361512541770935e-01" purity="2.3102445900440216e-01" nType="0">
          <Node pos="l" depth="2" NCoef="0" IVar="1" Cut="1.0368145751953125e+03" cType="1" res="-9.8273833282291889e-04" rms="3.5069850087165833e-01" purity="1.9786649942398071e-01" nType="0">
            <Node pos="l" depth="3" NCoef="0" IVar="-1" Cut="0.0000000000000000e+00" cType="1" res="6.6107134334743023e-03" rms="3.3400058746337891e-01" purity="1.5614497661590576e-01" nType="-99"/>
            <Node pos="r" depth="3" NCoef="0" IVar="-1" Cut="0.0000000000000000e+00" cType="1" res="-1.0562656447291374e-02" rms="3.7939539551734924e-01" purity="2.7565738558769226e-01" nType="-99"/>
          </Node>
          <Node pos="r" depth="2" NCoef="0" IVar="-1" Cut="0.0000000000000000e+00" cType="1" res="-1.8686769530177116e-02" rms="4.2760023474693298e-01" purity="4.1621413826942444e-01" nType="-99"/>
        </Node>
        <Node pos="r" depth="1" NCoef="0" IVar="6" Cut="1.4995734393596649e-01" cType="1" res="4.5515480451285839e-03" rms="3.8928773999214172e-01" purity="5.8559250831604004e-01" nType="0">
          <Node pos="l" depth="2" NCoef="0" IVar="6" Cut="-4.0524268150329590e-01" cType="1" res="9.7909858450293541e-03" rms="3.9186599850654602e-01" purity="6.0290843248367310e-01" nType="0">
            <Node pos="l" depth="3" NCoef="0" IVar="-1" Cut="0.0000000000000000e+00" cType="1" res="1.8514699768275023e-03" rms="3.9458891749382019e-01" purity="5.2148926258087158e-01" nType="-99"/>
            <Node pos="r" depth="3" NCoef="0" IVar="-1" Cut="0.0000000000000000e+00" cType="1" res="1.2401641346514225e-02" rms="3.8802751898765564e-01" purity="7.1116101741790771e-01" nType="-99"/>
          </Node>
          <Node pos="r" depth="2" NCoef="0" IVar="9" Cut="-1.3329644501209259e-01" cType="1" res="-2.4137783329933882e-03" rms="3.8572338223457336e-01" purity="5.6257259845733643e-01" nType="0">
            <Node pos="l" depth="3" NCoef="0" IVar="-1" Cut="0.0000000000000000e+00" cType="1" res="5.0113033503293991e-03" rms="3.8638430833816528e-01" purity="5.8277612924575806e-01" nType="-99"/>
            <Node pos="r" depth="3" NCoef="0" IVar="-1" Cut="0.0000000000000000e+00" cType="1" res="-6.4574042335152626e-03" rms="3.8507422804832458e-01" purity="5.4785084724426270e-01" nType="-99"/>
          </Node>
        </Node>
      </Node>
    </BinaryTree>
    <BinaryTree type="DecisionTree" boostWeight="1.0000000000000000e+00" itree="699">
      <Node pos="s" depth="0" NCoef="0" IVar="8" Cut="1.7332873344421387e+00" cType="1" res="-1.5505626797676086e-03" rms="3.8154199719429016e-01" purity="4.9685415625572205e-01" nType="0">
        <Node pos="l" depth="1" NCoef="0" IVar="8" Cut="6.5393781661987305e-01" cType="1" res="-4.0966787491925061e-04" rms="3.8351750373840332e-01" purity="5.1364308595657349e-01" nType="0">
          <Node pos="l" depth="2" NCoef="0" IVar="7" Cut="1.3338753581047058e-01" cType="1" res="-2.6266505010426044e-03" rms="3.8273409008979797e-01" purity="5.2023190259933472e-01" nType="0">
            <Node pos="l" depth="3" NCoef="0" IVar="-1" Cut="0.0000000000000000e+00" cType="1" res="5.9507961850613356e-04" rms="3.8364109396934509e-01" purity="5.2870172262191772e-01" nType="-99"/>
            <Node pos="r" depth="3" NCoef="0" IVar="-1" Cut="0.0000000000000000e+00" cType="1" res="-4.9887667410075665e-03" rms="3.8142508268356323e-01" purity="5.0853949785232544e-01" nType="-99"/>
          </Node>
          <Node pos="r" depth="2" NCoef="0" IVar="3" Cut="1.3146127319335938e+02" cType="1" res="6.7258826456964016e-03" rms="3.8594177365303040e-01" purity="4.9243625998497009e-01" nType="0">
            <Node pos="l" depth="3" NCoef="0" IVar="-1" Cut="0.0000000000000000e+00" cType="1" res="-1.4743562787771225e-02" rms="3.4267541766166687e-01" purity="1.8364387750625610e-01" nType="-99"/>
            <Node pos="r" depth="3" NCoef="0" IVar="-1" Cut="0.0000000000000000e+00" cType="1" res="7.6434598304331303e-03" rms="3.9444285631179810e-01" purity="5.5911850929260254e-01" nType="-99"/>
          </Node>
        </Node>
        <Node pos="r" depth="1" NCoef="0" IVar="8" Cut="2.1396520137786865e+00" cType="1" res="-1.7165653407573700e-02" rms="3.5302531719207764e-01" purity="2.6706969738006592e-01" nType="0">
          <Node pos="l" depth="2" NCoef="0" IVar="-1" Cut="0.0000000000000000e+00" cType="1" res="-2.2493928670883179e-02" rms="3.5580772161483765e-01" purity="2.9667523503303528e-01" nType="-99"/>
          <Node pos="r" depth="2" NCoef="0" IVar="-1" Cut="0.0000000000000000e+00" cType="1" res="-4.8645879724062979e-04" rms="3.4900948405265808e-01" purity="2.3238281905651093e-01" nType="-99"/>
        </Node>
      </Node>
    </BinaryTree>
    <BinaryTree type="DecisionTree" boostWeight="1.0000000000000000e+00" itree="700">
      <Node pos="s" depth="0" NCoef="0" IVar="8" Cut="3.9997562766075134e-01" cType="1" res="2.3705900821369141e-04" rms="3.8174113631248474e-01" purity="5.0204843282699585e-01" nType="0">
        <Node pos="l" depth="1" NCoef="0" IVar="1" Cut="1.0901917724609375e+03" cType="1" res="4.0558348409831524e-03" rms="3.8133066892623901e-01" purity="5.2654224634170532e-01" nType="0">
          <Node pos="l" depth="2" NCoef="0" IVar="7" Cut="9.3293929100036621e-01" cType="1" res="-4.6971454285085201e-03" rms="3.7685704231262207e-01" purity="2.3057657480239868e-01" nType="0">
            <Node pos="l" depth="3" NCoef="0" IVar="-1" Cut="0.0000000000000000e+00" cType="1" res="1.1641852324828506e-03" rms="3.9042016863822937e-01" purity="2.5387519598007202e-01" nType="-99"/>
            <Node pos="r" depth="3" NCoef="0" IVar="-1" Cut="0.0000000000000000e+00" cType="1" res="-2.5555940344929695e-02" rms="3.1625702977180481e-01" purity="1.3838897645473480e-01" nType="-99"/>
          </Node>
          <Node pos="r" depth="2" NCoef="0" IVar="6" Cut="-6.0032904148101807e-01" cType="1" res="7.5892591848969460e-03" rms="3.8306516408920288e-01" purity="6.4601838588714600e-01" nType="0">
            <Node pos="l" depth="3" NCoef="0" IVar="-1" Cut="0.0000000000000000e+00" cType="1" res="-1.2967602815479040e-03" rms="3.9614775776863098e-01" purity="5.3565222024917603e-01" nType="-99"/>
            <Node pos="r" depth="3" NCoef="0" IVar="-1" Cut="0.0000000000000000e+00" cType="1" res="7.3760394006967545e-03" rms="3.7853068113327026e-01" purity="6.8295496702194214e-01" nType="-99"/>
          </Node>
        </Node>
        <Node pos="r" depth="1" NCoef="0" IVar="1" Cut="1.1048660888671875e+03" cType="1" res="-6.5950620919466019e-03" rms="3.8237926363945007e-01" purity="4.5822697877883911e-01" nType="0">
          <Node pos="l" depth="2" NCoef="0" IVar="5" Cut="6.8473083496093750e+01" cType="1" res="4.5590554364025593e-03" rms="3.6546051502227783e-01" purity="2.1613124012947083e-01" nType="0">
            <Node pos="l" depth="3" NCoef="0" IVar="-1" Cut="0.0000000000000000e+00" cType="1" res="-3.6870264448225498e-03" rms="3.3041742444038391e-01" purity="1.5137219429016113e-01" nType="-99"/>
            <Node pos="r" depth="3" NCoef="0" IVar="-1" Cut="0.0000000000000000e+00" cType="1" res="9.5689436420798302e-03" rms="4.0641182661056519e-01" purity="3.0066633224487305e-01" nType="-99"/>
          </Node>
          <Node pos="r" depth="2" NCoef="0" IVar="7" Cut="1.1999958753585815e+00" cType="1" res="-1.2376125901937485e-02" rms="3.9073479175567627e-01" purity="5.8370262384414673e-01" nType="0">
            <Node pos="l" depth="3" NCoef="0" IVar="-1" Cut="0.0000000000000000e+00" cType="1" res="-5.3032417781651020e-03" rms="3.9101216197013855e-01" purity="6.1909604072570801e-01" nType="-99"/>
            <Node pos="r" depth="3" NCoef="0" IVar="-1" Cut="0.0000000000000000e+00" cType="1" res="-2.4088077247142792e-02" rms="3.8805401325225830e-01" purity="3.6857858300209045e-01" nType="-99"/>
          </Node>
        </Node>
      </Node>
    </BinaryTree>
    <BinaryTree type="DecisionTree" boostWeight="1.0000000000000000e+00" itree="701">
      <Node pos="s" depth="0" NCoef="0" IVar="4" Cut="9.9504882812500000e+01" cType="1" res="-2.3744590580463409e-03" rms="3.8095831871032715e-01" purity="4.9818971753120422e-01" nType="0">
        <Node pos="l" depth="1" NCoef="0" IVar="5" Cut="8.0466186523437500e+01" cType="1" res="5.3632841445505619e-03" rms="3.6667990684509277e-01" purity="2.4892318248748779e-01" nType="0">
          <Node pos="l" depth="2" NCoef="0" IVar="8" Cut="3.9997363090515137e-01" cType="1" res="1.2202149955555797e-03" rms="3.5599189996719360e-01" purity="2.2690221667289734e-01" nType="0">
            <Node pos="l" depth="3" NCoef="0" IVar="-1" Cut="0.0000000000000000e+00" cType="1" res="-4.4690351933240891e-03" rms="3.5823699831962585e-01" purity="2.2885057330131531e-01" nType="-99"/>
            <Node pos="r" depth="3" NCoef="0" IVar="-1" Cut="0.0000000000000000e+00" cType="1" res="1.0121336206793785e-02" rms="3.5219621658325195e-01" purity="2.2389879822731018e-01" nType="-99"/>
          </Node>
          <Node pos="r" depth="2" NCoef="0" IVar="-1" Cut="0.0000000000000000e+00" cType="1" res="2.1205546334385872e-02" rms="4.4042477011680603e-01" purity="4.2202273011207581e-01" nType="-99"/>
        </Node>
        <Node pos="r" depth="1" NCoef="0" IVar="8" Cut="-6.6661459207534790e-01" cType="1" res="-5.8992081321775913e-03" rms="3.8723677396774292e-01" purity="6.1173731088638306e-01" nType="0">
          <Node pos="l" depth="2" NCoef="0" IVar="9" Cut="-1.4664522409439087e+00" cType="1" res="-1.5410193242132664e-02" rms="3.9032191038131714e-01" purity="5.3744930028915405e-01" nType="0">
            <Node pos="l" depth="3" NCoef="0" IVar="-1" Cut="0.0000000000000000e+00" cType="1" res="1.2702364474534988e-02" rms="4.0024653077125549e-01" purity="4.2668929696083069e-01" nType="-99"/>
            <Node pos="r" depth="3" NCoef="0" IVar="-1" Cut="0.0000000000000000e+00" cType="1" res="-1.3831955380737782e-02" rms="3.8827055692672729e-01" purity="5.5649405717849731e-01" nType="-99"/>
          </Node>
          <Node pos="r" depth="2" NCoef="0" IVar="3" Cut="1.7954656982421875e+02" cType="1" res="-2.4722125381231308e-03" rms="3.8606166839599609e-01" purity="6.3850474357604980e-01" nType="0">
            <Node pos="l" depth="3" NCoef="0" IVar="-1" Cut="0.0000000000000000e+00" cType="1" res="-6.5497849136590958e-03" rms="4.1995388269424438e-01" purity="4.5776200294494629e-01" nType="-99"/>
            <Node pos="r" depth="3" NCoef="0" IVar="-1" Cut="0.0000000000000000e+00" cType="1" res="3.6800606176257133e-04" rms="3.7414538860321045e-01" purity="6.9820177555084229e-01" nType="-99"/>
          </Node>
        </Node>
      </Node>
    </BinaryTree>
    <BinaryTree type="DecisionTree" boostWeight="1.0000000000000000e+00" itree="702">
      <Node pos="s" depth="0" NCoef="0" IVar="7" Cut="4.0004569292068481e-01" cType="1" res="2.1276071202009916e-03" rms="3.8409212231636047e-01" purity="5.0021398067474365e-01" nType="0">
        <Node pos="l" depth="1" NCoef="0" IVar="9" Cut="1.1998919248580933e+00" cType="1" res="-1.6139609506353736e-03" rms="3.8270321488380432e-01" purity="5.2322739362716675e-01" nType="0">
          <Node pos="l" depth="2" NCoef="0" IVar="8" Cut="-1.1999301910400391e+00" cType="1" res="-4.1480530053377151e-03" rms="3.8190719485282898e-01" purity="5.3255605697631836e-01" nType="0">
            <Node pos="l" depth="3" NCoef="0" IVar="-1" Cut="0.0000000000000000e+00" cType="1" res="6.0612205415964127e-03" rms="3.7693476676940918e-01" purity="3.9893487095832825e-01" nType="-99"/>
            <Node pos="r" depth="3" NCoef="0" IVar="-1" Cut="0.0000000000000000e+00" cType="1" res="-4.6150428242981434e-03" rms="3.8288277387619019e-01" purity="5.6047874689102173e-01" nType="-99"/>
          </Node>
          <Node pos="r" depth="2" NCoef="0" IVar="5" Cut="7.0604614257812500e+01" cType="1" res="1.2008713558316231e-02" rms="3.8666987419128418e-01" purity="4.7307869791984558e-01" nType="0">
            <Node pos="l" depth="3" NCoef="0" IVar="-1" Cut="0.0000000000000000e+00" cType="1" res="-4.2487545870244503e-03" rms="3.6846244335174561e-01" purity="2.8434634208679199e-01" nType="-99"/>
            <Node pos="r" depth="3" NCoef="0" IVar="-1" Cut="0.0000000000000000e+00" cType="1" res="1.4791546389460564e-02" rms="3.9781093597412109e-01" purity="5.9797990322113037e-01" nType="-99"/>
          </Node>
        </Node>
        <Node pos="r" depth="1" NCoef="0" IVar="6" Cut="1.4833332300186157e+00" cType="1" res="8.8484548032283783e-03" rms="3.8648346066474915e-01" purity="4.5887586474418640e-01" nType="0">
          <Node pos="l" depth="2" NCoef="0" IVar="5" Cut="8.3531250000000000e+01" cType="1" res="5.3110918961465359e-03" rms="3.8994109630584717e-01" purity="4.7825393080711365e-01" nType="0">
            <Node pos="l" depth="3" NCoef="0" IVar="-1" Cut="0.0000000000000000e+00" cType="1" res="9.0633295476436615e-03" rms="3.9500382542610168e-01" purity="3.2494786381721497e-01" nType="-99"/>
            <Node pos="r" depth="3" NCoef="0" IVar="-1" Cut="0.0000000000000000e+00" cType="1" res="-2.9602686408907175e-03" rms="3.8375577330589294e-01" purity="6.5589779615402222e-01" nType="-99"/>
          </Node>
          <Node pos="r" depth="2" NCoef="0" IVar="-1" Cut="0.0000000000000000e+00" cType="1" res="4.9075298011302948e-02" rms="3.4290045499801636e-01" purity="2.4176517128944397e-01" nType="-99"/>
        </Node>
      </Node>
    </BinaryTree>
    <BinaryTree type="DecisionTree" boostWeight="1.0000000000000000e+00" itree="703">
      <Node pos="s" depth="0" NCoef="0" IVar="6" Cut="1.4749945402145386e+00" cType="1" res="8.0219894880428910e-04" rms="3.8101255893707275e-01" purity="5.0205242633819580e-01" nType="0">
        <Node pos="l" depth="1" NCoef="0" IVar="2" Cut="3.4929663085937500e+02" cType="1" res="2.4135450366884470e-03" rms="3.8573768734931946e-01" purity="5.2384907007217407e-01" nType="0">
          <Node pos="l" depth="2" NCoef="0" IVar="1" Cut="9.9591516113281250e+02" cType="1" res="-2.3633127566426992e-03" rms="3.9133813977241516e-01" purity="4.8100504279136658e-01" nType="0">
            <Node pos="l" depth="3" NCoef="0" IVar="-1" Cut="0.0000000000000000e+00" cType="1" res="-1.2171186506748199e-02" rms="3.5580298304557800e-01" purity="1.8018968403339386e-01" nType="-99"/>
            <Node pos="r" depth="3" NCoef="0" IVar="-1" Cut="0.0000000000000000e+00" cType="1" res="2.4660576600581408e-03" rms="4.0626347064971924e-01" purity="6.1740416288375854e-01" nType="-99"/>
          </Node>
          <Node pos="r" depth="2" NCoef="0" IVar="6" Cut="4.6550306677818298e-01" cType="1" res="7.2420062497258186e-03" rms="3.7993177771568298e-01" purity="5.6715595722198486e-01" nType="0">
            <Node pos="l" depth="3" NCoef="0" IVar="-1" Cut="0.0000000000000000e+00" cType="1" res="2.8976437170058489e-03" rms="3.7779250741004944e-01" purity="5.8118468523025513e-01" nType="-99"/>
            <Node pos="r" depth="3" NCoef="0" IVar="-1" Cut="0.0000000000000000e+00" cType="1" res="1.1109221726655960e-02" rms="3.8609987497329712e-01" purity="5.2531731128692627e-01" nType="-99"/>
          </Node>
        </Node>
        <Node pos="r" depth="1" NCoef="0" IVar="7" Cut="-1.3326075673103333e-01" cType="1" res="-2.2482039406895638e-02" rms="3.0370718240737915e-01" purity="1.8708674609661102e-01" nType="0">
          <Node pos="l" depth="2" NCoef="0" IVar="-1" Cut="0.0000000000000000e+00" cType="1" res="-6.3196835108101368e-03" rms="3.0275967717170715e-01" purity="1.8175929784774780e-01" nType="-99"/>
          <Node pos="r" depth="2" NCoef="0" IVar="-1" Cut="0.0000000000000000e+00" cType="1" res="-3.1161170452833176e-02" rms="3.0386522412300110e-01" purity="1.9120562076568604e-01" nType="-99"/>
        </Node>
      </Node>
    </BinaryTree>
    <BinaryTree type="DecisionTree" boostWeight="1.0000000000000000e+00" itree="704">
      <Node pos="s" depth="0" NCoef="0" IVar="2" Cut="3.3976593017578125e+02" cType="1" res="1.5962908510118723e-03" rms="3.8215082883834839e-01" purity="5.0476551055908203e-01" nType="0">
        <Node pos="l" depth="1" NCoef="0" IVar="2" Cut="2.2662411499023438e+02" cType="1" res="5.9491372667253017e-03" rms="3.9013254642486572e-01" purity="4.6666038036346436e-01" nType="0">
          <Node pos="l" depth="2" NCoef="0" IVar="8" Cut="1.3355100154876709e-01" cType="1" res="2.3383416235446930e-02" rms="4.1270294785499573e-01" purity="4.1479557752609253e-01" nType="0">
            <Node pos="l" depth="3" NCoef="0" IVar="-1" Cut="0.0000000000000000e+00" cType="1" res="1.2836238602176309e-03" rms="4.0657475590705872e-01" purity="4.0344962477684021e-01" nType="-99"/>
            <Node pos="r" depth="3" NCoef="0" IVar="-1" Cut="0.0000000000000000e+00" cType="1" res="2.7999600395560265e-02" rms="4.1809475421905518e-01" purity="4.2727383971214294e-01" nType="-99"/>
          </Node>
          <Node pos="r" depth="2" NCoef="0" IVar="1" Cut="9.0098400878906250e+02" cType="1" res="2.2834555711597204e-03" rms="3.8511830568313599e-01" purity="4.7756534814834595e-01" nType="0">
            <Node pos="l" depth="3" NCoef="0" IVar="-1" Cut="0.0000000000000000e+00" cType="1" res="-2.2134661674499512e-02" rms="2.7097582817077637e-01" purity="8.7100841104984283e-02" nType="-99"/>
            <Node pos="r" depth="3" NCoef="0" IVar="-1" Cut="0.0000000000000000e+00" cType="1" res="3.2011237926781178e-03" rms="3.9744740724563599e-01" purity="5.2823364734649658e-01" nType="-99"/>
          </Node>
        </Node>
        <Node pos="r" depth="1" NCoef="0" IVar="8" Cut="-1.3334205746650696e-01" cType="1" res="-2.5912467390298843e-03" rms="3.7426388263702393e-01" purity="5.4142349958419800e-01" nType="0">
          <Node pos="l" depth="2" NCoef="0" IVar="9" Cut="-1.1997929811477661e+00" cType="1" res="5.7808170095086098e-03" rms="3.7467449903488159e-01" purity="5.3791356086730957e-01" nType="0">
            <Node pos="l" depth="3" NCoef="0" IVar="-1" Cut="0.0000000000000000e+00" cType="1" res="1.9122039899230003e-02" rms="3.8177230954170227e-01" purity="4.6226084232330322e-01" nType="-99"/>
            <Node pos="r" depth="3" NCoef="0" IVar="-1" Cut="0.0000000000000000e+00" cType="1" res="1.2419247650541365e-04" rms="3.7268269062042236e-01" purity="5.5666106939315796e-01" nType="-99"/>
          </Node>
          <Node pos="r" depth="2" NCoef="0" IVar="4" Cut="9.5119949340820312e+01" cType="1" res="-9.8060527816414833e-03" rms="3.7375926971435547e-01" purity="5.4444831609725952e-01" nType="0">
            <Node pos="l" depth="3" NCoef="0" IVar="-1" Cut="0.0000000000000000e+00" cType="1" res="4.6886932104825974e-03" rms="3.6301749944686890e-01" purity="2.5882679224014282e-01" nType="-99"/>
            <Node pos="r" depth="3" NCoef="0" IVar="-1" Cut="0.0000000000000000e+00" cType="1" res="-1.0617641732096672e-02" rms="3.7709787487983704e-01" purity="6.3904643058776855e-01" nType="-99"/>
          </Node>
        </Node>
      </Node>
    </BinaryTree>
    <BinaryTree type="DecisionTree" boostWeight="1.0000000000000000e+00" itree="705">
      <Node pos="s" depth="0" NCoef="0" IVar="7" Cut="-1.9999428987503052e+00" cType="1" res="-1.9248350872658193e-04" rms="3.8147550821304321e-01" purity="4.9901932477951050e-01" nType="0">
        <Node pos="l" depth="1" NCoef="0" IVar="-1" Cut="0.0000000000000000e+00" cType="1" res="-3.2769367098808289e-02" rms="2.8824198246002197e-01" purity="1.5161493420600891e-01" nType="-99"/>
        <Node pos="r" depth="1" NCoef="0" IVar="7" Cut="-1.7139349877834320e-01" cType="1" res="1.0234318906441331e-03" rms="3.8434877991676331e-01" purity="5.1149916648864746e-01" nType="0">
          <Node pos="l" depth="2" NCoef="0" IVar="0" Cut="5.6937658691406250e+02" cType="1" res="7.0405560545623302e-03" rms="3.8774201273918152e-01" purity="5.1418954133987427e-01" nType="0">
            <Node pos="l" depth="3" NCoef="0" IVar="-1" Cut="0.0000000000000000e+00" cType="1" res="6.5600005909800529e-03" rms="3.9593884348869324e-01" purity="4.5277497172355652e-01" nType="-99"/>
            <Node pos="r" depth="3" NCoef="0" IVar="-1" Cut="0.0000000000000000e+00" cType="1" res="-6.7116608843207359e-03" rms="3.4760388731956482e-01" purity="7.9373335838317871e-01" nType="-99"/>
          </Node>
          <Node pos="r" depth="2" NCoef="0" IVar="4" Cut="9.9465583801269531e+01" cType="1" res="-3.2825772650539875e-03" rms="3.8184377551078796e-01" purity="5.0957387685775757e-01" nType="0">
            <Node pos="l" depth="3" NCoef="0" IVar="-1" Cut="0.0000000000000000e+00" cType="1" res="-8.2190195098519325e-03" rms="3.6285451054573059e-01" purity="2.4329049885272980e-01" nType="-99"/>
            <Node pos="r" depth="3" NCoef="0" IVar="-1" Cut="0.0000000000000000e+00" cType="1" res="1.7826390103437006e-04" rms="3.8971915841102600e-01" purity="6.2478244304656982e-01" nType="-99"/>
          </Node>
        </Node>
      </Node>
    </BinaryTree>
    <BinaryTree type="DecisionTree" boostWeight="1.0000000000000000e+00" itree="706">
      <Node pos="s" depth="0" NCoef="0" IVar="9" Cut="-2.2666301727294922e+00" cType="1" res="9.8810717463493347e-04" rms="3.8242176175117493e-01" purity="5.0313830375671387e-01" nType="0">
        <Node pos="l" depth="1" NCoef="0" IVar="-1" Cut="0.0000000000000000e+00" cType="1" res="-2.2134657949209213e-02" rms="3.4794467687606812e-01" purity="2.8401407599449158e-01" nType="-99"/>
        <Node pos="r" depth="1" NCoef="0" IVar="2" Cut="4.7971969604492188e+02" cType="1" res="1.9136504270136356e-03" rms="3.8337615132331848e-01" purity="5.0975269079208374e-01" nType="0">
          <Node pos="l" depth="2" NCoef="0" IVar="3" Cut="2.9557876586914062e+02" cType="1" res="4.3026753701269627e-03" rms="3.8347306847572327e-01" purity="4.9928614497184753e-01" nType="0">
            <Node pos="l" depth="3" NCoef="0" IVar="-1" Cut="0.0000000000000000e+00" cType="1" res="4.1572633199393749e-03" rms="3.8666641712188721e-01" purity="4.7292089462280273e-01" nType="-99"/>
            <Node pos="r" depth="3" NCoef="0" IVar="-1" Cut="0.0000000000000000e+00" cType="1" res="-9.9825449287891388e-03" rms="3.5432672500610352e-01" purity="7.2631007432937622e-01" nType="-99"/>
          </Node>
          <Node pos="r" depth="2" NCoef="0" IVar="7" Cut="9.3316704034805298e-01" cType="1" res="-7.8711640089750290e-03" rms="3.8282340764999390e-01" purity="5.5262106657028198e-01" nType="0">
            <Node pos="l" depth="3" NCoef="0" IVar="-1" Cut="0.0000000000000000e+00" cType="1" res="-2.6065262500196695e-03" rms="3.8352310657501221e-01" purity="5.8811765909194946e-01" nType="-99"/>
            <Node pos="r" depth="3" NCoef="0" IVar="-1" Cut="0.0000000000000000e+00" cType="1" res="-1.8972180783748627e-02" rms="3.7835279107093811e-01" purity="3.6274552345275879e-01" nType="-99"/>
          </Node>
        </Node>
      </Node>
    </BinaryTree>
    <BinaryTree type="DecisionTree" boostWeight="1.0000000000000000e+00" itree="707">
      <Node pos="s" depth="0" NCoef="0" IVar="2" Cut="3.3396487426757812e+02" cType="1" res="1.9256005180068314e-04" rms="3.8436317443847656e-01" purity="4.9720692634582520e-01" nType="0">
        <Node pos="l" depth="1" NCoef="0" IVar="8" Cut="3.9982005953788757e-01" cType="1" res="6.3999518752098083e-03" rms="3.9433246850967407e-01" purity="4.5782703161239624e-01" nType="0">
          <Node pos="l" depth="2" NCoef="0" IVar="0" Cut="3.9428991699218750e+02" cType="1" res="1.3296721503138542e-02" rms="3.9952099323272705e-01" purity="4.8187276721000671e-01" nType="0">
            <Node pos="l" depth="3" NCoef="0" IVar="-1" Cut="0.0000000000000000e+00" cType="1" res="1.4090486802160740e-02" rms="4.0946930646896362e-01" purity="3.5090091824531555e-01" nType="-99"/>
            <Node pos="r" depth="3" NCoef="0" IVar="-1" Cut="0.0000000000000000e+00" cType="1" res="1.5196872409433126e-03" rms="3.8675177097320557e-01" purity="6.4170169830322266e-01" nType="-99"/>
          </Node>
          <Node pos="r" depth="2" NCoef="0" IVar="9" Cut="-6.6656738519668579e-01" cType="1" res="-5.5430065840482712e-03" rms="3.8489016890525818e-01" purity="4.1618761420249939e-01" nType="0">
            <Node pos="l" depth="3" NCoef="0" IVar="-1" Cut="0.0000000000000000e+00" cType="1" res="1.0459409095346928e-02" rms="3.9454135298728943e-01" purity="4.3264272809028625e-01" nType="-99"/>
            <Node pos="r" depth="3" NCoef="0" IVar="-1" Cut="0.0000000000000000e+00" cType="1" res="-8.9763943105936050e-03" rms="3.8093876838684082e-01" purity="4.1009011864662170e-01" nType="-99"/>
          </Node>
        </Node>
        <Node pos="r" depth="1" NCoef="0" IVar="2" Cut="4.6155065917968750e+02" cType="1" res="-5.3229839541018009e-03" rms="3.7519669532775879e-01" purity="5.3219777345657349e-01" nType="0">
          <Node pos="l" depth="2" NCoef="0" IVar="9" Cut="1.2000564336776733e+00" cType="1" res="-1.1940133757889271e-02" rms="3.6491486430168152e-01" purity="5.1970714330673218e-01" nType="0">
            <Node pos="l" depth="3" NCoef="0" IVar="-1" Cut="0.0000000000000000e+00" cType="1" res="-1.2626689858734608e-02" rms="3.6323294043540955e-01" purity="5.3023564815521240e-01" nType="-99"/>
            <Node pos="r" depth="3" NCoef="0" IVar="-1" Cut="0.0000000000000000e+00" cType="1" res="8.8817849755287170e-03" rms="3.7154138088226318e-01" purity="4.7140118479728699e-01" nType="-99"/>
          </Node>
          <Node pos="r" depth="2" NCoef="0" IVar="6" Cut="1.8724495172500610e-01" cType="1" res="3.4850218798965216e-03" rms="3.8828581571578979e-01" purity="5.4882383346557617e-01" nType="0">
            <Node pos="l" depth="3" NCoef="0" IVar="-1" Cut="0.0000000000000000e+00" cType="1" res="7.6333242468535900e-03" rms="3.9145672321319580e-01" purity="5.7525444030761719e-01" nType="-99"/>
            <Node pos="r" depth="3" NCoef="0" IVar="-1" Cut="0.0000000000000000e+00" cType="1" res="-5.9648631140589714e-03" rms="3.8311526179313660e-01" purity="5.0884741544723511e-01" nType="-99"/>
          </Node>
        </Node>
      </Node>
    </BinaryTree>
    <BinaryTree type="DecisionTree" boostWeight="1.0000000000000000e+00" itree="708">
      <Node pos="s" depth="0" NCoef="0" IVar="3" Cut="2.3459146118164062e+02" cType="1" res="-2.0427915733307600e-03" rms="3.8288456201553345e-01" purity="4.9830508232116699e-01" nType="0">
        <Node pos="l" depth="1" NCoef="0" IVar="5" Cut="6.6946884155273438e+01" cType="1" res="-5.5554849095642567e-03" rms="3.8930734992027283e-01" purity="3.9874053001403809e-01" nType="0">
          <Node pos="l" depth="2" NCoef="0" IVar="7" Cut="9.3330615758895874e-01" cType="1" res="5.2266842685639858e-03" rms="3.6947205662727356e-01" purity="2.3630531132221222e-01" nType="0">
            <Node pos="l" depth="3" NCoef="0" IVar="-1" Cut="0.0000000000000000e+00" cType="1" res="7.9282699152827263e-03" rms="3.8573533296585083e-01" purity="2.6341891288757324e-01" nType="-99"/>
            <Node pos="r" depth="3" NCoef="0" IVar="-1" Cut="0.0000000000000000e+00" cType="1" res="-1.4523626305162907e-02" rms="3.0724319815635681e-01" purity="1.4455939829349518e-01" nType="-99"/>
          </Node>
          <Node pos="r" depth="2" NCoef="0" IVar="3" Cut="1.0838493347167969e+02" cType="1" res="-1.2274804525077343e-02" rms="4.0102615952491760e-01" purity="4.9996826052665710e-01" nType="0">
            <Node pos="l" depth="3" NCoef="0" IVar="-1" Cut="0.0000000000000000e+00" cType="1" res="-3.3130224794149399e-02" rms="3.5053625702857971e-01" purity="1.9147741794586182e-01" nType="-99"/>
            <Node pos="r" depth="3" NCoef="0" IVar="-1" Cut="0.0000000000000000e+00" cType="1" res="-5.8492054231464863e-03" rms="4.0434658527374268e-01" purity="5.2254098653793335e-01" nType="-99"/>
          </Node>
        </Node>
        <Node pos="r" depth="1" NCoef="0" IVar="3" Cut="4.0093624877929688e+02" cType="1" res="4.3779010884463787e-03" rms="3.7077125906944275e-01" purity="6.8029457330703735e-01" nType="0">
          <Node pos="l" depth="2" NCoef="0" IVar="5" Cut="9.5800231933593750e+01" cType="1" res="6.9815395399928093e-03" rms="3.6890468001365662e-01" purity="6.8453204631805420e-01" nType="0">
            <Node pos="l" depth="3" NCoef="0" IVar="-1" Cut="0.0000000000000000e+00" cType="1" res="-1.0140185477212071e-03" rms="4.0589648485183716e-01" purity="5.3606593608856201e-01" nType="-99"/>
            <Node pos="r" depth="3" NCoef="0" IVar="-1" Cut="0.0000000000000000e+00" cType="1" res="1.1677367612719536e-02" rms="3.3617645502090454e-01" purity="8.0350637435913086e-01" nType="-99"/>
          </Node>
          <Node pos="r" depth="2" NCoef="0" IVar="-1" Cut="0.0000000000000000e+00" cType="1" res="-9.4392923638224602e-03" rms="3.8342559337615967e-01" purity="6.4977407455444336e-01" nType="-99"/>
        </Node>
      </Node>
    </BinaryTree>
    <BinaryTree type="DecisionTree" boostWeight="1.0000000000000000e+00" itree="709">
      <Node pos="s" depth="0" NCoef="0" IVar="9" Cut="-2.2666332721710205e+00" cType="1" res="-1.4157448895275593e-03" rms="3.8380014896392822e-01" purity="4.9465408921241760e-01" nType="0">
        <Node pos="l" depth="1" NCoef="0" IVar="-1" Cut="0.0000000000000000e+00" cType="1" res="2.5442408397793770e-02" rms="3.8337063789367676e-01" purity="3.5270041227340698e-01" nType="-99"/>
        <Node pos="r" depth="1" NCoef="0" IVar="9" Cut="-9.5223464071750641e-02" cType="1" res="-2.5600260123610497e-03" rms="3.8375952839851379e-01" purity="4.9924081563949585e-01" nType="0">
          <Node pos="l" depth="2" NCoef="0" IVar="8" Cut="-3.9994189143180847e-01" cType="1" res="-8.8793728500604630e-03" rms="3.8575562834739685e-01" purity="4.9564152956008911e-01" nType="0">
            <Node pos="l" depth="3" NCoef="0" IVar="-1" Cut="0.0000000000000000e+00" cType="1" res="-1.1866725049912930e-02" rms="3.8302740454673767e-01" purity="4.4097444415092468e-01" nType="-99"/>
            <Node pos="r" depth="3" NCoef="0" IVar="-1" Cut="0.0000000000000000e+00" cType="1" res="-1.9541564397513866e-03" rms="3.8744416832923889e-01" purity="5.3197640180587769e-01" nType="-99"/>
          </Node>
          <Node pos="r" depth="2" NCoef="0" IVar="4" Cut="2.3907856750488281e+02" cType="1" res="2.5585670955479145e-03" rms="3.8205841183662415e-01" purity="5.0215619802474976e-01" nType="0">
            <Node pos="l" depth="3" NCoef="0" IVar="-1" Cut="0.0000000000000000e+00" cType="1" res="2.7548351790755987e-03" rms="3.8496807217597961e-01" purity="4.8111408948898315e-01" nType="-99"/>
            <Node pos="r" depth="3" NCoef="0" IVar="-1" Cut="0.0000000000000000e+00" cType="1" res="-1.7096271738409996e-02" rms="3.3857721090316772e-01" purity="7.9275608062744141e-01" nType="-99"/>
          </Node>
        </Node>
      </Node>
    </BinaryTree>
    <BinaryTree type="DecisionTree" boostWeight="1.0000000000000000e+00" itree="710">
      <Node pos="s" depth="0" NCoef="0" IVar="6" Cut="1.4154344797134399e-01" cType="1" res="1.8025155877694488e-03" rms="3.8290411233901978e-01" purity="5.0004875659942627e-01" nType="0">
        <Node pos="l" depth="1" NCoef="0" IVar="6" Cut="-1.3695858418941498e-01" cType="1" res="-2.9817565809935331e-03" rms="3.8410660624504089e-01" purity="5.0870406627655029e-01" nType="0">
          <Node pos="l" depth="2" NCoef="0" IVar="0" Cut="5.8882464599609375e+02" cType="1" res="2.0125506853219122e-04" rms="3.8371610641479492e-01" purity="4.8124852776527405e-01" nType="0">
            <Node pos="l" depth="3" NCoef="0" IVar="-1" Cut="0.0000000000000000e+00" cType="1" res="-2.1689105778932571e-03" rms="3.8786825537681580e-01" purity="4.2400413751602173e-01" nType="-99"/>
            <Node pos="r" depth="3" NCoef="0" IVar="-1" Cut="0.0000000000000000e+00" cType="1" res="1.5002731233835220e-02" rms="3.5962447524070740e-01" purity="7.9344815015792847e-01" nType="-99"/>
          </Node>
          <Node pos="r" depth="2" NCoef="0" IVar="5" Cut="7.2287528991699219e+01" cType="1" res="-1.5217131003737450e-02" rms="3.8535922765731812e-01" purity="6.1424195766448975e-01" nType="0">
            <Node pos="l" depth="3" NCoef="0" IVar="-1" Cut="0.0000000000000000e+00" cType="1" res="-1.8020555377006531e-02" rms="4.1281652450561523e-01" purity="3.7312829494476318e-01" nType="-99"/>
            <Node pos="r" depth="3" NCoef="0" IVar="-1" Cut="0.0000000000000000e+00" cType="1" res="-4.3962695635855198e-03" rms="3.6918005347251892e-01" purity="7.4594366550445557e-01" nType="-99"/>
          </Node>
        </Node>
        <Node pos="r" depth="1" NCoef="0" IVar="9" Cut="-4.0004608035087585e-01" cType="1" res="7.7869277447462082e-03" rms="3.8131013512611389e-01" purity="4.8922237753868103e-01" nType="0">
          <Node pos="l" depth="2" NCoef="0" IVar="6" Cut="1.2808563709259033e+00" cType="1" res="1.9340716302394867e-02" rms="3.8169914484024048e-01" purity="4.9821925163269043e-01" nType="0">
            <Node pos="l" depth="3" NCoef="0" IVar="-1" Cut="0.0000000000000000e+00" cType="1" res="1.7770849168300629e-02" rms="3.9566978812217712e-01" purity="5.6431251764297485e-01" nType="-99"/>
            <Node pos="r" depth="3" NCoef="0" IVar="-1" Cut="0.0000000000000000e+00" cType="1" res="-1.1982342228293419e-02" rms="3.1776961684226990e-01" purity="2.3437297344207764e-01" nType="-99"/>
          </Node>
          <Node pos="r" depth="2" NCoef="0" IVar="9" Cut="5.1417809724807739e-01" cType="1" res="1.8711234442889690e-03" rms="3.8097518682479858e-01" purity="4.8461577296257019e-01" nType="0">
            <Node pos="l" depth="3" NCoef="0" IVar="-1" Cut="0.0000000000000000e+00" cType="1" res="-7.9638259485363960e-03" rms="3.8456735014915466e-01" purity="5.3411448001861572e-01" nType="-99"/>
            <Node pos="r" depth="3" NCoef="0" IVar="-1" Cut="0.0000000000000000e+00" cType="1" res="7.8357476741075516e-03" rms="3.7819090485572815e-01" purity="4.5045557618141174e-01" nType="-99"/>
          </Node>
        </Node>
      </Node>
    </BinaryTree>
    <BinaryTree type="DecisionTree" boostWeight="1.0000000000000000e+00" itree="711">
      <Node pos="s" depth="0" NCoef="0" IVar="9" Cut="-1.9999724626541138e+00" cType="1" res="-2.9813216533511877e-03" rms="3.8194471597671509e-01" purity="4.9583029747009277e-01" nType="0">
        <Node pos="l" depth="1" NCoef="0" IVar="3" Cut="1.7913049316406250e+02" cType="1" res="-3.1099028885364532e-02" rms="3.5614177584648132e-01" purity="3.0683818459510803e-01" nType="0">
          <Node pos="l" depth="2" NCoef="0" IVar="-1" Cut="0.0000000000000000e+00" cType="1" res="-1.8832949921488762e-02" rms="3.2155388593673706e-01" purity="1.7919851839542389e-01" nType="-99"/>
          <Node pos="r" depth="2" NCoef="0" IVar="-1" Cut="0.0000000000000000e+00" cType="1" res="-2.5153633207082748e-02" rms="3.8691949844360352e-01" purity="4.3227583169937134e-01" nType="-99"/>
        </Node>
        <Node pos="r" depth="1" NCoef="0" IVar="8" Cut="1.4666413068771362e+00" cType="1" res="-1.4157250989228487e-03" rms="3.8326975703239441e-01" purity="5.0635337829589844e-01" nType="0">
          <Node pos="l" depth="2" NCoef="0" IVar="9" Cut="2.1142697334289551e+00" cType="1" res="-3.3619198948144913e-03" rms="3.8448044657707214e-01" purity="5.2589887380599976e-01" nType="0">
            <Node pos="l" depth="3" NCoef="0" IVar="-1" Cut="0.0000000000000000e+00" cType="1" res="-2.9154755175113678e-03" rms="3.8441261649131775e-01" purity="5.3159934282302856e-01" nType="-99"/>
            <Node pos="r" depth="3" NCoef="0" IVar="-1" Cut="0.0000000000000000e+00" cType="1" res="1.2445205822587013e-02" rms="3.8527935743331909e-01" purity="4.0435573458671570e-01" nType="-99"/>
          </Node>
          <Node pos="r" depth="2" NCoef="0" IVar="5" Cut="7.6427947998046875e+01" cType="1" res="1.4928864315152168e-02" rms="3.7254610657691956e-01" purity="3.4220615029335022e-01" nType="0">
            <Node pos="l" depth="3" NCoef="0" IVar="-1" Cut="0.0000000000000000e+00" cType="1" res="-1.9824819173663855e-03" rms="3.3533290028572083e-01" purity="1.9147619605064392e-01" nType="-99"/>
            <Node pos="r" depth="3" NCoef="0" IVar="-1" Cut="0.0000000000000000e+00" cType="1" res="2.0360814407467842e-02" rms="4.0757781267166138e-01" purity="5.0232833623886108e-01" nType="-99"/>
          </Node>
        </Node>
      </Node>
    </BinaryTree>
    <BinaryTree type="DecisionTree" boostWeight="1.0000000000000000e+00" itree="712">
      <Node pos="s" depth="0" NCoef="0" IVar="6" Cut="9.4826102256774902e-01" cType="1" res="4.3900351738557220e-04" rms="3.8078328967094421e-01" purity="5.0177270174026489e-01" nType="0">
        <Node pos="l" depth="1" NCoef="0" IVar="6" Cut="4.1924843192100525e-01" cType="1" res="2.5117194745689631e-03" rms="3.8738295435905457e-01" purity="5.3777492046356201e-01" nType="0">
          <Node pos="l" depth="2" NCoef="0" IVar="6" Cut="-1.3944969177246094e+00" cType="1" res="-4.0924790664575994e-04" rms="3.8478979468345642e-01" purity="5.3184652328491211e-01" nType="0">
            <Node pos="l" depth="3" NCoef="0" IVar="-1" Cut="0.0000000000000000e+00" cType="1" res="1.3988417573273182e-02" rms="3.4093785285949707e-01" purity="2.3357787728309631e-01" nType="-99"/>
            <Node pos="r" depth="3" NCoef="0" IVar="-1" Cut="0.0000000000000000e+00" cType="1" res="-1.6654764767736197e-03" rms="3.9007747173309326e-01" purity="5.7063144445419312e-01" nType="-99"/>
          </Node>
          <Node pos="r" depth="2" NCoef="0" IVar="4" Cut="1.4462614440917969e+02" cType="1" res="1.4264094643294811e-02" rms="3.9742869138717651e-01" purity="5.6162750720977783e-01" nType="0">
            <Node pos="l" depth="3" NCoef="0" IVar="-1" Cut="0.0000000000000000e+00" cType="1" res="1.4684760011732578e-02" rms="4.1976651549339294e-01" purity="4.2982044816017151e-01" nType="-99"/>
            <Node pos="r" depth="3" NCoef="0" IVar="-1" Cut="0.0000000000000000e+00" cType="1" res="-1.1426398996263742e-03" rms="3.6210358142852783e-01" purity="7.5230091810226440e-01" nType="-99"/>
          </Node>
        </Node>
        <Node pos="r" depth="1" NCoef="0" IVar="7" Cut="-6.6689622402191162e-01" cType="1" res="-1.0401500388979912e-02" rms="3.4400761127471924e-01" purity="3.1347784399986267e-01" nType="0">
          <Node pos="l" depth="2" NCoef="0" IVar="-1" Cut="0.0000000000000000e+00" cType="1" res="1.2376670725643635e-02" rms="3.2952049374580383e-01" purity="2.3880188167095184e-01" nType="-99"/>
          <Node pos="r" depth="2" NCoef="0" IVar="4" Cut="1.2682640838623047e+02" cType="1" res="-1.9040912389755249e-02" rms="3.4877261519432068e-01" purity="3.4087041020393372e-01" nType="0">
            <Node pos="l" depth="3" NCoef="0" IVar="-1" Cut="0.0000000000000000e+00" cType="1" res="-2.5783352553844452e-02" rms="3.1984984874725342e-01" purity="1.7090773582458496e-01" nType="-99"/>
            <Node pos="r" depth="3" NCoef="0" IVar="-1" Cut="0.0000000000000000e+00" cType="1" res="-2.7034778613597155e-03" rms="3.8166722655296326e-01" purity="5.5556011199951172e-01" nType="-99"/>
          </Node>
        </Node>
      </Node>
    </BinaryTree>
    <BinaryTree type="DecisionTree" boostWeight="1.0000000000000000e+00" itree="713">
      <Node pos="s" depth="0" NCoef="0" IVar="9" Cut="1.1999901533126831e+00" cType="1" res="-2.0859888754785061e-03" rms="3.8292962312698364e-01" purity="4.9757379293441772e-01" nType="0">
        <Node pos="l" depth="1" NCoef="0" IVar="9" Cut="5.7162422686815262e-02" cType="1" res="3.2006230321712792e-04" rms="3.8337033987045288e-01" purity="5.1605290174484253e-01" nType="0">
          <Node pos="l" depth="2" NCoef="0" IVar="6" Cut="4.1919293999671936e-01" cType="1" res="-4.5343455858528614e-03" rms="3.8163954019546509e-01" purity="4.9880188703536987e-01" nType="0">
            <Node pos="l" depth="3" NCoef="0" IVar="-1" Cut="0.0000000000000000e+00" cType="1" res="-5.0983284600079060e-03" rms="3.8177800178527832e-01" purity="5.1751089096069336e-01" nType="-99"/>
            <Node pos="r" depth="3" NCoef="0" IVar="-1" Cut="0.0000000000000000e+00" cType="1" res="2.1658893674612045e-03" rms="3.8118872046470642e-01" purity="4.5262768864631653e-01" nType="-99"/>
          </Node>
          <Node pos="r" depth="2" NCoef="0" IVar="4" Cut="1.4038935852050781e+02" cType="1" res="8.3117298781871796e-03" rms="3.8606986403465271e-01" purity="5.4445284605026245e-01" nType="0">
            <Node pos="l" depth="3" NCoef="0" IVar="-1" Cut="0.0000000000000000e+00" cType="1" res="1.1704150587320328e-02" rms="4.0398651361465454e-01" purity="3.9447721838951111e-01" nType="-99"/>
            <Node pos="r" depth="3" NCoef="0" IVar="-1" Cut="0.0000000000000000e+00" cType="1" res="-3.6475574597716331e-03" rms="3.6153566837310791e-01" purity="7.3548507690429688e-01" nType="-99"/>
          </Node>
        </Node>
        <Node pos="r" depth="1" NCoef="0" IVar="7" Cut="-9.3313288688659668e-01" cType="1" res="-1.3797753490507603e-02" rms="3.8055992126464844e-01" purity="4.0762436389923096e-01" nType="0">
          <Node pos="l" depth="2" NCoef="0" IVar="-1" Cut="0.0000000000000000e+00" cType="1" res="5.5390861816704273e-03" rms="3.6107167601585388e-01" purity="3.0730620026588440e-01" nType="-99"/>
          <Node pos="r" depth="2" NCoef="0" IVar="7" Cut="1.2000871896743774e+00" cType="1" res="-1.8377084285020828e-02" rms="3.8452216982841492e-01" purity="4.2947903275489807e-01" nType="0">
            <Node pos="l" depth="3" NCoef="0" IVar="-1" Cut="0.0000000000000000e+00" cType="1" res="-1.4988590031862259e-02" rms="3.9450955390930176e-01" purity="4.8187351226806641e-01" nType="-99"/>
            <Node pos="r" depth="3" NCoef="0" IVar="-1" Cut="0.0000000000000000e+00" cType="1" res="4.3826532782986760e-04" rms="3.4630110859870911e-01" purity="2.4447445571422577e-01" nType="-99"/>
          </Node>
        </Node>
      </Node>
    </BinaryTree>
    <BinaryTree type="DecisionTree" boostWeight="1.0000000000000000e+00" itree="714">
      <Node pos="s" depth="0" NCoef="0" IVar="7" Cut="1.9999572038650513e+00" cType="1" res="8.7522220565006137e-04" rms="3.8085386157035828e-01" purity="5.0148296356201172e-01" nType="0">
        <Node pos="l" depth="1" NCoef="0" IVar="9" Cut="2.2666602134704590e+00" cType="1" res="1.9341118168085814e-03" rms="3.8325330615043640e-01" purity="5.1408898830413818e-01" nType="0">
          <Node pos="l" depth="2" NCoef="0" IVar="6" Cut="-1.7193347215652466e+00" cType="1" res="9.8704849369823933e-04" rms="3.8372552394866943e-01" purity="5.1800131797790527e-01" nType="0">
            <Node pos="l" depth="3" NCoef="0" IVar="-1" Cut="0.0000000000000000e+00" cType="1" res="-1.7858570441603661e-02" rms="2.9195150732994080e-01" purity="1.6677425801753998e-01" nType="-99"/>
            <Node pos="r" depth="3" NCoef="0" IVar="-1" Cut="0.0000000000000000e+00" cType="1" res="1.1506628943607211e-03" rms="3.8676759600639343e-01" purity="5.3136825561523438e-01" nType="-99"/>
          </Node>
          <Node pos="r" depth="2" NCoef="0" IVar="-1" Cut="0.0000000000000000e+00" cType="1" res="2.2113116458058357e-02" rms="3.6708167195320129e-01" purity="3.9264672994613647e-01" nType="-99"/>
        </Node>
        <Node pos="r" depth="1" NCoef="0" IVar="-1" Cut="0.0000000000000000e+00" cType="1" res="-2.8576944023370743e-02" rms="3.0195468664169312e-01" purity="1.3771426677703857e-01" nType="-99"/>
      </Node>
    </BinaryTree>
    <BinaryTree type="DecisionTree" boostWeight="1.0000000000000000e+00" itree="715">
      <Node pos="s" depth="0" NCoef="0" IVar="6" Cut="-3.7992638349533081e-01" cType="1" res="3.2876105979084969e-03" rms="3.8108351826667786e-01" purity="5.0517755746841431e-01" nType="0">
        <Node pos="l" depth="1" NCoef="0" IVar="2" Cut="3.2172860717773438e+02" cType="1" res="-4.6441573649644852e-03" rms="3.7390950322151184e-01" purity="4.4210061430931091e-01" nType="0">
          <Node pos="l" depth="2" NCoef="0" IVar="7" Cut="4.0004897117614746e-01" cType="1" res="4.2218975722789764e-03" rms="3.8468924164772034e-01" purity="4.0595152974128723e-01" nType="0">
            <Node pos="l" depth="3" NCoef="0" IVar="-1" Cut="0.0000000000000000e+00" cType="1" res="-4.8094708472490311e-03" rms="3.8435307145118713e-01" purity="4.0732228755950928e-01" nType="-99"/>
            <Node pos="r" depth="3" NCoef="0" IVar="-1" Cut="0.0000000000000000e+00" cType="1" res="1.9268121570348740e-02" rms="3.8427966833114624e-01" purity="4.0312564373016357e-01" nType="-99"/>
          </Node>
          <Node pos="r" depth="2" NCoef="0" IVar="0" Cut="5.6536273193359375e+02" cType="1" res="-1.1854944750666618e-02" rms="3.6474871635437012e-01" purity="4.7150072455406189e-01" nType="0">
            <Node pos="l" depth="3" NCoef="0" IVar="-1" Cut="0.0000000000000000e+00" cType="1" res="-1.2930326163768768e-02" rms="3.6297085881233215e-01" purity="3.7785723805427551e-01" nType="-99"/>
            <Node pos="r" depth="3" NCoef="0" IVar="-1" Cut="0.0000000000000000e+00" cType="1" res="5.7093086652457714e-03" rms="3.6915466189384460e-01" purity="7.4361211061477661e-01" nType="-99"/>
          </Node>
        </Node>
        <Node pos="r" depth="1" NCoef="0" IVar="6" Cut="1.5885624885559082e+00" cType="1" res="7.2450740262866020e-03" rms="3.8455170392990112e-01" purity="5.3664910793304443e-01" nType="0">
          <Node pos="l" depth="2" NCoef="0" IVar="1" Cut="1.0880919189453125e+03" cType="1" res="5.6878807954490185e-03" rms="3.8856956362724304e-01" purity="5.6578832864761353e-01" nType="0">
            <Node pos="l" depth="3" NCoef="0" IVar="-1" Cut="0.0000000000000000e+00" cType="1" res="-2.2184939589351416e-03" rms="3.9597097039222717e-01" purity="2.6183742284774780e-01" nType="-99"/>
            <Node pos="r" depth="3" NCoef="0" IVar="-1" Cut="0.0000000000000000e+00" cType="1" res="5.9345667250454426e-03" rms="3.8580060005187988e-01" purity="6.7582899332046509e-01" nType="-99"/>
          </Node>
          <Node pos="r" depth="2" NCoef="0" IVar="8" Cut="1.3337942957878113e-01" cType="1" res="2.4733189493417740e-02" rms="3.3565130829811096e-01" purity="2.0939923822879791e-01" nType="0">
            <Node pos="l" depth="3" NCoef="0" IVar="-1" Cut="0.0000000000000000e+00" cType="1" res="4.2061759158968925e-03" rms="3.1386366486549377e-01" purity="1.9346100091934204e-01" nType="-99"/>
            <Node pos="r" depth="3" NCoef="0" IVar="-1" Cut="0.0000000000000000e+00" cType="1" res="4.2906459420919418e-02" rms="3.5261037945747375e-01" purity="2.2329787909984589e-01" nType="-99"/>
          </Node>
        </Node>
      </Node>
    </BinaryTree>
    <BinaryTree type="DecisionTree" boostWeight="1.0000000000000000e+00" itree="716">
      <Node pos="s" depth="0" NCoef="0" IVar="7" Cut="6.6670531034469604e-01" cType="1" res="-2.4550494272261858e-03" rms="3.8138553500175476e-01" purity="4.9754169583320618e-01" nType="0">
        <Node pos="l" depth="1" NCoef="0" IVar="8" Cut="-1.3339383900165558e-01" cType="1" res="-5.3942222148180008e-03" rms="3.8214161992073059e-01" purity="5.2471733093261719e-01" nType="0">
          <Node pos="l" depth="2" NCoef="0" IVar="4" Cut="2.3679605102539062e+02" cType="1" res="1.4866119017824531e-03" rms="3.8470134139060974e-01" purity="5.1990181207656860e-01" nType="0">
            <Node pos="l" depth="3" NCoef="0" IVar="-1" Cut="0.0000000000000000e+00" cType="1" res="-6.3587527256458998e-04" rms="3.8852149248123169e-01" purity="4.9378702044487000e-01" nType="-99"/>
            <Node pos="r" depth="3" NCoef="0" IVar="-1" Cut="0.0000000000000000e+00" cType="1" res="2.4187916889786720e-02" rms="3.3623278141021729e-01" purity="8.2109290361404419e-01" nType="-99"/>
          </Node>
          <Node pos="r" depth="2" NCoef="0" IVar="6" Cut="9.4501012563705444e-01" cType="1" res="-1.1881442740559578e-02" rms="3.7959831953048706e-01" purity="5.2925735712051392e-01" nType="0">
            <Node pos="l" depth="3" NCoef="0" IVar="-1" Cut="0.0000000000000000e+00" cType="1" res="-5.1728868857026100e-03" rms="3.8638615608215332e-01" purity="5.6978726387023926e-01" nType="-99"/>
            <Node pos="r" depth="3" NCoef="0" IVar="-1" Cut="0.0000000000000000e+00" cType="1" res="-2.4507265537977219e-02" rms="3.4224155545234680e-01" purity="3.2298094034194946e-01" nType="-99"/>
          </Node>
        </Node>
        <Node pos="r" depth="1" NCoef="0" IVar="3" Cut="1.8849028015136719e+02" cType="1" res="5.4903286509215832e-03" rms="3.7922006845474243e-01" purity="4.2407852411270142e-01" nType="0">
          <Node pos="l" depth="2" NCoef="0" IVar="5" Cut="8.1560966491699219e+01" cType="1" res="1.2896094471216202e-02" rms="3.7288784980773926e-01" purity="2.8701898455619812e-01" nType="0">
            <Node pos="l" depth="3" NCoef="0" IVar="-1" Cut="0.0000000000000000e+00" cType="1" res="2.8628325089812279e-03" rms="3.4319356083869934e-01" purity="1.9039539992809296e-01" nType="-99"/>
            <Node pos="r" depth="3" NCoef="0" IVar="-1" Cut="0.0000000000000000e+00" cType="1" res="1.9034568220376968e-02" rms="4.2635565996170044e-01" purity="4.8374921083450317e-01" nType="-99"/>
          </Node>
          <Node pos="r" depth="2" NCoef="0" IVar="0" Cut="4.4704254150390625e+02" cType="1" res="-1.3987445272505283e-03" rms="3.8488909602165222e-01" purity="5.5157554149627686e-01" nType="0">
            <Node pos="l" depth="3" NCoef="0" IVar="-1" Cut="0.0000000000000000e+00" cType="1" res="-6.7086741328239441e-03" rms="3.9928764104843140e-01" purity="3.8637495040893555e-01" nType="-99"/>
            <Node pos="r" depth="3" NCoef="0" IVar="-1" Cut="0.0000000000000000e+00" cType="1" res="6.4360438846051693e-03" rms="3.6791583895683289e-01" purity="7.3534768819808960e-01" nType="-99"/>
          </Node>
        </Node>
      </Node>
    </BinaryTree>
    <BinaryTree type="DecisionTree" boostWeight="1.0000000000000000e+00" itree="717">
      <Node pos="s" depth="0" NCoef="0" IVar="4" Cut="9.7434020996093750e+01" cType="1" res="-7.5613439548760653e-04" rms="3.8216972351074219e-01" purity="4.9799177050590515e-01" nType="0">
        <Node pos="l" depth="1" NCoef="0" IVar="1" Cut="1.0640955810546875e+03" cType="1" res="6.2548029236495495e-03" rms="3.6745077371597290e-01" purity="2.3981291055679321e-01" nType="0">
          <Node pos="l" depth="2" NCoef="0" IVar="4" Cut="7.4907653808593750e+01" cType="1" res="-2.2628491278737783e-03" rms="3.3272698521614075e-01" purity="1.5108269453048706e-01" nType="0">
            <Node pos="l" depth="3" NCoef="0" IVar="-1" Cut="0.0000000000000000e+00" cType="1" res="1.2446097098290920e-02" rms="3.0354470014572144e-01" purity="1.2018612772226334e-01" nType="-99"/>
            <Node pos="r" depth="3" NCoef="0" IVar="-1" Cut="0.0000000000000000e+00" cType="1" res="-1.0095647536218166e-02" rms="3.5533165931701660e-01" purity="1.7742031812667847e-01" nType="-99"/>
          </Node>
          <Node pos="r" depth="2" NCoef="0" IVar="5" Cut="7.7018585205078125e+01" cType="1" res="1.7166163772344589e-02" rms="4.0737393498420715e-01" purity="3.5347884893417358e-01" nType="0">
            <Node pos="l" depth="3" NCoef="0" IVar="-1" Cut="0.0000000000000000e+00" cType="1" res="5.2649574354290962e-03" rms="4.0160927176475525e-01" purity="3.1498962640762329e-01" nType="-99"/>
            <Node pos="r" depth="3" NCoef="0" IVar="-1" Cut="0.0000000000000000e+00" cType="1" res="2.8497317805886269e-02" rms="4.2836362123489380e-01" purity="5.1114994287490845e-01" nType="-99"/>
          </Node>
        </Node>
        <Node pos="r" depth="1" NCoef="0" IVar="8" Cut="-1.3333977758884430e-01" cType="1" res="-3.7340538110584021e-03" rms="3.8821452856063843e-01" purity="6.0765409469604492e-01" nType="0">
          <Node pos="l" depth="2" NCoef="0" IVar="9" Cut="9.3328505754470825e-01" cType="1" res="-8.3140712231397629e-03" rms="3.9139649271965027e-01" purity="5.9055417776107788e-01" nType="0">
            <Node pos="l" depth="3" NCoef="0" IVar="-1" Cut="0.0000000000000000e+00" cType="1" res="-3.1768644694238901e-03" rms="3.8905110955238342e-01" purity="6.0347616672515869e-01" nType="-99"/>
            <Node pos="r" depth="3" NCoef="0" IVar="-1" Cut="0.0000000000000000e+00" cType="1" res="-1.4395226724445820e-02" rms="4.0070369839668274e-01" purity="5.3667521476745605e-01" nType="-99"/>
          </Node>
          <Node pos="r" depth="2" NCoef="0" IVar="7" Cut="3.9975675940513611e-01" cType="1" res="-1.1789343261625618e-05" rms="3.8556909561157227e-01" purity="6.2155151367187500e-01" nType="0">
            <Node pos="l" depth="3" NCoef="0" IVar="-1" Cut="0.0000000000000000e+00" cType="1" res="3.9074579253792763e-03" rms="3.7930426001548767e-01" purity="6.5969443321228027e-01" nType="-99"/>
            <Node pos="r" depth="3" NCoef="0" IVar="-1" Cut="0.0000000000000000e+00" cType="1" res="-6.2043843790888786e-03" rms="3.9568004012107849e-01" purity="5.5746483802795410e-01" nType="-99"/>
          </Node>
        </Node>
      </Node>
    </BinaryTree>
    <BinaryTree type="DecisionTree" boostWeight="1.0000000000000000e+00" itree="718">
      <Node pos="s" depth="0" NCoef="0" IVar="4" Cut="1.9206568908691406e+02" cType="1" res="4.6202167868614197e-03" rms="3.8445526361465454e-01" purity="4.9984642863273621e-01" nType="0">
        <Node pos="l" depth="1" NCoef="0" IVar="9" Cut="9.3339538574218750e-01" cType="1" res="7.4538788758218288e-03" rms="3.9072111248970032e-01" purity="4.4617804884910583e-01" nType="0">
          <Node pos="l" depth="2" NCoef="0" IVar="4" Cut="8.3860443115234375e+01" cType="1" res="9.8354630172252655e-03" rms="3.9501062035560608e-01" purity="4.6373125910758972e-01" nType="0">
            <Node pos="l" depth="3" NCoef="0" IVar="-1" Cut="0.0000000000000000e+00" cType="1" res="1.7273752018809319e-02" rms="3.6538192629814148e-01" purity="2.2950096428394318e-01" nType="-99"/>
            <Node pos="r" depth="3" NCoef="0" IVar="-1" Cut="0.0000000000000000e+00" cType="1" res="3.7659504450857639e-03" rms="4.0334641933441162e-01" purity="5.3352892398834229e-01" nType="-99"/>
          </Node>
          <Node pos="r" depth="2" NCoef="0" IVar="4" Cut="8.3852546691894531e+01" cType="1" res="9.5521827461197972e-06" rms="3.7690141797065735e-01" purity="3.9131036400794983e-01" nType="0">
            <Node pos="l" depth="3" NCoef="0" IVar="-1" Cut="0.0000000000000000e+00" cType="1" res="-2.9932318255305290e-02" rms="2.9561439156532288e-01" purity="1.3197888433933258e-01" nType="-99"/>
            <Node pos="r" depth="3" NCoef="0" IVar="-1" Cut="0.0000000000000000e+00" cType="1" res="6.3275243155658245e-03" rms="3.9887812733650208e-01" purity="4.7426500916481018e-01" nType="-99"/>
          </Node>
        </Node>
        <Node pos="r" depth="1" NCoef="0" IVar="5" Cut="8.5093139648437500e+01" cType="1" res="-9.3043679371476173e-03" rms="3.5171648859977722e-01" purity="7.6357221603393555e-01" nType="0">
          <Node pos="l" depth="2" NCoef="0" IVar="-1" Cut="0.0000000000000000e+00" cType="1" res="-2.2785438224673271e-02" rms="4.0574428439140320e-01" purity="5.8152115345001221e-01" nType="-99"/>
          <Node pos="r" depth="2" NCoef="0" IVar="6" Cut="-6.1830359697341919e-01" cType="1" res="-2.9586253222078085e-03" rms="3.3795887231826782e-01" purity="8.0481117963790894e-01" nType="0">
            <Node pos="l" depth="3" NCoef="0" IVar="-1" Cut="0.0000000000000000e+00" cType="1" res="1.0366450063884258e-02" rms="3.6404907703399658e-01" purity="7.4949145317077637e-01" nType="-99"/>
            <Node pos="r" depth="3" NCoef="0" IVar="-1" Cut="0.0000000000000000e+00" cType="1" res="-7.8639090061187744e-03" rms="3.2924002408981323e-01" purity="8.2201230525970459e-01" nType="-99"/>
          </Node>
        </Node>
      </Node>
    </BinaryTree>
    <BinaryTree type="DecisionTree" boostWeight="1.0000000000000000e+00" itree="719">
      <Node pos="s" depth="0" NCoef="0" IVar="4" Cut="1.4888414001464844e+02" cType="1" res="-3.1771503854542971e-03" rms="3.8147422671318054e-01" purity="4.9949446320533752e-01" nType="0">
        <Node pos="l" depth="1" NCoef="0" IVar="4" Cut="1.0181857299804688e+02" cType="1" res="-6.4431894570589066e-03" rms="3.9006271958351135e-01" purity="3.6639505624771118e-01" nType="0">
          <Node pos="l" depth="2" NCoef="0" IVar="8" Cut="-4.0010482072830200e-01" cType="1" res="-2.9558385722339153e-04" rms="3.7068334221839905e-01" purity="2.4976754188537598e-01" nType="0">
            <Node pos="l" depth="3" NCoef="0" IVar="-1" Cut="0.0000000000000000e+00" cType="1" res="7.9232640564441681e-03" rms="3.7576410174369812e-01" purity="2.5661671161651611e-01" nType="-99"/>
            <Node pos="r" depth="3" NCoef="0" IVar="-1" Cut="0.0000000000000000e+00" cType="1" res="-5.3434832952916622e-03" rms="3.6720469594001770e-01" purity="2.4537019431591034e-01" nType="-99"/>
          </Node>
          <Node pos="r" depth="2" NCoef="0" IVar="4" Cut="1.0854228973388672e+02" cType="1" res="-1.3026657514274120e-02" rms="4.0969884395599365e-01" purity="4.9129143357276917e-01" nType="0">
            <Node pos="l" depth="3" NCoef="0" IVar="-1" Cut="0.0000000000000000e+00" cType="1" res="-2.2910101339221001e-02" rms="4.0147995948791504e-01" purity="3.7279248237609863e-01" nType="-99"/>
            <Node pos="r" depth="3" NCoef="0" IVar="-1" Cut="0.0000000000000000e+00" cType="1" res="-4.8082480207085609e-03" rms="4.1100639104843140e-01" purity="5.1299279928207397e-01" nType="-99"/>
          </Node>
        </Node>
        <Node pos="r" depth="1" NCoef="0" IVar="9" Cut="1.4666762351989746e+00" cType="1" res="2.3955877404659986e-03" rms="3.6628818511962891e-01" purity="7.2659766674041748e-01" nType="0">
          <Node pos="l" depth="2" NCoef="0" IVar="7" Cut="9.3284386396408081e-01" cType="1" res="-7.2686356725171208e-04" rms="3.6395272612571716e-01" purity="7.3419833183288574e-01" nType="0">
            <Node pos="l" depth="3" NCoef="0" IVar="-1" Cut="0.0000000000000000e+00" cType="1" res="-3.2046826090663671e-03" rms="3.5654494166374207e-01" purity="7.5463283061981201e-01" nType="-99"/>
            <Node pos="r" depth="3" NCoef="0" IVar="-1" Cut="0.0000000000000000e+00" cType="1" res="1.1118967086076736e-02" rms="4.0130433440208435e-01" purity="6.2320768833160400e-01" nType="-99"/>
          </Node>
          <Node pos="r" depth="2" NCoef="0" IVar="-1" Cut="0.0000000000000000e+00" cType="1" res="1.7488362267613411e-02" rms="3.8361626863479614e-01" purity="6.6553151607513428e-01" nType="-99"/>
        </Node>
      </Node>
    </BinaryTree>
    <BinaryTree type="DecisionTree" boostWeight="1.0000000000000000e+00" itree="720">
      <Node pos="s" depth="0" NCoef="0" IVar="6" Cut="1.7400941848754883e+00" cType="1" res="-2.2882455959916115e-03" rms="3.8024139404296875e-01" purity="4.9613329768180847e-01" nType="0">
        <Node pos="l" depth="1" NCoef="0" IVar="2" Cut="4.8062939453125000e+02" cType="1" res="-1.4729370595887303e-03" rms="3.8396754860877991e-01" purity="5.1047492027282715e-01" nType="0">
          <Node pos="l" depth="2" NCoef="0" IVar="1" Cut="9.2574932861328125e+02" cType="1" res="6.4117758302018046e-04" rms="3.8202375173568726e-01" purity="5.0298970937728882e-01" nType="0">
            <Node pos="l" depth="3" NCoef="0" IVar="-1" Cut="0.0000000000000000e+00" cType="1" res="-1.3474060222506523e-02" rms="3.1130564212799072e-01" purity="1.2615275382995605e-01" nType="-99"/>
            <Node pos="r" depth="3" NCoef="0" IVar="-1" Cut="0.0000000000000000e+00" cType="1" res="1.7133837100118399e-03" rms="3.9037352800369263e-01" purity="5.5282825231552124e-01" nType="-99"/>
          </Node>
          <Node pos="r" depth="2" NCoef="0" IVar="8" Cut="-9.3332505226135254e-01" cType="1" res="-1.0302501730620861e-02" rms="3.9185833930969238e-01" purity="5.4173702001571655e-01" nType="0">
            <Node pos="l" depth="3" NCoef="0" IVar="-1" Cut="0.0000000000000000e+00" cType="1" res="-1.6832387074828148e-02" rms="3.7769240140914917e-01" purity="4.3555593490600586e-01" nType="-99"/>
            <Node pos="r" depth="3" NCoef="0" IVar="-1" Cut="0.0000000000000000e+00" cType="1" res="-4.0923305787146091e-03" rms="3.9529198408126831e-01" purity="5.6883442401885986e-01" nType="-99"/>
          </Node>
        </Node>
        <Node pos="r" depth="1" NCoef="0" IVar="-1" Cut="0.0000000000000000e+00" cType="1" res="-2.4889716878533363e-02" rms="2.6997768878936768e-01" purity="1.3722161948680878e-01" nType="-99"/>
      </Node>
    </BinaryTree>
    <BinaryTree type="DecisionTree" boostWeight="1.0000000000000000e+00" itree="721">
      <Node pos="s" depth="0" NCoef="0" IVar="9" Cut="1.9999753236770630e+00" cType="1" res="3.8667635526508093e-03" rms="3.8460659980773926e-01" purity="5.0139278173446655e-01" nType="0">
        <Node pos="l" depth="1" NCoef="0" IVar="0" Cut="4.4441284179687500e+02" cType="1" res="2.5731944479048252e-03" rms="3.8558772206306458e-01" purity="5.0790661573410034e-01" nType="0">
          <Node pos="l" depth="2" NCoef="0" IVar="8" Cut="1.3330337405204773e-01" cType="1" res="6.3141998834908009e-03" rms="3.9541992545127869e-01" purity="3.6730259656906128e-01" nType="0">
            <Node pos="l" depth="3" NCoef="0" IVar="-1" Cut="0.0000000000000000e+00" cType="1" res="8.3654420450329781e-03" rms="3.9746814966201782e-01" purity="3.8185897469520569e-01" nType="-99"/>
            <Node pos="r" depth="3" NCoef="0" IVar="-1" Cut="0.0000000000000000e+00" cType="1" res="-1.3638462405651808e-03" rms="3.9273631572723389e-01" purity="3.4949687123298645e-01" nType="-99"/>
          </Node>
          <Node pos="r" depth="2" NCoef="0" IVar="3" Cut="2.4197009277343750e+02" cType="1" res="-2.7001814451068640e-03" rms="3.7122216820716858e-01" purity="7.0610415935516357e-01" nType="0">
            <Node pos="l" depth="3" NCoef="0" IVar="-1" Cut="0.0000000000000000e+00" cType="1" res="-5.9337764978408813e-03" rms="3.9225161075592041e-01" purity="6.2622672319412231e-01" nType="-99"/>
            <Node pos="r" depth="3" NCoef="0" IVar="-1" Cut="0.0000000000000000e+00" cType="1" res="4.8548430204391479e-03" rms="3.4192582964897156e-01" purity="8.0941236019134521e-01" nType="-99"/>
          </Node>
        </Node>
        <Node pos="r" depth="1" NCoef="0" IVar="6" Cut="-1.0415840148925781e-01" cType="1" res="2.4260899052023888e-02" rms="3.6819306015968323e-01" purity="3.9869672060012817e-01" nType="0">
          <Node pos="l" depth="2" NCoef="0" IVar="-1" Cut="0.0000000000000000e+00" cType="1" res="3.3967688679695129e-02" rms="3.6988660693168640e-01" purity="4.1022065281867981e-01" nType="-99"/>
          <Node pos="r" depth="2" NCoef="0" IVar="-1" Cut="0.0000000000000000e+00" cType="1" res="4.8583820462226868e-03" rms="3.6598733067512512e-01" purity="3.9044138789176941e-01" nType="-99"/>
        </Node>
      </Node>
    </BinaryTree>
    <BinaryTree type="DecisionTree" boostWeight="1.0000000000000000e+00" itree="722">
      <Node pos="s" depth="0" NCoef="0" IVar="7" Cut="9.3339538574218750e-01" cType="1" res="-1.1705514043569565e-03" rms="3.8095781207084656e-01" purity="4.9587067961692810e-01" nType="0">
        <Node pos="l" depth="1" NCoef="0" IVar="7" Cut="4.4555503875017166e-02" cType="1" res="9.8545034416019917e-04" rms="3.8435995578765869e-01" purity="5.3052639961242676e-01" nType="0">
          <Node pos="l" depth="2" NCoef="0" IVar="2" Cut="3.3976699829101562e+02" cType="1" res="-4.4540548697113991e-03" rms="3.8093915581703186e-01" purity="4.9579647183418274e-01" nType="0">
            <Node pos="l" depth="3" NCoef="0" IVar="-1" Cut="0.0000000000000000e+00" cType="1" res="-5.8864508755505085e-03" rms="3.8911598920822144e-01" purity="4.5625531673431396e-01" nType="-99"/>
            <Node pos="r" depth="3" NCoef="0" IVar="-1" Cut="0.0000000000000000e+00" cType="1" res="1.2090645213902462e-06" rms="3.7278348207473755e-01" purity="5.3414553403854370e-01" nType="-99"/>
          </Node>
          <Node pos="r" depth="2" NCoef="0" IVar="7" Cut="7.6409786939620972e-01" cType="1" res="1.0409315116703510e-02" rms="3.9003598690032959e-01" purity="5.9069561958312988e-01" nType="0">
            <Node pos="l" depth="3" NCoef="0" IVar="-1" Cut="0.0000000000000000e+00" cType="1" res="1.0581871494650841e-02" rms="3.9018964767456055e-01" purity="6.0416913032531738e-01" nType="-99"/>
            <Node pos="r" depth="3" NCoef="0" IVar="-1" Cut="0.0000000000000000e+00" cType="1" res="-1.5382638201117516e-02" rms="3.8742110133171082e-01" purity="5.1308262348175049e-01" nType="-99"/>
          </Node>
        </Node>
        <Node pos="r" depth="1" NCoef="0" IVar="7" Cut="2.0000028610229492e+00" cType="1" res="-1.0296091437339783e-02" rms="3.6606732010841370e-01" purity="3.4918594360351562e-01" nType="0">
          <Node pos="l" depth="2" NCoef="0" IVar="9" Cut="1.2000727653503418e+00" cType="1" res="-1.5426527708768845e-02" rms="3.7376439571380615e-01" purity="3.8724526762962341e-01" nType="0">
            <Node pos="l" depth="3" NCoef="0" IVar="-1" Cut="0.0000000000000000e+00" cType="1" res="-6.2702675350010395e-03" rms="3.8230824470520020e-01" purity="4.1186574101448059e-01" nType="-99"/>
            <Node pos="r" depth="3" NCoef="0" IVar="-1" Cut="0.0000000000000000e+00" cType="1" res="-2.5659017264842987e-02" rms="3.4190225601196289e-01" purity="3.0242776870727539e-01" nType="-99"/>
          </Node>
          <Node pos="r" depth="2" NCoef="0" IVar="-1" Cut="0.0000000000000000e+00" cType="1" res="1.0770051740109921e-02" rms="3.3056879043579102e-01" purity="1.8781478703022003e-01" nType="-99"/>
        </Node>
      </Node>
    </BinaryTree>
    <BinaryTree type="DecisionTree" boostWeight="1.0000000000000000e+00" itree="723">
      <Node pos="s" depth="0" NCoef="0" IVar="3" Cut="2.3153840637207031e+02" cType="1" res="-1.9144798861816525e-03" rms="3.8017845153808594e-01" purity="4.9873426556587219e-01" nType="0">
        <Node pos="l" depth="1" NCoef="0" IVar="9" Cut="1.1999222040176392e+00" cType="1" res="-6.4562088809907436e-03" rms="3.8561522960662842e-01" purity="3.8956114649772644e-01" nType="0">
          <Node pos="l" depth="2" NCoef="0" IVar="7" Cut="6.6670858860015869e-01" cType="1" res="-3.6541963927447796e-03" rms="3.8968539237976074e-01" purity="4.0622940659523010e-01" nType="0">
            <Node pos="l" depth="3" NCoef="0" IVar="-1" Cut="0.0000000000000000e+00" cType="1" res="-4.4533554464578629e-03" rms="3.9320707321166992e-01" purity="4.2627316713333130e-01" nType="-99"/>
            <Node pos="r" depth="3" NCoef="0" IVar="-1" Cut="0.0000000000000000e+00" cType="1" res="3.5554647911339998e-03" rms="3.8012102246284485e-01" purity="3.5348230600357056e-01" nType="-99"/>
          </Node>
          <Node pos="r" depth="2" NCoef="0" IVar="5" Cut="5.8286872863769531e+01" cType="1" res="-1.8641723319888115e-02" rms="3.6714217066764832e-01" purity="3.1707352399826050e-01" nType="0">
            <Node pos="l" depth="3" NCoef="0" IVar="-1" Cut="0.0000000000000000e+00" cType="1" res="1.4817913062870502e-02" rms="3.4544846415519714e-01" purity="1.9528287649154663e-01" nType="-99"/>
            <Node pos="r" depth="3" NCoef="0" IVar="-1" Cut="0.0000000000000000e+00" cType="1" res="-1.9191391766071320e-02" rms="3.7305900454521179e-01" purity="3.5559663176536560e-01" nType="-99"/>
          </Node>
        </Node>
        <Node pos="r" depth="1" NCoef="0" IVar="4" Cut="9.7328880310058594e+01" cType="1" res="5.8318693190813065e-03" rms="3.7059313058853149e-01" purity="6.8493938446044922e-01" nType="0">
          <Node pos="l" depth="2" NCoef="0" IVar="-1" Cut="0.0000000000000000e+00" cType="1" res="-8.5457554087042809e-03" rms="4.0720430016517639e-01" purity="3.6020135879516602e-01" nType="-99"/>
          <Node pos="r" depth="2" NCoef="0" IVar="5" Cut="7.9216156005859375e+01" cType="1" res="8.2723563537001610e-03" rms="3.6583179235458374e-01" purity="7.2429728507995605e-01" nType="0">
            <Node pos="l" depth="3" NCoef="0" IVar="-1" Cut="0.0000000000000000e+00" cType="1" res="1.2751721777021885e-02" rms="4.1390326619148254e-01" purity="5.7072722911834717e-01" nType="-99"/>
            <Node pos="r" depth="3" NCoef="0" IVar="-1" Cut="0.0000000000000000e+00" cType="1" res="3.1583863310515881e-03" rms="3.4927096962928772e-01" purity="7.7249753475189209e-01" nType="-99"/>
          </Node>
        </Node>
      </Node>
    </BinaryTree>
    <BinaryTree type="DecisionTree" boostWeight="1.0000000000000000e+00" itree="724">
      <Node pos="s" depth="0" NCoef="0" IVar="8" Cut="1.9998749494552612e+00" cType="1" res="1.8889500061050057e-03" rms="3.8328897953033447e-01" purity="4.9894979596138000e-01" nType="0">
        <Node pos="l" depth="1" NCoef="0" IVar="9" Cut="1.4666688442230225e+00" cType="1" res="2.9046053532510996e-03" rms="3.8568806648254395e-01" purity="5.1087576150894165e-01" nType="0">
          <Node pos="l" depth="2" NCoef="0" IVar="6" Cut="1.4771602153778076e+00" cType="1" res="1.0692888172343373e-03" rms="3.8578987121582031e-01" purity="5.2206420898437500e-01" nType="0">
            <Node pos="l" depth="3" NCoef="0" IVar="-1" Cut="0.0000000000000000e+00" cType="1" res="-1.5749460726510733e-04" rms="3.8845473527908325e-01" purity="5.3937494754791260e-01" nType="-99"/>
            <Node pos="r" depth="3" NCoef="0" IVar="-1" Cut="0.0000000000000000e+00" cType="1" res="1.8781142309308052e-02" rms="3.4035873413085938e-01" purity="2.4907393753528595e-01" nType="-99"/>
          </Node>
          <Node pos="r" depth="2" NCoef="0" IVar="0" Cut="4.4704006958007812e+02" cType="1" res="1.6092825680971146e-02" rms="3.8469839096069336e-01" purity="4.3047821521759033e-01" nType="0">
            <Node pos="l" depth="3" NCoef="0" IVar="-1" Cut="0.0000000000000000e+00" cType="1" res="1.8541254103183746e-03" rms="3.7695497274398804e-01" purity="2.8645128011703491e-01" nType="-99"/>
            <Node pos="r" depth="3" NCoef="0" IVar="-1" Cut="0.0000000000000000e+00" cType="1" res="2.3320510983467102e-02" rms="3.9597463607788086e-01" purity="6.6420215368270874e-01" nType="-99"/>
          </Node>
        </Node>
        <Node pos="r" depth="1" NCoef="0" IVar="-1" Cut="0.0000000000000000e+00" cType="1" res="-1.8329761922359467e-02" rms="3.2107165455818176e-01" purity="2.1947230398654938e-01" nType="-99"/>
      </Node>
    </BinaryTree>
    <BinaryTree type="DecisionTree" boostWeight="1.0000000000000000e+00" itree="725">
      <Node pos="s" depth="0" NCoef="0" IVar="3" Cut="1.4350981140136719e+02" cType="1" res="-1.1793647427111864e-03" rms="3.8140434026718140e-01" purity="4.9871468544006348e-01" nType="0">
        <Node pos="l" depth="1" NCoef="0" IVar="8" Cut="-1.4665955305099487e+00" cType="1" res="1.0805309750139713e-02" rms="3.6658895015716553e-01" purity="2.4222329258918762e-01" nType="0">
          <Node pos="l" depth="2" NCoef="0" IVar="-1" Cut="0.0000000000000000e+00" cType="1" res="-2.4031817913055420e-02" rms="2.9592403769493103e-01" purity="1.2922386825084686e-01" nType="-99"/>
          <Node pos="r" depth="2" NCoef="0" IVar="4" Cut="8.1123107910156250e+01" cType="1" res="1.6366580501198769e-02" rms="3.7623310089111328e-01" purity="2.6006203889846802e-01" nType="0">
            <Node pos="l" depth="3" NCoef="0" IVar="-1" Cut="0.0000000000000000e+00" cType="1" res="3.1045484356582165e-03" rms="3.1848567724227905e-01" purity="1.3379248976707458e-01" nType="-99"/>
            <Node pos="r" depth="3" NCoef="0" IVar="-1" Cut="0.0000000000000000e+00" cType="1" res="1.5551259741187096e-02" rms="4.1000920534133911e-01" purity="3.4426423907279968e-01" nType="-99"/>
          </Node>
        </Node>
        <Node pos="r" depth="1" NCoef="0" IVar="1" Cut="1.1048767089843750e+03" cType="1" res="-4.8193982802331448e-03" rms="3.8571777939796448e-01" purity="5.7661730051040649e-01" nType="0">
          <Node pos="l" depth="2" NCoef="0" IVar="3" Cut="1.6085229492187500e+02" cType="1" res="-1.5810752287507057e-02" rms="4.0000087022781372e-01" purity="2.7404409646987915e-01" nType="0">
            <Node pos="l" depth="3" NCoef="0" IVar="-1" Cut="0.0000000000000000e+00" cType="1" res="-2.5585828348994255e-02" rms="3.8358691334724426e-01" purity="2.2304742038249969e-01" nType="-99"/>
            <Node pos="r" depth="3" NCoef="0" IVar="-1" Cut="0.0000000000000000e+00" cType="1" res="-3.5584957804530859e-03" rms="4.0594068169593811e-01" purity="2.9436641931533813e-01" nType="-99"/>
          </Node>
          <Node pos="r" depth="2" NCoef="0" IVar="8" Cut="-9.3329524993896484e-01" cType="1" res="-2.1215369924902916e-03" rms="3.8208201527595520e-01" purity="6.5088480710983276e-01" nType="0">
            <Node pos="l" depth="3" NCoef="0" IVar="-1" Cut="0.0000000000000000e+00" cType="1" res="8.4627298638224602e-03" rms="3.9931491017341614e-01" purity="5.6845241785049438e-01" nType="-99"/>
            <Node pos="r" depth="3" NCoef="0" IVar="-1" Cut="0.0000000000000000e+00" cType="1" res="-4.1438816115260124e-03" rms="3.7759011983871460e-01" purity="6.7129540443420410e-01" nType="-99"/>
          </Node>
        </Node>
      </Node>
    </BinaryTree>
    <BinaryTree type="DecisionTree" boostWeight="1.0000000000000000e+00" itree="726">
      <Node pos="s" depth="0" NCoef="0" IVar="9" Cut="-6.6665673255920410e-01" cType="1" res="-2.3295628488995135e-04" rms="3.8402751088142395e-01" purity="4.9854093790054321e-01" nType="0">
        <Node pos="l" depth="1" NCoef="0" IVar="7" Cut="6.6663765907287598e-01" cType="1" res="7.8033427707850933e-03" rms="3.8654792308807373e-01" purity="4.6696582436561584e-01" nType="0">
          <Node pos="l" depth="2" NCoef="0" IVar="7" Cut="-1.6443561315536499e+00" cType="1" res="2.4547223001718521e-03" rms="3.8562682271003723e-01" purity="4.8198717832565308e-01" nType="0">
            <Node pos="l" depth="3" NCoef="0" IVar="-1" Cut="0.0000000000000000e+00" cType="1" res="3.4558840095996857e-02" rms="3.5045608878135681e-01" purity="2.3853607475757599e-01" nType="-99"/>
            <Node pos="r" depth="3" NCoef="0" IVar="-1" Cut="0.0000000000000000e+00" cType="1" res="-1.4503508573397994e-03" rms="3.8974326848983765e-01" purity="5.1379460096359253e-01" nType="-99"/>
          </Node>
          <Node pos="r" depth="2" NCoef="0" IVar="8" Cut="1.3353805243968964e-01" cType="1" res="2.4845248088240623e-02" rms="3.8897803425788879e-01" purity="4.1910430788993835e-01" nType="0">
            <Node pos="l" depth="3" NCoef="0" IVar="-1" Cut="0.0000000000000000e+00" cType="1" res="1.8534779082983732e-03" rms="3.8707539439201355e-01" purity="3.8448402285575867e-01" nType="-99"/>
            <Node pos="r" depth="3" NCoef="0" IVar="-1" Cut="0.0000000000000000e+00" cType="1" res="3.2005935907363892e-02" rms="3.8961961865425110e-01" purity="4.5313635468482971e-01" nType="-99"/>
          </Node>
        </Node>
        <Node pos="r" depth="1" NCoef="0" IVar="8" Cut="1.3334587216377258e-01" cType="1" res="-3.7194110918790102e-03" rms="3.8287645578384399e-01" purity="5.1223945617675781e-01" nType="0">
          <Node pos="l" depth="2" NCoef="0" IVar="6" Cut="9.4786763191223145e-01" cType="1" res="-9.3111731112003326e-03" rms="3.8638469576835632e-01" purity="5.2776658535003662e-01" nType="0">
            <Node pos="l" depth="3" NCoef="0" IVar="-1" Cut="0.0000000000000000e+00" cType="1" res="-8.7330071255564690e-03" rms="3.8894903659820557e-01" purity="5.5775517225265503e-01" nType="-99"/>
            <Node pos="r" depth="3" NCoef="0" IVar="-1" Cut="0.0000000000000000e+00" cType="1" res="8.8197141885757446e-03" rms="3.7167078256607056e-01" purity="3.6739397048950195e-01" nType="-99"/>
          </Node>
          <Node pos="r" depth="2" NCoef="0" IVar="7" Cut="-1.1997560262680054e+00" cType="1" res="2.4796503130346537e-03" rms="3.7885278463363647e-01" purity="4.9502587318420410e-01" nType="0">
            <Node pos="l" depth="3" NCoef="0" IVar="-1" Cut="0.0000000000000000e+00" cType="1" res="-1.9847268238663673e-02" rms="3.3968311548233032e-01" purity="2.5828617811203003e-01" nType="-99"/>
            <Node pos="r" depth="3" NCoef="0" IVar="-1" Cut="0.0000000000000000e+00" cType="1" res="3.5737159196287394e-03" rms="3.8260743021965027e-01" purity="5.1980966329574585e-01" nType="-99"/>
          </Node>
        </Node>
      </Node>
    </BinaryTree>
    <BinaryTree type="DecisionTree" boostWeight="1.0000000000000000e+00" itree="727">
      <Node pos="s" depth="0" NCoef="0" IVar="8" Cut="-1.2000048160552979e+00" cType="1" res="1.2831552885472775e-03" rms="3.8191965222358704e-01" purity="5.0072562694549561e-01" nType="0">
        <Node pos="l" depth="1" NCoef="0" IVar="8" Cut="-1.4285881519317627e+00" cType="1" res="1.3752539642155170e-02" rms="3.7794977426528931e-01" purity="3.8146114349365234e-01" nType="0">
          <Node pos="l" depth="2" NCoef="0" IVar="6" Cut="-6.2308090925216675e-01" cType="1" res="3.0135405249893665e-03" rms="3.6771407723426819e-01" purity="3.3607822656631470e-01" nType="0">
            <Node pos="l" depth="3" NCoef="0" IVar="-1" Cut="0.0000000000000000e+00" cType="1" res="2.5971310213208199e-02" rms="3.6328512430191040e-01" purity="2.7568528056144714e-01" nType="-99"/>
            <Node pos="r" depth="3" NCoef="0" IVar="-1" Cut="0.0000000000000000e+00" cType="1" res="-7.0994887501001358e-03" rms="3.6910906434059143e-01" purity="3.6569148302078247e-01" nType="-99"/>
          </Node>
          <Node pos="r" depth="2" NCoef="0" IVar="-1" Cut="0.0000000000000000e+00" cType="1" res="2.6105353608727455e-02" rms="4.0094760060310364e-01" purity="4.9387967586517334e-01" nType="-99"/>
        </Node>
        <Node pos="r" depth="1" NCoef="0" IVar="8" Cut="5.1424926519393921e-01" cType="1" res="-1.0476799216121435e-03" rms="3.8261207938194275e-01" purity="5.2301913499832153e-01" nType="0">
          <Node pos="l" depth="2" NCoef="0" IVar="7" Cut="1.3342998921871185e-01" cType="1" res="-7.3223700746893883e-03" rms="3.8277614116668701e-01" purity="5.6495302915573120e-01" nType="0">
            <Node pos="l" depth="3" NCoef="0" IVar="-1" Cut="0.0000000000000000e+00" cType="1" res="-4.6541265328414738e-04" rms="3.8152924180030823e-01" purity="5.7817465066909790e-01" nType="-99"/>
            <Node pos="r" depth="3" NCoef="0" IVar="-1" Cut="0.0000000000000000e+00" cType="1" res="-1.0940074920654297e-02" rms="3.8427880406379700e-01" purity="5.4701668024063110e-01" nType="-99"/>
          </Node>
          <Node pos="r" depth="2" NCoef="0" IVar="5" Cut="8.5091705322265625e+01" cType="1" res="8.6607215926051140e-03" rms="3.8215515017509460e-01" purity="4.5813757181167603e-01" nType="0">
            <Node pos="l" depth="3" NCoef="0" IVar="-1" Cut="0.0000000000000000e+00" cType="1" res="1.3069223612546921e-02" rms="3.8117134571075439e-01" purity="3.1798627972602844e-01" nType="-99"/>
            <Node pos="r" depth="3" NCoef="0" IVar="-1" Cut="0.0000000000000000e+00" cType="1" res="-3.1401345040649176e-03" rms="3.8303738832473755e-01" purity="6.4290183782577515e-01" nType="-99"/>
          </Node>
        </Node>
      </Node>
    </BinaryTree>
    <BinaryTree type="DecisionTree" boostWeight="1.0000000000000000e+00" itree="728">
      <Node pos="s" depth="0" NCoef="0" IVar="8" Cut="-1.4666740894317627e+00" cType="1" res="4.7398167662322521e-03" rms="3.8087922334671021e-01" purity="5.0371992588043213e-01" nType="0">
        <Node pos="l" depth="1" NCoef="0" IVar="9" Cut="-1.3336926698684692e-01" cType="1" res="-1.1433574371039867e-02" rms="3.5747888684272766e-01" purity="3.1485384702682495e-01" nType="0">
          <Node pos="l" depth="2" NCoef="0" IVar="8" Cut="-1.9111107587814331e+00" cType="1" res="4.7002232167869806e-04" rms="3.5328209400177002e-01" purity="2.9849493503570557e-01" nType="0">
            <Node pos="l" depth="3" NCoef="0" IVar="-1" Cut="0.0000000000000000e+00" cType="1" res="1.5194564126431942e-02" rms="3.4626692533493042e-01" purity="2.4848259985446930e-01" nType="-99"/>
            <Node pos="r" depth="3" NCoef="0" IVar="-1" Cut="0.0000000000000000e+00" cType="1" res="-1.1786267161369324e-02" rms="3.5927906632423401e-01" purity="3.4848943352699280e-01" nType="-99"/>
          </Node>
          <Node pos="r" depth="2" NCoef="0" IVar="-1" Cut="0.0000000000000000e+00" cType="1" res="-1.7341326922178268e-02" rms="3.6176955699920654e-01" purity="3.3370584249496460e-01" nType="-99"/>
        </Node>
        <Node pos="r" depth="1" NCoef="0" IVar="7" Cut="1.2000209093093872e+00" cType="1" res="6.6518834792077541e-03" rms="3.8350623846054077e-01" purity="5.2604824304580688e-01" nType="0">
          <Node pos="l" depth="2" NCoef="0" IVar="9" Cut="1.4666672945022583e+00" cType="1" res="8.7174810469150543e-03" rms="3.8671347498893738e-01" purity="5.5953693389892578e-01" nType="0">
            <Node pos="l" depth="3" NCoef="0" IVar="-1" Cut="0.0000000000000000e+00" cType="1" res="7.1868859231472015e-03" rms="3.8696253299713135e-01" purity="5.7294088602066040e-01" nType="-99"/>
            <Node pos="r" depth="3" NCoef="0" IVar="-1" Cut="0.0000000000000000e+00" cType="1" res="-5.3963465616106987e-03" rms="3.8434860110282898e-01" purity="4.5556798577308655e-01" nType="-99"/>
          </Node>
          <Node pos="r" depth="2" NCoef="0" IVar="9" Cut="9.3327307701110840e-01" cType="1" res="-6.7592547275125980e-03" rms="3.6170551180839539e-01" purity="3.0861899256706238e-01" nType="0">
            <Node pos="l" depth="3" NCoef="0" IVar="-1" Cut="0.0000000000000000e+00" cType="1" res="-1.4587969519197941e-02" rms="3.6461788415908813e-01" purity="3.2400584220886230e-01" nType="-99"/>
            <Node pos="r" depth="3" NCoef="0" IVar="-1" Cut="0.0000000000000000e+00" cType="1" res="1.8002180382609367e-02" rms="3.5377109050750732e-01" purity="2.7672484517097473e-01" nType="-99"/>
          </Node>
        </Node>
      </Node>
    </BinaryTree>
    <BinaryTree type="DecisionTree" boostWeight="1.0000000000000000e+00" itree="729">
      <Node pos="s" depth="0" NCoef="0" IVar="7" Cut="1.2000445127487183e+00" cType="1" res="-1.0281658032909036e-03" rms="3.8420146703720093e-01" purity="4.9554452300071716e-01" nType="0">
        <Node pos="l" depth="1" NCoef="0" IVar="3" Cut="3.2426098632812500e+02" cType="1" res="-3.3048661425709724e-03" rms="3.8678470253944397e-01" purity="5.2327620983123779e-01" nType="0">
          <Node pos="l" depth="2" NCoef="0" IVar="7" Cut="-8.9513385295867920e-01" cType="1" res="-5.5207605473697186e-03" rms="3.8815656304359436e-01" purity="4.9499276280403137e-01" nType="0">
            <Node pos="l" depth="3" NCoef="0" IVar="-1" Cut="0.0000000000000000e+00" cType="1" res="2.3507792502641678e-03" rms="3.7515142560005188e-01" purity="3.6173373460769653e-01" nType="-99"/>
            <Node pos="r" depth="3" NCoef="0" IVar="-1" Cut="0.0000000000000000e+00" cType="1" res="-5.4450719617307186e-03" rms="3.9242121577262878e-01" purity="5.4015088081359863e-01" nType="-99"/>
          </Node>
          <Node pos="r" depth="2" NCoef="0" IVar="1" Cut="1.9291260986328125e+03" cType="1" res="1.1422041803598404e-02" rms="3.7721005082130432e-01" purity="7.1124911308288574e-01" nType="0">
            <Node pos="l" depth="3" NCoef="0" IVar="-1" Cut="0.0000000000000000e+00" cType="1" res="1.6802849248051643e-02" rms="3.8991490006446838e-01" purity="6.6520249843597412e-01" nType="-99"/>
            <Node pos="r" depth="3" NCoef="0" IVar="-1" Cut="0.0000000000000000e+00" cType="1" res="-1.1960966512560844e-02" rms="3.5262009501457214e-01" purity="7.9113775491714478e-01" nType="-99"/>
          </Node>
        </Node>
        <Node pos="r" depth="1" NCoef="0" IVar="8" Cut="6.6654896736145020e-01" cType="1" res="1.3274777680635452e-02" rms="3.6723485589027405e-01" purity="3.2132524251937866e-01" nType="0">
          <Node pos="l" depth="2" NCoef="0" IVar="6" Cut="-3.0460664629936218e-01" cType="1" res="2.3773111402988434e-02" rms="3.7848636507987976e-01" purity="3.5852438211441040e-01" nType="0">
            <Node pos="l" depth="3" NCoef="0" IVar="-1" Cut="0.0000000000000000e+00" cType="1" res="-4.0848804637789726e-03" rms="3.5285598039627075e-01" purity="2.5885900855064392e-01" nType="-99"/>
            <Node pos="r" depth="3" NCoef="0" IVar="-1" Cut="0.0000000000000000e+00" cType="1" res="2.7084045112133026e-02" rms="3.9119511842727661e-01" purity="4.1447371244430542e-01" nType="-99"/>
          </Node>
          <Node pos="r" depth="2" NCoef="0" IVar="9" Cut="4.0036204457283020e-01" cType="1" res="-4.6277614310383797e-03" rms="3.4647494554519653e-01" purity="2.5789061188697815e-01" nType="0">
            <Node pos="l" depth="3" NCoef="0" IVar="-1" Cut="0.0000000000000000e+00" cType="1" res="-9.4470558688044548e-03" rms="3.5095909237861633e-01" purity="2.7918300032615662e-01" nType="-99"/>
            <Node pos="r" depth="3" NCoef="0" IVar="-1" Cut="0.0000000000000000e+00" cType="1" res="2.6317038573324680e-03" rms="3.4184041619300842e-01" purity="2.3699630796909332e-01" nType="-99"/>
          </Node>
        </Node>
      </Node>
    </BinaryTree>
    <BinaryTree type="DecisionTree" boostWeight="1.0000000000000000e+00" itree="730">
      <Node pos="s" depth="0" NCoef="0" IVar="6" Cut="-1.2430100142955780e-01" cType="1" res="3.8724413025192916e-04" rms="3.8460659980773926e-01" purity="4.9629986286163330e-01" nType="0">
        <Node pos="l" depth="1" NCoef="0" IVar="7" Cut="-3.9991998672485352e-01" cType="1" res="-5.3374161943793297e-03" rms="3.8315588235855103e-01" purity="4.7694921493530273e-01" nType="0">
          <Node pos="l" depth="2" NCoef="0" IVar="6" Cut="-5.0010049343109131e-01" cType="1" res="-1.5474795363843441e-02" rms="3.7818863987922668e-01" purity="4.1949558258056641e-01" nType="0">
            <Node pos="l" depth="3" NCoef="0" IVar="-1" Cut="0.0000000000000000e+00" cType="1" res="-4.7988034784793854e-03" rms="3.7229138612747192e-01" purity="3.6370468139648438e-01" nType="-99"/>
            <Node pos="r" depth="3" NCoef="0" IVar="-1" Cut="0.0000000000000000e+00" cType="1" res="-2.2278936579823494e-02" rms="3.9042708277702332e-01" purity="5.4513978958129883e-01" nType="-99"/>
          </Node>
          <Node pos="r" depth="2" NCoef="0" IVar="8" Cut="1.1998943090438843e+00" cType="1" res="7.5893022585660219e-04" rms="3.8598409295082092e-01" purity="5.1150029897689819e-01" nType="0">
            <Node pos="l" depth="3" NCoef="0" IVar="-1" Cut="0.0000000000000000e+00" cType="1" res="-1.3673526700586081e-03" rms="3.8612416386604309e-01" purity="5.3156596422195435e-01" nType="-99"/>
            <Node pos="r" depth="3" NCoef="0" IVar="-1" Cut="0.0000000000000000e+00" cType="1" res="1.0999658145010471e-02" rms="3.8478833436965942e-01" purity="3.9662089943885803e-01" nType="-99"/>
          </Node>
        </Node>
        <Node pos="r" depth="1" NCoef="0" IVar="8" Cut="1.3316753506660461e-01" cType="1" res="4.9476730637252331e-03" rms="3.8569757342338562e-01" purity="5.1171517372131348e-01" nType="0">
          <Node pos="l" depth="2" NCoef="0" IVar="5" Cut="7.8109825134277344e+01" cType="1" res="1.1412188410758972e-02" rms="3.8862472772598267e-01" purity="5.3815811872482300e-01" nType="0">
            <Node pos="l" depth="3" NCoef="0" IVar="-1" Cut="0.0000000000000000e+00" cType="1" res="1.3710206374526024e-02" rms="4.0129783749580383e-01" purity="3.6274617910385132e-01" nType="-99"/>
            <Node pos="r" depth="3" NCoef="0" IVar="-1" Cut="0.0000000000000000e+00" cType="1" res="2.1581095643341541e-03" rms="3.7770044803619385e-01" purity="6.8217223882675171e-01" nType="-99"/>
          </Node>
          <Node pos="r" depth="2" NCoef="0" IVar="8" Cut="8.9502090215682983e-01" cType="1" res="-1.9575532060116529e-03" rms="3.8242542743682861e-01" purity="4.8346939682960510e-01" nType="0">
            <Node pos="l" depth="3" NCoef="0" IVar="-1" Cut="0.0000000000000000e+00" cType="1" res="-7.3468084447085857e-03" rms="3.8294464349746704e-01" purity="5.5631744861602783e-01" nType="-99"/>
            <Node pos="r" depth="3" NCoef="0" IVar="-1" Cut="0.0000000000000000e+00" cType="1" res="4.8700352199375629e-03" rms="3.8168323040008545e-01" purity="4.0916562080383301e-01" nType="-99"/>
          </Node>
        </Node>
      </Node>
    </BinaryTree>
    <BinaryTree type="DecisionTree" boostWeight="1.0000000000000000e+00" itree="731">
      <Node pos="s" depth="0" NCoef="0" IVar="3" Cut="1.4284295654296875e+02" cType="1" res="2.8410626691766083e-04" rms="3.8435158133506775e-01" purity="4.9828428030014038e-01" nType="0">
        <Node pos="l" depth="1" NCoef="0" IVar="3" Cut="1.2533459472656250e+02" cType="1" res="8.4238741546869278e-03" rms="3.6769095063209534e-01" purity="2.3839432001113892e-01" nType="0">
          <Node pos="l" depth="2" NCoef="0" IVar="8" Cut="9.3308609724044800e-01" cType="1" res="1.3707376783713698e-03" rms="3.4955704212188721e-01" purity="1.9191090762615204e-01" nType="0">
            <Node pos="l" depth="3" NCoef="0" IVar="-1" Cut="0.0000000000000000e+00" cType="1" res="-5.6211804039776325e-03" rms="3.4831404685974121e-01" purity="1.9314889609813690e-01" nType="-99"/>
            <Node pos="r" depth="3" NCoef="0" IVar="-1" Cut="0.0000000000000000e+00" cType="1" res="2.3758396506309509e-02" rms="3.5199943184852600e-01" purity="1.8831682205200195e-01" nType="-99"/>
          </Node>
          <Node pos="r" depth="2" NCoef="0" IVar="4" Cut="9.8551734924316406e+01" cType="1" res="2.3303961381316185e-02" rms="4.0287747979164124e-01" purity="3.3646097779273987e-01" nType="0">
            <Node pos="l" depth="3" NCoef="0" IVar="-1" Cut="0.0000000000000000e+00" cType="1" res="-6.6639003343880177e-03" rms="3.5736942291259766e-01" purity="2.0454603433609009e-01" nType="-99"/>
            <Node pos="r" depth="3" NCoef="0" IVar="-1" Cut="0.0000000000000000e+00" cType="1" res="2.7492403984069824e-02" rms="4.3326684832572937e-01" purity="4.3882322311401367e-01" nType="-99"/>
          </Node>
        </Node>
        <Node pos="r" depth="1" NCoef="0" IVar="7" Cut="-9.3328952789306641e-01" cType="1" res="-2.1534000989049673e-03" rms="3.8916882872581482e-01" purity="5.7611000537872314e-01" nType="0">
          <Node pos="l" depth="2" NCoef="0" IVar="9" Cut="-1.3378569483757019e-01" cType="1" res="-1.2558938004076481e-02" rms="3.8055500388145447e-01" purity="4.2605462670326233e-01" nType="0">
            <Node pos="l" depth="3" NCoef="0" IVar="-1" Cut="0.0000000000000000e+00" cType="1" res="-1.3566841371357441e-02" rms="3.7739151716232300e-01" purity="4.0154129266738892e-01" nType="-99"/>
            <Node pos="r" depth="3" NCoef="0" IVar="-1" Cut="0.0000000000000000e+00" cType="1" res="-2.2350696381181479e-03" rms="3.8392469286918640e-01" purity="4.5401489734649658e-01" nType="-99"/>
          </Node>
          <Node pos="r" depth="2" NCoef="0" IVar="6" Cut="9.4454342126846313e-01" cType="1" res="9.5323994173668325e-05" rms="3.9096903800964355e-01" purity="6.0853821039199829e-01" nType="0">
            <Node pos="l" depth="3" NCoef="0" IVar="-1" Cut="0.0000000000000000e+00" cType="1" res="1.5028383349999785e-03" rms="3.9257049560546875e-01" purity="6.4150512218475342e-01" nType="-99"/>
            <Node pos="r" depth="3" NCoef="0" IVar="-1" Cut="0.0000000000000000e+00" cType="1" res="-8.5284095257520676e-03" rms="3.8144722580909729e-01" purity="4.2038482427597046e-01" nType="-99"/>
          </Node>
        </Node>
      </Node>
    </BinaryTree>
    <BinaryTree type="DecisionTree" boostWeight="1.0000000000000000e+00" itree="732">
      <Node pos="s" depth="0" NCoef="0" IVar="6" Cut="-9.0995460748672485e-01" cType="1" res="-2.8208123985677958e-03" rms="3.8178461790084839e-01" purity="4.9560391902923584e-01" nType="0">
        <Node pos="l" depth="1" NCoef="0" IVar="7" Cut="6.6670531034469604e-01" cType="1" res="8.3618843927979469e-03" rms="3.6019030213356018e-01" purity="3.3946901559829712e-01" nType="0">
          <Node pos="l" depth="2" NCoef="0" IVar="4" Cut="8.5273803710937500e+01" cType="1" res="1.4859122224152088e-02" rms="3.6870646476745605e-01" purity="3.7620759010314941e-01" nType="0">
            <Node pos="l" depth="3" NCoef="0" IVar="-1" Cut="0.0000000000000000e+00" cType="1" res="4.4282644987106323e-02" rms="3.3198663592338562e-01" purity="1.6935443878173828e-01" nType="-99"/>
            <Node pos="r" depth="3" NCoef="0" IVar="-1" Cut="0.0000000000000000e+00" cType="1" res="4.3237749487161636e-03" rms="3.7915390729904175e-01" purity="4.4129821658134460e-01" nType="-99"/>
          </Node>
          <Node pos="r" depth="2" NCoef="0" IVar="-1" Cut="0.0000000000000000e+00" cType="1" res="-1.0112158954143524e-02" rms="3.3151343464851379e-01" purity="2.2526124119758606e-01" nType="-99"/>
        </Node>
        <Node pos="r" depth="1" NCoef="0" IVar="8" Cut="-3.9999622106552124e-01" cType="1" res="-5.1913377828896046e-03" rms="3.8616555929183960e-01" purity="5.2870166301727295e-01" nType="0">
          <Node pos="l" depth="2" NCoef="0" IVar="6" Cut="6.7971193790435791e-01" cType="1" res="-1.5465704724192619e-02" rms="3.8803219795227051e-01" purity="4.9517729878425598e-01" nType="0">
            <Node pos="l" depth="3" NCoef="0" IVar="-1" Cut="0.0000000000000000e+00" cType="1" res="-6.2647350132465363e-03" rms="4.0017420053482056e-01" purity="5.5809909105300903e-01" nType="-99"/>
            <Node pos="r" depth="3" NCoef="0" IVar="-1" Cut="0.0000000000000000e+00" cType="1" res="-2.3624537512660027e-02" rms="3.4882459044456482e-01" purity="3.0744388699531555e-01" nType="-99"/>
          </Node>
          <Node pos="r" depth="2" NCoef="0" IVar="6" Cut="1.7398623228073120e+00" cType="1" res="2.1607661619782448e-04" rms="3.8506942987442017e-01" purity="5.4634553194046021e-01" nType="0">
            <Node pos="l" depth="3" NCoef="0" IVar="-1" Cut="0.0000000000000000e+00" cType="1" res="-8.5272866999730468e-04" rms="3.8824775815010071e-01" purity="5.6475263833999634e-01" nType="-99"/>
            <Node pos="r" depth="3" NCoef="0" IVar="-1" Cut="0.0000000000000000e+00" cType="1" res="2.7669008821249008e-02" rms="3.2180258631706238e-01" purity="2.1723490953445435e-01" nType="-99"/>
          </Node>
        </Node>
      </Node>
    </BinaryTree>
    <BinaryTree type="DecisionTree" boostWeight="1.0000000000000000e+00" itree="733">
      <Node pos="s" depth="0" NCoef="0" IVar="9" Cut="-6.6665673255920410e-01" cType="1" res="4.3855851981788874e-04" rms="3.8131228089332581e-01" purity="4.9898409843444824e-01" nType="0">
        <Node pos="l" depth="1" NCoef="0" IVar="6" Cut="-3.7431493401527405e-01" cType="1" res="-7.5458111241459846e-03" rms="3.8012847304344177e-01" purity="4.5462155342102051e-01" nType="0">
          <Node pos="l" depth="2" NCoef="0" IVar="2" Cut="3.0733963012695312e+02" cType="1" res="3.5561309196054935e-03" rms="3.7670117616653442e-01" purity="3.9492008090019226e-01" nType="0">
            <Node pos="l" depth="3" NCoef="0" IVar="-1" Cut="0.0000000000000000e+00" cType="1" res="-1.7810277640819550e-02" rms="3.6677306890487671e-01" purity="2.9224991798400879e-01" nType="-99"/>
            <Node pos="r" depth="3" NCoef="0" IVar="-1" Cut="0.0000000000000000e+00" cType="1" res="1.4384484849870205e-02" rms="3.8152632117271423e-01" purity="4.5701378583908081e-01" nType="-99"/>
          </Node>
          <Node pos="r" depth="2" NCoef="0" IVar="4" Cut="1.4009941101074219e+02" cType="1" res="-1.4999942854046822e-02" rms="3.8223150372505188e-01" purity="4.9470666050910950e-01" nType="0">
            <Node pos="l" depth="3" NCoef="0" IVar="-1" Cut="0.0000000000000000e+00" cType="1" res="-1.5153189189732075e-02" rms="3.8902762532234192e-01" purity="3.5935837030410767e-01" nType="-99"/>
            <Node pos="r" depth="3" NCoef="0" IVar="-1" Cut="0.0000000000000000e+00" cType="1" res="-9.8671542946249247e-04" rms="3.7116053700447083e-01" purity="7.0219606161117554e-01" nType="-99"/>
          </Node>
        </Node>
        <Node pos="r" depth="1" NCoef="0" IVar="9" Cut="1.9745784997940063e+00" cType="1" res="3.7989304400980473e-03" rms="3.8175946474075317e-01" purity="5.1765489578247070e-01" nType="0">
          <Node pos="l" depth="2" NCoef="0" IVar="8" Cut="-6.6665261983871460e-01" cType="1" res="5.7860841043293476e-03" rms="3.8250878453254700e-01" purity="5.3351593017578125e-01" nType="0">
            <Node pos="l" depth="3" NCoef="0" IVar="-1" Cut="0.0000000000000000e+00" cType="1" res="1.0308952070772648e-02" rms="3.8325560092926025e-01" purity="4.9837934970855713e-01" nType="-99"/>
            <Node pos="r" depth="3" NCoef="0" IVar="-1" Cut="0.0000000000000000e+00" cType="1" res="1.4299007598310709e-03" rms="3.8216802477836609e-01" purity="5.4649513959884644e-01" nType="-99"/>
          </Node>
          <Node pos="r" depth="2" NCoef="0" IVar="7" Cut="1.3340467214584351e-01" cType="1" res="-1.9846020266413689e-02" rms="3.7191393971443176e-01" purity="3.2892584800720215e-01" nType="0">
            <Node pos="l" depth="3" NCoef="0" IVar="-1" Cut="0.0000000000000000e+00" cType="1" res="-6.7253503948450089e-03" rms="3.7107691168785095e-01" purity="3.8699123263359070e-01" nType="-99"/>
            <Node pos="r" depth="3" NCoef="0" IVar="-1" Cut="0.0000000000000000e+00" cType="1" res="-2.1910028532147408e-02" rms="3.7250322103500366e-01" purity="2.6886385679244995e-01" nType="-99"/>
          </Node>
        </Node>
      </Node>
    </BinaryTree>
    <BinaryTree type="DecisionTree" boostWeight="1.0000000000000000e+00" itree="734">
      <Node pos="s" depth="0" NCoef="0" IVar="8" Cut="3.9996504783630371e-01" cType="1" res="-1.2638347689062357e-03" rms="3.8386109471321106e-01" purity="4.9485620856285095e-01" nType="0">
        <Node pos="l" depth="1" NCoef="0" IVar="9" Cut="-1.9999724626541138e+00" cType="1" res="1.8805942963808775e-03" rms="3.8479155302047729e-01" purity="5.1572692394256592e-01" nType="0">
          <Node pos="l" depth="2" NCoef="0" IVar="-1" Cut="0.0000000000000000e+00" cType="1" res="1.5653876587748528e-02" rms="3.8964110612869263e-01" purity="3.5455766320228577e-01" nType="-99"/>
          <Node pos="r" depth="2" NCoef="0" IVar="9" Cut="-6.2854832410812378e-01" cType="1" res="6.6915358183905482e-04" rms="3.8446041941642761e-01" purity="5.2556306123733521e-01" nType="0">
            <Node pos="l" depth="3" NCoef="0" IVar="-1" Cut="0.0000000000000000e+00" cType="1" res="-6.3079888932406902e-03" rms="3.8194164633750916e-01" purity="4.8495414853096008e-01" nType="-99"/>
            <Node pos="r" depth="3" NCoef="0" IVar="-1" Cut="0.0000000000000000e+00" cType="1" res="3.1338839326053858e-03" rms="3.8539224863052368e-01" purity="5.4184132814407349e-01" nType="-99"/>
          </Node>
        </Node>
        <Node pos="r" depth="1" NCoef="0" IVar="9" Cut="1.4666945934295654e+00" cType="1" res="-6.7068454809486866e-03" rms="3.8218393921852112e-01" purity="4.5872911810874939e-01" nType="0">
          <Node pos="l" depth="2" NCoef="0" IVar="9" Cut="2.4758274853229523e-01" cType="1" res="-9.4895251095294952e-03" rms="3.8203743100166321e-01" purity="4.7758564352989197e-01" nType="0">
            <Node pos="l" depth="3" NCoef="0" IVar="-1" Cut="0.0000000000000000e+00" cType="1" res="-2.7151256799697876e-03" rms="3.8469693064689636e-01" purity="4.9162277579307556e-01" nType="-99"/>
            <Node pos="r" depth="3" NCoef="0" IVar="-1" Cut="0.0000000000000000e+00" cType="1" res="-1.2914010323584080e-02" rms="3.7717354297637939e-01" purity="4.5313653349876404e-01" nType="-99"/>
          </Node>
          <Node pos="r" depth="2" NCoef="0" IVar="9" Cut="1.9111307859420776e+00" cType="1" res="9.4762593507766724e-03" rms="3.8263398408889771e-01" purity="3.4906610846519470e-01" nType="0">
            <Node pos="l" depth="3" NCoef="0" IVar="-1" Cut="0.0000000000000000e+00" cType="1" res="1.6153046861290932e-02" rms="3.9573246240615845e-01" purity="4.1953429579734802e-01" nType="-99"/>
            <Node pos="r" depth="3" NCoef="0" IVar="-1" Cut="0.0000000000000000e+00" cType="1" res="-4.7063725069165230e-03" rms="3.6827716231346130e-01" purity="2.7790844440460205e-01" nType="-99"/>
          </Node>
        </Node>
      </Node>
    </BinaryTree>
    <BinaryTree type="DecisionTree" boostWeight="1.0000000000000000e+00" itree="735">
      <Node pos="s" depth="0" NCoef="0" IVar="6" Cut="-1.4195756912231445e+00" cType="1" res="1.4904342824593186e-03" rms="3.8281852006912231e-01" purity="4.9962744116783142e-01" nType="0">
        <Node pos="l" depth="1" NCoef="0" IVar="6" Cut="-1.7335417270660400e+00" cType="1" res="-1.9699439406394958e-02" rms="3.0999127030372620e-01" purity="1.8713849782943726e-01" nType="0">
          <Node pos="l" depth="2" NCoef="0" IVar="-1" Cut="0.0000000000000000e+00" cType="1" res="-5.9090889990329742e-03" rms="2.9942631721496582e-01" purity="1.6353836655616760e-01" nType="-99"/>
          <Node pos="r" depth="2" NCoef="0" IVar="-1" Cut="0.0000000000000000e+00" cType="1" res="-2.9068339616060257e-02" rms="3.2142159342765808e-01" purity="2.1543958783149719e-01" nType="-99"/>
        </Node>
        <Node pos="r" depth="1" NCoef="0" IVar="6" Cut="9.9157136678695679e-01" cType="1" res="3.0355348717421293e-03" rms="3.8754862546920776e-01" purity="5.2241319417953491e-01" nType="0">
          <Node pos="l" depth="2" NCoef="0" IVar="4" Cut="9.9455039978027344e+01" cType="1" res="7.2888762224465609e-04" rms="3.9238232374191284e-01" purity="5.6289291381835938e-01" nType="0">
            <Node pos="l" depth="3" NCoef="0" IVar="-1" Cut="0.0000000000000000e+00" cType="1" res="5.4054795764386654e-03" rms="4.0041685104370117e-01" purity="3.0381417274475098e-01" nType="-99"/>
            <Node pos="r" depth="3" NCoef="0" IVar="-1" Cut="0.0000000000000000e+00" cType="1" res="-1.6537063056603074e-03" rms="3.8896951079368591e-01" purity="6.6985064744949341e-01" nType="-99"/>
          </Node>
          <Node pos="r" depth="2" NCoef="0" IVar="8" Cut="9.3353360891342163e-01" cType="1" res="1.4489980414509773e-02" rms="3.6237463355064392e-01" purity="3.2139730453491211e-01" nType="0">
            <Node pos="l" depth="3" NCoef="0" IVar="-1" Cut="0.0000000000000000e+00" cType="1" res="6.1423624865710735e-03" rms="3.7059861421585083e-01" purity="3.4370911121368408e-01" nType="-99"/>
            <Node pos="r" depth="3" NCoef="0" IVar="-1" Cut="0.0000000000000000e+00" cType="1" res="2.5627974420785904e-02" rms="3.4119239449501038e-01" purity="2.6741057634353638e-01" nType="-99"/>
          </Node>
        </Node>
      </Node>
    </BinaryTree>
    <BinaryTree type="DecisionTree" boostWeight="1.0000000000000000e+00" itree="736">
      <Node pos="s" depth="0" NCoef="0" IVar="9" Cut="-3.9988547563552856e-01" cType="1" res="6.6634081304073334e-04" rms="3.8250544667243958e-01" purity="4.9816983938217163e-01" nType="0">
        <Node pos="l" depth="1" NCoef="0" IVar="4" Cut="1.4000904846191406e+02" cType="1" res="8.8309142738580704e-03" rms="3.8641652464866638e-01" purity="4.8455443978309631e-01" nType="0">
          <Node pos="l" depth="2" NCoef="0" IVar="5" Cut="5.8466686248779297e+01" cType="1" res="3.8369277026504278e-03" rms="3.9095854759216309e-01" purity="3.4830677509307861e-01" nType="0">
            <Node pos="l" depth="3" NCoef="0" IVar="-1" Cut="0.0000000000000000e+00" cType="1" res="1.8725300207734108e-02" rms="3.6850067973136902e-01" purity="2.4054972827434540e-01" nType="-99"/>
            <Node pos="r" depth="3" NCoef="0" IVar="-1" Cut="0.0000000000000000e+00" cType="1" res="-2.0702681504189968e-03" rms="3.9829617738723755e-01" purity="3.8614642620086670e-01" nType="-99"/>
          </Node>
          <Node pos="r" depth="2" NCoef="0" IVar="7" Cut="-6.6611480712890625e-01" cType="1" res="1.6540685668587685e-02" rms="3.7916862964630127e-01" purity="6.9489502906799316e-01" nType="0">
            <Node pos="l" depth="3" NCoef="0" IVar="-1" Cut="0.0000000000000000e+00" cType="1" res="2.4673584848642349e-02" rms="3.9794710278511047e-01" purity="6.0940474271774292e-01" nType="-99"/>
            <Node pos="r" depth="3" NCoef="0" IVar="-1" Cut="0.0000000000000000e+00" cType="1" res="5.7068676687777042e-03" rms="3.7141883373260498e-01" purity="7.2742772102355957e-01" nType="-99"/>
          </Node>
        </Node>
        <Node pos="r" depth="1" NCoef="0" IVar="7" Cut="1.2000561952590942e+00" cType="1" res="-4.4026360847055912e-03" rms="3.7996873259544373e-01" purity="5.0662297010421753e-01" nType="0">
          <Node pos="l" depth="2" NCoef="0" IVar="9" Cut="2.1904892921447754e+00" cType="1" res="-1.7324225045740604e-03" rms="3.8524022698402405e-01" purity="5.4393941164016724e-01" nType="0">
            <Node pos="l" depth="3" NCoef="0" IVar="-1" Cut="0.0000000000000000e+00" cType="1" res="9.9601538749993779e-06" rms="3.8666665554046631e-01" purity="5.5636084079742432e-01" nType="-99"/>
            <Node pos="r" depth="3" NCoef="0" IVar="-1" Cut="0.0000000000000000e+00" cType="1" res="-2.2728048264980316e-02" rms="3.5814207792282104e-01" purity="3.2772135734558105e-01" nType="-99"/>
          </Node>
          <Node pos="r" depth="2" NCoef="0" IVar="8" Cut="-1.3278715312480927e-01" cType="1" res="-2.0370349287986755e-02" rms="3.4634777903556824e-01" purity="2.8347310423851013e-01" nType="0">
            <Node pos="l" depth="3" NCoef="0" IVar="-1" Cut="0.0000000000000000e+00" cType="1" res="-2.9869297519326210e-02" rms="3.4922736883163452e-01" purity="2.5842067599296570e-01" nType="-99"/>
            <Node pos="r" depth="3" NCoef="0" IVar="-1" Cut="0.0000000000000000e+00" cType="1" res="-7.3179579339921474e-03" rms="3.4433981776237488e-01" purity="2.9679924249649048e-01" nType="-99"/>
          </Node>
        </Node>
      </Node>
    </BinaryTree>
    <BinaryTree type="DecisionTree" boostWeight="1.0000000000000000e+00" itree="737">
      <Node pos="s" depth="0" NCoef="0" IVar="6" Cut="-1.4534932374954224e+00" cType="1" res="1.8562491750344634e-03" rms="3.8214573264122009e-01" purity="5.0370031595230103e-01" nType="0">
        <Node pos="l" depth="1" NCoef="0" IVar="8" Cut="1.3297621905803680e-01" cType="1" res="2.3790691047906876e-02" rms="3.4468141198158264e-01" purity="2.3339357972145081e-01" nType="0">
          <Node pos="l" depth="2" NCoef="0" IVar="-1" Cut="0.0000000000000000e+00" cType="1" res="4.0881525725126266e-02" rms="3.6096593737602234e-01" purity="2.5195586681365967e-01" nType="-99"/>
          <Node pos="r" depth="2" NCoef="0" IVar="-1" Cut="0.0000000000000000e+00" cType="1" res="-7.8729046508669853e-03" rms="3.1551599502563477e-01" purity="2.0518568158149719e-01" nType="-99"/>
        </Node>
        <Node pos="r" depth="1" NCoef="0" IVar="4" Cut="9.9487312316894531e+01" cType="1" res="2.3810561106074601e-04" rms="3.8471558690071106e-01" purity="5.2364134788513184e-01" nType="0">
          <Node pos="l" depth="2" NCoef="0" IVar="4" Cut="8.5367927551269531e+01" cType="1" res="-8.3510978147387505e-03" rms="3.7113338708877563e-01" purity="2.5127866864204407e-01" nType="0">
            <Node pos="l" depth="3" NCoef="0" IVar="-1" Cut="0.0000000000000000e+00" cType="1" res="-1.3694729655981064e-02" rms="3.4703111648559570e-01" purity="1.9278419017791748e-01" nType="-99"/>
            <Node pos="r" depth="3" NCoef="0" IVar="-1" Cut="0.0000000000000000e+00" cType="1" res="4.6511390246450901e-03" rms="4.0842679142951965e-01" purity="3.5093021392822266e-01" nType="-99"/>
          </Node>
          <Node pos="r" depth="2" NCoef="0" IVar="9" Cut="-6.6656076908111572e-01" cType="1" res="3.9138155989348888e-03" rms="3.9032590389251709e-01" purity="6.4019769430160522e-01" nType="0">
            <Node pos="l" depth="3" NCoef="0" IVar="-1" Cut="0.0000000000000000e+00" cType="1" res="9.1742211952805519e-03" rms="3.9969089627265930e-01" purity="6.1508506536483765e-01" nType="-99"/>
            <Node pos="r" depth="3" NCoef="0" IVar="-1" Cut="0.0000000000000000e+00" cType="1" res="-2.5297296815551817e-04" rms="3.8640707731246948e-01" purity="6.5031135082244873e-01" nType="-99"/>
          </Node>
        </Node>
      </Node>
    </BinaryTree>
    <BinaryTree type="DecisionTree" boostWeight="1.0000000000000000e+00" itree="738">
      <Node pos="s" depth="0" NCoef="0" IVar="8" Cut="-9.3332201242446899e-01" cType="1" res="1.2885502073913813e-03" rms="3.8060867786407471e-01" purity="5.0469779968261719e-01" nType="0">
        <Node pos="l" depth="1" NCoef="0" IVar="6" Cut="1.5603853762149811e-01" cType="1" res="-1.1251412332057953e-02" rms="3.6812394857406616e-01" purity="3.9649650454521179e-01" nType="0">
          <Node pos="l" depth="2" NCoef="0" IVar="6" Cut="-1.0896232128143311e+00" cType="1" res="-3.0831433832645416e-03" rms="3.7428680062294006e-01" purity="4.1749799251556396e-01" nType="0">
            <Node pos="l" depth="3" NCoef="0" IVar="-1" Cut="0.0000000000000000e+00" cType="1" res="-2.6252983137965202e-02" rms="2.9117217659950256e-01" purity="1.6114377975463867e-01" nType="-99"/>
            <Node pos="r" depth="3" NCoef="0" IVar="-1" Cut="0.0000000000000000e+00" cType="1" res="3.3129262737929821e-03" rms="3.9928689599037170e-01" purity="5.0839430093765259e-01" nType="-99"/>
          </Node>
          <Node pos="r" depth="2" NCoef="0" IVar="1" Cut="1.2735966796875000e+03" cType="1" res="-2.4531215429306030e-02" rms="3.5747987031936646e-01" purity="3.6235278844833374e-01" nType="0">
            <Node pos="l" depth="3" NCoef="0" IVar="-1" Cut="0.0000000000000000e+00" cType="1" res="-2.3914193734526634e-02" rms="3.3986350893974304e-01" purity="2.0607659220695496e-01" nType="-99"/>
            <Node pos="r" depth="3" NCoef="0" IVar="-1" Cut="0.0000000000000000e+00" cType="1" res="-9.7021535038948059e-03" rms="3.7896960973739624e-01" purity="5.6581497192382812e-01" nType="-99"/>
          </Node>
        </Node>
        <Node pos="r" depth="1" NCoef="0" IVar="6" Cut="1.4748582839965820e+00" cType="1" res="4.6726670116186142e-03" rms="3.8383814692497253e-01" purity="5.3389769792556763e-01" nType="0">
          <Node pos="l" depth="2" NCoef="0" IVar="6" Cut="-5.4403978586196899e-01" cType="1" res="5.8191772550344467e-03" rms="3.8785696029663086e-01" purity="5.5703222751617432e-01" nType="0">
            <Node pos="l" depth="3" NCoef="0" IVar="-1" Cut="0.0000000000000000e+00" cType="1" res="8.3113219588994980e-03" rms="3.8768872618675232e-01" purity="4.5271232724189758e-01" nType="-99"/>
            <Node pos="r" depth="3" NCoef="0" IVar="-1" Cut="0.0000000000000000e+00" cType="1" res="2.1328001748770475e-03" rms="3.8789197802543640e-01" purity="5.9753537178039551e-01" nType="-99"/>
          </Node>
          <Node pos="r" depth="2" NCoef="0" IVar="9" Cut="4.0007632970809937e-01" cType="1" res="-1.1229114606976509e-02" rms="3.2256218791007996e-01" purity="2.1302866935729980e-01" nType="0">
            <Node pos="l" depth="3" NCoef="0" IVar="-1" Cut="0.0000000000000000e+00" cType="1" res="-1.8159562721848488e-02" rms="3.3158111572265625e-01" purity="2.4445080757141113e-01" nType="-99"/>
            <Node pos="r" depth="3" NCoef="0" IVar="-1" Cut="0.0000000000000000e+00" cType="1" res="1.3357597636058927e-03" rms="3.1184923648834229e-01" purity="1.7843410372734070e-01" nType="-99"/>
          </Node>
        </Node>
      </Node>
    </BinaryTree>
    <BinaryTree type="DecisionTree" boostWeight="1.0000000000000000e+00" itree="739">
      <Node pos="s" depth="0" NCoef="0" IVar="7" Cut="4.0002721548080444e-01" cType="1" res="-3.0265161767601967e-03" rms="3.7948068976402283e-01" purity="4.9778091907501221e-01" nType="0">
        <Node pos="l" depth="1" NCoef="0" IVar="7" Cut="-2.0380382537841797e+00" cType="1" res="1.3360589509829879e-03" rms="3.8019832968711853e-01" purity="5.2743929624557495e-01" nType="0">
          <Node pos="l" depth="2" NCoef="0" IVar="-1" Cut="0.0000000000000000e+00" cType="1" res="-3.5347107797861099e-02" rms="2.8366234898567200e-01" purity="1.2716813385486603e-01" nType="-99"/>
          <Node pos="r" depth="2" NCoef="0" IVar="9" Cut="-1.4666835069656372e+00" cType="1" res="3.1651346944272518e-03" rms="3.8436862826347351e-01" purity="5.4778575897216797e-01" nType="0">
            <Node pos="l" depth="3" NCoef="0" IVar="-1" Cut="0.0000000000000000e+00" cType="1" res="1.2561519630253315e-02" rms="3.8474759459495544e-01" purity="4.5591765642166138e-01" nType="-99"/>
            <Node pos="r" depth="3" NCoef="0" IVar="-1" Cut="0.0000000000000000e+00" cType="1" res="5.3021271014586091e-04" rms="3.8425579667091370e-01" purity="5.6187421083450317e-01" nType="-99"/>
          </Node>
        </Node>
        <Node pos="r" depth="1" NCoef="0" IVar="8" Cut="-1.3329951465129852e-01" cType="1" res="-1.1184103786945343e-02" rms="3.7800005078315735e-01" purity="4.4232276082038879e-01" nType="0">
          <Node pos="l" depth="2" NCoef="0" IVar="4" Cut="1.7623841857910156e+02" cType="1" res="2.7994718402624130e-04" rms="3.8496592640876770e-01" purity="4.4866403937339783e-01" nType="0">
            <Node pos="l" depth="3" NCoef="0" IVar="-1" Cut="0.0000000000000000e+00" cType="1" res="4.5833820477128029e-03" rms="3.8827845454216003e-01" purity="3.8858643174171448e-01" nType="-99"/>
            <Node pos="r" depth="3" NCoef="0" IVar="-1" Cut="0.0000000000000000e+00" cType="1" res="-1.7305621877312660e-02" rms="3.7118801474571228e-01" purity="6.7511314153671265e-01" nType="-99"/>
          </Node>
          <Node pos="r" depth="2" NCoef="0" IVar="7" Cut="1.6571068763732910e+00" cType="1" res="-1.8700715154409409e-02" rms="3.7317109107971191e-01" purity="4.3816500902175903e-01" nType="0">
            <Node pos="l" depth="3" NCoef="0" IVar="-1" Cut="0.0000000000000000e+00" cType="1" res="-1.4987622387707233e-02" rms="3.8067618012428284e-01" purity="4.8658123612403870e-01" nType="-99"/>
            <Node pos="r" depth="3" NCoef="0" IVar="-1" Cut="0.0000000000000000e+00" cType="1" res="-1.8908702768385410e-03" rms="3.3974698185920715e-01" purity="2.3711203038692474e-01" nType="-99"/>
          </Node>
        </Node>
      </Node>
    </BinaryTree>
    <BinaryTree type="DecisionTree" boostWeight="1.0000000000000000e+00" itree="740">
      <Node pos="s" depth="0" NCoef="0" IVar="7" Cut="6.6669052839279175e-01" cType="1" res="1.3687866739928722e-03" rms="3.8304078578948975e-01" purity="4.9960735440254211e-01" nType="0">
        <Node pos="l" depth="1" NCoef="0" IVar="9" Cut="-9.3329048156738281e-01" cType="1" res="-1.9673022907227278e-03" rms="3.8386490941047668e-01" purity="5.2777802944183350e-01" nType="0">
          <Node pos="l" depth="2" NCoef="0" IVar="5" Cut="7.7447677612304688e+01" cType="1" res="-1.2181134894490242e-02" rms="3.7916886806488037e-01" purity="4.4893357157707214e-01" nType="0">
            <Node pos="l" depth="3" NCoef="0" IVar="-1" Cut="0.0000000000000000e+00" cType="1" res="-1.5076112933456898e-02" rms="3.7098726630210876e-01" purity="2.8478872776031494e-01" nType="-99"/>
            <Node pos="r" depth="3" NCoef="0" IVar="-1" Cut="0.0000000000000000e+00" cType="1" res="-1.8884227611124516e-03" rms="3.8672119379043579e-01" purity="6.0832232236862183e-01" nType="-99"/>
          </Node>
          <Node pos="r" depth="2" NCoef="0" IVar="3" Cut="2.3574407958984375e+02" cType="1" res="1.3778695138171315e-03" rms="3.8533163070678711e-01" purity="5.5360072851181030e-01" nType="0">
            <Node pos="l" depth="3" NCoef="0" IVar="-1" Cut="0.0000000000000000e+00" cType="1" res="3.2571600750088692e-03" rms="4.0021327137947083e-01" purity="4.5745271444320679e-01" nType="-99"/>
            <Node pos="r" depth="3" NCoef="0" IVar="-1" Cut="0.0000000000000000e+00" cType="1" res="-3.9787311106920242e-03" rms="3.5823601484298706e-01" purity="7.1872615814208984e-01" nType="-99"/>
          </Node>
        </Node>
        <Node pos="r" depth="1" NCoef="0" IVar="8" Cut="3.9985388517379761e-01" cType="1" res="1.0416965931653976e-02" rms="3.8064944744110107e-01" purity="4.2320248484611511e-01" nType="0">
          <Node pos="l" depth="2" NCoef="0" IVar="1" Cut="1.0547844238281250e+03" cType="1" res="2.0218122750520706e-02" rms="3.8444253802299500e-01" purity="4.5760661363601685e-01" nType="0">
            <Node pos="l" depth="3" NCoef="0" IVar="-1" Cut="0.0000000000000000e+00" cType="1" res="-3.9562708698213100e-03" rms="3.3483213186264038e-01" purity="1.6193449497222900e-01" nType="-99"/>
            <Node pos="r" depth="3" NCoef="0" IVar="-1" Cut="0.0000000000000000e+00" cType="1" res="1.7926366999745369e-02" rms="4.0037605166435242e-01" purity="5.6370687484741211e-01" nType="-99"/>
          </Node>
          <Node pos="r" depth="2" NCoef="0" IVar="4" Cut="8.6733703613281250e+01" cType="1" res="-2.2171076852828264e-03" rms="3.7532609701156616e-01" purity="3.7885418534278870e-01" nType="0">
            <Node pos="l" depth="3" NCoef="0" IVar="-1" Cut="0.0000000000000000e+00" cType="1" res="2.2449493408203125e-02" rms="3.2909327745437622e-01" purity="1.7097786068916321e-01" nType="-99"/>
            <Node pos="r" depth="3" NCoef="0" IVar="-1" Cut="0.0000000000000000e+00" cType="1" res="-6.8372073583304882e-03" rms="3.8982829451560974e-01" purity="4.5145407319068909e-01" nType="-99"/>
          </Node>
        </Node>
      </Node>
    </BinaryTree>
    <BinaryTree type="DecisionTree" boostWeight="1.0000000000000000e+00" itree="741">
      <Node pos="s" depth="0" NCoef="0" IVar="9" Cut="1.2000046968460083e+00" cType="1" res="1.4184272149577737e-03" rms="3.8237527012825012e-01" purity="4.9955415725708008e-01" nType="0">
        <Node pos="l" depth="1" NCoef="0" IVar="6" Cut="6.7322236299514771e-01" cType="1" res="-6.1689532594755292e-04" rms="3.8227459788322449e-01" purity="5.1430666446685791e-01" nType="0">
          <Node pos="l" depth="2" NCoef="0" IVar="5" Cut="8.5091842651367188e+01" cType="1" res="-3.3710068091750145e-03" rms="3.8368090987205505e-01" purity="5.4704719781875610e-01" nType="0">
            <Node pos="l" depth="3" NCoef="0" IVar="-1" Cut="0.0000000000000000e+00" cType="1" res="-5.3687104955315590e-03" rms="3.9540338516235352e-01" purity="3.6535391211509705e-01" nType="-99"/>
            <Node pos="r" depth="3" NCoef="0" IVar="-1" Cut="0.0000000000000000e+00" cType="1" res="1.4527015155181289e-03" rms="3.7135431170463562e-01" purity="7.3106068372726440e-01" nType="-99"/>
          </Node>
          <Node pos="r" depth="2" NCoef="0" IVar="1" Cut="1.0368217773437500e+03" cType="1" res="8.7797809392213821e-03" rms="3.7728577852249146e-01" purity="4.0260013937950134e-01" nType="0">
            <Node pos="l" depth="3" NCoef="0" IVar="-1" Cut="0.0000000000000000e+00" cType="1" res="2.5416474789381027e-02" rms="3.4410172700881958e-01" purity="1.6942647099494934e-01" nType="-99"/>
            <Node pos="r" depth="3" NCoef="0" IVar="-1" Cut="0.0000000000000000e+00" cType="1" res="1.1928025633096695e-03" rms="3.8896927237510681e-01" purity="4.9150303006172180e-01" nType="-99"/>
          </Node>
        </Node>
        <Node pos="r" depth="1" NCoef="0" IVar="8" Cut="9.3343132734298706e-01" cType="1" res="1.0930351912975311e-02" rms="3.8270190358161926e-01" purity="4.3060940504074097e-01" nType="0">
          <Node pos="l" depth="2" NCoef="0" IVar="3" Cut="1.4559339904785156e+02" cType="1" res="2.0399728789925575e-02" rms="3.8963490724563599e-01" purity="4.8297160863876343e-01" nType="0">
            <Node pos="l" depth="3" NCoef="0" IVar="-1" Cut="0.0000000000000000e+00" cType="1" res="2.2462118067778647e-04" rms="3.5299208760261536e-01" purity="2.3655466735363007e-01" nType="-99"/>
            <Node pos="r" depth="3" NCoef="0" IVar="-1" Cut="0.0000000000000000e+00" cType="1" res="1.7025487497448921e-02" rms="4.0125402808189392e-01" purity="5.6788140535354614e-01" nType="-99"/>
          </Node>
          <Node pos="r" depth="2" NCoef="0" IVar="-1" Cut="0.0000000000000000e+00" cType="1" res="-1.3384536840021610e-02" rms="3.5951548814773560e-01" purity="2.7291491627693176e-01" nType="-99"/>
        </Node>
      </Node>
    </BinaryTree>
    <BinaryTree type="DecisionTree" boostWeight="1.0000000000000000e+00" itree="742">
      <Node pos="s" depth="0" NCoef="0" IVar="4" Cut="2.8633920288085938e+02" cType="1" res="1.9772348459810019e-03" rms="3.8431259989738464e-01" purity="5.0071460008621216e-01" nType="0">
        <Node pos="l" depth="1" NCoef="0" IVar="5" Cut="6.1092929840087891e+01" cType="1" res="8.7007839465513825e-04" rms="3.8535737991333008e-01" purity="4.9070435762405396e-01" nType="0">
          <Node pos="l" depth="2" NCoef="0" IVar="5" Cut="5.1584873199462891e+01" cType="1" res="9.8516941070556641e-03" rms="3.7265211343765259e-01" purity="2.6716646552085876e-01" nType="0">
            <Node pos="l" depth="3" NCoef="0" IVar="-1" Cut="0.0000000000000000e+00" cType="1" res="-1.3812640681862831e-02" rms="3.4211844205856323e-01" purity="2.0284909009933472e-01" nType="-99"/>
            <Node pos="r" depth="3" NCoef="0" IVar="-1" Cut="0.0000000000000000e+00" cType="1" res="1.0638510808348656e-02" rms="3.7782919406890869e-01" purity="2.7909389138221741e-01" nType="-99"/>
          </Node>
          <Node pos="r" depth="2" NCoef="0" IVar="9" Cut="-1.7333595752716064e+00" cType="1" res="-1.7554755322635174e-03" rms="3.8895389437675476e-01" purity="5.5605012178421021e-01" nType="0">
            <Node pos="l" depth="3" NCoef="0" IVar="-1" Cut="0.0000000000000000e+00" cType="1" res="-1.6196137294173241e-02" rms="3.7630301713943481e-01" purity="3.9527440071105957e-01" nType="-99"/>
            <Node pos="r" depth="3" NCoef="0" IVar="-1" Cut="0.0000000000000000e+00" cType="1" res="4.7083267418202013e-05" rms="3.8990327715873718e-01" purity="5.6907051801681519e-01" nType="-99"/>
          </Node>
        </Node>
        <Node pos="r" depth="1" NCoef="0" IVar="-1" Cut="0.0000000000000000e+00" cType="1" res="3.0231669545173645e-02" rms="3.4678965806961060e-01" purity="8.2564663887023926e-01" nType="-99"/>
      </Node>
    </BinaryTree>
    <BinaryTree type="DecisionTree" boostWeight="1.0000000000000000e+00" itree="743">
      <Node pos="s" depth="0" NCoef="0" IVar="1" Cut="1.3945015869140625e+03" cType="1" res="4.2468239553272724e-03" rms="3.8498431444168091e-01" purity="5.0161057710647583e-01" nType="0">
        <Node pos="l" depth="1" NCoef="0" IVar="3" Cut="2.1427902221679688e+02" cType="1" res="7.5003104284405708e-03" rms="3.9813444018363953e-01" purity="3.6894571781158447e-01" nType="0">
          <Node pos="l" depth="2" NCoef="0" IVar="3" Cut="1.8329724121093750e+02" cType="1" res="4.0522464551031590e-03" rms="3.9010331034660339e-01" purity="3.2697266340255737e-01" nType="0">
            <Node pos="l" depth="3" NCoef="0" IVar="-1" Cut="0.0000000000000000e+00" cType="1" res="5.1074502989649773e-03" rms="3.8318863511085510e-01" purity="2.8891623020172119e-01" nType="-99"/>
            <Node pos="r" depth="3" NCoef="0" IVar="-1" Cut="0.0000000000000000e+00" cType="1" res="-4.3846159242093563e-03" rms="4.1290861368179321e-01" purity="4.5856827497482300e-01" nType="-99"/>
          </Node>
          <Node pos="r" depth="2" NCoef="0" IVar="4" Cut="1.3898875427246094e+02" cType="1" res="1.8631393089890480e-02" rms="4.2282947897911072e-01" purity="5.0444370508193970e-01" nType="0">
            <Node pos="l" depth="3" NCoef="0" IVar="-1" Cut="0.0000000000000000e+00" cType="1" res="2.0301168784499168e-02" rms="4.3059378862380981e-01" purity="4.4443643093109131e-01" nType="-99"/>
            <Node pos="r" depth="3" NCoef="0" IVar="-1" Cut="0.0000000000000000e+00" cType="1" res="-1.1411549057811499e-03" rms="4.1235932707786560e-01" purity="5.7656371593475342e-01" nType="-99"/>
          </Node>
        </Node>
        <Node pos="r" depth="1" NCoef="0" IVar="1" Cut="1.6634393310546875e+03" cType="1" res="-1.4950502663850784e-03" rms="3.6053675413131714e-01" purity="7.3574250936508179e-01" nType="0">
          <Node pos="l" depth="2" NCoef="0" IVar="8" Cut="-1.1997960805892944e+00" cType="1" res="-7.8418189659714699e-03" rms="3.7638089060783386e-01" purity="6.7960721254348755e-01" nType="0">
            <Node pos="l" depth="3" NCoef="0" IVar="-1" Cut="0.0000000000000000e+00" cType="1" res="1.3350935652852058e-02" rms="3.8498857617378235e-01" purity="6.0245150327682495e-01" nType="-99"/>
            <Node pos="r" depth="3" NCoef="0" IVar="-1" Cut="0.0000000000000000e+00" cType="1" res="-9.2317350208759308e-03" rms="3.7465086579322815e-01" purity="6.9283503293991089e-01" nType="-99"/>
          </Node>
          <Node pos="r" depth="2" NCoef="0" IVar="8" Cut="-9.3332499265670776e-01" cType="1" res="5.1810508593916893e-03" rms="3.4295499324798584e-01" purity="7.9479062557220459e-01" nType="0">
            <Node pos="l" depth="3" NCoef="0" IVar="-1" Cut="0.0000000000000000e+00" cType="1" res="-1.6118291765451431e-02" rms="3.7732490897178650e-01" purity="7.0143443346023560e-01" nType="-99"/>
            <Node pos="r" depth="3" NCoef="0" IVar="-1" Cut="0.0000000000000000e+00" cType="1" res="8.6582917720079422e-03" rms="3.3591517806053162e-01" purity="8.1218641996383667e-01" nType="-99"/>
          </Node>
        </Node>
      </Node>
    </BinaryTree>
    <BinaryTree type="DecisionTree" boostWeight="1.0000000000000000e+00" itree="744">
      <Node pos="s" depth="0" NCoef="0" IVar="9" Cut="9.3332260847091675e-01" cType="1" res="1.1766854440793395e-03" rms="3.8605555891990662e-01" purity="4.9682810902595520e-01" nType="0">
        <Node pos="l" depth="1" NCoef="0" IVar="7" Cut="1.3341687619686127e-01" cType="1" res="4.1325767524540424e-03" rms="3.8678801059722900e-01" purity="5.1949822902679443e-01" nType="0">
          <Node pos="l" depth="2" NCoef="0" IVar="6" Cut="1.2127312421798706e+00" cType="1" res="-1.2637502513825893e-03" rms="3.8596084713935852e-01" purity="5.1902949810028076e-01" nType="0">
            <Node pos="l" depth="3" NCoef="0" IVar="-1" Cut="0.0000000000000000e+00" cType="1" res="-2.4981354363262653e-03" rms="3.8874590396881104e-01" purity="5.3937017917633057e-01" nType="-99"/>
            <Node pos="r" depth="3" NCoef="0" IVar="-1" Cut="0.0000000000000000e+00" cType="1" res="1.8022792413830757e-02" rms="3.5654282569885254e-01" purity="3.1945741176605225e-01" nType="-99"/>
          </Node>
          <Node pos="r" depth="2" NCoef="0" IVar="6" Cut="-6.4644420146942139e-01" cType="1" res="1.1154457926750183e-02" rms="3.8774925470352173e-01" purity="5.2010810375213623e-01" nType="0">
            <Node pos="l" depth="3" NCoef="0" IVar="-1" Cut="0.0000000000000000e+00" cType="1" res="-3.5734504926949739e-03" rms="3.7533816695213318e-01" purity="3.8632902503013611e-01" nType="-99"/>
            <Node pos="r" depth="3" NCoef="0" IVar="-1" Cut="0.0000000000000000e+00" cType="1" res="1.0436082258820534e-02" rms="3.9121961593627930e-01" purity="5.5971950292587280e-01" nType="-99"/>
          </Node>
        </Node>
        <Node pos="r" depth="1" NCoef="0" IVar="6" Cut="-9.0351778268814087e-01" cType="1" res="-8.8080484420061111e-03" rms="3.8340261578559875e-01" purity="4.2025059461593628e-01" nType="0">
          <Node pos="l" depth="2" NCoef="0" IVar="-1" Cut="0.0000000000000000e+00" cType="1" res="-2.8740249574184418e-02" rms="3.3686393499374390e-01" purity="2.1886707842350006e-01" nType="-99"/>
          <Node pos="r" depth="2" NCoef="0" IVar="3" Cut="2.4044898986816406e+02" cType="1" res="-4.5145954936742783e-03" rms="3.9025250077247620e-01" purity="4.5288297533988953e-01" nType="0">
            <Node pos="l" depth="3" NCoef="0" IVar="-1" Cut="0.0000000000000000e+00" cType="1" res="1.0195863433182240e-03" rms="3.8871884346008301e-01" purity="3.8902232050895691e-01" nType="-99"/>
            <Node pos="r" depth="3" NCoef="0" IVar="-1" Cut="0.0000000000000000e+00" cType="1" res="-1.2863710522651672e-02" rms="3.9361590147018433e-01" purity="6.1074477434158325e-01" nType="-99"/>
          </Node>
        </Node>
      </Node>
    </BinaryTree>
    <BinaryTree type="DecisionTree" boostWeight="1.0000000000000000e+00" itree="745">
      <Node pos="s" depth="0" NCoef="0" IVar="6" Cut="1.4772764444351196e+00" cType="1" res="1.6800565936136991e-04" rms="3.8184669613838196e-01" purity="5.0016897916793823e-01" nType="0">
        <Node pos="l" depth="1" NCoef="0" IVar="7" Cut="4.0010446310043335e-01" cType="1" res="1.8765862332656980e-03" rms="3.8714811205863953e-01" purity="5.2261263132095337e-01" nType="0">
          <Node pos="l" depth="2" NCoef="0" IVar="7" Cut="-1.5807603597640991e+00" cType="1" res="-1.8368370365351439e-03" rms="3.8634201884269714e-01" purity="5.4196733236312866e-01" nType="0">
            <Node pos="l" depth="3" NCoef="0" IVar="-1" Cut="0.0000000000000000e+00" cType="1" res="-1.4202926307916641e-02" rms="3.3482307195663452e-01" purity="2.4140451848506927e-01" nType="-99"/>
            <Node pos="r" depth="3" NCoef="0" IVar="-1" Cut="0.0000000000000000e+00" cType="1" res="9.0948036813642830e-05" rms="3.9222821593284607e-01" purity="5.7932728528976440e-01" nType="-99"/>
          </Node>
          <Node pos="r" depth="2" NCoef="0" IVar="8" Cut="-6.6661787033081055e-01" cType="1" res="8.7053822353482246e-03" rms="3.8853347301483154e-01" purity="4.8702043294906616e-01" nType="0">
            <Node pos="l" depth="3" NCoef="0" IVar="-1" Cut="0.0000000000000000e+00" cType="1" res="-2.8537604957818985e-03" rms="3.7997415661811829e-01" purity="4.1046875715255737e-01" nType="-99"/>
            <Node pos="r" depth="3" NCoef="0" IVar="-1" Cut="0.0000000000000000e+00" cType="1" res="8.4144398570060730e-03" rms="3.9120009541511536e-01" purity="5.1207172870635986e-01" nType="-99"/>
          </Node>
        </Node>
        <Node pos="r" depth="1" NCoef="0" IVar="6" Cut="1.7921972274780273e+00" cType="1" res="-2.4074753746390343e-02" rms="2.9552245140075684e-01" purity="1.8171899020671844e-01" nType="0">
          <Node pos="l" depth="2" NCoef="0" IVar="-1" Cut="0.0000000000000000e+00" cType="1" res="-3.2475572079420090e-02" rms="3.1595292687416077e-01" purity="2.1319641172885895e-01" nType="-99"/>
          <Node pos="r" depth="2" NCoef="0" IVar="-1" Cut="0.0000000000000000e+00" cType="1" res="-1.2073193676769733e-02" rms="2.7654990553855896e-01" purity="1.5530529618263245e-01" nType="-99"/>
        </Node>
      </Node>
    </BinaryTree>
    <BinaryTree type="DecisionTree" boostWeight="1.0000000000000000e+00" itree="746">
      <Node pos="s" depth="0" NCoef="0" IVar="8" Cut="1.7332873344421387e+00" cType="1" res="2.7100238949060440e-03" rms="3.8398388028144836e-01" purity="5.0275313854217529e-01" nType="0">
        <Node pos="l" depth="1" NCoef="0" IVar="9" Cut="6.6669964790344238e-01" cType="1" res="1.0119194630533457e-03" rms="3.8458067178726196e-01" purity="5.1756244897842407e-01" nType="0">
          <Node pos="l" depth="2" NCoef="0" IVar="1" Cut="1.1048668212890625e+03" cType="1" res="3.7378037814050913e-03" rms="3.8452664017677307e-01" purity="5.3462588787078857e-01" nType="0">
            <Node pos="l" depth="3" NCoef="0" IVar="-1" Cut="0.0000000000000000e+00" cType="1" res="8.4292404353618622e-03" rms="3.8968685269355774e-01" purity="2.5838318467140198e-01" nType="-99"/>
            <Node pos="r" depth="3" NCoef="0" IVar="-1" Cut="0.0000000000000000e+00" cType="1" res="-5.7593751989770681e-05" rms="3.8220885396003723e-01" purity="6.5415751934051514e-01" nType="-99"/>
          </Node>
          <Node pos="r" depth="2" NCoef="0" IVar="2" Cut="5.8741204833984375e+02" cType="1" res="-5.6073046289384365e-03" rms="3.8463139533996582e-01" purity="4.7612753510475159e-01" nType="0">
            <Node pos="l" depth="3" NCoef="0" IVar="-1" Cut="0.0000000000000000e+00" cType="1" res="-5.2862791344523430e-03" rms="3.8459601998329163e-01" purity="4.6388211846351624e-01" nType="-99"/>
            <Node pos="r" depth="3" NCoef="0" IVar="-1" Cut="0.0000000000000000e+00" cType="1" res="9.7447177395224571e-03" rms="3.8432490825653076e-01" purity="5.8908265829086304e-01" nType="-99"/>
          </Node>
        </Node>
        <Node pos="r" depth="1" NCoef="0" IVar="6" Cut="1.6093316674232483e-01" cType="1" res="2.5465464219450951e-02" rms="3.7515434622764587e-01" purity="3.0430093407630920e-01" nType="0">
          <Node pos="l" depth="2" NCoef="0" IVar="-1" Cut="0.0000000000000000e+00" cType="1" res="5.5061052553355694e-03" rms="3.6638289690017700e-01" purity="3.1182491779327393e-01" nType="-99"/>
          <Node pos="r" depth="2" NCoef="0" IVar="-1" Cut="0.0000000000000000e+00" cType="1" res="3.3935111016035080e-02" rms="3.8293692469596863e-01" purity="2.9672867059707642e-01" nType="-99"/>
        </Node>
      </Node>
    </BinaryTree>
    <BinaryTree type="DecisionTree" boostWeight="1.0000000000000000e+00" itree="747">
      <Node pos="s" depth="0" NCoef="0" IVar="8" Cut="-9.3338412046432495e-01" cType="1" res="6.9460453232750297e-04" rms="3.8393378257751465e-01" purity="5.0216656923294067e-01" nType="0">
        <Node pos="l" depth="1" NCoef="0" IVar="8" Cut="-1.3778274059295654e+00" cType="1" res="1.1990899220108986e-02" rms="3.8254433870315552e-01" purity="4.1583418846130371e-01" nType="0">
          <Node pos="l" depth="2" NCoef="0" IVar="0" Cut="4.2187112426757812e+02" cType="1" res="-7.5054750777781010e-03" rms="3.7063863873481750e-01" purity="3.2940626144409180e-01" nType="0">
            <Node pos="l" depth="3" NCoef="0" IVar="-1" Cut="0.0000000000000000e+00" cType="1" res="3.4104865044355392e-03" rms="3.5407033562660217e-01" purity="2.1092130243778229e-01" nType="-99"/>
            <Node pos="r" depth="3" NCoef="0" IVar="-1" Cut="0.0000000000000000e+00" cType="1" res="-1.5599609352648258e-02" rms="3.9373025298118591e-01" purity="5.0871348381042480e-01" nType="-99"/>
          </Node>
          <Node pos="r" depth="2" NCoef="0" IVar="9" Cut="-6.6669178009033203e-01" cType="1" res="3.5438239574432373e-02" rms="3.9511725306510925e-01" purity="5.1977688074111938e-01" nType="0">
            <Node pos="l" depth="3" NCoef="0" IVar="-1" Cut="0.0000000000000000e+00" cType="1" res="1.3440965674817562e-02" rms="3.8352137804031372e-01" purity="4.5835375785827637e-01" nType="-99"/>
            <Node pos="r" depth="3" NCoef="0" IVar="-1" Cut="0.0000000000000000e+00" cType="1" res="2.7753703296184540e-02" rms="4.0098014473915100e-01" purity="5.5279767513275146e-01" nType="-99"/>
          </Node>
        </Node>
        <Node pos="r" depth="1" NCoef="0" IVar="4" Cut="9.9518768310546875e+01" cType="1" res="-2.4349419400095940e-03" rms="3.8425910472869873e-01" purity="5.2608424425125122e-01" nType="0">
          <Node pos="l" depth="2" NCoef="0" IVar="5" Cut="7.5867050170898438e+01" cType="1" res="-1.0552975349128246e-02" rms="3.7191861867904663e-01" purity="2.4495887756347656e-01" nType="0">
            <Node pos="l" depth="3" NCoef="0" IVar="-1" Cut="0.0000000000000000e+00" cType="1" res="-2.6439542416483164e-03" rms="3.6589044332504272e-01" purity="2.2137421369552612e-01" nType="-99"/>
            <Node pos="r" depth="3" NCoef="0" IVar="-1" Cut="0.0000000000000000e+00" cType="1" res="-2.4464337155222893e-02" rms="3.9738199114799500e-01" purity="3.5572379827499390e-01" nType="-99"/>
          </Node>
          <Node pos="r" depth="2" NCoef="0" IVar="8" Cut="-4.4525213539600372e-02" cType="1" res="9.3089096480980515e-04" rms="3.8921123743057251e-01" purity="6.4264208078384399e-01" nType="0">
            <Node pos="l" depth="3" NCoef="0" IVar="-1" Cut="0.0000000000000000e+00" cType="1" res="6.7945895716547966e-03" rms="3.8975524902343750e-01" purity="6.8773788213729858e-01" nType="-99"/>
            <Node pos="r" depth="3" NCoef="0" IVar="-1" Cut="0.0000000000000000e+00" cType="1" res="-2.8853241819888353e-03" rms="3.8880026340484619e-01" purity="6.1697793006896973e-01" nType="-99"/>
          </Node>
        </Node>
      </Node>
    </BinaryTree>
    <BinaryTree type="DecisionTree" boostWeight="1.0000000000000000e+00" itree="748">
      <Node pos="s" depth="0" NCoef="0" IVar="0" Cut="4.4205496215820312e+02" cType="1" res="5.4650264792144299e-04" rms="3.8065984845161438e-01" purity="5.0345969200134277e-01" nType="0">
        <Node pos="l" depth="1" NCoef="0" IVar="4" Cut="1.1445462799072266e+02" cType="1" res="-3.7476711440831423e-03" rms="3.8752752542495728e-01" purity="3.5344356298446655e-01" nType="0">
          <Node pos="l" depth="2" NCoef="0" IVar="3" Cut="2.2189457702636719e+02" cType="1" res="4.9529103562235832e-03" rms="3.6038634181022644e-01" purity="2.1412596106529236e-01" nType="0">
            <Node pos="l" depth="3" NCoef="0" IVar="-1" Cut="0.0000000000000000e+00" cType="1" res="5.8931868989020586e-04" rms="3.5202518105506897e-01" purity="1.9196824729442596e-01" nType="-99"/>
            <Node pos="r" depth="3" NCoef="0" IVar="-1" Cut="0.0000000000000000e+00" cType="1" res="1.6734659671783447e-02" rms="4.0194752812385559e-01" purity="3.3427742123603821e-01" nType="-99"/>
          </Node>
          <Node pos="r" depth="2" NCoef="0" IVar="1" Cut="1.0731214599609375e+03" cType="1" res="-1.2554275803267956e-02" rms="4.1300123929977417e-01" purity="4.9445882439613342e-01" nType="0">
            <Node pos="l" depth="3" NCoef="0" IVar="-1" Cut="0.0000000000000000e+00" cType="1" res="-1.7845582216978073e-02" rms="4.1575488448143005e-01" purity="2.9617285728454590e-01" nType="-99"/>
            <Node pos="r" depth="3" NCoef="0" IVar="-1" Cut="0.0000000000000000e+00" cType="1" res="-4.3892147950828075e-03" rms="4.1217365860939026e-01" purity="5.4315292835235596e-01" nType="-99"/>
          </Node>
        </Node>
        <Node pos="r" depth="1" NCoef="0" IVar="8" Cut="1.4665739536285400e+00" cType="1" res="6.4189573749899864e-03" rms="3.7098187208175659e-01" purity="7.0861279964447021e-01" nType="0">
          <Node pos="l" depth="2" NCoef="0" IVar="6" Cut="-3.4593719244003296e-01" cType="1" res="8.5332570597529411e-03" rms="3.6786788702011108e-01" purity="7.2775781154632568e-01" nType="0">
            <Node pos="l" depth="3" NCoef="0" IVar="-1" Cut="0.0000000000000000e+00" cType="1" res="1.2856665998697281e-02" rms="3.8067102432250977e-01" purity="6.9350683689117432e-01" nType="-99"/>
            <Node pos="r" depth="3" NCoef="0" IVar="-1" Cut="0.0000000000000000e+00" cType="1" res="2.1792489569634199e-03" rms="3.6072528362274170e-01" purity="7.4603152275085449e-01" nType="-99"/>
          </Node>
          <Node pos="r" depth="2" NCoef="0" IVar="-1" Cut="0.0000000000000000e+00" cType="1" res="-1.0033812373876572e-02" rms="4.0296027064323425e-01" purity="4.9774578213691711e-01" nType="-99"/>
        </Node>
      </Node>
    </BinaryTree>
    <BinaryTree type="DecisionTree" boostWeight="1.0000000000000000e+00" itree="749">
      <Node pos="s" depth="0" NCoef="0" IVar="8" Cut="-4.0003532171249390e-01" cType="1" res="-2.3877706844359636e-03" rms="3.8055631518363953e-01" purity="4.9987962841987610e-01" nType="0">
        <Node pos="l" depth="1" NCoef="0" IVar="8" Cut="-1.7714291810989380e+00" cType="1" res="-1.0790450498461723e-02" rms="3.8100546598434448e-01" purity="4.5694017410278320e-01" nType="0">
          <Node pos="l" depth="2" NCoef="0" IVar="8" Cut="-2.1143152713775635e+00" cType="1" res="8.7814982980489731e-03" rms="3.5658180713653564e-01" purity="2.8285077214241028e-01" nType="0">
            <Node pos="l" depth="3" NCoef="0" IVar="-1" Cut="0.0000000000000000e+00" cType="1" res="-4.8162192106246948e-03" rms="3.3491730690002441e-01" purity="2.3318916559219360e-01" nType="-99"/>
            <Node pos="r" depth="3" NCoef="0" IVar="-1" Cut="0.0000000000000000e+00" cType="1" res="1.7267653718590736e-02" rms="3.7836194038391113e-01" purity="3.3753946423530579e-01" nType="-99"/>
          </Node>
          <Node pos="r" depth="2" NCoef="0" IVar="8" Cut="-7.9186356067657471e-01" cType="1" res="-1.5148804523050785e-02" rms="3.8609898090362549e-01" purity="4.9570703506469727e-01" nType="0">
            <Node pos="l" depth="3" NCoef="0" IVar="-1" Cut="0.0000000000000000e+00" cType="1" res="-5.7627926580607891e-03" rms="3.8602384924888611e-01" purity="4.6963587403297424e-01" nType="-99"/>
            <Node pos="r" depth="3" NCoef="0" IVar="-1" Cut="0.0000000000000000e+00" cType="1" res="-1.6516046598553658e-02" rms="3.8599869608879089e-01" purity="5.3843605518341064e-01" nType="-99"/>
          </Node>
        </Node>
        <Node pos="r" depth="1" NCoef="0" IVar="9" Cut="1.2000185251235962e+00" cType="1" res="2.3967772722244263e-03" rms="3.8021737337112427e-01" purity="5.2432966232299805e-01" nType="0">
          <Node pos="l" depth="2" NCoef="0" IVar="4" Cut="9.7346450805664062e+01" cType="1" res="-8.2623970229178667e-04" rms="3.8054758310317993e-01" purity="5.4304897785186768e-01" nType="0">
            <Node pos="l" depth="3" NCoef="0" IVar="-1" Cut="0.0000000000000000e+00" cType="1" res="-7.9635679721832275e-03" rms="3.7144157290458679e-01" purity="2.3853369057178497e-01" nType="-99"/>
            <Node pos="r" depth="3" NCoef="0" IVar="-1" Cut="0.0000000000000000e+00" cType="1" res="2.0389296114444733e-03" rms="3.8376396894454956e-01" purity="6.5486109256744385e-01" nType="-99"/>
          </Node>
          <Node pos="r" depth="2" NCoef="0" IVar="6" Cut="4.2757532000541687e-01" cType="1" res="1.6139024868607521e-02" rms="3.7849837541580200e-01" purity="4.4451430439949036e-01" nType="0">
            <Node pos="l" depth="3" NCoef="0" IVar="-1" Cut="0.0000000000000000e+00" cType="1" res="1.8036395311355591e-02" rms="3.9438292384147644e-01" purity="4.9949690699577332e-01" nType="-99"/>
            <Node pos="r" depth="3" NCoef="0" IVar="-1" Cut="0.0000000000000000e+00" cType="1" res="-5.8213289594277740e-04" rms="3.5384094715118408e-01" purity="3.6581942439079285e-01" nType="-99"/>
          </Node>
        </Node>
      </Node>
    </BinaryTree>
    <BinaryTree type="DecisionTree" boostWeight="1.0000000000000000e+00" itree="750">
      <Node pos="s" depth="0" NCoef="0" IVar="9" Cut="-1.1999244689941406e+00" cType="1" res="-1.0865184012800455e-03" rms="3.8049015402793884e-01" purity="5.0135648250579834e-01" nType="0">
        <Node pos="l" depth="1" NCoef="0" IVar="8" Cut="6.6651481389999390e-01" cType="1" res="-1.0909066535532475e-02" rms="3.7174004316329956e-01" purity="4.0995115041732788e-01" nType="0">
          <Node pos="l" depth="2" NCoef="0" IVar="4" Cut="1.3305230712890625e+02" cType="1" res="-1.7156325280666351e-02" rms="3.6718448996543884e-01" purity="4.1749808192253113e-01" nType="0">
            <Node pos="l" depth="3" NCoef="0" IVar="-1" Cut="0.0000000000000000e+00" cType="1" res="-1.9146379083395004e-02" rms="3.5682100057601929e-01" purity="2.7072933316230774e-01" nType="-99"/>
            <Node pos="r" depth="3" NCoef="0" IVar="-1" Cut="0.0000000000000000e+00" cType="1" res="-1.9807587377727032e-03" rms="3.8085287809371948e-01" purity="6.2417459487915039e-01" nType="-99"/>
          </Node>
          <Node pos="r" depth="2" NCoef="0" IVar="-1" Cut="0.0000000000000000e+00" cType="1" res="5.9952023439109325e-03" rms="3.8493531942367554e-01" purity="3.8644480705261230e-01" nType="-99"/>
        </Node>
        <Node pos="r" depth="1" NCoef="0" IVar="9" Cut="1.4666355848312378e+00" cType="1" res="9.1907795285806060e-04" rms="3.8222113251686096e-01" purity="5.2001988887786865e-01" nType="0">
          <Node pos="l" depth="2" NCoef="0" IVar="3" Cut="2.3073548889160156e+02" cType="1" res="3.1357181724160910e-03" rms="3.8489556312561035e-01" purity="5.4145240783691406e-01" nType="0">
            <Node pos="l" depth="3" NCoef="0" IVar="-1" Cut="0.0000000000000000e+00" cType="1" res="4.5288638211786747e-03" rms="3.9603313803672791e-01" purity="4.4192975759506226e-01" nType="-99"/>
            <Node pos="r" depth="3" NCoef="0" IVar="-1" Cut="0.0000000000000000e+00" cType="1" res="-2.4997040163725615e-03" rms="3.6606159806251526e-01" purity="7.0250189304351807e-01" nType="-99"/>
          </Node>
          <Node pos="r" depth="2" NCoef="0" IVar="4" Cut="1.5240498352050781e+02" cType="1" res="-1.1681197211146355e-02" rms="3.6639335751533508e-01" purity="3.9818888902664185e-01" nType="0">
            <Node pos="l" depth="3" NCoef="0" IVar="-1" Cut="0.0000000000000000e+00" cType="1" res="-1.2745238840579987e-02" rms="3.6301228404045105e-01" purity="2.8920969367027283e-01" nType="-99"/>
            <Node pos="r" depth="3" NCoef="0" IVar="-1" Cut="0.0000000000000000e+00" cType="1" res="1.6733607044443488e-03" rms="3.7364640831947327e-01" purity="6.4815115928649902e-01" nType="-99"/>
          </Node>
        </Node>
      </Node>
    </BinaryTree>
    <BinaryTree type="DecisionTree" boostWeight="1.0000000000000000e+00" itree="751">
      <Node pos="s" depth="0" NCoef="0" IVar="8" Cut="1.4665851593017578e+00" cType="1" res="-3.0298139899969101e-03" rms="3.8176751136779785e-01" purity="4.9570053815841675e-01" nType="0">
        <Node pos="l" depth="1" NCoef="0" IVar="9" Cut="1.9999762773513794e+00" cType="1" res="-3.6329246358945966e-04" rms="3.8452693819999695e-01" purity="5.1891356706619263e-01" nType="0">
          <Node pos="l" depth="2" NCoef="0" IVar="9" Cut="-7.4285155534744263e-01" cType="1" res="-1.8318739021196961e-03" rms="3.8382679224014282e-01" purity="5.2533590793609619e-01" nType="0">
            <Node pos="l" depth="3" NCoef="0" IVar="-1" Cut="0.0000000000000000e+00" cType="1" res="4.9366434104740620e-03" rms="3.8538846373558044e-01" purity="4.8080185055732727e-01" nType="-99"/>
            <Node pos="r" depth="3" NCoef="0" IVar="-1" Cut="0.0000000000000000e+00" cType="1" res="-3.8525294512510300e-03" rms="3.8308009505271912e-01" purity="5.4465585947036743e-01" nType="-99"/>
          </Node>
          <Node pos="r" depth="2" NCoef="0" IVar="-1" Cut="0.0000000000000000e+00" cType="1" res="1.7789283767342567e-02" rms="3.9595875144004822e-01" purity="4.0363889932632446e-01" nType="-99"/>
        </Node>
        <Node pos="r" depth="1" NCoef="0" IVar="5" Cut="7.2915130615234375e+01" cType="1" res="-2.6331894099712372e-02" rms="3.5589730739593506e-01" purity="2.9284742474555969e-01" nType="0">
          <Node pos="l" depth="2" NCoef="0" IVar="-1" Cut="0.0000000000000000e+00" cType="1" res="-3.9604771882295609e-02" rms="2.9770952463150024e-01" purity="1.4052534103393555e-01" nType="-99"/>
          <Node pos="r" depth="2" NCoef="0" IVar="7" Cut="1.3472011685371399e-01" cType="1" res="-8.8301273062825203e-03" rms="4.0160629153251648e-01" purity="4.3407332897186279e-01" nType="0">
            <Node pos="l" depth="3" NCoef="0" IVar="-1" Cut="0.0000000000000000e+00" cType="1" res="-8.4933862090110779e-03" rms="4.0442389249801636e-01" purity="4.2792975902557373e-01" nType="-99"/>
            <Node pos="r" depth="3" NCoef="0" IVar="-1" Cut="0.0000000000000000e+00" cType="1" res="-2.6958717498928308e-03" rms="3.9897540211677551e-01" purity="4.3966042995452881e-01" nType="-99"/>
          </Node>
        </Node>
      </Node>
    </BinaryTree>
    <BinaryTree type="DecisionTree" boostWeight="1.0000000000000000e+00" itree="752">
      <Node pos="s" depth="0" NCoef="0" IVar="7" Cut="-6.6656696796417236e-01" cType="1" res="6.3982611754909158e-04" rms="3.8267484307289124e-01" purity="4.9800685048103333e-01" nType="0">
        <Node pos="l" depth="1" NCoef="0" IVar="8" Cut="6.6663801670074463e-01" cType="1" res="9.6863051876425743e-03" rms="3.7726569175720215e-01" purity="4.2235940694808960e-01" nType="0">
          <Node pos="l" depth="2" NCoef="0" IVar="7" Cut="-1.7840100526809692e+00" cType="1" res="1.5985950594767928e-03" rms="3.7919086217880249e-01" purity="4.3905913829803467e-01" nType="0">
            <Node pos="l" depth="3" NCoef="0" IVar="-1" Cut="0.0000000000000000e+00" cType="1" res="-1.2477220036089420e-02" rms="3.2819911837577820e-01" purity="2.0902597904205322e-01" nType="-99"/>
            <Node pos="r" depth="3" NCoef="0" IVar="-1" Cut="0.0000000000000000e+00" cType="1" res="3.4287606831640005e-03" rms="3.8993096351623535e-01" purity="4.9219647049903870e-01" nType="-99"/>
          </Node>
          <Node pos="r" depth="2" NCoef="0" IVar="9" Cut="-3.9946460723876953e-01" cType="1" res="3.3823810517787933e-02" rms="3.7041231989860535e-01" purity="3.7251967191696167e-01" nType="0">
            <Node pos="l" depth="3" NCoef="0" IVar="-1" Cut="0.0000000000000000e+00" cType="1" res="4.4735122472047806e-02" rms="3.8915568590164185e-01" purity="3.8001966476440430e-01" nType="-99"/>
            <Node pos="r" depth="3" NCoef="0" IVar="-1" Cut="0.0000000000000000e+00" cType="1" res="1.0626119561493397e-02" rms="3.5589370131492615e-01" purity="3.6743316054344177e-01" nType="-99"/>
          </Node>
        </Node>
        <Node pos="r" depth="1" NCoef="0" IVar="3" Cut="2.4163658142089844e+02" cType="1" res="-2.7461154386401176e-03" rms="3.8462513685226440e-01" purity="5.2632033824920654e-01" nType="0">
          <Node pos="l" depth="2" NCoef="0" IVar="5" Cut="1.0282029724121094e+02" cType="1" res="8.7363662896677852e-04" rms="3.9321789145469666e-01" purity="4.3761536478996277e-01" nType="0">
            <Node pos="l" depth="3" NCoef="0" IVar="-1" Cut="0.0000000000000000e+00" cType="1" res="2.9435779433697462e-03" rms="3.9751073718070984e-01" purity="3.5733601450920105e-01" nType="-99"/>
            <Node pos="r" depth="3" NCoef="0" IVar="-1" Cut="0.0000000000000000e+00" cType="1" res="-8.2289557904005051e-03" rms="3.7830954790115356e-01" purity="7.0473343133926392e-01" nType="-99"/>
          </Node>
          <Node pos="r" depth="2" NCoef="0" IVar="4" Cut="2.3861058044433594e+02" cType="1" res="-9.9316844716668129e-03" rms="3.6686617136001587e-01" purity="7.0240867137908936e-01" nType="0">
            <Node pos="l" depth="3" NCoef="0" IVar="-1" Cut="0.0000000000000000e+00" cType="1" res="-9.9292183294892311e-03" rms="3.7816035747528076e-01" purity="6.6295772790908813e-01" nType="-99"/>
            <Node pos="r" depth="3" NCoef="0" IVar="-1" Cut="0.0000000000000000e+00" cType="1" res="3.5404590889811516e-03" rms="3.2860809564590454e-01" purity="8.2597833871841431e-01" nType="-99"/>
          </Node>
        </Node>
      </Node>
    </BinaryTree>
    <BinaryTree type="DecisionTree" boostWeight="1.0000000000000000e+00" itree="753">
      <Node pos="s" depth="0" NCoef="0" IVar="9" Cut="1.1999222040176392e+00" cType="1" res="-3.6817186046391726e-03" rms="3.8052847981452942e-01" purity="4.9623769521713257e-01" nType="0">
        <Node pos="l" depth="1" NCoef="0" IVar="1" Cut="1.4052918701171875e+03" cType="1" res="-6.1983237974345684e-03" rms="3.7968999147415161e-01" purity="5.1308602094650269e-01" nType="0">
          <Node pos="l" depth="2" NCoef="0" IVar="7" Cut="-1.7331374883651733e+00" cType="1" res="-1.0597096756100655e-02" rms="3.9680260419845581e-01" purity="3.6902952194213867e-01" nType="0">
            <Node pos="l" depth="3" NCoef="0" IVar="-1" Cut="0.0000000000000000e+00" cType="1" res="2.1077683195471764e-02" rms="3.3737882971763611e-01" purity="1.9099320471286774e-01" nType="-99"/>
            <Node pos="r" depth="3" NCoef="0" IVar="-1" Cut="0.0000000000000000e+00" cType="1" res="-8.0700134858489037e-03" rms="4.0132990479469299e-01" purity="3.8418021798133850e-01" nType="-99"/>
          </Node>
          <Node pos="r" depth="2" NCoef="0" IVar="7" Cut="-9.3270725011825562e-01" cType="1" res="1.2301625683903694e-03" rms="3.4876447916030884e-01" purity="7.5636339187622070e-01" nType="0">
            <Node pos="l" depth="3" NCoef="0" IVar="-1" Cut="0.0000000000000000e+00" cType="1" res="-1.3547039590775967e-02" rms="3.6593714356422424e-01" purity="6.1778032779693604e-01" nType="-99"/>
            <Node pos="r" depth="3" NCoef="0" IVar="-1" Cut="0.0000000000000000e+00" cType="1" res="4.0828483179211617e-03" rms="3.4546861052513123e-01" purity="7.8112190961837769e-01" nType="-99"/>
          </Node>
        </Node>
        <Node pos="r" depth="1" NCoef="0" IVar="7" Cut="-1.3322734832763672e-01" cType="1" res="8.2952771335840225e-03" rms="3.8426813483238220e-01" purity="4.1605332493782043e-01" nType="0">
          <Node pos="l" depth="2" NCoef="0" IVar="9" Cut="1.7331223487854004e+00" cType="1" res="-6.1176568269729614e-03" rms="3.7829113006591797e-01" purity="4.1195592284202576e-01" nType="0">
            <Node pos="l" depth="3" NCoef="0" IVar="-1" Cut="0.0000000000000000e+00" cType="1" res="2.8843304608017206e-03" rms="3.9117899537086487e-01" purity="4.7170999646186829e-01" nType="-99"/>
            <Node pos="r" depth="3" NCoef="0" IVar="-1" Cut="0.0000000000000000e+00" cType="1" res="-1.2144483625888824e-02" rms="3.6402249336242676e-01" purity="3.4955173730850220e-01" nType="-99"/>
          </Node>
          <Node pos="r" depth="2" NCoef="0" IVar="9" Cut="2.0379986763000488e+00" cType="1" res="1.7263369634747505e-02" rms="3.8767039775848389e-01" purity="4.1860288381576538e-01" nType="0">
            <Node pos="l" depth="3" NCoef="0" IVar="-1" Cut="0.0000000000000000e+00" cType="1" res="4.3018958531320095e-03" rms="3.9276137948036194e-01" purity="4.2583611607551575e-01" nType="-99"/>
            <Node pos="r" depth="3" NCoef="0" IVar="-1" Cut="0.0000000000000000e+00" cType="1" res="2.8621183708310127e-02" rms="3.7539952993392944e-01" purity="4.0300160646438599e-01" nType="-99"/>
          </Node>
        </Node>
      </Node>
    </BinaryTree>
    <BinaryTree type="DecisionTree" boostWeight="1.0000000000000000e+00" itree="754">
      <Node pos="s" depth="0" NCoef="0" IVar="5" Cut="7.6823875427246094e+01" cType="1" res="1.0802632896229625e-03" rms="3.8335952162742615e-01" purity="4.9729159474372864e-01" nType="0">
        <Node pos="l" depth="1" NCoef="0" IVar="8" Cut="-6.6651725769042969e-01" cType="1" res="-6.5362812019884586e-03" rms="3.7844306230545044e-01" purity="3.0308949947357178e-01" nType="0">
          <Node pos="l" depth="2" NCoef="0" IVar="8" Cut="-9.7125262022018433e-01" cType="1" res="3.9916988462209702e-03" rms="3.7321659922599792e-01" purity="2.7779695391654968e-01" nType="0">
            <Node pos="l" depth="3" NCoef="0" IVar="-1" Cut="0.0000000000000000e+00" cType="1" res="-3.3280637580901384e-03" rms="3.5685428977012634e-01" purity="2.3656061291694641e-01" nType="-99"/>
            <Node pos="r" depth="3" NCoef="0" IVar="-1" Cut="0.0000000000000000e+00" cType="1" res="1.7533903941512108e-02" rms="4.1618925333023071e-01" purity="3.9766323566436768e-01" nType="-99"/>
          </Node>
          <Node pos="r" depth="2" NCoef="0" IVar="8" Cut="1.6443877220153809e+00" cType="1" res="-1.1373676359653473e-02" rms="3.8072288036346436e-01" purity="3.1471088528633118e-01" nType="0">
            <Node pos="l" depth="3" NCoef="0" IVar="-1" Cut="0.0000000000000000e+00" cType="1" res="-9.6911899745464325e-03" rms="3.8954573869705200e-01" purity="3.3608955144882202e-01" nType="-99"/>
            <Node pos="r" depth="3" NCoef="0" IVar="-1" Cut="0.0000000000000000e+00" cType="1" res="9.2934388667345047e-03" rms="3.2564625144004822e-01" purity="1.9408941268920898e-01" nType="-99"/>
          </Node>
        </Node>
        <Node pos="r" depth="1" NCoef="0" IVar="1" Cut="1.3803807373046875e+03" cType="1" res="7.1426886133849621e-03" rms="3.8712108135223389e-01" purity="6.5186774730682373e-01" nType="0">
          <Node pos="l" depth="2" NCoef="0" IVar="3" Cut="1.6233389282226562e+02" cType="1" res="1.7763728275895119e-02" rms="4.2424660921096802e-01" purity="5.1151472330093384e-01" nType="0">
            <Node pos="l" depth="3" NCoef="0" IVar="-1" Cut="0.0000000000000000e+00" cType="1" res="-5.9002765920013189e-04" rms="4.2534691095352173e-01" purity="3.8996657729148865e-01" nType="-99"/>
            <Node pos="r" depth="3" NCoef="0" IVar="-1" Cut="0.0000000000000000e+00" cType="1" res="1.5089023858308792e-02" rms="4.2335876822471619e-01" purity="5.7375061511993408e-01" nType="-99"/>
          </Node>
          <Node pos="r" depth="2" NCoef="0" IVar="5" Cut="1.0237051391601562e+02" cType="1" res="-2.7332289610058069e-03" rms="3.4878522157669067e-01" purity="7.8237414360046387e-01" nType="0">
            <Node pos="l" depth="3" NCoef="0" IVar="-1" Cut="0.0000000000000000e+00" cType="1" res="-1.3374353758990765e-02" rms="3.9509940147399902e-01" purity="6.6833758354187012e-01" nType="-99"/>
            <Node pos="r" depth="3" NCoef="0" IVar="-1" Cut="0.0000000000000000e+00" cType="1" res="3.1084411311894655e-03" rms="3.3058172464370728e-01" purity="8.2282990217208862e-01" nType="-99"/>
          </Node>
        </Node>
      </Node>
    </BinaryTree>
    <BinaryTree type="DecisionTree" boostWeight="1.0000000000000000e+00" itree="755">
      <Node pos="s" depth="0" NCoef="0" IVar="9" Cut="1.3334858417510986e-01" cType="1" res="2.8471210971474648e-03" rms="3.8273632526397705e-01" purity="4.9992901086807251e-01" nType="0">
        <Node pos="l" depth="1" NCoef="0" IVar="4" Cut="9.1657943725585938e+01" cType="1" res="-2.2222683764994144e-03" rms="3.8322007656097412e-01" purity="5.0217634439468384e-01" nType="0">
          <Node pos="l" depth="2" NCoef="0" IVar="5" Cut="6.7698432922363281e+01" cType="1" res="-1.5312022529542446e-02" rms="3.5391935706138611e-01" purity="2.1012197434902191e-01" nType="0">
            <Node pos="l" depth="3" NCoef="0" IVar="-1" Cut="0.0000000000000000e+00" cType="1" res="-1.8972972407937050e-02" rms="3.3445426821708679e-01" purity="1.6342759132385254e-01" nType="-99"/>
            <Node pos="r" depth="3" NCoef="0" IVar="-1" Cut="0.0000000000000000e+00" cType="1" res="2.6178632397204638e-03" rms="3.9773797988891602e-01" purity="3.2676020264625549e-01" nType="-99"/>
          </Node>
          <Node pos="r" depth="2" NCoef="0" IVar="5" Cut="7.7447822570800781e+01" cType="1" res="2.0069014281034470e-03" rms="3.9212587475776672e-01" purity="5.9653621912002563e-01" nType="0">
            <Node pos="l" depth="3" NCoef="0" IVar="-1" Cut="0.0000000000000000e+00" cType="1" res="7.1142492815852165e-03" rms="4.1427850723266602e-01" purity="4.3429929018020630e-01" nType="-99"/>
            <Node pos="r" depth="3" NCoef="0" IVar="-1" Cut="0.0000000000000000e+00" cType="1" res="-1.7464520642533898e-03" rms="3.8169008493423462e-01" purity="6.6926556825637817e-01" nType="-99"/>
          </Node>
        </Node>
        <Node pos="r" depth="1" NCoef="0" IVar="1" Cut="1.3896977539062500e+03" cType="1" res="8.8022910058498383e-03" rms="3.8208132982254028e-01" purity="4.9728900194168091e-01" nType="0">
          <Node pos="l" depth="2" NCoef="0" IVar="2" Cut="3.8505691528320312e+02" cType="1" res="1.4454292133450508e-02" rms="3.9415743947029114e-01" purity="3.6517032980918884e-01" nType="0">
            <Node pos="l" depth="3" NCoef="0" IVar="-1" Cut="0.0000000000000000e+00" cType="1" res="1.1991770938038826e-02" rms="4.0131059288978577e-01" purity="3.9322188496589661e-01" nType="-99"/>
            <Node pos="r" depth="3" NCoef="0" IVar="-1" Cut="0.0000000000000000e+00" cType="1" res="-3.8604473229497671e-03" rms="3.6308607459068298e-01" purity="2.5158372521400452e-01" nType="-99"/>
          </Node>
          <Node pos="r" depth="2" NCoef="0" IVar="6" Cut="-5.9905487298965454e-01" cType="1" res="-1.2775089126080275e-03" rms="3.5931888222694397e-01" purity="7.3290985822677612e-01" nType="0">
            <Node pos="l" depth="3" NCoef="0" IVar="-1" Cut="0.0000000000000000e+00" cType="1" res="-1.3084597885608673e-02" rms="3.7963873147964478e-01" purity="6.3774049282073975e-01" nType="-99"/>
            <Node pos="r" depth="3" NCoef="0" IVar="-1" Cut="0.0000000000000000e+00" cType="1" res="2.3823131341487169e-03" rms="3.5410228371620178e-01" purity="7.5588440895080566e-01" nType="-99"/>
          </Node>
        </Node>
      </Node>
    </BinaryTree>
    <BinaryTree type="DecisionTree" boostWeight="1.0000000000000000e+00" itree="756">
      <Node pos="s" depth="0" NCoef="0" IVar="6" Cut="1.2127366065979004e+00" cType="1" res="3.1442023464478552e-04" rms="3.8182070851325989e-01" purity="4.9891692399978638e-01" nType="0">
        <Node pos="l" depth="1" NCoef="0" IVar="6" Cut="8.3482950925827026e-01" cType="1" res="1.7462237738072872e-03" rms="3.8727939128875732e-01" purity="5.2954423427581787e-01" nType="0">
          <Node pos="l" depth="2" NCoef="0" IVar="9" Cut="-1.4665753841400146e+00" cType="1" res="-5.2352210332173854e-05" rms="3.8539972901344299e-01" purity="5.3691422939300537e-01" nType="0">
            <Node pos="l" depth="3" NCoef="0" IVar="-1" Cut="0.0000000000000000e+00" cType="1" res="9.7548309713602066e-03" rms="3.8162085413932800e-01" purity="4.4094508886337280e-01" nType="-99"/>
            <Node pos="r" depth="3" NCoef="0" IVar="-1" Cut="0.0000000000000000e+00" cType="1" res="-1.4331978745758533e-03" rms="3.8590505719184875e-01" purity="5.5100065469741821e-01" nType="-99"/>
          </Node>
          <Node pos="r" depth="2" NCoef="0" IVar="5" Cut="7.6429954528808594e+01" cType="1" res="1.8420519307255745e-02" rms="4.0390849113464355e-01" purity="4.6121782064437866e-01" nType="0">
            <Node pos="l" depth="3" NCoef="0" IVar="-1" Cut="0.0000000000000000e+00" cType="1" res="3.0875429511070251e-02" rms="3.9860653877258301e-01" purity="2.9013997316360474e-01" nType="-99"/>
            <Node pos="r" depth="3" NCoef="0" IVar="-1" Cut="0.0000000000000000e+00" cType="1" res="-1.2583388015627861e-03" rms="4.0708294510841370e-01" purity="6.0199099779129028e-01" nType="-99"/>
          </Node>
        </Node>
        <Node pos="r" depth="1" NCoef="0" IVar="2" Cut="3.8147583007812500e+02" cType="1" res="-1.1905085295438766e-02" rms="3.3134686946868896e-01" purity="2.3753315210342407e-01" nType="0">
          <Node pos="l" depth="2" NCoef="0" IVar="6" Cut="1.6661951541900635e+00" cType="1" res="-2.1133124828338623e-02" rms="3.2904362678527832e-01" purity="2.1905298531055450e-01" nType="0">
            <Node pos="l" depth="3" NCoef="0" IVar="-1" Cut="0.0000000000000000e+00" cType="1" res="-3.0194433405995369e-02" rms="3.3985146880149841e-01" purity="2.6513096690177917e-01" nType="-99"/>
            <Node pos="r" depth="3" NCoef="0" IVar="-1" Cut="0.0000000000000000e+00" cType="1" res="-1.3143683318048716e-03" rms="3.1617081165313721e-01" purity="1.7102725803852081e-01" nType="-99"/>
          </Node>
          <Node pos="r" depth="2" NCoef="0" IVar="-1" Cut="0.0000000000000000e+00" cType="1" res="6.6839298233389854e-03" rms="3.3530652523040771e-01" purity="2.7633929252624512e-01" nType="-99"/>
        </Node>
      </Node>
    </BinaryTree>
    <BinaryTree type="DecisionTree" boostWeight="1.0000000000000000e+00" itree="757">
      <Node pos="s" depth="0" NCoef="0" IVar="4" Cut="1.4473245239257812e+02" cType="1" res="-2.2748019546270370e-03" rms="3.8158398866653442e-01" purity="4.9579471349716187e-01" nType="0">
        <Node pos="l" depth="1" NCoef="0" IVar="6" Cut="6.8002837896347046e-01" cType="1" res="-5.8472864329814911e-03" rms="3.8871914148330688e-01" purity="3.5565626621246338e-01" nType="0">
          <Node pos="l" depth="2" NCoef="0" IVar="4" Cut="8.6116950988769531e+01" cType="1" res="-9.8519939929246902e-03" rms="3.9793094992637634e-01" purity="3.8615223765373230e-01" nType="0">
            <Node pos="l" depth="3" NCoef="0" IVar="-1" Cut="0.0000000000000000e+00" cType="1" res="4.3114507570862770e-04" rms="3.6502617597579956e-01" purity="2.2279821336269379e-01" nType="-99"/>
            <Node pos="r" depth="3" NCoef="0" IVar="-1" Cut="0.0000000000000000e+00" cType="1" res="-8.6326245218515396e-03" rms="4.1322734951972961e-01" purity="4.6741613745689392e-01" nType="-99"/>
          </Node>
          <Node pos="r" depth="2" NCoef="0" IVar="4" Cut="9.0637702941894531e+01" cType="1" res="5.6289364583790302e-03" rms="3.6077529191970825e-01" purity="2.6826459169387817e-01" nType="0">
            <Node pos="l" depth="3" NCoef="0" IVar="-1" Cut="0.0000000000000000e+00" cType="1" res="-1.3854543678462505e-02" rms="2.9764810204505920e-01" purity="1.2862366437911987e-01" nType="-99"/>
            <Node pos="r" depth="3" NCoef="0" IVar="-1" Cut="0.0000000000000000e+00" cType="1" res="1.2057941406965256e-02" rms="3.9850685000419617e-01" purity="3.6597645282745361e-01" nType="-99"/>
          </Node>
        </Node>
        <Node pos="r" depth="1" NCoef="0" IVar="6" Cut="-1.1459136009216309e+00" cType="1" res="3.3733372110873461e-03" rms="3.6995220184326172e-01" purity="7.1735519170761108e-01" nType="0">
          <Node pos="l" depth="2" NCoef="0" IVar="-1" Cut="0.0000000000000000e+00" cType="1" res="1.7583180218935013e-02" rms="4.0143564343452454e-01" purity="5.1508468389511108e-01" nType="-99"/>
          <Node pos="r" depth="2" NCoef="0" IVar="7" Cut="-1.2000312805175781e+00" cType="1" res="7.7580171637237072e-04" rms="3.6641189455986023e-01" purity="7.3847341537475586e-01" nType="0">
            <Node pos="l" depth="3" NCoef="0" IVar="-1" Cut="0.0000000000000000e+00" cType="1" res="1.3986974023282528e-02" rms="3.9556777477264404e-01" purity="5.7121700048446655e-01" nType="-99"/>
            <Node pos="r" depth="3" NCoef="0" IVar="-1" Cut="0.0000000000000000e+00" cType="1" res="-1.2535065179690719e-03" rms="3.6287611722946167e-01" purity="7.5744688510894775e-01" nType="-99"/>
          </Node>
        </Node>
      </Node>
    </BinaryTree>
    <BinaryTree type="DecisionTree" boostWeight="1.0000000000000000e+00" itree="758">
      <Node pos="s" depth="0" NCoef="0" IVar="9" Cut="1.7333316802978516e+00" cType="1" res="2.8790679061785340e-04" rms="3.7914738059043884e-01" purity="5.0162011384963989e-01" nType="0">
        <Node pos="l" depth="1" NCoef="0" IVar="2" Cut="3.5034561157226562e+02" cType="1" res="1.6469587571918964e-03" rms="3.8000774383544922e-01" purity="5.1492100954055786e-01" nType="0">
          <Node pos="l" depth="2" NCoef="0" IVar="3" Cut="1.7879541015625000e+02" cType="1" res="5.9874947182834148e-03" rms="3.8736820220947266e-01" purity="4.8224484920501709e-01" nType="0">
            <Node pos="l" depth="3" NCoef="0" IVar="-1" Cut="0.0000000000000000e+00" cType="1" res="9.6436161547899246e-03" rms="3.9309868216514587e-01" purity="3.2895961403846741e-01" nType="-99"/>
            <Node pos="r" depth="3" NCoef="0" IVar="-1" Cut="0.0000000000000000e+00" cType="1" res="-1.5526101924479008e-03" rms="3.8162747025489807e-01" purity="6.2864816188812256e-01" nType="-99"/>
          </Node>
          <Node pos="r" depth="2" NCoef="0" IVar="6" Cut="6.8374133110046387e-01" cType="1" res="-3.1442851759493351e-03" rms="3.7165492773056030e-01" purity="5.5099016427993774e-01" nType="0">
            <Node pos="l" depth="3" NCoef="0" IVar="-1" Cut="0.0000000000000000e+00" cType="1" res="2.1697899501305073e-04" rms="3.7447774410247803e-01" purity="5.8857327699661255e-01" nType="-99"/>
            <Node pos="r" depth="3" NCoef="0" IVar="-1" Cut="0.0000000000000000e+00" cType="1" res="-1.2433170340955257e-02" rms="3.6015367507934570e-01" purity="4.0485614538192749e-01" nType="-99"/>
          </Node>
        </Node>
        <Node pos="r" depth="1" NCoef="0" IVar="4" Cut="9.7594444274902344e+01" cType="1" res="-1.4436228200793266e-02" rms="3.6937761306762695e-01" purity="3.5751679539680481e-01" nType="0">
          <Node pos="l" depth="2" NCoef="0" IVar="-1" Cut="0.0000000000000000e+00" cType="1" res="9.2732086777687073e-03" rms="3.3823746442794800e-01" purity="1.8565356731414795e-01" nType="-99"/>
          <Node pos="r" depth="2" NCoef="0" IVar="4" Cut="1.4267474365234375e+02" cType="1" res="-2.9576087370514870e-02" rms="3.8642415404319763e-01" purity="4.6271225810050964e-01" nType="0">
            <Node pos="l" depth="3" NCoef="0" IVar="-1" Cut="0.0000000000000000e+00" cType="1" res="-8.5131656378507614e-03" rms="3.7816807627677917e-01" purity="3.9091089367866516e-01" nType="-99"/>
            <Node pos="r" depth="3" NCoef="0" IVar="-1" Cut="0.0000000000000000e+00" cType="1" res="-2.9839970171451569e-02" rms="3.9462462067604065e-01" purity="5.4188334941864014e-01" nType="-99"/>
          </Node>
        </Node>
      </Node>
    </BinaryTree>
    <BinaryTree type="DecisionTree" boostWeight="1.0000000000000000e+00" itree="759">
      <Node pos="s" depth="0" NCoef="0" IVar="8" Cut="-1.4665638208389282e+00" cType="1" res="2.5186110287904739e-03" rms="3.8371998071670532e-01" purity="5.0243854522705078e-01" nType="0">
        <Node pos="l" depth="1" NCoef="0" IVar="8" Cut="-1.6570410728454590e+00" cType="1" res="2.1207600831985474e-02" rms="3.7953895330429077e-01" purity="3.3570250868797302e-01" nType="0">
          <Node pos="l" depth="2" NCoef="0" IVar="8" Cut="-2.0379683971405029e+00" cType="1" res="1.3037240132689476e-02" rms="3.6633312702178955e-01" purity="3.0350899696350098e-01" nType="0">
            <Node pos="l" depth="3" NCoef="0" IVar="-1" Cut="0.0000000000000000e+00" cType="1" res="2.7118509635329247e-02" rms="3.7072175741195679e-01" purity="2.7486595511436462e-01" nType="-99"/>
            <Node pos="r" depth="3" NCoef="0" IVar="-1" Cut="0.0000000000000000e+00" cType="1" res="-6.4484239555895329e-03" rms="3.6032104492187500e-01" purity="3.3361110091209412e-01" nType="-99"/>
          </Node>
          <Node pos="r" depth="2" NCoef="0" IVar="-1" Cut="0.0000000000000000e+00" cType="1" res="2.9948731884360313e-02" rms="4.1666021943092346e-01" purity="4.3505534529685974e-01" nType="-99"/>
        </Node>
        <Node pos="r" depth="1" NCoef="0" IVar="2" Cut="6.5103710937500000e+02" cType="1" res="2.8775393730029464e-04" rms="3.8415530323982239e-01" purity="5.2234137058258057e-01" nType="0">
          <Node pos="l" depth="2" NCoef="0" IVar="3" Cut="1.0783419799804688e+02" cType="1" res="-1.4256751164793968e-03" rms="3.8323864340782166e-01" purity="5.1498442888259888e-01" nType="0">
            <Node pos="l" depth="3" NCoef="0" IVar="-1" Cut="0.0000000000000000e+00" cType="1" res="-2.0846372470259666e-02" rms="3.0341616272926331e-01" purity="1.2340705841779709e-01" nType="-99"/>
            <Node pos="r" depth="3" NCoef="0" IVar="-1" Cut="0.0000000000000000e+00" cType="1" res="3.4077113377861679e-04" rms="3.8990819454193115e-01" purity="5.5213570594787598e-01" nType="-99"/>
          </Node>
          <Node pos="r" depth="2" NCoef="0" IVar="6" Cut="-8.8563878089189529e-03" cType="1" res="2.6053598150610924e-02" rms="3.9679366350173950e-01" purity="6.3297230005264282e-01" nType="0">
            <Node pos="l" depth="3" NCoef="0" IVar="-1" Cut="0.0000000000000000e+00" cType="1" res="8.8546713814139366e-03" rms="3.9446544647216797e-01" purity="6.1301511526107788e-01" nType="-99"/>
            <Node pos="r" depth="3" NCoef="0" IVar="-1" Cut="0.0000000000000000e+00" cType="1" res="2.2181112319231033e-02" rms="3.9864838123321533e-01" purity="6.5160626173019409e-01" nType="-99"/>
          </Node>
        </Node>
      </Node>
    </BinaryTree>
    <BinaryTree type="DecisionTree" boostWeight="1.0000000000000000e+00" itree="760">
      <Node pos="s" depth="0" NCoef="0" IVar="7" Cut="-1.3331821560859680e-01" cType="1" res="1.3359407894313335e-03" rms="3.8483119010925293e-01" purity="4.9895933270454407e-01" nType="0">
        <Node pos="l" depth="1" NCoef="0" IVar="6" Cut="-1.4289689064025879e+00" cType="1" res="8.3526596426963806e-03" rms="3.8492822647094727e-01" purity="4.9707901477813721e-01" nType="0">
          <Node pos="l" depth="2" NCoef="0" IVar="-1" Cut="0.0000000000000000e+00" cType="1" res="-1.7167825251817703e-02" rms="2.9846784472465515e-01" purity="1.9096666574478149e-01" nType="-99"/>
          <Node pos="r" depth="2" NCoef="0" IVar="1" Cut="1.1048660888671875e+03" cType="1" res="1.0674040764570236e-02" rms="3.9129912853240967e-01" purity="5.2305597066879272e-01" nType="0">
            <Node pos="l" depth="3" NCoef="0" IVar="-1" Cut="0.0000000000000000e+00" cType="1" res="1.4859653078019619e-02" rms="3.9514699578285217e-01" purity="2.7193489670753479e-01" nType="-99"/>
            <Node pos="r" depth="3" NCoef="0" IVar="-1" Cut="0.0000000000000000e+00" cType="1" res="3.4980883356183767e-03" rms="3.8942509889602661e-01" purity="6.3694512844085693e-01" nType="-99"/>
          </Node>
        </Node>
        <Node pos="r" depth="1" NCoef="0" IVar="7" Cut="1.6825214624404907e+00" cType="1" res="-4.6316469088196754e-03" rms="3.8464793562889099e-01" purity="5.0055849552154541e-01" nType="0">
          <Node pos="l" depth="2" NCoef="0" IVar="7" Cut="-4.6844869852066040e-02" cType="1" res="-7.3062353767454624e-03" rms="3.8801258802413940e-01" purity="5.3413808345794678e-01" nType="0">
